{
  "version": "1.0",
  "truncation": null,
  "padding": null,
  "added_tokens": [
    {
      "id": 0,
      "content": "<s>",
      "single_word": false,
      "lstrip": false,
      "rstrip": false,
      "normalized": false,
      "special": true
    },
    {
      "id": 1,
      "content": "</s>",
      "single_word": false,
      "lstrip": false,
      "rstrip": false,
      "normalized": false,
      "special": true
    },
    {
      "id": 2,
      "content": "<unk>",
      "single_word": false,
      "lstrip": false,
      "rstrip": false,
      "normalized": false,
      "special": true
    },
    {
      "id": 3,
      "content": "<pad>",
      "single_word": false,
      "lstrip": false,
      "rstrip": false,
      "normalized": false,
      "special": true
    },
    {
      "id": 4,
      "content": "<mask>",
      "single_word": false,
      "lstrip": false,
      "rstrip": false,
      "normalized": false,
      "special": true
    },
    {
      "id": 5,
      "content": "<sw>",
      "single_word": false,
      "lstrip": false,
      "rstrip": false,
      "normalized": false,
      "special": true
    }
  ],
  "normalizer": null,
  "pre_tokenizer": {
    "type": "ByteLevel",
    "add_prefix_space": false,
    "trim_offsets": true,
    "use_regex": true
  },
  "post_processor": {
    "type": "ByteLevel",
    "add_prefix_space": true,
    "trim_offsets": false,
    "use_regex": true
  },
  "decoder": {
    "type": "ByteLevel",
    "add_prefix_space": true,
    "trim_offsets": true,
    "use_regex": true
  },
  "model": {
    "type": "BPE",
    "dropout": null,
    "unk_token": null,
    "continuing_subword_prefix": null,
    "end_of_word_suffix": null,
    "fuse_unk": false,
    "byte_fallback": false,
    "ignore_merges": false,
    "vocab": {
      "<s>": 0,
      "</s>": 1,
      "<unk>": 2,
      "<pad>": 3,
      "<mask>": 4,
      "<sw>": 5,
      "!": 6,
      "\"": 7,
      "#": 8,
      "$": 9,
      "%": 10,
      "&": 11,
      "'": 12,
      "(": 13,
      ")": 14,
      "*": 15,
      "+": 16,
      ",": 17,
      "-": 18,
      ".": 19,
      "/": 20,
      "0": 21,
      "1": 22,
      "2": 23,
      "3": 24,
      "4": 25,
      "5": 26,
      "6": 27,
      "7": 28,
      "8": 29,
      "9": 30,
      ":": 31,
      ";": 32,
      "<": 33,
      "=": 34,
      ">": 35,
      "?": 36,
      "@": 37,
      "A": 38,
      "B": 39,
      "C": 40,
      "D": 41,
      "E": 42,
      "F": 43,
      "G": 44,
      "H": 45,
      "I": 46,
      "J": 47,
      "K": 48,
      "L": 49,
      "M": 50,
      "N": 51,
      "O": 52,
      "P": 53,
      "Q": 54,
      "R": 55,
      "S": 56,
      "T": 57,
      "U": 58,
      "V": 59,
      "W": 60,
      "X": 61,
      "Y": 62,
      "Z": 63,
      "[": 64,
      "\\": 65,
      "]": 66,
      "^": 67,
      "_": 68,
      "`": 69,
      "a": 70,
      "b": 71,
      "c": 72,
      "d": 73,
      "e": 74,
      "f": 75,
      "g": 76,
      "h": 77,
      "i": 78,
      "j": 79,
      "k": 80,
      "l": 81,
      "m": 82,
      "n": 83,
      "o": 84,
      "p": 85,
      "q": 86,
      "r": 87,
      "s": 88,
      "t": 89,
      "u": 90,
      "v": 91,
      "w": 92,
      "x": 93,
      "y": 94,
      "z": 95,
      "{": 96,
      "|": 97,
      "}": 98,
      "~": 99,
      "¡": 100,
      "¢": 101,
      "£": 102,
      "¤": 103,
      "¥": 104,
      "¦": 105,
      "§": 106,
      "¨": 107,
      "©": 108,
      "ª": 109,
      "«": 110,
      "¬": 111,
      "®": 112,
      "¯": 113,
      "°": 114,
      "±": 115,
      "²": 116,
      "³": 117,
      "´": 118,
      "µ": 119,
      "¶": 120,
      "·": 121,
      "¸": 122,
      "¹": 123,
      "º": 124,
      "»": 125,
      "¼": 126,
      "½": 127,
      "¾": 128,
      "¿": 129,
      "À": 130,
      "Á": 131,
      "Â": 132,
      "Ã": 133,
      "Ä": 134,
      "Å": 135,
      "Æ": 136,
      "Ç": 137,
      "È": 138,
      "É": 139,
      "Ê": 140,
      "Ë": 141,
      "Ì": 142,
      "Í": 143,
      "Î": 144,
      "Ï": 145,
      "Ð": 146,
      "Ñ": 147,
      "Ò": 148,
      "Ó": 149,
      "Ô": 150,
      "Õ": 151,
      "Ö": 152,
      "×": 153,
      "Ø": 154,
      "Ù": 155,
      "Ú": 156,
      "Û": 157,
      "Ü": 158,
      "Ý": 159,
      "Þ": 160,
      "ß": 161,
      "à": 162,
      "á": 163,
      "â": 164,
      "ã": 165,
      "ä": 166,
      "å": 167,
      "æ": 168,
      "ç": 169,
      "è": 170,
      "é": 171,
      "ê": 172,
      "ë": 173,
      "ì": 174,
      "í": 175,
      "î": 176,
      "ï": 177,
      "ð": 178,
      "ñ": 179,
      "ò": 180,
      "ó": 181,
      "ô": 182,
      "õ": 183,
      "ö": 184,
      "÷": 185,
      "ø": 186,
      "ù": 187,
      "ú": 188,
      "û": 189,
      "ü": 190,
      "ý": 191,
      "þ": 192,
      "ÿ": 193,
      "Ā": 194,
      "ā": 195,
      "Ă": 196,
      "ă": 197,
      "Ą": 198,
      "ą": 199,
      "Ć": 200,
      "ć": 201,
      "Ĉ": 202,
      "ĉ": 203,
      "Ċ": 204,
      "ċ": 205,
      "Č": 206,
      "č": 207,
      "Ď": 208,
      "ď": 209,
      "Đ": 210,
      "đ": 211,
      "Ē": 212,
      "ē": 213,
      "Ĕ": 214,
      "ĕ": 215,
      "Ė": 216,
      "ė": 217,
      "Ę": 218,
      "ę": 219,
      "Ě": 220,
      "ě": 221,
      "Ĝ": 222,
      "ĝ": 223,
      "Ğ": 224,
      "ğ": 225,
      "Ġ": 226,
      "ġ": 227,
      "Ģ": 228,
      "ģ": 229,
      "Ĥ": 230,
      "ĥ": 231,
      "Ħ": 232,
      "ħ": 233,
      "Ĩ": 234,
      "ĩ": 235,
      "Ī": 236,
      "ī": 237,
      "Ĭ": 238,
      "ĭ": 239,
      "Į": 240,
      "į": 241,
      "İ": 242,
      "ı": 243,
      "Ĳ": 244,
      "ĳ": 245,
      "Ĵ": 246,
      "ĵ": 247,
      "Ķ": 248,
      "ķ": 249,
      "ĸ": 250,
      "Ĺ": 251,
      "ĺ": 252,
      "Ļ": 253,
      "ļ": 254,
      "Ľ": 255,
      "ľ": 256,
      "Ŀ": 257,
      "ŀ": 258,
      "Ł": 259,
      "ł": 260,
      "Ń": 261,
      "wa": 262,
      "Ġk": 263,
      "na": 264,
      "Ġm": 265,
      "li": 266,
      "Ġwa": 267,
      "ha": 268,
      "ya": 269,
      "ka": 270,
      "Ġku": 271,
      "ni": 272,
      "čĊ": 273,
      "Ġya": 274,
      "ta": 275,
      "Ġna": 276,
      "hi": 277,
      "ng": 278,
      "Ġa": 279,
      "ba": 280,
      "ma": 281,
      "za": 282,
      "Ġu": 283,
      "Ġma": 284,
      "ti": 285,
      "Ġs": 286,
      "zi": 287,
      "ri": 288,
      "la": 289,
      "nd": 290,
      "ku": 291,
      "ki": 292,
      "we": 293,
      "tu": 294,
      "Ġka": 295,
      "si": 296,
      "Ġi": 297,
      "ra": 298,
      "Ġkwa": 299,
      "yo": 300,
      "hu": 301,
      "le": 302,
      "Ġha": 303,
      "ji": 304,
      "Ġc": 305,
      "Ġki": 306,
      "me": 307,
      "to": 308,
      "mi": 309,
      "fa": 310,
      "ye": 311,
      "sa": 312,
      "Ġni": 313,
      "ja": 314,
      "te": 315,
      "pa": 316,
      "sha": 317,
      "mba": 318,
      "ke": 319,
      "Ġhi": 320,
      "he": 321,
      "di": 322,
      "Ġv": 323,
      "bu": 324,
      "bi": 325,
      "Ġza": 326,
      "fu": 327,
      "ko": 328,
      "da": 329,
      "mu": 330,
      "Ġn": 331,
      "po": 332,
      "pi": 333,
      "ĠM": 334,
      "Ġsa": 335,
      "Ġla": 336,
      "Ġkati": 337,
      "shi": 338,
      "nga": 339,
      "ne": 340,
      "zo": 341,
      "Ġhu": 342,
      "Ġvi": 343,
      "ngi": 344,
      "Ġmi": 345,
      "nda": 346,
      "ho": 347,
      "re": 348,
      "nye": 349,
      "Ġtu": 350,
      "ngu": 351,
      "Ġkatika": 352,
      "Ġwana": 353,
      "Ġta": 354,
      "Ġkuwa": 355,
      "se": 356,
      "Ġba": 357,
      "Ġali": 358,
      "mo": 359,
      "Ġcha": 360,
      "ĠčĊ": 361,
      "kuwa": 362,
      "bo": 363,
      "ele": 364,
      "no": 365,
      "ru": 366,
      "ndi": 367,
      "nge": 368,
      "ju": 369,
      "Ġsi": 370,
      "chi": 371,
      "ngo": 372,
      "fi": 373,
      "wi": 374,
      "nza": 375,
      "pe": 376,
      "wenye": 377,
      "ga": 378,
      "Ġili": 379,
      "je": 380,
      "lo": 381,
      "ĠK": 382,
      "nya": 383,
      "cha": 384,
      "Ġzi": 385,
      "Ġamba": 386,
      "ĠS": 387,
      "Ġcr": 388,
      "be": 389,
      "Ġkama": 390,
      "rika": 391,
      "Ġd": 392,
      "Ġmwa": 393,
      "sema": 394,
      "vyo": 395,
      "go": 396,
      "ze": 397,
      "..": 398,
      "ro": 399,
      "Ġwali": 400,
      "su": 401,
      "Ġse": 402,
      "Ġli": 403,
      "Ġina": 404,
      "Ġwe": 405,
      "gu": 406,
      "Ġkuto": 407,
      "Ġmu": 408,
      "Ġana": 409,
      "lia": 410,
      "Ġt": 411,
      "yi": 412,
      "Ġe": 413,
      "ĠW": 414,
      "nia": 415,
      "dha": 416,
      "mbo": 417,
      "nzi": 418,
      "nu": 419,
      "Ġnchi": 420,
      "zu": 421,
      "Ġpa": 422,
      "Ġo": 423,
      "ge": 424,
      "vu": 425,
      "kati": 426,
      "fanya": 427,
      "ndo": 428,
      "cho": 429,
      "sh": 430,
      "mia": 431,
      "Ġhiyo": 432,
      "Ġwatu": 433,
      "ĠB": 434,
      "vi": 435,
      "rikali": 436,
      "end": 437,
      "Ġbi": 438,
      "moja": 439,
      "kini": 440,
      "Ġuna": 441,
      "bwa": 442,
      "ĠMa": 443,
      "dhi": 444,
      "Ġkwenye": 445,
      "taka": 446,
      "ngine": 447,
      "ongo": 448,
      "ria": 449,
      "yu": 450,
      "Ġju": 451,
      "Ġvya": 452,
      "is": 453,
      "Ġja": 454,
      "idi": 455,
      "Ġmaa": 456,
      "Ġra": 457,
      "Ġmo": 458,
      "kana": 459,
      "Ġau": 460,
      "ĠA": 461,
      "kiwa": 462,
      "mbi": 463,
      "ĠN": 464,
      "Ġsana": 465,
      "Ġyake": 466,
      "Ġkwamba": 467,
      "pu": 468,
      "miwa": 469,
      "kuu": 470,
      "do": 471,
      "Ġye": 472,
      "ĠWa": 473,
      "chu": 474,
      "âĢ": 475,
      "mbe": 476,
      "kia": 477,
      "ada": 478,
      "nde": 479,
      "Ġ(": 480,
      "endele": 481,
      "lu": 482,
      "heshi": 483,
      "mbu": 484,
      "Ġf": 485,
      "Ġpi": 486,
      "nzania": 487,
      "kwa": 488,
      "ĠT": 489,
      "shwa": 490,
      "Ġame": 491,
      "Ġ1": 492,
      "Ġndi": 493,
      "ĠU": 494,
      "Ġhii": 495,
      "nyi": 496,
      "lio": 497,
      "du": 498,
      "so": 499,
      "Ġuta": 500,
      "weza": 501,
      "wo": 502,
      "Ġji": 503,
      "ifa": 504,
      "heshimiwa": 505,
      "che": 506,
      "liwa": 507,
      "....": 508,
      "Ġserikali": 509,
      "Ġmwaka": 510,
      "Ġsasa": 511,
      "pata": 512,
      "Ġkua": 513,
      "Ġwi": 514,
      "Ġ2": 515,
      "Ġhata": 516,
      "Ġime": 517,
      "Ġkui": 518,
      "Ġthe": 519,
      "sho": 520,
      "tia": 521,
      "Ġwake": 522,
      "Ġwata": 523,
      "on": 524,
      "ona": 525,
      "Ġto": 526,
      "de": 527,
      "sia": 528,
      "Ġle": 529,
      "bali": 530,
      "Ġwame": 531,
      "Ġhawa": 532,
      "mani": 533,
      "Ġda": 534,
      "Ġme": 535,
      "Ġwakati": 536,
      "Ġlakini": 537,
      "Ġkazi": 538,
      "Ġaka": 539,
      "zwa": 540,
      "ĠKa": 541,
      "Ġhuo": 542,
      "Ġbaada": 543,
      "ua": 544,
      "bunge": 545,
      "Ġhivyo": 546,
      "Ġaki": 547,
      "ĠJ": 548,
      "Ġmtu": 549,
      "00": 550,
      "ĠH": 551,
      "Ġtuna": 552,
      "Ġkwe": 553,
      "Ġho": 554,
      "ongozi": 555,
      "ĠKi": 556,
      "Ġzaidi": 557,
      "yote": 558,
      "Ġwo": 559,
      "nchi": 560,
      "Ġkutoka": 561,
      "babu": 562,
      "Ġwalio": 563,
      "Ġmoja": 564,
      "Ġte": 565,
      "Ġkila": 566,
      "ve": 567,
      "Ġzina": 568,
      "Ġpe": 569,
      "ĠC": 570,
      "Ġpia": 571,
      "ia": 572,
      "Ġkuli": 573,
      "Ġp": 574,
      "nt": 575,
      "Ġume": 576,
      "Ġkuna": 577,
      "asi": 578,
      "kea": 579,
      "Ġkum": 580,
      "husu": 581,
      "Ġnyi": 582,
      "she": 583,
      "Ġpamoja": 584,
      "ĠD": 585,
      "Ġsiku": 586,
      "unga": 587,
      "toa": 588,
      "Ġpo": 589,
      "__": 590,
      "zuri": 591,
      "jia": 592,
      "kama": 593,
      "Ġambayo": 594,
      "ĠI": 595,
      "kubwa": 596,
      "gha": 597,
      "Ġhilo": 598,
      "Ġga": 599,
      "Ġmwi": 600,
      "Ġyao": 601,
      "shu": 602,
      "kua": 603,
      "Ġwao": 604,
      "Ġhali": 605,
      "endelea": 606,
      "fua": 607,
      "Ġkuji": 608,
      "Ġhuu": 609,
      "Ġuli": 610,
      "kuta": 611,
      "aka": 612,
      "neo": 613,
      "Ġkuo": 614,
      "zungu": 615,
      "Ġmaji": 616,
      "Ġmko": 617,
      "Ġsababu": 618,
      "ina": 619,
      "ziri": 620,
      "Ġkupi": 621,
      "Ġwananchi": 622,
      "ĠTa": 623,
      "ce": 624,
      "mwa": 625,
      "ndu": 626,
      "ĠR": 627,
      "Ġmkuu": 628,
      "kwe": 629,
      "Ġnchini": 630,
      "Ġyana": 631,
      "tumia": 632,
      "tumi": 633,
      "Ġita": 634,
      "ĠSe": 635,
      "Ġjuu": 636,
      "sili": 637,
      "pika": 638,
      "gi": 639,
      "Ġbe": 640,
      "Ġiliyo": 641,
      "dili": 642,
      "riki": 643,
      "Ġfa": 644,
      "ĠP": 645,
      "Ġmbali": 646,
      "ndani": 647,
      "Ġfe": 648,
      "Ġshe": 649,
      "mini": 650,
      "Ġbo": 651,
      "kani": 652,
      "Ġambao": 653,
      "Ġmaha": 654,
      "twa": 655,
      "Ġhayo": 656,
      "Ġhadi": 657,
      "Ġzili": 658,
      "Ġkuu": 659,
      "Ġko": 660,
      "Ġmaana": 661,
      "uri": 662,
      "Ġalisema": 663,
      "limu": 664,
      "Ġhapa": 665,
      "Ma": 666,
      "taa": 667,
      "Ġhaki": 668,
      "ĠMheshimiwa": 669,
      "Ġmpa": 670,
      "Ġrais": 671,
      "pya": 672,
      "Ġwaki": 673,
      "Ġin": 674,
      "nyika": 675,
      "jua": 676,
      "jili": 677,
      "Ġwote": 678,
      "ĠMu": 679,
      "taji": 680,
      "weze": 681,
      "Ġkatiba": 682,
      "bari": 683,
      "Ġwenye": 684,
      "Ġtanzania": 685,
      "Ġmara": 686,
      "Ġshi": 687,
      "toto": 688,
      "Ġkili": 689,
      "Ġhatu": 690,
      "sima": 691,
      "ribu": 692,
      "thi": 693,
      "chagu": 694,
      "Ġwaka": 695,
      "Ġof": 696,
      "Ġre": 697,
      "Ġshu": 698,
      "Ġyali": 699,
      "Ġhili": 700,
      "Ġso": 701,
      "wana": 702,
      "ari": 703,
      "ch": 704,
      "zima": 705,
      "Ġndio": 706,
      "Ġwanao": 707,
      "laya": 708,
      "zaji": 709,
      "Ġje": 710,
      "or": 711,
      "Ġmwe": 712,
      "Ġhao": 713,
      "st": 714,
      "uli": 715,
      "am": 716,
      "Ġkubwa": 717,
      "Ġaf": 718,
      "Ġnyu": 719,
      "Ġmata": 720,
      "isha": 721,
      "Ġmambo": 722,
      "Ġkufanya": 723,
      "ĠY": 724,
      "Ġchi": 725,
      "Ġde": 726,
      "ani": 727,
      "Ġhe": 728,
      "Ġhai": 729,
      "saidi": 730,
      "jini": 731,
      "Ġmiaka": 732,
      "Ġmwana": 733,
      "Ġke": 734,
      "Ġsu": 735,
      "Ġndani": 736,
      "cm": 737,
      "........": 738,
      "ĠSpika": 739,
      "ĠNa": 740,
      "Ġmwenye": 741,
      "Ġhizo": 742,
      "Wa": 743,
      "Ġhaku": 744,
      "Ġdu": 745,
      "Ġhaya": 746,
      "ca": 747,
      "tion": 748,
      "hidi": 749,
      "ngia": 750,
      "ĠL": 751,
      "shauri": 752,
      "hemu": 753,
      "Ġhivi": 754,
      "swa": 755,
      "Ġbara": 756,
      "zungum": 757,
      "Ġmada": 758,
      "Ġkina": 759,
      "lewa": 760,
      "Ġchama": 761,
      "Ġmbi": 762,
      "Ġkuta": 763,
      "ngwa": 764,
      "Ġfu": 765,
      "shara": 766,
      "Ġmuda": 767,
      "mla": 768,
      "ala": 769,
      "id": 770,
      "Ġata": 771,
      "Ġkwanza": 772,
      "mbia": 773,
      "dogo": 774,
      "Ġfedha": 775,
      "Ġkuhusu": 776,
      "mili": 777,
      "sta": 778,
      "omba": 779,
      "Ġti": 780,
      "Ġkabi": 781,
      "Kwa": 782,
      "fiki": 783,
      "Ġsheria": 784,
      "Ġzao": 785,
      "ny": 786,
      "nja": 787,
      "Ġwengi": 788,
      "Ġaliye": 789,
      "Ġbila": 790,
      "weka": 791,
      "Ġmmoja": 792,
      "Ġzo": 793,
      "kili": 794,
      "tizo": 795,
      "Ġsha": 796,
      "Ġccm": 797,
      "ĠSerikali": 798,
      "one": 799,
      "Ġmka": 800,
      "ar": 801,
      "kiti": 802,
      "mbali": 803,
      "ini": 804,
      "nzo": 805,
      "Ġkitu": 806,
      "mea": 807,
      "Ġkweli": 808,
      "Ġkute": 809,
      "Ġb": 810,
      "Ġmaka": 811,
      "Ġbu": 812,
      "ngeza": 813,
      "zara": 814,
      "Ġhapo": 815,
      "ĠHa": 816,
      "Ġuka": 817,
      "wala": 818,
      "jo": 819,
      "pita": 820,
      "Ġhuko": 821,
      "tibu": 822,
      "Ġuwe": 823,
      "Ġkutoa": 824,
      "bara": 825,
      "Ġlina": 826,
      "Ġinayo": 827,
      "Ġru": 828,
      "Ġnini": 829,
      "Ġngu": 830,
      "Ġvile": 831,
      "va": 832,
      "Ġalikuwa": 833,
      "Ġkabisa": 834,
      "oni": 835,
      "Ġdi": 836,
      "Ġco": 837,
      "uti": 838,
      "Ġhuyo": 839,
      "jibu": 840,
      "Ġand": 841,
      "lioni": 842,
      "Ġhabari": 843,
      "Ġdo": 844,
      "futa": 845,
      "Ġajili": 846,
      "sto": 847,
      "ashara": 848,
      "piga": 849,
      "bele": 850,
      "Ġmsi": 851,
      "ĠWi": 852,
      "ĠKu": 853,
      "Ġtena": 854,
      "Ka": 855,
      "Ġsaid": 856,
      "Ġtume": 857,
      "Ġusa": 858,
      "Ġtaifa": 859,
      "Ġleo": 860,
      "hitaji": 861,
      "Ġmbalimbali": 862,
      "Ġnje": 863,
      "ndwa": 864,
      "haki": 865,
      "adhi": 866,
      "Ġyetu": 867,
      "jwa": 868,
      "kele": 869,
      "asa": 870,
      "Ġdha": 871,
      "Ġviongozi": 872,
      "bar": 873,
      "Ġupa": 874,
      "rudi": 875,
      "ll": 876,
      "Ġyote": 877,
      "Ġchini": 878,
      "Ġmfu": 879,
      "Ġwengine": 880,
      "himu": 881,
      "maa": 882,
      "ter": 883,
      "Ġbunge": 884,
      "Ġ3": 885,
      "mii": 886,
      "Ha": 887,
      "Ġusi": 888,
      "Ġyo": 889,
      "shaji": 890,
      "arifa": 891,
      "Ġnafa": 892,
      "ghu": 893,
      "Ġzote": 894,
      "Ġze": 895,
      "Ġlili": 896,
      "pele": 897,
      "nzibar": 898,
      "badili": 899,
      "mali": 900,
      "wali": 901,
      "ida": 902,
      "Ġsehemu": 903,
      "Ġmasha": 904,
      "saidia": 905,
      "Ġkutokana": 906,
      "Ġmpya": 907,
      "ibu": 908,
      "Ġwasi": 909,
      "Ġzilizo": 910,
      "Ġvita": 911,
      "Ġulio": 912,
      "ungano": 913,
      "radi": 914,
      "Ġmfa": 915,
      "Ġwale": 916,
      "Ġsio": 917,
      "Ġkuku": 918,
      "rekani": 919,
      "endeleo": 920,
      "Ġnili": 921,
      "th": 922,
      "Ġndo": 923,
      "husi": 924,
      "chaguzi": 925,
      "Ġhuku": 926,
      "Ġne": 927,
      "ghuli": 928,
      "ĠBa": 929,
      "kta": 930,
      "Ġambaye": 931,
      "kazi": 932,
      "Ġuki": 933,
      "Ġmae": 934,
      "pungu": 935,
      "Mheshimiwa": 936,
      "Ġkupata": 937,
      "penda": 938,
      "Ġgani": 939,
      "Ġhakuna": 940,
      "Ġbado": 941,
      "lisi": 942,
      "wili": 943,
      "Ġkwani": 944,
      "taifa": 945,
      "Ġnyumba": 946,
      "Ġnjia": 947,
      "fsi": 948,
      "ĠE": 949,
      "____": 950,
      "ĠV": 951,
      "Ġmna": 952,
      "Ġhasa": 953,
      "Ġmimi": 954,
      "Ġkuka": 955,
      "Ġnafasi": 956,
      "Ġdunia": 957,
      "Ġmta": 958,
      "fuata": 959,
      "Ġwaa": 960,
      "Ġmpaka": 961,
      "jana": 962,
      "Ġkura": 963,
      "Ġasili": 964,
      "Ġbasi": 965,
      "dai": 966,
      "duma": 967,
      "ende": 968,
      "âĢľ": 969,
      "fani": 970,
      "Ġwala": 971,
      "Ġwewe": 972,
      "anza": 973,
      "nsi": 974,
      "Ġtaarifa": 975,
      "Ġnyingi": 976,
      "baya": 977,
      "kuru": 978,
      "wezi": 979,
      "kio": 980,
      "Ġhatua": 981,
      "lima": 982,
      "bla": 983,
      "nywa": 984,
      "Ġwako": 985,
      "Ġum": 986,
      "ĠZ": 987,
      "Ġkushi": 988,
      "Ġzake": 989,
      "Ġwetu": 990,
      "Ġambapo": 991,
      "kari": 992,
      "Ġyako": 993,
      "Ġila": 994,
      "co": 995,
      "ĠF": 996,
      "Ġkusi": 997,
      "Ġri": 998,
      "ment": 999,
      "Ġmaeneo": 1000,
      "Ġeneo": 1001,
      "zia": 1002,
      "kula": 1003,
      "ĠMwenye": 1004,
      "mua": 1005,
      "Ġyaliyo": 1006,
      "chukua": 1007,
      "Ġbina": 1008,
      "hari": 1009,
      "ĠMungu": 1010,
      "faa": 1011,
      "enda": 1012,
      "Ġkaribu": 1013,
      "Ġyu": 1014,
      "koa": 1015,
      "ry": 1016,
      "Ġkupa": 1017,
      "Ġuchaguzi": 1018,
      "Ġbaadhi": 1019,
      "Ġute": 1020,
      "Ġzinazo": 1021,
      "fe": 1022,
      "kisha": 1023,
      "Ġwatoto": 1024,
      "fika": 1025,
      "raka": 1026,
      "Ġnyingine": 1027,
      "lama": 1028,
      "Ġiki": 1029,
      "Ġuchu": 1030,
      "biti": 1031,
      "bisha": 1032,
      "Ġua": 1033,
      "Ġndiyo": 1034,
      "Ġkipi": 1035,
      "Ġpale": 1036,
      "Ġhicho": 1037,
      "fungu": 1038,
      "taba": 1039,
      "ĠRa": 1040,
      "ratibu": 1041,
      "njwa": 1042,
      "Ġmaisha": 1043,
      "Ġchu": 1044,
      "toke": 1045,
      "Ġmcha": 1046,
      "Ġhuduma": 1047,
      "Ġmbili": 1048,
      "fanyika": 1049,
      "funzi": 1050,
      "Ġyangu": 1051,
      "Ġlazima": 1052,
      "ĠBu": 1053,
      "mna": 1054,
      "Ġes": 1055,
      "dala": 1056,
      "zee": 1057,
      "Ġyenye": 1058,
      "Ġpro": 1059,
      "Ġis": 1060,
      "Ġhizi": 1061,
      "Ġnime": 1062,
      "Ġlu": 1063,
      "ita": 1064,
      "Ġyeye": 1065,
      "nua": 1066,
      "Ġat": 1067,
      "Ġmbo": 1068,
      "kutano": 1069,
      "yari": 1070,
      "Ġjambo": 1071,
      "Ġkutumia": 1072,
      "Ġmuungano": 1073,
      "Ġkabla": 1074,
      "rt": 1075,
      "tika": 1076,
      "dhaa": 1077,
      "ishi": 1078,
      "pewa": 1079,
      "Ġmaendeleo": 1080,
      "Ġlo": 1081,
      "ĠMi": 1082,
      "ĠTanzania": 1083,
      "jumbe": 1084,
      "Ġkutu": 1085,
      "Ġhoja": 1086,
      "Ġkuzi": 1087,
      "âĢĿ": 1088,
      "Ġkwenda": 1089,
      "takiwa": 1090,
      "Ġw": 1091,
      "leta": 1092,
      "Ġambazo": 1093,
      "Ġmawa": 1094,
      "Ġmkubwa": 1095,
      "Ġelimu": 1096,
      "Ġno": 1097,
      "toka": 1098,
      "Ġmali": 1099,
      "ĠWaziri": 1100,
      "Ġmahakama": 1101,
      "nti": 1102,
      "fisa": 1103,
      "Ġbora": 1104,
      "Ġas": 1105,
      "Ġbiashara": 1106,
      "ume": 1107,
      "Ġmuhimu": 1108,
      "siasa": 1109,
      "Ġ4": 1110,
      "tokea": 1111,
      "Ġkupitia": 1112,
      "uala": 1113,
      "Ġzime": 1114,
      "sti": 1115,
      "Ġgha": 1116,
      "Na": 1117,
      "gonjwa": 1118,
      "Ġmazi": 1119,
      "Ġfi": 1120,
      "frika": 1121,
      "hili": 1122,
      "fauti": 1123,
      "Ali": 1124,
      "ĠG": 1125,
      "Ġwapi": 1126,
      "ili": 1127,
      "Ġilikuwa": 1128,
      "Ġkam": 1129,
      "akini": 1130,
      "ngeze": 1131,
      "Ġtha": 1132,
      "Ġkusa": 1133,
      "Ġuhu": 1134,
      "Ġwilaya": 1135,
      "Ġmama": 1136,
      "Ġile": 1137,
      "jenga": 1138,
      "Ġshule": 1139,
      "Ġyanayo": 1140,
      "Ġkiasi": 1141,
      "kumbu": 1142,
      "wepo": 1143,
      "ndishi": 1144,
      "Ġsuala": 1145,
      "fikia": 1146,
      "kuja": 1147,
      "nyesha": 1148,
      "Ġmbele": 1149,
      "Ġ200": 1150,
      "tikana": 1151,
      "Ġnguvu": 1152,
      "Ġalipo": 1153,
      "Ġmkono": 1154,
      "Ġkima": 1155,
      "Ġuwezo": 1156,
      "kra": 1157,
      "pende": 1158,
      "Ġca": 1159,
      "Ġasilimia": 1160,
      "Ġjamii": 1161,
      "rs": 1162,
      "fisi": 1163,
      "Ġvizuri": 1164,
      "nyo": 1165,
      "Ġdhidi": 1166,
      "Ġ-": 1167,
      "Ġaina": 1168,
      "nzani": 1169,
      "soma": 1170,
      "Ġjana": 1171,
      "tolewa": 1172,
      "Ġkipindi": 1173,
      "ondo": 1174,
      "ss": 1175,
      "lme": 1176,
      "Ġnya": 1177,
      "eleza": 1178,
      "bia": 1179,
      "Ġjina": 1180,
      "Ġmwisho": 1181,
      "Ġkita": 1182,
      "Ġtatu": 1183,
      "Ġkilimo": 1184,
      "Ġsawa": 1185,
      "ali": 1186,
      "lamu": 1187,
      "Ġunao": 1188,
      "Ġg": 1189,
      "Ġ.": 1190,
      "Ġkuanzi": 1191,
      "pote": 1192,
      "el": 1193,
      "Ġkiu": 1194,
      "ĠO": 1195,
      "Ġmsa": 1196,
      "ndika": 1197,
      "Ġ5": 1198,
      "risha": 1199,
      "muzi": 1200,
      "Ġmji": 1201,
      "ĠBw": 1202,
      "Ġnye": 1203,
      "Ġsiasa": 1204,
      "Ġnina": 1205,
      "Ġbarabara": 1206,
      "eli": 1207,
      "mbea": 1208,
      "fanyi": 1209,
      "asisi": 1210,
      "Ġikiwa": 1211,
      "ct": 1212,
      "Ġzanzibar": 1213,
      "ĠMo": 1214,
      "Ġsisi": 1215,
      "Ġcho": 1216,
      "ana": 1217,
      "Ġkusema": 1218,
      "faha": 1219,
      "damu": 1220,
      "Ġupande": 1221,
      "reza": 1222,
      "Ġmita": 1223,
      "kweli": 1224,
      "Ġushi": 1225,
      "tumizi": 1226,
      "Ġtuli": 1227,
      "Ġkuliko": 1228,
      "hama": 1229,
      "................": 1230,
      "the": 1231,
      "Ġge": 1232,
      "Ġnao": 1233,
      "Ġkuja": 1234,
      "Ku": 1235,
      "rehe": 1236,
      "in": 1237,
      "ty": 1238,
      "wanda": 1239,
      "Ġtofauti": 1240,
      "Ġro": 1241,
      "Ġmaku": 1242,
      "puni": 1243,
      "nganyika": 1244,
      "ndari": 1245,
      "Ġmjini": 1246,
      "Ġ19": 1247,
      "rikia": 1248,
      "ĠWizara": 1249,
      "wake": 1250,
      "Ġmfano": 1251,
      "ngene": 1252,
      "jui": 1253,
      "Ġwaziri": 1254,
      "misha": 1255,
      "kosa": 1256,
      "Ġkawa": 1257,
      "Ġtatizo": 1258,
      "Ġar": 1259,
      "ngira": 1260,
      "dia": 1261,
      "Ġnamna": 1262,
      "Ġal": 1263,
      "Ġvitu": 1264,
      "ĠBwana": 1265,
      "tumika": 1266,
      "Ġmatu": 1267,
      "fo": 1268,
      "Ġj": 1269,
      "wani": 1270,
      "lala": 1271,
      "dhani": 1272,
      "huri": 1273,
      "Ġmengi": 1274,
      "refu": 1275,
      "Ġvijana": 1276,
      "Ġlime": 1277,
      "âĢī": 1278,
      "Ġhuyu": 1279,
      "mlaka": 1280,
      "Ġtuta": 1281,
      "Ġamesema": 1282,
      "ly": 1283,
      "liano": 1284,
      "en": 1285,
      "Ġwalikuwa": 1286,
      "ĠâĢľ": 1287,
      "zali": 1288,
      "Ġmungu": 1289,
      "ĠSa": 1290,
      "Ġyame": 1291,
      "wango": 1292,
      "Ġuje": 1293,
      "Ġpili": 1294,
      "Ġvina": 1295,
      "ĠMkuu": 1296,
      "Ġanaye": 1297,
      "poti": 1298,
      "ndaji": 1299,
      "mbua": 1300,
      "liana": 1301,
      "lea": 1302,
      "Ġjo": 1303,
      "Ġ20": 1304,
      "Ġtayari": 1305,
      "Ġuwa": 1306,
      "Ġwazi": 1307,
      "ĠRais": 1308,
      "Ġwatanzania": 1309,
      "Ġmkoa": 1310,
      "weke": 1311,
      "Ġuha": 1312,
      "ld": 1313,
      "ck": 1314,
      "Ġmilioni": 1315,
      "ĠJu": 1316,
      "kofi": 1317,
      "Ġhuwa": 1318,
      "Ġisi": 1319,
      "elewa": 1320,
      "Ġakiwa": 1321,
      "Ġkufu": 1322,
      "ur": 1323,
      "ii": 1324,
      "Ġmengine": 1325,
      "san": 1326,
      "Ġmsingi": 1327,
      "),": 1328,
      "Ġuko": 1329,
      "Ġshughuli": 1330,
      "Ġkawaida": 1331,
      "Ġndu": 1332,
      "tokana": 1333,
      "Ġwafanya": 1334,
      "Ġmatumizi": 1335,
      "mishi": 1336,
      "katika": 1337,
      "Ġasi": 1338,
      "Ġche": 1339,
      "lma": 1340,
      "Ġida": 1341,
      "neno": 1342,
      "Ġbei": 1343,
      "ran": 1344,
      "Ġafya": 1345,
      "Ġumma": 1346,
      "Ġmwezi": 1347,
      "Ġfor": 1348,
      "mizi": 1349,
      "Ġvyama": 1350,
      "Ġmfumo": 1351,
      "es": 1352,
      "Ġmashi": 1353,
      "ĠMwa": 1354,
      "jeshi": 1355,
      "Ġmwingine": 1356,
      "Ġmapa": 1357,
      "zungumza": 1358,
      "amini": 1359,
      "Makofi": 1360,
      "Ġwangu": 1361,
      "una": 1362,
      "ĠKama": 1363,
      "dema": 1364,
      "Ġmaalu": 1365,
      "Ġhazi": 1366,
      "AN": 1367,
      "Ġmagu": 1368,
      "Ġmafu": 1369,
      "Ġumeme": 1370,
      "anga": 1371,
      "fadhi": 1372,
      "jiji": 1373,
      "man": 1374,
      "Lakini": 1375,
      "goro": 1376,
      "us": 1377,
      "Ġpolisi": 1378,
      "ĠVi": 1379,
      "itwa": 1380,
      "chuku": 1381,
      "rama": 1382,
      "kulima": 1383,
      "Ġwanafunzi": 1384,
      "Ġkidogo": 1385,
      "Ġmiko": 1386,
      "pendeke": 1387,
      "ezi": 1388,
      "chama": 1389,
      "ingia": 1390,
      "mika": 1391,
      "Ġmas": 1392,
      "Ġmazingira": 1393,
      "Ġmaja": 1394,
      "Ġsta": 1395,
      "saba": 1396,
      "Ġvyo": 1397,
      "jiri": 1398,
      "Ġmaoni": 1399,
      "hakikisha": 1400,
      "kwenda": 1401,
      "kubali": 1402,
      "ĠSi": 1403,
      "Ġnzuri": 1404,
      "Ġule": 1405,
      "ĠBunge": 1406,
      "zazi": 1407,
      "ĠAfrika": 1408,
      "lani": 1409,
      "rere": 1410,
      "Ġbali": 1411,
      "Ġwenyewe": 1412,
      "Ġuhuru": 1413,
      "ĠYe": 1414,
      "ĠNaibu": 1415,
      "Ġtangu": 1416,
      "shindwa": 1417,
      "jaa": 1418,
      "Ġchakula": 1419,
      ").": 1420,
      "Ġnaye": 1421,
      "Ġlake": 1422,
      "Ġafrika": 1423,
      "Ġkiongozi": 1424,
      "hisi": 1425,
      "husika": 1426,
      "ĠDar": 1427,
      "Ġakili": 1428,
      "guzi": 1429,
      "kumu": 1430,
      "Ġyoyote": 1431,
      "Ġambalo": 1432,
      "ĠMwenyekiti": 1433,
      "Ġmarekani": 1434,
      "Ġjinsi": 1435,
      "Ġpeke": 1436,
      "ĠKwa": 1437,
      "lmashauri": 1438,
      "Ġnga": 1439,
      "nze": 1440,
      "Ġofisi": 1441,
      "Ġnde": 1442,
      "biri": 1443,
      "Ġzetu": 1444,
      "zao": 1445,
      "uzi": 1446,
      "tendo": 1447,
      "Ġgo": 1448,
      ",\"": 1449,
      "Ġbinafsi": 1450,
      "Ġnani": 1451,
      "idha": 1452,
      "sikia": 1453,
      "ngaza": 1454,
      "Ġmkutano": 1455,
      "lizi": 1456,
      "storia": 1457,
      "uliza": 1458,
      "Ġndugu": 1459,
      "shiriki": 1460,
      "tisha": 1461,
      "baki": 1462,
      "Ġmamlaka": 1463,
      "Ġika": 1464,
      "Ġuchumi": 1465,
      "pinzani": 1466,
      "ngea": 1467,
      "Ġmpango": 1468,
      "rea": 1469,
      "tege": 1470,
      "Ġ6": 1471,
      "Ġvye": 1472,
      "Ġlugha": 1473,
      "Ġpesa": 1474,
      "chezo": 1475,
      "gwa": 1476,
      "ĠZa": 1477,
      "tea": 1478,
      "wapo": 1479,
      "Ġcon": 1480,
      "wahi": 1481,
      "Ġmtoto": 1482,
      "Ġmatatizo": 1483,
      "Ġwizara": 1484,
      "Ġchadema": 1485,
      "ĠSala": 1486,
      "lla": 1487,
      "Ġyaani": 1488,
      "Ġmkataba": 1489,
      "Ġsiyo": 1490,
      "Ni": 1491,
      "mpa": 1492,
      "firi": 1493,
      "nisha": 1494,
      "Ġmujibu": 1495,
      "Ġmaga": 1496,
      "Ġmaneno": 1497,
      "Ġmakubwa": 1498,
      "hara": 1499,
      "Ġkilicho": 1500,
      "Ġbwa": 1501,
      "kao": 1502,
      "tua": 1503,
      "lingi": 1504,
      "ted": 1505,
      "Ġnaomba": 1506,
      "Ġmgo": 1507,
      "Ġkule": 1508,
      "Ġbaba": 1509,
      "ci": 1510,
      "Ġduniani": 1511,
      "dini": 1512,
      "ingi": 1513,
      "ver": 1514,
      "Ġwanawake": 1515,
      "Ġhala": 1516,
      "ngereza": 1517,
      "fiti": 1518,
      "Ġtanganyika": 1519,
      "Ġsamia": 1520,
      "milia": 1521,
      "pia": 1522,
      "Ġbadala": 1523,
      "Ġuongozi": 1524,
      "Ġujenzi": 1525,
      "Ġtaasisi": 1526,
      "Alisema": 1527,
      "Ki": 1528,
      "Ġardhi": 1529,
      "Ġkisiasa": 1530,
      "ara": 1531,
      "Ġmbaya": 1532,
      "patikana": 1533,
      "ĠSalaam": 1534,
      "pokuwa": 1535,
      "nce": 1536,
      "Ġam": 1537,
      "Ġukweli": 1538,
      "bore": 1539,
      "dhu": 1540,
      "Ġvili": 1541,
      "wemo": 1542,
      "fanywa": 1543,
      "kaa": 1544,
      "fahamu": 1545,
      "Ġshilingi": 1546,
      "gh": 1547,
      "Ġdar": 1548,
      "Ġmradi": 1549,
      "Ġvyombo": 1550,
      "Ġamani": 1551,
      "Ġnita": 1552,
      "nduzi": 1553,
      "sheria": 1554,
      "onekana": 1555,
      "Ġkuona": 1556,
      "Ġkuvu": 1557,
      "________": 1558,
      "nyu": 1559,
      "Ġgharama": 1560,
      "kabi": 1561,
      "mwe": 1562,
      "hudi": 1563,
      "ĠWA": 1564,
      "Ġhau": 1565,
      "shukuru": 1566,
      "Ġkisa": 1567,
      "Ġ\"": 1568,
      "au": 1569,
      "kri": 1570,
      "rani": 1571,
      "000": 1572,
      "Katika": 1573,
      "Ġutu": 1574,
      "Ġnia": 1575,
      "Ġsaa": 1576,
      "mp": 1577,
      "jeru": 1578,
      "waa": 1579,
      "Ġutaratibu": 1580,
      "Ġdawa": 1581,
      "Ġmifu": 1582,
      "badiliko": 1583,
      "Ġkodi": 1584,
      "kwi": 1585,
      "Ġkuondo": 1586,
      "miza": 1587,
      "reje": 1588,
      "Ġmbe": 1589,
      "Ġjeshi": 1590,
      "ingereza": 1591,
      "ndaa": 1592,
      "tokeo": 1593,
      "rais": 1594,
      "kuna": 1595,
      "rica": 1596,
      "suala": 1597,
      "Ġkinacho": 1598,
      "Ġkuhakikisha": 1599,
      "Ġhiki": 1600,
      "tara": 1601,
      "chwa": 1602,
      "Ġmipa": 1603,
      "Ġ7": 1604,
      "Ġutawala": 1605,
      "ĠJe": 1606,
      "Ġmahali": 1607,
      "Ġmaele": 1608,
      "Ġkile": 1609,
      "Ġmwenyewe": 1610,
      "juli": 1611,
      "Ġkesi": 1612,
      "dhibiti": 1613,
      "ew": 1614,
      "ongoza": 1615,
      "Ġkuongeza": 1616,
      "Ġngo": 1617,
      "ĠJa": 1618,
      "Ġkuki": 1619,
      "onyesha": 1620,
      "keleza": 1621,
      "Ġsita": 1622,
      "Ġsekta": 1623,
      "Ġilivyo": 1624,
      "Ġhaja": 1625,
      "Ġkujenga": 1626,
      "rti": 1627,
      "Ġ'": 1628,
      "zuia": 1629,
      "peleka": 1630,
      "hihi": 1631,
      "geni": 1632,
      "Ġpu": 1633,
      "simamia": 1634,
      "Ġkwake": 1635,
      "tanzania": 1636,
      "changia": 1637,
      "singi": 1638,
      "Ġkim": 1639,
      "Ġusalama": 1640,
      "fuli": 1641,
      "Ġyule": 1642,
      "Ġidadi": 1643,
      "spita": 1644,
      "Ġkuanzia": 1645,
      "Ġwiki": 1646,
      "paswa": 1647,
      "Ġndege": 1648,
      "undo": 1649,
      "ĠWilaya": 1650,
      "Ġkuendelea": 1651,
      "Ġfo": 1652,
      "Ġlengo": 1653,
      "tiwa": 1654,
      "rio": 1655,
      "Ġmiongo": 1656,
      "Ġtimu": 1657,
      "Ġuma": 1658,
      "zidi": 1659,
      "Ġhuru": 1660,
      "Ġawa": 1661,
      "Ġwenza": 1662,
      "ngalia": 1663,
      "Ġmiradi": 1664,
      "bda": 1665,
      "Ġwate": 1666,
      "Ġfulani": 1667,
      "mbele": 1668,
      "Ġaji": 1669,
      "Ġanasema": 1670,
      "Ġyale": 1671,
      "Ġmataifa": 1672,
      "kelezaji": 1673,
      "Ġkimataifa": 1674,
      "Ġmafuta": 1675,
      "nisa": 1676,
      "shia": 1677,
      "Ġtarehe": 1678,
      "Ġuja": 1679,
      "nunua": 1680,
      "Ġkuweka": 1681,
      "islamu": 1682,
      "Ġwabunge": 1683,
      "Ġmabadiliko": 1684,
      "Ġhistoria": 1685,
      "Ġmao": 1686,
      "Ġmaju": 1687,
      "Ġkundi": 1688,
      "Ba": 1689,
      "Ġkiwango": 1690,
      "ngatia": 1691,
      "Ġbandari": 1692,
      "RI": 1693,
      "rufu": 1694,
      "nuni": 1695,
      "reke": 1696,
      "Ġ10": 1697,
      "pwa": 1698,
      "ĠTaifa": 1699,
      "nyama": 1700,
      "moto": 1701,
      "Ġsala": 1702,
      "Ġmasuala": 1703,
      "Ġnyerere": 1704,
      "ribi": 1705,
      "Ġ8": 1706,
      "uka": 1707,
      "Ġjumla": 1708,
      "punguza": 1709,
      "ns": 1710,
      "Ġkampuni": 1711,
      "biashara": 1712,
      "wezesha": 1713,
      "rd": 1714,
      "Ġchake": 1715,
      "lie": 1716,
      "shughuli": 1717,
      "Ġama": 1718,
      "Ġumoja": 1719,
      "Ġbwana": 1720,
      "gra": 1721,
      "simu": 1722,
      "husia": 1723,
      "Ġkenya": 1724,
      "Ġlililo": 1725,
      "CM": 1726,
      "Ġmzee": 1727,
      "zeti": 1728,
      "dhali": 1729,
      "nne": 1730,
      "Ġkupiga": 1731,
      "Ġmika": 1732,
      "spitali": 1733,
      "Ġmrefu": 1734,
      "ridhi": 1735,
      "Ġkuya": 1736,
      "baini": 1737,
      "Ġkadhaa": 1738,
      "pinduzi": 1739,
      "Ġmazao": 1740,
      "Ġdini": 1741,
      ".âĢĿ": 1742,
      "Ġaja": 1743,
      "kika": 1744,
      "tegemea": 1745,
      "Ġras": 1746,
      "AT": 1747,
      "Ġsoko": 1748,
      "Ġhati": 1749,
      "Ġnu": 1750,
      "Ġmaalum": 1751,
      "med": 1752,
      "pokea": 1753,
      "Ġwakulima": 1754,
      "nuzi": 1755,
      "raeli": 1756,
      "zungumzia": 1757,
      "chache": 1758,
      "Ġufu": 1759,
      "doma": 1760,
      "maliza": 1761,
      "Ġuga": 1762,
      "20": 1763,
      "Ġjuma": 1764,
      "Ġkuanza": 1765,
      "uza": 1766,
      "ika": 1767,
      "ĠPo": 1768,
      "Ġdola": 1769,
      "ĠKamati": 1770,
      "kutana": 1771,
      "Ġkamati": 1772,
      "ĠShe": 1773,
      "jeti": 1774,
      "Ġnyuma": 1775,
      "Ġupe": 1776,
      "fikiri": 1777,
      "Ġupinzani": 1778,
      "ngana": 1779,
      "Ġmafunzo": 1780,
      "mbana": 1781,
      "Ġkujua": 1782,
      "zea": 1783,
      "Ġuju": 1784,
      "fari": 1785,
      "falme": 1786,
      "Ġon": 1787,
      "ts": 1788,
      "Ġutekelezaji": 1789,
      "mke": 1790,
      "sika": 1791,
      "Ġusha": 1792,
      "Ġmatokeo": 1793,
      "tha": 1794,
      "HE": 1795,
      "Ġ9": 1796,
      "chumi": 1797,
      "lojia": 1798,
      "Ġraia": 1799,
      "Ġzita": 1800,
      "Ġnyumbani": 1801,
      "Ġkusini": 1802,
      "Ġambacho": 1803,
      "Ġndogo": 1804,
      "Ġpekee": 1805,
      "wekwa": 1806,
      "Ta": 1807,
      "rahi": 1808,
      "Ġiwe": 1809,
      "Ġchanga": 1810,
      "mwi": 1811,
      "Ġwasio": 1812,
      "Ġmadara": 1813,
      "Ġex": 1814,
      "Ġunaweza": 1815,
      "Ġmape": 1816,
      "jijini": 1817,
      "Ġfamilia": 1818,
      "Ġmagufuli": 1819,
      "kuba": 1820,
      "takapo": 1821,
      "sisi": 1822,
      "Ġwatumishi": 1823,
      "kato": 1824,
      "Ġitakuwa": 1825,
      "Ġsh": 1826,
      "Ġbilioni": 1827,
      "Ġwafanyakazi": 1828,
      "kundi": 1829,
      "rusha": 1830,
      "aa": 1831,
      "ĠMarekani": 1832,
      "kuwepo": 1833,
      "mana": 1834,
      "tilia": 1835,
      "bora": 1836,
      "Ġuba": 1837,
      "Ġyeyote": 1838,
      "Ġbinadamu": 1839,
      "Ġwajumbe": 1840,
      "ngeneza": 1841,
      "Ġharaka": 1842,
      "thibiti": 1843,
      "Ġmiongoni": 1844,
      "WA": 1845,
      "jiwa": 1846,
      "amua": 1847,
      "Ġwakiwa": 1848,
      "âĢĻ": 1849,
      "Ġaliyo": 1850,
      "Ġkula": 1851,
      "genzi": 1852,
      "HA": 1853,
      "Ġlita": 1854,
      "Ġwawili": 1855,
      "Ġvipi": 1856,
      "dumu": 1857,
      "Ġmacho": 1858,
      "ĠIs": 1859,
      "Ġkime": 1860,
      "elekea": 1861,
      "Ġjam": 1862,
      "kusa": 1863,
      "Ġzamani": 1864,
      "ima": 1865,
      "tuba": 1866,
      "hata": 1867,
      "Ġwafu": 1868,
      "Ġsimu": 1869,
      "ssi": 1870,
      "ene": 1871,
      "Ġkipa": 1872,
      "Ġmoyo": 1873,
      "lahi": 1874,
      "Ġsera": 1875,
      "Ġtoka": 1876,
      "Ġnika": 1877,
      "anzi": 1878,
      "mokra": 1879,
      "takayo": 1880,
      "taja": 1881,
      "Ġkisha": 1882,
      "jinga": 1883,
      "Ġsahihi": 1884,
      "endesha": 1885,
      "Ġshirika": 1886,
      "Ġmaelezo": 1887,
      "zama": 1888,
      "Ġthat": 1889,
      "wasi": 1890,
      "Ġhatari": 1891,
      "rsa": 1892,
      "buni": 1893,
      "ZI": 1894,
      "kurugenzi": 1895,
      "Ġawali": 1896,
      "Kama": 1897,
      "ine": 1898,
      "rua": 1899,
      "Ġap": 1900,
      "Ġkufikia": 1901,
      "Ġhawana": 1902,
      "Ġmwenyekiti": 1903,
      "kufa": 1904,
      "dhara": 1905,
      "Ġkuingia": 1906,
      "Ġyata": 1907,
      "Ġrasmi": 1908,
      "changa": 1909,
      "kamili": 1910,
      "Hata": 1911,
      "rikiana": 1912,
      "Ġwanachama": 1913,
      "Ġjimbo": 1914,
      "Ġbidhaa": 1915,
      "Ġimani": 1916,
      "hani": 1917,
      "kata": 1918,
      "Ġsalaam": 1919,
      "ngekuwa": 1920,
      "Ġkauli": 1921,
      "Ġwas": 1922,
      "LI": 1923,
      "nguzi": 1924,
      "Ġrushwa": 1925,
      "Ġnayo": 1926,
      "wezekana": 1927,
      "fanye": 1928,
      "dau": 1929,
      "gawa": 1930,
      "Ġmsaada": 1931,
      "Ġkuni": 1932,
      "Ġnamba": 1933,
      "Ġmoto": 1934,
      "Ġajira": 1935,
      "Ġkumu": 1936,
      "Ġkija": 1937,
      "Ġkituo": 1938,
      "Ġwapo": 1939,
      "Ġkutosha": 1940,
      "Ġndiye": 1941,
      "ngezeka": 1942,
      "ngawa": 1943,
      "Ġjamaa": 1944,
      "hali": 1945,
      "sheni": 1946,
      "Ġuzi": 1947,
      "ĠCCM": 1948,
      "Ġjamhuri": 1949,
      "MA": 1950,
      "sababisha": 1951,
      "nki": 1952,
      "Ġfursa": 1953,
      "Ġhalafu": 1954,
      "Ġmwanzo": 1955,
      "Ġgari": 1956,
      "zaliwa": 1957,
      "Ġkata": 1958,
      "wote": 1959,
      "Ġmaso": 1960,
      "endeleza": 1961,
      "Ġchangamoto": 1962,
      "Ġswali": 1963,
      "poteza": 1964,
      "Ġkuchukua": 1965,
      "Ġmfalme": 1966,
      "lle": 1967,
      "bika": 1968,
      "simamizi": 1969,
      "Ġpicha": 1970,
      "Mi": 1971,
      "Ġfaida": 1972,
      "ndele": 1973,
      "ble": 1974,
      "shinda": 1975,
      "Ġmdogo": 1976,
      "Ġmvu": 1977,
      "boresha": 1978,
      "Hi": 1979,
      "Ġkilo": 1980,
      "pate": 1981,
      "Ġkumi": 1982,
      "tuma": 1983,
      "Ġalivyo": 1984,
      "Ġmwalimu": 1985,
      "zalishaji": 1986,
      "seme": 1987,
      "Ġsifa": 1988,
      "Ġbaadaye": 1989,
      "Ġhospitali": 1990,
      "ruhusu": 1991,
      "fanikiwa": 1992,
      "Ġkuko": 1993,
      "Ġlinalo": 1994,
      "ĠShi": 1995,
      "Ġusiku": 1996,
      "Ġmapato": 1997,
      "lakini": 1998,
      "sani": 1999,
      "tiza": 2000,
      "ĠZanzibar": 2001,
      "eni": 2002,
      "Ġmke": 2003,
      "Ġzile": 2004,
      "ĠJi": 2005,
      "Ġkwao": 2006,
      "Ġspika": 2007,
      "ĠMwenyezi": 2008,
      "Ġkanuni": 2009,
      "Ġkuleta": 2010,
      "subiri": 2011,
      "ir": 2012,
      "Ġkufa": 2013,
      "ndao": 2014,
      "lozi": 2015,
      "ĠâĢ": 2016,
      "Ġsila": 2017,
      "mbuzi": 2018,
      "Ġhusika": 2019,
      "bina": 2020,
      "Ġvifaa": 2021,
      "kiliza": 2022,
      "Ġ11": 2023,
      "julikana": 2024,
      "er": 2025,
      "Ġtukio": 2026,
      "Ġkanisa": 2027,
      "Ġanaweza": 2028,
      "Ġmikoa": 2029,
      "wakili": 2030,
      "Ġr": 2031,
      "Ġanga": 2032,
      "Ġthi": 2033,
      "Ġmaba": 2034,
      "son": 2035,
      "ĠBara": 2036,
      "Ġinaweza": 2037,
      "Ġmashariki": 2038,
      "ssa": 2039,
      "giza": 2040,
      "Ġzenye": 2041,
      "Ġmiezi": 2042,
      "taki": 2043,
      "miliki": 2044,
      "Ġvilivyo": 2045,
      "rusi": 2046,
      "chote": 2047,
      "Ġumri": 2048,
      "Ġgu": 2049,
      "Ġambavyo": 2050,
      "ungu": 2051,
      "mka": 2052,
      "Ġneno": 2053,
      "ĠLi": 2054,
      "endelee": 2055,
      "Ġmau": 2056,
      "Ġsaba": 2057,
      "ĠNi": 2058,
      "mwambia": 2059,
      "Ġmhe": 2060,
      "Sasa": 2061,
      "Ġhana": 2062,
      "Ġmli": 2063,
      "takao": 2064,
      "Ġmaslahi": 2065,
      "Si": 2066,
      "fungua": 2067,
      "katifu": 2068,
      "ndua": 2069,
      "sasi": 2070,
      "Ġkufua": 2071,
      "...": 2072,
      "Ġwalimu": 2073,
      "Ġdara": 2074,
      "cia": 2075,
      "mokrasia": 2076,
      "Ġkaribuni": 2077,
      "Ġmti": 2078,
      "mano": 2079,
      "ĠPa": 2080,
      "19": 2081,
      "bwe": 2082,
      "Ġbaraza": 2083,
      "Ġmbunge": 2084,
      "patia": 2085,
      "Ġbungeni": 2086,
      "Ġmba": 2087,
      "Ġushauri": 2088,
      "kazini": 2089,
      "mui": 2090,
      "Ġkutekeleza": 2091,
      "tokeza": 2092,
      "Ġmagari": 2093,
      "fundi": 2094,
      "Ġh": 2095,
      "Ġugonjwa": 2096,
      "Ġmawazo": 2097,
      "ĠBi": 2098,
      "Ġ12": 2099,
      "lly": 2100,
      "muhimu": 2101,
      "hakama": 2102,
      "Ġripoti": 2103,
      "zoe": 2104,
      "Ġhotuba": 2105,
      "Ġmadaraka": 2106,
      "jita": 2107,
      "Ġnne": 2108,
      "pongeza": 2109,
      "eleke": 2110,
      "rikiano": 2111,
      "skazini": 2112,
      "vo": 2113,
      "Ġmte": 2114,
      "al": 2115,
      "Ġmaanda": 2116,
      "swali": 2117,
      "Ġkiuchumi": 2118,
      "gombea": 2119,
      "Ġkupunguza": 2120,
      "Ġmchakato": 2121,
      "Ġyenu": 2122,
      "200": 2123,
      "chagua": 2124,
      "Ġiko": 2125,
      "Ġkikubwa": 2126,
      "Ġuamuzi": 2127,
      "chana": 2128,
      "jaribu": 2129,
      "Ġchuo": 2130,
      "ombe": 2131,
      "Ġsilaha": 2132,
      "Ġve": 2133,
      "vile": 2134,
      "Ġby": 2135,
      "Ġtuka": 2136,
      "................................": 2137,
      "lii": 2138,
      "Ġkutaka": 2139,
      "Ġmipango": 2140,
      "Ġdamu": 2141,
      "jerumani": 2142,
      "Ġsafari": 2143,
      "Ġfro": 2144,
      "wasili": 2145,
      "Ġutafiti": 2146,
      "hn": 2147,
      "Ġnyo": 2148,
      "hada": 2149,
      "Ġshida": 2150,
      "amba": 2151,
      "Ġupo": 2152,
      "Ġhumo": 2153,
      "ree": 2154,
      "funza": 2155,
      "Ġyou": 2156,
      "Ġipo": 2157,
      "Ġan": 2158,
      "Ġsauti": 2159,
      "ngele": 2160,
      "Ġucha": 2161,
      "fia": 2162,
      "usi": 2163,
      "Ġmwanamke": 2164,
      "Ġmzuri": 2165,
      "Ġhalmashauri": 2166,
      "gaji": 2167,
      "Ġmadai": 2168,
      "ongeza": 2169,
      "simama": 2170,
      "ms": 2171,
      "Ġwakuu": 2172,
      "bati": 2173,
      "ĠWana": 2174,
      "hifadhi": 2175,
      "subu": 2176,
      "Ġchochote": 2177,
      "ban": 2178,
      "Ġaskari": 2179,
      "10": 2180,
      "tani": 2181,
      "ĠMkoa": 2182,
      "ĠMbunge": 2183,
      "Ġtabia": 2184,
      "shirika": 2185,
      "shwe": 2186,
      "Ġkurudi": 2187,
      "hiri": 2188,
      "Ġmapinduzi": 2189,
      "Ġkuima": 2190,
      "biwa": 2191,
      "Ġthamani": 2192,
      "Ġl": 2193,
      "Ġdr": 2194,
      "mbiwa": 2195,
      "swada": 2196,
      "qu": 2197,
      "Ġkiko": 2198,
      "Ġuku": 2199,
      "Ġkuwepo": 2200,
      "ĠSo": 2201,
      "onal": 2202,
      "sini": 2203,
      "Ġngazi": 2204,
      "hadi": 2205,
      "Ġulikuwa": 2206,
      "panga": 2207,
      "Ġnzima": 2208,
      "Ġtaratibu": 2209,
      "Ġshamba": 2210,
      "ngwe": 2211,
      "Ġulinzi": 2212,
      "cu": 2213,
      "ĠKe": 2214,
      "Ġmbegu": 2215,
      "Ġit": 2216,
      "Ġvingine": 2217,
      "pinga": 2218,
      "Ġtano": 2219,
      "Ġ15": 2220,
      "lazi": 2221,
      "Ġiliyopita": 2222,
      "Ġmbona": 2223,
      "Ġaliyekuwa": 2224,
      "fanikio": 2225,
      "gharibi": 2226,
      "hakika": 2227,
      "Ġwadau": 2228,
      "Ġakasema": 2229,
      "kwete": 2230,
      "hau": 2231,
      "Ġatta": 2232,
      "Ġsijui": 2233,
      "Ġafrica": 2234,
      "tiba": 2235,
      "kezaji": 2236,
      "Ġwataala": 2237,
      "Ġmitaa": 2238,
      "Ġkitabu": 2239,
      "Ġmkoani": 2240,
      "ĠYA": 2241,
      "liza": 2242,
      "ĠPolisi": 2243,
      "Ġmako": 2244,
      "lendo": 2245,
      "ĠWabunge": 2246,
      "hati": 2247,
      "Ġmwili": 2248,
      "duni": 2249,
      "Ġwaliokuwa": 2250,
      "shambu": 2251,
      "ut": 2252,
      "Ġuzalishaji": 2253,
      "rekebi": 2254,
      "subuhi": 2255,
      "ĠWatanzania": 2256,
      "Ġndipo": 2257,
      "kwisha": 2258,
      "hii": 2259,
      "Ġufa": 2260,
      "Ġlabda": 2261,
      "Vi": 2262,
      "Ġwaandishi": 2263,
      "Ġmar": 2264,
      "tafuta": 2265,
      "kamani": 2266,
      "Ġuni": 2267,
      "loni": 2268,
      "lote": 2269,
      "Ġwaza": 2270,
      "ĠMe": 2271,
      "pungufu": 2272,
      "cy": 2273,
      "KI": 2274,
      "ed": 2275,
      "Ġlenye": 2276,
      "Ġbajeti": 2277,
      "Ġjuhudi": 2278,
      "lisha": 2279,
      "huo": 2280,
      "Ġmakundi": 2281,
      "Ġumuhimu": 2282,
      "husiana": 2283,
      "Ġataka": 2284,
      "Ġkisheria": 2285,
      "Ġtaa": 2286,
      "tangaza": 2287,
      "lengo": 2288,
      "Ġhakika": 2289,
      "ĠYesu": 2290,
      "Ġhaina": 2291,
      "Ġkuboresha": 2292,
      "Ġmaamuzi": 2293,
      "Ġwowote": 2294,
      "Ġkutafuta": 2295,
      "ther": 2296,
      "Ġyasi": 2297,
      "Ġor": 2298,
      "chukuliwa": 2299,
      "shanga": 2300,
      "Ġletu": 2301,
      "Ġpre": 2302,
      "fanyia": 2303,
      "Ġwalipo": 2304,
      "gumu": 2305,
      "Ġmzi": 2306,
      "Ġuwanja": 2307,
      "tions": 2308,
      "zungumzo": 2309,
      "Ġfrom": 2310,
      "mko": 2311,
      "uliwa": 2312,
      "sabu": 2313,
      "Ġawamu": 2314,
      "ĠSh": 2315,
      "kno": 2316,
      "lau": 2317,
      "oo": 2318,
      "mbuki": 2319,
      "âĢ¦": 2320,
      "Ġviwanda": 2321,
      "Ġjijini": 2322,
      "kumbuka": 2323,
      "wanja": 2324,
      "maduni": 2325,
      "Ġkifo": 2326,
      "nishwa": 2327,
      "Ġmtaa": 2328,
      "rael": 2329,
      "peni": 2330,
      "ĠBo": 2331,
      "KA": 2332,
      "Ġakawa": 2333,
      "tawala": 2334,
      "raha": 2335,
      "ano": 2336,
      "chment": 2337,
      "ee": 2338,
      "Ġkubadili": 2339,
      "uaji": 2340,
      "Ġkia": 2341,
      "Ġmazuri": 2342,
      "ĠSu": 2343,
      "Ġmadarakani": 2344,
      "Ġvyote": 2345,
      "Ġmafanikio": 2346,
      "Ġmikono": 2347,
      "lam": 2348,
      "lezi": 2349,
      "kt": 2350,
      "lipa": 2351,
      "Ġ199": 2352,
      "mber": 2353,
      "Ġaliwa": 2354,
      "Ġwor": 2355,
      "Ġattachment": 2356,
      "thiri": 2357,
      "hawa": 2358,
      "ĠCha": 2359,
      "Ġkuweza": 2360,
      "muiya": 2361,
      "Ġvinavyo": 2362,
      "daiwa": 2363,
      "Ġushirikiano": 2364,
      "staa": 2365,
      "mpuni": 2366,
      "Ġkali": 2367,
      "kamatwa": 2368,
      "hami": 2369,
      "cal": 2370,
      "bidi": 2371,
      "simamo": 2372,
      "nyume": 2373,
      "sante": 2374,
      "fya": 2375,
      "Ġingawa": 2376,
      "iti": 2377,
      "Ġmate": 2378,
      "ripoti": 2379,
      "goma": 2380,
      "Ġmadini": 2381,
      "Ġ14": 2382,
      "rogoro": 2383,
      "Ġkuishi": 2384,
      "Ġmahitaji": 2385,
      "chungu": 2386,
      "ame": 2387,
      "andika": 2388,
      "Ġkitaifa": 2389,
      "Ġmiti": 2390,
      "kataa": 2391,
      "Ġmajibu": 2392,
      "ad": 2393,
      "Ġmawasi": 2394,
      "Ġbarua": 2395,
      "TA": 2396,
      "Ġhara": 2397,
      "hakiki": 2398,
      "Ġuchunguzi": 2399,
      "Ġlolote": 2400,
      "Ġimekuwa": 2401,
      "Ġkuimarisha": 2402,
      "Ġmawasiliano": 2403,
      "shahara": 2404,
      "Ġmbinu": 2405,
      "fisadi": 2406,
      "Ġvituo": 2407,
      "ĠNA": 2408,
      "Ġzangu": 2409,
      "Ġhalisi": 2410,
      "elele": 2411,
      "Ġjuzi": 2412,
      "Ġmno": 2413,
      "Ġura": 2414,
      "jengwa": 2415,
      "Ġhas": 2416,
      "Ġwenu": 2417,
      "ĠRu": 2418,
      "Ġmahakamani": 2419,
      "an": 2420,
      "Ġuvu": 2421,
      "ĠUmoja": 2422,
      "Ġkusimamia": 2423,
      "Ġange": 2424,
      "Ġvyu": 2425,
      "Ġhaija": 2426,
      "Ġcom": 2427,
      "nk": 2428,
      "ktari": 2429,
      "gia": 2430,
      "tta": 2431,
      "Ġmanu": 2432,
      "sasa": 2433,
      "Ġmapema": 2434,
      "ila": 2435,
      "Ġview": 2436,
      "Ġkuhu": 2437,
      "Aidha": 2438,
      "kristo": 2439,
      "bli": 2440,
      "ondoa": 2441,
      "cto": 2442,
      "kh": 2443,
      "Ġmikopo": 2444,
      "Ġwanaweza": 2445,
      "Ġwamekuwa": 2446,
      "Ġukawa": 2447,
      "ssu": 2448,
      "Ġwazee": 2449,
      "Ġasubuhi": 2450,
      "Ġkiba": 2451,
      "Ġ,": 2452,
      "mara": 2453,
      "ndikwa": 2454,
      "Ġrasimu": 2455,
      "Se": 2456,
      "Ġkuti": 2457,
      "Ġkikao": 2458,
      "panda": 2459,
      "knolojia": 2460,
      "sudi": 2461,
      "heshima": 2462,
      "tarajiwa": 2463,
      "liki": 2464,
      "Ġac": 2465,
      "Ġuweze": 2466,
      "toe": 2467,
      "Ġmajina": 2468,
      "Ġkuche": 2469,
      "Ġmichezo": 2470,
      "Ġvime": 2471,
      "chezaji": 2472,
      "Ġjaji": 2473,
      "Ġmasi": 2474,
      "Ġkijiji": 2475,
      "rehemu": 2476,
      "miaji": 2477,
      "Ġmati": 2478,
      "Ġmazungumzo": 2479,
      "Ġwith": 2480,
      "Ġkatibu": 2481,
      "danga": 2482,
      "ĠJo": 2483,
      "Ġmajukumu": 2484,
      "acha": 2485,
      "Ġuhakika": 2486,
      "Ġkanda": 2487,
      "il": 2488,
      "Ġtuki": 2489,
      "jumu": 2490,
      "ĠSheria": 2491,
      "Ġmaje": 2492,
      "Ġsy": 2493,
      "ĠHalmashauri": 2494,
      "mbwa": 2495,
      "nta": 2496,
      "Ġkuzuia": 2497,
      "tional": 2498,
      "ĠMka": 2499,
      "mwo": 2500,
      "siwa": 2501,
      "Ġkinyume": 2502,
      "hindi": 2503,
      "kufu": 2504,
      "ral": 2505,
      "Ġ13": 2506,
      "lalami": 2507,
      "Ġmaswali": 2508,
      "kofu": 2509,
      "ĠChama": 2510,
      "Ġdodoma": 2511,
      "Ġng": 2512,
      "port": 2513,
      "Ġheshima": 2514,
      "Ġmiundo": 2515,
      "Ġhawaku": 2516,
      "chaguliwa": 2517,
      "isi": 2518,
      "Ġusafiri": 2519,
      "risto": 2520,
      "Ġkasi": 2521,
      "Ġare": 2522,
      "Ġkumbu": 2523,
      "tambua": 2524,
      "ĠCo": 2525,
      "Ġnapenda": 2526,
      "onesha": 2527,
      "mwengu": 2528,
      "Ġkuunga": 2529,
      "serikali": 2530,
      "ĠDo": 2531,
      "epu": 2532,
      "Ġshaka": 2533,
      "Ġkuzingatia": 2534,
      "Ġbahari": 2535,
      "Ġsija": 2536,
      "11": 2537,
      "Ġkaskazini": 2538,
      "ĠAli": 2539,
      "Ġham": 2540,
      "ĠMA": 2541,
      "tro": 2542,
      "Ġmja": 2543,
      "Ġkulingana": 2544,
      "ongozwa": 2545,
      "Ġmakosa": 2546,
      "Ġkushirikiana": 2547,
      "Ġab": 2548,
      "Ġmashirika": 2549,
      "waka": 2550,
      "âĢ¢": 2551,
      "Ġvitendo": 2552,
      "Ġmala": 2553,
      "suku": 2554,
      "Ġwachache": 2555,
      "kimu": 2556,
      "furahi": 2557,
      "Aki": 2558,
      "zika": 2559,
      "Ġkuanzisha": 2560,
      "watu": 2561,
      "kubaliana": 2562,
      "Ġkusaidia": 2563,
      "EN": 2564,
      "hana": 2565,
      "Ġkusoma": 2566,
      "Ġrahisi": 2567,
      "tive": 2568,
      "Ġlako": 2569,
      "elezea": 2570,
      "guu": 2571,
      "husisha": 2572,
      "ĠFe": 2573,
      "nji": 2574,
      "ndia": 2575,
      "Ġwakazi": 2576,
      "tuna": 2577,
      "piti": 2578,
      "Ġgazeti": 2579,
      "pelekea": 2580,
      "ĠKatibu": 2581,
      "ĠĠčĊ": 2582,
      "shughulikia": 2583,
      "ondoka": 2584,
      "maye": 2585,
      "fano": 2586,
      "Ġmakini": 2587,
      "ĠMahakama": 2588,
      "Ġwajibu": 2589,
      "Ġusimamizi": 2590,
      "RA": 2591,
      "Ġkununua": 2592,
      "jitokeza": 2593,
      "Je": 2594,
      "Ġwapiga": 2595,
      "Ġambako": 2596,
      "Ġutendaji": 2597,
      "Ġushahidi": 2598,
      "semba": 2599,
      "Ġkesho": 2600,
      "ĠKuu": 2601,
      "Ġkushiriki": 2602,
      "âĢ¦âĢ¦": 2603,
      "lenga": 2604,
      "mbinu": 2605,
      "Ġkuondoa": 2606,
      "rou": 2607,
      "for": 2608,
      "Ġmaafisa": 2609,
      "Ġziki": 2610,
      "Ġlile": 2611,
      "Ġsiri": 2612,
      "ĠHo": 2613,
      "kondari": 2614,
      "ĠYa": 2615,
      "pendekeza": 2616,
      "Ġkijamii": 2617,
      "dhabu": 2618,
      "Ġmia": 2619,
      "Ġwanasema": 2620,
      "Ġkwanini": 2621,
      "zalisha": 2622,
      "pigwa": 2623,
      "Ġalim": 2624,
      "Ġukiwa": 2625,
      "Ġnaona": 2626,
      "Ġvijijini": 2627,
      "tajwa": 2628,
      "Ġawe": 2629,
      "Ġujumbe": 2630,
      "Wana": 2631,
      "funga": 2632,
      "ĠMasha": 2633,
      "toaji": 2634,
      "Ġkupambana": 2635,
      "wapa": 2636,
      "mbelea": 2637,
      "Ġmbu": 2638,
      "Ġwadogo": 2639,
      "ĠPe": 2640,
      "waambia": 2641,
      "Ġmpi": 2642,
      "kano": 2643,
      "pumba": 2644,
      "Ġkuandika": 2645,
      "Ġmingi": 2646,
      "Ġujumla": 2647,
      "ĠHu": 2648,
      "zaa": 2649,
      "shika": 2650,
      "Ġeti": 2651,
      "Ġkucha": 2652,
      "Ġzako": 2653,
      "laa": 2654,
      "Ġmiwili": 2655,
      "hoji": 2656,
      "pendekezo": 2657,
      "Ġuwekezaji": 2658,
      "Ġmigo": 2659,
      "Ġsulu": 2660,
      "ĠLu": 2661,
      "sali": 2662,
      "ĠLakini": 2663,
      "red": 2664,
      "Ġtani": 2665,
      "12": 2666,
      "ph": 2667,
      "Ġtusi": 2668,
      "wahili": 2669,
      "dio": 2670,
      "Ġikiwemo": 2671,
      "ransa": 2672,
      "mina": 2673,
      "Ġkosa": 2674,
      "Ġkushindwa": 2675,
      "wakati": 2676,
      "ganda": 2677,
      "Ġbenki": 2678,
      "Ġkukabi": 2679,
      "ĠKenya": 2680,
      "ster": 2681,
      "ĠKo": 2682,
      "________________": 2683,
      "ton": 2684,
      "Ġpembe": 2685,
      "Ġmchezo": 2686,
      "HI": 2687,
      "Ġniki": 2688,
      "binafsi": 2689,
      "Tuna": 2690,
      "pelekwa": 2691,
      "Ġkume": 2692,
      "Ġmvua": 2693,
      "Ġmauaji": 2694,
      "uta": 2695,
      "ĠDe": 2696,
      "Ġdhambi": 2697,
      "hamed": 2698,
      "niki": 2699,
      "Ġmasharti": 2700,
      "Ġkimya": 2701,
      "Ġbaina": 2702,
      "Ġakina": 2703,
      "Ġwanyama": 2704,
      "Ġmbowe": 2705,
      "Ġyaki": 2706,
      "tumishi": 2707,
      "sisitiza": 2708,
      "ste": 2709,
      "min": 2710,
      "Ġmisa": 2711,
      "Ġ16": 2712,
      "spa": 2713,
      "Ġzisi": 2714,
      "Ġhawaja": 2715,
      "Ġtuu": 2716,
      "humiwa": 2717,
      "Ġkijana": 2718,
      "les": 2719,
      "Ġkusaba": 2720,
      "Ġnadhani": 2721,
      "baada": 2722,
      "kulu": 2723,
      "hitajika": 2724,
      "Ġwanapo": 2725,
      "pungua": 2726,
      "skini": 2727,
      "rabu": 2728,
      "Ġcou": 2729,
      "anda": 2730,
      "Ġ18": 2731,
      "Ġmifugo": 2732,
      "Ġmade": 2733,
      "fanyiwa": 2734,
      "IS": 2735,
      "Ġwanataka": 2736,
      "Ġkuendeleza": 2737,
      "rejea": 2738,
      "Ġmawili": 2739,
      "leo": 2740,
      "ĠJuma": 2741,
      "shuhu": 2742,
      "tanga": 2743,
      "pili": 2744,
      "buri": 2745,
      "Ġkwetu": 2746,
      "Ġsafi": 2747,
      "Ġkutokea": 2748,
      "mar": 2749,
      "lai": 2750,
      "Ġmikutano": 2751,
      "Ġchanzo": 2752,
      "Ġcu": 2753,
      "bila": 2754,
      "kose": 2755,
      "dui": 2756,
      "Ġkisasa": 2757,
      "Ġmshi": 2758,
      "Ġwanasiasa": 2759,
      "zwe": 2760,
      "nte": 2761,
      "stahili": 2762,
      "Ġamri": 2763,
      "ifu": 2764,
      "liaji": 2765,
      "ĠIra": 2766,
      "Ġmsimamo": 2767,
      "Ġnjaa": 2768,
      "Ġurais": 2769,
      "ĠRe": 2770,
      "Ġmashamba": 2771,
      "Ġkumbe": 2772,
      "Ġkuuza": 2773,
      "dhalika": 2774,
      "):": 2775,
      "tra": 2776,
      "Ġisiyo": 2777,
      "wongo": 2778,
      "wishi": 2779,
      "der": 2780,
      "Ġmme": 2781,
      "Ġvingi": 2782,
      "Ġliki": 2783,
      "uawa": 2784,
      "Ġvu": 2785,
      "Ġroho": 2786,
      "tume": 2787,
      "rekebisho": 2788,
      "Ġmikataba": 2789,
      "Ġkutengeneza": 2790,
      "Ġnew": 2791,
      "15": 2792,
      "Wakati": 2793,
      "yansi": 2794,
      "den": 2795,
      "Ġukaguzi": 2796,
      "tangu": 2797,
      "Ġvyema": 2798,
      "13": 2799,
      "iri": 2800,
      "Ġwazazi": 2801,
      "Ġmagonjwa": 2802,
      "wekezaji": 2803,
      "Ġziara": 2804,
      "tumiwa": 2805,
      "Ġitakayo": 2806,
      "Ġupya": 2807,
      "fuatilia": 2808,
      "Ġninge": 2809,
      "Ġnusu": 2810,
      "Ġkusababisha": 2811,
      "Ġkikuu": 2812,
      "nes": 2813,
      "Ġmakuba": 2814,
      "Ġiwapo": 2815,
      "ĠRo": 2816,
      "Ġmalipo": 2817,
      "Ġnot": 2818,
      "Ġth": 2819,
      "ĠMuungano": 2820,
      "Ġmawaziri": 2821,
      "Ġwaweze": 2822,
      "beba": 2823,
      "Ġajabu": 2824,
      "mheshimiwa": 2825,
      "Ġad": 2826,
      "Ġmaarufu": 2827,
      "hivyo": 2828,
      "Ġhumu": 2829,
      "Ġai": 2830,
      "sahau": 2831,
      "maini": 2832,
      "lili": 2833,
      "Ġhela": 2834,
      "UN": 2835,
      "ndano": 2836,
      "siano": 2837,
      "Ġmakubaliano": 2838,
      "Ġkimoja": 2839,
      "Ġmiji": 2840,
      "Ġrasili": 2841,
      "rioba": 2842,
      "um": 2843,
      "Ġlissu": 2844,
      "mbie": 2845,
      "Ġmizi": 2846,
      "mbuli": 2847,
      "some": 2848,
      "Ġkulipa": 2849,
      "fanisi": 2850,
      "Ġwatatu": 2851,
      "Ġakam": 2852,
      "Ġutoaji": 2853,
      "Ġhuenda": 2854,
      "thmini": 2855,
      "Ġmaalumu": 2856,
      "Ġkijeshi": 2857,
      "od": 2858,
      "ĠHe": 2859,
      "rne": 2860,
      "Ġmzima": 2861,
      "Ġkupewa": 2862,
      "Ġsalama": 2863,
      "ĠLa": 2864,
      "Ġkiti": 2865,
      "Ġsama": 2866,
      "rodha": 2867,
      "Ġthis": 2868,
      "Ġmalengo": 2869,
      "Ġsura": 2870,
      "ikh": 2871,
      "Ġkampeni": 2872,
      "14": 2873,
      "choche": 2874,
      "ĠMashariki": 2875,
      "Ġmana": 2876,
      "Ġuhusiano": 2877,
      "Ġkuha": 2878,
      "Ġjirani": 2879,
      "Ġuganda": 2880,
      "Ġtra": 2881,
      "Ġsho": 2882,
      "Ġinavyo": 2883,
      "ght": 2884,
      "Ġwenzake": 2885,
      "Ġkichwa": 2886,
      "Ġkulinda": 2887,
      "Ġkufuata": 2888,
      "Ġyuko": 2889,
      "Ġwange": 2890,
      "Ġmapendekezo": 2891,
      "nekana": 2892,
      "Ġulimwengu": 2893,
      "kelezwa": 2894,
      "Baada": 2895,
      "Ġalio": 2896,
      "gizo": 2897,
      "Ġwaliyo": 2898,
      "stina": 2899,
      "Ġpri": 2900,
      "Ġvibaya": 2901,
      "Ġteknolojia": 2902,
      "Ġmagharibi": 2903,
      "tende": 2904,
      "Ġ17": 2905,
      "Ġkuomba": 2906,
      "Ġmabo": 2907,
      "ES": 2908,
      "Pia": 2909,
      "Ġkuwapa": 2910,
      "Ġrasilimali": 2911,
      "lfu": 2912,
      "Ġbahati": 2913,
      "pro": 2914,
      "Ġkifungu": 2915,
      "Ġmatukio": 2916,
      "Ġkambi": 2917,
      "somi": 2918,
      "mwagi": 2919,
      "Ġkupo": 2920,
      "Ġwau": 2921,
      "ĠKis": 2922,
      "stani": 2923,
      "ĠTume": 2924,
      "hiyo": 2925,
      "sababu": 2926,
      "Ġjukumu": 2927,
      "ĠKatiba": 2928,
      "tetea": 2929,
      "zimi": 2930,
      "ĠMaka": 2931,
      "Ġdemokrasia": 2932,
      "Ġmtandao": 2933,
      "vya": 2934,
      "Bw": 2935,
      "Ġufanisi": 2936,
      "Ġkuingi": 2937,
      "jadili": 2938,
      "Ġrisasi": 2939,
      "Ġuo": 2940,
      "jibika": 2941,
      "Ġmatibabu": 2942,
      "Ġmwandishi": 2943,
      "Ġmaadili": 2944,
      "18": 2945,
      "Ġulaya": 2946,
      "tatu": 2947,
      "oa": 2948,
      "Ġmchango": 2949,
      "Ġkukosa": 2950,
      "Ġuongo": 2951,
      "Ġdp": 2952,
      "Ġpla": 2953,
      "rifa": 2954,
      "nder": 2955,
      "Ġwafanyabiashara": 2956,
      "nufa": 2957,
      "zunguka": 2958,
      "Ġkamili": 2959,
      "Ġyasiyo": 2960,
      "Ġvijiji": 2961,
      "gundua": 2962,
      "land": 2963,
      "Ġtakri": 2964,
      "Ġmachi": 2965,
      "Ġmfuko": 2966,
      "mes": 2967,
      "Ġwalivyo": 2968,
      "Ġatakuwa": 2969,
      "Ġujinga": 2970,
      "siri": 2971,
      "Ġwingi": 2972,
      "llah": 2973,
      "jeruhi": 2974,
      "thibitisha": 2975,
      "sed": 2976,
      "pte": 2977,
      "ĠKusini": 2978,
      "ZIRI": 2979,
      "hamasi": 2980,
      "Ġmiundombinu": 2981,
      "Hu": 2982,
      "Ġkuelekea": 2983,
      "day": 2984,
      "gua": 2985,
      "fikiria": 2986,
      "muni": 2987,
      "tenda": 2988,
      "luma": 2989,
      "Ġkujibu": 2990,
      "kusanya": 2991,
      "Ġkukaa": 2992,
      "ccm": 2993,
      "lifu": 2994,
      "mbano": 2995,
      "Ġmarekebisho": 2996,
      "ĠBaraza": 2997,
      "ngaji": 2998,
      "ĠPro": 2999,
      "Ġusio": 3000,
      "fesa": 3001,
      "Ġmarehemu": 3002,
      "lewe": 3003,
      "ĠDk": 3004,
      "Ġjf": 3005,
      "Ġmakuu": 3006,
      "ture": 3007,
      "dan": 3008,
      "Ġpande": 3009,
      "Ġlilikuwa": 3010,
      "Ġwhi": 3011,
      "lipwa": 3012,
      "aidha": 3013,
      "tano": 3014,
      "chimba": 3015,
      "Ġtz": 3016,
      "ngezeko": 3017,
      "KU": 3018,
      "habu": 3019,
      "fana": 3020,
      "ĠBe": 3021,
      "ĠTu": 3022,
      "Ġkuangalia": 3023,
      "Ġpole": 3024,
      "labu": 3025,
      "Ġhawezi": 3026,
      "kezo": 3027,
      "Ġtanga": 3028,
      "Ġajali": 3029,
      "shangaa": 3030,
      "ting": 3031,
      "Ġlangu": 3032,
      "Ġkumwa": 3033,
      "Ġbure": 3034,
      "Ġyenyewe": 3035,
      "Ġlicha": 3036,
      "nganisha": 3037,
      "ruhusi": 3038,
      "17": 3039,
      "Ġmgombea": 3040,
      "Ġnaku": 3041,
      "fariki": 3042,
      "Ġuwezekano": 3043,
      "sikiliza": 3044,
      "Ġkuchangia": 3045,
      "tt": 3046,
      "gopa": 3047,
      "mma": 3048,
      "Ġvipa": 3049,
      "Ġzingine": 3050,
      "mbizi": 3051,
      "Ġumaskini": 3052,
      "bai": 3053,
      "faka": 3054,
      "Ġlini": 3055,
      "staafu": 3056,
      "Ġaibu": 3057,
      "Ġubora": 3058,
      "Ana": 3059,
      "Ġkulikuwa": 3060,
      "nuari": 3061,
      "shuhudia": 3062,
      "Ġinge": 3063,
      "tes": 3064,
      "Ġwanajeshi": 3065,
      "Ġmitatu": 3066,
      "safiri": 3067,
      "pitia": 3068,
      "Ġngumu": 3069,
      "Ġyupo": 3070,
      "Ġkara": 3071,
      "zingatia": 3072,
      "chia": 3073,
      "zui": 3074,
      "ĠTe": 3075,
      "tosha": 3076,
      "ĠDa": 3077,
      "tic": 3078,
      "kila": 3079,
      "saidie": 3080,
      "22": 3081,
      "DE": 3082,
      "hanga": 3083,
      "ĠChuo": 3084,
      "16": 3085,
      "Ġviwango": 3086,
      "Ġathari": 3087,
      "ĠIsraeli": 3088,
      "Ġmasomo": 3089,
      "mtu": 3090,
      "Ġnisha": 3091,
      "choki": 3092,
      "Ġkukamili": 3093,
      "waziri": 3094,
      "letea": 3095,
      "wakilishi": 3096,
      "uzwa": 3097,
      "Ġus": 3098,
      "Ġmua": 3099,
      "ĠHi": 3100,
      "Ġkm": 3101,
      "Ġmaandamano": 3102,
      "wazi": 3103,
      "Ġwakubwa": 3104,
      "Ġpoli": 3105,
      "Ġnami": 3106,
      "fuko": 3107,
      "Ġwarioba": 3108,
      "mbulizi": 3109,
      "Ġutakuwa": 3110,
      "dhuria": 3111,
      "Ġ25": 3112,
      "Ġyalikuwa": 3113,
      "Ġwanaume": 3114,
      "biria": 3115,
      "Ġrangi": 3116,
      "Ġvitabu": 3117,
      "Ġviti": 3118,
      "ction": 3119,
      "Ġhusu": 3120,
      "Ġ30": 3121,
      "elezwa": 3122,
      "Ġhasara": 3123,
      "tho": 3124,
      "sara": 3125,
      "bishwa": 3126,
      "zoefu": 3127,
      "ple": 3128,
      "Ġkuendesha": 3129,
      "Ġkikwete": 3130,
      "ongezeka": 3131,
      "nunu": 3132,
      "nzetu": 3133,
      "kali": 3134,
      "Ġkudhibiti": 3135,
      "per": 3136,
      "Ġhofu": 3137,
      "fuatayo": 3138,
      "gramu": 3139,
      "kuza": 3140,
      "saidizi": 3141,
      "Ġkufika": 3142,
      "Ġkufanyika": 3143,
      "ĠUjerumani": 3144,
      "wata": 3145,
      "Ġkifu": 3146,
      "Ġhuwezi": 3147,
      "Ġkufuatia": 3148,
      "rabati": 3149,
      "ĠLe": 3150,
      "kto": 3151,
      "Ġwanayo": 3152,
      "semaji": 3153,
      "mvi": 3154,
      "Ġmisingi": 3155,
      "Ġmchana": 3156,
      "Bwana": 3157,
      "fsiri": 3158,
      "Pa": 3159,
      "Ġwawe": 3160,
      "zalendo": 3161,
      "Ġmto": 3162,
      "Ġjioni": 3163,
      "Ġwapinzani": 3164,
      "bii": 3165,
      "dani": 3166,
      "Ġworld": 3167,
      "rasi": 3168,
      "ĠKiswahili": 3169,
      "Ġmakazi": 3170,
      "ĠâĢĺ": 3171,
      "ote": 3172,
      "ĠBasi": 3173,
      "Ġvyao": 3174,
      "Ġmbingu": 3175,
      "Ġushindi": 3176,
      "Ġkumbukumbu": 3177,
      "Ġacha": 3178,
      "nyiko": 3179,
      "dy": 3180,
      "wn": 3181,
      "Ġkuwasili": 3182,
      "ĠMaendeleo": 3183,
      "Ġkupinga": 3184,
      "Ġtru": 3185,
      "Ġadhabu": 3186,
      "Ġkelele": 3187,
      "tihada": 3188,
      "Ġhave": 3189,
      "kodi": 3190,
      "Ġper": 3191,
      "iro": 3192,
      "Ġmfupi": 3193,
      "Ġndoa": 3194,
      "Ġatakaye": 3195,
      "Ġmh": 3196,
      "Ġkudai": 3197,
      "Ġall": 3198,
      "Ġahadi": 3199,
      "Ġuingereza": 3200,
      "Ġtanu": 3201,
      "Ġfeb": 3202,
      "Ġwatakao": 3203,
      "Ġupatikana": 3204,
      "Ġilipo": 3205,
      "vaa": 3206,
      "ĠShirika": 3207,
      "linda": 3208,
      "Ġzenu": 3209,
      "ĠGe": 3210,
      "fuatavyo": 3211,
      "Ġmitano": 3212,
      "maani": 3213,
      "Ġanapo": 3214,
      "Ġjapo": 3215,
      "as": 3216,
      "Ġkt": 3217,
      "ĠChi": 3218,
      "BU": 3219,
      "Ġarusha": 3220,
      "ĠWaheshimiwa": 3221,
      "SA": 3222,
      "ringa": 3223,
      "liwe": 3224,
      "Ġkutumika": 3225,
      "kraine": 3226,
      "unda": 3227,
      "Ġzilikuwa": 3228,
      "dri": 3229,
      "Ġvisi": 3230,
      "Ġupatikanaji": 3231,
      "twara": 3232,
      "Ġkote": 3233,
      "kwimu": 3234,
      "njo": 3235,
      "Ġidara": 3236,
      "Ġkipe": 3237,
      "Ġpengine": 3238,
      "Ġsuluhu": 3239,
      "swahili": 3240,
      "Ġwanavyo": 3241,
      "ĠMataifa": 3242,
      "ĠElimu": 3243,
      "Ġmifumo": 3244,
      "leza": 3245,
      "Ġkujadili": 3246,
      "Ġkuandaa": 3247,
      "Ġnilikuwa": 3248,
      "Ġmajengo": 3249,
      "Ġmuundo": 3250,
      "Ġnyama": 3251,
      "it": 3252,
      "heshimu": 3253,
      "zamo": 3254,
      "Ġmahindi": 3255,
      "Ġjitihada": 3256,
      "naji": 3257,
      "nika": 3258,
      "lango": 3259,
      "mishwa": 3260,
      "Mimi": 3261,
      "kamata": 3262,
      "use": 3263,
      "haha": 3264,
      "Ġkatikati": 3265,
      "thirika": 3266,
      "Ġvyuo": 3267,
      "Ġuende": 3268,
      "sefu": 3269,
      "Ġktk": 3270,
      "Ġwagonjwa": 3271,
      "jue": 3272,
      "Tu": 3273,
      "fuu": 3274,
      "Ġhazina": 3275,
      "hiti": 3276,
      "mbazi": 3277,
      "Ġmadhara": 3278,
      "lele": 3279,
      "Ġndivyo": 3280,
      "Ġwataalamu": 3281,
      "Ġud": 3282,
      "ĠKima": 3283,
      "Ġchombo": 3284,
      "lalamika": 3285,
      "Ġkuvi": 3286,
      "moni": 3287,
      "Ġalipokuwa": 3288,
      "rume": 3289,
      "ĠShu": 3290,
      "Ġzisizo": 3291,
      "lli": 3292,
      "Ġmage": 3293,
      "samba": 3294,
      "MHE": 3295,
      "ĠIraq": 3296,
      "NA": 3297,
      "lim": 3298,
      "Ġmicha": 3299,
      "vunja": 3300,
      "Ġkupanda": 3301,
      "mbani": 3302,
      "fla": 3303,
      "ficha": 3304,
      "Ġiliyopo": 3305,
      "Ġmwenza": 3306,
      "Ġchina": 3307,
      "Ġdhamana": 3308,
      "rili": 3309,
      "nunuzi": 3310,
      "Ġkuacha": 3311,
      "Ġwizi": 3312,
      "Ġhalali": 3313,
      "Ġmga": 3314,
      "hat": 3315,
      "habari": 3316,
      "Ġhavi": 3317,
      "Ġongezeko": 3318,
      "Ġviko": 3319,
      "ĠBen": 3320,
      "leke": 3321,
      "Ġenzi": 3322,
      "upe": 3323,
      "Ġmbolea": 3324,
      "Ġwaja": 3325,
      "tolea": 3326,
      "geria": 3327,
      "Ġmakao": 3328,
      "Ġmatunda": 3329,
      "zimio": 3330,
      "fau": 3331,
      "Ġhifadhi": 3332,
      "Ġhewa": 3333,
      "tarajia": 3334,
      "Ġnishati": 3335,
      "Ġkitendo": 3336,
      "23": 3337,
      "gezo": 3338,
      "Ġ2004": 3339,
      "\".": 3340,
      "katiba": 3341,
      "ongea": 3342,
      "Ġpm": 3343,
      "sm": 3344,
      "Ġmaskini": 3345,
      "angalia": 3346,
      "ast": 3347,
      "ziki": 3348,
      "ndiki": 3349,
      "enye": 3350,
      "tri": 3351,
      "Ġkuhusiana": 3352,
      "huma": 3353,
      "Ġhakuwa": 3354,
      "lianza": 3355,
      "dudu": 3356,
      "aji": 3357,
      "ls": 3358,
      "ps": 3359,
      "ssia": 3360,
      "mas": 3361,
      "Ġmasa": 3362,
      "CO": 3363,
      "imu": 3364,
      "Ġibara": 3365,
      "tengeneza": 3366,
      "Ġsamaki": 3367,
      "Ġsina": 3368,
      "Ġ2005": 3369,
      "Ġwawekezaji": 3370,
      "Ġkwako": 3371,
      "Ġgi": 3372,
      "Ġone": 3373,
      "azi": 3374,
      "shuka": 3375,
      "Ġwasiwasi": 3376,
      "Ġmiguu": 3377,
      "Ġakisema": 3378,
      "Ġkuonyesha": 3379,
      "ces": 3380,
      "Ġmaya": 3381,
      "Ġhasi": 3382,
      "fara": 3383,
      "sale": 3384,
      "Ġhaiku": 3385,
      "lalamiko": 3386,
      "Ġmaombi": 3387,
      "my": 3388,
      "pango": 3389,
      "chunguza": 3390,
      "mwagiliaji": 3391,
      "--": 3392,
      "Ġwageni": 3393,
      "rithi": 3394,
      "sikiti": 3395,
      "Ġwatakuwa": 3396,
      "daka": 3397,
      "Ġhawata": 3398,
      "Ġun": 3399,
      "ĠSha": 3400,
      "ishia": 3401,
      "Ġukraine": 3402,
      "Ġwateja": 3403,
      "Ġwape": 3404,
      "toliki": 3405,
      "Ġjibu": 3406,
      "Ġnguo": 3407,
      "Ġmgogoro": 3408,
      "ser": 3409,
      "Ġzipo": 3410,
      "Ġkondo": 3411,
      "ĠJeshi": 3412,
      "ndiko": 3413,
      "islam": 3414,
      "tter": 3415,
      "Ġsto": 3416,
      "ndapo": 3417,
      "rema": 3418,
      "ndisha": 3419,
      "Ġendele": 3420,
      "ĠKatika": 3421,
      "Ġ...": 3422,
      "Ġnk": 3423,
      "Ġhatimaye": 3424,
      "Ġmanufaa": 3425,
      "mavu": 3426,
      "kima": 3427,
      "Ġkero": 3428,
      "mzi": 3429,
      "Ġada": 3430,
      "tengene": 3431,
      "Ġmikakati": 3432,
      "Aka": 3433,
      "tekeleza": 3434,
      "Ġviwanja": 3435,
      "fikisha": 3436,
      "ĠOfisi": 3437,
      "MW": 3438,
      "stawi": 3439,
      "Ġutamaduni": 3440,
      "amhuri": 3441,
      "ĠYu": 3442,
      "ĠDodoma": 3443,
      "amu": 3444,
      "mwaka": 3445,
      "kala": 3446,
      "Ġkadhalika": 3447,
      "Ġmishahara": 3448,
      "Ġmisaada": 3449,
      "tendaji": 3450,
      "Ġjengo": 3451,
      "Ġwachezaji": 3452,
      "lali": 3453,
      "Ġkigeni": 3454,
      "Ġtamaa": 3455,
      "shambulia": 3456,
      "pati": 3457,
      "Ġnjema": 3458,
      "Ġmnamo": 3459,
      "BA": 3460,
      "Ġup": 3461,
      "fungwa": 3462,
      "Ġlao": 3463,
      "Ye": 3464,
      "dhe": 3465,
      "Ġspe": 3466,
      "Ġdakika": 3467,
      "Ġmzigo": 3468,
      "Ġmashu": 3469,
      "Ġkadi": 3470,
      "jali": 3471,
      "ingiza": 3472,
      "gwe": 3473,
      "ĠYo": 3474,
      "Ġmjadala": 3475,
      "yahudi": 3476,
      "reva": 3477,
      "Ġrafiki": 3478,
      "dumia": 3479,
      "Ġasiye": 3480,
      "Ġbodi": 3481,
      "Ġwaha": 3482,
      "Ġkudumu": 3483,
      "Ġunge": 3484,
      "ĠUlaya": 3485,
      "Ra": 3486,
      "fafa": 3487,
      "njaro": 3488,
      "Ġwacha": 3489,
      "Ġunapo": 3490,
      "Ġhaita": 3491,
      "Ġjohn": 3492,
      "maji": 3493,
      "Ġsekondari": 3494,
      "Ġkuunda": 3495,
      "Ġhapana": 3496,
      "Ġwatendaji": 3497,
      "Ġvifo": 3498,
      "Ġwanam": 3499,
      "Ġmchanga": 3500,
      "maanisha": 3501,
      "Ġwashi": 3502,
      "Ġifuatavyo": 3503,
      "view": 3504,
      "Ġhassan": 3505,
      "nsia": 3506,
      "ongeze": 3507,
      "Ġuso": 3508,
      "ĠJamhuri": 3509,
      "Ġmasoko": 3510,
      "jumuisha": 3511,
      "pp": 3512,
      "undwa": 3513,
      "Ġkukabiliana": 3514,
      "bani": 3515,
      "Ġmalalamiko": 3516,
      "nguka": 3517,
      "kabidhi": 3518,
      "anzisha": 3519,
      "ding": 3520,
      "fundisha": 3521,
      "pendekezwa": 3522,
      "Ġmakamu": 3523,
      "25": 3524,
      "Mungu": 3525,
      "Ġisipokuwa": 3526,
      "ĠSimba": 3527,
      "frica": 3528,
      "Ġmatumaini": 3529,
      "Ġchache": 3530,
      "rusale": 3531,
      "Ġjumuiya": 3532,
      "Ġmadawa": 3533,
      "Ġkabila": 3534,
      "Ġmbeya": 3535,
      "kamilika": 3536,
      "ambiwa": 3537,
      "rage": 3538,
      "bert": 3539,
      "hsante": 3540,
      "ration": 3541,
      "Ġkikundi": 3542,
      "pangwa": 3543,
      "Ġdalili": 3544,
      "Ġmsimu": 3545,
      "Ġmacha": 3546,
      "Ġkukusa": 3547,
      "Ġkusha": 3548,
      "cial": 3549,
      "Ġkupeleka": 3550,
      "Ġpasi": 3551,
      "Ġamekuwa": 3552,
      "Ġkutambua": 3553,
      "liona": 3554,
      "keti": 3555,
      "aki": 3556,
      "Ġkuondoka": 3557,
      "Ġtuhuma": 3558,
      "Ġkushinda": 3559,
      "blia": 3560,
      "vemba": 3561,
      "Ġwho": 3562,
      "UF": 3563,
      "pm": 3564,
      "ris": 3565,
      "stan": 3566,
      "Ġninyi": 3567,
      "ĠNya": 3568,
      "stari": 3569,
      "ĠMwana": 3570,
      "Ġiliyokuwa": 3571,
      "21": 3572,
      "deo": 3573,
      "Ġmechi": 3574,
      "Ġhukumu": 3575,
      "Ġmy": 3576,
      "ulize": 3577,
      "Ġmaziwa": 3578,
      "hamasisha": 3579,
      "spaa": 3580,
      "ile": 3581,
      "Ġkulia": 3582,
      "Ġnam": 3583,
      "Ġanayo": 3584,
      "Ġanataka": 3585,
      "ĠArusha": 3586,
      "kwazo": 3587,
      "tembelea": 3588,
      "Ġmil": 3589,
      "Ġgesi": 3590,
      "ktoba": 3591,
      "Ġmay": 3592,
      "ĠBenki": 3593,
      "LA": 3594,
      "Ġkumaliza": 3595,
      "nyanga": 3596,
      "kiri": 3597,
      "Ġkwangu": 3598,
      "Ġwenzetu": 3599,
      "Ġhatuna": 3600,
      "ĠMbe": 3601,
      "Ġ24": 3602,
      "husiano": 3603,
      "nispaa": 3604,
      "Ġkarne": 3605,
      "mita": 3606,
      "twe": 3607,
      "Ġhuja": 3608,
      "Ġupungufu": 3609,
      "Ġmwingi": 3610,
      "Ġinter": 3611,
      "Ġuzoefu": 3612,
      "safi": 3613,
      "Ġvikao": 3614,
      "Ġope": 3615,
      "ĠMaa": 3616,
      "cheza": 3617,
      "arabu": 3618,
      "nganishwa": 3619,
      "Ġdhahabu": 3620,
      "likuwa": 3621,
      "hivi": 3622,
      "Ġmipaka": 3623,
      "ĠFedha": 3624,
      "Ġmwanza": 3625,
      "Ġbaadae": 3626,
      "Ġkujifunza": 3627,
      "30": 3628,
      "plo": 3629,
      "malizika": 3630,
      "wongozo": 3631,
      "Ġyafuatayo": 3632,
      "Ġikulu": 3633,
      "elekeza": 3634,
      "lf": 3635,
      "Ġkupokea": 3636,
      "himili": 3637,
      "kwaa": 3638,
      "Ġukumbi": 3639,
      "lete": 3640,
      "Serikali": 3641,
      "rk": 3642,
      "Ġmajimbo": 3643,
      "rundi": 3644,
      "roni": 3645,
      "ĠUta": 3646,
      "Ġwill": 3647,
      "llo": 3648,
      "pumbavu": 3649,
      "Ġyesu": 3650,
      "Ġ22": 3651,
      "ven": 3652,
      "Ġnawa": 3653,
      "Ġmabaya": 3654,
      "Ġiba": 3655,
      "Ġmingine": 3656,
      "ahidi": 3657,
      "Ġnataka": 3658,
      "Ġendapo": 3659,
      "sukuma": 3660,
      "Hii": 3661,
      "mpo": 3662,
      "wekeza": 3663,
      "ĠJimbo": 3664,
      "andikwa": 3665,
      "Ġamewa": 3666,
      "ĠZi": 3667,
      "audi": 3668,
      "Ġkira": 3669,
      "seph": 3670,
      "potea": 3671,
      "SI": 3672,
      "Ġkuba": 3673,
      "Ġrussia": 3674,
      "misho": 3675,
      "ĠAb": 3676,
      "dul": 3677,
      "Ġsoka": 3678,
      "Ġangalau": 3679,
      "umbele": 3680,
      "shuru": 3681,
      "Ġmkakati": 3682,
      "pigano": 3683,
      "DA": 3684,
      "Ġkuepu": 3685,
      "Ġkike": 3686,
      "ĠMis": 3687,
      "Ġmimba": 3688,
      "Ġzoezi": 3689,
      "Ġuteuzi": 3690,
      "kita": 3691,
      "tuo": 3692,
      "zungumzwa": 3693,
      "ambia": 3694,
      "Ġmfanya": 3695,
      "Ġija": 3696,
      "Ġwaasi": 3697,
      "Ġhis": 3698,
      "Ġtakwimu": 3699,
      "rudisha": 3700,
      "Ġumwagiliaji": 3701,
      "teuliwa": 3702,
      "rura": 3703,
      "mama": 3704,
      "tafu": 3705,
      "tengo": 3706,
      "Ġq": 3707,
      "Ġwanafanya": 3708,
      "lizo": 3709,
      "gera": 3710,
      "Ġwakimbizi": 3711,
      "Ġz": 3712,
      "mimi": 3713,
      "Ġbusara": 3714,
      "side": 3715,
      "Ġimara": 3716,
      "Ġinapo": 3717,
      "Ġorodha": 3718,
      "nts": 3719,
      "kawa": 3720,
      "Ġmabi": 3721,
      "fadhali": 3722,
      "Ġkuwasaidia": 3723,
      "shtaka": 3724,
      "Ġnyie": 3725,
      "Ġmwishoni": 3726,
      "chukue": 3727,
      "ok": 3728,
      "zuku": 3729,
      "Ġwahusika": 3730,
      "Ġsadaka": 3731,
      "ruari": 3732,
      "Ġbinti": 3733,
      "tenga": 3734,
      "Ġviu": 3735,
      "puuzi": 3736,
      "Ġpwani": 3737,
      "tumikia": 3738,
      "Ġmakampuni": 3739,
      "Ġkuongoza": 3740,
      "Ġufisadi": 3741,
      "mehe": 3742,
      "kabili": 3743,
      "Ġdarasa": 3744,
      "\",": 3745,
      "Ġkiji": 3746,
      "kes": 3747,
      "takavyo": 3748,
      "Ġmtumishi": 3749,
      "tumie": 3750,
      "shiki": 3751,
      "ngida": 3752,
      "Ġmwanafunzi": 3753,
      "tto": 3754,
      "ĠWaislamu": 3755,
      "Ġce": 3756,
      "ĠSta": 3757,
      "Ġ21": 3758,
      "ptemba": 3759,
      "Ġtawala": 3760,
      "Ġmeli": 3761,
      "Ġkukubali": 3762,
      "Ġjiji": 3763,
      "Ġmkurugenzi": 3764,
      "Ġkuzungumza": 3765,
      "Ġmajeshi": 3766,
      "rekebisha": 3767,
      "Ġklabu": 3768,
      "Ġkisi": 3769,
      "ĠIn": 3770,
      "Ġwafuasi": 3771,
      "tere": 3772,
      "Ġmki": 3773,
      "Ġziwa": 3774,
      "Ġtija": 3775,
      "Ġkuzalisha": 3776,
      "iko": 3777,
      "Ġmjumbe": 3778,
      "lin": 3779,
      "Ġabiria": 3780,
      "Ġmume": 3781,
      "Ġdhana": 3782,
      "ĠWAZIRI": 3783,
      "Ġmku": 3784,
      "Ġhesabu": 3785,
      "unti": 3786,
      "ngua": 3787,
      "lazimika": 3788,
      "Ġuhai": 3789,
      "24": 3790,
      "Ġnazo": 3791,
      "Ġvikundi": 3792,
      "Ġdaraja": 3793,
      "Ġwaku": 3794,
      "Ġlingine": 3795,
      "Ġmigogoro": 3796,
      "Ġhadhi": 3797,
      "jifunza": 3798,
      "ĠMHE": 3799,
      "ĠDu": 3800,
      "Ġkupoteza": 3801,
      "rini": 3802,
      "Ġusajili": 3803,
      "haribi": 3804,
      "Ġchenye": 3805,
      "fadhili": 3806,
      "Ġnane": 3807,
      "teli": 3808,
      "Ġsimba": 3809,
      "Ġ100": 3810,
      "Ġsoma": 3811,
      "Ġkukuza": 3812,
      "Ġniaba": 3813,
      "Ġmilele": 3814,
      "Ġkumpa": 3815,
      "tupa": 3816,
      "Ġchuki": 3817,
      "ĠMorogoro": 3818,
      "sri": 3819,
      "riko": 3820,
      "ĠTi": 3821,
      "Ġkubadilisha": 3822,
      "ruhusiwa": 3823,
      "Ġnaibu": 3824,
      "pale": 3825,
      "Ġdata": 3826,
      "MI": 3827,
      "ol": 3828,
      "rwa": 3829,
      "Ġndilo": 3830,
      "tazama": 3831,
      "Ġtime": 3832,
      "nime": 3833,
      "mwana": 3834,
      "jitahidi": 3835,
      "gy": 3836,
      "riwa": 3837,
      "kimbia": 3838,
      "Ġhadha": 3839,
      "Ġhovyo": 3840,
      "Ġmkulima": 3841,
      "Ġkuamini": 3842,
      "Ġ23": 3843,
      "Ġkuua": 3844,
      "Ġaa": 3845,
      "mb": 3846,
      "Ġtaka": 3847,
      "Ġmojawapo": 3848,
      "Ġbut": 3849,
      "MU": 3850,
      "Ġalama": 3851,
      "Ġposho": 3852,
      "tari": 3853,
      "Ġmawe": 3854,
      "Ġwito": 3855,
      "livu": 3856,
      "Ġala": 3857,
      "zulu": 3858,
      "Ġwilayani": 3859,
      "Ġharakati": 3860,
      "gusa": 3861,
      "hadha": 3862,
      "tawa": 3863,
      "siku": 3864,
      "pigia": 3865,
      "Ġvyake": 3866,
      "uwa": 3867,
      "fakari": 3868,
      "rudia": 3869,
      "Ġkusamba": 3870,
      "fanana": 3871,
      "Ġwawakilishi": 3872,
      "Ġkujia": 3873,
      "Ġupi": 3874,
      "Ġmabe": 3875,
      "Ġkikosi": 3876,
      "sihi": 3877,
      "ruki": 3878,
      "Ġunataka": 3879,
      "Ġ50": 3880,
      "Ġrwanda": 3881,
      "Ġkiwanda": 3882,
      "Ġjua": 3883,
      "Ġwhat": 3884,
      "Ġhisia": 3885,
      "Ġalitoa": 3886,
      "Ġjpm": 3887,
      "ATI": 3888,
      "mkuu": 3889,
      "Ġkucho": 3890,
      "Ġakamwambia": 3891,
      "Ġtiba": 3892,
      "gosti": 3893,
      "nment": 3894,
      "ham": 3895,
      "Ġufafa": 3896,
      "sse": 3897,
      "hakuna": 3898,
      "saji": 3899,
      "Ġmashindano": 3900,
      "rusalemu": 3901,
      "salama": 3902,
      "ĠMaji": 3903,
      "Ġkupita": 3904,
      "Ġmakala": 3905,
      "uki": 3906,
      "mbamba": 3907,
      "Ġraisi": 3908,
      "ĠIsrael": 3909,
      "nali": 3910,
      "Ġst": 3911,
      "Ġtundu": 3912,
      "Ġanawa": 3913,
      "Ġdec": 3914,
      "diliano": 3915,
      "Ġkale": 3916,
      "Ġlaki": 3917,
      "vuti": 3918,
      "lum": 3919,
      "Ġkuamua": 3920,
      "Ġtunaweza": 3921,
      "JI": 3922,
      "gemea": 3923,
      "yana": 3924,
      "Ġkuelewa": 3925,
      "Ġkujiunga": 3926,
      "badilika": 3927,
      "Ġkwasababu": 3928,
      "Ġuendeshaji": 3929,
      "Ġudongo": 3930,
      "Ġufafanuzi": 3931,
      "lion": 3932,
      "Ġvema": 3933,
      "Ġwataalam": 3934,
      "Ġtakriban": 3935,
      "maha": 3936,
      "shirikiana": 3937,
      "ĠKristo": 3938,
      "vid": 3939,
      "Ġfuraha": 3940,
      "Ġuzito": 3941,
      "Ġkukusanya": 3942,
      "ule": 3943,
      "Ġudha": 3944,
      "Ġkingine": 3945,
      "meta": 3946,
      "Ġdkt": 3947,
      "Ġwalisema": 3948,
      "Ġmema": 3949,
      "Ġkide": 3950,
      "ĠAfya": 3951,
      "Ġmwananchi": 3952,
      "Ġisrael": 3953,
      "dara": 3954,
      "Ġtele": 3955,
      "Ġtisa": 3956,
      "funguliwa": 3957,
      "Ġhadharani": 3958,
      "Ġmadhu": 3959,
      "Ġmorogoro": 3960,
      "Ġinakuwa": 3961,
      "mbuliwa": 3962,
      "Ġitaendelea": 3963,
      "Ġasema": 3964,
      "poke": 3965,
      "Ġtri": 3966,
      "andaa": 3967,
      "biki": 3968,
      "jumaa": 3969,
      "ĠNchi": 3970,
      "Ġreli": 3971,
      "Ġkamwe": 3972,
      "Hivyo": 3973,
      "teua": 3974,
      "Ġchao": 3975,
      "Ġruzuku": 3976,
      "nse": 3977,
      "wer": 3978,
      "Ġkibiashara": 3979,
      "ĠTA": 3980,
      "Ġmashambulizi": 3981,
      "Ġmagazeti": 3982,
      "We": 3983,
      "Ġmapigano": 3984,
      "Ġmaarifa": 3985,
      "Ġutalii": 3986,
      "Ġ26": 3987,
      "rge": 3988,
      "Ġipi": 3989,
      "Ġmtaji": 3990,
      "nzibari": 3991,
      "manne": 3992,
      "kwenye": 3993,
      "elewe": 3994,
      "Ġkuongezeka": 3995,
      "thio": 3996,
      "tegeme": 3997,
      "skofu": 3998,
      "Ġnalo": 3999,
      "pishwa": 4000,
      "Ġinasema": 4001,
      "ĠYanga": 4002,
      "Ġadui": 4003,
      "huru": 4004,
      "Ġprof": 4005,
      "Ġx": 4006,
      "hapa": 4007,
      "Ġhatia": 4008,
      "pamoja": 4009,
      "pitisha": 4010,
      "geuka": 4011,
      "Ġkusikia": 4012,
      "pitishwa": 4013,
      "com": 4014,
      "Ġukosefu": 4015,
      "bra": 4016,
      "ople": 4017,
      "Ġaje": 4018,
      "mie": 4019,
      "Ġupendo": 4020,
      "raji": 4021,
      "israeli": 4022,
      "Ġhadithi": 4023,
      "Ġkujali": 4024,
      "jaji": 4025,
      "Ġmaandalizi": 4026,
      "ds": 4027,
      "Ġwastani": 4028,
      "Ġuliopo": 4029,
      "Ġnilivyo": 4030,
      "haya": 4031,
      "seni": 4032,
      "ĠAka": 4033,
      "cra": 4034,
      "nje": 4035,
      "Ġmashtaka": 4036,
      "Ġjipya": 4037,
      "Ġsherehe": 4038,
      "ĠMikoa": 4039,
      "rali": 4040,
      "Ġmuziki": 4041,
      "Ġwhe": 4042,
      "thiopia": 4043,
      "Mwenye": 4044,
      "Ġwanaji": 4045,
      "Ġcan": 4046,
      "kuli": 4047,
      "semi": 4048,
      "Ġvyenye": 4049,
      "chungaji": 4050,
      "kabiliwa": 4051,
      "cheni": 4052,
      "Ġmagumu": 4053,
      "Ġikawa": 4054,
      "takatifu": 4055,
      "Ġwanawa": 4056,
      "mbilia": 4057,
      "ĠNe": 4058,
      "endeshwa": 4059,
      "Ġnyongeza": 4060,
      "Ġwagombea": 4061,
      "velo": 4062,
      "Ġhasira": 4063,
      "Ġijayo": 4064,
      "ys": 4065,
      "gambo": 4066,
      "nyanya": 4067,
      "Ġyapo": 4068,
      "Ġag": 4069,
      "diwani": 4070,
      "Ġinaendelea": 4071,
      "Ġ27": 4072,
      "fanikisha": 4073,
      "ĠMwanza": 4074,
      "zoea": 4075,
      "danganya": 4076,
      "zani": 4077,
      "rugu": 4078,
      "gano": 4079,
      "ĠKisha": 4080,
      "stitu": 4081,
      "kamilifu": 4082,
      "Ġkuhifadhi": 4083,
      "faransa": 4084,
      "Ġkwenu": 4085,
      "ĠMuswada": 4086,
      "ness": 4087,
      "Ġthen": 4088,
      "Ġhawawezi": 4089,
      "kilishi": 4090,
      "Ġushirika": 4091,
      "bc": 4092,
      "Ġvideo": 4093,
      "takazo": 4094,
      "Ġserikalini": 4095,
      "ĠKili": 4096,
      "Ġhususan": 4097,
      "Ġutakao": 4098,
      "Ġmago": 4099,
      "ĠMwe": 4100,
      "fikiwa": 4101,
      "Ġmaambuki": 4102,
      "dugu": 4103,
      "Ġulivyo": 4104,
      "Ġbro": 4105,
      "ĠShule": 4106,
      "ĠMambo": 4107,
      "Ġwatawala": 4108,
      "Ġmtazamo": 4109,
      "Ġusu": 4110,
      "mivu": 4111,
      "Ġufugaji": 4112,
      "wasilisha": 4113,
      "wekea": 4114,
      "nzia": 4115,
      "shtakiwa": 4116,
      "Ġ28": 4117,
      "thu": 4118,
      "Ġkukutana": 4119,
      "minifu": 4120,
      "Ġkutangaza": 4121,
      "Ġmkali": 4122,
      "Ġukubwa": 4123,
      "rasa": 4124,
      "sari": 4125,
      "ifanya": 4126,
      "Ġmsu": 4127,
      "hutu": 4128,
      "ĠUingereza": 4129,
      "udi": 4130,
      "Ġkueleza": 4131,
      "historia": 4132,
      "Ġkazini": 4133,
      "kosea": 4134,
      "Mwa": 4135,
      "Ġtsh": 4136,
      "ĠCHA": 4137,
      "Ġcag": 4138,
      "bainisha": 4139,
      "Ġkuwasilisha": 4140,
      "Ġvia": 4141,
      "Ġbalozi": 4142,
      "ribio": 4143,
      "Ġmpira": 4144,
      "TI": 4145,
      "ĠMwi": 4146,
      "ĠDaudi": 4147,
      "Ġpopote": 4148,
      "fahamika": 4149,
      "Ġutumishi": 4150,
      "Ġmadaktari": 4151,
      "Ġjoto": 4152,
      "haribifu": 4153,
      "nsa": 4154,
      "Ġalicho": 4155,
      "Ġpart": 4156,
      "Ġgover": 4157,
      "Ġmakonda": 4158,
      "Ġnafuu": 4159,
      "Ġkitaa": 4160,
      "ĠKU": 4161,
      "MWI": 4162,
      "uld": 4163,
      "ww": 4164,
      "Ġste": 4165,
      "ziwa": 4166,
      "sion": 4167,
      "Ġzima": 4168,
      "ĠBajeti": 4169,
      "ĠMkapa": 4170,
      "yama": 4171,
      "Ġimesema": 4172,
      "Ġndoto": 4173,
      "Ġngapi": 4174,
      "Ġmuafaka": 4175,
      "stu": 4176,
      "Ġnaamini": 4177,
      "kuzwa": 4178,
      "Ġkikamilifu": 4179,
      "ĠAl": 4180,
      "ĠMkurugenzi": 4181,
      "Ġkupatikana": 4182,
      "Ġmayai": 4183,
      "FA": 4184,
      "Sa": 4185,
      "rufuku": 4186,
      "Ġmadeni": 4187,
      "ngiwa": 4188,
      "Ġmashine": 4189,
      "tasi": 4190,
      "kie": 4191,
      "Ġviwili": 4192,
      "gani": 4193,
      "Ġwimbo": 4194,
      "Ġkutatua": 4195,
      "Ġkupanga": 4196,
      "Ġqu": 4197,
      "lika": 4198,
      "Ġwavu": 4199,
      "Ġipa": 4200,
      "Ġtumbo": 4201,
      "Ġdc": 4202,
      "Ġelfu": 4203,
      "Ġthey": 4204,
      "Ġfal": 4205,
      "cation": 4206,
      "Ġmapambano": 4207,
      "shirikisha": 4208,
      "KIMWI": 4209,
      "irobi": 4210,
      "kete": 4211,
      "Ġudhibiti": 4212,
      "MB": 4213,
      "Ġuji": 4214,
      "kuaji": 4215,
      "Ġdhati": 4216,
      "Ġkinga": 4217,
      "Ġkukata": 4218,
      "dhiri": 4219,
      "ĠCUF": 4220,
      "Ġyanaweza": 4221,
      "Ġwakili": 4222,
      "sababishwa": 4223,
      "Ġujuzi": 4224,
      "zinga": 4225,
      "Ġva": 4226,
      "Ġpeople": 4227,
      "Kuna": 4228,
      "Wi": 4229,
      "Ġabo": 4230,
      "rikisho": 4231,
      "meanza": 4232,
      "swi": 4233,
      "tekelezwa": 4234,
      "Ġtathmini": 4235,
      "Ġinawezekana": 4236,
      "Ġkizazi": 4237,
      "ĠTAN": 4238,
      "Ġyour": 4239,
      "Ġ2003": 4240,
      "lwa": 4241,
      "kane": 4242,
      "bili": 4243,
      "Ġmwao": 4244,
      "Ġkutolewa": 4245,
      "orge": 4246,
      "Ġmakusudi": 4247,
      "Ġwasomi": 4248,
      "Ġukia": 4249,
      "moyo": 4250,
      "Ġmaandishi": 4251,
      "ĠNo": 4252,
      "Ġtunataka": 4253,
      "Watu": 4254,
      "Ġkupu": 4255,
      "Ġmkazi": 4256,
      "Ġmizigo": 4257,
      "ploma": 4258,
      "saini": 4259,
      "mosi": 4260,
      "Ġzinaweza": 4261,
      "dilifu": 4262,
      "Ġkoro": 4263,
      "Ġurefu": 4264,
      "kupa": 4265,
      "mon": 4266,
      "ĠMapinduzi": 4267,
      "kilinganishwa": 4268,
      "Ġkutetea": 4269,
      "Ġbarabarani": 4270,
      "ON": 4271,
      "ul": 4272,
      "Ġwama": 4273,
      "Ġwajinga": 4274,
      "tamani": 4275,
      "Ġvyanzo": 4276,
      "ved": 4277,
      "Ġsomo": 4278,
      "Ġrufaa": 4279,
      "Ġujeru": 4280,
      "Hivi": 4281,
      "ĠKimataifa": 4282,
      "Ġkugombea": 4283,
      "Ġkika": 4284,
      "Ġtuwe": 4285,
      "fuatia": 4286,
      "Ġukarabati": 4287,
      "uzulu": 4288,
      "wafanya": 4289,
      "Ġswala": 4290,
      "Ġkusafi": 4291,
      "Ġgra": 4292,
      "Ġkipato": 4293,
      "Ġwazalendo": 4294,
      "DI": 4295,
      "Ġubunge": 4296,
      "king": 4297,
      "Ġlisi": 4298,
      "kwani": 4299,
      "wewe": 4300,
      "Ġziada": 4301,
      "mbulio": 4302,
      "Ġdada": 4303,
      "fere": 4304,
      "ridhisha": 4305,
      "Ġ0": 4306,
      "ning": 4307,
      "pole": 4308,
      "Ġaliji": 4309,
      "Ġvyakula": 4310,
      "Ġbarani": 4311,
      "Ġdis": 4312,
      "Ġprogramu": 4313,
      "nyonge": 4314,
      "sikini": 4315,
      "toshe": 4316,
      "dipo": 4317,
      "Ġkutokuwa": 4318,
      "mbozi": 4319,
      "nufaika": 4320,
      "Ġula": 4321,
      "Ġmarufuku": 4322,
      "domo": 4323,
      "ĠKikuu": 4324,
      "Ġuwepo": 4325,
      "Ġwenzao": 4326,
      "Ġwafugaji": 4327,
      "Ġkufuatilia": 4328,
      "Ġuu": 4329,
      "ĠTo": 4330,
      "fedha": 4331,
      "Ġujerumani": 4332,
      "La": 4333,
      "Ġnyakati": 4334,
      "Ġuhalifu": 4335,
      "lekeo": 4336,
      "Ġalii": 4337,
      "Nili": 4338,
      "hirisha": 4339,
      "sawa": 4340,
      "shawishi": 4341,
      "shiria": 4342,
      "Ġdeni": 4343,
      "ĠGa": 4344,
      "Ġmheshimiwa": 4345,
      "ries": 4346,
      "Ġhaiwezi": 4347,
      "Waziri": 4348,
      "Ġkipaumbele": 4349,
      "ĠTaasisi": 4350,
      "fikishwa": 4351,
      "Ġwazo": 4352,
      "Ġkamba": 4353,
      "Ġuliopita": 4354,
      "andaliwa": 4355,
      "rimu": 4356,
      "Ġkivu": 4357,
      "Ġmimea": 4358,
      "res": 4359,
      "Ġpoi": 4360,
      "Ġmaelekezo": 4361,
      "Ġmpe": 4362,
      "Ġwai": 4363,
      "Ġpana": 4364,
      "Ġzilizopo": 4365,
      "Ġkushika": 4366,
      "tz": 4367,
      "waji": 4368,
      "nifu": 4369,
      "Ġmadu": 4370,
      "Ġnae": 4371,
      "menti": 4372,
      "hesabu": 4373,
      "ngamano": 4374,
      "Ġtre": 4375,
      "Una": 4376,
      "ata": 4377,
      "Ġwanne": 4378,
      "mira": 4379,
      "Ġtunge": 4380,
      "nyang": 4381,
      "hiki": 4382,
      "Ġtunao": 4383,
      "Ġutulivu": 4384,
      "Ġmichango": 4385,
      "Ġpubli": 4386,
      "Ġmikononi": 4387,
      "Ġibada": 4388,
      "kalu": 4389,
      "maana": 4390,
      "Ġnyimbo": 4391,
      "ments": 4392,
      "krani": 4393,
      "baha": 4394,
      "Ġmaho": 4395,
      "Ġtulio": 4396,
      "eleze": 4397,
      "Ġhekima": 4398,
      "ters": 4399,
      "fanyike": 4400,
      "Ġkufunga": 4401,
      "nal": 4402,
      "Ġ40": 4403,
      "ĠMola": 4404,
      "hudhuria": 4405,
      "eleweka": 4406,
      "Ġyear": 4407,
      "Ġwakawa": 4408,
      "ĠHakika": 4409,
      "jiriwa": 4410,
      "Ġkando": 4411,
      "Ġtheir": 4412,
      "Ġujao": 4413,
      "?âĢĿ": 4414,
      "see": 4415,
      "ungana": 4416,
      "Ina": 4417,
      "Ġwaji": 4418,
      "ner": 4419,
      "Ġdhahiri": 4420,
      "Ġcount": 4421,
      "IBU": 4422,
      "zozo": 4423,
      "Ġvirusi": 4424,
      "Ġpombe": 4425,
      "Ġrea": 4426,
      "kumbusha": 4427,
      "Ġmajadiliano": 4428,
      "ĠMbeya": 4429,
      "GO": 4430,
      "onye": 4431,
      "haribu": 4432,
      "Ġjiwe": 4433,
      "Ġtunayo": 4434,
      "Ġsudan": 4435,
      "Ġmitandao": 4436,
      "Ġmbinguni": 4437,
      "Ġkufungua": 4438,
      "Ġkiswahili": 4439,
      "Ġtua": 4440,
      "Ġpost": 4441,
      "ĠDunia": 4442,
      "Ġmstari": 4443,
      "Ġununuzi": 4444,
      "Ġkaka": 4445,
      "pesi": 4446,
      "Ġkulima": 4447,
      "Ġkuonekana": 4448,
      "badilisha": 4449,
      "Ġmajani": 4450,
      "Ġhuruma": 4451,
      "Ġii": 4452,
      "Ġlika": 4453,
      "wezekani": 4454,
      "cts": 4455,
      "Ġgene": 4456,
      "Ġmapenzi": 4457,
      "uu": 4458,
      "Ġishara": 4459,
      "Ġhuna": 4460,
      "Ġkusikiliza": 4461,
      "Ġofisini": 4462,
      "changanya": 4463,
      "Ġwhich": 4464,
      "wadi": 4465,
      "Ġhamna": 4466,
      "ress": 4467,
      "mic": 4468,
      "saka": 4469,
      "Ġanavyo": 4470,
      "ĠUKIMWI": 4471,
      "Ġulipo": 4472,
      "Ġsome": 4473,
      "karibia": 4474,
      "/=": 4475,
      "jenge": 4476,
      "Ġmbovu": 4477,
      "Ġngozi": 4478,
      "tangazwa": 4479,
      "Le": 4480,
      "baka": 4481,
      "Ġmapya": 4482,
      "kina": 4483,
      "Ġziko": 4484,
      "ĠNye": 4485,
      "rejesha": 4486,
      "Ġmbwa": 4487,
      "Ġnjo": 4488,
      "nesha": 4489,
      "visheni": 4490,
      "tikadi": 4491,
      "Ġkucheza": 4492,
      "Ġmili": 4493,
      "ĠMwalimu": 4494,
      "Ġwenzangu": 4495,
      "Ġtrump": 4496,
      "anzishwa": 4497,
      "Ġvikosi": 4498,
      "sio": 4499,
      "jengea": 4500,
      "Ġsheikh": 4501,
      "Ġkuvunja": 4502,
      "Ġkwi": 4503,
      "Ġstu": 4504,
      "ĠWe": 4505,
      "Ġafrican": 4506,
      "Ġkutimiza": 4507,
      "Ġmadogo": 4508,
      "ngapi": 4509,
      "Ġanajua": 4510,
      "Ġpapa": 4511,
      "katili": 4512,
      "nywe": 4513,
      "Ġusawa": 4514,
      "ctor": 4515,
      "âĢ¦âĢ¦âĢ¦âĢ¦": 4516,
      "Ġim": 4517,
      "Ġalizo": 4518,
      "jeruhiwa": 4519,
      "letwa": 4520,
      "tezi": 4521,
      "Pamoja": 4522,
      "Ġmashauri": 4523,
      "Ġmkopo": 4524,
      "Ġmatakwa": 4525,
      "dhamu": 4526,
      "Ġdogo": 4527,
      "Ġchumba": 4528,
      "dge": 4529,
      "ff": 4530,
      "Ġwahu": 4531,
      "tatizo": 4532,
      "tie": 4533,
      "ngezi": 4534,
      "ĠJumuiya": 4535,
      "LE": 4536,
      "Ġnawe": 4537,
      "rity": 4538,
      "Ġvurugu": 4539,
      "26": 4540,
      "Ġmshahara": 4541,
      "Ġmatendo": 4542,
      "roho": 4543,
      "ridi": 4544,
      "sajili": 4545,
      "pisha": 4546,
      "zoezi": 4547,
      "ĠKikwete": 4548,
      "Ġele": 4549,
      "Ġvikwazo": 4550,
      "Ġwamesha": 4551,
      "Ġsykes": 4552,
      "sul": 4553,
      "soa": 4554,
      "Ġlea": 4555,
      "vamia": 4556,
      "ĠJohn": 4557,
      "chimbaji": 4558,
      "ngton": 4559,
      "Ġsumu": 4560,
      "chukulia": 4561,
      "wasilishwa": 4562,
      "Ġmbuzi": 4563,
      "lipo": 4564,
      "Ġwanajua": 4565,
      "Ġzitakazo": 4566,
      "Ġwaarabu": 4567,
      "athiri": 4568,
      "Ġfree": 4569,
      "ĠâĢĵ": 4570,
      "Ġombe": 4571,
      "Ġmohamed": 4572,
      "peleke": 4573,
      "Ġkuso": 4574,
      "pande": 4575,
      "semwa": 4576,
      "Ġunavyo": 4577,
      "enea": 4578,
      "28": 4579,
      "fai": 4580,
      "velop": 4581,
      "Ġugaidi": 4582,
      "pambana": 4583,
      "ĠUchaguzi": 4584,
      "Ġiliyotolewa": 4585,
      "Ġmwene": 4586,
      "national": 4587,
      "Ġmahusiano": 4588,
      "ber": 4589,
      "Ġinawa": 4590,
      "Ġmwanachama": 4591,
      "Ġdharura": 4592,
      "Ġwashiriki": 4593,
      "tana": 4594,
      "Ġbla": 4595,
      "Ġfikra": 4596,
      "angalie": 4597,
      "Ġwere": 4598,
      "niambia": 4599,
      "Ġ29": 4600,
      "shoto": 4601,
      "ĠIdara": 4602,
      "Ġukanda": 4603,
      "Ġnenda": 4604,
      "imarisha": 4605,
      "ssion": 4606,
      "Ġkukamilisha": 4607,
      "if": 4608,
      "yaani": 4609,
      "Ġukuaji": 4610,
      "huyu": 4611,
      "vita": 4612,
      "ibuka": 4613,
      "Ġkidini": 4614,
      "Ġtuliyo": 4615,
      "idhi": 4616,
      "phe": 4617,
      "Ġmda": 4618,
      "Ġmlango": 4619,
      "Ġmapungufu": 4620,
      "Ġvipe": 4621,
      "ĠUganda": 4622,
      "Ġmwelekeo": 4623,
      "Ġfidia": 4624,
      "ĠMwaka": 4625,
      "Ġingekuwa": 4626,
      "Ġkisiwa": 4627,
      "zote": 4628,
      "rums": 4629,
      "Ġtho": 4630,
      "ĠUli": 4631,
      "Ġdesemba": 4632,
      "Ġjk": 4633,
      "ANI": 4634,
      "Ġcuf": 4635,
      "hudumia": 4636,
      "Ġkigoma": 4637,
      "jabu": 4638,
      "kwamba": 4639,
      "huku": 4640,
      "ngera": 4641,
      "Ġwalim": 4642,
      "Ġjanga": 4643,
      "Ġutajiri": 4644,
      "Ġumasikini": 4645,
      "enyeji": 4646,
      "YA": 4647,
      "Ġmwongozo": 4648,
      "Ġnai": 4649,
      "Ġasante": 4650,
      "simamisha": 4651,
      "kte": 4652,
      "Ġani": 4653,
      "Ġatu": 4654,
      "Ġurusi": 4655,
      "Ġuliyo": 4656,
      "Ġkuongea": 4657,
      "Ġubaguzi": 4658,
      "Ġkiume": 4659,
      "tor": 4660,
      "milioni": 4661,
      "Ġsayansi": 4662,
      "Ġwanazo": 4663,
      "Ġser": 4664,
      "ger": 4665,
      "Ġumekuwa": 4666,
      "Ġkupe": 4667,
      "tishwa": 4668,
      "siria": 4669,
      "Ġikilinganishwa": 4670,
      "Ġkunipa": 4671,
      "Ġmaambukizi": 4672,
      "Ġpamba": 4673,
      "sanii": 4674,
      "DEMA": 4675,
      "Ġtaaluma": 4676,
      "Ġgovernment": 4677,
      "Ġkusu": 4678,
      "ron": 4679,
      "Ġmoshi": 4680,
      "kwepa": 4681,
      "Ġvinginevyo": 4682,
      "27": 4683,
      "yake": 4684,
      "Ġnzi": 4685,
      "mbona": 4686,
      "âĢĺ": 4687,
      "Ġwakala": 4688,
      "Ġjumapili": 4689,
      "ring": 4690,
      "Ġcar": 4691,
      "Ġvigumu": 4692,
      "Ġmtanzania": 4693,
      "Ġnov": 4694,
      "Rais": 4695,
      "hamu": 4696,
      "chukia": 4697,
      "iba": 4698,
      "Ġmavu": 4699,
      "tini": 4700,
      "ĠSA": 4701,
      "ĠAr": 4702,
      "Ja": 4703,
      "net": 4704,
      "ses": 4705,
      "Ġhaikuwa": 4706,
      "Ġwapate": 4707,
      "Ġchanjo": 4708,
      "ĠKilimo": 4709,
      "Ġbar": 4710,
      "Ġuraia": 4711,
      "chochea": 4712,
      "et": 4713,
      "butu": 4714,
      "budu": 4715,
      "ĠMlezi": 4716,
      "Ġkupigwa": 4717,
      "Ġtulikuwa": 4718,
      "wao": 4719,
      "nayo": 4720,
      "tii": 4721,
      "Ġwaislamu": 4722,
      "bongo": 4723,
      "zina": 4724,
      "Ġvigezo": 4725,
      "ndamana": 4726,
      "Ġtamko": 4727,
      "gana": 4728,
      "ĠMara": 4729,
      "puko": 4730,
      "Ġabdul": 4731,
      "Za": 4732,
      "choka": 4733,
      "Ġjanuari": 4734,
      "Ġleseni": 4735,
      "nyoo": 4736,
      "Ġmaumivu": 4737,
      "Ġmasikini": 4738,
      "Nina": 4739,
      "Ġmzungu": 4740,
      "Ġnaunga": 4741,
      "Ġvo": 4742,
      "Ġombi": 4743,
      "Ġmembe": 4744,
      "Ġshauri": 4745,
      "Ġstate": 4746,
      "Tume": 4747,
      "cc": 4748,
      "msi": 4749,
      "Ġman": 4750,
      "fafanua": 4751,
      "Mu": 4752,
      "Ġushuru": 4753,
      "ward": 4754,
      "nii": 4755,
      "jenzi": 4756,
      "Ġmore": 4757,
      "Ġexpe": 4758,
      "pt": 4759,
      "kaji": 4760,
      "chwani": 4761,
      "Ġushindani": 4762,
      "wakilisha": 4763,
      "Ġhoteli": 4764,
      "Ġsukari": 4765,
      "Ġnafsi": 4766,
      "Ġuelewa": 4767,
      "shiwa": 4768,
      "Ġalidai": 4769,
      "Ġjan": 4770,
      "ĠKata": 4771,
      "hamisi": 4772,
      "cke": 4773,
      "Ġage": 4774,
      "mbabwe": 4775,
      "Ġmio": 4776,
      "mbili": 4777,
      "Ġmwanzoni": 4778,
      "Ġmbadala": 4779,
      "Akizungumza": 4780,
      "ud": 4781,
      "wale": 4782,
      "tus": 4783,
      "ĠWananchi": 4784,
      "Ġkushughulikia": 4785,
      "Ġsara": 4786,
      "Ġlipo": 4787,
      "Ġoct": 4788,
      "Ġjuni": 4789,
      "Ġkongo": 4790,
      "nusu": 4791,
      "Ġkilima": 4792,
      "llia": 4793,
      "Ġkuzungumzia": 4794,
      "Ġkuchagua": 4795,
      "Ġhamu": 4796,
      "Ġilisema": 4797,
      "Ġgereza": 4798,
      "ndera": 4799,
      "ary": 4800,
      "tendea": 4801,
      "kadi": 4802,
      "haribika": 4803,
      "Ġmche": 4804,
      "Ġen": 4805,
      "sident": 4806,
      "Ġzuri": 4807,
      "hesa": 4808,
      "ĠWatu": 4809,
      "tiana": 4810,
      "Ġact": 4811,
      "riti": 4812,
      "Ġmisi": 4813,
      "ruka": 4814,
      "Ġilio": 4815,
      "Ġout": 4816,
      "Ġunajua": 4817,
      "Ġmitambo": 4818,
      "Ġharamu": 4819,
      "velopment": 4820,
      "PI": 4821,
      "Ġtulia": 4822,
      "Ġwalizo": 4823,
      "Ġinabidi": 4824,
      "Ġfungu": 4825,
      "Ġinayozungumzwa": 4826,
      "ĠFa": 4827,
      "Ġupepo": 4828,
      "binadamu": 4829,
      "Ġukurasa": 4830,
      "tangulia": 4831,
      "palestina": 4832,
      "Mo": 4833,
      "Ġsambamba": 4834,
      "Ġvido": 4835,
      "Ġbabu": 4836,
      "pewe": 4837,
      "Ġmuu": 4838,
      "siriamali": 4839,
      "Ame": 4840,
      "hapo": 4841,
      "kusu": 4842,
      "Ġkiki": 4843,
      "sai": 4844,
      "Ġjamani": 4845,
      "ĠKanisa": 4846,
      "Ġwaumini": 4847,
      "Ġendelevu": 4848,
      "Ġwazungu": 4849,
      "tumwa": 4850,
      "hebu": 4851,
      "Ġanafanya": 4852,
      "Ġhatuja": 4853,
      "Ġvilevile": 4854,
      "pigania": 4855,
      "Ġuwazi": 4856,
      "Ġkukua": 4857,
      "ridhiano": 4858,
      "elewi": 4859,
      "Ġsema": 4860,
      "ĠDr": 4861,
      "Ġ2006": 4862,
      "Ġyatakayo": 4863,
      "nzishwa": 4864,
      "Ġsote": 4865,
      "Ġshuleni": 4866,
      "________________________________": 4867,
      "mbulisho": 4868,
      "by": 4869,
      "Ġasali": 4870,
      "Ġkibali": 4871,
      "tembea": 4872,
      "kee": 4873,
      "ĠAfrica": 4874,
      "Naye": 4875,
      "Ġushiriki": 4876,
      "ingie": 4877,
      "nina": 4878,
      "Ġiringa": 4879,
      "sama": 4880,
      "Ġmwake": 4881,
      "njika": 4882,
      "jibikaji": 4883,
      "Ġkiga": 4884,
      "elimisha": 4885,
      "afrika": 4886,
      "Ġara": 4887,
      "masha": 4888,
      "Ġtuwa": 4889,
      "bdallah": 4890,
      "mfanya": 4891,
      "Ġmse": 4892,
      "Ġjukwaa": 4893,
      "Ġmtwara": 4894,
      "pendi": 4895,
      "Ġjumatatu": 4896,
      "Ġnasi": 4897,
      "Ġniku": 4898,
      "Ġmatanga": 4899,
      "ĠZA": 4900,
      "Naomba": 4901,
      "Ġmafundi": 4902,
      "ngelea": 4903,
      "Ġuk": 4904,
      "Ġch": 4905,
      "Ġcongo": 4906,
      "Ġkienyeji": 4907,
      "nuka": 4908,
      "Ġsanaa": 4909,
      "Ġshukrani": 4910,
      "Ġthrea": 4911,
      "Ġkb": 4912,
      "Ġmgonjwa": 4913,
      "Ġishi": 4914,
      "fiwa": 4915,
      "dhamini": 4916,
      "Ġniliyo": 4917,
      "Ġfilamu": 4918,
      "Ġvery": 4919,
      "hai": 4920,
      "Ġkida": 4921,
      "Ġmikubwa": 4922,
      "chelewa": 4923,
      "stra": 4924,
      "ĠHaki": 4925,
      "uma": 4926,
      "Ġufahamu": 4927,
      "Ġufalme": 4928,
      "keni": 4929,
      "Ġmisri": 4930,
      "Ġufaransa": 4931,
      "Ġtafsiri": 4932,
      "takacho": 4933,
      "Ġjul": 4934,
      "Ġmwendo": 4935,
      "Ġpasipo": 4936,
      "Ili": 4937,
      "mer": 4938,
      "Ġsep": 4939,
      "Ġliko": 4940,
      "ving": 4941,
      "Ġkujaribu": 4942,
      "Ġmajaji": 4943,
      "Ġkimsingi": 4944,
      "50": 4945,
      "bel": 4946,
      "Ġligi": 4947,
      "unganisha": 4948,
      "Ġ197": 4949,
      "Ġhauja": 4950,
      "Ġkilomita": 4951,
      "Ġmkewe": 4952,
      "Ġuwi": 4953,
      "Ġtuko": 4954,
      "Ġafisa": 4955,
      "puka": 4956,
      "Ġjinsia": 4957,
      "cember": 4958,
      "nesco": 4959,
      "Ġother": 4960,
      "ĠWakati": 4961,
      "Ġkupitisha": 4962,
      "Ġkilikuwa": 4963,
      "hakikishia": 4964,
      "Ġkufanikisha": 4965,
      "takuwa": 4966,
      "fute": 4967,
      "hojiwa": 4968,
      "Ġwanapata": 4969,
      "Ġbibi": 4970,
      "Ġaug": 4971,
      "âĢĨ": 4972,
      "Ġnilipo": 4973,
      "oko": 4974,
      "Ġuzazi": 4975,
      "kuzi": 4976,
      "ngoni": 4977,
      "kanisa": 4978,
      "Ġhekta": 4979,
      "Ġcheo": 4980,
      "china": 4981,
      "vuma": 4982,
      "ndoa": 4983,
      "ĠSiku": 4984,
      "rahim": 4985,
      "ĠBodi": 4986,
      "Ġmza": 4987,
      "koo": 4988,
      "Ġsaini": 4989,
      "resheni": 4990,
      "Ġjuli": 4991,
      "Ġmatatu": 4992,
      "Ġaskofu": 4993,
      "Ġmato": 4994,
      "Ġmazoezi": 4995,
      "Ġitikadi": 4996,
      "Ġsemina": 4997,
      "Ġanaji": 4998,
      "lulizo": 4999,
      "Ġhawakuwa": 5000,
      "Ġmwanaume": 5001,
      "Ġuchungu": 5002,
      "ĠMisri": 5003,
      "ws": 5004,
      "kutoka": 5005,
      "Ġapr": 5006,
      "Ġyanga": 5007,
      "taza": 5008,
      "Ġuzalendo": 5009,
      "leni": 5010,
      "ĠMW": 5011,
      "Ġaliwahi": 5012,
      "Ġmuswada": 5013,
      "pelelezi": 5014,
      "Ho": 5015,
      "Ġwadudu": 5016,
      "Ġhad": 5017,
      "Ġvidogo": 5018,
      "Ġjumanne": 5019,
      "Ġdubai": 5020,
      "Ġmakali": 5021,
      "Ġmsamaha": 5022,
      "semekana": 5023,
      "walio": 5024,
      "Ġkahawa": 5025,
      "fukuza": 5026,
      "Ġzika": 5027,
      "Ġtunawa": 5028,
      "ĠRi": 5029,
      "Ġkuuliza": 5030,
      "hadhari": 5031,
      "Ġanao": 5032,
      "Ġoktoba": 5033,
      "Ġmaagizo": 5034,
      "Ġwamesema": 5035,
      "con": 5036,
      "Ġtuzo": 5037,
      "susi": 5038,
      "soro": 5039,
      "tengenezwa": 5040,
      ".\"": 5041,
      "achi": 5042,
      "dm": 5043,
      "nwa": 5044,
      "Ġmwinyi": 5045,
      "Ġwakiwemo": 5046,
      "Ġhatuwezi": 5047,
      "Hali": 5048,
      "Ġngoja": 5049,
      "Ġmshindi": 5050,
      "Ġkondoo": 5051,
      "brahim": 5052,
      "himiza": 5053,
      "dari": 5054,
      "Ġduni": 5055,
      "Kutokana": 5056,
      "ANA": 5057,
      "29": 5058,
      "Ġwar": 5059,
      "Ġkidi": 5060,
      "ĠWaka": 5061,
      "Ġningependa": 5062,
      "dwali": 5063,
      "mari": 5064,
      "Ġmiche": 5065,
      "Ġminne": 5066,
      "Ġamem": 5067,
      "Ġakizungumza": 5068,
      "Ġghafla": 5069,
      "ndelea": 5070,
      "kara": 5071,
      "Ġunga": 5072,
      "zie": 5073,
      "Ġkarume": 5074,
      "savyo": 5075,
      "patiwa": 5076,
      "Ġkutegemea": 5077,
      "Ġmabasi": 5078,
      "Ġkuzaliwa": 5079,
      "bibu": 5080,
      "ganga": 5081,
      "ĠPau": 5082,
      "Ġbongo": 5083,
      "Ġisraeli": 5084,
      "ĠVijijini": 5085,
      "................................................................": 5086,
      "Ġpembeni": 5087,
      "wama": 5088,
      "Ġmaridhiano": 5089,
      "bwana": 5090,
      "Ġmaharage": 5091,
      "Ġnafaka": 5092,
      "Ġaprili": 5093,
      "hitimu": 5094,
      "GA": 5095,
      "Ġwashirika": 5096,
      "tima": 5097,
      "Ġtajiri": 5098,
      "Ġdk": 5099,
      "Ġanam": 5100,
      "cono": 5101,
      "ĠYeye": 5102,
      "Ġkulevya": 5103,
      "unge": 5104,
      "meke": 5105,
      "Ġmwamba": 5106,
      "ndoni": 5107,
      "ĠDi": 5108,
      "pendeza": 5109,
      "Ġ198": 5110,
      "Ġuvuvi": 5111,
      "Ġmatangazo": 5112,
      "ĠMamlaka": 5113,
      "Ġhawajui": 5114,
      "Ġissu": 5115,
      "Ġnyaraka": 5116,
      "Taarifa": 5117,
      "Ġmm": 5118,
      "Ġuharibifu": 5119,
      "kundu": 5120,
      "Ġzawadi": 5121,
      "ĠLo": 5122,
      "Ġwasichana": 5123,
      "Ġkuwekeza": 5124,
      "Ġhayati": 5125,
      "msha": 5126,
      "nduliwa": 5127,
      "ĠKI": 5128,
      "Ġinaonekana": 5129,
      "Ġkutoku": 5130,
      "bunifu": 5131,
      "kn": 5132,
      "nna": 5133,
      "tc": 5134,
      "lawi": 5135,
      "fumo": 5136,
      "ĠJanuari": 5137,
      "Ġkuchunguza": 5138,
      "Ġmachache": 5139,
      "diliwa": 5140,
      "Ġwanai": 5141,
      "Ġwanacho": 5142,
      "Ġtabora": 5143,
      "gamoyo": 5144,
      "nusha": 5145,
      "Ġametoa": 5146,
      "Ġtunapo": 5147,
      "jiano": 5148,
      "Ġmwanasheria": 5149,
      "fautiana": 5150,
      "Ġjulius": 5151,
      "Ġgiza": 5152,
      "pigi": 5153,
      "Ġalipata": 5154,
      "Ġkumwo": 5155,
      "alikuwa": 5156,
      "Kamanda": 5157,
      "Ġmifano": 5158,
      "chuano": 5159,
      "Ġjingine": 5160,
      "Ġwalioko": 5161,
      "harakati": 5162,
      "plomasia": 5163,
      "xi": 5164,
      "Ġmsemaji": 5165,
      "Ġijumaa": 5166,
      "moa": 5167,
      "Ġmus": 5168,
      "Ġjun": 5169,
      "ĠChe": 5170,
      "ESCO": 5171,
      "Ġkidemokrasia": 5172,
      "Ġkuruhusu": 5173,
      "Ġhauna": 5174,
      "Ġnikiwa": 5175,
      "Ġtete": 5176,
      "ĠMohamed": 5177,
      "Anasema": 5178,
      "ema": 5179,
      "rles": 5180,
      "Ġazimio": 5181,
      "Ġkiingereza": 5182,
      "Ġnidhamu": 5183,
      "ĠMfuko": 5184,
      "Ġalifanya": 5185,
      "Ġwezi": 5186,
      "ĠUni": 5187,
      "danganyi": 5188,
      ".âĢĻ": 5189,
      "Ġmstaafu": 5190,
      "zingira": 5191,
      "Ġchawa": 5192,
      "Ġmene": 5193,
      "Ġuliofanyika": 5194,
      "Ġmkononi": 5195,
      "Ġyaka": 5196,
      "dhifa": 5197,
      "ĠJuni": 5198,
      "Ġulemavu": 5199,
      "Ġtzs": 5200,
      "ongezea": 5201,
      "ZA": 5202,
      "tch": 5203,
      "Ġmgeni": 5204,
      "Ġunder": 5205,
      "kipi": 5206,
      "Ġif": 5207,
      "jiuliza": 5208,
      "ndarasi": 5209,
      "zuka": 5210,
      "Ġunayo": 5211,
      "Ġuchafu": 5212,
      "elelezo": 5213,
      "ĠYuda": 5214,
      "Ġudhaifu": 5215,
      "Ġipasavyo": 5216,
      "Ġwaliopo": 5217,
      "Ġilivyokuwa": 5218,
      "Baadhi": 5219,
      "gram": 5220,
      "ĠProfesa": 5221,
      "tamka": 5222,
      "rati": 5223,
      "tajiri": 5224,
      "Ġmakamba": 5225,
      "nci": 5226,
      "nani": 5227,
      "Ġkunywa": 5228,
      "men": 5229,
      "Ġnyinyi": 5230,
      "Ġuwajibikaji": 5231,
      "Ġufundi": 5232,
      "Ġkibao": 5233,
      "at": 5234,
      "hy": 5235,
      "mwenye": 5236,
      "rn": 5237,
      "kumba": 5238,
      "gogo": 5239,
      "Ġmzozo": 5240,
      "Ġkifedha": 5241,
      "Ġjulai": 5242,
      "Ġwakam": 5243,
      "Ġmakabila": 5244,
      "Ġngono": 5245,
      "She": 5246,
      "nerali": 5247,
      "Ġwema": 5248,
      "Ġanae": 5249,
      "ĠIsa": 5250,
      "Ġmfululizo": 5251,
      "Ġmpu": 5252,
      "lan": 5253,
      "Ġkicha": 5254,
      "Ya": 5255,
      "umu": 5256,
      "Ġwasanii": 5257,
      "faidi": 5258,
      "ndio": 5259,
      "ĠUsalama": 5260,
      "ĠKampuni": 5261,
      "Ġdereva": 5262,
      "Ġdhamira": 5263,
      "Ġbra": 5264,
      "Ġjumatano": 5265,
      "uni": 5266,
      "Ġmlima": 5267,
      "Ġwakia": 5268,
      "Ġwakristo": 5269,
      "Ġkuhamasisha": 5270,
      "Ġkuwawezesha": 5271,
      "nzisha": 5272,
      "kwama": 5273,
      "Ġkutakuwa": 5274,
      "arch": 5275,
      "Ġmatusi": 5276,
      "samehe": 5277,
      "teka": 5278,
      "Ġvikuu": 5279,
      "ĠMagharibi": 5280,
      "Ġsou": 5281,
      "Ġmaelfu": 5282,
      "Ġnovemba": 5283,
      "ĠMose": 5284,
      "ĠBungeni": 5285,
      "dharau": 5286,
      "koba": 5287,
      "Ġtv": 5288,
      "Ġmarafiki": 5289,
      "Ġjela": 5290,
      "Ġasilia": 5291,
      "Ġkurejea": 5292,
      "Ġkito": 5293,
      "Ġsingida": 5294,
      "Ġop": 5295,
      "Ġwatano": 5296,
      "Ġhebu": 5297,
      "Ġmbio": 5298,
      "kubalika": 5299,
      "tuni": 5300,
      "Ġkikatiba": 5301,
      "ten": 5302,
      "ngani": 5303,
      "Ġalijibu": 5304,
      "Ġtwi": 5305,
      "karibisha": 5306,
      "mwona": 5307,
      "YE": 5308,
      "Ġci": 5309,
      "mungu": 5310,
      "ndikia": 5311,
      "shtu": 5312,
      "mbuka": 5313,
      "Ġkutenda": 5314,
      "Ġmwenendo": 5315,
      "mfano": 5316,
      "Ġmw": 5317,
      "rafa": 5318,
      "ĠNC": 5319,
      "kilizwa": 5320,
      "Ġbudi": 5321,
      "ĠMakamu": 5322,
      "ĠNyerere": 5323,
      "eneo": 5324,
      "hala": 5325,
      "Ġnasema": 5326,
      "Ġaweze": 5327,
      "Ġmwanadamu": 5328,
      "milikiwa": 5329,
      "ĠBaba": 5330,
      "Ġkukataa": 5331,
      "Ġhazija": 5332,
      "mpyu": 5333,
      "nikizo": 5334,
      "Mwana": 5335,
      "Ġkuwezesha": 5336,
      "Ġkilio": 5337,
      "Ġkitengo": 5338,
      "Ġkichwani": 5339,
      "mbaji": 5340,
      "vua": 5341,
      "Ġwaje": 5342,
      "Ġwaislam": 5343,
      "Ġnajua": 5344,
      "Ġmake": 5345,
      "juma": 5346,
      "Hili": 5347,
      "line": 5348,
      "kasi": 5349,
      "kum": 5350,
      "Ġkisu": 5351,
      "tete": 5352,
      "Ġnja": 5353,
      "mbiji": 5354,
      "Ġtunavyo": 5355,
      "Ġdecember": 5356,
      "ondolewa": 5357,
      "thers": 5358,
      "Ġfomu": 5359,
      "ksi": 5360,
      "wame": 5361,
      "nili": 5362,
      "baba": 5363,
      "pan": 5364,
      "ĠTanga": 5365,
      "Ġmwema": 5366,
      "Ġsub": 5367,
      "Ġkifupi": 5368,
      "Ġmadha": 5369,
      "dam": 5370,
      "nesia": 5371,
      "ĠAp": 5372,
      "pigana": 5373,
      "Ġuovu": 5374,
      "Ġkusambaza": 5375,
      "lliam": 5376,
      "mpyuta": 5377,
      "heri": 5378,
      "Ġethiopia": 5379,
      "cheko": 5380,
      "Ġpende": 5381,
      "Ġlote": 5382,
      "Ġnafikiri": 5383,
      "Ġthere": 5384,
      "Ġchuma": 5385,
      "Ġkno": 5386,
      "bakia": 5387,
      "toshi": 5388,
      "Ġnisi": 5389,
      "ulizwa": 5390,
      "Ġsugu": 5391,
      "versi": 5392,
      "eti": 5393,
      "Ġkubaini": 5394,
      "mocra": 5395,
      "Ġwatanganyika": 5396,
      "ĠSekondari": 5397,
      "Ġheri": 5398,
      "Ġpresident": 5399,
      "HU": 5400,
      "ME": 5401,
      "ĠMI": 5402,
      "Ġwatuhumiwa": 5403,
      "Ġshetani": 5404,
      "MO": 5405,
      "Ġkijijini": 5406,
      "ruga": 5407,
      "ĠAna": 5408,
      "pumzi": 5409,
      "rans": 5410,
      "Ġmifuko": 5411,
      "Ã³": 5412,
      "Ġaidha": 5413,
      "zio": 5414,
      "tunza": 5415,
      "mit": 5416,
      "Ġhawataki": 5417,
      "Ġukoloni": 5418,
      "Ġmitaani": 5419,
      "cor": 5420,
      "Ġmha": 5421,
      "publi": 5422,
      "lumu": 5423,
      "Ġfara": 5424,
      "kamilisha": 5425,
      "kusudia": 5426,
      "Ġfanya": 5427,
      "Ġkufanikiwa": 5428,
      "Ġkurekebisha": 5429,
      "meni": 5430,
      "samia": 5431,
      "Ġlami": 5432,
      "peli": 5433,
      "Ġour": 5434,
      "yumba": 5435,
      "ft": 5436,
      "Ġaya": 5437,
      "Ġmafa": 5438,
      "jina": 5439,
      "Ġkukamilika": 5440,
      "Ġkufahamu": 5441,
      "wende": 5442,
      "Ġindia": 5443,
      "jamii": 5444,
      "Ġalie": 5445,
      "ĠCom": 5446,
      "Ġtelevisheni": 5447,
      "Ġkilimanjaro": 5448,
      "mbwe": 5449,
      "Ġmso": 5450,
      "Ġkuchaguliwa": 5451,
      "lar": 5452,
      "Ġiweze": 5453,
      "Ġwanaishi": 5454,
      "mboa": 5455,
      "chunguzi": 5456,
      "Ġkulipwa": 5457,
      "Ġuchambuzi": 5458,
      "SU": 5459,
      "onge": 5460,
      "sco": 5461,
      "Ġmlio": 5462,
      "Ġyalio": 5463,
      "mizwa": 5464,
      "Ġnigeria": 5465,
      "geme": 5466,
      "ĠNdipo": 5467,
      "Ġmwenzake": 5468,
      "faranga": 5469,
      "Ġkuepuka": 5470,
      "Ġwam": 5471,
      "Ġkuthibitisha": 5472,
      "ĠMfalme": 5473,
      "Ġamesha": 5474,
      "Ġilani": 5475,
      "UNG": 5476,
      "CCM": 5477,
      "Ġmaiti": 5478,
      "keza": 5479,
      "ngilia": 5480,
      "Ġusafi": 5481,
      "Ġ33": 5482,
      "ĠVyama": 5483,
      "ridhika": 5484,
      "Ġmageuzi": 5485,
      "ĠCHADEMA": 5486,
      "kimbilia": 5487,
      "ĠUki": 5488,
      "Ġwenyeji": 5489,
      "Ġmtakatifu": 5490,
      "Ġ2000": 5491,
      "Ġmajambazi": 5492,
      "Ġvyetu": 5493,
      "tayari": 5494,
      "Ġnape": 5495,
      "tiki": 5496,
      "kuhusu": 5497,
      "Ġits": 5498,
      "ned": 5499,
      "Ġtuone": 5500,
      "Ġalilo": 5501,
      "jea": 5502,
      "ves": 5503,
      "tengwa": 5504,
      "Ġtuweze": 5505,
      "nondoni": 5506,
      "ngeweza": 5507,
      "katibu": 5508,
      "Ġpongezi": 5509,
      "Ġmashitaka": 5510,
      "hanati": 5511,
      "Ġmahojiano": 5512,
      "agiza": 5513,
      "cre": 5514,
      "Ġmwo": 5515,
      "zembe": 5516,
      "gulu": 5517,
      "Ġunawa": 5518,
      "Ġtulivyo": 5519,
      "Ġsomalia": 5520,
      "Ġmafisadi": 5521,
      "Ġkatoliki": 5522,
      "Ġchako": 5523,
      "fike": 5524,
      "ndoka": 5525,
      "Ġbin": 5526,
      "ĠHata": 5527,
      "vazi": 5528,
      "rious": 5529,
      "Ġ:": 5530,
      "wassa": 5531,
      "Ġkuwekwa": 5532,
      "Ġkana": 5533,
      "Ġitakapo": 5534,
      "Ġmwanga": 5535,
      "Ġunam": 5536,
      "ĠMachi": 5537,
      "Ġter": 5538,
      "Ġzimekuwa": 5539,
      "ence": 5540,
      "Ġabout": 5541,
      "nz": 5542,
      "Ġwaraka": 5543,
      "Ġnanyi": 5544,
      "Ġinaonyesha": 5545,
      "ĠKigoma": 5546,
      "Siku": 5547,
      "Ġakia": 5548,
      "Ġnor": 5549,
      "Kwanza": 5550,
      "thamini": 5551,
      "Ġmateso": 5552,
      "Uta": 5553,
      "ef": 5554,
      "mshi": 5555,
      "Ġkusimama": 5556,
      "wele": 5557,
      "huu": 5558,
      "Ġcor": 5559,
      "nguja": 5560,
      "Ġukombozi": 5561,
      "lazimisha": 5562,
      "Ġmavuno": 5563,
      "Ġkiarabu": 5564,
      "Ġbao": 5565,
      "guvu": 5566,
      "pua": 5567,
      "Ġkuiba": 5568,
      "Ġmei": 5569,
      "Ġfani": 5570,
      "Ġburundi": 5571,
      "Ġ31": 5572,
      "cou": 5573,
      "Ġufumbuzi": 5574,
      "Ġmauzo": 5575,
      "Bi": 5576,
      "aini": 5577,
      "tulia": 5578,
      "toro": 5579,
      "kwanza": 5580,
      "Wali": 5581,
      "pigaji": 5582,
      "Ġkutunga": 5583,
      "ntiki": 5584,
      "iii": 5585,
      "thibitishwa": 5586,
      "Ġmtindo": 5587,
      "Ġshambani": 5588,
      "Ġwahamiaji": 5589,
      "Ġkipo": 5590,
      "tofauti": 5591,
      "tel": 5592,
      "Ġhisa": 5593,
      "Ġbendera": 5594,
      "Ġfupi": 5595,
      "Ġnguzo": 5596,
      "somaji": 5597,
      "Ġndefu": 5598,
      "Ġgood": 5599,
      "ĠJamii": 5600,
      "Ġwanaendelea": 5601,
      "Ġzozote": 5602,
      "Habari": 5603,
      "Ġzilizokuwa": 5604,
      "ĠJaji": 5605,
      "Ġpoliti": 5606,
      "shikilia": 5607,
      "pha": 5608,
      "Ġanacho": 5609,
      "onea": 5610,
      "Ġjoseph": 5611,
      "Ġhaziku": 5612,
      "tal": 5613,
      "Ġany": 5614,
      "vuka": 5615,
      "ĠKazi": 5616,
      "cent": 5617,
      "nduku": 5618,
      "ndugu": 5619,
      "Ġbwawa": 5620,
      "Ġmtaani": 5621,
      "mish": 5622,
      "Ġmichuano": 5623,
      "Ġzikiwa": 5624,
      "vana": 5625,
      "fikapo": 5626,
      "Ġjinai": 5627,
      "35": 5628,
      "RE": 5629,
      "ĠMtwara": 5630,
      "Ġmaafa": 5631,
      "ĠUfaransa": 5632,
      "zalishwa": 5633,
      "athirika": 5634,
      "gis": 5635,
      "Ġwawa": 5636,
      "Ġviji": 5637,
      "wia": 5638,
      "Ġjangwa": 5639,
      "cheka": 5640,
      "Ġthem": 5641,
      "fuatazo": 5642,
      "ridhia": 5643,
      "2005": 5644,
      "laumu": 5645,
      "bya": 5646,
      "ime": 5647,
      "Ġmchezaji": 5648,
      "Ġkubaki": 5649,
      "Ġupuuzi": 5650,
      "Ġniwa": 5651,
      "Ġinatoa": 5652,
      "Ġover": 5653,
      "Ġghasia": 5654,
      "ndeleo": 5655,
      "Ġusafirishaji": 5656,
      "Ġkuingilia": 5657,
      "hammed": 5658,
      "ap": 5659,
      "yasema": 5660,
      "Ġustawi": 5661,
      "Ġniseme": 5662,
      "rey": 5663,
      "luhi": 5664,
      "Ġkupima": 5665,
      "Ġhakimu": 5666,
      "Ġukame": 5667,
      "Ġkuanzishwa": 5668,
      "zma": 5669,
      "Ġkufikiri": 5670,
      "tishia": 5671,
      "pima": 5672,
      "shua": 5673,
      "Kila": 5674,
      "Ġmadarasa": 5675,
      "mta": 5676,
      "Ġinafanya": 5677,
      "ĠKila": 5678,
      "limanjaro": 5679,
      "Ġdrc": 5680,
      "Ġsyste": 5681,
      "Ġaisee": 5682,
      "ous": 5683,
      "Ġmanispaa": 5684,
      "ship": 5685,
      "Ġbaridi": 5686,
      "beli": 5687,
      "sua": 5688,
      "ĠBia": 5689,
      "Ġwanaoishi": 5690,
      "car": 5691,
      "Ġvyeo": 5692,
      "hamia": 5693,
      "Ġnairobi": 5694,
      "rodhe": 5695,
      "ĠUpinzani": 5696,
      "Ġdaktari": 5697,
      "njamin": 5698,
      "que": 5699,
      "Ġubinafsi": 5700,
      "dadi": 5701,
      "Ġmila": 5702,
      "Ġwanatumia": 5703,
      "Ġkuifanya": 5704,
      "ĠHii": 5705,
      "Ġkompyuta": 5706,
      "Ġmaradhi": 5707,
      "Ġmboga": 5708,
      "Ġkusafiri": 5709,
      "Ġukoo": 5710,
      "ripotiwa": 5711,
      "Akasema": 5712,
      "waki": 5713,
      "Ġkii": 5714,
      "tena": 5715,
      "Ġchai": 5716,
      "Ġbiblia": 5717,
      "Ġhayana": 5718,
      "Ġ35": 5719,
      "Ġkuwe": 5720,
      "ĠIringa": 5721,
      "Ġbw": 5722,
      "Ġtulipo": 5723,
      "Ġchetu": 5724,
      "inea": 5725,
      "danganyifu": 5726,
      "jikuta": 5727,
      "Ġwanapaswa": 5728,
      "Ġunaona": 5729,
      "Ġhouse": 5730,
      "Ġkumpongeza": 5731,
      "nduki": 5732,
      "Ġ2002": 5733,
      "anzia": 5734,
      "iki": 5735,
      "pre": 5736,
      "Ġkumalizika": 5737,
      "Ġair": 5738,
      "Ġagosti": 5739,
      "hema": 5740,
      "ĠAu": 5741,
      "Ġutata": 5742,
      "ĠKati": 5743,
      "Ġkuonesha": 5744,
      "ĠHabari": 5745,
      "ĠKamanda": 5746,
      "Ġ60": 5747,
      "ĠHospitali": 5748,
      "Ġvipengele": 5749,
      "Ġwapa": 5750,
      "Ġkufuta": 5751,
      "kutwa": 5752,
      "Ġima": 5753,
      "ĠMjini": 5754,
      "shindi": 5755,
      "ney": 5756,
      "Ġlindi": 5757,
      "Ġlisu": 5758,
      "Ġjumu": 5759,
      "Ġndicho": 5760,
      "ĠMkataba": 5761,
      "40": 5762,
      "xt": 5763,
      "Ġhome": 5764,
      "can": 5765,
      "ingizwa": 5766,
      "Ġvipindi": 5767,
      "ĠHivyo": 5768,
      "He": 5769,
      "Ġkukamatwa": 5770,
      "gain": 5771,
      "Ġambae": 5772,
      "ĠMei": 5773,
      "bri": 5774,
      "Ġuone": 5775,
      "Ġvizazi": 5776,
      "Ġwanatu": 5777,
      "ĠThe": 5778,
      "ĠKanuni": 5779,
      "Ġukimwi": 5780,
      "Ġkuhudhuria": 5781,
      "fuatiliaji": 5782,
      "Ġvipande": 5783,
      "Ġale": 5784,
      "basi": 5785,
      "Ġslaa": 5786,
      "hubiri": 5787,
      "Ġcdm": 5788,
      "Ġlikiwa": 5789,
      "ĠManispaa": 5790,
      "ghani": 5791,
      "Ġkuteuliwa": 5792,
      "Ġfebruari": 5793,
      "hh": 5794,
      "Ġahsante": 5795,
      "Ġkadri": 5796,
      "saha": 5797,
      "shio": 5798,
      "Ġalianza": 5799,
      "Ġziwe": 5800,
      "Ġmioyo": 5801,
      "dd": 5802,
      "Ġangalia": 5803,
      "Ġkuwapatia": 5804,
      "yuo": 5805,
      "shoga": 5806,
      "Ġhaiwezekani": 5807,
      "ĠBaada": 5808,
      "hmed": 5809,
      "Ġnaweza": 5810,
      "Ġifikapo": 5811,
      "ramia": 5812,
      "Ġovyo": 5813,
      "geuza": 5814,
      "maarufu": 5815,
      "Ġ196": 5816,
      "Ġyamekuwa": 5817,
      "Ġmtendaji": 5818,
      "Vile": 5819,
      "Ġmitihani": 5820,
      "Ġmr": 5821,
      "Ġwapya": 5822,
      "Ġseptemba": 5823,
      "Ġunaendelea": 5824,
      "iso": 5825,
      "vamizi": 5826,
      "Ġgrou": 5827,
      "ĠJulai": 5828,
      "Ġmachozi": 5829,
      "Ġmfanyabiashara": 5830,
      "itaka": 5831,
      "Ġyakini": 5832,
      "muru": 5833,
      "Ġtafadhali": 5834,
      "gharimu": 5835,
      "baraza": 5836,
      "halifu": 5837,
      "Ġmadhumuni": 5838,
      "Ġkha": 5839,
      "tili": 5840,
      "Ġkagera": 5841,
      "Ġkasoro": 5842,
      "Ġkihistoria": 5843,
      "Ġwanau": 5844,
      "mbue": 5845,
      "ĠPi": 5846,
      "Ġshirikisho": 5847,
      "Ġnguru": 5848,
      "Nime": 5849,
      "Ġmalaika": 5850,
      "Ġkipengele": 5851,
      "ĠAprili": 5852,
      "32": 5853,
      "onya": 5854,
      "okoa": 5855,
      "Ġkufanywa": 5856,
      "Ġzana": 5857,
      "ongoni": 5858,
      "ĠKilimanjaro": 5859,
      "nipa": 5860,
      "zana": 5861,
      "ĠMba": 5862,
      "sumbua": 5863,
      "Ġimesha": 5864,
      "Ġkujitokeza": 5865,
      "Ġfasihi": 5866,
      "Ġuana": 5867,
      "Ġuhaba": 5868,
      "ĠYerusalemu": 5869,
      "Ġmaofisa": 5870,
      "Ġnzito": 5871,
      "Ġmisitu": 5872,
      "RC": 5873,
      "mt": 5874,
      "ogopa": 5875,
      "Ġumbali": 5876,
      "Ġhama": 5877,
      "Ġkuwafanya": 5878,
      "Ġnyota": 5879,
      "Ġmabomu": 5880,
      "timiza": 5881,
      "kutokana": 5882,
      "sis": 5883,
      "Ġkiserikali": 5884,
      "Ġkiroho": 5885,
      "muona": 5886,
      "ĠMrema": 5887,
      "Ġimeendelea": 5888,
      "Ġtutakuwa": 5889,
      "dhui": 5890,
      "kteta": 5891,
      "Ġkidato": 5892,
      "Ġmpunga": 5893,
      "cis": 5894,
      "ncy": 5895,
      "und": 5896,
      "Ġnacho": 5897,
      "Ġatakapo": 5898,
      "ngoro": 5899,
      "Ġzifuatazo": 5900,
      "Ġsente": 5901,
      "ĠMawaziri": 5902,
      "twaa": 5903,
      "Ġmkapa": 5904,
      "Ġmtihani": 5905,
      "34": 5906,
      "fra": 5907,
      "Ġalisha": 5908,
      "elea": 5909,
      "zeni": 5910,
      "Ġlike": 5911,
      "Ġbima": 5912,
      "ĠNdugu": 5913,
      "mbulisha": 5914,
      "cess": 5915,
      "Ġlinaweza": 5916,
      "Ġuadilifu": 5917,
      "mple": 5918,
      "mishna": 5919,
      "TO": 5920,
      "ig": 5921,
      "Ġwafanye": 5922,
      "Ġscho": 5923,
      "kufanya": 5924,
      "sibu": 5925,
      "Ġhaswa": 5926,
      "Ġkipya": 5927,
      "Ġny": 5928,
      "Ġlawama": 5929,
      "Ġtahadhari": 5930,
      "Ġweka": 5931,
      "Ġpage": 5932,
      "Ġradhi": 5933,
      "Ġpindi": 5934,
      "Ġmedia": 5935,
      "qua": 5936,
      "kusudi": 5937,
      "Ġvisiwa": 5938,
      "gai": 5939,
      "liasili": 5940,
      "ard": 5941,
      "Ġkutunza": 5942,
      "Ġfir": 5943,
      "Ġubalozi": 5944,
      "Ġkilometa": 5945,
      "Ġlkn": 5946,
      "mwomba": 5947,
      "ctions": 5948,
      "gal": 5949,
      "Ġserious": 5950,
      "Ġea": 5951,
      "ded": 5952,
      "wekewa": 5953,
      "31": 5954,
      "dhuri": 5955,
      "baadhi": 5956,
      "ties": 5957,
      "mesha": 5958,
      "Ġhujui": 5959,
      "Ġtanesco": 5960,
      "nyima": 5961,
      "Ġdaima": 5962,
      "Kazi": 5963,
      "husishwa": 5964,
      "Ġprodu": 5965,
      "Ġjumamosi": 5966,
      "Ġkuungana": 5967,
      "Ġvitisho": 5968,
      "bruari": 5969,
      "sso": 5970,
      "ura": 5971,
      "kaya": 5972,
      "Ġhajui": 5973,
      "fili": 5974,
      "ĠKA": 5975,
      "Ġtozo": 5976,
      "Ġmajira": 5977,
      "tumike": 5978,
      "Ġrekodi": 5979,
      "aliye": 5980,
      "Ġniko": 5981,
      "paka": 5982,
      "chie": 5983,
      "Ġecono": 5984,
      "ĠMar": 5985,
      "Ġfran": 5986,
      "ĠTabora": 5987,
      "Ġmwanasiasa": 5988,
      "vilevile": 5989,
      "Ġkorosho": 5990,
      "PA": 5991,
      "Ġugo": 5992,
      "ndaoni": 5993,
      "Ġtupu": 5994,
      "Ġalikua": 5995,
      "Ġkujitegemea": 5996,
      "furahia": 5997,
      "Ġfalse": 5998,
      "Ġcountry": 5999,
      "Ġkupelekwa": 6000,
      "Ġnashukuru": 6001,
      "zaidi": 6002,
      "lei": 6003,
      "Ġkitakacho": 6004,
      "ngamizi": 6005,
      "Ġvifaranga": 6006,
      "Ġchange": 6007,
      "Ġzipi": 6008,
      "riakoo": 6009,
      "shed": 6010,
      "urce": 6011,
      "ĠJiji": 6012,
      "Ġmafundisho": 6013,
      "ffi": 6014,
      "Ġwapata": 6015,
      "Ġdhi": 6016,
      "simamiwa": 6017,
      "Kuhusu": 6018,
      "ĠDesemba": 6019,
      "Ġviumbe": 6020,
      "Ġmaduka": 6021,
      "ajili": 6022,
      "ngilio": 6023,
      "Ġinahitaji": 6024,
      "Hapa": 6025,
      "Hatua": 6026,
      "Ġprofesa": 6027,
      "Ġkulala": 6028,
      "Ġkufanyiwa": 6029,
      "huko": 6030,
      "Ġtuji": 6031,
      "Ġaliongeza": 6032,
      "Ġwalinzi": 6033,
      "Ġinatakiwa": 6034,
      "Ġothers": 6035,
      "mbufu": 6036,
      "Ġpower": 6037,
      "So": 6038,
      "Waka": 6039,
      "naye": 6040,
      "nyara": 6041,
      "Ġakaunti": 6042,
      "ĠFAT": 6043,
      "Sisi": 6044,
      "kusanyaji": 6045,
      "sajiliwa": 6046,
      "versity": 6047,
      "Ju": 6048,
      "Ġkudu": 6049,
      "teni": 6050,
      "Ġwanadamu": 6051,
      "jeo": 6052,
      "vutia": 6053,
      "Ġbeen": 6054,
      "ngenezo": 6055,
      "cie": 6056,
      "RO": 6057,
      "Ġkuchukuliwa": 6058,
      "Ġmal": 6059,
      "lana": 6060,
      "Ġkaburi": 6061,
      "ker": 6062,
      "Ġpetro": 6063,
      "ĠLA": 6064,
      "Ġbunduki": 6065,
      "Ġkufungwa": 6066,
      "Ġujue": 6067,
      "ing": 6068,
      "Ġkufi": 6069,
      "Ġkuzaa": 6070,
      "sifu": 6071,
      "Ġil": 6072,
      "jimenti": 6073,
      "miri": 6074,
      "dii": 6075,
      "Ġmilima": 6076,
      "Ġchato": 6077,
      "ĠSE": 6078,
      "dhihirisha": 6079,
      "Ġnjiani": 6080,
      "Ġmaovu": 6081,
      "Ġwazanzibari": 6082,
      "Ġkuingiza": 6083,
      "ĠStars": 6084,
      "Li": 6085,
      "mail": 6086,
      "laani": 6087,
      "Ġekari": 6088,
      "geu": 6089,
      "takalo": 6090,
      "jiandaa": 6091,
      "Ġiliyoko": 6092,
      "Ġshinikizo": 6093,
      "nufaisha": 6094,
      "36": 6095,
      "Ġmzazi": 6096,
      "tunga": 6097,
      "funze": 6098,
      "nea": 6099,
      "Ġsitta": 6100,
      "Ġamerika": 6101,
      "Ġimetoa": 6102,
      "Ġimeanza": 6103,
      "Ġoffi": 6104,
      "ĠHakimu": 6105,
      "malizia": 6106,
      "Ġalhamisi": 6107,
      "Ġapp": 6108,
      "Ġmatengenezo": 6109,
      "Ġwaendelee": 6110,
      "Ġnakala": 6111,
      "ming": 6112,
      "mila": 6113,
      "Ġtawi": 6114,
      "Ġkuwapo": 6115,
      "Ġliwe": 6116,
      "dola": 6117,
      "Ġmsikiti": 6118,
      "Ġyaliyokuwa": 6119,
      "hukumu": 6120,
      "jiunga": 6121,
      "Ġnipo": 6122,
      "Ġmisu": 6123,
      "ngulizi": 6124,
      "rona": 6125,
      "Ġkuibu": 6126,
      "ĠKaskazini": 6127,
      "Ġkumsaidia": 6128,
      "Ġujasiri": 6129,
      "bainika": 6130,
      "Ġushawishi": 6131,
      "NAIBU": 6132,
      "Ġwanyonge": 6133,
      "Ġudini": 6134,
      "Ġmapi": 6135,
      "rau": 6136,
      "Ġnim": 6137,
      "ĠMpango": 6138,
      "romo": 6139,
      "Ġhongera": 6140,
      "ĠRwanda": 6141,
      "Ġproje": 6142,
      "Ġchote": 6143,
      "Ġmafuriko": 6144,
      "Ġurahisi": 6145,
      "Ġwapiganaji": 6146,
      "ĠRoho": 6147,
      "Ġtangazo": 6148,
      "ssan": 6149,
      "Ġukili": 6150,
      "lee": 6151,
      "diyo": 6152,
      "dirio": 6153,
      "ndisi": 6154,
      "via": 6155,
      "âĢĬ": 6156,
      "Ġonly": 6157,
      "mwita": 6158,
      "nzu": 6159,
      "pri": 6160,
      "spe": 6161,
      "pamba": 6162,
      "Ġmijini": 6163,
      "Ġsere": 6164,
      "Ġwatumwa": 6165,
      "saidiwa": 6166,
      "Ġkukuba": 6167,
      "shambuliwa": 6168,
      "mbukizwa": 6169,
      "Ġmanunuzi": 6170,
      "Ġmle": 6171,
      "mambo": 6172,
      "ler": 6173,
      "Ġhadhara": 6174,
      "Ġbashi": 6175,
      "Ġday": 6176,
      "Ġkujitoa": 6177,
      "Ġdhaifu": 6178,
      "Ġmajaribio": 6179,
      "faulu": 6180,
      "Ġoperesheni": 6181,
      "DC": 6182,
      "Ġyani": 6183,
      "yeye": 6184,
      "nena": 6185,
      "Ġtupo": 6186,
      "Ġhayaja": 6187,
      "Ġshaba": 6188,
      "ĠShinyanga": 6189,
      "CR": 6190,
      "mpu": 6191,
      "wanga": 6192,
      "Ġkumua": 6193,
      "safa": 6194,
      "paganda": 6195,
      "funzo": 6196,
      "Ġvipo": 6197,
      "rufi": 6198,
      "chini": 6199,
      "Ġbaraka": 6200,
      "bility": 6201,
      "iona": 6202,
      "pho": 6203,
      "sk": 6204,
      "Ġkristo": 6205,
      "jadala": 6206,
      "Ġwanatakiwa": 6207,
      "fisha": 6208,
      "ĠUshirika": 6209,
      "shusha": 6210,
      "Ġkutaja": 6211,
      "Ġcompa": 6212,
      "Ġuanga": 6213,
      "Ġwafungwa": 6214,
      "Ġkuunganisha": 6215,
      "Ġishirini": 6216,
      "EC": 6217,
      "NI": 6218,
      "uria": 6219,
      "Ġkumiliki": 6220,
      "nita": 6221,
      "ĠMbo": 6222,
      "Ġwanakuwa": 6223,
      "Ġwaliwa": 6224,
      "ĠUmma": 6225,
      "Ġakiba": 6226,
      "Ġdira": 6227,
      "Ġkukose": 6228,
      "sturi": 6229,
      "Ġasia": 6230,
      "Ġubi": 6231,
      "Ġspi": 6232,
      "misi": 6233,
      "liongeza": 6234,
      "Ġboda": 6235,
      "Ġgerezani": 6236,
      "ghanistan": 6237,
      "clu": 6238,
      "nto": 6239,
      "Ġukuta": 6240,
      "Ġkash": 6241,
      "siness": 6242,
      "hoo": 6243,
      "Ġtukiwa": 6244,
      "Ġwalifanya": 6245,
      "ĠAme": 6246,
      "âĢĶ": 6247,
      "kwambia": 6248,
      "shwaji": 6249,
      "Ġinte": 6250,
      "Ġnational": 6251,
      "weli": 6252,
      "Ġzitto": 6253,
      "ĠWaa": 6254,
      "Ġtunaomba": 6255,
      "Ġredio": 6256,
      "Ġusamba": 6257,
      "Ġmjinga": 6258,
      "Kicheko": 6259,
      "Ġupendeleo": 6260,
      "Ġmoyoni": 6261,
      "zingatiwa": 6262,
      "Ġwazuri": 6263,
      "Ġamini": 6264,
      "Ġvichwa": 6265,
      "ruma": 6266,
      "Ġpato": 6267,
      "viongozi": 6268,
      "Ġndizo": 6269,
      "Ġwatalii": 6270,
      "Ġjedwali": 6271,
      "Ġkutawala": 6272,
      "Ġkutembelea": 6273,
      "endana": 6274,
      "Ġkufundisha": 6275,
      "Ġzitakuwa": 6276,
      "thubutu": 6277,
      "ĠBiashara": 6278,
      "Sha": 6279,
      "anguka": 6280,
      "uro": 6281,
      "Ġmamilioni": 6282,
      "Ġking": 6283,
      "Ġkinywa": 6284,
      "Ġmina": 6285,
      "ĠWaisraeli": 6286,
      "taafu": 6287,
      "thing": 6288,
      "stro": 6289,
      "Ġmashaka": 6290,
      "alisema": 6291,
      "Ġlitakuwa": 6292,
      "ĠJijini": 6293,
      "Po": 6294,
      "ffe": 6295,
      "Ġway": 6296,
      "Ġwazima": 6297,
      "Ġkusubiri": 6298,
      "zini": 6299,
      "Ġkwahiyo": 6300,
      "tofautiana": 6301,
      "ĠMko": 6302,
      "nukuu": 6303,
      "Ġunaji": 6304,
      "Ġratiba": 6305,
      "Ġhalina": 6306,
      "Ġsup": 6307,
      "Ġnyeti": 6308,
      "ctoria": 6309,
      "----": 6310,
      "enzi": 6311,
      "yafanya": 6312,
      "Ġmadiwani": 6313,
      "Ġmatajiri": 6314,
      "vuna": 6315,
      "Ġbidii": 6316,
      "Ġmtuhumiwa": 6317,
      "Ġjema": 6318,
      "Ġ32": 6319,
      "ENYE": 6320,
      "nunuliwa": 6321,
      "ĠNovemba": 6322,
      "cted": 6323,
      "bamu": 6324,
      "rida": 6325,
      "Ġhim": 6326,
      "pori": 6327,
      "ĠSam": 6328,
      "Ġanau": 6329,
      "Ġee": 6330,
      "nuary": 6331,
      "Ġmember": 6332,
      "inali": 6333,
      "sts": 6334,
      "ĠMimi": 6335,
      "Ġnow": 6336,
      "Ġulimwenguni": 6337,
      "dhirifu": 6338,
      "Ġviki": 6339,
      "dharia": 6340,
      "ĠSekta": 6341,
      "Ġriba": 6342,
      "Ġgre": 6343,
      "Ġlimekuwa": 6344,
      "ĠArdhi": 6345,
      "cs": 6346,
      "mpi": 6347,
      "Ġkuke": 6348,
      "Ġudanganyifu": 6349,
      "gereza": 6350,
      "Ġkocha": 6351,
      "Ġwaafrika": 6352,
      "2006": 6353,
      "38": 6354,
      "ab": 6355,
      "Ġapate": 6356,
      "Ġupigaji": 6357,
      "Ġmavazi": 6358,
      "Ġmiungu": 6359,
      "Ġdhu": 6360,
      "ĠKiislamu": 6361,
      "Ġher": 6362,
      "stine": 6363,
      "Ġutumwa": 6364,
      "Ġsokoni": 6365,
      "Ġmteja": 6366,
      "45": 6367,
      "cta": 6368,
      "Ġkugawa": 6369,
      "Ġkushuka": 6370,
      "kiza": 6371,
      "Ġwakisema": 6372,
      "Ġyalivyo": 6373,
      "cul": 6374,
      "ĠFebruari": 6375,
      "Ġkuharibu": 6376,
      "Ġmgao": 6377,
      "Ġwashington": 6378,
      "Ġsystem": 6379,
      "Ġmtoa": 6380,
      "gala": 6381,
      "Ġpepo": 6382,
      "Ġresul": 6383,
      "Ġmwenda": 6384,
      "Ġshahada": 6385,
      "Ġshambulio": 6386,
      "bahu": 6387,
      "Ġukatili": 6388,
      "Ġmakanisa": 6389,
      "Ġtrans": 6390,
      "Ġel": 6391,
      "ĠMakuu": 6392,
      "chua": 6393,
      "ĠKituo": 6394,
      "Ġmzunguko": 6395,
      "Ġmafao": 6396,
      "CHA": 6397,
      "Ġnda": 6398,
      "Ġkunyo": 6399,
      "Ġkuhusika": 6400,
      "Ġname": 6401,
      "himbili": 6402,
      "Ġagizo": 6403,
      "Ġkibo": 6404,
      "Ġkiislamu": 6405,
      "tenge": 6406,
      "ngano": 6407,
      "nday": 6408,
      "Ġalisisitiza": 6409,
      "Ġchaguzi": 6410,
      "liwahi": 6411,
      "Ġkuitwa": 6412,
      "shea": 6413,
      "Ġ36": 6414,
      "Ġmawakili": 6415,
      "Ġmabao": 6416,
      "Ġlisilo": 6417,
      "ĠQ": 6418,
      "nds": 6419,
      "rembo": 6420,
      "Ġweusi": 6421,
      "hilingi": 6422,
      "ĠSaid": 6423,
      "Ġmgomo": 6424,
      "hifadhiwa": 6425,
      "Ġsentensi": 6426,
      "rma": 6427,
      "zake": 6428,
      "siliana": 6429,
      "sana": 6430,
      "jan": 6431,
      "ĠMbi": 6432,
      "liane": 6433,
      "Ġutawa": 6434,
      "Ġchumvi": 6435,
      "Ġajenda": 6436,
      "//": 6437,
      "Ġkubeba": 6438,
      "Ġally": 6439,
      "rick": 6440,
      "Ġmie": 6441,
      "Ġraha": 6442,
      "ĠSeptemba": 6443,
      "Ġkupigana": 6444,
      "Ġkupigania": 6445,
      "rajio": 6446,
      "37": 6447,
      "zimisha": 6448,
      "Ġzahanati": 6449,
      "hogo": 6450,
      "Ġwanahitaji": 6451,
      "nding": 6452,
      "choro": 6453,
      "Ġmaabara": 6454,
      "gizaji": 6455,
      "Ġduka": 6456,
      "Ġatawa": 6457,
      "Ġkuondolewa": 6458,
      "Ġkaratasi": 6459,
      "hesabiwa": 6460,
      "Mtu": 6461,
      "om": 6462,
      "Ġmgumu": 6463,
      "masi": 6464,
      "sitiza": 6465,
      "gara": 6466,
      "Ġamei": 6467,
      "Ġkuathiri": 6468,
      "Ġwould": 6469,
      "vel": 6470,
      "Ġbaharini": 6471,
      "ER": 6472,
      "mli": 6473,
      "Ġmzalendo": 6474,
      "Ġkutia": 6475,
      "tukana": 6476,
      "Ġia": 6477,
      "ledi": 6478,
      "Ġzabuni": 6479,
      "shid": 6480,
      "ndishwa": 6481,
      "rial": 6482,
      "Ġtokea": 6483,
      "Ġshujaa": 6484,
      "Ġmgongo": 6485,
      "199": 6486,
      "hirishwa": 6487,
      "PIKA": 6488,
      "kusudiwa": 6489,
      "Ġnauli": 6490,
      "rit": 6491,
      "kinga": 6492,
      "Ġkibinadamu": 6493,
      "Ġbank": 6494,
      "Ġimewa": 6495,
      "Ġkutekelezwa": 6496,
      "Ġ34": 6497,
      "Ġneema": 6498,
      "reat": 6499,
      "Ġmaono": 6500,
      "Ġmalaria": 6501,
      "ĠGeorge": 6502,
      "Ġwangapi": 6503,
      "tin": 6504,
      "buru": 6505,
      "fukuzwa": 6506,
      "Ġlaana": 6507,
      "Ġaliko": 6508,
      "Ġwameanza": 6509,
      "Ġakaenda": 6510,
      "Ġmwekezaji": 6511,
      "Ġaliyem": 6512,
      "Hakuna": 6513,
      "kumbuke": 6514,
      "Ġrobo": 6515,
      "Ġconstitu": 6516,
      "singizio": 6517,
      "://": 6518,
      "ZO": 6519,
      "kiuka": 6520,
      "Ġkadha": 6521,
      "mited": 6522,
      "ĠMji": 6523,
      "Ġtupate": 6524,
      "sehemu": 6525,
      "Ġalitaka": 6526,
      "Ġsivyo": 6527,
      "logy": 6528,
      "Ġmatarajio": 6529,
      "Ġuliokuwa": 6530,
      "ĠVyuo": 6531,
      "Ġalso": 6532,
      "eneza": 6533,
      "Ġkumekuwa": 6534,
      "Mwaka": 6535,
      "lina": 6536,
      "Ġkada": 6537,
      "Ġjicho": 6538,
      "Mara": 6539,
      "ĠBibi": 6540,
      "Ġpembejeo": 6541,
      "Ġtakribani": 6542,
      "Ġvisiwani": 6543,
      "Ġmashuhuri": 6544,
      "skari": 6545,
      "ïĤ": 6546,
      "Ġnabii": 6547,
      "Ġkiwanja": 6548,
      "buti": 6549,
      "Ġvifungu": 6550,
      "juu": 6551,
      "ĠNita": 6552,
      "des": 6553,
      "Ġwameji": 6554,
      "Ġmeno": 6555,
      "Ġtehama": 6556,
      "Ġbonde": 6557,
      "Ġintere": 6558,
      "Ġroma": 6559,
      "WAZIRI": 6560,
      "Ġwapewe": 6561,
      "Ġviungo": 6562,
      "Mwi": 6563,
      "mpe": 6564,
      "umiza": 6565,
      "Ġzu": 6566,
      "Ġmgawa": 6567,
      "Ġazi": 6568,
      "Ġurithi": 6569,
      "Ġkido": 6570,
      "Ġaliuliza": 6571,
      "Ġlishe": 6572,
      "chelewe": 6573,
      "ĠKanda": 6574,
      "Ġcovid": 6575,
      "Ġcorona": 6576,
      "Ġpropaganda": 6577,
      "Ġuhamiaji": 6578,
      "ghts": 6579,
      "Ġvipimo": 6580,
      "DO": 6581,
      "Ġkusudi": 6582,
      "Ġeast": 6583,
      "ĠMama": 6584,
      "Ġkulipia": 6585,
      "Ġyatakuwa": 6586,
      "ctive": 6587,
      "ice": 6588,
      "kidhi": 6589,
      "Ġbil": 6590,
      "simamishwa": 6591,
      "Ġupanga": 6592,
      "Ġkuzidi": 6593,
      "Ġkuvuna": 6594,
      "ĠTANESCO": 6595,
      "phi": 6596,
      "Ġmsha": 6597,
      "Ġwatakapo": 6598,
      "mamu": 6599,
      "keli": 6600,
      "kosi": 6601,
      "Ġchangu": 6602,
      "Ġanakuwa": 6603,
      "mbora": 6604,
      "Ġmaaskofu": 6605,
      "shughulikiwa": 6606,
      "Ġpublic": 6607,
      "gle": 6608,
      "ota": 6609,
      "Ġaku": 6610,
      "Ġumaarufu": 6611,
      "ĠMtanzania": 6612,
      "Ġwanaona": 6613,
      "Ġunasema": 6614,
      "Ġtunahitaji": 6615,
      "Ġvyeti": 6616,
      "elekezwa": 6617,
      "Ġcent": 6618,
      "Ġalafu": 6619,
      "Ke": 6620,
      "Ġwafadhili": 6621,
      "Ġyawe": 6622,
      "bama": 6623,
      "Ġuti": 6624,
      "Ġubaya": 6625,
      "Ġukusanyaji": 6626,
      "Ġmaswa": 6627,
      "tural": 6628,
      "Ġkaya": 6629,
      "bebe": 6630,
      "Ġeve": 6631,
      "fanyakazi": 6632,
      "ĠWalimu": 6633,
      "Ġtech": 6634,
      "ĠRama": 6635,
      "'.": 6636,
      "DP": 6637,
      "cro": 6638,
      "cco": 6639,
      "jiza": 6640,
      "shie": 6641,
      "nuliwa": 6642,
      "soko": 6643,
      "Ġdesturi": 6644,
      "Ġmsichana": 6645,
      "Ġuhalali": 6646,
      "TC": 6647,
      "pg": 6648,
      "katwa": 6649,
      "mir": 6650,
      "muuliza": 6651,
      "ĠMtakatifu": 6652,
      "Ġlaw": 6653,
      "nyenye": 6654,
      "Ġkamanda": 6655,
      "Ġjadi": 6656,
      "somea": 6657,
      "Ġmeza": 6658,
      "Ġfainali": 6659,
      "Ġsharti": 6660,
      "Ġkusitisha": 6661,
      "Ġngoma": 6662,
      "Ġmchanganyiko": 6663,
      "IN": 6664,
      "Ġy": 6665,
      "Ġagain": 6666,
      "lela": 6667,
      "meza": 6668,
      "Ġhuta": 6669,
      "Ġtuendelee": 6670,
      "gope": 6671,
      "Ġutapata": 6672,
      "Ġshinyanga": 6673,
      "Ġuliofanywa": 6674,
      "ĠGo": 6675,
      "Ġwhen": 6676,
      "njia": 6677,
      "Ġwaende": 6678,
      "Ġkushoto": 6679,
      "komboa": 6680,
      "Ġsidhani": 6681,
      "Ġlife": 6682,
      "Ġtunajua": 6683,
      "asili": 6684,
      "Ġngano": 6685,
      "SE": 6686,
      "ire": 6687,
      "Ġkung": 6688,
      "Ġkufanyia": 6689,
      "Ġkuelezea": 6690,
      "wengine": 6691,
      "busu": 6692,
      "pora": 6693,
      "ĠMto": 6694,
      "ngie": 6695,
      "ngola": 6696,
      "Ġlema": 6697,
      "Ġkuratibu": 6698,
      "alim": 6699,
      "Ġmaudhui": 6700,
      "ĠBiblia": 6701,
      "Ġmasaa": 6702,
      "sikitisha": 6703,
      "Yesu": 6704,
      "Ġtreni": 6705,
      "Ġugomvi": 6706,
      "Ġmnyama": 6707,
      "Ġvikali": 6708,
      "ndikisha": 6709,
      "Ġilim": 6710,
      "ĠMoshi": 6711,
      "fore": 6712,
      "Ġinternational": 6713,
      "Ġthread": 6714,
      "Ġfirst": 6715,
      "Ġwapatao": 6716,
      "Ġusambazaji": 6717,
      "cti": 6718,
      "futwa": 6719,
      "ngoja": 6720,
      "ĠShilingi": 6721,
      "vyote": 6722,
      "Ġunakuwa": 6723,
      "ishu": 6724,
      "Ġdevelopment": 6725,
      "Ġusingi": 6726,
      "hariri": 6727,
      "Ġthan": 6728,
      "Ġparty": 6729,
      "Ġissue": 6730,
      "Ġnguruwe": 6731,
      "39": 6732,
      "dre": 6733,
      "td": 6734,
      "hao": 6735,
      "Ġuzuri": 6736,
      "Ġhayu": 6737,
      "Ġmwakilishi": 6738,
      "Ġtwo": 6739,
      "nuo": 6740,
      "Ġkuokoa": 6741,
      "Ġwanaotaka": 6742,
      "ĠMitaa": 6743,
      "hakikishe": 6744,
      "ĠJoseph": 6745,
      "Mwenyekiti": 6746,
      "umba": 6747,
      "Ġwamiliki": 6748,
      "hirika": 6749,
      "tungwa": 6750,
      "sikika": 6751,
      "Ġtari": 6752,
      "Ġwalianza": 6753,
      "Ġinapaswa": 6754,
      "Ġwatumiaji": 6755,
      "Ġdisemba": 6756,
      "Ġuturuki": 6757,
      "ĠTukufu": 6758,
      "pla": 6759,
      "Ġwafalme": 6760,
      "yaona": 6761,
      "Ġutakapo": 6762,
      "Ġkifua": 6763,
      "mumba": 6764,
      "Ġsikukuu": 6765,
      "Ġzilizopita": 6766,
      "alth": 6767,
      "ĠHuduma": 6768,
      "ĠZiwa": 6769,
      "Ġpolitical": 6770,
      "The": 6771,
      "Ġmdomo": 6772,
      "Ġupelelezi": 6773,
      "Ġhio": 6774,
      "rum": 6775,
      "Ġakim": 6776,
      "Ġ37": 6777,
      "ĠVijana": 6778,
      "ĠPemba": 6779,
      "Ġkadiri": 6780,
      "Ġkusafirisha": 6781,
      "KO": 6782,
      "sy": 6783,
      "Ġmmea": 6784,
      "Ġkutisha": 6785,
      "Ġasasi": 6786,
      "Ġuvi": 6787,
      "Ġhisto": 6788,
      "Ġmito": 6789,
      "Ġalieleza": 6790,
      "pendelea": 6791,
      "Ġwee": 6792,
      "Ġtovuti": 6793,
      "shauriwa": 6794,
      "Ġkupanua": 6795,
      "Ġuandishi": 6796,
      "hutubia": 6797,
      "Ġnd": 6798,
      "Ġmhusika": 6799,
      "Ġwasha": 6800,
      "hisho": 6801,
      "pato": 6802,
      "Ġhigh": 6803,
      "ĠOktoba": 6804,
      "ports": 6805,
      "Ġnakushukuru": 6806,
      "Ġmfanyakazi": 6807,
      "Ġuwiano": 6808,
      "Ġataa": 6809,
      "kumbwa": 6810,
      "tuta": 6811,
      "Ġcli": 6812,
      "ngali": 6813,
      "rent": 6814,
      "seka": 6815,
      "vunjika": 6816,
      "Ġmahala": 6817,
      "Ġkorea": 6818,
      "ĠJuu": 6819,
      "kubaliwa": 6820,
      "ĠLindi": 6821,
      "Ġtrilioni": 6822,
      "ĠUlinzi": 6823,
      "cri": 6824,
      "klia": 6825,
      "Ġmvi": 6826,
      "lishi": 6827,
      "Ġmajo": 6828,
      "kobo": 6829,
      "Ġhufanya": 6830,
      "ndamizi": 6831,
      "Ġwanadai": 6832,
      "Ġkuinua": 6833,
      "Ġitawa": 6834,
      "Ġzilizotolewa": 6835,
      "ĠBalozi": 6836,
      "Ġuaminifu": 6837,
      "Ġumakini": 6838,
      "RIKA": 6839,
      "ïĤ·": 6840,
      "Ġkuhoji": 6841,
      "bas": 6842,
      "kiu": 6843,
      "Ġiran": 6844,
      "Ġfri": 6845,
      "Ġfar": 6846,
      "Ġshare": 6847,
      "Ġkipimo": 6848,
      "ĠChina": 6849,
      "Ġkashfa": 6850,
      "33": 6851,
      "Ġnimea": 6852,
      "jambo": 6853,
      "ĠMtu": 6854,
      "guliwa": 6855,
      "veni": 6856,
      "fuate": 6857,
      "ĠPwani": 6858,
      "Ġshambulizi": 6859,
      "Ġubadhirifu": 6860,
      "kusanywa": 6861,
      "Ġkurudisha": 6862,
      "Ġkiraia": 6863,
      "Ġkupungua": 6864,
      "ndwe": 6865,
      "kozi": 6866,
      "por": 6867,
      "Ġetc": 6868,
      "mbui": 6869,
      "Ġwanaoji": 6870,
      "Ġkutumiwa": 6871,
      "elimu": 6872,
      "kre": 6873,
      "pwe": 6874,
      "Ġkugo": 6875,
      "ngs": 6876,
      "Ġmantiki": 6877,
      "Ġdon": 6878,
      "Ġwalicho": 6879,
      "Ġanatakiwa": 6880,
      "vuta": 6881,
      "ĠKilo": 6882,
      "akaya": 6883,
      "Ġblo": 6884,
      "julikani": 6885,
      "shughulisha": 6886,
      "kadiriwa": 6887,
      "tma": 6888,
      "wamu": 6889,
      "Ġkubuni": 6890,
      "nene": 6891,
      "Ġsiwezi": 6892,
      "gue": 6893,
      "Ġed": 6894,
      "Ġunafiki": 6895,
      "kwamisha": 6896,
      "ĠUna": 6897,
      "ĠKita": 6898,
      "ĠKitaifa": 6899,
      "Ġbri": 6900,
      "ĠEe": 6901,
      "feli": 6902,
      "Ġnyanja": 6903,
      "Ġwastaafu": 6904,
      "2004": 6905,
      "Ġservi": 6906,
      "Basi": 6907,
      "Ġmlo": 6908,
      "Ġmsaidizi": 6909,
      "Ġazma": 6910,
      "Ġsma": 6911,
      "Ġbaya": 6912,
      "ngoji": 6913,
      "Ġutaona": 6914,
      "Ġkuundwa": 6915,
      "Hawa": 6916,
      "ingilia": 6917,
      "Ġkiafrika": 6918,
      "Ġpriva": 6919,
      "kabidhiwa": 6920,
      "LP": 6921,
      "uzia": 6922,
      "Ġkujengwa": 6923,
      "kosoa": 6924,
      "zua": 6925,
      "ĠHA": 6926,
      "Ġbusiness": 6927,
      "ĠHassan": 6928,
      "Ġupate": 6929,
      "Ġdarasani": 6930,
      "Ġkisicho": 6931,
      "Ġyears": 6932,
      "ipata": 6933,
      "uku": 6934,
      "Ġwahi": 6935,
      "Ġkufikiria": 6936,
      "Ġugumu": 6937,
      "Ġiii": 6938,
      "shangaza": 6939,
      "ĠMsingi": 6940,
      "Ġilianza": 6941,
      "ndon": 6942,
      "Ġakawaambia": 6943,
      "Ġakiwemo": 6944,
      "ĠIndia": 6945,
      "hisisha": 6946,
      "Ġbayana": 6947,
      "nuel": 6948,
      "Ġ45": 6949,
      "Ġkuvutia": 6950,
      "Ġwahuni": 6951,
      "Ġnjama": 6952,
      "hamishi": 6953,
      "Ġkurejesha": 6954,
      "Ġhiari": 6955,
      "Ġinatokana": 6956,
      "ĠMakao": 6957,
      "Ġkuanga": 6958,
      "Ġwatawa": 6959,
      "taarifa": 6960,
      "Ġinve": 6961,
      "ĠSingida": 6962,
      "Ġutukufu": 6963,
      "Ġkukimbia": 6964,
      "thayo": 6965,
      "Ġunited": 6966,
      "Ġukilinganisha": 6967,
      "Ġkifa": 6968,
      "zozi": 6969,
      "Ġdua": 6970,
      "roro": 6971,
      "fuati": 6972,
      "Ġstar": 6973,
      "Ġnyoka": 6974,
      "tics": 6975,
      "Ġmachafuko": 6976,
      "Ġgeneral": 6977,
      "ĠUkimwi": 6978,
      "ulo": 6979,
      "yali": 6980,
      "tain": 6981,
      "Ġubunifu": 6982,
      "Ġufuatiliaji": 6983,
      "sala": 6984,
      "mbaku": 6985,
      "Ġhutumia": 6986,
      "Ġph": 6987,
      "Ġgeita": 6988,
      "sababi": 6989,
      "dhuru": 6990,
      "ĠSheikh": 6991,
      "Ġmadhubuti": 6992,
      "wandani": 6993,
      "Ġkuwasiliana": 6994,
      "jeli": 6995,
      "Ġpaul": 6996,
      "Ġunacho": 6997,
      "Ġnoti": 6998,
      "Ġmsajili": 6999,
      "Ġkumbuka": 7000,
      "Ġknow": 7001,
      "tusaidia": 7002,
      "Ġlive": 7003,
      "giriki": 7004,
      "Ġusing": 7005,
      "uzito": 7006,
      "wapongeza": 7007,
      "imari": 7008,
      "mfalme": 7009,
      "rg": 7010,
      "Ġafanye": 7011,
      "Ġuvamizi": 7012,
      "tuhumiwa": 7013,
      "Ġzama": 7014,
      "Ġnta": 7015,
      "Ġmiili": 7016,
      "Ġsensa": 7017,
      "ĠKiingereza": 7018,
      "org": 7019,
      "Ġkukidhi": 7020,
      "aaa": 7021,
      "Ġkuhudumia": 7022,
      "Ġkigaidi": 7023,
      "Pe": 7024,
      "mhe": 7025,
      "Ġmb": 7026,
      "hayo": 7027,
      "Ġumbo": 7028,
      "sita": 7029,
      "bovu": 7030,
      "elezo": 7031,
      "ĠMatumizi": 7032,
      "ĠMadini": 7033,
      "Ġmaadui": 7034,
      "Ġfre": 7035,
      "Ġpemba": 7036,
      "Ġzilivyo": 7037,
      "Ġtumekuwa": 7038,
      "Ġ38": 7039,
      "Ġgunia": 7040,
      "dkt": 7041,
      "Ġkizi": 7042,
      "ĠMti": 7043,
      "ĠMkutano": 7044,
      "Ġtake": 7045,
      "Ġwalipa": 7046,
      "Ġanapaswa": 7047,
      "Ġtwende": 7048,
      "ndela": 7049,
      "kwaani": 7050,
      "ĠCa": 7051,
      "Ġplea": 7052,
      "Ġnyara": 7053,
      "Ġkifungo": 7054,
      "df": 7055,
      "mtaka": 7056,
      "risho": 7057,
      "lation": 7058,
      "humu": 7059,
      "Ġtufanye": 7060,
      "chezea": 7061,
      "Ġumefika": 7062,
      "Ġneed": 7063,
      "Ġ2001": 7064,
      "Ġ80": 7065,
      "Ġmbao": 7066,
      "mbulika": 7067,
      "Ġsouth": 7068,
      "Nya": 7069,
      "and": 7070,
      "wako": 7071,
      "Ġkuchu": 7072,
      "Ġiendelee": 7073,
      "Ġmwakani": 7074,
      "Ġkujitolea": 7075,
      "Ġkombe": 7076,
      "Ġdemocra": 7077,
      "Ġkutembea": 7078,
      "muziki": 7079,
      "Ġalbamu": 7080,
      "Ġpoint": 7081,
      "Ġyakinifu": 7082,
      "achwa": 7083,
      "iomba": 7084,
      "jpg": 7085,
      "mmoja": 7086,
      "mzika": 7087,
      "wawa": 7088,
      "naomba": 7089,
      "hilo": 7090,
      "mala": 7091,
      "Ġmah": 7092,
      "husa": 7093,
      "hudhuri": 7094,
      "mishe": 7095,
      "Ġmilango": 7096,
      "choma": 7097,
      "Ġsuluhisho": 7098,
      "dhehebu": 7099,
      "nusuru": 7100,
      "Ġpendekezo": 7101,
      "KT": 7102,
      "wai": 7103,
      "Ġkuhani": 7104,
      "Ġalo": 7105,
      "Ġstra": 7106,
      "kistan": 7107,
      "Ġkigezo": 7108,
      "Ġtafiti": 7109,
      "liambia": 7110,
      "zuni": 7111,
      "Ġdala": 7112,
      "Ġkujipatia": 7113,
      "Ġkukopa": 7114,
      "44": 7115,
      "Ġkugha": 7116,
      "wezo": 7117,
      "Ġvoa": 7118,
      "Ġmini": 7119,
      "ĠKombe": 7120,
      "Ġradio": 7121,
      "ĠPar": 7122,
      "stru": 7123,
      "Ġafter": 7124,
      "Ġ500": 7125,
      "ATA": 7126,
      "vutio": 7127,
      "ombea": 7128,
      "Ġmla": 7129,
      "Ġmguu": 7130,
      "Ġwakurugenzi": 7131,
      "Ġyakiwa": 7132,
      "wengi": 7133,
      "less": 7134,
      "Ġviba": 7135,
      "Ġkuwataka": 7136,
      "Ġutaala": 7137,
      "Ġkujiuzulu": 7138,
      "Ġmarais": 7139,
      "Katibu": 7140,
      "Ġngome": 7141,
      "lalamikia": 7142,
      "rdi": 7143,
      "Ġuzima": 7144,
      "Ġkaa": 7145,
      "Ġkivita": 7146,
      "bira": 7147,
      "Ġvisa": 7148,
      "Ġbagamoyo": 7149,
      "Ġalizaliwa": 7150,
      "book": 7151,
      "ĠKambi": 7152,
      "ĠIlala": 7153,
      "Ġfundi": 7154,
      "Ġcode": 7155,
      "Ġlumumba": 7156,
      "Ġmsanii": 7157,
      "Ġ70": 7158,
      "mbukiza": 7159,
      "forma": 7160,
      "hangaika": 7161,
      "LO": 7162,
      "gr": 7163,
      "tan": 7164,
      "Ġkijinga": 7165,
      "koma": 7166,
      "ĠMsu": 7167,
      "horo": 7168,
      "Ġsenti": 7169,
      "Ġameji": 7170,
      "kuambia": 7171,
      "ĠRA": 7172,
      "Ġshahidi": 7173,
      "Ġkupatiwa": 7174,
      "Ġujamaa": 7175,
      "hamis": 7176,
      "Ġzikiwemo": 7177,
      "Ġwatoa": 7178,
      "kanusha": 7179,
      "Ġhila": 7180,
      "Ġwanaamini": 7181,
      "Ġback": 7182,
      "ĠNje": 7183,
      "Ġnimeona": 7184,
      "Ġuhamisho": 7185,
      "Ġtaabu": 7186,
      "Ġkushangaza": 7187,
      "Ġtwitter": 7188,
      "TU": 7189,
      "gina": 7190,
      "Ġ?": 7191,
      "liti": 7192,
      "kanda": 7193,
      "Ġubongo": 7194,
      "bungo": 7195,
      "redi": 7196,
      "ndoo": 7197,
      "ĠAbdallah": 7198,
      "ĠNew": 7199,
      "Ġhataki": 7200,
      "Ġwatapata": 7201,
      "ĠJakaya": 7202,
      "Ġmahabusu": 7203,
      "Ġjr": 7204,
      "Ġmagereza": 7205,
      "Ġqua": 7206,
      "ikolojia": 7207,
      "mji": 7208,
      "tary": 7209,
      "Ġang": 7210,
      "jaza": 7211,
      "game": 7212,
      "Ġwivu": 7213,
      "cep": 7214,
      "ory": 7215,
      "Ġmatawi": 7216,
      "Ġukim": 7217,
      "kumbukwe": 7218,
      "Ġkisasi": 7219,
      "ĠWanawake": 7220,
      "Ġkipekee": 7221,
      "Ahsante": 7222,
      "Me": 7223,
      "ngwana": 7224,
      "tisho": 7225,
      "lazwa": 7226,
      "huyo": 7227,
      "fanua": 7228,
      "dhini": 7229,
      "ders": 7230,
      "Ġhow": 7231,
      "Ġyaliyopo": 7232,
      "Ġshould": 7233,
      "!âĢĿ": 7234,
      "Aliwa": 7235,
      "msingi": 7236,
      "Ġwadhifa": 7237,
      "hizi": 7238,
      "bana": 7239,
      "Ġsioni": 7240,
      "Ġwenzi": 7241,
      "ĠBina": 7242,
      "Ġmwigulu": 7243,
      "milifu": 7244,
      "lls": 7245,
      "mpaka": 7246,
      "dhalilisha": 7247,
      "Ġkumuua": 7248,
      "ama": 7249,
      "kijiji": 7250,
      "noni": 7251,
      "ĠKongo": 7252,
      "chapishwa": 7253,
      "ĠMala": 7254,
      "Ġrai": 7255,
      "ĠAgosti": 7256,
      "mbee": 7257,
      "Ġwataendelea": 7258,
      "Ġitasaidia": 7259,
      "Ġsur": 7260,
      "Ġ2020": 7261,
      "kabila": 7262,
      "Ġguinea": 7263,
      "Ġkumwambia": 7264,
      "tegemee": 7265,
      "Ġkukosekana": 7266,
      "Cha": 7267,
      "bariki": 7268,
      "kuliwa": 7269,
      "Ġkishi": 7270,
      "jamaa": 7271,
      "Ġsame": 7272,
      "jukuu": 7273,
      "Ġsee": 7274,
      "Ġinataka": 7275,
      "ishe": 7276,
      "dege": 7277,
      "Ġmtupu": 7278,
      "ĠIbara": 7279,
      "Ġbomba": 7280,
      "Ġmwenyezi": 7281,
      "Hayo": 7282,
      "ĠViongozi": 7283,
      "ĠTibai": 7284,
      "py": 7285,
      "Ġmkwa": 7286,
      "kakati": 7287,
      "tumu": 7288,
      "ĠMzee": 7289,
      "Ġmijadala": 7290,
      "Ġkuwaambia": 7291,
      "Ġbalaa": 7292,
      "ĠSasa": 7293,
      "Ġweledi": 7294,
      "ndonesia": 7295,
      "dhimisho": 7296,
      "iambia": 7297,
      "Ġrufani": 7298,
      "Ġmashabiki": 7299,
      "Ġridhaa": 7300,
      "TAN": 7301,
      "tre": 7302,
      "Ġmchungaji": 7303,
      "Ġaende": 7304,
      "maka": 7305,
      "Ġcla": 7306,
      "Ġmidogo": 7307,
      "nyesho": 7308,
      "juzi": 7309,
      "Ġjust": 7310,
      "Ġkoo": 7311,
      "Ġkurasa": 7312,
      "Ġjmt": 7313,
      "boreshaji": 7314,
      "mwisho": 7315,
      "Ġmpito": 7316,
      "nikiza": 7317,
      "ĠZimbabwe": 7318,
      "Ġblack": 7319,
      "ĠAfrican": 7320,
      "Ġmadhabahu": 7321,
      "PO": 7322,
      "rry": 7323,
      "whe": 7324,
      "nao": 7325,
      "Ġwayahudi": 7326,
      "kabla": 7327,
      "Ġuchimbaji": 7328,
      "Ġkari": 7329,
      "Ġiv": 7330,
      "ping": 7331,
      "ĠMsi": 7332,
      "Ġvisima": 7333,
      "rekodi": 7334,
      "Ġbangi": 7335,
      "guru": 7336,
      "Ġunahitaji": 7337,
      "ĠMana": 7338,
      "ĠKifungu": 7339,
      "Ġwaathirika": 7340,
      "ĠGu": 7341,
      "Ġsawasawa": 7342,
      "Ġlililokuwa": 7343,
      "Ġmadaraja": 7344,
      "hatarisha": 7345,
      "amesema": 7346,
      "uwawa": 7347,
      "VI": 7348,
      "tuka": 7349,
      "neti": 7350,
      "Ġaliwaambia": 7351,
      "ĠSte": 7352,
      "Ġhalija": 7353,
      "giji": 7354,
      "Ġtishio": 7355,
      "Ġmnao": 7356,
      "haribiwa": 7357,
      "Ġkipande": 7358,
      "wasiliano": 7359,
      "Viongozi": 7360,
      "Wizara": 7361,
      "JA": 7362,
      "yao": 7363,
      "tali": 7364,
      "ley": 7365,
      "Ġhafla": 7366,
      "Ġhutoa": 7367,
      "juwa": 7368,
      "mbile": 7369,
      "ĠSera": 7370,
      "Ġmahakimu": 7371,
      "Ġtiketi": 7372,
      "Ġforums": 7373,
      "Ġupembuzi": 7374,
      "Ġkondomu": 7375,
      "apa": 7376,
      "umia": 7377,
      "Ġwasaidizi": 7378,
      "Ġide": 7379,
      "Ġkwakuwa": 7380,
      "Ġhum": 7381,
      "Ġhuji": 7382,
      "nzaji": 7383,
      "gaa": 7384,
      "gan": 7385,
      "Ġtunaona": 7386,
      "ĠKinondoni": 7387,
      "Maa": 7388,
      "Ġroad": 7389,
      "boresho": 7390,
      "Wengine": 7391,
      "BI": 7392,
      "MIS": 7393,
      "ogra": 7394,
      "nini": 7395,
      "Ġnaji": 7396,
      "bal": 7397,
      "Ġmaua": 7398,
      "Ġskimu": 7399,
      "Ġkizuri": 7400,
      "mis": 7401,
      "her": 7402,
      "shitakiwa": 7403,
      "Ġilitolewa": 7404,
      "ges": 7405,
      "puuza": 7406,
      "ndeni": 7407,
      "Ġkutafakari": 7408,
      "Ġ300": 7409,
      "Ġhospitalini": 7410,
      "Ġ1999": 7411,
      "ĠHekalu": 7412,
      "Ġpolepole": 7413,
      "Shu": 7414,
      "ugh": 7415,
      "Ġmadhehebu": 7416,
      "Ġsti": 7417,
      "Ġhakuta": 7418,
      "Ġvibali": 7419,
      "ngusha": 7420,
      "semea": 7421,
      "Ġchafu": 7422,
      "Ġlitakalo": 7423,
      "ĠAf": 7424,
      "ĠPia": 7425,
      "Ġmkazo": 7426,
      "Ġkiafya": 7427,
      "Ġwork": 7428,
      "Ġwanamgambo": 7429,
      "Ġpointi": 7430,
      "hukumiwa": 7431,
      "waza": 7432,
      "Ġari": 7433,
      "Ġagano": 7434,
      "Ġmag": 7435,
      "raba": 7436,
      "jadiliwa": 7437,
      "paji": 7438,
      "Ġpata": 7439,
      "lue": 7440,
      "ĠUjenzi": 7441,
      "Ġyork": 7442,
      "Ġlondon": 7443,
      "Ġww": 7444,
      "forums": 7445,
      "Ġmtaalamu": 7446,
      "Ġaliwataka": 7447,
      "furahisha": 7448,
      "Ġamewataka": 7449,
      "ramu": 7450,
      "sep": 7451,
      "mond": 7452,
      "Ġmuongo": 7453,
      "ĠAmani": 7454,
      "mbura": 7455,
      "Ġhuohuo": 7456,
      "Ġmwizi": 7457,
      "Ġmajirani": 7458,
      "Ġwaache": 7459,
      "ĠFo": 7460,
      "nyonya": 7461,
      "ĠZambia": 7462,
      "Ġufupi": 7463,
      "lled": 7464,
      "Ġhtt": 7465,
      "Ġhususani": 7466,
      "Ġwapenzi": 7467,
      "Nita": 7468,
      "achia": 7469,
      "imba": 7470,
      "nter": 7471,
      "Ġkona": 7472,
      "may": 7473,
      "Ġuse": 7474,
      "Ġuthibiti": 7475,
      "Ġiwa": 7476,
      "muliwa": 7477,
      "ngazaji": 7478,
      "ndaliwa": 7479,
      "Ġtui": 7480,
      "sea": 7481,
      "nov": 7482,
      "Ġanaendelea": 7483,
      "Ġmsiba": 7484,
      "Ġyaliyomo": 7485,
      "rejeshwa": 7486,
      "Ġmadereva": 7487,
      "ĠBenjamin": 7488,
      "cus": 7489,
      "lp": 7490,
      "Ġak": 7491,
      "Ġuza": 7492,
      "Ġufungu": 7493,
      "Ġuzembe": 7494,
      "kunywa": 7495,
      "Ġkavu": 7496,
      "Ġindi": 7497,
      "Ġmitaji": 7498,
      "reno": 7499,
      "Ġtas": 7500,
      "Ġalipewa": 7501,
      "ropo": 7502,
      "Ġjanuary": 7503,
      "Ġsanamu": 7504,
      "Ġamefanya": 7505,
      "somwa": 7506,
      "ĠKagera": 7507,
      "ĠKiafrika": 7508,
      "ishati": 7509,
      "ĠEd": 7510,
      "Ġmajanga": 7511,
      "Ġnuru": 7512,
      "tumaini": 7513,
      "itoa": 7514,
      "way": 7515,
      "liko": 7516,
      "Ġkariakoo": 7517,
      "tekele": 7518,
      "rus": 7519,
      "rushwa": 7520,
      "nger": 7521,
      "Ġmedi": 7522,
      "Ġkusisitiza": 7523,
      "Ġmizizi": 7524,
      "Ġkuuawa": 7525,
      "Ġamin": 7526,
      "Ġzambia": 7527,
      "remia": 7528,
      "Ġwanaharakati": 7529,
      "Ġzito": 7530,
      "ĠWakuu": 7531,
      "Ġimefanya": 7532,
      "Ġbendi": 7533,
      "Ġinto": 7534,
      "Ġusanifu": 7535,
      "Ġ48": 7536,
      "Ġuhali": 7537,
      "ĠTemeke": 7538,
      "idhinishwa": 7539,
      "Ġmenejimenti": 7540,
      "mvu": 7541,
      "jazo": 7542,
      "nyia": 7543,
      "Ġkujiuliza": 7544,
      "Ġnyuki": 7545,
      "kilisha": 7546,
      "rudishwa": 7547,
      "ktaba": 7548,
      "Ġmajaliwa": 7549,
      "ĠKwanza": 7550,
      "Ġkimwili": 7551,
      "Ġmajumbani": 7552,
      "Ġkenyatta": 7553,
      "Tanzania": 7554,
      "ssim": 7555,
      "Ġunion": 7556,
      "Ġmshitakiwa": 7557,
      "Ġwhite": 7558,
      "Ġagenda": 7559,
      "Ġnywele": 7560,
      "Te": 7561,
      "ddi": 7562,
      "Ġabu": 7563,
      "Ġufi": 7564,
      "Ġmashe": 7565,
      "ril": 7566,
      "seveni": 7567,
      "Ġbanda": 7568,
      "Ġsindano": 7569,
      "zer": 7570,
      "gufuli": 7571,
      "Ġbig": 7572,
      "Ġunakuta": 7573,
      "Ġumesha": 7574,
      "Ġrepubli": 7575,
      "Ġmashahidi": 7576,
      "Ġright": 7577,
      "ĠBurundi": 7578,
      "Kamati": 7579,
      "Ġuzinduzi": 7580,
      "Ġangani": 7581,
      "Ġkiapo": 7582,
      "Ġ1995": 7583,
      "Ġnjombe": 7584,
      "DU": 7585,
      "Is": 7586,
      "ky": 7587,
      "Ġms": 7588,
      "Ġwataka": 7589,
      "mad": 7590,
      "zindua": 7591,
      "hula": 7592,
      "Ġnilio": 7593,
      "Ġmichache": 7594,
      "Ġbata": 7595,
      "ĠMada": 7596,
      "Ġmaadhimisho": 7597,
      "Ġramani": 7598,
      "Ġtunasema": 7599,
      "kamano": 7600,
      "fuatwa": 7601,
      "tumiaji": 7602,
      "Ġface": 7603,
      "Ġyanayohusu": 7604,
      "hitimisha": 7605,
      "Leo": 7606,
      "leiman": 7607,
      "Ġkukubaliana": 7608,
      "mzee": 7609,
      "Ġacheni": 7610,
      "sig": 7611,
      "koni": 7612,
      "hofia": 7613,
      "Ġaliona": 7614,
      "wizara": 7615,
      "Ġeng": 7616,
      "Ġndiko": 7617,
      "Ġwamepata": 7618,
      "Ġmea": 7619,
      "Ġnyanya": 7620,
      "ĠVijiji": 7621,
      "mikali": 7622,
      "Ġvilikuwa": 7623,
      "Ġmumewe": 7624,
      "stralia": 7625,
      "Ġkuchochea": 7626,
      "Ġnadharia": 7627,
      "Ġaza": 7628,
      "Ġanti": 7629,
      "Ġtumia": 7630,
      "Ġalikuja": 7631,
      "gar": 7632,
      "Ġpas": 7633,
      "Ġpara": 7634,
      "ĠMashirika": 7635,
      "Ġzinazoendelea": 7636,
      "ĠSoka": 7637,
      "saliti": 7638,
      "ĠJumapili": 7639,
      "ĠInter": 7640,
      "Ġuhalisia": 7641,
      "VU": 7642,
      "iv": 7643,
      "ikiwa": 7644,
      "mk": 7645,
      "mcha": 7646,
      "karibu": 7647,
      "marekani": 7648,
      "Ġkite": 7649,
      "kenya": 7650,
      "Ġbingwa": 7651,
      "Ġwameamua": 7652,
      "Ġruhusa": 7653,
      "Ġhatima": 7654,
      "ĠLigi": 7655,
      "fundishwa": 7656,
      "iled": 7657,
      "Ġjumuia": 7658,
      "Ġuanachama": 7659,
      "Ġresult": 7660,
      "Ġmaswala": 7661,
      "Kisha": 7662,
      "Ndiyo": 7663,
      "nada": 7664,
      "lilia": 7665,
      "Ġulia": 7666,
      "tiri": 7667,
      "beti": 7668,
      "ying": 7669,
      "ĠBA": 7670,
      "Ġakitoa": 7671,
      "nth": 7672,
      "Ġbest": 7673,
      "Ġbeca": 7674,
      "Ġlilipo": 7675,
      "Ġmashambulio": 7676,
      "ĠBush": 7677,
      "kipiki": 7678,
      "Ġkadhi": 7679,
      "dhan": 7680,
      "ĠUtawala": 7681,
      "Ġsource": 7682,
      "Ġmweusi": 7683,
      "Ġninayo": 7684,
      "Ġ2022": 7685,
      "Ġmwilini": 7686,
      "Ġuwanjani": 7687,
      "Ġvyumba": 7688,
      "chocheo": 7689,
      "Ġvisivyo": 7690,
      "shikiliwa": 7691,
      "Ġusumbufu": 7692,
      "Ġschool": 7693,
      "ach": 7694,
      "Ġkuheshimu": 7695,
      "Ġangekuwa": 7696,
      "toweka": 7697,
      "ful": 7698,
      "Ġaliamua": 7699,
      "Ġilikua": 7700,
      "Ġbbc": 7701,
      "Ġstadi": 7702,
      "Ġujanja": 7703,
      "Ġendelea": 7704,
      "tawaliwa": 7705,
      "60": 7706,
      "HO": 7707,
      "Tuli": 7708,
      "ira": 7709,
      "int": 7710,
      "Ġwachimbaji": 7711,
      "haba": 7712,
      "kusi": 7713,
      "mbaa": 7714,
      "ĠMKU": 7715,
      "boda": 7716,
      "ĠNishati": 7717,
      "dunia": 7718,
      "Ġkuipa": 7719,
      "ĠTanganyika": 7720,
      "Ġfaini": 7721,
      "Ġwakasema": 7722,
      "Ġwakoloni": 7723,
      "Ġmiongozo": 7724,
      "eeee": 7725,
      "ĠTibaigana": 7726,
      "Mfano": 7727,
      "Ġmchu": 7728,
      "Ġunguja": 7729,
      "Ġmajeruhi": 7730,
      "Ġini": 7731,
      "Ġkiwe": 7732,
      "fuka": 7733,
      "Ġwanasheria": 7734,
      "pesha": 7735,
      "suaji": 7736,
      "Ġmost": 7737,
      "Ġwameshindwa": 7738,
      "Ġhatuta": 7739,
      "Ġ2023": 7740,
      "Ġhauku": 7741,
      "thali": 7742,
      "Dk": 7743,
      "wazo": 7744,
      "Ġmsomi": 7745,
      "Ġkugundua": 7746,
      "tasari": 7747,
      "Ġamo": 7748,
      "tifa": 7749,
      "lah": 7750,
      "hudumu": 7751,
      "bihu": 7752,
      "funika": 7753,
      "Ġsafu": 7754,
      "Ġvito": 7755,
      "Ġkuwania": 7756,
      "Ġlipi": 7757,
      "Ġlibya": 7758,
      "Ġzinasema": 7759,
      "ĠChu": 7760,
      "Ġkuuzwa": 7761,
      "taalamu": 7762,
      "Ġmasikio": 7763,
      "Ġmembers": 7764,
      "ĠPaulo": 7765,
      "isoma": 7766,
      "dr": 7767,
      "Ġmpinzani": 7768,
      "Ġkulalamika": 7769,
      "Ġucho": 7770,
      "Ġmauti": 7771,
      "Ġmarefu": 7772,
      "search": 7773,
      "Ġwell": 7774,
      "geza": 7775,
      "Ġdaudi": 7776,
      "Ġakaji": 7777,
      "Ġiliyofanyika": 7778,
      "wanao": 7779,
      "Ġgenge": 7780,
      "urnali": 7781,
      "chukuliwe": 7782,
      "chochezi": 7783,
      "Ġtetesi": 7784,
      "Nchi": 7785,
      "Ġ[": 7786,
      "Ġkuchimba": 7787,
      "Ġyaku": 7788,
      "Ġuboreshaji": 7789,
      "salia": 7790,
      "ket": 7791,
      "fupi": 7792,
      "Ġhuweza": 7793,
      "vunia": 7794,
      "miaka": 7795,
      "dom": 7796,
      "cheke": 7797,
      "ĠKatoliki": 7798,
      "Ġbomu": 7799,
      "Ġmatamshi": 7800,
      "Ġburu": 7801,
      "Ġukitaka": 7802,
      "Ġmikoani": 7803,
      "Ġhauta": 7804,
      "Ġkijani": 7805,
      "lipia": 7806,
      "Ġkuvaa": 7807,
      "balozi": 7808,
      "Ġkai": 7809,
      "saa": 7810,
      "ĠMku": 7811,
      "Ġsalamu": 7812,
      "nguu": 7813,
      "Ġtami": 7814,
      "Ġtakatifu": 7815,
      "Ġbandia": 7816,
      "Ġakifanya": 7817,
      "ĠKijiji": 7818,
      "Ġhayaku": 7819,
      "Ġmkaguzi": 7820,
      "come": 7821,
      "Ġfina": 7822,
      "Ġgod": 7823,
      "simulia": 7824,
      "Ġmchele": 7825,
      "',": 7826,
      ",âĢĿ": 7827,
      "dra": 7828,
      "Ġmsimamizi": 7829,
      "hazi": 7830,
      "Ġitaka": 7831,
      "Ġhuzuni": 7832,
      "nue": 7833,
      "Ġpanya": 7834,
      "Ġmaandiko": 7835,
      "Ġtoa": 7836,
      "Ġkumfanya": 7837,
      "Ġdebe": 7838,
      "ĠNaye": 7839,
      "Ġinayopendekezwa": 7840,
      "Haya": 7841,
      "Ġkusaini": 7842,
      "Ġ2010": 7843,
      "Ġwavuvi": 7844,
      "ndamanaji": 7845,
      "lm": 7846,
      "Ġkutwa": 7847,
      "Ġuke": 7848,
      "Ġiga": 7849,
      "Ġsakata": 7850,
      "pea": 7851,
      "Ġiliwa": 7852,
      "Ġilitoa": 7853,
      "Ġzijazo": 7854,
      "Ġobama": 7855,
      "gement": 7856,
      "Ġmomba": 7857,
      "Ġutatu": 7858,
      "Ġkutekete": 7859,
      "Ġlikizo": 7860,
      "mmanuel": 7861,
      "Ġkudumisha": 7862,
      ".,": 7863,
      "Ji": 7864,
      "ute": 7865,
      "ling": 7866,
      "Ġmaboresho": 7867,
      "rifu": 7868,
      "tesa": 7869,
      "pala": 7870,
      "ĠMene": 7871,
      "Ġhutumika": 7872,
      "yuni": 7873,
      "Ġpikipiki": 7874,
      "Ġpenye": 7875,
      "Ġpra": 7876,
      "Hadi": 7877,
      "Ġmtawala": 7878,
      "Ġglo": 7879,
      "potevu": 7880,
      "Ġutunzaji": 7881,
      "ĠNigeria": 7882,
      "Ġlenyewe": 7883,
      "Ġvipaji": 7884,
      "Ġusoni": 7885,
      "Ġwhere": 7886,
      "Ġkivuli": 7887,
      "41": 7888,
      "yangu": 7889,
      "Ġupumbavu": 7890,
      "Ġinde": 7891,
      "Ġkirefu": 7892,
      "sein": 7893,
      "Ġwalipata": 7894,
      "Ġwalipokuwa": 7895,
      "Ġinam": 7896,
      "ĠNdani": 7897,
      "ĠWatoto": 7898,
      "mbulia": 7899,
      "milivu": 7900,
      "kilize": 7901,
      "onekane": 7902,
      "Ġdiwani": 7903,
      "Ġdharau": 7904,
      "Ġyaliyotolewa": 7905,
      "Ġkilichopo": 7906,
      "hamishwa": 7907,
      "Sehemu": 7908,
      "Ġmabilioni": 7909,
      "ference": 7910,
      "kretari": 7911,
      "80": 7912,
      "kye": 7913,
      "kavu": 7914,
      "tambuliwa": 7915,
      "weni": 7916,
      "yem": 7917,
      "ĠSU": 7918,
      "ĠMaria": 7919,
      "ĠHus": 7920,
      "Ġwoga": 7921,
      "Ġshingo": 7922,
      "ilikuwa": 7923,
      "Ġcheti": 7924,
      "Ġbandarini": 7925,
      "Wananchi": 7926,
      "Ġstory": 7927,
      "Ġviatu": 7928,
      "Ġkwingine": 7929,
      "Ġdaladala": 7930,
      "Chama": 7931,
      "ntu": 7932,
      "waya": 7933,
      "Ġuwongo": 7934,
      "Ġsgr": 7935,
      "kuelewa": 7936,
      "Ġkiha": 7937,
      "Ġkiini": 7938,
      "ngalie": 7939,
      "Ġtumbaku": 7940,
      "Ġwanahabari": 7941,
      "jumla": 7942,
      "Ġinafaa": 7943,
      "Ġanaitwa": 7944,
      "lution": 7945,
      "Ġkuanguka": 7946,
      "tial": 7947,
      "Ġfeki": 7948,
      "ĠMuhimbili": 7949,
      "Ġsul": 7950,
      "Ġkusikilizwa": 7951,
      "Ġgro": 7952,
      "Ġgreat": 7953,
      "chokifanya": 7954,
      "Ġkijinsia": 7955,
      "Yo": 7956,
      "ungwa": 7957,
      "Ġaendelee": 7958,
      "Ġmanne": 7959,
      "Ġmaliasili": 7960,
      "ricul": 7961,
      "menta": 7962,
      "ĠMtendaji": 7963,
      "hola": 7964,
      "nguni": 7965,
      "Ġanai": 7966,
      "Ġbiden": 7967,
      "dec": 7968,
      "Ġwamefanya": 7969,
      "Ġzinavyo": 7970,
      "Ġzinaonyesha": 7971,
      "Ġpoa": 7972,
      "Ġwanaowa": 7973,
      "Ġkinaweza": 7974,
      "Ġluku": 7975,
      "Ġkujaza": 7976,
      "Ġkukabidhi": 7977,
      "Ġmshikamano": 7978,
      "Ġsaratani": 7979,
      "Ġhistory": 7980,
      "ep": 7981,
      "nn": 7982,
      "Ġkupenda": 7983,
      "Ġapewe": 7984,
      "Ġundani": 7985,
      "zikwa": 7986,
      "Ġhamas": 7987,
      "ĠMta": 7988,
      "beid": 7989,
      "Ġob": 7990,
      "Ġwaliom": 7991,
      "Ġkulinganisha": 7992,
      "sherehe": 7993,
      "Ġchief": 7994,
      "Ġmwenyeji": 7995,
      "fikie": 7996,
      "Ġcolo": 7997,
      "Ġlowassa": 7998,
      "boreshwa": 7999,
      "Ġmlinzi": 8000,
      "Ġkuhamia": 8001,
      "Ġukiangalia": 8002,
      "Ġusingizi": 8003,
      "ashiria": 8004,
      "dhoo": 8005,
      "oct": 8006,
      "olojia": 8007,
      "wasa": 8008,
      "kopa": 8009,
      "muda": 8010,
      "chambua": 8011,
      "chadema": 8012,
      "sulu": 8013,
      "Ġinaitwa": 8014,
      "bwawa": 8015,
      "ĠAskofu": 8016,
      "shutumu": 8017,
      "Ġmajini": 8018,
      "gizwa": 8019,
      "Ġhaipo": 8020,
      "Ġdume": 8021,
      "Ġvitatu": 8022,
      "ĠMipango": 8023,
      "Ġuwakilishi": 8024,
      "Ġfore": 8025,
      "amuru": 8026,
      "Ġmillion": 8027,
      "Mwenyezi": 8028,
      "Ġkupelekea": 8029,
      "Ġkufikisha": 8030,
      "kusaidia": 8031,
      "patwa": 8032,
      "paswi": 8033,
      "mbawanga": 8034,
      "bini": 8035,
      "ĠMU": 8036,
      "ngependa": 8037,
      "widhi": 8038,
      "Ġole": 8039,
      "Ġunadhani": 8040,
      "Ġjasho": 8041,
      "ĠUme": 8042,
      "fer": 8043,
      "Ġnimekuwa": 8044,
      "Ġmazishi": 8045,
      "Ġukomo": 8046,
      "Ġkisayansi": 8047,
      "Ġmalawi": 8048,
      "Ġmwl": 8049,
      "halafu": 8050,
      "zwi": 8051,
      "nana": 8052,
      "kii": 8053,
      "pindi": 8054,
      "rian": 8055,
      "ĠKiongozi": 8056,
      "Ġkumpiga": 8057,
      "Ġkujita": 8058,
      "Ġbur": 8059,
      "Ġukabila": 8060,
      "Ġkusikiti": 8061,
      "Ġchungu": 8062,
      "ainishwa": 8063,
      "48": 8064,
      "Ko": 8065,
      "Maka": 8066,
      "Sam": 8067,
      "Ġkg": 8068,
      "Ġwaishi": 8069,
      "mal": 8070,
      "Ġnitoe": 8071,
      "Ġviazi": 8072,
      "Ġwalisha": 8073,
      "Ġgang": 8074,
      "Ġatam": 8075,
      "Ġkufurahi": 8076,
      "Ġusd": 8077,
      "Ġkirahisi": 8078,
      "dc": 8079,
      "gga": 8080,
      "nj": 8081,
      "nsha": 8082,
      "Ġwahalifu": 8083,
      "Ġkutibu": 8084,
      "Ġkueneza": 8085,
      "Ġkinye": 8086,
      "sadi": 8087,
      "Ġsare": 8088,
      "nyerere": 8089,
      "ĠKua": 8090,
      "del": 8091,
      "Ġboss": 8092,
      "Ġtimamu": 8093,
      "ĠVI": 8094,
      "Ġthabiti": 8095,
      "Ġvyovyote": 8096,
      "Ġmachoni": 8097,
      "sterday": 8098,
      "Ġubinafsishaji": 8099,
      "Awali": 8100,
      "mm": 8101,
      "Ġafu": 8102,
      "raa": 8103,
      "Ġkini": 8104,
      "Ġbaa": 8105,
      "Ġkuagiza": 8106,
      "Ġrejea": 8107,
      "Ġmwenzi": 8108,
      "Ġfujo": 8109,
      "thro": 8110,
      "Ġkutuma": 8111,
      "Ġkutupa": 8112,
      "Ġconta": 8113,
      "Ġasemalo": 8114,
      "SURA": 8115,
      "FU": 8116,
      "lka": 8117,
      "orodhe": 8118,
      "ue": 8119,
      "ulu": 8120,
      "Ġwalo": 8121,
      "Ġahmed": 8122,
      "Ġuhifadhi": 8123,
      "kupata": 8124,
      "Ġhar": 8125,
      "Ġcur": 8126,
      "ĠMtume": 8127,
      "Ġtazama": 8128,
      "gawana": 8129,
      "Ġanaona": 8130,
      "Ġanatoa": 8131,
      "miana": 8132,
      "luthi": 8133,
      "mwaga": 8134,
      "taanza": 8135,
      "Ġbustani": 8136,
      "Ġkukagua": 8137,
      "Ġutetezi": 8138,
      "Ġwhy": 8139,
      "Ġ42": 8140,
      "ĠOmar": 8141,
      "Ġtutaendelea": 8142,
      "angamiza": 8143,
      "Ġhauwezi": 8144,
      "ĠCharles": 8145,
      "staarabu": 8146,
      "ttle": 8147,
      "Ġfalsafa": 8148,
      "shindikana": 8149,
      "46": 8150,
      "Ġaweza": 8151,
      "Ġui": 8152,
      "Ġuda": 8153,
      "ndike": 8154,
      "Ġlilia": 8155,
      "Ġjaribio": 8156,
      "Ġpiga": 8157,
      "ifadhi": 8158,
      "onald": 8159,
      "Ġtoleo": 8160,
      "Ġzinaendelea": 8161,
      "Ġwanaofanya": 8162,
      "Ġlilitokea": 8163,
      "badilishwa": 8164,
      "Ġ46": 8165,
      "alipo": 8166,
      "ngenezaji": 8167,
      "Ġmakombora": 8168,
      "faidika": 8169,
      "Ġburudani": 8170,
      "Pro": 8171,
      "cle": 8172,
      "limali": 8173,
      "Ġsm": 8174,
      "Ġkaunti": 8175,
      "tee": 8176,
      "Ġwanazi": 8177,
      "sen": 8178,
      "suka": 8179,
      "vunjwa": 8180,
      "Ġutashi": 8181,
      "Ġlevel": 8182,
      "Ġmakadirio": 8183,
      "fariji": 8184,
      "Ġhy": 8185,
      "Ġaccou": 8186,
      "prof": 8187,
      "ĠMaalum": 8188,
      "Ġgreen": 8189,
      "IA": 8190,
      "cture": 8191,
      "Ġkw": 8192,
      "Ġmcho": 8193,
      "tafsiri": 8194,
      "Ġmai": 8195,
      "Ġmamia": 8196,
      "tekete": 8197,
      "fugo": 8198,
      "komaa": 8199,
      "ndawazi": 8200,
      "Ġanakuja": 8201,
      "viti": 8202,
      "Ġjumba": 8203,
      "ĠTLP": 8204,
      "Ġakaja": 8205,
      "ktadha": 8206,
      "Ġprovi": 8207,
      "Ġfimbo": 8208,
      "ĠGi": 8209,
      "ngezea": 8210,
      "Ġrobert": 8211,
      "rejesho": 8212,
      "Ġupoto": 8213,
      "somesha": 8214,
      "mkia": 8215,
      "nzwa": 8216,
      "wt": 8217,
      "Ġkukiwa": 8218,
      "Ġkuhama": 8219,
      "ngwi": 8220,
      "labda": 8221,
      "kukuru": 8222,
      "sifia": 8223,
      "Ġkiburi": 8224,
      "tekwa": 8225,
      "Ġalifariki": 8226,
      "Ġanaamini": 8227,
      "Ġpar": 8228,
      "ĠWapalestina": 8229,
      "Ġutani": 8230,
      "Ġ39": 8231,
      "rds": 8232,
      "oooo": 8233,
      "Ġnews": 8234,
      "Ġmanabii": 8235,
      "Ġtamisemi": 8236,
      "kretarieti": 8237,
      "Re": 8238,
      "wari": 8239,
      "nam": 8240,
      "lipi": 8241,
      "Ġuendele": 8242,
      "Ġumiliki": 8243,
      "Ġmabaki": 8244,
      "Ġkibinafsi": 8245,
      "pindu": 8246,
      "ndiyo": 8247,
      "ĠSPIKA": 8248,
      "Ġinategemea": 8249,
      "gundu": 8250,
      "Ġedu": 8251,
      "katisha": 8252,
      "ĠMali": 8253,
      "socia": 8254,
      "Ġdai": 8255,
      "Ġtunacho": 8256,
      "fuatiwa": 8257,
      "ĠMusa": 8258,
      "asante": 8259,
      "ĠZe": 8260,
      "Ġkanisani": 8261,
      "ĠMWENYE": 8262,
      "Sheria": 8263,
      "Ġproject": 8264,
      "49": 8265,
      "slaa": 8266,
      "ukwa": 8267,
      "kataba": 8268,
      "hini": 8269,
      "Ġmanyara": 8270,
      "boa": 8271,
      "gabe": 8272,
      "chafua": 8273,
      "Ġwalitaka": 8274,
      "Ġbia": 8275,
      "Ġfarasi": 8276,
      "Maana": 8277,
      "Ġmnataka": 8278,
      "nywaji": 8279,
      "fungulia": 8280,
      "Ġnyenzo": 8281,
      "Ġmakusa": 8282,
      "unaweza": 8283,
      "lling": 8284,
      "onyeshwa": 8285,
      "ĠHussein": 8286,
      "Aliongeza": 8287,
      "BC": 8288,
      "bro": 8289,
      "htasari": 8290,
      "lity": 8291,
      "Ġwaingereza": 8292,
      "Ġunyanya": 8293,
      "Ġmain": 8294,
      "Ġkwaajili": 8295,
      "Ġclo": 8296,
      "Ġkise": 8297,
      "ngezwa": 8298,
      "jun": 8299,
      "gonga": 8300,
      "zushi": 8301,
      "Ġunatakiwa": 8302,
      "Ġimeji": 8303,
      "ntho": 8304,
      "ĠPri": 8305,
      "Ġnyuzi": 8306,
      "Ġlong": 8307,
      "iliyo": 8308,
      "Ġninacho": 8309,
      "Ġmapana": 8310,
      "city": 8311,
      "ĠNeno": 8312,
      "Ġmsumbiji": 8313,
      "akiwa": 8314,
      "kfu": 8315,
      "lya": 8316,
      "Ġnakumbuka": 8317,
      "Ġati": 8318,
      "Ġmawi": 8319,
      "Ġishu": 8320,
      "Ġharufu": 8321,
      "mize": 8322,
      "ĠMha": 8323,
      "Ġlaini": 8324,
      "Ġtumaini": 8325,
      "ngukia": 8326,
      "pendwa": 8327,
      "Ġdsm": 8328,
      "Ġanapata": 8329,
      "âĢĵ": 8330,
      "ĠUhuru": 8331,
      "Ġakajibu": 8332,
      "ĠCongo": 8333,
      "Ġwakifanya": 8334,
      "Ġprofe": 8335,
      "Ġmagaidi": 8336,
      "qui": 8337,
      "Ġkuchelewa": 8338,
      "ĠKorea": 8339,
      "Ġgroup": 8340,
      "bs": 8341,
      "dp": 8342,
      "mri": 8343,
      "ujiza": 8344,
      "Ġuto": 8345,
      "meka": 8346,
      "Ġniweze": 8347,
      "hewa": 8348,
      "Ġhusababisha": 8349,
      "Ġaliu": 8350,
      "tian": 8351,
      "ungani": 8352,
      "Ġkongamano": 8353,
      "Ġmwanawe": 8354,
      "Ġupana": 8355,
      "Ġzinazotolewa": 8356,
      "Ġsimulizi": 8357,
      "ambayo": 8358,
      "Ġwazanzibar": 8359,
      "42": 8360,
      "ppe": 8361,
      "Ġkheri": 8362,
      "Ġnashauri": 8363,
      "Ġuv": 8364,
      "kimbi": 8365,
      "Ġira": 8366,
      "Ġidhini": 8367,
      "Ġkifalme": 8368,
      "tera": 8369,
      "funi": 8370,
      "Ġtafuta": 8371,
      "Ġalini": 8372,
      "Ġaliendelea": 8373,
      "gea": 8374,
      "Ġjaribu": 8375,
      "Ġakai": 8376,
      "Ġyanaendelea": 8377,
      "ĠJames": 8378,
      "Ġkukimbilia": 8379,
      "Ġkufuatana": 8380,
      "sambaza": 8381,
      "pokelewa": 8382,
      "sainiwa": 8383,
      "gree": 8384,
      "Ġmleta": 8385,
      "Ġyatima": 8386,
      "bado": 8387,
      "Ġhaifa": 8388,
      "fasi": 8389,
      "ĠMsa": 8390,
      "Ġvikubwa": 8391,
      "Ġtumea": 8392,
      "Ġkuwalipa": 8393,
      "Ġaliweza": 8394,
      "Ġmezani": 8395,
      "Ġtunam": 8396,
      "Ġtendo": 8397,
      "Ġben": 8398,
      "ĠYor": 8399,
      "Ġhekalu": 8400,
      "Ġdire": 8401,
      "Ġupasuaji": 8402,
      "ĠFran": 8403,
      "feb": 8404,
      "mokrasi": 8405,
      "Ġagainst": 8406,
      "Bara": 8407,
      "Ġ&": 8408,
      "ĠĠ": 8409,
      "Ġfika": 8410,
      "nazo": 8411,
      "halo": 8412,
      "Ġutoto": 8413,
      "Ġmadi": 8414,
      "Ġmaru": 8415,
      "Ġmasu": 8416,
      "Ġmany": 8417,
      "site": 8418,
      "Ġkielelezo": 8419,
      "hofu": 8420,
      "Ġalikwenda": 8421,
      "shtaki": 8422,
      "ndege": 8423,
      "ĠKarume": 8424,
      "Ġpen": 8425,
      "ĠIli": 8426,
      "Ġhaliku": 8427,
      "Ġinclu": 8428,
      "Ġrep": 8429,
      "fuatana": 8430,
      "Ġassocia": 8431,
      "Ġmazito": 8432,
      "Ġisiwe": 8433,
      "kusanyika": 8434,
      "wezekanavyo": 8435,
      "zuiwa": 8436,
      "Ġposts": 8437,
      "Ġmalkia": 8438,
      "Ġhayupo": 8439,
      "Ġuthibitisho": 8440,
      "Ġnavyo": 8441,
      "pige": 8442,
      "Ġjakaya": 8443,
      "Ġtoo": 8444,
      "Ġregi": 8445,
      "ĠHali": 8446,
      "maafisa": 8447,
      "Ġikiwezekana": 8448,
      "ĠSauli": 8449,
      "tokanayo": 8450,
      "Ġkuondokana": 8451,
      "julisha": 8452,
      "Ġujambazi": 8453,
      "Ġraslimali": 8454,
      "spania": 8455,
      "belgiji": 8456,
      "RU": 8457,
      "spo": 8458,
      "Ġmapoke": 8459,
      "kitu": 8460,
      "Ġkisingizio": 8461,
      "pani": 8462,
      "ĠBer": 8463,
      "Ġrama": 8464,
      "Ġshiriki": 8465,
      "Ġkutanga": 8466,
      "Ġdozi": 8467,
      "ĠWilliam": 8468,
      "Ġusahihi": 8469,
      "Ġmashairi": 8470,
      "Ġkimarekani": 8471,
      "Ġget": 8472,
      "Ġgeorge": 8473,
      "Ġstahiki": 8474,
      "Ġwenzako": 8475,
      "Ġmaonyesho": 8476,
      "Ġ90": 8477,
      "luhishi": 8478,
      "SO": 8479,
      "wakabili": 8480,
      "Ġwapumbavu": 8481,
      "hatua": 8482,
      "zil": 8483,
      "Ġiwezekanavyo": 8484,
      "mera": 8485,
      "tory": 8486,
      "fuga": 8487,
      "Ġwanashindwa": 8488,
      "wing": 8489,
      "chard": 8490,
      "Ġty": 8491,
      "unganishwa": 8492,
      "ĠIbrahim": 8493,
      "shukiwa": 8494,
      "Ġreso": 8495,
      "Ġmakaburi": 8496,
      "Kabla": 8497,
      "Ġkilele": 8498,
      "Ġkimkakati": 8499,
      "77": 8500,
      "Mbali": 8501,
      "ent": 8502,
      "ipa": 8503,
      "uko": 8504,
      "Ġupotevu": 8505,
      "Ġmaria": 8506,
      "kuka": 8507,
      "Ġhahaha": 8508,
      "diliana": 8509,
      "Ġwanakuja": 8510,
      "Ġinaonesha": 8511,
      "geuzi": 8512,
      "takabali": 8513,
      "Ġmaajabu": 8514,
      "ĠAbu": 8515,
      "ĠUfundi": 8516,
      "duli": 8517,
      "ĠCon": 8518,
      "Mama": 8519,
      "cally": 8520,
      "baraka": 8521,
      "Ġrudi": 8522,
      "Ġprogram": 8523,
      "Ġkitambo": 8524,
      "Ġkiutendaji": 8525,
      "Ġmakuhani": 8526,
      "ĠViwanda": 8527,
      "Ġcontro": 8528,
      "aug": 8529,
      "Ġnianze": 8530,
      "aaaa": 8531,
      "pitio": 8532,
      "nunulia": 8533,
      "Ġkubadilishana": 8534,
      "ĠDuniani": 8535,
      "ajiriwa": 8536,
      "dh": 8537,
      "mati": 8538,
      "Ġkisima": 8539,
      "Ġsan": 8540,
      "Ġsalim": 8541,
      "lomoni": 8542,
      "ĠWajumbe": 8543,
      "Ġber": 8544,
      "thini": 8545,
      "Ġkutenga": 8546,
      "ĠOF": 8547,
      "nyumba": 8548,
      "ISI": 8549,
      "nyenyeke": 8550,
      "Ġplease": 8551,
      "horofa": 8552,
      "oza": 8553,
      "Ġmdau": 8554,
      "yapata": 8555,
      "sapp": 8556,
      "budi": 8557,
      "Ġhutokea": 8558,
      "jul": 8559,
      "low": 8560,
      "Ġzimea": 8561,
      "Ġinatu": 8562,
      "Ġear": 8563,
      "ĠAfisa": 8564,
      "ĠWayahudi": 8565,
      "lus": 8566,
      "Ġkuitumia": 8567,
      "Ġulicho": 8568,
      "ĠSehemu": 8569,
      "ĠPili": 8570,
      "ishauri": 8571,
      "Ġkitakuwa": 8572,
      "Ġmlipuko": 8573,
      "ambao": 8574,
      "Ġuchawi": 8575,
      "rough": 8576,
      "nunue": 8577,
      "Ġnilivyosema": 8578,
      "Ġmakusanyo": 8579,
      "ah": 8580,
      "endi": 8581,
      "uters": 8582,
      "Ġmp": 8583,
      "Ġkuzo": 8584,
      "Ġkuru": 8585,
      "Ġmaktaba": 8586,
      "pakana": 8587,
      "pira": 8588,
      "Ġkuwahi": 8589,
      "Ġalikataa": 8590,
      "mbiki": 8591,
      "doa": 8592,
      "ĠDR": 8593,
      "Ġbefore": 8594,
      "Ġmpangilio": 8595,
      "this": 8596,
      "âĢĿ.": 8597,
      "Ġ47": 8598,
      "fahamisha": 8599,
      "kataza": 8600,
      "Ġwazawa": 8601,
      "Ġupimaji": 8602,
      "filisti": 8603,
      "Ġoffice": 8604,
      "Mwisho": 8605,
      "Ġmshauri": 8606,
      "Ġnichukue": 8607,
      "shangilia": 8608,
      "dinga": 8609,
      "dad": 8610,
      "Ġland": 8611,
      "shirikiano": 8612,
      "Ġhua": 8613,
      "ngeti": 8614,
      "Ġwaliona": 8615,
      "Ġseif": 8616,
      "Ġtbc": 8617,
      "mbieni": 8618,
      "Ġwaone": 8619,
      "Ġsuper": 8620,
      "ĠHawa": 8621,
      "Ġmsitu": 8622,
      "Ġukienda": 8623,
      "Ġjamiiforums": 8624,
      "tuambia": 8625,
      "Ġkinachoendelea": 8626,
      "changanyi": 8627,
      "2007": 8628,
      "mark": 8629,
      "Ġmashambani": 8630,
      "ĠNCHI": 8631,
      "Ġserekali": 8632,
      "Ġmwendazake": 8633,
      "formation": 8634,
      "kyembe": 8635,
      "Fal": 8636,
      "Mkutano": 8637,
      "xa": 8638,
      "Ġmdo": 8639,
      "Ġkustaafu": 8640,
      "Ġcri": 8641,
      "mission": 8642,
      "ndae": 8643,
      "Ġtum": 8644,
      "Ġanatu": 8645,
      "Ġimeshindwa": 8646,
      "Ġhoma": 8647,
      "ĠCh": 8648,
      "Ġshimo": 8649,
      "Ġwakaguzi": 8650,
      "ĠKuwa": 8651,
      "kumbusho": 8652,
      "Ġkimaendeleo": 8653,
      "ckson": 8654,
      "Ġpumba": 8655,
      "Ġumati": 8656,
      "Ġtakataka": 8657,
      "ĠPaul": 8658,
      "Ġkishindo": 8659,
      "holanzi": 8660,
      "ot": 8661,
      "Ġkk": 8662,
      "Ġmpiga": 8663,
      "lish": 8664,
      "Ġwajerumani": 8665,
      "Ġulianza": 8666,
      "Ġmari": 8667,
      "tur": 8668,
      "Ġkiso": 8669,
      "Ġkikristo": 8670,
      "Ġmidomo": 8671,
      "chael": 8672,
      "Ġinasemekana": 8673,
      "endelezwa": 8674,
      "Ġkufuga": 8675,
      "Ġmajeraha": 8676,
      "fereji": 8677,
      "ĠNCCR": 8678,
      "apr": 8679,
      "Ġhttps": 8680,
      ".)": 8681,
      "66": 8682,
      "CA": 8683,
      "rai": 8684,
      "Ġnn": 8685,
      "Ġhuman": 8686,
      "Ġmisimamo": 8687,
      "Ġchanya": 8688,
      "penzi": 8689,
      "Ġiliendelea": 8690,
      "Ġweb": 8691,
      "Ġthu": 8692,
      "Ġmaalim": 8693,
      "Ġmove": 8694,
      "ĠNjia": 8695,
      "adamu": 8696,
      "Ġkuajiri": 8697,
      "wananchi": 8698,
      "inisha": 8699,
      "Ġwaajiri": 8700,
      "ĠMichezo": 8701,
      "Alipo": 8702,
      "Ġkiumbe": 8703,
      "ĠWilayani": 8704,
      "Ġtukawa": 8705,
      "ambatana": 8706,
      "Ġkitaalamu": 8707,
      "tosheleza": 8708,
      "Jambo": 8709,
      "tifaki": 8710,
      "500": 8711,
      "mwezi": 8712,
      "Ġyapi": 8713,
      "Ġvivutio": 8714,
      "chinja": 8715,
      "beru": 8716,
      "Ġanazo": 8717,
      "Ġamepata": 8718,
      "ĠDA": 8719,
      "Ġpori": 8720,
      "ĠTatu": 8721,
      "Ġyanavyo": 8722,
      "Ġhere": 8723,
      "idadi": 8724,
      "ĠFu": 8725,
      "Ġrights": 8726,
      "yarisha": 8727,
      "Ġkiukweli": 8728,
      "Ġiweje": 8729,
      "Ġuniversity": 8730,
      "Ġarabia": 8731,
      "47": 8732,
      "Suala": 8733,
      "ftari": 8734,
      "hamisha": 8735,
      "Ġago": 8736,
      "picha": 8737,
      "bomoa": 8738,
      "loli": 8739,
      "Ġpake": 8740,
      "Ġjames": 8741,
      "ĠAgano": 8742,
      "patani": 8743,
      "ĠKara": 8744,
      "amka": 8745,
      "Ġbukoba": 8746,
      "Ġasse": 8747,
      "Ġchoo": 8748,
      "Ġconte": 8749,
      "gawanyika": 8750,
      "Ġkukodi": 8751,
      "Ġkubadilika": 8752,
      "Ġdpw": 8753,
      "Ġplan": 8754,
      "Ġphd": 8755,
      "To": 8756,
      "inua": 8757,
      "jomba": 8758,
      "Ġnge": 8759,
      "Ġkuhara": 8760,
      "Ġkukwepa": 8761,
      "mahakama": 8762,
      "Ġushoga": 8763,
      "kuma": 8764,
      "toni": 8765,
      "faru": 8766,
      "ĠMna": 8767,
      "jeni": 8768,
      "Ġseco": 8769,
      "Ġanaishi": 8770,
      "Ġeven": 8771,
      "Ġparti": 8772,
      "mbero": 8773,
      "Ġtec": 8774,
      "Ġtembo": 8775,
      "Ġkumpata": 8776,
      "Ġvitambulisho": 8777,
      "Ġwaamini": 8778,
      "Ġchupa": 8779,
      "ngenezwa": 8780,
      "Ġkufukuzwa": 8781,
      "ANO": 8782,
      "Ġwasiokuwa": 8783,
      "Ġcommuni": 8784,
      "mbwi": 8785,
      "Lengo": 8786,
      "cked": 8787,
      "Hoja": 8788,
      "Ġuvccm": 8789,
      "fti": 8790,
      "hatu": 8791,
      "yako": 8792,
      "Ġkufunguliwa": 8793,
      "Ġuchwa": 8794,
      "miwe": 8795,
      "miongoni": 8796,
      "tego": 8797,
      "Ġzamu": 8798,
      "Ġmitu": 8799,
      "ren": 8800,
      "Ġwaliji": 8801,
      "ĠNg": 8802,
      "Ġkuachi": 8803,
      "Ġkuambiwa": 8804,
      "ĠIna": 8805,
      "Ġhedhi": 8806,
      "Ġmnayo": 8807,
      "Ġwaandamanaji": 8808,
      "Ġyanayoendelea": 8809,
      "Ġpunda": 8810,
      "Ġfollo": 8811,
      "ĠBarabara": 8812,
      "Ġcuba": 8813,
      "Ġeconomic": 8814,
      "ingawa": 8815,
      "wabu": 8816,
      "Ġkuenea": 8817,
      "Ġuislamu": 8818,
      "Ġmabwawa": 8819,
      "lathini": 8820,
      "lestina": 8821,
      "jani": 8822,
      "Ġvipya": 8823,
      "Ġsimi": 8824,
      "Ġpaka": 8825,
      "ist": 8826,
      "dor": 8827,
      "songa": 8828,
      "cher": 8829,
      "ĠKiarabu": 8830,
      "ĠIkulu": 8831,
      "silisha": 8832,
      "chague": 8833,
      "Ġkutathmini": 8834,
      "Ġunaoendelea": 8835,
      "Ġsitaki": 8836,
      "ĠShirikisho": 8837,
      "ĠRobert": 8838,
      "Ġuuzaji": 8839,
      "Ġnjoo": 8840,
      "ciety": 8841,
      "curi": 8842,
      "tambulika": 8843,
      "tors": 8844,
      "bile": 8845,
      "pimwa": 8846,
      "Ġwanaku": 8847,
      "Ġbatili": 8848,
      "Ġunategemea": 8849,
      "ĠMazingira": 8850,
      "Ġwatafiti": 8851,
      "ghafi": 8852,
      "Ġitatoa": 8853,
      "Ġfadhi": 8854,
      "Ġyaliyofanyika": 8855,
      "Ġ41": 8856,
      "Ġnitakuwa": 8857,
      "shughulika": 8858,
      "Ġrc": 8859,
      "ĠRuvuma": 8860,
      "Ġsyria": 8861,
      "letee": 8862,
      "Ġmabenki": 8863,
      "swira": 8864,
      "Da": 8865,
      "Uki": 8866,
      "msaidia": 8867,
      "Ġ..": 8868,
      "waona": 8869,
      "Ġwazao": 8870,
      "Ġkukuta": 8871,
      "Ġkuzunguka": 8872,
      "Ġukristo": 8873,
      "Ġhafi": 8874,
      "Ġkifi": 8875,
      "Ġkibe": 8876,
      "Ġhiti": 8877,
      "gawi": 8878,
      "Ġzimbabwe": 8879,
      "riadha": 8880,
      "Ġyerusalemu": 8881,
      "ĠWala": 8882,
      "Ġndie": 8883,
      "Ġakaanza": 8884,
      "Ġitalia": 8885,
      "Ġshina": 8886,
      "Ġjenerali": 8887,
      "ĠNairobi": 8888,
      "Ġnext": 8889,
      "Ġwalau": 8890,
      "Napenda": 8891,
      "Ġwaziwazi": 8892,
      "KITI": 8893,
      "Ġmateka": 8894,
      "ĠUtamaduni": 8895,
      "pigiwa": 8896,
      "ign": 8897,
      "Ġbodaboda": 8898,
      "ĠAfghanistan": 8899,
      "KATI": 8900,
      "rya": 8901,
      "Ġmc": 8902,
      "Ġmaki": 8903,
      "Ġmapo": 8904,
      "Ġwanapenda": 8905,
      "Ġalikiri": 8906,
      "Ġpaulo": 8907,
      "Ġthese": 8908,
      "Ġkupitishwa": 8909,
      "Ġfai": 8910,
      "Ġtumesha": 8911,
      "Ġvitani": 8912,
      "mnamo": 8913,
      "Ġkiungo": 8914,
      "Ġnyengine": 8915,
      "Ġmatumbo": 8916,
      "Ġkilichokuwa": 8917,
      "Ġujauzito": 8918,
      "Ġaliyokuwa": 8919,
      "Ġkufafanua": 8920,
      "elekeo": 8921,
      "Ġmzito": 8922,
      "rahamu": 8923,
      "nks": 8924,
      "ĠPeter": 8925,
      "hadharisha": 8926,
      "Ġconstitution": 8927,
      "nyenyekevu": 8928,
      "scar": 8929,
      "Ġkushauri": 8930,
      "Ġabdallah": 8931,
      "Ġitu": 8932,
      "ĠMsaidizi": 8933,
      "Ġmiwa": 8934,
      "Ġwanatoa": 8935,
      "eleka": 8936,
      "ĠSI": 8937,
      "ĠSy": 8938,
      "ĠSia": 8939,
      "Ġinapatikana": 8940,
      "Ġomba": 8941,
      "chuma": 8942,
      "lub": 8943,
      "sons": 8944,
      "Ġwakenya": 8945,
      "kutane": 8946,
      "Ġitabidi": 8947,
      "Ġmpakani": 8948,
      "alafu": 8949,
      "Ġnitawa": 8950,
      "Ġalivyokuwa": 8951,
      "ĠNAIBU": 8952,
      "Ġsijawahi": 8953,
      "Ġhamsini": 8954,
      "round": 8955,
      "ĠYakobo": 8956,
      "Ġmganga": 8957,
      "Polisi": 8958,
      "70": 8959,
      "Ġkon": 8960,
      "lindwa": 8961,
      "laza": 8962,
      "mume": 8963,
      "Ġsay": 8964,
      "Ġlango": 8965,
      "fiji": 8966,
      "Ġunafanya": 8967,
      "ĠAnna": 8968,
      "Ġamerica": 8969,
      "Ġndizi": 8970,
      "Ġwamem": 8971,
      "ĠJina": 8972,
      "Ġzinapo": 8973,
      "ĠHaya": 8974,
      "Ġlinapo": 8975,
      "ĠSisi": 8976,
      "Ġmvutano": 8977,
      "ĠPetro": 8978,
      "zuiliwa": 8979,
      "ndikiza": 8980,
      "tafutia": 8981,
      "âĢ¦âĢ¦âĢ¦âĢ¦âĢ¦âĢ¦âĢ¦âĢ¦": 8982,
      "Mkuu": 8983,
      "ambukizwa": 8984,
      "watoto": 8985,
      "Ġwaganga": 8986,
      "Ġapa": 8987,
      "Ġmabaraza": 8988,
      "kiongozi": 8989,
      "tukio": 8990,
      "ĠMbu": 8991,
      "hoja": 8992,
      "Ġutakuta": 8993,
      "Ġwimbi": 8994,
      "Ġkuimba": 8995,
      "Ġghana": 8996,
      "Ġanayeweza": 8997,
      "urces": 8998,
      "rtin": 8999,
      "ĠBora": 9000,
      "ĠIrak": 9001,
      "www": 9002,
      "Ikiwa": 9003,
      "SHI": 9004,
      "of": 9005,
      "rch": 9006,
      "Ġmsuku": 9007,
      "Ġkiele": 9008,
      "Ġvika": 9009,
      "Ġtamaduni": 9010,
      "ĠNgo": 9011,
      "mbuko": 9012,
      "Ġametu": 9013,
      "Ġkuachana": 9014,
      "Ġwigo": 9015,
      "Ġwamewa": 9016,
      "wanafunzi": 9017,
      "Ġkurahisisha": 9018,
      "fanyie": 9019,
      "Ġbeing": 9020,
      "Ġform": 9021,
      "aminika": 9022,
      "Ġexpa": 9023,
      "Ġkuepusha": 9024,
      "Ġtuanze": 9025,
      "Ġbashiru": 9026,
      "RIKALI": 9027,
      "59": 9028,
      "SHA": 9029,
      "tru": 9030,
      "Ġmdu": 9031,
      "Ġmmiliki": 9032,
      "hamiaji": 9033,
      "Ġkupotea": 9034,
      "take": 9035,
      "mamlaka": 9036,
      "Ġcle": 9037,
      "toi": 9038,
      "seke": 9039,
      "Ġinaji": 9040,
      "ĠMasa": 9041,
      "ĠUN": 9042,
      "Ġataku": 9043,
      "ĠEli": 9044,
      "Ġmalisho": 9045,
      "Ġkumudu": 9046,
      "shambuliaji": 9047,
      "trie": 9048,
      "ĠYohana": 9049,
      "akizungumza": 9050,
      "Israeli": 9051,
      "gs": 9052,
      "ongelea": 9053,
      "Ġkue": 9054,
      "Ġkube": 9055,
      "Ġnasikia": 9056,
      "Ġushu": 9057,
      "rate": 9058,
      "Ġcen": 9059,
      "paa": 9060,
      "muua": 9061,
      "ĠMradi": 9062,
      "Ġwanakula": 9063,
      "Ġkuwaua": 9064,
      "Ġwalitoa": 9065,
      "Ġlipumba": 9066,
      "vipi": 9067,
      "ĠNjo": 9068,
      "Ġyesterday": 9069,
      "luki": 9070,
      "Ġamekufa": 9071,
      "Ġpengo": 9072,
      "kamanda": 9073,
      "Ġyanapo": 9074,
      "Maji": 9075,
      "Ġmwengine": 9076,
      "Ġkemikali": 9077,
      "Ġkinana": 9078,
      "Ġkutamka": 9079,
      "Ġmkandarasi": 9080,
      "ibua": 9081,
      "ĠMiko": 9082,
      "Ġ44": 9083,
      "Ġmsafara": 9084,
      "Ġvinaweza": 9085,
      "ndaaji": 9086,
      "Ġputin": 9087,
      "nsela": 9088,
      "Ġjangwani": 9089,
      "ĠKitabu": 9090,
      "Ime": 9091,
      "msa": 9092,
      "lishwa": 9093,
      "Ġwashauri": 9094,
      "tafakari": 9095,
      "maya": 9096,
      "Ġspa": 9097,
      "Ġkikwazo": 9098,
      "Ġautho": 9099,
      "ĠAwamu": 9100,
      "ĠTuna": 9101,
      "ĠUsi": 9102,
      "ĠUwanja": 9103,
      "Ġwamei": 9104,
      "Ġumeanza": 9105,
      "ungane": 9106,
      "Ġhakikisha": 9107,
      "Ġhatuku": 9108,
      "Ġkutazama": 9109,
      "Ġdhabihu": 9110,
      "Ġmsala": 9111,
      "Ġtutawa": 9112,
      "changiaji": 9113,
      "Amesema": 9114,
      "Pili": 9115,
      "Ġkuficha": 9116,
      "mada": 9117,
      "Ġifanye": 9118,
      "pari": 9119,
      "Ġhivo": 9120,
      "burg": 9121,
      "rumi": 9122,
      "Ġzinge": 9123,
      "Ġtwa": 9124,
      "Ġeli": 9125,
      "Ġunai": 9126,
      "ĠUa": 9127,
      "work": 9128,
      "Ġwalioji": 9129,
      "Ġumewa": 9130,
      "Ġhakina": 9131,
      "Ġsubiri": 9132,
      "Ġduh": 9133,
      "punguzia": 9134,
      "anasema": 9135,
      "ĠSayansi": 9136,
      "Ġasinge": 9137,
      "Ġforce": 9138,
      "fikirie": 9139,
      "Hiyo": 9140,
      "Ġwajasiriamali": 9141,
      "Ġvidole": 9142,
      "IFA": 9143,
      "Ro": 9144,
      "SS": 9145,
      "usha": 9146,
      "Ġmpo": 9147,
      "Ġwajue": 9148,
      "yombo": 9149,
      "shana": 9150,
      "muomba": 9151,
      "pingana": 9152,
      "Ġsig": 9153,
      "ĠKWA": 9154,
      "Ġmwarabu": 9155,
      "Ġlia": 9156,
      "Ġanadai": 9157,
      "Ġanaeleza": 9158,
      "Ġmoro": 9159,
      "ĠDani": 9160,
      "ĠNao": 9161,
      "john": 9162,
      "Ġdown": 9163,
      "Ġukiona": 9164,
      "Ġ43": 9165,
      "Ġnyeupe": 9166,
      "ambatisho": 9167,
      "Zaidi": 9168,
      "yaliyo": 9169,
      "Bu": 9170,
      "lson": 9171,
      "olewa": 9172,
      "Ġkuripoti": 9173,
      "Ġufadhili": 9174,
      "Ġtaswira": 9175,
      "Ġkutolea": 9176,
      "liani": 9177,
      "dhami": 9178,
      "mbole": 9179,
      "Ġpass": 9180,
      "vumilia": 9181,
      "ĠUchumi": 9182,
      "ĠHifadhi": 9183,
      "Ġgaza": 9184,
      "Matokeo": 9185,
      "Ġwakiongozwa": 9186,
      "Ġsongea": 9187,
      "ining": 9188,
      "pelekwe": 9189,
      "tokee": 9190,
      "hilip": 9191,
      "Ġ56": 9192,
      "Ġninavyo": 9193,
      "Ġardhini": 9194,
      "taraji": 9195,
      "kwanini": 9196,
      "Ġinterest": 9197,
      "Be": 9198,
      "hamma": 9199,
      "kalia": 9200,
      "Ġkushuhudia": 9201,
      "Ġatoe": 9202,
      "Ġmapitio": 9203,
      "tiona": 9204,
      "lazima": 9205,
      "fali": 9206,
      "Ġsaudi": 9207,
      "Ġvio": 9208,
      "Ġkuwaweka": 9209,
      "fied": 9210,
      "nyaga": 9211,
      "suko": 9212,
      "vuruga": 9213,
      "lugha": 9214,
      "Ġkuadhi": 9215,
      "Ġinsta": 9216,
      "arifu": 9217,
      "Ġkukomesha": 9218,
      "Ġagricul": 9219,
      "Ġkusafisha": 9220,
      "Ġkidiplomasia": 9221,
      "Ġprivate": 9222,
      "ksa": 9223,
      "mkuta": 9224,
      "Ġarudi": 9225,
      "Ġafadhali": 9226,
      "kuji": 9227,
      "Ġitakavyo": 9228,
      "rah": 9229,
      "teseka": 9230,
      "Ġvp": 9231,
      "bikia": 9232,
      "Ġtuseme": 9233,
      "robaini": 9234,
      "Ġwest": 9235,
      "ĠAzimio": 9236,
      "ĠNu": 9237,
      "Ġitafanya": 9238,
      "Ġ49": 9239,
      "Ġnyekundu": 9240,
      "Ġvyoo": 9241,
      "batizwa": 9242,
      "Ġkuchambua": 9243,
      "zuizi": 9244,
      "Ġmabingwa": 9245,
      "Ġkujiandaa": 9246,
      "Ġulaji": 9247,
[...]
