{
  "version": "1.0",
  "truncation": null,
  "padding": null,
  "added_tokens": [
    {
      "id": 0,
      "content": "<s>",
      "single_word": false,
      "lstrip": false,
      "rstrip": false,
      "normalized": false,
      "special": true
    },
    {
      "id": 1,
      "content": "</s>",
      "single_word": false,
      "lstrip": false,
      "rstrip": false,
      "normalized": false,
      "special": true
    },
    {
      "id": 2,
      "content": "<unk>",
      "single_word": false,
      "lstrip": false,
      "rstrip": false,
      "normalized": false,
      "special": true
    },
    {
      "id": 3,
      "content": "<pad>",
      "single_word": false,
      "lstrip": false,
      "rstrip": false,
      "normalized": false,
      "special": true
    },
    {
      "id": 4,
      "content": "<mask>",
      "single_word": false,
      "lstrip": false,
      "rstrip": false,
      "normalized": false,
      "special": true
    },
    {
      "id": 5,
      "content": "<sw>",
      "single_word": false,
      "lstrip": false,
      "rstrip": false,
      "normalized": false,
      "special": true
    },
    {
      "id": 6,
      "content": "<eot>",
      "single_word": false,
      "lstrip": false,
      "rstrip": false,
      "normalized": false,
      "special": true
    }
  ],
  "normalizer": {
    "type": "Sequence",
    "normalizers": [
      {
        "type": "NFD"
      },
      {
        "type": "Lowercase"
      },
      {
        "type": "StripAccents"
      }
    ]
  },
  "pre_tokenizer": {
    "type": "ByteLevel",
    "add_prefix_space": false,
    "trim_offsets": true,
    "use_regex": true
  },
  "post_processor": {
    "type": "ByteLevel",
    "add_prefix_space": true,
    "trim_offsets": false,
    "use_regex": true
  },
  "decoder": {
    "type": "ByteLevel",
    "add_prefix_space": true,
    "trim_offsets": true,
    "use_regex": true
  },
  "model": {
    "type": "Unigram",
    "unk_id": 2,
    "vocab": [
      [
        "<s>",
        0.0
      ],
      [
        "</s>",
        0.0
      ],
      [
        "<unk>",
        0.0
      ],
      [
        "<pad>",
        0.0
      ],
      [
        "<mask>",
        0.0
      ],
      [
        "<sw>",
        0.0
      ],
      [
        "<eot>",
        0.0
      ],
      [
        "Ġ",
        -3.138757141610979
      ],
      [
        "č",
        -3.3531433088357723
      ],
      [
        "Ċ",
        -3.3531433088357723
      ],
      [
        "Ġna",
        -3.386350577191335
      ],
      [
        "Ġya",
        -3.3948406036568386
      ],
      [
        "Ġwa",
        -3.6231500593024073
      ],
      [
        ",",
        -4.162618577014452
      ],
      [
        ".",
        -4.188793339118014
      ],
      [
        "Ġkwa",
        -4.22167624220938
      ],
      [
        "Ġni",
        -4.572311952996861
      ],
      [
        "a",
        -4.6798552723993545
      ],
      [
        "Ġza",
        -4.910646911647053
      ],
      [
        "Ġkatika",
        -5.004669811262138
      ],
      [
        "Ġla",
        -5.168890896522244
      ],
      [
        "Ġkuwa",
        -5.186064627916213
      ],
      [
        "i",
        -5.451934435077934
      ],
      [
        "Ġku",
        -5.506558676971336
      ],
      [
        "Ġkama",
        -5.520343706174497
      ],
      [
        "Ġcha",
        -5.634251133653979
      ],
      [
        "o",
        -5.7339702669407835
      ],
      [
        "s",
        -5.813151432469793
      ],
      [
        "Ġhiyo",
        -5.848489850903567
      ],
      [
        "Ġili",
        -5.908563643638125
      ],
      [
        "u",
        -5.952080629491167
      ],
      [
        "ni",
        -5.9597546033269335
      ],
      [
        "Ġkwenye",
        -5.971059883791185
      ],
      [
        "Ġserikali",
        -5.999201602999079
      ],
      [
        "Ġtu",
        -6.0483607081612885
      ],
      [
        "Ġwatu",
        -6.080364017122944
      ],
      [
        "Ġkwamba",
        -6.0985256559388485
      ],
      [
        "Ġsana",
        -6.098667920453487
      ],
      [
        "Ġyake",
        -6.163659878965735
      ],
      [
        "Ġau",
        -6.164118626346545
      ],
      [
        "Ġnchi",
        -6.169082721645999
      ],
      [
        "na",
        -6.173902294168855
      ],
      [
        "(",
        -6.179633906944272
      ],
      [
        "wa",
        -6.219791957995913
      ],
      [
        "e",
        -6.223992340362747
      ],
      [
        "Ġhii",
        -6.230846856361611
      ],
      [
        "Ġvya",
        -6.25538557680448
      ],
      [
        "Ġmwaka",
        -6.31176949245493
      ],
      [
        "Ġm",
        -6.358619861207298
      ],
      [
        "Ġsasa",
        -6.3628983441377365
      ],
      [
        ")",
        -6.421203300654822
      ],
      [
        "Ġcr",
        -6.455749466814183
      ],
      [
        "Ġlakini",
        -6.474574139979584
      ],
      [
        "Ġwakati",
        -6.483272589954664
      ],
      [
        "Ġhuo",
        -6.497067890739519
      ],
      [
        "Ġwake",
        -6.504629128491931
      ],
      [
        "Ġmkuu",
        -6.523186576036631
      ],
      [
        "Ġhivyo",
        -6.527615037701352
      ],
      [
        "Ġkazi",
        -6.535229423247239
      ],
      [
        "Ġhata",
        -6.541152267118184
      ],
      [
        "Ġtanzania",
        -6.550820134396906
      ],
      [
        "n",
        -6.564918532441434
      ],
      [
        "Ġrais",
        -6.597732606870821
      ],
      [
        "Ġzaidi",
        -6.605923290254845
      ],
      [
        "Ġthe",
        -6.606189238259102
      ],
      [
        "kwa",
        -6.610774395675298
      ],
      [
        "Ġwana",
        -6.63601504861955
      ],
      [
        "m",
        -6.6522684994795345
      ],
      [
        "Ġmoja",
        -6.65846775362731
      ],
      [
        ":",
        -6.664293302620148
      ],
      [
        "Ġpia",
        -6.664785775109756
      ],
      [
        "Ġkutoka",
        -6.664830918606317
      ],
      [
        "Ġina",
        -6.679674096464016
      ],
      [
        "Ġbaada",
        -6.68518770001171
      ],
      [
        "Ġkila",
        -6.688133145878446
      ],
      [
        "Ġki",
        -6.694196396418887
      ],
      [
        "Ġali",
        -6.698453698490676
      ],
      [
        "Ġhilo",
        -6.718044973142426
      ],
      [
        "Ġana",
        -6.743077670188741
      ],
      [
        "Ġkuna",
        -6.7432900775154625
      ],
      [
        "Ġpamoja",
        -6.751306539428288
      ],
      [
        "Ġambayo",
        -6.752410879190466
      ],
      [
        "Ġwananchi",
        -6.756819016920362
      ],
      [
        "Ġalisema",
        -6.778069446416062
      ],
      [
        "Ġsiku",
        -6.788389810886271
      ],
      [
        "Ġnchini",
        -6.804703912234501
      ],
      [
        "Ġmtu",
        -6.811686963061463
      ],
      [
        "Ġhuu",
        -6.811758599271526
      ],
      [
        "Ġspika",
        -6.8636352438656125
      ],
      [
        "Ġmheshimiwa",
        -6.86499237704782
      ],
      [
        "Ġkatiba",
        -6.873529102830432
      ],
      [
        "\"",
        -6.879736816474303
      ],
      [
        "Ġsababu",
        -6.886860077086194
      ],
      [
        "Ġhayo",
        -6.897794123291831
      ],
      [
        "Ġambao",
        -6.916057737771647
      ],
      [
        "Ġma",
        -6.9334613491235455
      ],
      [
        "d",
        -6.936115819840559
      ],
      [
        "Ġjuu",
        -6.942834381038294
      ],
      [
        "Ġchama",
        -6.951656221842963
      ],
      [
        "Ġyao",
        -6.956220918439756
      ],
      [
        "Ġccm",
        -6.95851691496344
      ],
      [
        "-",
        -6.962831866084317
      ],
      [
        "Ġmaana",
        -6.984805877616939
      ],
      [
        "Ġwaziri",
        -6.992583681578015
      ],
      [
        "Ġhadi",
        -7.006203618024648
      ],
      [
        "Ġmambo",
        -7.013819156136567
      ],
      [
        "Ġwao",
        -7.0148177148487125
      ],
      [
        "Ġhao",
        -7.015712908646211
      ],
      [
        "Ġtaifa",
        -7.020265433778087
      ],
      [
        "Ġfedha",
        -7.024325001486337
      ],
      [
        "Ġhapa",
        -7.025806328289761
      ],
      [
        "Ġhali",
        -7.026883950250159
      ],
      [
        "Ġsheria",
        -7.032783947915307
      ],
      [
        "y",
        -7.041720948243292
      ],
      [
        "Ġkubwa",
        -7.045476956626128
      ],
      [
        "Ġhili",
        -7.049977338072507
      ],
      [
        "Ġndio",
        -7.053331896118344
      ],
      [
        "Ġuna",
        -7.056636101958214
      ],
      [
        "Ġwote",
        -7.0604715211930955
      ],
      [
        "Ġsi",
        -7.064066384577229
      ],
      [
        "Ġkufanya",
        -7.072309235136842
      ],
      [
        "Ġhizo",
        -7.072790397835211
      ],
      [
        "Ġndani",
        -7.08068623210508
      ],
      [
        "Ġmiaka",
        -7.089115971809994
      ],
      [
        "Ġof",
        -7.090726246218841
      ],
      [
        "Ġmara",
        -7.106965813345415
      ],
      [
        "Ġhivi",
        -7.121906001504589
      ],
      [
        "Ġmuda",
        -7.139756200289492
      ],
      [
        "Ġkwanza",
        -7.141159581134909
      ],
      [
        "t",
        -7.1464677341801774
      ],
      [
        "Ġbila",
        -7.1718179618872835
      ],
      [
        "Ġame",
        -7.174507191563865
      ],
      [
        "Ġwengi",
        -7.176775131008055
      ],
      [
        "Ġkati",
        -7.180524553063545
      ],
      [
        "Ġkuhusu",
        -7.184070555562279
      ],
      [
        "k",
        -7.186264646198818
      ],
      [
        "Ġhu",
        -7.2113338180268
      ],
      [
        "mheshimiwa",
        -7.234980498752701
      ],
      [
        "Ġhapo",
        -7.239286336451727
      ],
      [
        "Ġkweli",
        -7.241948147352886
      ],
      [
        "Ġkuu",
        -7.242815499465298
      ],
      [
        "Ġbunge",
        -7.242986365390632
      ],
      [
        "Ġwalio",
        -7.246421724097315
      ],
      [
        "Ġime",
        -7.251110001303266
      ],
      [
        "Ġmmoja",
        -7.251678926554932
      ],
      [
        "Ġhaki",
        -7.25760537804465
      ],
      [
        "Ġsaid",
        -7.259033525704474
      ],
      [
        "Ġzao",
        -7.259251122454483
      ],
      [
        "Ġhuyo",
        -7.260526241045424
      ],
      [
        "Ġkutoa",
        -7.261863893492286
      ],
      [
        "Ġhabari",
        -7.264796360539393
      ],
      [
        "b",
        -7.279762168657905
      ],
      [
        "Ġviongozi",
        -7.285533518260902
      ],
      [
        "Ġto",
        -7.288392561067223
      ],
      [
        "Ġand",
        -7.29258211904726
      ],
      [
        "Ġkabisa",
        -7.296272458648975
      ],
      [
        "Ġmbalimbali",
        -7.317111573544603
      ],
      [
        "Ġleo",
        -7.317890527798028
      ],
      [
        "Ġmaji",
        -7.319058254793447
      ],
      [
        "Ġhuko",
        -7.323906709921415
      ],
      [
        "Ġhawa",
        -7.336446471729689
      ],
      [
        "Ġwizara",
        -7.337927545598692
      ],
      [
        "?",
        -7.345431996825376
      ],
      [
        "Ġalikuwa",
        -7.347504216043271
      ],
      [
        "Ġnini",
        -7.358490371842342
      ],
      [
        "ya",
        -7.367382397119183
      ],
      [
        "Ġkutokana",
        -7.368505506738392
      ],
      [
        "Ġwilaya",
        -7.3706575073112095
      ],
      [
        "Ġtena",
        -7.372643359301538
      ],
      [
        "Ġyetu",
        -7.377932288606527
      ],
      [
        "Ġwengine",
        -7.389708222752407
      ],
      [
        "'",
        -7.396912869751706
      ],
      [
        "Ġdar",
        -7.408661810290926
      ],
      [
        "Ġmwa",
        -7.410271642671438
      ],
      [
        "Ġajili",
        -7.410665104793221
      ],
      [
        "Ġchini",
        -7.411642626818123
      ],
      [
        "Ġsehemu",
        -7.412843289813642
      ],
      [
        "c",
        -7.414143666570727
      ],
      [
        "Ġsio",
        -7.414325617051992
      ],
      [
        "Ġmungu",
        -7.414948352309596
      ],
      [
        "Ġnje",
        -7.416859290789903
      ],
      [
        "r",
        -7.417129541761575
      ],
      [
        "Ġhaya",
        -7.419644726659048
      ],
      [
        "Ġtume",
        -7.4217897540419635
      ],
      [
        "Ġvile",
        -7.422881890440358
      ],
      [
        "Ġunk",
        -7.425311515504902
      ],
      [
        "Ġwame",
        -7.425796317910939
      ],
      [
        "Ġmpya",
        -7.430643489252146
      ],
      [
        "Ġmahakama",
        -7.434841085216094
      ],
      [
        "Ġafrika",
        -7.439043209166055
      ],
      [
        "Ġzote",
        -7.440682603678493
      ],
      [
        "Ġuchaguzi",
        -7.443373441683766
      ],
      [
        "Ġnafasi",
        -7.444078452529018
      ],
      [
        "Ġin",
        -7.450355955350611
      ],
      [
        "Ġhakuna",
        -7.468194491216376
      ],
      [
        "Ġmuungano",
        -7.46922616824911
      ],
      [
        "Ġtaarifa",
        -7.47006191602823
      ],
      [
        "Ġzanzibar",
        -7.471056559225291
      ],
      [
        "Ġambaye",
        -7.472718172644205
      ],
      [
        "ku",
        -7.472968464259667
      ],
      [
        "Ġyote",
        -7.476903095377516
      ],
      [
        "Ġbado",
        -7.48013189078222
      ],
      [
        "Ġmaendeleo",
        -7.481984645820914
      ],
      [
        "Ġmpaka",
        -7.483337010310187
      ],
      [
        "Ġhatua",
        -7.484532027150095
      ],
      [
        "Ġkupata",
        -7.486014552331819
      ],
      [
        "ji",
        -7.498301561540419
      ],
      [
        "Ġgani",
        -7.504763103030793
      ],
      [
        "Ġelimu",
        -7.50656595383375
      ],
      [
        "Ġwenye",
        -7.510270022257549
      ],
      [
        "Ġambapo",
        -7.512109677373207
      ],
      [
        "l",
        -7.512915174121316
      ],
      [
        "Ġmimi",
        -7.527634964066547
      ],
      [
        "Ġmaeneo",
        -7.531082063678658
      ],
      [
        "Ġeneo",
        -7.531296449704641
      ],
      [
        "Ġnyingi",
        -7.531628005753612
      ],
      [
        "katika",
        -7.537811246046719
      ],
      [
        "Ġtuna",
        -7.54157171456604
      ],
      [
        "Ġbasi",
        -7.541627165213944
      ],
      [
        "Ġwali",
        -7.553094310215791
      ],
      [
        "Ġaki",
        -7.5617020553702705
      ],
      [
        "Ġhicho",
        -7.565820193669763
      ],
      [
        "Ġhuku",
        -7.569939445083504
      ],
      [
        "Ġmwenyekiti",
        -7.572005228950184
      ],
      [
        "Ġmbili",
        -7.573377458983234
      ],
      [
        "Ġwetu",
        -7.574231510916075
      ],
      [
        "Ġhuduma",
        -7.5776487096530705
      ],
      [
        "Ġmkoa",
        -7.5827902295917955
      ],
      [
        "Ġbaadhi",
        -7.583497931191843
      ],
      [
        "Ġwewe",
        -7.588093196164554
      ],
      [
        "Ġwatoto",
        -7.593753561805251
      ],
      [
        "Ġmarekani",
        -7.600691990116921
      ],
      [
        "Ġnjia",
        -7.608188615550505
      ],
      [
        "Ġaka",
        -7.608764148503253
      ],
      [
        "Ġes",
        -7.612101034537183
      ],
      [
        "Ġume",
        -7.614190205830374
      ],
      [
        "lakini",
        -7.616614972703676
      ],
      [
        "Ġnyingine",
        -7.618526710446313
      ],
      [
        "Ġwatanzania",
        -7.622404099521408
      ],
      [
        "Ġpolisi",
        -7.624536397163824
      ],
      [
        "Ġzake",
        -7.626761459414114
      ],
      [
        "Ġbiashara",
        -7.628321111916183
      ],
      [
        "Ġhasa",
        -7.628892316490001
      ],
      [
        "Ġkitu",
        -7.6305169702837645
      ],
      [
        "Ġndiyo",
        -7.631925305893738
      ],
      [
        "Ġhoja",
        -7.633508439413188
      ],
      [
        "Ġsalaam",
        -7.635579462873425
      ],
      [
        "Ġiliyo",
        -7.639760884322634
      ],
      [
        "je",
        -7.6400571779443
      ],
      [
        ";",
        -7.647375422480453
      ],
      [
        "Ġn",
        -7.652038892979718
      ],
      [
        "Ġkura",
        -7.657843108007658
      ],
      [
        "Ġmaisha",
        -7.66047299545483
      ],
      [
        "Ġhizi",
        -7.664660813169801
      ],
      [
        "Ġkilimo",
        -7.665299867862734
      ],
      [
        "Ġwanao",
        -7.666934495637115
      ],
      [
        "Ġka",
        -7.668089314065687
      ],
      [
        "Ġwale",
        -7.668969786013696
      ],
      [
        "2",
        -7.669201694548665
      ],
      [
        "Ġpale",
        -7.670384242300807
      ],
      [
        "Ġkabla",
        -7.670391211459616
      ],
      [
        "p",
        -7.674855163550628
      ],
      [
        "Ġjambo",
        -7.678009917452526
      ],
      [
        "Ġila",
        -7.679932830049259
      ],
      [
        "Ġlazima",
        -7.681641566193738
      ],
      [
        "5",
        -7.696810626625394
      ],
      [
        "Ġambazo",
        -7.698952470701176
      ],
      [
        "Ġkutumia",
        -7.699393253466887
      ],
      [
        "ki",
        -7.7000256642492015
      ],
      [
        "Ġmkubwa",
        -7.701037861974118
      ],
      [
        "Ġbora",
        -7.70377932485324
      ],
      [
        "Ġbwana",
        -7.704281449701829
      ],
      [
        "Ġjana",
        -7.70521770457842
      ],
      [
        "Ġyeye",
        -7.710659223729985
      ],
      [
        "Ġsuala",
        -7.712025489259615
      ],
      [
        "Ġbw",
        -7.724730984219264
      ],
      [
        "Ġmuhimu",
        -7.727002987602548
      ],
      [
        "Ġkwenda",
        -7.731394014180072
      ],
      [
        "Ġkamati",
        -7.732105731353771
      ],
      [
        "Ġmama",
        -7.737865575685518
      ],
      [
        "Ġyako",
        -7.739326109249687
      ],
      [
        "Ġkwani",
        -7.745091596784894
      ],
      [
        "la",
        -7.745359432281749
      ],
      [
        "Ġzina",
        -7.7483675346465315
      ],
      [
        "Ġjamii",
        -7.7485641814379616
      ],
      [
        "Ġkiasi",
        -7.753812202866872
      ],
      [
        "Ġshule",
        -7.754458388179602
      ],
      [
        "ka",
        -7.75445967358152
      ],
      [
        "Ġkupitia",
        -7.755225897509117
      ],
      [
        "4",
        -7.758886573841277
      ],
      [
        "Ġtatu",
        -7.760382973024626
      ],
      [
        "Ġaliye",
        -7.769503680963805
      ],
      [
        "Ġasilimia",
        -7.776119578766043
      ],
      [
        "Ġyangu",
        -7.779525823929717
      ],
      [
        "3",
        -7.787000157920074
      ],
      [
        "Ġvizuri",
        -7.788276740454766
      ],
      [
        "Ġuwezo",
        -7.790479693769448
      ],
      [
        "we",
        -7.803401524729059
      ],
      [
        "Ġkipindi",
        -7.804926618002998
      ],
      [
        "Ġwala",
        -7.80878129832497
      ],
      [
        "w",
        -7.8088313902054995
      ],
      [
        "Ġsiasa",
        -7.812325456447608
      ],
      [
        "Ġilikuwa",
        -7.813621154706999
      ],
      [
        "Ġmjini",
        -7.814686029227529
      ],
      [
        "Ġnguvu",
        -7.814893041359284
      ],
      [
        "Ġkina",
        -7.818826370654739
      ],
      [
        "Ġdhidi",
        -7.831186702988504
      ],
      [
        "Ġaina",
        -7.832515749208803
      ],
      [
        "Ġvijana",
        -7.83354600019427
      ],
      [
        "Ġupande",
        -7.843279441774237
      ],
      [
        "Ġwako",
        -7.843340340947007
      ],
      [
        "Ġwabunge",
        -7.851336651154844
      ],
      [
        "Ġile",
        -7.853099687256316
      ],
      [
        "h",
        -7.855668878746142
      ],
      [
        "Ġafya",
        -7.856560511143336
      ],
      [
        "f",
        -7.860011267979544
      ],
      [
        "Ġvyama",
        -7.862881601693624
      ],
      [
        "Ġata",
        -7.868601433769838
      ],
      [
        "Ġita",
        -7.869706985777778
      ],
      [
        "Ġvi",
        -7.8706735485549455
      ],
      [
        "Ġyenye",
        -7.877556131778778
      ],
      [
        "Ġtatizo",
        -7.879501048521851
      ],
      [
        "Ġsh",
        -7.885450348144289
      ],
      [
        "Ġmkono",
        -7.887117686950205
      ],
      [
        "Ġnaibu",
        -7.888280844571572
      ],
      [
        "Ġvita",
        -7.894037087811853
      ],
      [
        "j",
        -7.894793316822053
      ],
      [
        "/",
        -7.894834804925306
      ],
      [
        "Ġsisi",
        -7.897988758989161
      ],
      [
        "Ġikiwa",
        -7.903656006858409
      ],
      [
        "Ġwaki",
        -7.906006595472906
      ],
      [
        "ed",
        -7.907489493798154
      ],
      [
        "Ġinayo",
        -7.907814300029992
      ],
      [
        "Ġmengi",
        -7.907978250662373
      ],
      [
        "Ġkusema",
        -7.914114632317851
      ],
      [
        "Ġsawa",
        -7.926939984584331
      ],
      [
        "Ġmbele",
        -7.930241494324273
      ],
      [
        "Ġpili",
        -7.932755271459737
      ],
      [
        "Ġamesema",
        -7.933383362054116
      ],
      [
        "Ġtofauti",
        -7.9419691506562735
      ],
      [
        "Ġmatumizi",
        -7.943418066699321
      ],
      [
        "Ġumma",
        -7.946480626165247
      ],
      [
        "Ġmsingi",
        -7.947929679557664
      ],
      [
        "Ġjina",
        -7.95047384337426
      ],
      [
        "Ġnyumba",
        -7.952473312358414
      ],
      [
        "Ġkui",
        -7.953357246391432
      ],
      [
        "hata",
        -7.954991039023222
      ],
      [
        "Ġumoja",
        -7.956399297679583
      ],
      [
        "Ġofisi",
        -7.957320686167023
      ],
      [
        "Ġnamna",
        -7.9576706161765
      ],
      [
        "Ġmbali",
        -7.958178886855288
      ],
      [
        "Ġhuyu",
        -7.959292057062861
      ],
      [
        "Ġmfano",
        -7.96434183795621
      ],
      [
        "Ġtayari",
        -7.968878026355519
      ],
      [
        "Ġ200",
        -7.969543009836713
      ],
      [
        "Ġmji",
        -7.969896302323885
      ],
      [
        "Ġuli",
        -7.970429303213233
      ],
      [
        "Ġmilioni",
        -7.975075250206569
      ],
      [
        "Ġuta",
        -7.975199267445566
      ],
      [
        "tu",
        -7.976220700002884
      ],
      [
        "Ġje",
        -7.976595450808965
      ],
      [
        "makofi",
        -7.977862329917754
      ],
      [
        "Ġbarabara",
        -7.981625416079268
      ],
      [
        "Ġkuliko",
        -7.9901385642093
      ],
      [
        "Ġis",
        -7.998008657435896
      ],
      [
        "Ġmazingira",
        -7.99846172604698
      ],
      [
        "Ġmwenye",
        -8.000233236465437
      ],
      [
        "Ġshughuli",
        -8.001172029279273
      ],
      [
        "Ġmamlaka",
        -8.004343062228621
      ],
      [
        "Ġmfumo",
        -8.01068707208537
      ],
      [
        "Ġtaasisi",
        -8.011305476841137
      ],
      [
        "Ġchadema",
        -8.012831780851247
      ],
      [
        "Ġwalikuwa",
        -8.013656966372753
      ],
      [
        "Ġmwisho",
        -8.014062665498079
      ],
      [
        "alisema",
        -8.016601776793388
      ],
      [
        "zi",
        -8.01943982473398
      ],
      [
        "Ġlina",
        -8.020512450608605
      ],
      [
        "Ġumeme",
        -8.021433254528937
      ],
      [
        "kama",
        -8.024019612996694
      ],
      [
        "Ġmbunge",
        -8.02471561894085
      ],
      [
        "li",
        -8.029569448687555
      ],
      [
        "Ġkawaida",
        -8.030371494104612
      ],
      [
        "Ġmkataba",
        -8.032280940406807
      ],
      [
        "Ġmwezi",
        -8.032541382839224
      ],
      [
        "Ġmkutano",
        -8.035118649312368
      ],
      [
        "Ġmpango",
        -8.043413389104202
      ],
      [
        "Ġkaribu",
        -8.044306446268074
      ],
      [
        "si",
        -8.044703095781944
      ],
      [
        "Ġuchumi",
        -8.053441457739973
      ],
      [
        "Ġkiongozi",
        -8.05400316709498
      ],
      [
        "6",
        -8.054136015642896
      ],
      [
        "za",
        -8.054933406552792
      ],
      [
        "Ġuhuru",
        -8.065892857477808
      ],
      [
        "Ġjeshi",
        -8.067508803398791
      ],
      [
        "Ġchakula",
        -8.067861985158617
      ],
      [
        "Ġakiwa",
        -8.070938111609191
      ],
      [
        "g",
        -8.073156551288847
      ],
      [
        "Ġk",
        -8.073848847202626
      ],
      [
        "Ġbei",
        -8.077303465029257
      ],
      [
        "Ġkenya",
        -8.079051825118775
      ],
      [
        "Ġshilingi",
        -8.081950352601535
      ],
      [
        "Ġujenzi",
        -8.085452197877434
      ],
      [
        "Ġnzuri",
        -8.085506043215421
      ],
      [
        "Ġmengine",
        -8.09329802547232
      ],
      [
        "Ġwapi",
        -8.096373018987439
      ],
      [
        "toa",
        -8.096376969952155
      ],
      [
        "Ġgid",
        -8.096843008008525
      ],
      [
        "ko",
        -8.100088070360808
      ],
      [
        "Ġzilizo",
        -8.101984447006798
      ],
      [
        "Ġzinazo",
        -8.103616343379754
      ],
      [
        "Ġhuwa",
        -8.104582225701703
      ],
      [
        "Ġkidogo",
        -8.105617056742972
      ],
      [
        "sasa",
        -8.106259406014255
      ],
      [
        "Ġmaoni",
        -8.107726698297451
      ],
      [
        "Ġmwingine",
        -8.111694969135193
      ],
      [
        "Ġwazi",
        -8.11744070883247
      ],
      [
        "Ġambalo",
        -8.118836004464185
      ],
      [
        "Ġkimataifa",
        -8.120201456680027
      ],
      [
        "Ġmataifa",
        -8.120683969389857
      ],
      [
        "Ġdunia",
        -8.120837620027752
      ],
      [
        "ing",
        -8.121755087868284
      ],
      [
        "Ġkusini",
        -8.126801546339832
      ],
      [
        "Ġbinafsi",
        -8.133065954383293
      ],
      [
        "Ġyoyote",
        -8.135675249813467
      ],
      [
        "Ġwanafunzi",
        -8.136305919149773
      ],
      [
        "Ġzime",
        -8.136740169653857
      ],
      [
        "Ġmali",
        -8.141088619505965
      ],
      [
        "Ġtangu",
        -8.141346913436976
      ],
      [
        "Ġkampuni",
        -8.142698506355135
      ],
      [
        "Ġtanganyika",
        -8.143373291979714
      ],
      [
        "Ġmradi",
        -8.14772965374935
      ],
      [
        "Ġuki",
        -8.153413103421864
      ],
      [
        "aidha",
        -8.158329967027205
      ],
      [
        "Ġwenyewe",
        -8.159939304218979
      ],
      [
        "Ġusalama",
        -8.161305047912256
      ],
      [
        "Ġbali",
        -8.161343301731039
      ],
      [
        "z",
        -8.16283591931905
      ],
      [
        "Ġkum",
        -8.163494126597692
      ],
      [
        "Ġduniani",
        -8.166028673182456
      ],
      [
        "Ġpesa",
        -8.166389244793473
      ],
      [
        "Ġsiyo",
        -8.16896434131549
      ],
      [
        "Ġhalmashauri",
        -8.171536482871415
      ],
      [
        "Ġmakubwa",
        -8.172022327617006
      ],
      [
        "Ġmatatizo",
        -8.174972429247934
      ],
      [
        "Ġyaliyo",
        -8.18284502092259
      ],
      [
        "Ġamani",
        -8.184796556718695
      ],
      [
        "Ġwata",
        -8.185500342345854
      ],
      [
        "),",
        -8.18645260433706
      ],
      [
        "Ġlake",
        -8.187719306055763
      ],
      [
        "Ġwanawake",
        -8.192974132163497
      ],
      [
        "Ġuongozi",
        -8.193495705372333
      ],
      [
        "Ġnaomba",
        -8.195097879418105
      ],
      [
        "Ġzetu",
        -8.195681262636986
      ],
      [
        "Ġjinsi",
        -8.19669366289227
      ],
      [
        "Ġkesi",
        -8.196888530703559
      ],
      [
        "Ġsekta",
        -8.19829852779253
      ],
      [
        "Ġndugu",
        -8.199025446024782
      ],
      [
        "Ġmujibu",
        -8.202823375849318
      ],
      [
        "Ġlugha",
        -8.20566757382026
      ],
      [
        "Ġshirika",
        -8.208423669948584
      ],
      [
        "Ġsamia",
        -8.21101031530897
      ],
      [
        "Ġbadala",
        -8.213481574648082
      ],
      [
        "Ġtimu",
        -8.214687432858867
      ],
      [
        "Ġgharama",
        -8.21533081475804
      ],
      [
        "Ġakili",
        -8.217599933279038
      ],
      [
        "1",
        -8.219535514007664
      ],
      [
        ",\"",
        -8.221305640257018
      ],
      [
        "fanya",
        -8.223495385376088
      ],
      [
        "Ġiki",
        -8.2246371302009
      ],
      [
        "7",
        -8.226058790727421
      ],
      [
        "Ġyaani",
        -8.231227431796825
      ],
      [
        "Ġkodi",
        -8.231413047923525
      ],
      [
        "Ġmtoto",
        -8.232007527148335
      ],
      [
        "Ġukweli",
        -8.232444094094534
      ],
      [
        "Ġlime",
        -8.232605732179417
      ],
      [
        "Ġnyerere",
        -8.2346793268803
      ],
      [
        "Ġutaratibu",
        -8.239686462867619
      ],
      [
        "Ġmashariki",
        -8.239931353657699
      ],
      [
        "Ġkisiasa",
        -8.23994399879644
      ],
      [
        "Ġardhi",
        -8.24030436614769
      ],
      [
        "Ġvyombo",
        -8.242993622282851
      ],
      [
        "Ġulio",
        -8.243370972304048
      ],
      [
        "Ġmbaya",
        -8.244474823955812
      ],
      [
        "Ġsaa",
        -8.245538641750187
      ],
      [
        "Ġkuhakikisha",
        -8.250251845480687
      ],
      [
        "aji",
        -8.25294943682159
      ],
      [
        "Ġkuona",
        -8.25367837234675
      ],
      [
        "Ġwangu",
        -8.26350060117476
      ],
      [
        "weza",
        -8.267209466258848
      ],
      [
        "Ġat",
        -8.27292096469902
      ],
      [
        "Ġkujenga",
        -8.27488754141031
      ],
      [
        "Ġwaka",
        -8.277210496469117
      ],
      [
        "Ġjamhuri",
        -8.277763467746713
      ],
      [
        "Ġkuongeza",
        -8.279448564831725
      ],
      [
        "Ġupinzani",
        -8.280330760982098
      ],
      [
        "Ġutawala",
        -8.28042364724335
      ],
      [
        "Ġbaraza",
        -8.288515498110213
      ],
      [
        "Ġndege",
        -8.290548441090968
      ],
      [
        "Ġkatibu",
        -8.290607039940454
      ],
      [
        "Ġwiki",
        -8.293070859148823
      ],
      [
        "Ġchuo",
        -8.29638782240106
      ],
      [
        "Ġmzee",
        -8.299696939760826
      ],
      [
        "Ġfor",
        -8.306721979485136
      ],
      [
        "Ġjimbo",
        -8.311312266428065
      ],
      [
        "Ġkuendelea",
        -8.312798486949948
      ],
      [
        "Ġmhe",
        -8.313727828889402
      ],
      [
        "Ġhai",
        -8.320003927576705
      ],
      [
        "Ġdawa",
        -8.320913012760295
      ],
      [
        "Ġkuanzia",
        -8.320930978898486
      ],
      [
        "Ġmaneno",
        -8.323946924493846
      ],
      [
        "Ġmabadiliko",
        -8.32440443080683
      ],
      [
        "Ġli",
        -8.325227970229577
      ],
      [
        "Ġmikoa",
        -8.326330340010875
      ],
      [
        "Ġlengo",
        -8.32633454218994
      ],
      [
        "Ġanasema",
        -8.33520818056491
      ],
      [
        "000",
        -8.336927848280022
      ],
      [
        "Ġbaba",
        -8.338150140385116
      ],
      [
        "Ġidadi",
        -8.342378490403659
      ],
      [
        "Ġtarehe",
        -8.345836087451636
      ],
      [
        "Ġnaye",
        -8.349486301859265
      ],
      [
        "Ġha",
        -8.352734086112704
      ],
      [
        "Ġsita",
        -8.357829894897476
      ],
      [
        "Ġanaye",
        -8.358702795829258
      ],
      [
        "Ġfulani",
        -8.360835514418609
      ],
      [
        "ly",
        -8.368851379735299
      ],
      [
        "pia",
        -8.372309760392206
      ],
      [
        "Ġmiradi",
        -8.373965683442984
      ],
      [
        "Ġkuanza",
        -8.375137025803944
      ],
      [
        "Ġmwenyewe",
        -8.375816588009013
      ],
      [
        "Ġhiki",
        -8.376191610590974
      ],
      [
        "9",
        -8.379604324628627
      ],
      [
        "Ġmaalum",
        -8.380031413599667
      ],
      [
        "Ġndo",
        -8.380033405747369
      ],
      [
        "Ġdini",
        -8.380245564788176
      ],
      [
        "Ġkuweka",
        -8.38040280173903
      ],
      [
        "Ġjumla",
        -8.386882151234998
      ],
      [
        "Ġmi",
        -8.39001073654306
      ],
      [
        "po",
        -8.391095186532095
      ],
      [
        "Ġzili",
        -8.391703310543656
      ],
      [
        "!",
        -8.392693098096645
      ],
      [
        "Ġkadhaa",
        -8.393795164680128
      ],
      [
        "Ġhistoria",
        -8.395904286742903
      ],
      [
        "Ġkiwango",
        -8.398319161035875
      ],
      [
        "Ġdola",
        -8.399963441634272
      ],
      [
        "Ġmafunzo",
        -8.4001493550921
      ],
      [
        "Ġmasuala",
        -8.400709433289807
      ],
      [
        "Ġkuto",
        -8.402011475293792
      ],
      [
        "Ġmazao",
        -8.402289656077137
      ],
      [
        "Ġkundi",
        -8.403151391998346
      ],
      [
        "8",
        -8.408538342962006
      ],
      [
        "anza",
        -8.408982784095139
      ],
      [
        "Ġwakulima",
        -8.409996781674819
      ],
      [
        "Ġbandari",
        -8.411607518936584
      ],
      [
        "Ġule",
        -8.413708162123363
      ],
      [
        "Ġwafanyakazi",
        -8.413856390060653
      ],
      [
        "Ġutekelezaji",
        -8.423468218842487
      ],
      [
        "Ġal",
        -8.42591030690433
      ],
      [
        "Ġmrefu",
        -8.425949894897208
      ],
      [
        "Ġchake",
        -8.426927549539014
      ],
      [
        "Ġmwalimu",
        -8.426998418473538
      ],
      [
        "hii",
        -8.42817835435027
      ],
      [
        "Ġmafuta",
        -8.428628234243249
      ],
      [
        "Ġlili",
        -8.42917548123791
      ],
      [
        "tumia",
        -8.429840968886518
      ],
      [
        "Ġkituo",
        -8.43175470553502
      ],
      [
        "le",
        -8.432599773875536
      ],
      [
        "Ġwajumbe",
        -8.437167013457328
      ],
      [
        "Ġas",
        -8.437791761690422
      ],
      [
        "Ġkwake",
        -8.438428924310571
      ],
      [
        "wakati",
        -8.442327965753366
      ],
      [
        "sema",
        -8.447433022642615
      ],
      [
        "Ġsera",
        -8.452150809261344
      ],
      [
        "Ġbe",
        -8.453179972386897
      ],
      [
        "Ġraia",
        -8.456061718174407
      ],
      [
        "Ġyanayo",
        -8.456685587642966
      ],
      [
        "weka",
        -8.456755782676046
      ],
      [
        "Ġmapinduzi",
        -8.457763794593982
      ],
      [
        "Ġhaja",
        -8.459044068027323
      ],
      [
        "Ġalipo",
        -8.459659722242316
      ],
      [
        "Ġmatokeo",
        -8.461699083274949
      ],
      [
        "Ġkule",
        -8.462377853769551
      ],
      [
        "Ġwatumishi",
        -8.465923003121514
      ],
      [
        "taka",
        -8.473277124064115
      ],
      [
        "Ġmahali",
        -8.476480590328162
      ],
      [
        "Ġbinadamu",
        -8.478736869176206
      ],
      [
        "Ġunao",
        -8.47893057082317
      ],
      [
        "vi",
        -8.479769955255982
      ],
      [
        "Ġbungeni",
        -8.482045646827304
      ],
      [
        "Ġama",
        -8.48283204015829
      ],
      [
        "Ġbajeti",
        -8.484361548320408
      ],
      [
        "Ġfamilia",
        -8.484507529201395
      ],
      [
        "Ġmagufuli",
        -8.484944316232127
      ],
      [
        "Ġdodoma",
        -8.484944400564844
      ],
      [
        ").",
        -8.486186156619691
      ],
      [
        "Ġkuku",
        -8.487779277957108
      ],
      [
        "Ġbilioni",
        -8.489619168875366
      ],
      [
        "Ġyule",
        -8.492790540803952
      ],
      [
        "Ġdr",
        -8.493619467691156
      ],
      [
        "Ġkata",
        -8.495111683454933
      ],
      [
        "Ġambacho",
        -8.50484800589916
      ],
      [
        "Ġkanuni",
        -8.509817790780463
      ],
      [
        "Ġnyuma",
        -8.512261042367314
      ],
      [
        "Ġbara",
        -8.512869199657654
      ],
      [
        "sha",
        -8.516360698109258
      ],
      [
        "Ġnime",
        -8.517536949637593
      ],
      [
        "Ġhospitali",
        -8.519478047616774
      ],
      [
        "Ġawali",
        -8.51979046078177
      ],
      [
        "Ġpekee",
        -8.520335646864604
      ],
      [
        "Ġrushwa",
        -8.522281622715775
      ],
      [
        "Ġkujua",
        -8.522704262975342
      ],
      [
        "ti",
        -8.52372657425476
      ],
      [
        "Ġunaweza",
        -8.524169285273114
      ],
      [
        "Ġkufikia",
        -8.525262304610242
      ],
      [
        "lo",
        -8.526513661438814
      ],
      [
        "rais",
        -8.532301005911778
      ],
      [
        "Ġnyumbani",
        -8.538303063562369
      ],
      [
        "ke",
        -8.544487844423212
      ],
      [
        "ri",
        -8.545816137745115
      ],
      [
        "Ġthat",
        -8.546744990123367
      ],
      [
        "Ġndogo",
        -8.54903786614545
      ],
      [
        "Ġyale",
        -8.5535338188538
      ],
      [
        "Ġkanisa",
        -8.554158886677074
      ],
      [
        "Ġkile",
        -8.555189536477744
      ],
      [
        "Ġkumi",
        -8.556596870594618
      ],
      [
        "Ġsimu",
        -8.557433761321658
      ],
      [
        "Ġharaka",
        -8.55795683195591
      ],
      [
        "kuna",
        -8.560174142961595
      ],
      [
        "Ġmaelezo",
        -8.560405652290529
      ],
      [
        "Ġ1",
        -8.566557607795353
      ],
      [
        "Ġwanachama",
        -8.569264796777349
      ],
      [
        "Ġbidhaa",
        -8.569624204587527
      ],
      [
        "Ġhawana",
        -8.569629758108992
      ],
      [
        "Ġsahihi",
        -8.572208177001079
      ],
      [
        "Ġbenki",
        -8.572520036648212
      ],
      [
        "Ġitakuwa",
        -8.574909355832881
      ],
      [
        "Ġilivyo",
        -8.575603739594936
      ],
      [
        "Ġrasmi",
        -8.578905974591672
      ],
      [
        "pewa",
        -8.581186485446311
      ],
      [
        "Ġvitu",
        -8.581311491458813
      ],
      [
        "Ġwalimu",
        -8.581878496601506
      ],
      [
        "Ġajira",
        -8.583771342022555
      ],
      [
        "chukua",
        -8.586237271509853
      ],
      [
        "Ġwawili",
        -8.586607153718674
      ],
      [
        "Ġkauli",
        -8.58748513223207
      ],
      [
        "Ġnne",
        -8.587741611433595
      ],
      [
        "Ġzamani",
        -8.591299389736804
      ],
      [
        "Ġmsaada",
        -8.601840509598688
      ],
      [
        "Ġika",
        -8.602128230494447
      ],
      [
        "Ġgari",
        -8.602973182618522
      ],
      [
        "Ġfursa",
        -8.604042950616336
      ],
      [
        "jijini",
        -8.606477866675027
      ],
      [
        "Ġtukio",
        -8.606733391220335
      ],
      [
        "Ġsoko",
        -8.607370457820867
      ],
      [
        "Ġkuingia",
        -8.609746015905307
      ],
      [
        "Ġnani",
        -8.610953050069888
      ],
      [
        "Ġmna",
        -8.611050213682075
      ],
      [
        "Ġkisha",
        -8.611728460258073
      ],
      [
        "Ġswali",
        -8.615981813397479
      ],
      [
        "Ġmapato",
        -8.616692572940993
      ],
      [
        "Ġbaadaye",
        -8.616993729012359
      ],
      [
        "0",
        -8.618620124378156
      ],
      [
        "Ġzi",
        -8.620844063713562
      ],
      [
        "Ġtano",
        -8.623565669894397
      ],
      [
        "Ġhuru",
        -8.625326675866935
      ],
      [
        "Ġtoka",
        -8.627201307708347
      ],
      [
        "Ġon",
        -8.630259617411669
      ],
      [
        "Ġimani",
        -8.633960875409478
      ],
      [
        "Ġulaya",
        -8.634279982211138
      ],
      [
        "Ġwakiwa",
        -8.634501249879866
      ],
      [
        "Ġmipango",
        -8.641336953196177
      ],
      [
        "Ġhalafu",
        -8.642308691468784
      ],
      [
        "Ġkutosha",
        -8.64341108249085
      ],
      [
        "Ġnamba",
        -8.64476397460595
      ],
      [
        "Ġkuchukua",
        -8.65277592039989
      ],
      [
        "Ġulinzi",
        -8.652935296858287
      ],
      [
        "baada",
        -8.65534611533243
      ],
      [
        "Ġuka",
        -8.658343478232355
      ],
      [
        "Ġpicha",
        -8.660837664904719
      ],
      [
        "ga",
        -8.667869317415198
      ],
      [
        "Ġwakuu",
        -8.669317617055734
      ],
      [
        "Ġfaida",
        -8.670084133307096
      ],
      [
        "yo",
        -8.672191855810112
      ],
      [
        "Ġjaji",
        -8.672719364643742
      ],
      [
        "Ġchangamoto",
        -8.673641192152461
      ],
      [
        "Ġkiuchumi",
        -8.673779310578785
      ],
      [
        "Ġmaslahi",
        -8.67425645090518
      ],
      [
        "Ġmkoani",
        -8.675089768307362
      ],
      [
        "Ġpa",
        -8.675608294702494
      ],
      [
        "Ġuamuzi",
        -8.676186598628163
      ],
      [
        "Ġkaribuni",
        -8.678850928352615
      ],
      [
        "Ġmdogo",
        -8.678983885541925
      ],
      [
        "Ġambavyo",
        -8.684042983721415
      ],
      [
        "Ġiwe",
        -8.684864474854608
      ],
      [
        "Ġjamaa",
        -8.68576675310857
      ],
      [
        "Ġhotuba",
        -8.687346534978625
      ],
      [
        "Ġkinacho",
        -8.687816863772564
      ],
      [
        "Ġwapo",
        -8.68892673521402
      ],
      [
        "Ġkuleta",
        -8.6891914757237
      ],
      [
        "endelea",
        -8.689294213615877
      ],
      [
        "Ġaskari",
        -8.694104050327967
      ],
      [
        "jaribu",
        -8.69519831421131
      ],
      [
        "Ġnayo",
        -8.69933372093156
      ],
      [
        "Ġhatari",
        -8.699381190289232
      ],
      [
        "takiwa",
        -8.699704969911659
      ],
      [
        "Ġmiongoni",
        -8.700367758257354
      ],
      [
        "Ġkuli",
        -8.701394188531314
      ],
      [
        "Ġmadini",
        -8.702115666157699
      ],
      [
        "Ġutafiti",
        -8.7023617146233
      ],
      [
        "Ġyeyote",
        -8.703476111033646
      ],
      [
        "Ġkupunguza",
        -8.704095834501622
      ],
      [
        "Ġtuta",
        -8.704530718091178
      ],
      [
        "Ġsifa",
        -8.704652348019811
      ],
      [
        "ingia",
        -8.704939537663101
      ],
      [
        "Ġviwanda",
        -8.705891914285104
      ],
      [
        "Ġzile",
        -8.71023114763495
      ],
      [
        "Ġusiku",
        -8.71040964263127
      ],
      [
        "Ġushauri",
        -8.712358226972118
      ],
      [
        "Ġarusha",
        -8.713296487317761
      ],
      [
        "Ġvifaa",
        -8.71788674243741
      ],
      [
        "to",
        -8.718235661994475
      ],
      [
        "Ġumri",
        -8.719059776415351
      ],
      [
        "Ġhusika",
        -8.719112420438194
      ],
      [
        "Ġsaba",
        -8.721678280841953
      ],
      [
        "Ġmagari",
        -8.725065445532515
      ],
      [
        "kuwa",
        -8.725333304765346
      ],
      [
        "Ġawamu",
        -8.727154441219753
      ],
      [
        "Ġkutaka",
        -8.73228200143165
      ],
      [
        "Ġby",
        -8.732551594607028
      ],
      [
        "Ġkutekeleza",
        -8.733850372217228
      ],
      [
        "Ġvijijini",
        -8.734708863376081
      ],
      [
        "Ġkuzi",
        -8.736056339787638
      ],
      [
        "Ġiliyopita",
        -8.736319103026213
      ],
      [
        "Ġmadaraka",
        -8.738778813019017
      ],
      [
        "Ġwaandishi",
        -8.74175469400922
      ],
      [
        "mu",
        -8.746363261906456
      ],
      [
        "Ġhaku",
        -8.746776891742632
      ],
      [
        "tokea",
        -8.747959849600015
      ],
      [
        "Ġmoto",
        -8.749572033468784
      ],
      [
        "Ġmiezi",
        -8.749903276583352
      ],
      [
        "Ġsilaha",
        -8.75044375872319
      ],
      [
        "Ġripoti",
        -8.750603350614151
      ],
      [
        "Ġanaweza",
        -8.750922940570414
      ],
      [
        "Ġmzuri",
        -8.751191444426
      ],
      [
        "Ġsafari",
        -8.751468826956252
      ],
      [
        "Ġkitaifa",
        -8.754583997345794
      ],
      [
        "serikali",
        -8.757178978172087
      ],
      [
        "Ġugonjwa",
        -8.758285643230492
      ],
      [
        "Ġkupiga",
        -8.759240095518548
      ],
      [
        "Ġkikubwa",
        -8.761609791425505
      ],
      [
        "Ġmchakato",
        -8.764812426396345
      ],
      [
        "Ġkikwete",
        -8.765596669439093
      ],
      [
        "Ġnina",
        -8.76873334766964
      ],
      [
        "Ġmadai",
        -8.770540781756969
      ],
      [
        "Ġndiye",
        -8.770653590536915
      ],
      [
        "Ġvituo",
        -8.771500955086903
      ],
      [
        "Ġwadau",
        -8.772674815055469
      ],
      [
        "Ġipo",
        -8.773449306506743
      ],
      [
        "ombe",
        -8.774622362074446
      ],
      [
        "Ġyame",
        -8.776121526193927
      ],
      [
        "Ġkuji",
        -8.776792780735603
      ],
      [
        "Ġlinalo",
        -8.777041003827932
      ],
      [
        "Ġngazi",
        -8.777634818487956
      ],
      [
        "Ġkijiji",
        -8.777741174913274
      ],
      [
        "Ġkilicho",
        -8.778339422140485
      ],
      [
        "Ġinaweza",
        -8.782136073819604
      ],
      [
        "Ġsimba",
        -8.782286667497406
      ],
      [
        "200",
        -8.783292462168063
      ],
      [
        "Ġhana",
        -8.784408865131262
      ],
      [
        "v",
        -8.78445380059446
      ],
      [
        "ali",
        -8.784772487732663
      ],
      [
        "hivyo",
        -8.787409535216192
      ],
      [
        "Ġmahakamani",
        -8.787612137905322
      ],
      [
        "Ġndipo",
        -8.790003378571802
      ],
      [
        "Ġwe",
        -8.791054191726458
      ],
      [
        "Ġit",
        -8.791604134107262
      ],
      [
        "Ġtaratibu",
        -8.794474416611857
      ],
      [
        "Ġkikuu",
        -8.796996929376926
      ],
      [
        "Ġng",
        -8.797962602964057
      ],
      [
        "Ġnzima",
        -8.797971825859012
      ],
      [
        "Ġmichezo",
        -8.798354644836216
      ],
      [
        "Ġuzalishaji",
        -8.800030735960545
      ],
      [
        "Ġkuboresha",
        -8.80021121945227
      ],
      [
        "pata",
        -8.80031019695865
      ],
      [
        "Ġmawazo",
        -8.80370876445719
      ],
      [
        "Ġkikao",
        -8.80452032002359
      ],
      [
        "Ġuganda",
        -8.806240994188293
      ],
      [
        "Ġkaskazini",
        -8.807214743296099
      ],
      [
        "Ġkime",
        -8.810203240009356
      ],
      [
        "Ġjuhudi",
        -8.813106272413963
      ],
      [
        "Ġkuwepo",
        -8.816303400845083
      ],
      [
        "Ġthamani",
        -8.81832388255296
      ],
      [
        "Ġjuzi",
        -8.818474134649925
      ],
      [
        "Ġmu",
        -8.82009531770435
      ],
      [
        "leta",
        -8.821137564860013
      ],
      [
        "Ġuingereza",
        -8.821360353503925
      ],
      [
        "Ġushirikiano",
        -8.824627251050982
      ],
      [
        "Ġuwanja",
        -8.824754806406286
      ],
      [
        "cha",
        -8.825191843112611
      ],
      [
        "Ġw",
        -8.825447950571045
      ],
      [
        "mimi",
        -8.825572247182738
      ],
      [
        "Ġshida",
        -8.827810838392121
      ],
      [
        "Ġaliyekuwa",
        -8.83101610446077
      ],
      [
        "Ġlililo",
        -8.832136638790528
      ],
      [
        "Ġdk",
        -8.83326225954197
      ],
      [
        "Ġkutafuta",
        -8.835054500600108
      ],
      [
        "Ġlita",
        -8.836300585411289
      ],
      [
        "eleza",
        -8.837845016453592
      ],
      [
        "Ġumuhimu",
        -8.84213669958307
      ],
      [
        "Ġmbona",
        -8.846447561762783
      ],
      [
        "Ġujerumani",
        -8.846744090883286
      ],
      [
        "Ġasili",
        -8.847425262091736
      ],
      [
        "Ġvina",
        -8.8483667913249
      ],
      [
        "Ġmwana",
        -8.851869155085307
      ],
      [
        "Ġmawasiliano",
        -8.851943106761073
      ],
      [
        "Ġkanda",
        -8.85275095035717
      ],
      [
        "Ġmadarakani",
        -8.853008020442578
      ],
      [
        "Ġmbegu",
        -8.853583522258294
      ],
      [
        "ha",
        -8.85609897804072
      ],
      [
        "Ġulikuwa",
        -8.858089123410155
      ],
      [
        "Ġmaamuzi",
        -8.858477054502275
      ],
      [
        "Ġneno",
        -8.858782094714844
      ],
      [
        "Ġmoyo",
        -8.86112565007024
      ],
      [
        "Ġhumo",
        -8.866796029439659
      ],
      [
        "Ġyesu",
        -8.86733269617605
      ],
      [
        "Ġmapema",
        -8.868517367485332
      ],
      [
        "Ġzenye",
        -8.871279102182827
      ],
      [
        "Ġlabda",
        -8.87146570234389
      ],
      [
        "Ġkuya",
        -8.872665238399295
      ],
      [
        "watu",
        -8.87399076388
      ],
      [
        "ye",
        -8.874341609815767
      ],
      [
        "Ġkitabu",
        -8.876228693038176
      ],
      [
        "Ġhaina",
        -8.876757181804944
      ],
      [
        "Ġchochote",
        -8.878561056704218
      ],
      [
        "Ġuchunguzi",
        -8.878586181950318
      ],
      [
        "Ġmagharibi",
        -8.879115730259274
      ],
      [
        "Ġsijui",
        -8.880304741877246
      ],
      [
        "Ġiko",
        -8.883438233027006
      ],
      [
        "Ġtabia",
        -8.883626805306074
      ],
      [
        "Ġmakundi",
        -8.885201766559376
      ],
      [
        "Ġkisheria",
        -8.886666122537772
      ],
      [
        "Ġmashirika",
        -8.887390775482213
      ],
      [
        "Ġsauti",
        -8.88750121930172
      ],
      [
        "Ġmawaziri",
        -8.889341663461403
      ],
      [
        "Ġimekuwa",
        -8.89008940349258
      ],
      [
        "Ġmikopo",
        -8.890372792349229
      ],
      [
        "Ġfrom",
        -8.890978397300918
      ],
      [
        "zo",
        -8.891155265548521
      ],
      [
        "Ġkuimarisha",
        -8.89220315230235
      ],
      [
        "onekana",
        -8.892771196016653
      ],
      [
        "Ġbi",
        -8.892956754913467
      ],
      [
        "Ġmwanza",
        -8.894681388004994
      ],
      [
        "Ġam",
        -8.895753938413499
      ],
      [
        "Ġidara",
        -8.897130091811665
      ],
      [
        "Ġkuweza",
        -8.89794762711349
      ],
      [
        "tokana",
        -8.900482852909542
      ],
      [
        "Ġletu",
        -8.900669182936893
      ],
      [
        "Ġmkurugenzi",
        -8.905440620926441
      ],
      [
        "Ġwamekuwa",
        -8.908449312064903
      ],
      [
        "Ġwaliokuwa",
        -8.908520937733075
      ],
      [
        "Ġmazuri",
        -8.908923233365062
      ],
      [
        "Ġbarua",
        -8.90973027736218
      ],
      [
        "waziri",
        -8.91058969720792
      ],
      [
        "Ġmajukumu",
        -8.910787888691798
      ],
      [
        "Ġmafanikio",
        -8.910910687569338
      ],
      [
        "attachment",
        -8.911561401720546
      ],
      [
        "Ġmajibu",
        -8.912613600171698
      ],
      [
        "Ġjumuiya",
        -8.912796528206085
      ],
      [
        "ili",
        -8.914156864169508
      ],
      [
        "Ġmwanamke",
        -8.914998528539806
      ],
      [
        "er",
        -8.915043412742147
      ],
      [
        "Ġwowote",
        -8.915062828356502
      ],
      [
        "Ġ199",
        -8.91511726129859
      ],
      [
        "Ġhati",
        -8.9209721568153
      ],
      [
        "the",
        -8.92115855152898
      ],
      [
        "Ġmwanzo",
        -8.921751880396927
      ],
      [
        "Ġmbeya",
        -8.930864097127628
      ],
      [
        "Ġyou",
        -8.932671202572212
      ],
      [
        "Ġkifo",
        -8.933185746431631
      ],
      [
        "Ġjohn",
        -8.933603428894491
      ],
      [
        "Ġmbinu",
        -8.93407357565438
      ],
      [
        "Ġl",
        -8.934605105835148
      ],
      [
        "Ġingawa",
        -8.935102392581408
      ],
      [
        "Ġkusimamia",
        -8.935720878655301
      ],
      [
        "Ġmifugo",
        -8.936785920816277
      ],
      [
        "Ġmahitaji",
        -8.939094816773586
      ],
      [
        "Ġkuzuia",
        -8.940571835755968
      ],
      [
        "Ġmada",
        -8.941657614673066
      ],
      [
        "omba",
        -8.941907721175458
      ],
      [
        "Ġmazungumzo",
        -8.942181282113483
      ],
      [
        "Ġasubuhi",
        -8.942309848236315
      ],
      [
        "Ġkiswahili",
        -8.942349477171735
      ],
      [
        "Ġmitaa",
        -8.94691406207728
      ],
      [
        "hu",
        -8.94808570682139
      ],
      [
        "Ġmorogoro",
        -8.949607699468386
      ],
      [
        "Ġvipi",
        -8.950755245827015
      ],
      [
        "Ġuhakika",
        -8.95391887517922
      ],
      [
        "fu",
        -8.956855583421188
      ],
      [
        "angalia",
        -8.958891858350613
      ],
      [
        "Ġkuanzisha",
        -8.959423439051994
      ],
      [
        "es",
        -8.959682581277836
      ],
      [
        "mhe",
        -8.960434941134174
      ],
      [
        "Ġkuishi",
        -8.962046440474323
      ],
      [
        "Ġhakika",
        -8.965279182573525
      ],
      [
        "Ġwanaweza",
        -8.965582801309484
      ],
      [
        "Ġkushirikiana",
        -8.969669654732643
      ],
      [
        "................",
        -8.969970129315083
      ],
      [
        "Ġdamu",
        -8.971304403258847
      ],
      [
        "ng",
        -8.972950444151524
      ],
      [
        "Ġhalisi",
        -8.973195443935314
      ],
      [
        "Ġisrael",
        -8.974694037787382
      ],
      [
        "Ġmaafisa",
        -8.974727604008187
      ],
      [
        "Ġkali",
        -8.974823132285483
      ],
      [
        "Ġmfuko",
        -8.97556840790357
      ],
      [
        "Ġkifungu",
        -8.975958145994213
      ],
      [
        "Ġzita",
        -8.977895236951074
      ],
      [
        "Ġwazee",
        -8.978448666071543
      ],
      [
        "Ġmchezo",
        -8.979031242831768
      ],
      [
        "Ġwakazi",
        -8.979406684576052
      ],
      [
        "bw",
        -8.980326425496818
      ],
      [
        "Ġutendaji",
        -8.98304789961662
      ],
      [
        "Ġrasimu",
        -8.985780834006622
      ],
      [
        "Ġkasi",
        -8.986588111016548
      ],
      [
        "Ġmia",
        -8.987163047965481
      ],
      [
        "Ġwith",
        -8.990379264520403
      ],
      [
        "Ġnili",
        -8.991988426742836
      ],
      [
        "Ġnapenda",
        -8.992519502060395
      ],
      [
        "Ġbodi",
        -8.99334827165214
      ],
      [
        "Ġkambi",
        -8.994919202352936
      ],
      [
        "Ġmajina",
        -8.996230233499347
      ],
      [
        "Ġvitendo",
        -8.997638983388212
      ],
      [
        "Ġkupambana",
        -8.998879536481885
      ],
      [
        "Ġmacho",
        -9.000791436011932
      ],
      [
        "Ġare",
        -9.001997049992776
      ],
      [
        "acha",
        -9.002390157802505
      ],
      [
        "Ġvyote",
        -9.00410885030843
      ],
      [
        "Ġlolote",
        -9.004376802709322
      ],
      [
        "Ġmaswali",
        -9.005771614639624
      ],
      [
        "mi",
        -9.00592330632409
      ],
      [
        "Ġgazeti",
        -9.006675363146533
      ],
      [
        "Ġ10",
        -9.008406836390463
      ],
      [
        "ĠâĢľ",
        -9.009246283687682
      ],
      [
        "Ġmakuu",
        -9.00958632367039
      ],
      [
        "Ġno",
        -9.010485814740967
      ],
      [
        "Ġmfalme",
        -9.011330173109224
      ],
      [
        "Ġkuzingatia",
        -9.012290936717193
      ],
      [
        "Ġmakosa",
        -9.012636290926
      ],
      [
        "Ġuwekezaji",
        -9.014152630916549
      ],
      [
        "Ġkinyume",
        -9.014343549265536
      ],
      [
        "Ġmbowe",
        -9.015795187171072
      ],
      [
        "hivi",
        -9.015871248224723
      ],
      [
        "Ġushahidi",
        -9.016860335977452
      ],
      [
        "Ġmno",
        -9.017310764477518
      ],
      [
        "Ġurais",
        -9.017357782464458
      ],
      [
        "Ġkushindwa",
        -9.018783331375046
      ],
      [
        "Ġukawa",
        -9.02027831288855
      ],
      [
        "Ġmarehemu",
        -9.020884154159036
      ],
      [
        "Ġkwanini",
        -9.020894813444269
      ],
      [
        "Ġmakamu",
        -9.021332537585268
      ],
      [
        "ambako",
        -9.023083189659898
      ],
      [
        "fanywa",
        -9.02516323188429
      ],
      [
        "Ġview",
        -9.025686376424016
      ],
      [
        "te",
        -9.025738387588529
      ],
      [
        "Ġakasema",
        -9.026832341416164
      ],
      [
        "Ġkuja",
        -9.027565423201729
      ],
      [
        "re",
        -9.027766469153317
      ],
      [
        "Ġ20",
        -9.027796550623776
      ],
      [
        "fanyika",
        -9.032861866423046
      ],
      [
        "hali",
        -9.033186217543452
      ],
      [
        "Ġikiwemo",
        -9.033221597019937
      ],
      [
        "Ġheshima",
        -9.033481490179843
      ],
      [
        "Ġhe",
        -9.033541015125705
      ],
      [
        "Ġso",
        -9.036592849019195
      ],
      [
        "Ġwasio",
        -9.037485849613397
      ],
      [
        "Ġyanga",
        -9.03752911553943
      ],
      [
        "Ġwachache",
        -9.037679663909016
      ],
      [
        "Ġujumla",
        -9.03820492360251
      ],
      [
        "Ġsekondari",
        -9.038401682325771
      ],
      [
        "Ġusimamizi",
        -9.039421774765316
      ],
      [
        "Ġkusaidia",
        -9.04570821081706
      ],
      [
        "Ġlenye",
        -9.049649553978886
      ],
      [
        "onyesha",
        -9.050586463249427
      ],
      [
        "Ġmke",
        -9.050728310236671
      ],
      [
        "Ġvijiji",
        -9.051500088326222
      ],
      [
        "Ġkesho",
        -9.051927818650658
      ],
      [
        "Ġkuondoa",
        -9.052504230915536
      ],
      [
        "kumbuka",
        -9.056808093449128
      ],
      [
        "Ġmikataba",
        -9.0587239325359
      ],
      [
        "Ġkununua",
        -9.065607433388012
      ],
      [
        "Ġsiri",
        -9.066684996124325
      ],
      [
        "Ġmauaji",
        -9.067492576454644
      ],
      [
        "Ġtani",
        -9.068265740153691
      ],
      [
        "Ġkusoma",
        -9.07010849202768
      ],
      [
        "Ġkijamii",
        -9.071346306759583
      ],
      [
        "Ġmasharti",
        -9.071609069282994
      ],
      [
        "Ġteknolojia",
        -9.071980894546412
      ],
      [
        "Ġrahisi",
        -9.072821214120454
      ],
      [
        "Ġkuendeleza",
        -9.077049472679294
      ],
      [
        "sh",
        -9.078124720597328
      ],
      [
        "Ġusi",
        -9.079320739023526
      ],
      [
        "Ġwajibu",
        -9.082355233075054
      ],
      [
        "Ġtuli",
        -9.083472052910466
      ],
      [
        "Ġnot",
        -9.083920459101758
      ],
      [
        "Ġnaona",
        -9.08637017958133
      ],
      [
        "kuwepo",
        -9.088248542058224
      ],
      [
        "Ġukimwi",
        -9.089849895442304
      ],
      [
        "hi",
        -9.090163529064236
      ],
      [
        "Ġmiji",
        -9.091247626662703
      ],
      [
        "Ġwaislamu",
        -9.091752656508472
      ],
      [
        "Ġdemokrasia",
        -9.091879147617808
      ],
      [
        "Ġmsimamo",
        -9.09242062938704
      ],
      [
        "Ġmvua",
        -9.09335369609054
      ],
      [
        "Ġmakini",
        -9.094709685221003
      ],
      [
        "Ġyenu",
        -9.098609182763322
      ],
      [
        "Ġvilivyo",
        -9.098834918576935
      ],
      [
        "Ġeti",
        -9.09961488678934
      ],
      [
        "Ġwanasema",
        -9.100125456771694
      ],
      [
        "Ġvyuo",
        -9.100271196834584
      ],
      [
        "Ġmikutano",
        -9.100615097308836
      ],
      [
        "ro",
        -9.100665803273609
      ],
      [
        "Ġmwili",
        -9.101027302471117
      ],
      [
        "Ġwasi",
        -9.101864777101031
      ],
      [
        "Ġziara",
        -9.1025172831864
      ],
      [
        "Ġhassan",
        -9.105307083073992
      ],
      [
        "kwenda",
        -9.105825732728364
      ],
      [
        "Ġchina",
        -9.106408264599322
      ],
      [
        "Ġzangu",
        -9.10778417273535
      ],
      [
        "Ġnadhani",
        -9.108003713179462
      ],
      [
        "Ġkulingana",
        -9.10920651783698
      ],
      [
        "Ġkuandika",
        -9.111314560354275
      ],
      [
        "Ġukaguzi",
        -9.113387982310536
      ],
      [
        "Ġkosa",
        -9.1139071197168
      ],
      [
        "Ġmakubaliano",
        -9.11419875212775
      ],
      [
        "tolewa",
        -9.114566185043802
      ],
      [
        "Ġshaka",
        -9.11663817438642
      ],
      [
        "Ġyali",
        -9.116901154086577
      ],
      [
        "Ġchanzo",
        -9.117222128253264
      ],
      [
        "Ġmiundombinu",
        -9.117783679406314
      ],
      [
        "wanajeshi",
        -9.11848003344169
      ],
      [
        "Ġwadogo",
        -9.119033146668672
      ],
      [
        "Ġshamba",
        -9.12123920316238
      ],
      [
        "Ġmaalumu",
        -9.12151083222656
      ],
      [
        "Ġmalengo",
        -9.122747761574642
      ],
      [
        "andika",
        -9.1236531202941
      ],
      [
        "paswa",
        -9.1237716743446
      ],
      [
        "Ġmiwili",
        -9.124652014381237
      ],
      [
        "Ġcuf",
        -9.125153840562373
      ],
      [
        "Ġalivyo",
        -9.127278983118504
      ],
      [
        "Ġmingi",
        -9.129765991878234
      ],
      [
        "Ġiwapo",
        -9.130910787596608
      ],
      [
        "patikana",
        -9.131851702280654
      ],
      [
        "Ġkili",
        -9.133291312886572
      ],
      [
        "soma",
        -9.133304393083478
      ],
      [
        "Ġujumbe",
        -9.13346770548866
      ],
      [
        "Ġjiji",
        -9.135547607422884
      ],
      [
        "Ġvinavyo",
        -9.13712591192929
      ],
      [
        "Ġlissu",
        -9.13891503806808
      ],
      [
        "Ġmwandishi",
        -9.13952593237664
      ],
      [
        "Ġkampeni",
        -9.139662990420932
      ],
      [
        "Ġlako",
        -9.140513461902993
      ],
      [
        "Ġmohamed",
        -9.141900918435963
      ],
      [
        "fahamu",
        -9.142902126693276
      ],
      [
        "Ġwafanyabiashara",
        -9.144058494821955
      ],
      [
        "Ġvingi",
        -9.145421112701662
      ],
      [
        "Ġwazazi",
        -9.14600210251798
      ],
      [
        "Ġmalipo",
        -9.14707411245427
      ],
      [
        "Ġuhusiano",
        -9.147227450718258
      ],
      [
        "Ġmawili",
        -9.147757997759646
      ],
      [
        "Ġmakao",
        -9.147914752783691
      ],
      [
        "tumika",
        -9.148852993216805
      ],
      [
        "Ġmapendekezo",
        -9.149294732025057
      ],
      [
        "Ġsura",
        -9.150125007666068
      ],
      [
        "Ġor",
        -9.150795412836024
      ],
      [
        "Ġjuma",
        -9.151519763770208
      ],
      [
        "Ġmtandao",
        -9.1517295741264
      ],
      [
        "fikia",
        -9.152993255157554
      ],
      [
        "Ġh",
        -9.153329262745483
      ],
      [
        "Ġawe",
        -9.154285388416302
      ],
      [
        "Ġthis",
        -9.155372062698245
      ],
      [
        "Ġmuswada",
        -9.155373189489604
      ],
      [
        "Ġun",
        -9.155407670059985
      ],
      [
        "Ġkupewa",
        -9.156291740326136
      ],
      [
        "Ġkula",
        -9.1572706274482
      ],
      [
        "Ġafrica",
        -9.158909420408875
      ],
      [
        "Ġkisasa",
        -9.1595838013083
      ],
      [
        "Ġutoaji",
        -9.159593040180358
      ],
      [
        "Ġwanasiasa",
        -9.161271913682782
      ],
      [
        "ila",
        -9.161410875885416
      ],
      [
        "Ġkuuza",
        -9.163243426834716
      ],
      [
        "Ġkutengeneza",
        -9.163488547753843
      ],
      [
        "Ġupo",
        -9.167383756369354
      ],
      [
        "Ġkimya",
        -9.16800437171545
      ],
      [
        "Ġbaina",
        -9.168488571596368
      ],
      [
        "Ġroho",
        -9.168739777732712
      ],
      [
        "Ġkutu",
        -9.169221283939232
      ],
      [
        "Ġlile",
        -9.169657122894384
      ],
      [
        "Ġnishati",
        -9.17091062563979
      ],
      [
        "Ġkijana",
        -9.171642229156255
      ],
      [
        "Ġmaarufu",
        -9.172571988522776
      ],
      [
        "Ġrasilimali",
        -9.17499510985004
      ],
      [
        "jenga",
        -9.17604287691004
      ],
      [
        "Ġkwetu",
        -9.176270789578371
      ],
      [
        "daiwa",
        -9.176968332919568
      ],
      [
        "Ġkutokea",
        -9.1770459469593
      ],
      [
        "Ġkulipa",
        -9.179696813140533
      ],
      [
        "ch",
        -9.17986519908786
      ],
      [
        "Ġnusu",
        -9.180092770252918
      ],
      [
        "Ġsafi",
        -9.180836972810882
      ],
      [
        "Ġuwe",
        -9.180923869849156
      ],
      [
        "Ġ...",
        -9.181775140193713
      ],
      [
        "Ġhela",
        -9.18236933878436
      ],
      [
        "tafuta",
        -9.18237388669725
      ],
      [
        "Ġmaadili",
        -9.182831124032225
      ],
      [
        "Ġajabu",
        -9.183874974774335
      ],
      [
        "onesha",
        -9.18681095333867
      ],
      [
        "Ġupya",
        -9.187681968704586
      ],
      [
        "Ġutamaduni",
        -9.187781750259983
      ],
      [
        "Ġkushiriki",
        -9.1891872998569
      ],
      [
        "Ġwachezaji",
        -9.190010348073825
      ],
      [
        "Ġmchango",
        -9.190045183508063
      ],
      [
        "mwaka",
        -9.190781139640649
      ],
      [
        "Ġkumbe",
        -9.191345798149609
      ],
      [
        "Ġkuangalia",
        -9.192763798205188
      ],
      [
        "Ġbahati",
        -9.192966768821416
      ],
      [
        "Ġmagonjwa",
        -9.194841328954997
      ],
      [
        "Ġlicha",
        -9.195204291145677
      ],
      [
        "Ġkijeshi",
        -9.19562319165567
      ],
      [
        "Ġmechi",
        -9.19643074535707
      ],
      [
        "Ġsoka",
        -9.196634818329835
      ],
      [
        "enda",
        -9.196756661992604
      ],
      [
        "Ġnew",
        -9.19888997791504
      ],
      [
        "Ġwanataka",
        -9.199155124338771
      ],
      [
        "Ġwaweze",
        -9.199449655829456
      ],
      [
        "Ġakina",
        -9.20028099510184
      ],
      [
        "Ġtanga",
        -9.201756974212994
      ],
      [
        "Ġhumu",
        -9.203542399944595
      ],
      [
        "Ġrwanda",
        -9.205639897461015
      ],
      [
        "us",
        -9.207349532110634
      ],
      [
        "Ġwaheshimiwa",
        -9.20994779269794
      ],
      [
        "Ġnjaa",
        -9.210310922446086
      ],
      [
        "Ġkusababisha",
        -9.210823385479946
      ],
      [
        "Ġhuenda",
        -9.21364005386007
      ],
      [
        "mba",
        -9.214233542662694
      ],
      [
        "Ġmarekebisho",
        -9.21472105578478
      ],
      [
        "Ġushirika",
        -9.214897144485718
      ],
      [
        "Ġjukumu",
        -9.21568243749372
      ],
      [
        "me",
        -9.215742794788136
      ],
      [
        "kubaliana",
        -9.216144855978756
      ],
      [
        "Ġvingine",
        -9.217101086523492
      ],
      [
        "amini",
        -9.217771629144476
      ],
      [
        "kazi",
        -9.218284323324124
      ],
      [
        "Ġwarioba",
        -9.21847860971149
      ],
      [
        "Ġwenzake",
        -9.219014251729554
      ],
      [
        "Ġtuu",
        -9.219588417407303
      ],
      [
        "Ġjirani",
        -9.21981937585002
      ],
      [
        "Ġvyema",
        -9.221861092985703
      ],
      [
        "kila",
        -9.22258428912112
      ],
      [
        "fuata",
        -9.222885032448534
      ],
      [
        "Ġikulu",
        -9.224129124936194
      ],
      [
        "Ġkujibu",
        -9.225967851053548
      ],
      [
        "Ġmakazi",
        -9.226263139558132
      ],
      [
        "pita",
        -9.22640127492446
      ],
      [
        "shi",
        -9.22848693292459
      ],
      [
        "Ġmatukio",
        -9.22873016080125
      ],
      [
        "Ġrisasi",
        -9.228866888605603
      ],
      [
        "zidi",
        -9.229113156397666
      ],
      [
        "Ġkuchangia",
        -9.229622999943173
      ],
      [
        "dai",
        -9.229703438075576
      ],
      [
        "Ġkimoja",
        -9.232405392998327
      ],
      [
        "jibu",
        -9.234882441550162
      ],
      [
        "peleka",
        -9.235133435830836
      ],
      [
        "Ġkulinda",
        -9.235325394138156
      ],
      [
        "Ġkukaa",
        -9.235906440054164
      ],
      [
        "Ġziki",
        -9.236352178174634
      ],
      [
        "ongeza",
        -9.24065077164759
      ],
      [
        "zaliwa",
        -9.240697981595655
      ],
      [
        "Ġworld",
        -9.242306298850332
      ],
      [
        "toka",
        -9.242555825284605
      ],
      [
        "Ġsalama",
        -9.242578513703432
      ],
      [
        "Ġhifadhi",
        -9.243731551474328
      ],
      [
        "Ġajali",
        -9.244232527535932
      ],
      [
        "Ġibara",
        -9.244961266009158
      ],
      [
        "Ġvime",
        -9.245354434982197
      ],
      [
        "Ġufanisi",
        -9.24569805011764
      ],
      [
        "Ġbure",
        -9.24596242897616
      ],
      [
        "Ġnita",
        -9.24601404420965
      ],
      [
        "fika",
        -9.246508965364171
      ],
      [
        "Ġmgombea",
        -9.24920849480208
      ],
      [
        "Ġiraq",
        -9.253413123057008
      ],
      [
        "Ġvibaya",
        -9.25351895321878
      ],
      [
        "dkt",
        -9.253568866982018
      ],
      [
        "Ġwatatu",
        -9.253703329125802
      ],
      [
        "bi",
        -9.25459080788513
      ],
      [
        "vu",
        -9.25477445791783
      ],
      [
        "Ġjf",
        -9.258209810198036
      ],
      [
        "Ġmkapa",
        -9.258352562453808
      ],
      [
        "Ġmzima",
        -9.259628200391989
      ],
      [
        "ishi",
        -9.260076923527857
      ],
      [
        "Ġbahari",
        -9.261662142721969
      ],
      [
        "ccm",
        -9.26288626622884
      ],
      [
        "Ġkuomba",
        -9.263851180574234
      ],
      [
        "Ġumaskini",
        -9.263939848016838
      ],
      [
        "Ġhazina",
        -9.264043138588017
      ],
      [
        "Ġzako",
        -9.2656898409992
      ],
      [
        "Ġtuka",
        -9.267024745560663
      ],
      [
        "Ġujinga",
        -9.267548251179209
      ],
      [
        "Ġziwa",
        -9.268005161203892
      ],
      [
        "Ġyuko",
        -9.26802967813989
      ],
      [
        "Ġkukosa",
        -9.269082904968435
      ],
      [
        "Ġkichwa",
        -9.269859902859306
      ],
      [
        "Ġmatibabu",
        -9.271519003565892
      ],
      [
        "Ġkuwapa",
        -9.271664346032646
      ],
      [
        "Ġviwango",
        -9.271739122791676
      ],
      [
        "Ġushindi",
        -9.271753888461877
      ],
      [
        "âĢ",
        -9.271869560557851
      ],
      [
        "Ġwatendaji",
        -9.272326537570368
      ],
      [
        "Ġmh",
        -9.27269694595494
      ],
      [
        "Ġyupo",
        -9.273390345463708
      ],
      [
        "Ġpwani",
        -9.273825885681394
      ],
      [
        "changia",
        -9.274031753303603
      ],
      [
        "Ġwapinzani",
        -9.275801371733683
      ],
      [
        "Ġwilayani",
        -9.276215968814784
      ],
      [
        "pamoja",
        -9.27642301614548
      ],
      [
        "pokea",
        -9.276989622752186
      ],
      [
        "Ġange",
        -9.27761104914774
      ],
      [
        "siku",
        -9.27919159867961
      ],
      [
        "Ġngumu",
        -9.27994217593466
      ],
      [
        "Ġamri",
        -9.281410954260204
      ],
      [
        "Ġuko",
        -9.282508817339798
      ],
      [
        "Ġwas",
        -9.28531457765382
      ],
      [
        "Ġbibi",
        -9.287359969704903
      ],
      [
        "maliza",
        -9.28849459395916
      ],
      [
        "Ġhaija",
        -9.28973442745373
      ],
      [
        "Ġkuondoka",
        -9.291403647614311
      ],
      [
        "wekwa",
        -9.291546219656476
      ],
      [
        "Ġkuelekea",
        -9.293403552484222
      ],
      [
        "Ġyenyewe",
        -9.293855231094128
      ],
      [
        "jua",
        -9.295649875525706
      ],
      [
        "amua",
        -9.295694673758046
      ],
      [
        "tajwa",
        -9.297199037066544
      ],
      [
        "Ġukiwa",
        -9.297651932416178
      ],
      [
        "Ġmaandamano",
        -9.298444095985571
      ],
      [
        "Ġwalipo",
        -9.298740814326178
      ],
      [
        "tia",
        -9.298917471180806
      ],
      [
        "Ġuwezekano",
        -9.301020585569624
      ],
      [
        "Ġlilikuwa",
        -9.30138285978179
      ],
      [
        "Ġpande",
        -9.301909127487244
      ],
      [
        "hakuna",
        -9.302445289441128
      ],
      [
        "Ġkigoma",
        -9.303490091242024
      ],
      [
        "Ġmwenyezi",
        -9.30350178497914
      ],
      [
        "Ġtanu",
        -9.304342720217042
      ],
      [
        "Ġmto",
        -9.304936375767342
      ],
      [
        "Ġwenu",
        -9.304968096060309
      ],
      [
        "Ġatakuwa",
        -9.305604840884111
      ],
      [
        "Ġmachi",
        -9.306030670980135
      ],
      [
        "Ġvitabu",
        -9.306572284809844
      ],
      [
        "Ġkuendesha",
        -9.307145601779498
      ],
      [
        "Ġsuluhu",
        -9.307244815068763
      ],
      [
        "Ġkulikuwa",
        -9.30852733729482
      ],
      [
        "wana",
        -9.30902395575113
      ],
      [
        "Ġhawezi",
        -9.312927268007206
      ],
      [
        "hitaji",
        -9.31436122714438
      ],
      [
        "Ġnane",
        -9.316271640801304
      ],
      [
        "Ġwakubwa",
        -9.317208642288229
      ],
      [
        "Ġwingi",
        -9.31763460528166
      ],
      [
        "Ġklabu",
        -9.317903421579649
      ],
      [
        "Ġkudai",
        -9.31813119248548
      ],
      [
        "Ġkurudi",
        -9.318185252699491
      ],
      [
        "Ġitakayo",
        -9.319791231381998
      ],
      [
        "Ġjanuari",
        -9.3199262032822
      ],
      [
        "Ġligi",
        -9.322883128826184
      ],
      [
        "Ġv",
        -9.324979052197024
      ],
      [
        "Ġkitendo",
        -9.325221461617934
      ],
      [
        "Ġall",
        -9.3252914282362
      ],
      [
        "Ġaibu",
        -9.326968238219475
      ],
      [
        "Ġhasara",
        -9.32753968463021
      ],
      [
        "Ġubora",
        -9.327975989456352
      ],
      [
        "Ġzingine",
        -9.32931536358299
      ],
      [
        "lenga",
        -9.329466251042156
      ],
      [
        "Ġsa",
        -9.33097330297217
      ],
      [
        "pigwa",
        -9.331788270233098
      ],
      [
        "Ġuongo",
        -9.331934390355292
      ],
      [
        "Ġkufanyika",
        -9.334073640045755
      ],
      [
        "Ġwanaume",
        -9.334720431281433
      ],
      [
        "Ġwanyama",
        -9.33532450069356
      ],
      [
        "Ġmajengo",
        -9.336649564522244
      ],
      [
        "tumiwa",
        -9.337992346943974
      ],
      [
        "Ġusafiri",
        -9.3386510298326
      ],
      [
        "Ġmasoko",
        -9.338820154092156
      ],
      [
        "Ġmashamba",
        -9.338965858496795
      ],
      [
        "Ġkufuatia",
        -9.339198702003442
      ],
      [
        "Ġnilikuwa",
        -9.339527844568265
      ],
      [
        "Ġhewa",
        -9.340412209597426
      ],
      [
        "Ġmishahara",
        -9.340707561410529
      ],
      [
        "Ġlini",
        -9.340717191560756
      ],
      [
        "cho",
        -9.34206322880379
      ],
      [
        "nda",
        -9.342237047950364
      ],
      [
        "Ġmasomo",
        -9.342260947127487
      ],
      [
        "Ġmitatu",
        -9.344293997123556
      ],
      [
        "Ġmisaada",
        -9.34522883901879
      ],
      [
        "Ġkudhibiti",
        -9.34630516726182
      ],
      [
        "Ġpengine",
        -9.346697404433073
      ],
      [
        "Ġmfupi",
        -9.347262431794254
      ],
      [
        "Ġkufika",
        -9.348155201494782
      ],
      [
        "julikana",
        -9.348449477128316
      ],
      [
        "Ġhawaku",
        -9.348701231293145
      ],
      [
        "rejea",
        -9.349014388849394
      ],
      [
        "Ġwagonjwa",
        -9.35011460360918
      ],
      [
        "Ġkudumu",
        -9.35033789698634
      ],
      [
        "Ġkupinga",
        -9.350706748379253
      ],
      [
        "itwa",
        -9.350870260133444
      ],
      [
        "Ġtawala",
        -9.350899314139031
      ],
      [
        "Ġyalikuwa",
        -9.351231507917
      ],
      [
        "uza",
        -9.35164802266622
      ],
      [
        "Ġjioni",
        -9.35294333473539
      ],
      [
        "Ġ15",
        -9.354528990788015
      ],
      [
        "Ġrussia",
        -9.354596847964894
      ],
      [
        "Ġkumbukumbu",
        -9.356144812152628
      ],
      [
        "nchi",
        -9.359373188367872
      ],
      [
        "Ġjengo",
        -9.359523990149771
      ],
      [
        "Ġkm",
        -9.360415087033372
      ],
      [
        "Ġathari",
        -9.361366044912836
      ],
      [
        "kubali",
        -9.362586166715818
      ],
      [
        "Ġkuandaa",
        -9.364822573105174
      ],
      [
        "Ġutakuwa",
        -9.364955926426806
      ],
      [
        "Ġupatikanaji",
        -9.36590930637065
      ],
      [
        "Ġviwanja",
        -9.36738972084284
      ],
      [
        "Ġndoa",
        -9.367593157170443
      ],
      [
        "Ġdhamana",
        -9.36767382134936
      ],
      [
        "Ġkamili",
        -9.368916372498967
      ],
      [
        "Ġjapo",
        -9.369263535963944
      ],
      [
        "Ġjitihada",
        -9.37026643240982
      ],
      [
        "tuna",
        -9.37082445608564
      ],
      [
        "Ġkupanda",
        -9.370949863648825
      ],
      [
        "Ġmitano",
        -9.371095222534128
      ],
      [
        "Ġmay",
        -9.372927146746536
      ],
      [
        "Ġjuni",
        -9.372948973029567
      ],
      [
        "Ġnika",
        -9.373305376475344
      ],
      [
        "Ġbalozi",
        -9.374025211678186
      ],
      [
        "nga",
        -9.374148860500606
      ],
      [
        "ruhusu",
        -9.374347226886837
      ],
      [
        "Ġiringa",
        -9.374604777716844
      ],
      [
        "piga",
        -9.376517941170396
      ],
      [
        "Ġkuacha",
        -9.37660329671635
      ],
      [
        "zoezi",
        -9.376965526377695
      ],
      [
        "hili",
        -9.37809679707284
      ],
      [
        "Ġkujadili",
        -9.379089509049074
      ],
      [
        "Ġdakika",
        -9.38020953685667
      ],
      [
        "Ġme",
        -9.380898159947517
      ],
      [
        "desemba",
        -9.38135255942363
      ],
      [
        "Ġisiyo",
        -9.381419690873685
      ],
      [
        "Ġkufa",
        -9.382459746465148
      ],
      [
        "Ġpeke",
        -9.3825584541476
      ],
      [
        "Ġwizi",
        -9.3840981072169
      ],
      [
        "go",
        -9.38430869577565
      ],
      [
        "Ġkufuata",
        -9.38475322987589
      ],
      [
        "Ġwataalamu",
        -9.384868991807847
      ],
      [
        "Ġrangi",
        -9.386208317550624
      ],
      [
        "Ġzilikuwa",
        -9.386998640246688
      ],
      [
        "Ġhave",
        -9.387942765647434
      ],
      [
        "x",
        -9.389012440391223
      ],
      [
        "Ġtuki",
        -9.390759722961633
      ],
      [
        "Ġmbolea",
        -9.392292312501176
      ],
      [
        "Ġmiti",
        -9.392511736434423
      ],
      [
        "Ġmisingi",
        -9.394713030363068
      ],
      [
        "Ġchombo",
        -9.397242286618075
      ],
      [
        "Ġktk",
        -9.39893560107458
      ],
      [
        "Ġhuwezi",
        -9.399164318392458
      ],
      [
        "Ġmtwara",
        -9.39987515612346
      ],
      [
        "kuja",
        -9.400255596581363
      ],
      [
        "Ġjulai",
        -9.40096038531929
      ],
      [
        "tume",
        -9.401351008583402
      ],
      [
        "be",
        -9.401884138545952
      ],
      [
        "Ġ12",
        -9.402207802407322
      ],
      [
        "Ġz",
        -9.402918206130703
      ],
      [
        "mkuu",
        -9.403874256513822
      ],
      [
        "Ġmkazi",
        -9.404269859218603
      ],
      [
        "leo",
        -9.404425733796373
      ],
      [
        "Ġus",
        -9.405309136188563
      ],
      [
        "ina",
        -9.40578198833971
      ],
      [
        "Ġmikakati",
        -9.405989530465812
      ],
      [
        "he",
        -9.4075299245071
      ],
      [
        "Ġmgogoro",
        -9.407997680743708
      ],
      [
        "Ġongezeko",
        -9.40836913788444
      ],
      [
        "Ġhofu",
        -9.40848067005831
      ],
      [
        "Ġpm",
        -9.40885009332288
      ],
      [
        "Ġkero",
        -9.40964107031066
      ],
      [
        "Ġufaransa",
        -9.410643890829496
      ],
      [
        "Ġakawa",
        -9.411091643782358
      ],
      [
        "isha",
        -9.411640480982117
      ],
      [
        "Ġkutumika",
        -9.41238467259595
      ],
      [
        "Ġkiwanda",
        -9.412405373103862
      ],
      [
        "tuhuma",
        -9.414140472813932
      ],
      [
        "Ġmta",
        -9.41508965011226
      ],
      [
        "Ġtisa",
        -9.415543067027192
      ],
      [
        "Ġsamaki",
        -9.415949369474252
      ],
      [
        "Ġhawaja",
        -9.41645185892617
      ],
      [
        "rudi",
        -9.416530510546638
      ],
      [
        "Ġhis",
        -9.41693511819822
      ],
      [
        "Ġmifumo",
        -9.416939677202189
      ],
      [
        "Ġde",
        -9.417194365286653
      ],
      [
        "Ġaliyo",
        -9.417328366072772
      ],
      [
        "kosa",
        -9.418315457051788
      ],
      [
        "Ġhalali",
        -9.42045336101534
      ],
      [
        "Ġmsimu",
        -9.421312384709084
      ],
      [
        "Ġwageni",
        -9.42173265564049
      ],
      [
        "Ġwawekezaji",
        -9.422022460776512
      ],
      [
        "taja",
        -9.42230109269757
      ],
      [
        "naye",
        -9.423215321876269
      ],
      [
        "Ġmar",
        -9.4245809306301
      ],
      [
        "Ġkikosi",
        -9.425178580303903
      ],
      [
        "Ġmchana",
        -9.42540189349318
      ],
      [
        "Ġhatimaye",
        -9.428239071287624
      ],
      [
        "oktoba",
        -9.429804586799612
      ],
      [
        "Ġmalalamiko",
        -9.430810942670414
      ],
      [
        "hiyo",
        -9.431282785006742
      ],
      [
        "Ġmuundo",
        -9.431954264635731
      ],
      [
        "Ġkote",
        -9.43401153079962
      ],
      [
        "Ġyasiyo",
        -9.434345153381898
      ],
      [
        "Ġsifuri",
        -9.43450310100592
      ],
      [
        "Ġwasiwasi",
        -9.43878666388295
      ],
      [
        "Ġkuhusiana",
        -9.440331277471213
      ],
      [
        "Ġutalii",
        -9.440852372386631
      ],
      [
        "Ġiliyopo",
        -9.440894533576778
      ],
      [
        "jitokeza",
        -9.443567627289626
      ],
      [
        "Ġkelele",
        -9.44418837420756
      ],
      [
        "Ġkukabiliana",
        -9.44594331053261
      ],
      [
        "Ġprofesa",
        -9.446955508869856
      ],
      [
        "Ġhatu",
        -9.447728105202216
      ],
      [
        "Ġman",
        -9.448375058542126
      ],
      [
        "Ġukraine",
        -9.449014214158533
      ],
      [
        "Ġufisadi",
        -9.450018620625512
      ],
      [
        "Ġmanispaa",
        -9.450876253493565
      ],
      [
        "aprili",
        -9.451865387380051
      ],
      [
        "Ġkabila",
        -9.452353918776389
      ],
      [
        "Ġhau",
        -9.452727479622911
      ],
      [
        "Ġdc",
        -9.453308585618997
      ],
      [
        "Ġdaraja",
        -9.453639051497683
      ],
      [
        "Ġvikao",
        -9.455051445239365
      ],
      [
        "Ġmanufaa",
        -9.45523865138396
      ],
      [
        "Ġmjadala",
        -9.455259314146751
      ],
      [
        "Ġmipaka",
        -9.45569070430746
      ],
      [
        "naomba",
        -9.45712308025493
      ],
      [
        "Ġ30",
        -9.46296565874166
      ],
      [
        "Ġdo",
        -9.463541177516325
      ],
      [
        "Ġup",
        -9.463781293355106
      ],
      [
        "Ġkuni",
        -9.464270822580415
      ],
      [
        "âĢ¢",
        -9.464838503460852
      ],
      [
        "Ġmahindi",
        -9.465057877785398
      ],
      [
        "tambua",
        -9.46854794778738
      ],
      [
        "Ġwateja",
        -9.469357818727929
      ],
      [
        "Ġmaombi",
        -9.469847372119736
      ],
      [
        "tuhumiwa",
        -9.471351335891615
      ],
      [
        "Ġhaiku",
        -9.4715405937069
      ],
      [
        "shindwa",
        -9.471605766528564
      ],
      [
        "Ġhakimu",
        -9.471777795861538
      ],
      [
        "Ġmoshi",
        -9.471909461267106
      ],
      [
        "Ġwanapo",
        -9.47313471944116
      ],
      [
        "Ġwill",
        -9.473271497722452
      ],
      [
        "Ġahadi",
        -9.473704112569102
      ],
      [
        "Ġprof",
        -9.473888083333737
      ],
      [
        "Ġukumbi",
        -9.47428326562765
      ],
      [
        "Ġtabora",
        -9.474417281997892
      ],
      [
        "Ġhesabu",
        -9.474707192420691
      ],
      [
        "Ġmnamo",
        -9.475315846951696
      ],
      [
        "Ġnyama",
        -9.476699943443895
      ],
      [
        "Ġasi",
        -9.47676038002981
      ],
      [
        "Ġmaziwa",
        -9.477148135503716
      ],
      [
        "Ġmajimbo",
        -9.477576302577612
      ],
      [
        "Ġba",
        -9.478704837488642
      ],
      [
        "Ġ11",
        -9.480400615971806
      ],
      [
        "Ġalipokuwa",
        -9.480845111368724
      ],
      [
        "tangaza",
        -9.481729795103387
      ],
      [
        "Ġzipo",
        -9.482374098436797
      ],
      [
        "Ġmadhara",
        -9.48260251598187
      ],
      [
        "nunua",
        -9.482738092005858
      ],
      [
        "kata",
        -9.483218972873145
      ],
      [
        "Ġifuatavyo",
        -9.484316303872808
      ],
      [
        "Ġvifo",
        -9.484569532659672
      ],
      [
        "man",
        -9.484600127565605
      ],
      [
        "Ġmatumaini",
        -9.484620220043704
      ],
      [
        "Ġkigeni",
        -9.48472828703266
      ],
      [
        "Ġkilimanjaro",
        -9.484862296539973
      ],
      [
        "Ġmtanzania",
        -9.48594585789915
      ],
      [
        "Ġmei",
        -9.487463548560092
      ],
      [
        "Ġmkakati",
        -9.487850192251967
      ],
      [
        "Ġafrican",
        -9.488466987320251
      ],
      [
        "Ġutumishi",
        -9.489483738288184
      ],
      [
        "Ġone",
        -9.489607421943091
      ],
      [
        "Ġsheikh",
        -9.489625552522032
      ],
      [
        "Ġakisema",
        -9.491872949774104
      ],
      [
        "Ġmy",
        -9.49222427422989
      ],
      [
        "Ġgesi",
        -9.492310565322285
      ],
      [
        "Ġwatakao",
        -9.493046488196454
      ],
      [
        "Ġadhabu",
        -9.493473064340694
      ],
      [
        "Ġlangu",
        -9.493626088007408
      ],
      [
        "nde",
        -9.4949472027592
      ],
      [
        "abiria",
        -9.495274251708617
      ],
      [
        "Ġwawakilishi",
        -9.495532324156043
      ],
      [
        "fanyiwa",
        -9.496047381397728
      ],
      [
        "Ġbut",
        -9.496370517380438
      ],
      [
        "Ġmajeshi",
        -9.498749673770993
      ],
      [
        "Ġtamaa",
        -9.498871572264594
      ],
      [
        "hawa",
        -9.500627375838285
      ],
      [
        "Ġkuonyesha",
        -9.501221546796796
      ],
      [
        "Ġwatakuwa",
        -9.503108513977786
      ],
      [
        "Ġchache",
        -9.503612747604398
      ],
      [
        "Ġrafiki",
        -9.503651294941482
      ],
      [
        "Ġacha",
        -9.504569651754244
      ],
      [
        "Ġamekuwa",
        -9.504657340791976
      ],
      [
        "Ġmjumbe",
        -9.505333773081407
      ],
      [
        "ī",
        -9.505720111076664
      ],
      [
        "pelekwa",
        -9.506186166655484
      ],
      [
        "Ġmashindano",
        -9.506666347554374
      ],
      [
        "Ġmakampuni",
        -9.507253985336945
      ],
      [
        "elezwa",
        -9.507675862473546
      ],
      [
        "Ġkadhalika",
        -9.507846486682649
      ],
      [
        "Ġsina",
        -9.508149544555405
      ],
      [
        "Ġliki",
        -9.509483431768553
      ],
      [
        "ambiwa",
        -9.509670104137308
      ],
      [
        "Ġkumaliza",
        -9.510292227595164
      ],
      [
        "haya",
        -9.510322696797283
      ],
      [
        "de",
        -9.511340724736876
      ],
      [
        "usajili",
        -9.511610770036484
      ],
      [
        "Ġtakwimu",
        -9.512224763388602
      ],
      [
        "Ġenzi",
        -9.5123856970711
      ],
      [
        "Ġmiguu",
        -9.51296379252967
      ],
      [
        "sababisha",
        -9.51342200025921
      ],
      [
        "pitia",
        -9.513515647706722
      ],
      [
        "she",
        -9.51478916329652
      ],
      [
        "Ġwakimbizi",
        -9.517758338987935
      ],
      [
        "andikwa",
        -9.517888727921688
      ],
      [
        "Ġmatunda",
        -9.518716909444398
      ],
      [
        "Ġendapo",
        -9.51951780041192
      ],
      [
        "tengeneza",
        -9.521731755204652
      ],
      [
        "Ġishirini",
        -9.522938912093553
      ],
      [
        "Ġreli",
        -9.523408458478722
      ],
      [
        "Ġkuunda",
        -9.523635797454826
      ],
      [
        "Ġkikundi",
        -9.524235849009196
      ],
      [
        "panda",
        -9.525567591084602
      ],
      [
        "Ġnjema",
        -9.526617974708095
      ],
      [
        "Ġjibu",
        -9.528720637431508
      ],
      [
        "Ġnovemba",
        -9.529495783387246
      ],
      [
        "Ġuzoefu",
        -9.530140870991536
      ],
      [
        "Ġkupokea",
        -9.530392298813853
      ],
      [
        "Ġhazi",
        -9.531093686477126
      ],
      [
        "Ġiliyokuwa",
        -9.53133405717997
      ],
      [
        "Ġhatuna",
        -9.53148498371428
      ],
      [
        "Ġwawe",
        -9.532022350803736
      ],
      [
        "kutokana",
        -9.532624200951227
      ],
      [
        "Ġvyao",
        -9.533600198500032
      ],
      [
        "Ġnguo",
        -9.534295192670228
      ],
      [
        "son",
        -9.53473919927859
      ],
      [
        "Ġwenzetu",
        -9.53577815712065
      ],
      [
        "Ġkutambua",
        -9.536678327542258
      ],
      [
        "Ġsudan",
        -9.537051422650675
      ],
      [
        "Ġmadawa",
        -9.537132703727028
      ],
      [
        "jengwa",
        -9.53730695419081
      ],
      [
        "Ġre",
        -9.539264573005395
      ],
      [
        "Ġupungufu",
        -9.53957710640234
      ],
      [
        "Ġtija",
        -9.539587426123669
      ],
      [
        "Ġangalau",
        -9.540116948177676
      ],
      [
        "Ġjumapili",
        -9.54012784008693
      ],
      [
        "Ġmzigo",
        -9.540433042225498
      ],
      [
        "Ġhapana",
        -9.54167817955562
      ],
      [
        "kwanza",
        -9.541942998410244
      ],
      [
        "Ġmisri",
        -9.542882431781752
      ],
      [
        "el",
        -9.543584617100136
      ],
      [
        "Ġdhambi",
        -9.544341536454548
      ],
      [
        "pendekeza",
        -9.54535782682302
      ],
      [
        "mara",
        -9.545619007732478
      ],
      [
        "ita",
        -9.547902812779038
      ],
      [
        "Ġisipokuwa",
        -9.550392598100345
      ],
      [
        "Ġaskofu",
        -9.551063714700703
      ],
      [
        "baadhi",
        -9.551881707594772
      ],
      [
        "Ġkilo",
        -9.552964793088517
      ],
      [
        "chukuliwa",
        -9.553994579171327
      ],
      [
        "septemba",
        -9.555011902698936
      ],
      [
        "mtu",
        -9.555876774241556
      ],
      [
        "Ġisraeli",
        -9.55629903198443
      ],
      [
        "Ġkuzalisha",
        -9.558223890095917
      ],
      [
        "pelekea",
        -9.558682158936328
      ],
      [
        "di",
        -9.5586936019655
      ],
      [
        "Ġmaskini",
        -9.55869384079745
      ],
      [
        "Ġdalili",
        -9.559040489965696
      ],
      [
        "Ġkarne",
        -9.559541929656536
      ],
      [
        "tangazwa",
        -9.56037858186808
      ],
      [
        "Ġuzi",
        -9.560448534061088
      ],
      [
        "Ġlu",
        -9.560524038442267
      ],
      [
        "akizungumza",
        -9.56083124057721
      ],
      [
        "Ġmwishoni",
        -9.561613348169455
      ],
      [
        "Ġmeli",
        -9.562097623085066
      ],
      [
        "sisitiza",
        -9.562163416330907
      ],
      [
        "Ġuteuzi",
        -9.562888832166298
      ],
      [
        "sisi",
        -9.563847832449222
      ],
      [
        "sikia",
        -9.565502120645268
      ],
      [
        "ru",
        -9.565679141220958
      ],
      [
        "Ġyata",
        -9.56623500550122
      ],
      [
        "mpa",
        -9.566328221963076
      ],
      [
        "elewa",
        -9.56673278018676
      ],
      [
        "âĢĿ",
        -9.567495593096432
      ],
      [
        "Ġharakati",
        -9.56756319096707
      ],
      [
        "pi",
        -9.567902820035536
      ],
      [
        "Ġkupeleka",
        -9.571835970364887
      ],
      [
        "Ġkukuza",
        -9.57184956086246
      ],
      [
        "Ġnyie",
        -9.572277668402377
      ],
      [
        "Ġwalivyo",
        -9.572533823690495
      ],
      [
        "Ġbu",
        -9.573601624334035
      ],
      [
        "lipa",
        -9.57412364780383
      ],
      [
        "Ġkiti",
        -9.575321665638196
      ],
      [
        "Ġkatikati",
        -9.575479653759656
      ],
      [
        "zuia",
        -9.5757740811144
      ],
      [
        "Ġimara",
        -9.57681347130824
      ],
      [
        "Ġumwagiliaji",
        -9.577470202464488
      ],
      [
        "Ġkuongoza",
        -9.577607833895977
      ],
      [
        "Ġanataka",
        -9.578536043359897
      ],
      [
        "taarifa",
        -9.578812892874462
      ],
      [
        "nge",
        -9.580532261577126
      ],
      [
        "ondoa",
        -9.580944997077458
      ],
      [
        "habari",
        -9.581559967758402
      ],
      [
        "um",
        -9.581743327024768
      ],
      [
        "Ġhususan",
        -9.581824062711153
      ],
      [
        "Ġndivyo",
        -9.582928672057722
      ],
      [
        "Ġruzuku",
        -9.583190361103451
      ],
      [
        "una",
        -9.583410415100122
      ],
      [
        "ongozwa",
        -9.583426787946207
      ],
      [
        "Ġmpira",
        -9.583675661534778
      ],
      [
        "Ġmigogoro",
        -9.583741705127208
      ],
      [
        "Ġkamanda",
        -9.584771585051405
      ],
      [
        "Ġmadaktari",
        -9.586069659264108
      ],
      [
        "Ġposho",
        -9.589377789871836
      ],
      [
        "Ġkongo",
        -9.590041722723033
      ],
      [
        "Ġmakala",
        -9.5905911838078
      ],
      [
        "unganisha",
        -9.591959224195888
      ],
      [
        "âĢĻ",
        -9.59196381218014
      ],
      [
        "Ġvili",
        -9.591995974619271
      ],
      [
        "Ġrufaa",
        -9.592048980122744
      ],
      [
        "shiriki",
        -9.59377046651666
      ],
      [
        "Ġtakriban",
        -9.594049478053446
      ],
      [
        "wasilisha",
        -9.59458682415444
      ],
      [
        "Ġniaba",
        -9.596384498251112
      ],
      [
        "lazimika",
        -9.597125943344048
      ],
      [
        "Ġcongo",
        -9.598265028218568
      ],
      [
        "saidia",
        -9.59881002157943
      ],
      [
        "Ġwakili",
        -9.59982952615112
      ],
      [
        "Ġanapo",
        -9.600571594405324
      ],
      [
        "Ġtime",
        -9.600721254935737
      ],
      [
        "Ġuendeshaji",
        -9.601167617402115
      ],
      [
        "anzisha",
        -9.60213767235444
      ],
      [
        "Ġkujiunga",
        -9.602201464563516
      ],
      [
        "Ġmingine",
        -9.603049918396836
      ],
      [
        "Ġubunge",
        -9.603339336831484
      ],
      [
        "Ġvema",
        -9.60378963641221
      ],
      [
        "Ġwanafanya",
        -9.60447905617081
      ],
      [
        "alidai",
        -9.60474794615469
      ],
      [
        "Ġorodha",
        -9.60777158130503
      ],
      [
        "Ġindia",
        -9.608187992919516
      ],
      [
        "mungu",
        -9.608269191236236
      ],
      [
        "Ġtanesco",
        -9.608570075782913
      ],
      [
        "Ġwafuasi",
        -9.60909006521157
      ],
      [
        "pinga",
        -9.609490959646028
      ],
      [
        "poteza",
        -9.610399573929271
      ],
      [
        "Ġwaasi",
        -9.610625697388222
      ],
      [
        "Ġhukumu",
        -9.611028433066563
      ],
      [
        "Ġwho",
        -9.61121002349356
      ],
      [
        "shika",
        -9.611367688674498
      ],
      [
        "Ġviti",
        -9.611369460987389
      ],
      [
        "Ġsingida",
        -9.61154333487426
      ],
      [
        "Ġdarasa",
        -9.61248577040872
      ],
      [
        "Ġbaadae",
        -9.61272987495292
      ],
      [
        "Ġmashtaka",
        -9.612776252932964
      ],
      [
        "Ġkupoteza",
        -9.61280128652064
      ],
      [
        "Ġvikundi",
        -9.61357784255336
      ],
      [
        "Ġwataalam",
        -9.614050211414847
      ],
      [
        "Ġchuki",
        -9.614604008558867
      ],
      [
        "Ġtz",
        -9.615015044266784
      ],
      [
        "Ġkuwasaidia",
        -9.615110939115509
      ],
      [
        "Ġmwingi",
        -9.615203358804967
      ],
      [
        "Ġbusara",
        -9.615277461377088
      ],
      [
        "Ġalitoa",
        -9.616393772408866
      ],
      [
        "Ġinge",
        -9.616545584039962
      ],
      [
        "...",
        -9.616986298351067
      ],
      [
        "Ġwange",
        -9.617015900305171
      ],
      [
        "Ġlingine",
        -9.619464303513691
      ],
      [
        "Ġkuzungumza",
        -9.619548250690608
      ],
      [
        "hapa",
        -9.619713581102118
      ],
      [
        "Ġwito",
        -9.61974620963726
      ],
      [
        "Ġjoseph",
        -9.620056741094848
      ],
      [
        "kataa",
        -9.620250236503022
      ],
      [
        "fungwa",
        -9.620531702409837
      ],
      [
        "Ġkujifunza",
        -9.6210416285959
      ],
      [
        "Ġzisizo",
        -9.621219669289989
      ],
      [
        "Ġ14",
        -9.621567912786627
      ],
      [
        "Ġnataka",
        -9.621647935026497
      ],
      [
        "unda",
        -9.622045469674596
      ],
      [
        "Ġkwako",
        -9.622092013799591
      ],
      [
        "Ġmtendaji",
        -9.622927326600571
      ],
      [
        "Ġunataka",
        -9.625141567535884
      ],
      [
        "zungumza",
        -9.625428182628765
      ],
      [
        "kati",
        -9.626333052556197
      ],
      [
        "Ġmwananchi",
        -9.627870770454964
      ],
      [
        "Ġkisiwa",
        -9.628011747286964
      ],
      [
        "Ġjpm",
        -9.62818157290188
      ],
      [
        "Ġkita",
        -9.629067454370992
      ],
      [
        "Ġdp",
        -9.63050116538744
      ],
      [
        "Ġsayansi",
        -9.63144890948048
      ],
      [
        "\".",
        -9.63417493253032
      ],
      [
        "elezea",
        -9.634358612318216
      ],
      [
        "Ġmikono",
        -9.637030687695216
      ],
      [
        "Ġserikalini",
        -9.639010234327428
      ],
      [
        "Ġwahusika",
        -9.640440071318393
      ],
      [
        "Ġwastani",
        -9.640526526334908
      ],
      [
        "Ġagosti",
        -9.64079708261654
      ],
      [
        "Ġwalisema",
        -9.640998508902593
      ],
      [
        "shuhudia",
        -9.641736952067731
      ],
      [
        "Ġkibiashara",
        -9.644332548912503
      ],
      [
        "Ġulimwengu",
        -9.644361239178972
      ],
      [
        "Ġmabaya",
        -9.64579944685012
      ],
      [
        "fanikiwa",
        -9.646321087963804
      ],
      [
        "maana",
        -9.647078434398468
      ],
      [
        "Ġshinyanga",
        -9.647096554824936
      ],
      [
        "co",
        -9.647706264725098
      ],
      [
        "10",
        -9.64843653604677
      ],
      [
        "Ġkuongezeka",
        -9.648933199853245
      ],
      [
        "Ġkuamua",
        -9.64912951196652
      ],
      [
        "pitishwa",
        -9.65038519739878
      ],
      [
        "Ġtiba",
        -9.650468914920896
      ],
      [
        "Ġfebruari",
        -9.6505113588953
      ],
      [
        "Ġ18",
        -9.650578605260703
      ],
      [
        "andaliwa",
        -9.651015321696066
      ],
      [
        "Ġafisa",
        -9.65237842433083
      ],
      [
        "Ġmita",
        -9.652383743880389
      ],
      [
        "Ġmimba",
        -9.652447369024772
      ],
      [
        "ge",
        -9.652710258660749
      ],
      [
        "Ġijayo",
        -9.653111929441422
      ],
      [
        "Ġkukutana",
        -9.653279225466834
      ],
      [
        "Ġact",
        -9.65345099384897
      ],
      [
        "wapa",
        -9.653728936886042
      ],
      [
        "Ġtunaweza",
        -9.654693266223074
      ],
      [
        "Ġkagera",
        -9.654754135786236
      ],
      [
        "Ġatakaye",
        -9.656586232461152
      ],
      [
        "Ġufafanuzi",
        -9.656625674717995
      ],
      [
        "Ġkwangu",
        -9.656968704799423
      ],
      [
        "Ġzenu",
        -9.65767646517977
      ],
      [
        "Ġhas",
        -9.658608422114662
      ],
      [
        "Ġcag",
        -9.659061896939487
      ],
      [
        ".âĢĿ",
        -9.661788896877011
      ],
      [
        "Ġlindi",
        -9.66601112889616
      ],
      [
        "vunja",
        -9.666782572444982
      ],
      [
        "Ġkristo",
        -9.667580514615432
      ],
      [
        "Ġmagazeti",
        -9.668974863196093
      ],
      [
        "/=",
        -9.669765026543466
      ],
      [
        "Ġburundi",
        -9.670500001234297
      ],
      [
        "stahili",
        -9.6708346673947
      ],
      [
        "Ġkarume",
        -9.672365222648038
      ],
      [
        "Ġkwasababu",
        -9.6724311264111
      ],
      [
        "Ġkushinda",
        -9.672638584577168
      ],
      [
        "Ġmwanafunzi",
        -9.672925935090968
      ],
      [
        "Ġitaendelea",
        -9.673368159024056
      ],
      [
        "it",
        -9.673445815354633
      ],
      [
        "âĢľ",
        -9.673542952696376
      ],
      [
        "kuhusu",
        -9.674070902131046
      ],
      [
        "Ġprogramu",
        -9.67448853987423
      ],
      [
        "Ġkiingereza",
        -9.6749905986464
      ],
      [
        "gu",
        -9.675193975947844
      ],
      [
        "simamia",
        -9.675425967640937
      ],
      [
        "Ġmwinyi",
        -9.676838240315307
      ],
      [
        "Ġelfu",
        -9.67699518186155
      ],
      [
        "Ġwapiga",
        -9.67724210897609
      ],
      [
        "Ġkujali",
        -9.677633581300924
      ],
      [
        "zungumzia",
        -9.678427306982677
      ],
      [
        "bo",
        -9.679642403212055
      ],
      [
        "Ġhovyo",
        -9.684368610193143
      ],
      [
        "Ġvyanzo",
        -9.68576320127098
      ],
      [
        "kutana",
        -9.685815450766585
      ],
      [
        "iv",
        -9.689252392781247
      ],
      [
        "Ġijumaa",
        -9.690029039386122
      ],
      [
        "Ġmaandalizi",
        -9.690781094447011
      ],
      [
        "hitajika",
        -9.69145851006001
      ],
      [
        "tekeleza",
        -9.691895663888674
      ],
      [
        "Ġpole",
        -9.69217925025447
      ],
      [
        "Ġmkulima",
        -9.693185843078298
      ],
      [
        "Ġkuki",
        -9.693255621632153
      ],
      [
        "Ġjumatatu",
        -9.693448692456148
      ],
      [
        "panga",
        -9.694056154317934
      ],
      [
        "Ġdhana",
        -9.695270462449544
      ],
      [
        "bu",
        -9.695347216735064
      ],
      [
        "ukosefu",
        -9.69578958245226
      ],
      [
        "Ġilipo",
        -9.695968258104086
      ],
      [
        "undwa",
        -9.696902330744043
      ],
      [
        "Ġcan",
        -9.69695919215203
      ],
      [
        "Ġusio",
        -9.69884261521332
      ],
      [
        "tegemea",
        -9.699432706429832
      ],
      [
        "Ġkisa",
        -9.699486086717384
      ],
      [
        "Ġhakuwa",
        -9.699790176323193
      ],
      [
        "Ġmwanasheria",
        -9.70139930560197
      ],
      [
        "Ġmuafaka",
        -9.701629373376113
      ],
      [
        "beba",
        -9.70202591923215
      ],
      [
        "Ġunge",
        -9.702551765611922
      ],
      [
        "Ġvideo",
        -9.703188542468244
      ],
      [
        "Ġwagombea",
        -9.704476054740834
      ],
      [
        "ndo",
        -9.70519682274692
      ],
      [
        "Ġnigeria",
        -9.706655656935652
      ],
      [
        "Ġmuziki",
        -9.706664972498237
      ],
      [
        "anasema",
        -9.707843644127662
      ],
      [
        "Ġfuraha",
        -9.707975570451223
      ],
      [
        "andaa",
        -9.707994081712636
      ],
      [
        "Ġjipya",
        -9.708465488806883
      ],
      [
        "Ġuhai",
        -9.708852629739498
      ],
      [
        "naibu",
        -9.709089816338414
      ],
      [
        "Ġhadharani",
        -9.709771272011618
      ],
      [
        "teuliwa",
        -9.710422706595487
      ],
      [
        "q",
        -9.712230340922304
      ],
      [
        "Ġkukusanya",
        -9.712785330748789
      ],
      [
        "Ġnyongeza",
        -9.713676074260476
      ],
      [
        "Ġsherehe",
        -9.713806532475092
      ],
      [
        "Ġkupita",
        -9.714328700676328
      ],
      [
        "Ġikawa",
        -9.715384379916914
      ],
      [
        "penda",
        -9.716854883199614
      ],
      [
        "Ġufugaji",
        -9.717051944371864
      ],
      [
        "Ġshirikisho",
        -9.718407019934672
      ],
      [
        "jitahidi",
        -9.719018122658763
      ],
      [
        "Ġkuelewa",
        -9.7194590704618
      ],
      [
        "Ġmapigano",
        -9.719974726501595
      ],
      [
        "Ġkukubali",
        -9.720905926440375
      ],
      [
        "Ġkutangaza",
        -9.72135994212498
      ],
      [
        "tawala",
        -9.721508790485755
      ],
      [
        "Ġmashambuliz",
        -9.72181022568562
      ],
      [
        "zingatia",
        -9.721929450151093
      ],
      [
        "Ġzima",
        -9.722082623306456
      ],
      [
        "Ġtaa",
        -9.723267019487334
      ],
      [
        "Ġunapo",
        -9.723269786404131
      ],
      [
        "Ġmme",
        -9.724423988998566
      ],
      [
        "wahi",
        -9.724497815059223
      ],
      [
        "Ġdaktari",
        -9.724684991888354
      ],
      [
        "Ġnafuu",
        -9.726431131452566
      ],
      [
        "Ġmadeni",
        -9.727538550804896
      ],
      [
        "tanzania",
        -9.72823623753148
      ],
      [
        "Ġwafugaji",
        -9.729569400848092
      ],
      [
        "Ġkuwasilisha",
        -9.729575929504383
      ],
      [
        "Ġkatoliki",
        -9.72962795549065
      ],
      [
        "Ġkueleza",
        -9.730208213012254
      ],
      [
        "fungua",
        -9.730302718550089
      ],
      [
        "Ġkingine",
        -9.731402016118228
      ],
      [
        "Ġkusikia",
        -9.732261343313668
      ],
      [
        "Ġtra",
        -9.732480812549284
      ],
      [
        "Ġjua",
        -9.732610046925004
      ],
      [
        "Ġkombe",
        -9.73266693893544
      ],
      [
        "Ġmojawapo",
        -9.732832505086607
      ],
      [
        "Ġ13",
        -9.73347272000594
      ],
      [
        "ripoti",
        -9.734174500472824
      ],
      [
        "Ġdhahabu",
        -9.73511497859282
      ],
      [
        "Ġvyake",
        -9.735308385849502
      ],
      [
        "jumanne",
        -9.735693060231783
      ],
      [
        "fuatilia",
        -9.736229839717623
      ],
      [
        "Ġujao",
        -9.736909001302406
      ],
      [
        "Ġkaka",
        -9.738350664837602
      ],
      [
        "Ġmtaji",
        -9.738649982447685
      ],
      [
        "one",
        -9.739452141296232
      ],
      [
        "do",
        -9.740206817530533
      ],
      [
        "Ġmtaa",
        -9.740900317154711
      ],
      [
        "Ġalama",
        -9.741091421360242
      ],
      [
        "nyimbo",
        -9.741697124188269
      ],
      [
        "Ġinaendelea",
        -9.74249530058468
      ],
      [
        "wewe",
        -9.742844943102748
      ],
      [
        "lipwa",
        -9.743735490563548
      ],
      [
        "Ġlao",
        -9.743808226789916
      ],
      [
        "majaji",
        -9.744608825672636
      ],
      [
        "Ġkiislamu",
        -9.74558380775097
      ],
      [
        "ishia",
        -9.746561728223108
      ],
      [
        "Ġukarabati",
        -9.747242570815732
      ],
      [
        "Ġasiye",
        -9.74809236903049
      ],
      [
        "Ġkipato",
        -9.748446953529658
      ],
      [
        "Ġmawe",
        -9.750751948509182
      ],
      [
        "Ġmwongozo",
        -9.751322838120029
      ],
      [
        "Ġkutolewa",
        -9.751356698711264
      ],
      [
        "Ġwimbo",
        -9.75172632660836
      ],
      [
        "Ġpeople",
        -9.751795370805578
      ],
      [
        "Ġhawawezi",
        -9.752422652837156
      ],
      [
        "natakiwa",
        -9.752489025040427
      ],
      [
        "Ġkumpa",
        -9.75264851667596
      ],
      [
        "Ġmashauri",
        -9.753381074672692
      ],
      [
        "aliongeza",
        -9.754294493790804
      ],
      [
        "Ġ19",
        -9.754943757622769
      ],
      [
        "Ġuliopita",
        -9.75587317467267
      ],
      [
        "Ġjulius",
        -9.755924160171729
      ],
      [
        "hapo",
        -9.755946639959484
      ],
      [
        "Ġmagumu",
        -9.756500632529278
      ],
      [
        "husisha",
        -9.757325117839002
      ],
      [
        "Ġ16",
        -9.757665551886085
      ],
      [
        "Ġwakristo",
        -9.757888933979462
      ],
      [
        "Ġkupatikana",
        -9.758045685944689
      ],
      [
        "Ġmashine",
        -9.758187949218376
      ],
      [
        "Ġukubwa",
        -9.758379537279676
      ],
      [
        "Ġazimio",
        -9.758806521352344
      ],
      [
        "Ġudhibiti",
        -9.759206018084392
      ],
      [
        "huyu",
        -9.761020591536678
      ],
      [
        "Ġinawezekana",
        -9.76162600118126
      ],
      [
        "Ġsija",
        -9.762170484950088
      ],
      [
        "Ġchi",
        -9.762202835498377
      ],
      [
        "Ġmapambano",
        -9.762725383114516
      ],
      [
        "ongoza",
        -9.76273328776883
      ],
      [
        "Ġdhati",
        -9.762902260199391
      ],
      [
        "Ġbarabarani",
        -9.763996411859065
      ],
      [
        "Ġpombe",
        -9.76457315759341
      ],
      [
        "Ġwakala",
        -9.76469839680355
      ],
      [
        "Ġkucheza",
        -9.766107017300437
      ],
      [
        "Ġmaarifa",
        -9.7674587424561
      ],
      [
        "Ġuliopo",
        -9.767486588239128
      ],
      [
        "Ġnyakati",
        -9.768036732884818
      ],
      [
        "Ġkufuatilia",
        -9.76818051164922
      ],
      [
        "Ġupendo",
        -9.768820069619686
      ],
      [
        "Ġzilizopo",
        -9.77012980753784
      ],
      [
        "Ġwaarabu",
        -9.770360154232078
      ],
      [
        "Ġhuja",
        -9.770922333018712
      ],
      [
        "shirika",
        -9.7711738330037
      ],
      [
        "jadili",
        -9.772138705872145
      ],
      [
        "pe",
        -9.772470216052424
      ],
      [
        "Ġhadhi",
        -9.773578405694872
      ],
      [
        "shtakiwa",
        -9.77484388051242
      ],
      [
        "Ġraisi",
        -9.77492289205151
      ],
      [
        "Ġmtazamo",
        -9.775305087898449
      ],
      [
        "Ġkuvi",
        -9.776213861646388
      ],
      [
        "mama",
        -9.77725340662869
      ],
      [
        "Ġinavyo",
        -9.77777211660574
      ],
      [
        "linda",
        -9.778675645284014
      ],
      [
        "Ġuhalifu",
        -9.778959864383822
      ],
      [
        "mfano",
        -9.778990113193496
      ],
      [
        "Ġtathmini",
        -9.779151191448294
      ],
      [
        "Ġbarani",
        -9.779293912823738
      ],
      [
        "Ġyour",
        -9.779447672114747
      ],
      [
        "Ġnami",
        -9.779501956212451
      ],
      [
        "ngo",
        -9.780210285554022
      ],
      [
        "Ġbiblia",
        -9.780351005245675
      ],
      [
        "Ġwazungu",
        -9.780368413751406
      ],
      [
        "Ġkike",
        -9.780526712976018
      ],
      [
        "mar",
        -9.78153592276592
      ],
      [
        "Ġdogo",
        -9.781676161491475
      ],
      [
        "Ġuzito",
        -9.781994516042904
      ],
      [
        "Ġkugombea",
        -9.78224195124011
      ],
      [
        "Ġdec",
        -9.78231302153601
      ],
      [
        "Ġhaiwezi",
        -9.782429161960572
      ],
      [
        "Ġwazalendo",
        -9.783141299341514
      ],
      [
        "Ġhisia",
        -9.783623714871569
      ],
      [
        "Ġkushika",
        -9.783717677947177
      ],
      [
        "pangwa",
        -9.784787855558438
      ],
      [
        "Ġmakusudi",
        -9.785054897252358
      ],
      [
        "Ġurusi",
        -9.78581113961309
      ],
      [
        "Ġmayai",
        -9.786138900037493
      ],
      [
        "Ġmkali",
        -9.787372392321112
      ],
      [
        "Ġthen",
        -9.787664166754318
      ],
      [
        "simama",
        -9.788027423777878
      ],
      [
        "Ġnairobi",
        -9.788783988117633
      ],
      [
        "Ġtunataka",
        -9.791501804995688
      ],
      [
        "Ġtuwe",
        -9.793050549934444
      ],
      [
        "Ġwatawala",
        -9.793484297565438
      ],
      [
        "shwa",
        -9.793648299162246
      ],
      [
        "Ġvirusi",
        -9.79375461633104
      ],
      [
        "Ġ50",
        -9.793853167818964
      ],
      [
        "Ġkupanga",
        -9.79469311453496
      ],
      [
        "Ġmapya",
        -9.795702680974896
      ],
      [
        "unga",
        -9.79663422460381
      ],
      [
        "sho",
        -9.796898116700412
      ],
      [
        "Ġkutetea",
        -9.797744319476598
      ],
      [
        "Ġwenzao",
        -9.799299814156678
      ],
      [
        "Ġinasema",
        -9.799479921007135
      ],
      [
        "husika",
        -9.799724599341973
      ],
      [
        "Ġpapa",
        -9.8008338930653
      ],
      [
        "Ġkutatua",
        -9.80211122674748
      ],
      [
        "aka",
        -9.80240253797839
      ],
      [
        "kimsingi",
        -9.803036884681696
      ],
      [
        "Ġmaelekezo",
        -9.803305984951258
      ],
      [
        "Ġununuzi",
        -9.80335079916838
      ],
      [
        "Ġkamwe",
        -9.806050574147172
      ],
      [
        "Ġkukamilisha",
        -9.80717770370302
      ],
      [
        "Ġofisini",
        -9.809038949147084
      ],
      [
        "Ġ25",
        -9.80965879483404
      ],
      [
        "Ġjk",
        -9.811640193386031
      ],
      [
        "view",
        -9.812047624096769
      ],
      [
        "Ġnazo",
        -9.812054948922912
      ],
      [
        "Ġmadogo",
        -9.812554480163188
      ],
      [
        "Ġkikamilifu",
        -9.812562445098328
      ],
      [
        "endesha",
        -9.812582128797995
      ],
      [
        "Ġpemba",
        -9.814376765823557
      ],
      [
        "00",
        -9.815652243879596
      ],
      [
        "fikiria",
        -9.815899552880044
      ],
      [
        "Ġimesema",
        -9.81612743971157
      ],
      [
        "anzishwa",
        -9.816383034701683
      ],
      [
        "Ġvurugu",
        -9.816484899006678
      ],
      [
        "Ġziada",
        -9.816604669642652
      ],
      [
        "Ġswala",
        -9.816808464983614
      ],
      [
        "Ġgeorge",
        -9.816923917365592
      ],
      [
        "Ġmizigo",
        -9.818452021669437
      ],
      [
        "Ġmapenzi",
        -9.818842806043744
      ],
      [
        "Ġmshahara",
        -9.819281559598416
      ],
      [
        "Ġvikosi",
        -9.82009702007917
      ],
      [
        "ruhusiwa",
        -9.820548201668291
      ],
      [
        "Ġjoto",
        -9.820586969494077
      ],
      [
        "Ġnyaraka",
        -9.820596294042096
      ],
      [
        "Ġnaamini",
        -9.82307315652433
      ],
      [
        "Ġtundu",
        -9.82331125021412
      ],
      [
        "Ġudongo",
        -9.823387275355527
      ],
      [
        "Ġdata",
        -9.823723777678126
      ],
      [
        "Ġngapi",
        -9.82458379201297
      ],
      [
        "ondoka",
        -9.824910511123536
      ],
      [
        "Ġwasomi",
        -9.825509083053868
      ],
      [
        "yaani",
        -9.829437124462109
      ],
      [
        "rudisha",
        -9.830121723765462
      ],
      [
        "Ġpopote",
        -9.830885744530582
      ],
      [
        "Ġkufungua",
        -9.830963831068884
      ],
      [
        "Ġyapo",
        -9.83209388165762
      ],
      [
        "Ġtsh",
        -9.832885115115198
      ],
      [
        "viongozi",
        -9.83299351431017
      ],
      [
        "Ġakizungumza",
        -9.833119635082
      ],
      [
        "lala",
        -9.833431604618188
      ],
      [
        "Ġkuonekana",
        -9.83421205140393
      ],
      [
        "Ġuwepo",
        -9.83480906702878
      ],
      [
        "thibitisha",
        -9.83500846513725
      ],
      [
        "Ġtamko",
        -9.835858513802007
      ],
      [
        "Ġvinginevyo",
        -9.83614081871906
      ],
      [
        "Ġwenzangu",
        -9.836912471913084
      ],
      [
        "Ġhadithi",
        -9.837085350381294
      ],
      [
        "Ġmaandishi",
        -9.837187409729545
      ],
      [
        "Ġkufunga",
        -9.83748729115363
      ],
      [
        "pitisha",
        -9.838573619324784
      ],
      [
        "Ġ201",
        -9.838591962520397
      ],
      [
        "Ġsykes",
        -9.838973014247788
      ],
      [
        "Ġuk",
        -9.83906908275994
      ],
      [
        "Ġjan",
        -9.839088399739277
      ],
      [
        "Ġmashitaka",
        -9.839393304562735
      ],
      [
        "hatua",
        -9.839823243863163
      ],
      [
        "sikiliza",
        -9.840245212300868
      ],
      [
        "Ġmtumishi",
        -9.840495721491278
      ],
      [
        "Ġmbovu",
        -9.840994566515224
      ],
      [
        "Ġkazini",
        -9.841036853787545
      ],
      [
        "kamanda",
        -9.841599816091357
      ],
      [
        "Ġufundi",
        -9.84265402822405
      ],
      [
        "kwenye",
        -9.842731929814216
      ],
      [
        "Ġujuzi",
        -9.843276682101498
      ],
      [
        "chama",
        -9.84334352797173
      ],
      [
        "Ġmitandao",
        -9.84377026947826
      ],
      [
        "Ġ100",
        -9.844355658725313
      ],
      [
        "leseni",
        -9.84452452662451
      ],
      [
        "Ġwajinga",
        -9.847007633687864
      ],
      [
        "ame",
        -9.84787892078396
      ],
      [
        "tembelea",
        -9.84841881823606
      ],
      [
        "Ġmarufuku",
        -9.848659913071383
      ],
      [
        "Ġkiarabu",
        -9.850734800224762
      ],
      [
        "huu",
        -9.851674678010816
      ],
      [
        "Ġipi",
        -9.852966580531488
      ],
      [
        "Ġmakonda",
        -9.853638362353983
      ],
      [
        "ongea",
        -9.853831499508065
      ],
      [
        "Ġchenye",
        -9.855057173003042
      ],
      [
        "Ġkale",
        -9.856178672017966
      ],
      [
        "hakikisha",
        -9.857075709843947
      ],
      [
        "shambulio",
        -9.8581817981891
      ],
      [
        "Ġkinga",
        -9.85904495400754
      ],
      [
        "Ġmema",
        -9.859464126353217
      ],
      [
        "Ġutulivu",
        -9.85970964082533
      ],
      [
        "Ġjumamosi",
        -9.86001065502841
      ],
      [
        "Ġkipaumbele",
        -9.860206998831266
      ],
      [
        "Ġlaki",
        -9.860482298603191
      ],
      [
        "Ġchanjo",
        -9.860911795864231
      ],
      [
        "Ġdada",
        -9.861834014391832
      ],
      [
        "Ġ17",
        -9.862266549489169
      ],
      [
        "jakaya",
        -9.862399328067651
      ],
      [
        "day",
        -9.8625960513121
      ],
      [
        "Ġkulima",
        -9.862710010413725
      ],
      [
        "Ġnov",
        -9.862828379631198
      ],
      [
        "Ġdhahiri",
        -9.863068019075184
      ],
      [
        "Ġkusikiliza",
        -9.863100335541931
      ],
      [
        "sio",
        -9.86356449388631
      ],
      [
        "Ġhatia",
        -9.86361644576576
      ],
      [
        "tenda",
        -9.86369746481868
      ],
      [
        "tazama",
        -9.86399681484515
      ],
      [
        "sahau",
        -9.864249686084417
      ],
      [
        "Ġmkopo",
        -9.86511230507934
      ],
      [
        "Ġibada",
        -9.86538178908909
      ],
      [
        "hayo",
        -9.86554221250619
      ],
      [
        "\",",
        -9.865666012991802
      ],
      [
        "Ġwaumini",
        -9.866416503039966
      ],
      [
        "Ġmilele",
        -9.866454242124467
      ],
      [
        "Ġslaa",
        -9.866967162923771
      ],
      [
        "Ġchumba",
        -9.866976959166314
      ],
      [
        "Ġethiopia",
        -9.867515054833447
      ],
      [
        "Ġkutokuwa",
        -9.86769363481624
      ],
      [
        "Ġwhich",
        -9.868205693565605
      ],
      [
        "Ġinakuwa",
        -9.869300014686347
      ],
      [
        "chagua",
        -9.869826221730444
      ],
      [
        "Ġhaita",
        -9.87133965947362
      ],
      [
        "Ġhasira",
        -9.87254917580976
      ],
      [
        "Ġndoto",
        -9.873032537935629
      ],
      [
        "Ġta",
        -9.873587557712325
      ],
      [
        "Ġdharura",
        -9.873869507572197
      ],
      [
        "Ġviwili",
        -9.873937120331762
      ],
      [
        "Ġulivyo",
        -9.875493297951742
      ],
      [
        "huo",
        -9.875855844878751
      ],
      [
        "Ġvyakula",
        -9.876026104094905
      ],
      [
        "ningependa",
        -9.876247321876196
      ],
      [
        "shinda",
        -9.876560772876124
      ],
      [
        "Ġhuruma",
        -9.876916173658262
      ],
      [
        "Ġzambia",
        -9.878003068555628
      ],
      [
        "ume",
        -9.878940534660783
      ],
      [
        "Ġtheir",
        -9.88013068403335
      ],
      [
        "Ġgo",
        -9.88130062879129
      ],
      [
        "Ġtrump",
        -9.881961153538946
      ],
      [
        "bwana",
        -9.88200409818079
      ],
      [
        "Ġanayo",
        -9.882115342668982
      ],
      [
        "Ġiliyotolewa",
        -9.882356091588456
      ],
      [
        "Ġmatakwa",
        -9.88248133484879
      ],
      [
        "Ġjumatano",
        -9.884168359434671
      ],
      [
        "Ġilani",
        -9.884683991320893
      ],
      [
        "chi",
        -9.885716205997428
      ],
      [
        "wasiliana",
        -9.88623101705948
      ],
      [
        "madiwani",
        -9.887571705137336
      ],
      [
        "Ġtusi",
        -9.888131192877108
      ],
      [
        "Ġdeni",
        -9.88819319475129
      ],
      [
        "Ġkuhifadhi",
        -9.888503410127909
      ],
      [
        "Ġutu",
        -9.889278337138304
      ],
      [
        "shughulikia",
        -9.892003850229424
      ],
      [
        "fahamika",
        -9.892114457520597
      ],
      [
        "ngu",
        -9.892565516224956
      ],
      [
        "cheza",
        -9.892743432477513
      ],
      [
        "Ġushindani",
        -9.892899824340509
      ],
      [
        "Ġugaidi",
        -9.894536655602645
      ],
      [
        "Ġkizazi",
        -9.895398727039344
      ],
      [
        "wizara",
        -9.895404105797072
      ],
      [
        "Ġbinti",
        -9.895456486899826
      ],
      [
        "Ġwazo",
        -9.896113816371733
      ],
      [
        "Ġnya",
        -9.897264592305516
      ],
      [
        "Ġpamba",
        -9.897308642806276
      ],
      [
        "Ġkidini",
        -9.897337112383097
      ],
      [
        "Ġkuvunja",
        -9.89755749772994
      ],
      [
        "Ġinapo",
        -9.89758756648765
      ],
      [
        "Ġwanavyo",
        -9.897741760436904
      ],
      [
        "shitakiwa",
        -9.899074169556096
      ],
      [
        "they",
        -9.899111617337272
      ],
      [
        "Ġurefu",
        -9.89939066345273
      ],
      [
        "Ġubaguzi",
        -9.899885366701012
      ],
      [
        "tupa",
        -9.900535527979676
      ],
      [
        "Ġyanaweza",
        -9.900740370141426
      ],
      [
        "kufa",
        -9.902730514178424
      ],
      [
        "gi",
        -9.903718686204456
      ],
      [
        "Ġjiwe",
        -9.903851984527336
      ],
      [
        "dereva",
        -9.904705217006816
      ],
      [
        "is",
        -9.904706411484732
      ],
      [
        "ongezeka",
        -9.904793498523576
      ],
      [
        "Ġhad",
        -9.90504452122692
      ],
      [
        "Ġmstaafu",
        -9.90549803063479
      ],
      [
        "Ġwanne",
        -9.906365895229923
      ],
      [
        "achwa",
        -9.906866603349258
      ],
      [
        "Ġwere",
        -9.907322386507971
      ],
      [
        "liwa",
        -9.907593759974052
      ],
      [
        "Ġmtakatifu",
        -9.908643999332678
      ],
      [
        "Ġziko",
        -9.90873111592542
      ],
      [
        "Ġnaunga",
        -9.909770758832012
      ],
      [
        "mwa",
        -9.909801677430908
      ],
      [
        "Ġkunipa",
        -9.910582476367797
      ],
      [
        "Ġfikra",
        -9.91198772149804
      ],
      [
        "Ġzinaweza",
        -9.912007461660137
      ],
      [
        "Ġmsemaji",
        -9.912099189603325
      ],
      [
        "Ġmichango",
        -9.912157308095107
      ],
      [
        "kusanya",
        -9.913057092790808
      ],
      [
        "napaswa",
        -9.913813798204757
      ],
      [
        "Ġgovernment",
        -9.913909203358482
      ],
      [
        "moja",
        -9.914130590189137
      ],
      [
        "Ġushuru",
        -9.914402886578078
      ],
      [
        "Ġuvuvi",
        -9.91576780358904
      ],
      [
        "letwa",
        -9.916938520283315
      ],
      [
        "Ġmstari",
        -9.917354028974875
      ],
      [
        "tarajiwa",
        -9.9182223885697
      ],
      [
        "Ġvigezo",
        -9.91845538028418
      ],
      [
        "Ġkitengo",
        -9.91903209849138
      ],
      [
        "Ġmahusiano",
        -9.919074290879015
      ],
      [
        "Ġwhat",
        -9.919516070807866
      ],
      [
        "Ġmakamba",
        -9.919711546657611
      ],
      [
        "Ġkidemokrasia",
        -9.920078963271523
      ],
      [
        "Ġkuunga",
        -9.920115430817685
      ],
      [
        "Ġmaambukizi",
        -9.920390268218137
      ],
      [
        "Ġmo",
        -9.920740319269209
      ],
      [
        "Ġhuna",
        -9.92103635316622
      ],
      [
        "Ġharamu",
        -9.921660680119071
      ],
      [
        "Ġmajadiliano",
        -9.921695472071653
      ],
      [
        "Ġusawa",
        -9.922864396031557
      ],
      [
        "nime",
        -9.923898875680496
      ],
      [
        "Ġmore",
        -9.923979674907114
      ],
      [
        "Ġniki",
        -9.925313002128656
      ],
      [
        "tatizo",
        -9.92574792583414
      ],
      [
        "funga",
        -9.927169690326226
      ],
      [
        "Ġfidia",
        -9.927653018612835
      ],
      [
        "Ġwanayo",
        -9.92807450273546
      ],
      [
        "kabiliwa",
        -9.929093812651075
      ],
      [
        "Ġhoteli",
        -9.929138672867596
      ],
      [
        "Ġnenda",
        -9.930200831290398
      ],
      [
        "Ġchao",
        -9.93028022556162
      ],
      [
        "kisha",
        -9.930651822097824
      ],
      [
        "hadi",
        -9.932211937316314
      ],
      [
        "Ġhayati",
        -9.93221517803191
      ],
      [
        "Ġmapungufu",
        -9.932525318640195
      ],
      [
        "Ġwanajua",
        -9.934490513923969
      ],
      [
        "Ġustawi",
        -9.934552777249932
      ],
      [
        "Ġvikuu",
        -9.9349169659872
      ],
      [
        "Ġally",
        -9.9351286622335
      ],
      [
        "december",
        -9.936193764498272
      ],
      [
        "Ġabdul",
        -9.936414738789194
      ],
      [
        "Ġkocha",
        -9.936467783319058
      ],
      [
        "Ġvigumu",
        -9.936511546291584
      ],
      [
        "Ġmwema",
        -9.937016971570104
      ],
      [
        "Ġel",
        -9.937133820116854
      ],
      [
        "Ġnational",
        -9.937282609367792
      ],
      [
        "wali",
        -9.937423466258034
      ],
      [
        "Ġinabidi",
        -9.93967627454222
      ],
      [
        "uki",
        -9.93981542675142
      ],
      [
        "mwenyekiti",
        -9.9401261006267
      ],
      [
        "kwani",
        -9.940574351294932
      ],
      [
        "Ġmrema",
        -9.940902785459748
      ],
      [
        "Ġunited",
        -9.941303329927608
      ],
      [
        "Ġkuwekeza",
        -9.942052239129495
      ],
      [
        "Ġnalo",
        -9.942525945138762
      ],
      [
        "Ġsumu",
        -9.94269304570504
      ],
      [
        "Ġumasikini",
        -9.942926473828347
      ],
      [
        "mifano",
        -9.943760661254872
      ],
      [
        "haribu",
        -9.945351073105568
      ],
      [
        "Ġcheo",
        -9.945629562227396
      ],
      [
        "iomba",
        -9.94601456821115
      ],
      [
        "Ġkutimiza",
        -9.946950988863458
      ],
      [
        "Ġkushughulikia",
        -9.947209825077913
      ],
      [
        "Ġkuzungumzia",
        -9.947834044198531
      ],
      [
        "Ġjul",
        -9.948518954090035
      ],
      [
        "ndio",
        -9.948577003304072
      ],
      [
        "Ġsomo",
        -9.949555353891531
      ],
      [
        "Ġ21",
        -9.949731316180737
      ],
      [
        "endeleza",
        -9.949858127700807
      ],
      [
        "mbo",
        -9.950665576265768
      ],
      [
        "kamilika",
        -9.95163244419127
      ],
      [
        "Ġmichuano",
        -9.951757771279098
      ],
      [
        "Ġjinsia",
        -9.951846106173337
      ],
      [
        "Ġmitambo",
        -9.952508378028128
      ],
      [
        "Ġmwanachama",
        -9.952596785225506
      ],
      [
        "Ġuelewa",
        -9.952660288721903
      ],
      [
        "Ġbongo",
        -9.954460590421665
      ],
      [
        "Ġninyi",
        -9.954929758808952
      ],
      [
        "katiba",
        -9.955214530146444
      ],
      [
        "sehemu",
        -9.95575686867119
      ],
      [
        "Ġif",
        -9.956388441917053
      ],
      [
        "wengine",
        -9.957009745039244
      ],
      [
        "Ġada",
        -9.957086422319376
      ],
      [
        "Ġmasikini",
        -9.957249441199078
      ],
      [
        "Ġbin",
        -9.957463298118183
      ],
      [
        "Ġmimea",
        -9.957728950265926
      ],
      [
        "or",
        -9.957785373497789
      ],
      [
        "yafuatayo",
        -9.958323182227405
      ],
      [
        "Ġadui",
        -9.958410945065298
      ],
      [
        "Ġmajira",
        -9.959154733107416
      ],
      [
        "punguza",
        -9.959193855907367
      ],
      [
        "Ġmatendo",
        -9.95989849140038
      ],
      [
        "Ġsep",
        -9.96005041095113
      ],
      [
        "Ġmwelekeo",
        -9.96015245635547
      ],
      [
        "Ġabdallah",
        -9.960154675230106
      ],
      [
        "Ġkadi",
        -9.96032437664005
      ],
      [
        "Ġtv",
        -9.961013628626052
      ],
      [
        "endeshwa",
        -9.96105442122326
      ],
      [
        "Ġtaaluma",
        -9.961387158740546
      ],
      [
        "bila",
        -9.96210369709338
      ],
      [
        "Ġuraia",
        -9.962839548197046
      ],
      [
        "Ġkahawa",
        -9.963094883266471
      ],
      [
        "ingiza",
        -9.96327750880604
      ],
      [
        "Ġstars",
        -9.963353451233552
      ],
      [
        "Ġpaul",
        -9.963525776278097
      ],
      [
        "Ġombi",
        -9.963996841131213
      ],
      [
        "Ġjanga",
        -9.964560499115654
      ],
      [
        "Ġjamani",
        -9.965861065889491
      ],
      [
        "Ġunajua",
        -9.967515042509469
      ],
      [
        "tiwa",
        -9.96757124737733
      ],
      [
        "Ġvikwazo",
        -9.967708872725012
      ],
      [
        "Ġhamna",
        -9.969286954564394
      ],
      [
        "Ġishara",
        -9.969392947478768
      ],
      [
        "Ġmikononi",
        -9.970900522802571
      ],
      [
        "Ġsambamba",
        -9.971019350228516
      ],
      [
        "Ġbank",
        -9.971328393974614
      ],
      [
        "Ġmazoezi",
        -9.971484085586177
      ],
      [
        "Ġzimbabwe",
        -9.971511937753895
      ],
      [
        "Ġngozi",
        -9.973512674750602
      ],
      [
        "Ġwilliam",
        -9.974125717360696
      ],
      [
        "Ġbabu",
        -9.975136521140673
      ],
      [
        "Ġendelevu",
        -9.975449877293464
      ],
      [
        "Ġkufanikisha",
        -9.975960584045458
      ],
      [
        "Ġaug",
        -9.97641839670368
      ],
      [
        "kamati",
        -9.976709923216047
      ],
      [
        "Ġvyenye",
        -9.97716549733759
      ],
      [
        "Ġkibali",
        -9.977182680923514
      ],
      [
        "Ġdi",
        -9.977658841746717
      ],
      [
        "Ġoct",
        -9.978038640073503
      ],
      [
        "vyo",
        -9.978537281591306
      ],
      [
        "Ġkupigwa",
        -9.978779252629453
      ],
      [
        "Ġlipo",
        -9.97911410109751
      ],
      [
        "Ġzuri",
        -9.979246749286078
      ],
      [
        "wananchi",
        -9.97959112813768
      ],
      [
        "Ġmbwa",
        -9.979781908946842
      ],
      [
        "Ġbima",
        -9.979953337027412
      ],
      [
        "ari",
        -9.980219736724154
      ],
      [
        "vilevile",
        -9.980954515675217
      ],
      [
        "Ġdubai",
        -9.98127413234304
      ],
      [
        "Ġulipo",
        -9.982709674322678
      ],
      [
        "Ġfungu",
        -9.983512810216729
      ],
      [
        "enea",
        -9.983665530721252
      ],
      [
        "mahakama",
        -9.984145251052777
      ],
      [
        "Ġfilamu",
        -9.98436328472152
      ],
      [
        "Ġvilevile",
        -9.985587443599044
      ],
      [
        "Ġmatatu",
        -9.985914928850931
      ],
      [
        "Ġsukari",
        -9.98630630814294
      ],
      [
        "Ġ22",
        -9.986730414213756
      ],
      [
        "ers",
        -9.987021303965092
      ],
      [
        "Ġyaki",
        -9.987245905796875
      ],
      [
        "sababishwa",
        -9.987907357409656
      ],
      [
        "Ġduni",
        -9.989018700403152
      ],
      [
        "Ġvery",
        -9.989449535391987
      ],
      [
        "Ġanga",
        -9.989835863957037
      ],
      [
        "Ġilisema",
        -9.990186914059825
      ],
      [
        "Ġkorea",
        -9.990823888090356
      ],
      [
        "Ġmbadala",
        -9.991045110127269
      ],
      [
        "Ġmgeni",
        -9.991106294744773
      ],
      [
        "Ġisi",
        -9.99153447574485
      ],
      [
        "Ġmajani",
        -9.99203056582113
      ],
      [
        "Ġpasipo",
        -9.993644231893986
      ],
      [
        "mbi",
        -9.99387066151581
      ],
      [
        "baki",
        -9.99475099842992
      ],
      [
        "agiza",
        -9.994781030307818
      ],
      [
        "uliza",
        -9.994817259512985
      ],
      [
        "Ġmbuzi",
        -9.995410466149837
      ],
      [
        "Ġasante",
        -9.996140021413929
      ],
      [
        "Ġukanda",
        -9.996222548611074
      ],
      [
        "Ġwashington",
        -9.99683112585126
      ],
      [
        "jumuisha",
        -9.997030520510435
      ],
      [
        "Ġkwenu",
        -9.997586237081045
      ],
      [
        "Ġasali",
        -9.998182441892734
      ],
      [
        "Ġapr",
        -9.998439030428177
      ],
      [
        "jambo",
        -9.999787921664357
      ],
      [
        "ies",
        -10.000918541907511
      ],
      [
        "hudumia",
        -10.000956701948768
      ],
      [
        "Ġtzs",
        -10.0009893244458
      ],
      [
        "Ġbao",
        -10.001606740680035
      ],
      [
        "Ġghafla",
        -10.001974084715972
      ],
      [
        "Ġlika",
        -10.002971366724694
      ],
      [
        "Ġjukwaa",
        -10.0032301947419
      ],
      [
        "Ġmsaidizi",
        -10.00375281067729
      ],
      [
        "Ġsomalia",
        -10.005238720720016
      ],
      [
        "Ġtukufu",
        -10.00638310073269
      ],
      [
        "tangu",
        -10.006782732893416
      ],
      [
        "Ġinternational",
        -10.008037451307189
      ],
      [
        "ndiyo",
        -10.008068155520334
      ],
      [
        "Ġikilinganishwa",
        -10.008135500681652
      ],
      [
        "th",
        -10.00817356522052
      ],
      [
        "Ġgeita",
        -10.009556129814223
      ],
      [
        "Ġubalozi",
        -10.010040623620435
      ],
      [
        "anzia",
        -10.01030541556006
      ],
      [
        "Ġtuzo",
        -10.010746219432884
      ],
      [
        "Ġkulia",
        -10.010971157560542
      ],
      [
        "Ġkukata",
        -10.011278290180464
      ],
      [
        "Ġda",
        -10.012957983496776
      ],
      [
        "Ġanajua",
        -10.013622871118772
      ],
      [
        "Ġkuongea",
        -10.013785643887989
      ],
      [
        "mabao",
        -10.013922048311322
      ],
      [
        "uchambuzi",
        -10.014042717482994
      ],
      [
        "waka",
        -10.014858581880414
      ],
      [
        "wasilishwa",
        -10.01487669666062
      ],
      [
        "alikuwa",
        -10.01491779302925
      ],
      [
        "mambo",
        -10.015510333513753
      ],
      [
        "basi",
        -10.015558408092888
      ],
      [
        "dumu",
        -10.016220834729934
      ],
      [
        "futa",
        -10.016560555857792
      ],
      [
        "Ġmageuzi",
        -10.016825363412105
      ],
      [
        "kula",
        -10.017495952572087
      ],
      [
        "Ġukuaji",
        -10.019634735458135
      ],
      [
        "Ġumekuwa",
        -10.020238981303825
      ],
      [
        "Ġbwawa",
        -10.020239100805776
      ],
      [
        "Ġ24",
        -10.021058819955346
      ],
      [
        "Ġfeb",
        -10.021152202293075
      ],
      [
        "sheria",
        -10.02153230940336
      ],
      [
        "Ġkulevya",
        -10.022695289125782
      ],
      [
        "Ġmaridhiano",
        -10.023265473184098
      ],
      [
        "Ġtulikuwa",
        -10.023944740914878
      ],
      [
        "Ġvidogo",
        -10.025411489428732
      ],
      [
        "pewe",
        -10.027027329530933
      ],
      [
        "Ġhawata",
        -10.02709329800465
      ],
      [
        "che",
        -10.027267592983662
      ],
      [
        "Ġkujaribu",
        -10.0275317463786
      ],
      [
        "Ġngoja",
        -10.027615959939322
      ],
      [
        "Ġhebu",
        -10.027636435623736
      ],
      [
        "Ġmshindi",
        -10.028162308845644
      ],
      [
        "Ġingekuwa",
        -10.028224198456572
      ],
      [
        "Ġutajiri",
        -10.02865058558915
      ],
      [
        "Ġsemina",
        -10.028667187826288
      ],
      [
        "elekeza",
        -10.02882017854446
      ],
      [
        "Ġhisa",
        -10.029492869150795
      ],
      [
        "ibuka",
        -10.030770889062808
      ],
      [
        "amesema",
        -10.030796575663596
      ],
      [
        "Ġmr",
        -10.030819885450509
      ],
      [
        "Ġkuuliza",
        -10.030972907524454
      ],
      [
        "Ġuzalendo",
        -10.032592676395303
      ],
      [
        "Ġwamesema",
        -10.032603644769754
      ],
      [
        "Ġkuepuka",
        -10.033231033715762
      ],
      [
        "kabla",
        -10.033587143356316
      ],
      [
        "Ġkuwezesha",
        -10.033744365666692
      ],
      [
        "Ġhaikuwa",
        -10.034287191659534
      ],
      [
        "ndilo",
        -10.03433739103566
      ],
      [
        "Ġle",
        -10.03449782343214
      ],
      [
        "Ġaliwa",
        -10.034822834051248
      ],
      [
        "Ġmakali",
        -10.03560141751746
      ],
      [
        "uturuki",
        -10.035708542991346
      ],
      [
        "iona",
        -10.035767291378995
      ],
      [
        "Ġkubadili",
        -10.036113818949213
      ],
      [
        "Ġmifuko",
        -10.036495934099989
      ],
      [
        "Ġmabasi",
        -10.03688025591202
      ],
      [
        "Ġkubaki",
        -10.03718684339949
      ],
      [
        "Ġutakao",
        -10.037666636144944
      ],
      [
        "Ġwanapata",
        -10.038099289742338
      ],
      [
        "maelfu",
        -10.038227398418996
      ],
      [
        "Ġkilomit",
        -10.038560571614918
      ],
      [
        "Ġkuhamasisha",
        -10.038751957452988
      ],
      [
        "Ġ40",
        -10.038787674066702
      ],
      [
        "Ġseif",
        -10.039745244716816
      ],
      [
        "Ġwapate",
        -10.039823541194004
      ],
      [
        "shwe",
        -10.03998469060844
      ],
      [
        "Ġmsi",
        -10.040052137276389
      ],
      [
        "Ġkuamini",
        -10.040496493802856
      ],
      [
        "Ġkutegemea",
        -10.041795957524789
      ],
      [
        "mtindo",
        -10.042008667317
      ],
      [
        "Ġmsajili",
        -10.042127076492775
      ],
      [
        "Ġkuchagua",
        -10.04222848764018
      ],
      [
        "badili",
        -10.043286864101091
      ],
      [
        "Ġkuta",
        -10.044402432557591
      ],
      [
        "Ġhatuwezi",
        -10.044450055118682
      ],
      [
        "Ġiran",
        -10.045388736444991
      ],
      [
        "Ġkurekebisha",
        -10.045421897761432
      ],
      [
        "Ġhekta",
        -10.045652557273923
      ],
      [
        "Ġkiafrika",
        -10.046218934837595
      ],
      [
        "Ġkb",
        -10.04664585591252
      ],
      [
        "Ġsaini",
        -10.047636793659706
      ],
      [
        "Ġkilikuwa",
        -10.049047836039962
      ],
      [
        "Ġdevelopment",
        -10.05014458383184
      ],
      [
        "imba",
        -10.05038400214458
      ],
      [
        "Ġout",
        -10.051021528721764
      ],
      [
        "Ġwashiriki",
        -10.05113706132937
      ],
      [
        "wafanya",
        -10.051664736726444
      ],
      [
        "chaguliwa",
        -10.051670820279917
      ],
      [
        "Ġjela",
        -10.052514049586902
      ],
      [
        "Ġmikubwa",
        -10.052677321465104
      ],
      [
        "Ġzawadi",
        -10.0528715642232
      ],
      [
        "kamatwa",
        -10.054464128476342
      ],
      [
        "Ġkando",
        -10.054989945156288
      ],
      [
        "Ġmwenendo",
        -10.055703257454104
      ],
      [
        "shuka",
        -10.055725221247462
      ],
      [
        "Ġmti",
        -10.055984065148074
      ],
      [
        "Ġmagereza",
        -10.056343096486822
      ],
      [
        "Ġuwajibikaji",
        -10.057516747737669
      ],
      [
        "Ġwakiwemo",
        -10.057714572589978
      ],
      [
        "Ġmchezaji",
        -10.05992125508074
      ],
      [
        "Ġjinai",
        -10.060384329397744
      ],
      [
        "30",
        -10.060415055314436
      ],
      [
        "Ġwaliyo",
        -10.060543610760927
      ],
      [
        "Ġst",
        -10.060629353526666
      ],
      [
        "Ġninge",
        -10.061279712692231
      ],
      [
        "Ġtemeke",
        -10.061908341586356
      ],
      [
        "âĢĵ",
        -10.0630273405947
      ],
      [
        "Ġshuleni",
        -10.063639243854569
      ],
      [
        "Ġmwanzoni",
        -10.06391962074554
      ],
      [
        "Ġzitakazo",
        -10.06399980422247
      ],
      [
        "20",
        -10.064147555315705
      ],
      [
        "Ġalhamisi",
        -10.064536794402349
      ],
      [
        "hisi",
        -10.064925232008832
      ],
      [
        "kaimu",
        -10.065661598112968
      ],
      [
        "vile",
        -10.06602968722366
      ],
      [
        "Ġwaafrika",
        -10.0660525108384
      ],
      [
        "yeye",
        -10.066637340935898
      ],
      [
        "Ġitikadi",
        -10.067134979084658
      ],
      [
        "Ġaliwahi",
        -10.068008570769155
      ],
      [
        "Ġfa",
        -10.068318372917355
      ],
      [
        "and",
        -10.069721261081057
      ],
      [
        "iba",
        -10.070497428665025
      ],
      [
        "Ġkienyeji",
        -10.070499397294256
      ],
      [
        "hama",
        -10.070779930245
      ],
      [
        "Ġse",
        -10.070952534254443
      ],
      [
        "Ġilivyokuwa",
        -10.07156558383757
      ],
      [
        "Ġpembeni",
        -10.071598115028896
      ],
      [
        "Ġmajambazi",
        -10.071601819998405
      ],
      [
        "funguliwa",
        -10.072448269860324
      ],
      [
        "Ġmatangazo",
        -10.07312818873014
      ],
      [
        "zaidi",
        -10.073674274876367
      ],
      [
        "Ġkiume",
        -10.075175984240516
      ],
      [
        "ion",
        -10.075218630691746
      ],
      [
        "gundua",
        -10.07638323973364
      ],
      [
        "subiri",
        -10.07649539989671
      ],
      [
        "ane",
        -10.076503797142358
      ],
      [
        "Ġinayozungumz",
        -10.076698362693303
      ],
      [
        "Ġmfululizo",
        -10.076813773765185
      ],
      [
        "ngi",
        -10.076837286862943
      ],
      [
        "Ġkutakuwa",
        -10.07722347793495
      ],
      [
        "nzi",
        -10.077248932316689
      ],
      [
        "mfanya",
        -10.077529330248716
      ],
      [
        "Ġzitto",
        -10.07812533691731
      ],
      [
        "Ġshauri",
        -10.078173074603448
      ],
      [
        "kiwemo",
        -10.07836206350599
      ],
      [
        "Ġdaima",
        -10.078674727076352
      ],
      [
        "Ġalipata",
        -10.08009530346041
      ],
      [
        "Ġuwazi",
        -10.08017597529104
      ],
      [
        "Ġuzazi",
        -10.080518050312754
      ],
      [
        "Ġnidhamu",
        -10.080749054413172
      ],
      [
        "Ġametoa",
        -10.08080679026716
      ],
      [
        "Ġuso",
        -10.080849842079315
      ],
      [
        "lima",
        -10.082586347036738
      ],
      [
        "Ġhekima",
        -10.082786171543551
      ],
      [
        "Ġinaonekana",
        -10.083299958995465
      ],
      [
        "Ġzika",
        -10.084448355101037
      ],
      [
        "Ġkuruhusu",
        -10.086159945929182
      ],
      [
        "ve",
        -10.087343406957327
      ],
      [
        "Ġwaislam",
        -10.088207425426315
      ],
      [
        "Ġmaofis",
        -10.089545917335496
      ],
      [
        "Ġsote",
        -10.089887989932617
      ],
      [
        "Ġjun",
        -10.090140442530611
      ],
      [
        "Ġpresident",
        -10.090401137529351
      ],
      [
        "Ġmaumivu",
        -10.090605887371227
      ],
      [
        "Ġkubadilisha",
        -10.090635803886538
      ],
      [
        "Ġfat",
        -10.091533324993003
      ],
      [
        "Ġru",
        -10.091717796878456
      ],
      [
        "lengo",
        -10.091896722309029
      ],
      [
        "Ġhawajui",
        -10.09219794792804
      ],
      [
        "Ġanafanya",
        -10.092538249817022
      ],
      [
        "Ġsitta",
        -10.092586229480274
      ],
      [
        "athiri",
        -10.09291656881086
      ],
      [
        "bomu",
        -10.093094120029114
      ],
      [
        "fikiri",
        -10.09427745108359
      ],
      [
        "11",
        -10.09428935893617
      ],
      [
        "Ġnafikiri",
        -10.094304335330404
      ],
      [
        "Ġkifupi",
        -10.095441847313884
      ],
      [
        "polisi",
        -10.095816802991193
      ],
      [
        "Ġukurasa",
        -10.096127122971811
      ],
      [
        "Ġkifedha",
        -10.096221376752103
      ],
      [
        "Ġjames",
        -10.096258507097124
      ],
      [
        "Ġshukrani",
        -10.0965271536583
      ],
      [
        "jaji",
        -10.096547883681978
      ],
      [
        "Ġupepo",
        -10.096934325394315
      ],
      [
        "Ġhauna",
        -10.097182880899602
      ],
      [
        "Ġkinondoni",
        -10.09760678939488
      ],
      [
        "Ġjingine",
        -10.098425542977782
      ],
      [
        "Ġwasanii",
        -10.098919247326087
      ],
      [
        "Ġwadudu",
        -10.099057891655333
      ],
      [
        "patiwa",
        -10.099073900836432
      ],
      [
        "Ġtelevisheni",
        -10.0995044296797
      ],
      [
        "tetea",
        -10.099787304769816
      ],
      [
        "Ġmume",
        -10.100164148097535
      ],
      [
        "Ġalifanya",
        -10.100797899707551
      ],
      [
        "Ġpeter",
        -10.100829389242769
      ],
      [
        "Ġbendera",
        -10.101129262775135
      ],
      [
        "Ġkikatiba",
        -10.102458168663722
      ],
      [
        "Ġkibao",
        -10.103028611696397
      ],
      [
        "jeruhiwa",
        -10.10303582685185
      ],
      [
        "Ġhouse",
        -10.10308972937228
      ],
      [
        "Ġheri",
        -10.10432069623629
      ],
      [
        "katibu",
        -10.104529110969834
      ],
      [
        "vo",
        -10.105286967093829
      ],
      [
        "Ġkuwawezesha",
        -10.1053137930758
      ],
      [
        "Ġmgonjwa",
        -10.105512335263205
      ],
      [
        "Ġuharibifu",
        -10.106187948522384
      ],
      [
        "12",
        -10.10619488386994
      ],
      [
        "Ġkuchunguza",
        -10.10653813436032
      ],
      [
        "Ġmarafiki",
        -10.107433955097587
      ],
      [
        "Ġkurejea",
        -10.108830723866868
      ],
      [
        "Ġkulipwa",
        -10.109413388094806
      ],
      [
        "kwamba",
        -10.10981189034078
      ],
      [
        "tekelezwa",
        -10.109908319076643
      ],
      [
        "bidi",
        -10.110899996579056
      ],
      [
        "Ġwatano",
        -10.111596724205231
      ],
      [
        "Ġmaagizo",
        -10.11161981123628
      ],
      [
        "Ġmafisadi",
        -10.112070558825454
      ],
      [
        "mwanaume",
        -10.112540872620066
      ],
      [
        "Ġmadarasa",
        -10.113124731589606
      ],
      [
        "uzwa",
        -10.113677792414093
      ],
      [
        "pili",
        -10.113706125004107
      ],
      [
        "Ġum",
        -10.11401330224616
      ],
      [
        "Ġwatanganyika",
        -10.114432753233215
      ],
      [
        "kupitisha",
        -10.115323902485976
      ],
      [
        "ity",
        -10.116691154116392
      ],
      [
        "ama",
        -10.1167934988162
      ],
      [
        "tuma",
        -10.117057925382706
      ],
      [
        "Ġufumbuz",
        -10.11706142667457
      ],
      [
        "Ġmwao",
        -10.1172017054109
      ],
      [
        "Ġmwenzake",
        -10.118225999977092
      ],
      [
        "akasema",
        -10.11826207085346
      ],
      [
        "Ġbudi",
        -10.118445638376173
      ],
      [
        "hesabu",
        -10.119074815634308
      ],
      [
        "Ġmitaani",
        -10.119104428483045
      ],
      [
        "shirikiana",
        -10.119304209460156
      ],
      [
        "wale",
        -10.119732243046586
      ],
      [
        "Ġiweze",
        -10.119752231234935
      ],
      [
        "Ġstate",
        -10.120512992704697
      ],
      [
        "Ġdaudi",
        -10.120665444711568
      ],
      [
        "Ġmisitu",
        -10.121279033270104
      ],
      [
        "Ġmka",
        -10.121411634383358
      ],
      [
        "tengenezwa",
        -10.12160673172048
      ],
      [
        "ungana",
        -10.122487711143028
      ],
      [
        "Ġmashaka",
        -10.123080789126364
      ],
      [
        "Ġfomu",
        -10.123220094459777
      ],
      [
        "Ġtunao",
        -10.1232308585492
      ],
      [
        "Ġmlango",
        -10.123340184790864
      ],
      [
        "Ġtafsiri",
        -10.123549180128428
      ],
      [
        "Ġour",
        -10.123724461398645
      ],
      [
        "potea",
        -10.124909532091868
      ],
      [
        "Ġkiserikali",
        -10.125031360602277
      ],
      [
        "Ġredio",
        -10.125913507459648
      ],
      [
        "nina",
        -10.125990242821128
      ],
      [
        "Ġmwanga",
        -10.126534003358376
      ],
      [
        "baba",
        -10.127393548054732
      ],
      [
        "Ġ27",
        -10.127485615834692
      ],
      [
        "when",
        -10.127606489508256
      ],
      [
        "hoji",
        -10.127839498030884
      ],
      [
        "operesheni",
        -10.128310794464152
      ],
      [
        "Ġulemavu",
        -10.129005415412744
      ],
      [
        "Ġkorosho",
        -10.129027822580356
      ],
      [
        "nadhani",
        -10.129114511326453
      ],
      [
        "Ġkupima",
        -10.12912573201463
      ],
      [
        "Ġwaraka",
        -10.129828786981284
      ],
      [
        "Ġtajiri",
        -10.13000918545366
      ],
      [
        "Ġwamesha",
        -10.130756980979404
      ],
      [
        "usi",
        -10.130800871694657
      ],
      [
        "ton",
        -10.1308483321424
      ],
      [
        "Ġmatusi",
        -10.1308924873783
      ],
      [
        "Ġuliofanyik",
        -10.13119215516505
      ],
      [
        "Ġamerika",
        -10.131669874501512
      ],
      [
        "elekea",
        -10.132495144249406
      ],
      [
        "anze",
        -10.132858584021545
      ],
      [
        "Ġliko",
        -10.132916812904089
      ],
      [
        "Ġkuzaliwa",
        -10.133205234431957
      ],
      [
        "Ġbar",
        -10.133357105933104
      ],
      [
        "Ġeast",
        -10.134918064644568
      ],
      [
        "Ġkijijini",
        -10.135811643487918
      ],
      [
        "Ġ2000",
        -10.137492805486495
      ],
      [
        "badilika",
        -10.138169301310484
      ],
      [
        "Ġmsamaha",
        -10.13852194251749
      ],
      [
        "Ġkuchaguliwa",
        -10.138654671918804
      ],
      [
        "bunge",
        -10.13910862789654
      ],
      [
        "Ġusafi",
        -10.139542723638709
      ],
      [
        "ndi",
        -10.1396873536605
      ],
      [
        "kweli",
        -10.140154105987898
      ],
      [
        "du",
        -10.140442124959558
      ],
      [
        "napenda",
        -10.140445435439894
      ],
      [
        "Ġany",
        -10.141001409066744
      ],
      [
        "Ġwasichan",
        -10.14190192951054
      ],
      [
        "Ġmakabila",
        -10.142395770368486
      ],
      [
        "Ġminne",
        -10.142432139896966
      ],
      [
        "Ġusafirishaji",
        -10.142628156275704
      ],
      [
        "Ġmahojiano",
        -10.142871248068168
      ],
      [
        "Ġx",
        -10.143042211914649
      ],
      [
        "thi",
        -10.1433302341137
      ],
      [
        "shauri",
        -10.143536440226688
      ],
      [
        "itaka",
        -10.143884940494749
      ],
      [
        "ndugu",
        -10.143970355053394
      ],
      [
        "Ġwaliopo",
        -10.144495080176709
      ],
      [
        "mbali",
        -10.145361827602962
      ],
      [
        "Ġalijibu",
        -10.146845844806242
      ],
      [
        "wezesha",
        -10.147247942226835
      ],
      [
        "kidato",
        -10.149143066431368
      ],
      [
        "Ġmachache",
        -10.149220435645354
      ],
      [
        "Ġdhamira",
        -10.150385853785831
      ],
      [
        "nyi",
        -10.150436975695015
      ],
      [
        "Ġufalme",
        -10.151172115389622
      ],
      [
        "Ġtuweze",
        -10.152000474261165
      ],
      [
        "malizika",
        -10.153999164296824
      ],
      [
        "kimbia",
        -10.15419206269947
      ],
      [
        "Ġco",
        -10.15496227114229
      ],
      [
        "Ġmbinguni",
        -10.155242509634874
      ],
      [
        "Ġcharles",
        -10.155300346049522
      ],
      [
        "wezekana",
        -10.155828631084097
      ],
      [
        "Ġshetani",
        -10.155944051276029
      ],
      [
        "Ġinahitaji",
        -10.156024651176828
      ],
      [
        "ingawa",
        -10.156921830537982
      ],
      [
        "husu",
        -10.15701564334731
      ],
      [
        "Ġpost",
        -10.157208056874303
      ],
      [
        "Ġtunayo",
        -10.158413603495728
      ],
      [
        "Ġmlima",
        -10.15894166819176
      ],
      [
        "Ġmbio",
        -10.159601678705586
      ],
      [
        "Ġmaliasili",
        -10.159829579923317
      ],
      [
        "Ġsema",
        -10.160126947455588
      ],
      [
        "Ġkukamilika",
        -10.160193892633876
      ],
      [
        "shambulia",
        -10.160261364159156
      ],
      [
        "Ġmitihani",
        -10.160269181916322
      ],
      [
        "Ġomar",
        -10.160634886409468
      ],
      [
        "Ġasilia",
        -10.16138554301051
      ],
      [
        "Ġits",
        -10.16176677704251
      ],
      [
        "Ġipasavyo",
        -10.162166636115993
      ],
      [
        "Ġkunywa",
        -10.162216924639411
      ],
      [
        "Ġvisiwani",
        -10.162262029979626
      ],
      [
        "Ġhamu",
        -10.162866174419488
      ],
      [
        "Ġnikiwa",
        -10.16312588113158
      ],
      [
        "Ġkufahamu",
        -10.163460178269442
      ],
      [
        "Ġmw",
        -10.163894976271484
      ],
      [
        "hoja",
        -10.165535604091104
      ],
      [
        "Ġahsante",
        -10.165726882087812
      ],
      [
        "jali",
        -10.166208928812992
      ],
      [
        "Ġtuko",
        -10.166441355210113
      ],
      [
        "Ġdrc",
        -10.166928742810098
      ],
      [
        "aki",
        -10.167163365212025
      ],
      [
        "kiri",
        -10.168038294959826
      ],
      [
        "Ġwazanzibari",
        -10.168513462017586
      ],
      [
        "karibia",
        -10.168953098723517
      ],
      [
        "Ġuhamiaji",
        -10.169119615290969
      ],
      [
        "Ġsm",
        -10.169492135878915
      ],
      [
        "Ġyatakayo",
        -10.17010195046955
      ],
      [
        "land",
        -10.17028450873554
      ],
      [
        "Ġuchungu",
        -10.170344680888638
      ],
      [
        "ghasi",
        -10.17207908778276
      ],
      [
        "Ġ26",
        -10.172492659852372
      ],
      [
        "Ġbagamoyo",
        -10.173330809474148
      ],
      [
        "Ġkuifanya",
        -10.174856508123156
      ],
      [
        "Ġwashirika",
        -10.175225390333658
      ],
      [
        "Ġ23",
        -10.176327884779807
      ],
      [
        "ary",
        -10.176818352143192
      ],
      [
        "Ġsugu",
        -10.176904138168403
      ],
      [
        "Ġtumbo",
        -10.177245522233754
      ],
      [
        "upelelezi",
        -10.17733897539619
      ],
      [
        "Ġkw",
        -10.178100092239818
      ],
      [
        "liona",
        -10.178778796252589
      ],
      [
        "ata",
        -10.178821352787311
      ],
      [
        "Ġkutunga",
        -10.178943476355144
      ],
      [
        "zalisha",
        -10.179416939926398
      ],
      [
        "Ġja",
        -10.179624559164472
      ],
      [
        "Ġukoloni",
        -10.179669318747202
      ],
      [
        "Ġmafa",
        -10.179837364222736
      ],
      [
        "meamua",
        -10.180021634272467
      ],
      [
        "Ġsongea",
        -10.180550077520197
      ],
      [
        "ine",
        -10.180752146247302
      ],
      [
        "asasi",
        -10.181032806253713
      ],
      [
        "ende",
        -10.181120531066096
      ],
      [
        "geuka",
        -10.181364835191545
      ],
      [
        "fuatayo",
        -10.18138313037721
      ],
      [
        "akamwambia",
        -10.18187906460746
      ],
      [
        "Ġvyetu",
        -10.182214373480164
      ],
      [
        "Ġmalawi",
        -10.182288604747663
      ],
      [
        "Ġtawi",
        -10.184160506894104
      ],
      [
        "Ġwahamiaji",
        -10.184253135500017
      ],
      [
        "ahidi",
        -10.184872924085523
      ],
      [
        "Ġpato",
        -10.184982107788883
      ],
      [
        "Ġfani",
        -10.185817372940216
      ],
      [
        "Ġkukataa",
        -10.186079582309864
      ],
      [
        "Ġwanaishi",
        -10.186353152047849
      ],
      [
        "kuta",
        -10.186525355914249
      ],
      [
        "Ġwanaendelea",
        -10.186647049025082
      ],
      [
        "samia",
        -10.187379545506632
      ],
      [
        "Ġkuthibitisha",
        -10.18792543868634
      ],
      [
        "Ġ197",
        -10.188258859850905
      ],
      [
        "Ġutata",
        -10.188261551984027
      ],
      [
        "Ġmaiti",
        -10.189419250589305
      ],
      [
        "Ġsadaka",
        -10.189787510521668
      ],
      [
        "Ġmajaribio",
        -10.190577046865668
      ],
      [
        "Ġwakawa",
        -10.191040880693862
      ],
      [
        "Ġtl",
        -10.191813253471596
      ],
      [
        "kuanzishwa",
        -10.191940295393325
      ],
      [
        "Ġtutakuwa",
        -10.192366139693284
      ],
      [
        "Ġnjombe",
        -10.19271381348921
      ],
      [
        "ifikapo",
        -10.194147747627373
      ],
      [
        "Ġudhaifu",
        -10.195101119506305
      ],
      [
        "Ġgeneral",
        -10.195473989562217
      ],
      [
        "Ġkichwani",
        -10.19651179423296
      ],
      [
        "Ġrobert",
        -10.197799642881614
      ],
      [
        "ter",
        -10.19793446087527
      ],
      [
        "Ġhazija",
        -10.198658131434051
      ],
      [
        "Ġfasihi",
        -10.198973185048064
      ],
      [
        "sajiliwa",
        -10.19916099163586
      ],
      [
        "pambana",
        -10.199766382797884
      ],
      [
        "Ġmaharage",
        -10.200363267519746
      ],
      [
        "%",
        -10.201003449757392
      ],
      [
        "kwisha",
        -10.201084522996949
      ],
      [
        "Ġmuhimbili",
        -10.201320624119589
      ],
      [
        "ongelea",
        -10.201443938042669
      ],
      [
        "Ġlowassa",
        -10.202322868399747
      ],
      [
        "=",
        -10.202533283398497
      ],
      [
        "Ġabout",
        -10.202636521905465
      ],
      [
        "Ġwanaoishi",
        -10.203226307665648
      ],
      [
        "Ġmanunuzi",
        -10.20352845516867
      ],
      [
        "nccr",
        -10.203864107954368
      ],
      [
        "Ġpongezi",
        -10.204472094273733
      ],
      [
        "Ġhawataki",
        -10.20457421502516
      ],
      [
        "Ġndefu",
        -10.205160814378392
      ],
      [
        "uma",
        -10.205729733569516
      ],
      [
        "ondolewa",
        -10.20585461491567
      ],
      [
        "Ġwenyeji",
        -10.206973419582416
      ],
      [
        "Ġmwendo",
        -10.20708169340567
      ],
      [
        "Ġfainali",
        -10.207164498107518
      ],
      [
        "Ġmwamba",
        -10.207323043012902
      ],
      [
        "Ġmkononi",
        -10.207437538749538
      ],
      [
        "Ġmzozo",
        -10.20764307715437
      ],
      [
        "Ġchuma",
        -10.207767790351404
      ],
      [
        "Ġwezi",
        -10.207994344063309
      ],
      [
        "Ġukombozi",
        -10.208043328375
      ],
      [
        "pigania",
        -10.208728062467303
      ],
      [
        "Ġchetu",
        -10.209586256427151
      ],
      [
        "gharimu",
        -10.209929610193104
      ],
      [
        "Ġkume",
        -10.210281422503735
      ],
      [
        "iii",
        -10.211129770410103
      ],
      [
        "Ġ28",
        -10.211177123459445
      ],
      [
        "Ġhussein",
        -10.211738508492637
      ],
      [
        "Ġmaafa",
        -10.213467857523105
      ],
      [
        "Ġinatoa",
        -10.214249518391684
      ],
      [
        "kusudia",
        -10.215468168389217
      ],
      [
        "Ġunion",
        -10.215474221995535
      ],
      [
        "eli",
        -10.21595708660265
      ],
      [
        "Ġnape",
        -10.21610948310768
      ],
      [
        "Ġwakurugenzi",
        -10.216361813557876
      ],
      [
        "Ġkusambaza",
        -10.21708177902316
      ],
      [
        "Ġakiba",
        -10.217694196991507
      ],
      [
        "Ġbukoba",
        -10.217838616086798
      ],
      [
        "Ġasia",
        -10.218296053383344
      ],
      [
        "Ġinafanya",
        -10.218702701490166
      ],
      [
        "ongezea",
        -10.219006585430838
      ],
      [
        "Ġlike",
        -10.219716239491625
      ],
      [
        "Ġmedia",
        -10.219762242252724
      ],
      [
        "Ġzimekuwa",
        -10.220060686149116
      ],
      [
        "Ġufahamu",
        -10.220857435286243
      ],
      [
        "Ġhatuja",
        -10.221004511512016
      ],
      [
        "Ġother",
        -10.221651523892268
      ],
      [
        "Ġruvuma",
        -10.222052512049355
      ],
      [
        "Ġwalioko",
        -10.222638467005234
      ],
      [
        "15",
        -10.222727271723532
      ],
      [
        "Ġparty",
        -10.2237373800231
      ],
      [
        "gwa",
        -10.224380686237966
      ],
      [
        "hudumu",
        -10.224410060146472
      ],
      [
        "st",
        -10.22513672001181
      ],
      [
        "Ġgood",
        -10.225375606369816
      ],
      [
        "Ġambae",
        -10.22543479736855
      ],
      [
        "Ġtulio",
        -10.225911076487511
      ],
      [
        "Ġvyeo",
        -10.226142059998653
      ],
      [
        "Ġmauzo",
        -10.227315613415014
      ],
      [
        "Ġmaradhi",
        -10.227341881016542
      ],
      [
        "chadema",
        -10.227884523188614
      ],
      [
        "ogopa",
        -10.227937464792662
      ],
      [
        "Ġmpunga",
        -10.229589604006485
      ],
      [
        "kicheko",
        -10.229933647559946
      ],
      [
        "ikiwa",
        -10.230188856613507
      ],
      [
        "tatu",
        -10.231049238798146
      ],
      [
        "Ġ198",
        -10.231884747140557
      ],
      [
        "jan",
        -10.232106125415802
      ],
      [
        "Ġwanatumia",
        -10.233150947163278
      ],
      [
        "Ġbaridi",
        -10.233525188754902
      ],
      [
        "Ġzozote",
        -10.234180469076302
      ],
      [
        "Ġkuwapatia",
        -10.23419481521205
      ],
      [
        "madhumuni",
        -10.234339231425665
      ],
      [
        "Ġilala",
        -10.234655928762146
      ],
      [
        "Ġunguja",
        -10.235072066965612
      ],
      [
        "Ġkuteuliwa",
        -10.23581361034697
      ],
      [
        "Ġunaendelea",
        -10.235879733543044
      ],
      [
        "Ġaweze",
        -10.237374989611972
      ],
      [
        "Ġwapalestina",
        -10.237765685607656
      ],
      [
        "Ġtuone",
        -10.238292263874218
      ],
      [
        "maanisha",
        -10.238543599311496
      ],
      [
        "Ġmatengenezo",
        -10.238826663405568
      ],
      [
        "Ġmwanadamu",
        -10.238888954162132
      ],
      [
        "lisha",
        -10.239079583207936
      ],
      [
        "Ġlondon",
        -10.239230271841825
      ],
      [
        "akitoa",
        -10.239442132523784
      ],
      [
        "Ġkufanikiwa",
        -10.239831343677228
      ],
      [
        "Ġmb",
        -10.23993431064717
      ],
      [
        "Ġmilima",
        -10.241048537815727
      ],
      [
        "19",
        -10.241421188790824
      ],
      [
        "diwani",
        -10.241884199891764
      ],
      [
        "Ġpower",
        -10.241889555056744
      ],
      [
        "Ġkamba",
        -10.243177813821667
      ],
      [
        "Ġcon",
        -10.243300684076472
      ],
      [
        "semekana",
        -10.243549304626562
      ],
      [
        "Ġkimarekani",
        -10.24533884152082
      ],
      [
        "Ġover",
        -10.245710770776917
      ],
      [
        "Ġniseme",
        -10.245931151652814
      ],
      [
        "mbona",
        -10.245933275747564
      ],
      [
        "Ġmm",
        -10.24620333553849
      ],
      [
        "Ġalianza",
        -10.246704469786415
      ],
      [
        "Ġunavyo",
        -10.246974934786795
      ],
      [
        "Ġngono",
        -10.246988290386186
      ],
      [
        "Ġmaduka",
        -10.247328860794308
      ],
      [
        "Ġmki",
        -10.248154091461192
      ],
      [
        "aga",
        -10.24831592688596
      ],
      [
        "ripotiwa",
        -10.248778314149746
      ],
      [
        "Ġkipengele",
        -10.249065514618504
      ],
      [
        "Ġanavyo",
        -10.249319333776585
      ],
      [
        "Ġchawa",
        -10.250095796707596
      ],
      [
        "Ġonly",
        -10.25104314240392
      ],
      [
        "zwa",
        -10.251498192707638
      ],
      [
        "Ġuhaba",
        -10.2516844586168
      ],
      [
        "achiwa",
        -10.25271955341484
      ],
      [
        "ho",
        -10.253436876739691
      ],
      [
        "Ġlami",
        -10.25383546508343
      ],
      [
        "Ġmwake",
        -10.253958627222314
      ],
      [
        "Ġaisee",
        -10.254356302239628
      ],
      [
        "Ġmwanasiasa",
        -10.254443519163706
      ],
      [
        "Ġkubaini",
        -10.254991721121492
      ],
      [
        "ndu",
        -10.255379153489589
      ],
      [
        "Ġhadhara",
        -10.255925225316936
      ],
      [
        "Ġkufuta",
        -10.256244028063753
      ],
      [
        "rs",
        -10.256680487888522
      ],
      [
        "shikilia",
        -10.256824988704002
      ],
      [
        "changanya",
        -10.2569572789741
      ],
      [
        "able",
        -10.257415120374953
      ],
      [
        "hitimu",
        -10.257701341221573
      ],
      [
        "Ġbenjamin",
        -10.258689106191737
      ],
      [
        "tarajia",
        -10.25901671321522
      ],
      [
        "badilisha",
        -10.259099297470648
      ],
      [
        "gusa",
        -10.259891317450798
      ],
      [
        "Ġvipengele",
        -10.260019226288795
      ],
      [
        "Ġdira",
        -10.26011392071648
      ],
      [
        "chelewa",
        -10.260589930561183
      ],
      [
        "Ġkutoku",
        -10.26082322297476
      ],
      [
        "Ġkuingiza",
        -10.261168263588957
      ],
      [
        "Ġnafsi",
        -10.261255369770955
      ],
      [
        "mawakili",
        -10.2614064330194
      ],
      [
        "Ġinaonyesha",
        -10.262203288384992
      ],
      [
        "Ġimeendelea",
        -10.262410154322133
      ],
      [
        "14",
        -10.263202180258528
      ],
      [
        "fafanua",
        -10.263287256925697
      ],
      [
        "Ġwayahudi",
        -10.263696748301252
      ],
      [
        "Ġkukamatwa",
        -10.263704139904236
      ],
      [
        "Ġmchungaji",
        -10.264242249428268
      ],
      [
        "Ġkuwekwa",
        -10.264648373498773
      ],
      [
        "Ġmwekezaji",
        -10.264842983634022
      ],
      [
        "Ġlisu",
        -10.265353134968596
      ],
      [
        "Ġlema",
        -10.265646107219013
      ],
      [
        "anguka",
        -10.266110019485104
      ],
      [
        "ratiba",
        -10.266442563018504
      ],
      [
        "Ġkusimama",
        -10.266570576136273
      ],
      [
        "ratibu",
        -10.267002497315923
      ],
      [
        "Ġmaaskofu",
        -10.26800454688658
      ],
      [
        "Ġcdm",
        -10.268830333690095
      ],
      [
        "Ġmsumbiji",
        -10.269239952593132
      ],
      [
        "Ġwapya",
        -10.2693998937376
      ],
      [
        "Ġnajua",
        -10.26945022493462
      ],
      [
        "mbe",
        -10.269985284129408
      ],
      [
        "mtuhumiwa",
        -10.269986956956084
      ],
      [
        "Ġkumpongeza",
        -10.271595822362158
      ],
      [
        "ĠâĢĺ",
        -10.272300426430307
      ],
      [
        "tamka",
        -10.272884576093592
      ],
      [
        "Ġkufungwa",
        -10.273235987914738
      ],
      [
        "Ġyamekuwa",
        -10.273386641086685
      ],
      [
        "Ġcountry",
        -10.273705594527469
      ],
      [
        "Ġmda",
        -10.27445318438036
      ],
      [
        "Ġsalim",
        -10.27458708349938
      ],
      [
        "asi",
        -10.274690870806747
      ],
      [
        "Ġkufikiri",
        -10.274999684112451
      ],
      [
        "Ġkutenda",
        -10.275081532081815
      ],
      [
        "Ġthere",
        -10.275617890855845
      ],
      [
        "Ġmboga",
        -10.276834554774071
      ],
      [
        "athirika",
        -10.277523177758946
      ],
      [
        "uta",
        -10.277524492180987
      ],
      [
        "Ġmgongo",
        -10.27757404779409
      ],
      [
        "fanyia",
        -10.27775723307683
      ],
      [
        "maji",
        -10.278829057524243
      ],
      [
        "Ġwafanye",
        -10.279072914288662
      ],
      [
        "eni",
        -10.279268726276232
      ],
      [
        "Ġyork",
        -10.279733753525113
      ],
      [
        "ent",
        -10.280137057890716
      ],
      [
        "Ġjenerali",
        -10.28155698806811
      ],
      [
        "umbali",
        -10.281667510522247
      ],
      [
        "Ġshambani",
        -10.282163142988988
      ],
      [
        "wengi",
        -10.282808158855584
      ],
      [
        "sababu",
        -10.282861129617354
      ],
      [
        "eleweka",
        -10.283226266286096
      ],
      [
        "akaunti",
        -10.283232006464644
      ],
      [
        "Ġkutembelea",
        -10.283734394099746
      ],
      [
        "Ġkukua",
        -10.284130647255443
      ],
      [
        "pate",
        -10.28420125242873
      ],
      [
        "nja",
        -10.284846533579117
      ],
      [
        "Ġkompyuta",
        -10.285106158722217
      ],
      [
        "Ġnasema",
        -10.285241849366864
      ],
      [
        "wakilisha",
        -10.2855198170214
      ],
      [
        "Ġudini",
        -10.28569855909462
      ],
      [
        "Ġkadri",
        -10.285888989928264
      ],
      [
        "Ġkujitegemea",
        -10.28592195216014
      ],
      [
        "Ġmtihani",
        -10.28657565435405
      ],
      [
        "Ġfupi",
        -10.286749491507976
      ],
      [
        "kwe",
        -10.28701443953463
      ],
      [
        "Ġhome",
        -10.287481184395848
      ],
      [
        "ota",
        -10.287631882551532
      ],
      [
        "Ġchaguzi",
        -10.287702842019112
      ],
      [
        "Ġga",
        -10.287867513247257
      ],
      [
        "Ġham",
        -10.288050398802518
      ],
      [
        "bainika",
        -10.288519311424524
      ],
      [
        "Ġkilomet",
        -10.288743134235286
      ],
      [
        "Ġkiki",
        -10.289249915414167
      ],
      [
        "com",
        -10.28929893304613
      ],
      [
        "Ġalim",
        -10.289982045356684
      ],
      [
        "kubalika",
        -10.29110597295396
      ],
      [
        "Ġsystem",
        -10.29209896570976
      ],
      [
        "Ġnakala",
        -10.292576156924737
      ],
      [
        "alafu",
        -10.293888659564566
      ],
      [
        "Ġjapan",
        -10.294035863943256
      ],
      [
        "Ġkuhudhuria",
        -10.294557110930729
      ],
      [
        "Ġlkn",
        -10.294700154065744
      ],
      [
        "Ġpindi",
        -10.295137266171237
      ],
      [
        "Ġye",
        -10.295152527293125
      ],
      [
        "Ġmalaria",
        -10.295591889701528
      ],
      [
        "faulu",
        -10.295880250283382
      ],
      [
        "Ġahmed",
        -10.296178845013042
      ],
      [
        "Ġzabuni",
        -10.29641542780628
      ],
      [
        "fikishwa",
        -10.296795371867187
      ],
      [
        "Ġmzazi",
        -10.296873623418644
      ],
      [
        "shahada",
        -10.296957334731822
      ],
      [
        "Ġpage",
        -10.297326665486104
      ],
      [
        "kiongozi",
        -10.298138447888467
      ],
      [
        "mkutano",
        -10.29825297728237
      ],
      [
        "Ġnafaka",
        -10.298275222970824
      ],
      [
        "Ġkulala",
        -10.298469193145404
      ],
      [
        "Ġpublic",
        -10.298912396723436
      ],
      [
        "________________",
        -10.298955275714327
      ],
      [
        "Ġkuiba",
        -10.298963827640833
      ],
      [
        "heshimu",
        -10.299718679076264
      ],
      [
        "kamishna",
        -10.300400373229808
      ],
      [
        "Ġlinaweza",
        -10.300481244010111
      ],
      [
        "jengea",
        -10.300499227099598
      ],
      [
        "mali",
        -10.300556266466238
      ],
      [
        "some",
        -10.30087778654786
      ],
      [
        "dr",
        -10.302277729239204
      ],
      [
        "Ġunga",
        -10.3024971800059
      ],
      [
        "mbunge",
        -10.302841499330569
      ],
      [
        "ment",
        -10.303049731612198
      ],
      [
        "Ġushawishi",
        -10.303722558474632
      ],
      [
        "kiuka",
        -10.304213266198648
      ],
      [
        "Ġpembejeo",
        -10.304625822840674
      ],
      [
        "Ġmaabara",
        -10.30478569472014
      ],
      [
        "apa",
        -10.305204315385788
      ],
      [
        "Ġitakapo",
        -10.305389322706796
      ],
      [
        "Ġinatakiwa",
        -10.306008148796476
      ],
      [
        "Ġkasoro",
        -10.306121043380552
      ],
      [
        "tembea",
        -10.306143307886678
      ],
      [
        "halafu",
        -10.306331805537068
      ],
      [
        "gavana",
        -10.306855366371543
      ],
      [
        "Ġtozo",
        -10.306889624108756
      ],
      [
        "Ġshe",
        -10.307886644889008
      ],
      [
        "Ġzahanati",
        -10.309268010270811
      ],
      [
        "Ġsame",
        -10.309534505190994
      ],
      [
        "Ġbo",
        -10.309750135399302
      ],
      [
        "Ġtupo",
        -10.30986156190674
      ],
      [
        "Ġchato",
        -10.310522971044758
      ],
      [
        "Ġkuingilia",
        -10.311195832703255
      ],
      [
        "Ġday",
        -10.311262786162324
      ],
      [
        "jina",
        -10.311381155882527
      ],
      [
        "Ġradhi",
        -10.31306675951284
      ],
      [
        "Ġkujitokeza",
        -10.31337917141093
      ],
      [
        "trilioni",
        -10.31360400798485
      ],
      [
        "awali",
        -10.313726395178112
      ],
      [
        "hilo",
        -10.314120901009854
      ],
      [
        "matarajio",
        -10.314280925205937
      ],
      [
        "Ġkariakoo",
        -10.314641383623025
      ],
      [
        "Ġbunduki",
        -10.315154433148605
      ],
      [
        "Ġmohammed",
        -10.315173885497288
      ],
      [
        "ajenda",
        -10.31519940592906
      ],
      [
        "Ġsu",
        -10.315405174064352
      ],
      [
        "saini",
        -10.315800359000267
      ],
      [
        "ingizwa",
        -10.315949886170149
      ],
      [
        "Ġvisiwa",
        -10.316012308996386
      ],
      [
        "tambuliwa",
        -10.316101527108888
      ],
      [
        "Ġmachozi",
        -10.316212296079474
      ],
      [
        "Ġkiwanja",
        -10.316348106720993
      ],
      [
        "Ġbaraka",
        -10.316788692487664
      ],
      [
        "Ġ202",
        -10.31699255456478
      ],
      [
        "Ġnashukuru",
        -10.318238461706882
      ],
      [
        "Ġkufanywa",
        -10.319048995156251
      ],
      [
        "Ġkuchukuliwa",
        -10.31942500865973
      ],
      [
        "Ġndicho",
        -10.320347930846625
      ],
      [
        "Ġvipindi",
        -10.320812987272491
      ],
      [
        "Ġlipumba",
        -10.320897240767795
      ],
      [
        "Ġmamilioni",
        -10.32143709597958
      ],
      [
        "watumiaji",
        -10.321554141619806
      ],
      [
        "Ġkusubiri",
        -10.322089794976392
      ],
      [
        "albamu",
        -10.323410427632558
      ],
      [
        "shukuru",
        -10.323566935960796
      ],
      [
        "Ġper",
        -10.323572422010852
      ],
      [
        "Ġmtaani",
        -10.324280442052116
      ],
      [
        "Ġwema",
        -10.324674615176315
      ],
      [
        "Ġanae",
        -10.325725352275356
      ],
      [
        "Ġalikua",
        -10.3259524279556
      ],
      [
        "vizazi",
        -10.326478627590337
      ],
      [
        "ce",
        -10.328132061102831
      ],
      [
        "Ġmiche",
        -10.32835908631009
      ],
      [
        "Ġhajui",
        -10.328760816738187
      ],
      [
        "hifadhi",
        -10.329179059323511
      ],
      [
        "Ġhaiwezekani",
        -10.32934724192602
      ],
      [
        "Ġmagu",
        -10.32962530628559
      ],
      [
        "Ġmanyara",
        -10.329958110392615
      ],
      [
        "Ġofisa",
        -10.330235466043607
      ],
      [
        "tosha",
        -10.330311631875874
      ],
      [
        "nyenzo",
        -10.330439644397924
      ],
      [
        "kidhi",
        -10.331136319077174
      ],
      [
        "Ġmahakimu",
        -10.33114173830473
      ],
      [
        "stahiki",
        -10.33189954872458
      ],
      [
        "Ġlote",
        -10.33300447883155
      ],
      [
        "vuta",
        -10.333052969958516
      ],
      [
        "Ġukame",
        -10.333088778037396
      ],
      [
        "timu",
        -10.333446805501987
      ],
      [
        "Ġmakanisa",
        -10.333680165750334
      ],
      [
        "Ġbush",
        -10.33374497439413
      ],
      [
        "Ġrekodi",
        -10.334013940888552
      ],
      [
        "by",
        -10.334279108051827
      ],
      [
        "Ġnyota",
        -10.334582126281514
      ],
      [
        "Ġnzito",
        -10.335216206563588
      ],
      [
        "Ġovyo",
        -10.335258306142444
      ],
      [
        "zuka",
        -10.335415590351689
      ],
      [
        "Ġlaw",
        -10.335427102943395
      ],
      [
        "been",
        -10.335608925593345
      ],
      [
        "Ġmtoa",
        -10.33643848575984
      ],
      [
        "mzee",
        -10.33660677858434
      ],
      [
        "Ġvichwa",
        -10.336862649788758
      ],
      [
        "Ġothers",
        -10.33702458713208
      ],
      [
        "tumikia",
        -10.33727535576649
      ],
      [
        "Ġimetoa",
        -10.337693552939726
      ],
      [
        "nani",
        -10.338283450294169
      ],
      [
        "13",
        -10.33840217052941
      ],
      [
        "Ġhayana",
        -10.338712731339417
      ],
      [
        "Ġupuuzi",
        -10.338971786599926
      ],
      [
        "fikisha",
        -10.339348744528293
      ],
      [
        "ovu",
        -10.339618156739146
      ],
      [
        "wapiganaji",
        -10.33966799092948
      ],
      [
        "aje",
        -10.339817492557485
      ],
      [
        "Ġhawakuwa",
        -10.339832637053618
      ],
      [
        "falme",
        -10.339848229177791
      ],
      [
        "Ġcoast",
        -10.34023157205014
      ],
      [
        "chukulia",
        -10.340679792844536
      ],
      [
        "Ġuislamu",
        -10.340935781618056
      ],
      [
        "pg",
        -10.340980860987187
      ],
      [
        "kufanyiwa",
        -10.341041474758434
      ],
      [
        "Ġpana",
        -10.341150710437477
      ],
      [
        "Ġtunaomba",
        -10.341406703846063
      ],
      [
        "matokeo",
        -10.342291406461165
      ],
      [
        "kumalizika",
        -10.34264115176902
      ],
      [
        "Ġmeneja",
        -10.342804050385936
      ],
      [
        "bovu",
        -10.3429767016995
      ],
      [
        "Ġmfanyabiashara",
        -10.34381515728339
      ],
      [
        "Ġimeanza",
        -10.34438803147276
      ],
      [
        "Ġtafadhali",
        -10.344997120806584
      ],
      [
        "il",
        -10.34502893836676
      ],
      [
        "Ġsouth",
        -10.345269863715284
      ],
      [
        "Ġzifuatazo",
        -10.34574157466666
      ],
      [
        "Ġra",
        -10.34667601311076
      ],
      [
        "Ġzilizokuwa",
        -10.346712072006817
      ],
      [
        "ile",
        -10.347220742176106
      ],
      [
        "Ġraha",
        -10.347328975107558
      ],
      [
        "Ġvifaranga",
        -10.347564717742982
      ],
      [
        "kosea",
        -10.348099765236718
      ],
      [
        "2001",
        -10.348233665283107
      ],
      [
        "zunguka",
        -10.348966555543676
      ],
      [
        "Ġmsikiti",
        -10.34965438170132
      ],
      [
        "Ġche",
        -10.35019118133346
      ],
      [
        "Ġvifungu",
        -10.35033661546414
      ],
      [
        "nyo",
        -10.351136245356704
      ],
      [
        "Ġking",
        -10.351334679561017
      ],
      [
        "alieleza",
        -10.351705804905714
      ],
      [
        "Ġvitisho",
        -10.352477036544556
      ],
      [
        "also",
        -10.352766427469687
      ],
      [
        "Ġgroup",
        -10.35289366834546
      ],
      [
        "Ġbusiness",
        -10.35290655740872
      ],
      [
        "Ġtupu",
        -10.353478833268005
      ],
      [
        "tunga",
        -10.35361751124659
      ],
      [
        "timiza",
        -10.353885817842473
      ],
      [
        "Ġkihistoria",
        -10.35396960032552
      ],
      [
        "Ġmateso",
        -10.354334265564084
      ],
      [
        "safiri",
        -10.354697887428784
      ],
      [
        "Ġhamad",
        -10.355229305754143
      ],
      [
        "Ġhauja",
        -10.355666636448785
      ],
      [
        "Ġmila",
        -10.355894652129807
      ],
      [
        "Ġngoma",
        -10.35602459405123
      ],
      [
        "lazwa",
        -10.356041983581989
      ],
      [
        "Ġkiroho",
        -10.356726527204858
      ],
      [
        "Ġwaendelee",
        -10.356889914143505
      ],
      [
        "Ġmteja",
        -10.357154464615371
      ],
      [
        "Ġmakadirio",
        -10.357443097323737
      ],
      [
        "Ġpolitical",
        -10.358049931738147
      ],
      [
        "tuli",
        -10.35807493583015
      ],
      [
        "wote",
        -10.358808834511652
      ],
      [
        "ambatana",
        -10.359412354516738
      ],
      [
        "Ġjo",
        -10.359441408181432
      ],
      [
        "Ġkumu",
        -10.359500394886368
      ],
      [
        "Ġafghanistan",
        -10.359634140091696
      ],
      [
        "Ġkuharibu",
        -10.359818983419832
      ],
      [
        "Ġmaria",
        -10.360324722052631
      ],
      [
        "Ġalie",
        -10.360432769934542
      ],
[...]
