{
  "version": "1.0",
  "truncation": null,
  "padding": null,
  "added_tokens": [
    {
      "id": 0,
      "content": "<s>",
      "single_word": false,
      "lstrip": false,
      "rstrip": false,
      "normalized": false,
      "special": true
    },
    {
      "id": 1,
      "content": "</s>",
      "single_word": false,
      "lstrip": false,
      "rstrip": false,
      "normalized": false,
      "special": true
    },
    {
      "id": 2,
      "content": "<unk>",
      "single_word": false,
      "lstrip": false,
      "rstrip": false,
      "normalized": false,
      "special": true
    },
    {
      "id": 3,
      "content": "<pad>",
      "single_word": false,
      "lstrip": false,
      "rstrip": false,
      "normalized": false,
      "special": true
    },
    {
      "id": 4,
      "content": "<mask>",
      "single_word": false,
      "lstrip": false,
      "rstrip": false,
      "normalized": false,
      "special": true
    },
    {
      "id": 5,
      "content": "<sw>",
      "single_word": false,
      "lstrip": false,
      "rstrip": false,
      "normalized": false,
      "special": true
    },
    {
      "id": 6,
      "content": "<eot>",
      "single_word": false,
      "lstrip": false,
      "rstrip": false,
      "normalized": false,
      "special": true
    }
  ],
  "normalizer": {
    "type": "Sequence",
    "normalizers": [
      {
        "type": "NFD"
      },
      {
        "type": "Lowercase"
      },
      {
        "type": "StripAccents"
      }
    ]
  },
  "pre_tokenizer": {
    "type": "ByteLevel",
    "add_prefix_space": false,
    "trim_offsets": true,
    "use_regex": true
  },
  "post_processor": {
    "type": "ByteLevel",
    "add_prefix_space": true,
    "trim_offsets": false,
    "use_regex": true
  },
  "decoder": {
    "type": "ByteLevel",
    "add_prefix_space": true,
    "trim_offsets": true,
    "use_regex": true
  },
  "model": {
    "type": "Unigram",
    "unk_id": 2,
    "vocab": [
      [
        "<s>",
        0.0
      ],
      [
        "</s>",
        0.0
      ],
      [
        "<unk>",
        0.0
      ],
      [
        "<pad>",
        0.0
      ],
      [
        "<mask>",
        0.0
      ],
      [
        "<sw>",
        0.0
      ],
      [
        "<eot>",
        0.0
      ],
      [
        "Ġ",
        -2.932049607944851
      ],
      [
        "č",
        -3.2585119886942913
      ],
      [
        "Ċ",
        -3.2585119886942913
      ],
      [
        "Ġya",
        -3.513297985293931
      ],
      [
        ",",
        -3.5401147952048877
      ],
      [
        ".",
        -3.555723279697675
      ],
      [
        "Ġna",
        -3.5586475858412143
      ],
      [
        "Ġwa",
        -3.739513711859683
      ],
      [
        "Ġkwa",
        -4.408946380664652
      ],
      [
        "a",
        -4.503628533357457
      ],
      [
        "Ġni",
        -4.808737292019439
      ],
      [
        "Ġkatika",
        -5.137748142130885
      ],
      [
        "Ġza",
        -5.167233667620989
      ],
      [
        "i",
        -5.228337920774244
      ],
      [
        "(",
        -5.269752033258106
      ],
      [
        "Ġla",
        -5.292224523821785
      ],
      [
        "Ġkuwa",
        -5.395411110239648
      ],
      [
        "Ġku",
        -5.4042153800304735
      ],
      [
        "-",
        -5.4058155588960375
      ],
      [
        ")",
        -5.481511865244416
      ],
      [
        "o",
        -5.558504878131359
      ],
      [
        ":",
        -5.562890528105331
      ],
      [
        "s",
        -5.5674899953795975
      ],
      [
        "\"",
        -5.5892152860514415
      ],
      [
        "'",
        -5.754506230693563
      ],
      [
        "Ġcha",
        -5.758138449520917
      ],
      [
        "Ġkama",
        -5.7967610236408245
      ],
      [
        "u",
        -5.816490993531236
      ],
      [
        "ni",
        -5.936889725644303
      ],
      [
        "e",
        -6.032512458733736
      ],
      [
        "Ġkwenye",
        -6.056944515048814
      ],
      [
        "wa",
        -6.074272061545825
      ],
      [
        "Ġhiyo",
        -6.177995964419642
      ],
      [
        "na",
        -6.199096336723191
      ],
      [
        "Ġili",
        -6.228814185537564
      ],
      [
        "?",
        -6.268830812323976
      ],
      [
        "Ġyake",
        -6.338655069384043
      ],
      [
        "/",
        -6.34797971301046
      ],
      [
        "Ġtu",
        -6.366819266216355
      ],
      [
        "Ġwatu",
        -6.377359259259471
      ],
      [
        "Ġau",
        -6.436882256003681
      ],
      [
        "Ġm",
        -6.448743398002099
      ],
      [
        "Ġkwamba",
        -6.46741679738901
      ],
      [
        "Ġsana",
        -6.489045890408388
      ],
      [
        "Ġwakati",
        -6.496399327766714
      ],
      [
        "Ġhii",
        -6.502346034208372
      ],
      [
        "Ġvya",
        -6.520850425784095
      ],
      [
        "Ġlakini",
        -6.611058212027002
      ],
      [
        "Ġzaidi",
        -6.61109232158911
      ],
      [
        "Ġthe",
        -6.61786308661657
      ],
      [
        "Ġwake",
        -6.622771761696539
      ],
      [
        "Ġki",
        -6.633800226542066
      ],
      [
        "n",
        -6.640440201417308
      ],
      [
        "m",
        -6.652308296316276
      ],
      [
        "Ġkutoka",
        -6.652682112579731
      ],
      [
        "Ġkazi",
        -6.675648455437781
      ],
      [
        "!",
        -6.6856298579721525
      ],
      [
        "Ġserikali",
        -6.695722533785279
      ],
      [
        "Ġbaada",
        -6.705988013630817
      ],
      [
        "d",
        -6.714339157649153
      ],
      [
        "Ġtanzania",
        -6.7215609122296485
      ],
      [
        "Ġsasa",
        -6.7215615412993674
      ],
      [
        "Ġto",
        -6.726885375485622
      ],
      [
        "Ġhivyo",
        -6.734887280332076
      ],
      [
        "Ġma",
        -6.745743771069687
      ],
      [
        "Ġmwaka",
        -6.753207769825488
      ],
      [
        "Ġmkuu",
        -6.7853122835635755
      ],
      [
        "Ġnchi",
        -6.78949740936757
      ],
      [
        "Ġhata",
        -6.792455606942919
      ],
      [
        "y",
        -6.795081643661415
      ],
      [
        "Ġsiku",
        -6.797745641165525
      ],
      [
        "Ġkila",
        -6.812141632945176
      ],
      [
        "Ġpia",
        -6.816008276685793
      ],
      [
        "Ġhuo",
        -6.822715372880497
      ],
      [
        "Ġmoja",
        -6.868856568837048
      ],
      [
        "Ġali",
        -6.882207029472031
      ],
      [
        "Ġpamoja",
        -6.883642448183032
      ],
      [
        "Ġmungu",
        -6.887259775733073
      ],
      [
        ";",
        -6.888007024351227
      ],
      [
        "Ġwana",
        -6.901988529600681
      ],
      [
        "Ġana",
        -6.91050442151748
      ],
      [
        "Ġjuu",
        -6.924988424206891
      ],
      [
        "Ġambayo",
        -6.936734855421317
      ],
      [
        "Ġina",
        -6.9405081519159175
      ],
      [
        "Ġnchini",
        -6.942279595438251
      ],
      [
        "Ġmtu",
        -6.96205272523663
      ],
      [
        "t",
        -6.986667099048152
      ],
      [
        "Ġhilo",
        -6.989359050958912
      ],
      [
        "Ġrais",
        -7.024202444471779
      ],
      [
        "Ġof",
        -7.039144051171929
      ],
      [
        "Ġmara",
        -7.064347630560729
      ],
      [
        "Ġhabari",
        -7.089057261244831
      ],
      [
        "Ġkufanya",
        -7.095585725748309
      ],
      [
        "Ġkuna",
        -7.100137218537913
      ],
      [
        "Ġhuu",
        -7.104202106179727
      ],
      [
        "Ġleo",
        -7.1105620746602405
      ],
      [
        "Ġin",
        -7.111598315582338
      ],
      [
        "Ġsi",
        -7.127714840516591
      ],
      [
        "Ġambao",
        -7.1425458867204625
      ],
      [
        "Ġand",
        -7.154103175635633
      ],
      [
        "kwa",
        -7.156077401228432
      ],
      [
        "ya",
        -7.159684269014749
      ],
      [
        "Ġalisema",
        -7.166040610026354
      ],
      [
        "Ġndani",
        -7.199767317739628
      ],
      [
        "Ġsababu",
        -7.201856065260509
      ],
      [
        "Ġhapa",
        -7.228070005545193
      ],
      [
        "Ġhu",
        -7.229801494404798
      ],
      [
        "Ġuna",
        -7.239726958072673
      ],
      [
        "k",
        -7.243390826084958
      ],
      [
        "Ġame",
        -7.252114545754672
      ],
      [
        "Ġdar",
        -7.257363254396536
      ],
      [
        "Ġhali",
        -7.263049673254645
      ],
      [
        "Ġhayo",
        -7.264370958548435
      ],
      [
        "Ġkubwa",
        -7.279316899490603
      ],
      [
        "Ġwananchi",
        -7.281058300529882
      ],
      [
        "Ġmambo",
        -7.281501010370139
      ],
      [
        "Ġyako",
        -7.282025610409562
      ],
      [
        "Ġkwanza",
        -7.293861142450369
      ],
      [
        "Ġwao",
        -7.297852517076372
      ],
      [
        "Ġmaana",
        -7.3113902567065185
      ],
      [
        "Ġwote",
        -7.315104802876784
      ],
      [
        "Ġyao",
        -7.316699405178561
      ],
      [
        "Ġmiaka",
        -7.320980684006958
      ],
      [
        "1",
        -7.3214925540771425
      ],
      [
        "Ġhuyo",
        -7.3336008572208815
      ],
      [
        "Ġkuhusu",
        -7.346664220663936
      ],
      [
        "Ġmuda",
        -7.355812143425769
      ],
      [
        "ku",
        -7.3683460962153795
      ],
      [
        "c",
        -7.373755696776751
      ],
      [
        "ji",
        -7.380270232018161
      ],
      [
        "Ġtaifa",
        -7.380847982838571
      ],
      [
        "Ġime",
        -7.382050877949494
      ],
      [
        "Ġes",
        -7.395828383695436
      ],
      [
        "Ġkati",
        -7.39744611837528
      ],
      [
        "ka",
        -7.4092035701299235
      ],
      [
        "#",
        -7.411343735439132
      ],
      [
        "Ġchama",
        -7.412970062935917
      ],
      [
        "Ġkuu",
        -7.415567028387072
      ],
      [
        "Ġka",
        -7.415677196565925
      ],
      [
        "Ġmu",
        -7.418936054251651
      ],
      [
        "Ġwaziri",
        -7.421687735431789
      ],
      [
        "Ġbila",
        -7.433600122256401
      ],
      [
        "Ġhadi",
        -7.43555868341784
      ],
      [
        "Ġwengi",
        -7.445397189847597
      ],
      [
        "l",
        -7.455182157293676
      ],
      [
        "Ġmwa",
        -7.462167344363792
      ],
      [
        "Ġmaisha",
        -7.466268178877472
      ],
      [
        "Ġajili",
        -7.467575211944549
      ],
      [
        "Ġmmoja",
        -7.468363587746925
      ],
      [
        "Ġndio",
        -7.478595713865955
      ],
      [
        "Ġccm",
        -7.479632019841558
      ],
      [
        "Ġhao",
        -7.480335421965396
      ],
      [
        "Ġsalaam",
        -7.488410157472163
      ],
      [
        "Ġkupata",
        -7.491135754066768
      ],
      [
        "Ġhivi",
        -7.504800761672637
      ],
      [
        "Ġambaye",
        -7.507229000221258
      ],
      [
        "ma",
        -7.5089869747789955
      ],
      [
        "Ġhizo",
        -7.509612830436772
      ],
      [
        "Ġkweli",
        -7.517507750915074
      ],
      [
        "Ġmbalimbali",
        -7.522390600744595
      ],
      [
        "Ġhili",
        -7.522664000593187
      ],
      [
        "Ġfedha",
        -7.534937938457667
      ],
      [
        "Ġwalio",
        -7.546150443105132
      ],
      [
        "Ġaki",
        -7.546649849022357
      ],
      [
        "Ġn",
        -7.5492746048424255
      ],
      [
        "Ġhapo",
        -7.553695019489814
      ],
      [
        "ki",
        -7.557369112546825
      ],
      [
        "Ġwengine",
        -7.563911377143235
      ],
      [
        "h",
        -7.567409246037846
      ],
      [
        "Ġ1",
        -7.580739426858521
      ],
      [
        "Ġwatoto",
        -7.58831918717919
      ],
      [
        "Ġhuku",
        -7.588818412222949
      ],
      [
        "2",
        -7.591086185584503
      ],
      [
        "Ġkutoa",
        -7.591218374528998
      ],
      [
        "Ġambapo",
        -7.606737132136063
      ],
      [
        "Ġzao",
        -7.6083629571862765
      ],
      [
        "r",
        -7.60892884140504
      ],
      [
        "Ġmaji",
        -7.614690066720776
      ],
      [
        "Ġnini",
        -7.615499867047317
      ],
      [
        "Ġchini",
        -7.622955291036874
      ],
      [
        "Ġnjia",
        -7.627370695482861
      ],
      [
        "Ġnafasi",
        -7.630513063504782
      ],
      [
        "Ġwewe",
        -7.632020139545949
      ],
      [
        "Ġ2",
        -7.632354645623577
      ],
      [
        "w",
        -7.633594081606674
      ],
      [
        "la",
        -7.6363854144128975
      ],
      [
        "Ġtena",
        -7.641919147298378
      ],
      [
        "),",
        -7.644137872037929
      ],
      [
        "Ġhatua",
        -7.6483692054186
      ],
      [
        "Ġbasi",
        -7.650308484449464
      ],
      [
        "Ġkutokana",
        -7.654229475652521
      ],
      [
        "je",
        -7.655774198702929
      ],
      [
        "Ġby",
        -7.655902067703483
      ],
      [
        "Ġhuduma",
        -7.657999187822531
      ],
      [
        ").",
        -7.6590208692435375
      ],
      [
        "Ġnje",
        -7.661915456015986
      ],
      [
        "Ġmkoa",
        -7.664607188912227
      ],
      [
        "Ġsheria",
        -7.667255532245823
      ],
      [
        "Ġalikuwa",
        -7.669500369379277
      ],
      [
        "Ġyetu",
        -7.669580494420751
      ],
      [
        "Ġkitu",
        -7.675193858335643
      ],
      [
        "Ġwame",
        -7.676114835212244
      ],
      [
        "Ġzote",
        -7.684509145928782
      ],
      [
        "b",
        -7.688944675110195
      ],
      [
        "Ġafrika",
        -7.688993003580427
      ],
      [
        "Ġmpya",
        -7.693376955074774
      ],
      [
        "Ġkabisa",
        -7.694131618852619
      ],
      [
        "Ġsehemu",
        -7.70004669583545
      ],
      [
        "Ġbora",
        -7.707314811413122
      ],
      [
        "zi",
        -7.707561467174676
      ],
      [
        "Ġamesema",
        -7.71490462553364
      ],
      [
        "Ġwenye",
        -7.717332215651529
      ],
      [
        "Ġhaya",
        -7.717404300760485
      ],
      [
        "Ġviongozi",
        -7.720278071277358
      ],
      [
        "Ġis",
        -7.7207741615083805
      ],
      [
        "3",
        -7.72466944930496
      ],
      [
        "[",
        -7.72469675599072
      ],
      [
        "Ġmimi",
        -7.728889435992231
      ],
      [
        "Ġyote",
        -7.733911856019905
      ],
      [
        "Ġzanzibar",
        -7.739344963394528
      ],
      [
        "Ġhawa",
        -7.743351521134979
      ],
      [
        "Ġmaendeleo",
        -7.747524086073977
      ],
      [
        "we",
        -7.748321602420349
      ],
      [
        "Ġnyingi",
        -7.74899643714909
      ],
      [
        "Ġtaarifa",
        -7.749270657882258
      ],
      [
        "Ġjamii",
        -7.752512265640226
      ],
      [
        "Ġyangu",
        -7.754255681217309
      ],
      [
        "Ġhaki",
        -7.757035742356042
      ],
      [
        "Ġwako",
        -7.759676777139026
      ],
      [
        "Ġikiwa",
        -7.76950562258908
      ],
      [
        "Ġyeye",
        -7.773702823003454
      ],
      [
        "Ġbaadhi",
        -7.773874019266314
      ],
      [
        "Ġkupitia",
        -7.783015082371728
      ],
      [
        "Ġbado",
        -7.785972134556525
      ],
      [
        "ed",
        -7.786404818831
      ],
      [
        "Ġbiashara",
        -7.787675431196655
      ],
      [
        "]",
        -7.793517066214715
      ],
      [
        "Ġwilaya",
        -7.795593659266928
      ],
      [
        "Ġkabla",
        -7.796737552944252
      ],
      [
        "Ġmuhimu",
        -7.7973190785305935
      ],
      [
        "Ġon",
        -7.799036866894573
      ],
      [
        "Ġwanao",
        -7.806210179202646
      ],
      [
        ".\"",
        -7.807934419060885
      ],
      [
        "Ġhakuna",
        -7.808556384176741
      ],
      [
        "Ġwali",
        -7.813212464026362
      ],
      [
        "Ġkutumia",
        -7.813265364635424
      ],
      [
        "Ġjijini",
        -7.814208471233755
      ],
      [
        "Ġelimu",
        -7.817494820415149
      ],
      [
        "za",
        -7.821698278409667
      ],
      [
        "Ġtuna",
        -7.825208203857533
      ],
      [
        "Ġwetu",
        -7.829363048345467
      ],
      [
        "Ġaka",
        -7.830346525609059
      ],
      [
        "Ġume",
        -7.831515436469816
      ],
      [
        "Ġaliye",
        -7.834065492329801
      ],
      [
        "Ġnyingine",
        -7.834359742597961
      ],
      [
        "ing",
        -7.834827171776027
      ],
      [
        "Ġsio",
        -7.8368272262969345
      ],
      [
        "Ġjambo",
        -7.837756319410445
      ],
      [
        "Ġuchaguzi",
        -7.839032496579664
      ],
      [
        "+",
        -7.842924313595539
      ],
      [
        "Ġhicho",
        -7.844547745194884
      ],
      [
        "Ġeneo",
        -7.84800049729083
      ],
      [
        "Ġtimu",
        -7.848852425437368
      ],
      [
        "Ġba",
        -7.849316197163322
      ],
      [
        "Ġakiwa",
        -7.849378563386669
      ],
      [
        "g",
        -7.849643794564287
      ],
      [
        "Ġzake",
        -7.850915615395536
      ],
      [
        "Ġkwani",
        -7.854885201263022
      ],
      [
        "Ġpolisi",
        -7.860326509268653
      ],
      [
        "Ġ3",
        -7.862119063165709
      ],
      [
        "Ġhuko",
        -7.863275839225715
      ],
      [
        "Ġiliyo",
        -7.864556309381726
      ],
      [
        "Ġafya",
        -7.871501207521524
      ],
      [
        "Ġmpaka",
        -7.873630887288687
      ],
      [
        "Ġpicha",
        -7.8905051384014655
      ],
      [
        "Ġdhidi",
        -7.898879328750018
      ],
      [
        "Ġvile",
        -7.90096811982437
      ],
      [
        "Ġmi",
        -7.908717062008829
      ],
      [
        "z",
        -7.909233700578081
      ],
      [
        "f",
        -7.916091676486424
      ],
      [
        "Ġkwenda",
        -7.916601537273227
      ],
      [
        "Ġmbili",
        -7.921742590625305
      ],
      [
        "Ġfor",
        -7.923616925771922
      ],
      [
        "Ġnguvu",
        -7.928278774857311
      ],
      [
        "Ġata",
        -7.929413963094982
      ],
      [
        "Ġ10",
        -7.931544088244708
      ],
      [
        "Ġmbali",
        -7.935604286222418
      ],
      [
        "4",
        -7.937346534088823
      ],
      [
        "Ġgani",
        -7.938078842056155
      ],
      [
        "Ġaina",
        -7.951089643523376
      ],
      [
        "Ġmama",
        -7.951129766767419
      ],
      [
        "Ġmjini",
        -7.956720199855429
      ],
      [
        "Ġlazima",
        -7.958367585225181
      ],
      [
        "Ġwale",
        -7.960519237046025
      ],
      [
        "Ġshule",
        -7.964651690035721
      ],
      [
        "Ġwaki",
        -7.9715206562048575
      ],
      [
        "Ġmwisho",
        -7.974376357697366
      ],
      [
        "5",
        -7.975936676389713
      ],
      [
        "Ġmkubwa",
        -7.978893768617702
      ],
      [
        "Ġambazo",
        -7.979515766243649
      ],
      [
        "Ġjana",
        -7.98377978284444
      ],
      [
        "Ġpili",
        -7.986929308488131
      ],
      [
        "Ġmwenyekiti",
        -7.990068993309219
      ],
      [
        "Ġ5",
        -7.991509668039637
      ],
      [
        "0",
        -7.997903936309646
      ],
      [
        "Ġvijana",
        -7.998990249633865
      ],
      [
        "Ġmaeneo",
        -7.999173120700414
      ],
      [
        "Ġat",
        -7.999324254447469
      ],
      [
        "Ġhizi",
        -8.002013121498017
      ],
      [
        "Ġtofauti",
        -8.00596557335241
      ],
      [
        "er",
        -8.007119083252054
      ],
      [
        "Ġvizuri",
        -8.014314236398286
      ],
      [
        "Ġkampuni",
        -8.01529022272719
      ],
      [
        "click",
        -8.023110095473253
      ],
      [
        "tu",
        -8.027008576429132
      ],
      [
        "Ġinayo",
        -8.028354325402521
      ],
      [
        "000",
        -8.032207823926784
      ],
      [
        "Ġtayari",
        -8.036929314170385
      ],
      [
        "Ġmkutano",
        -8.03705527309746
      ],
      [
        "Ġkiasi",
        -8.045446275132685
      ],
      [
        "Ġk",
        -8.04954487365588
      ],
      [
        "katika",
        -8.051023371892514
      ],
      [
        "Ġzina",
        -8.051030641159377
      ],
      [
        "Ġha",
        -8.051124930888998
      ],
      [
        "ri",
        -8.051288526722201
      ],
      [
        ",\"",
        -8.05259422428127
      ],
      [
        "Ġuwezo",
        -8.05351700117997
      ],
      [
        "Ġmarekani",
        -8.055585958639004
      ],
      [
        "Ġsimu",
        -8.061094490544134
      ],
      [
        "Ġmbele",
        -8.064959955048783
      ],
      [
        "Ġmtoto",
        -8.068327645119949
      ],
      [
        "Ġmwenye",
        -8.07008129286726
      ],
      [
        "Ġila",
        -8.07559165042803
      ],
      [
        "Ġkum",
        -8.076154225240293
      ],
      [
        "Ġtume",
        -8.077694444123814
      ],
      [
        "Ġexpand",
        -8.081734980299377
      ],
      [
        "ko",
        -8.083413819154591
      ],
      [
        "Ġjinsi",
        -8.084625007450317
      ],
      [
        "Ġwanawake",
        -8.089257982074244
      ],
      [
        "Ġkina",
        -8.091109245657208
      ],
      [
        "Ġhasa",
        -8.091778372597828
      ],
      [
        "Ġnyumba",
        -8.092685134719797
      ],
      [
        "Ġbunge",
        -8.093718752160335
      ],
      [
        "Ġpale",
        -8.094821931497725
      ],
      [
        "Ġmagufuli",
        -8.09928093103778
      ],
      [
        "Ġyenye",
        -8.102709478875072
      ],
      [
        "Ġal",
        -8.10909202279056
      ],
      [
        "Ġjina",
        -8.112177677384718
      ],
      [
        "Ġwizara",
        -8.11299061591407
      ],
      [
        "Ġunaweza",
        -8.114272603478089
      ],
      [
        "Ġupande",
        -8.117916350777264
      ],
      [
        "Ġkipindi",
        -8.118898925883093
      ],
      [
        "Ġje",
        -8.124291772097608
      ],
      [
        "Ġwangu",
        -8.1246555820016
      ],
      [
        "Ġduniani",
        -8.128786448468535
      ],
      [
        "Ġtatu",
        -8.130994598191574
      ],
      [
        "Ġmchezo",
        -8.132549334446056
      ],
      [
        "Ġita",
        -8.135187784702326
      ],
      [
        "Ġdunia",
        -8.136207336866388
      ],
      [
        "Ġuta",
        -8.136368331102545
      ],
      [
        "Ġ2017",
        -8.136644506693829
      ],
      [
        "Ġwala",
        -8.140504423378292
      ],
      [
        "Ġ4",
        -8.146266169336746
      ],
      [
        "Ġumoja",
        -8.148674278560854
      ],
      [
        "Ġndiyo",
        -8.149833292737513
      ],
      [
        "mo",
        -8.154694335901814
      ],
      [
        "Ġkawaida",
        -8.156881727651939
      ],
      [
        "Ġofisi",
        -8.157675550662125
      ],
      [
        "li",
        -8.158356354951708
      ],
      [
        "Ġmwezi",
        -8.160197289229592
      ],
      [
        "si",
        -8.160728630875237
      ],
      [
        "Ġmsingi",
        -8.162492871014315
      ],
      [
        "Ġmilioni",
        -8.167530539541001
      ],
      [
        "Ġvi",
        -8.169190406245754
      ],
      [
        "p",
        -8.17172432177922
      ],
      [
        "Ġyesu",
        -8.177117994773129
      ],
      [
        "ta",
        -8.184417719629286
      ],
      [
        "Ġmengi",
        -8.190430960429095
      ],
      [
        "Ġkusema",
        -8.197875450044265
      ],
      [
        "Ġkimataifa",
        -8.201783425158615
      ],
      [
        "Ġnamna",
        -8.207795455025938
      ],
      [
        "Ġkui",
        -8.208522463699657
      ],
      [
        "Ġyou",
        -8.20941607317707
      ],
      [
        "Ġwatanzania",
        -8.210008322205361
      ],
      [
        "Ġmuungano",
        -8.21375146660743
      ],
      [
        "Ġli",
        -8.216459392559988
      ],
      [
        "Ġlina",
        -8.216995368067431
      ],
      [
        "Ġkura",
        -8.224780808548568
      ],
      [
        "Ġtatizo",
        -8.231728805805746
      ],
      [
        "le",
        -8.23273763549552
      ],
      [
        "Ġbaba",
        -8.234943701248365
      ],
      [
        "Ġsisi",
        -8.235708995762069
      ],
      [
        "Ġilikuwa",
        -8.242306885606224
      ],
      [
        "Ġhuyu",
        -8.24456461646057
      ],
      [
        "Ġujenzi",
        -8.24784270150087
      ],
      [
        "Ġmkoani",
        -8.24932534082746
      ],
      [
        "Ġkaribu",
        -8.249526404653457
      ],
      [
        "Ġwanafunzi",
        -8.250353969512911
      ],
      [
        "Ġdkt",
        -8.252344624690961
      ],
      [
        "Ġbwana",
        -8.253114358957747
      ],
      [
        "Ġasilimia",
        -8.259248854446513
      ],
      [
        "ra",
        -8.26060287964056
      ],
      [
        "Ġmazingira",
        -8.261590964262721
      ],
      [
        "Ġuwanja",
        -8.263891512514254
      ],
      [
        "j",
        -8.264798687026165
      ],
      [
        "Ġnzuri",
        -8.26686002684719
      ],
      [
        "Ġmwingine",
        -8.267399019783406
      ],
      [
        "Ġsuala",
        -8.267691654380044
      ],
      [
        "Ġwata",
        -8.2718044717411
      ],
      [
        "Ġsiasa",
        -8.27220886574904
      ],
      [
        "Ġmfano",
        -8.273931193476693
      ],
      [
        "ke",
        -8.274790987053638
      ],
      [
        "toa",
        -8.275613497512317
      ],
      [
        "kama",
        -8.278090245483796
      ],
      [
        "Ġkiwango",
        -8.286460415796611
      ],
      [
        "mu",
        -8.288409298695695
      ],
      [
        "sha",
        -8.293132818113982
      ],
      [
        "Ġbe",
        -8.296921132003172
      ],
      [
        "Ġile",
        -8.297501707540615
      ],
      [
        "to",
        -8.2985033931455
      ],
      [
        "Ġ20",
        -8.304083950733743
      ],
      [
        "Ġuki",
        -8.308248350403872
      ],
      [
        "Ġukweli",
        -8.310104441429317
      ],
      [
        "Ġchadema",
        -8.310111478543424
      ],
      [
        "ha",
        -8.31181340175158
      ],
      [
        "Ġkuliko",
        -8.311935123415568
      ],
      [
        "Ġiki",
        -8.312246254164469
      ],
      [
        "lo",
        -8.315806547194398
      ],
      [
        "Ġmataifa",
        -8.316711951969168
      ],
      [
        "rais",
        -8.317190053450862
      ],
      [
        "Ġmhe",
        -8.318487685047547
      ],
      [
        "endelea",
        -8.319856237312319
      ],
      [
        "Ġwazi",
        -8.320340172079367
      ],
      [
        "Ġsaa",
        -8.320645107549687
      ],
      [
        "Ġvideo",
        -8.320899509568257
      ],
      [
        "Ġsawa",
        -8.322774706213151
      ],
      [
        "Ġkenya",
        -8.324119558893274
      ],
      [
        "Ġkuhakikisha",
        -8.325212591159765
      ],
      [
        "Ġmfumo",
        -8.325371910133105
      ],
      [
        "aji",
        -8.327707106588964
      ],
      [
        "ba",
        -8.332610752504324
      ],
      [
        "Ġmichezo",
        -8.333966100263995
      ],
      [
        "Ġkamati",
        -8.33490132095653
      ],
      [
        "Ġhuwa",
        -8.335467807296697
      ],
      [
        "fanya",
        -8.340549436763766
      ],
      [
        "Ġmpango",
        -8.343042578046648
      ],
      [
        "6",
        -8.3460225796641
      ],
      [
        "Ġyoyote",
        -8.34644318398089
      ],
      [
        "Ġuli",
        -8.350617366443519
      ],
      [
        "Ġkuona",
        -8.351038785196078
      ],
      [
        "Ġ12",
        -8.352457187383127
      ],
      [
        "Ġ2016",
        -8.354643729649137
      ],
      [
        "10",
        -8.35762899361812
      ],
      [
        "Ġtarehe",
        -8.359262082702774
      ],
      [
        "Ġjeshi",
        -8.362478690930311
      ],
      [
        "Ġzilizo",
        -8.362786600461389
      ],
      [
        "Ġmatokeo",
        -8.36654509406707
      ],
      [
        "Ġmkono",
        -8.366588505096717
      ],
      [
        "Ġ2018",
        -8.36993606166898
      ],
      [
        "ly",
        -8.37041929881006
      ],
      [
        "Ġit",
        -8.37287304679452
      ],
      [
        "Ġmaneno",
        -8.372891962045127
      ],
      [
        "Ġdk",
        -8.380256213563309
      ],
      [
        "Ġzinazo",
        -8.382976873547694
      ],
      [
        "sema",
        -8.383231847285813
      ],
      [
        "Ġwalikuwa",
        -8.383737053896747
      ],
      [
        "Ġwiki",
        -8.38412106495284
      ],
      [
        "Ġas",
        -8.385498949882775
      ],
      [
        "00",
        -8.38655780963778
      ],
      [
        "Ġkidogo",
        -8.386778522102968
      ],
      [
        "Ġtangu",
        -8.387550798289503
      ],
      [
        "Ġmradi",
        -8.389910929737768
      ],
      [
        "Ġmatumizi",
        -8.390611380871213
      ],
      [
        "Ġamani",
        -8.394781332194803
      ],
      [
        "Ġdawa",
        -8.399947123588777
      ],
      [
        "ye",
        -8.402671045585157
      ],
      [
        "Ġjohn",
        -8.402867564408432
      ],
      [
        "Ġambalo",
        -8.405020400838792
      ],
      [
        "Ġbi",
        -8.40798036619427
      ],
      [
        "Ġtaasisi",
        -8.408770012292495
      ],
      [
        "Ġkwake",
        -8.410902762411723
      ],
      [
        "Ġusalama",
        -8.41389915481883
      ],
      [
        "Ġanaye",
        -8.414201800352277
      ],
      [
        "Ġkusini",
        -8.414504673339238
      ],
      [
        "po",
        -8.414528636867457
      ],
      [
        "Ġ6",
        -8.416215948583828
      ],
      [
        "ne",
        -8.416996414848027
      ],
      [
        "Ġnaye",
        -8.417471468421704
      ],
      [
        "Ġ15",
        -8.41792503317059
      ],
      [
        "Ġmwenyewe",
        -8.418011506015633
      ],
      [
        "Ġligi",
        -8.42123775019052
      ],
      [
        "Ġkuanza",
        -8.42370125140148
      ],
      [
        "Ġndugu",
        -8.425478589269998
      ],
      [
        "7",
        -8.427024168585145
      ],
      [
        "yo",
        -8.427835512618541
      ],
      [
        "Ġkisha",
        -8.433019312895585
      ],
      [
        "waziri",
        -8.433347352973623
      ],
      [
        "8",
        -8.433479997091316
      ],
      [
        "Ġchuo",
        -8.433489835882398
      ],
      [
        "Ġbaraza",
        -8.434456546860767
      ],
      [
        "Ġkituo",
        -8.435719562650387
      ],
      [
        "lengo",
        -8.43784982832272
      ],
      [
        "Ġumma",
        -8.440315071875025
      ],
      [
        "Ġlake",
        -8.440330450226835
      ],
      [
        "Ġbali",
        -8.441741887398358
      ],
      [
        "Ġsh",
        -8.441865119360326
      ],
      [
        "Ġkuli",
        -8.443041905223174
      ],
      [
        "Ġta",
        -8.44360049753511
      ],
      [
        "Ġnyumbani",
        -8.44449115581997
      ],
      [
        "Ġkuongeza",
        -8.446161287514728
      ],
      [
        "Ġsimba",
        -8.446260987893963
      ],
      [
        "Ġndege",
        -8.448228826467933
      ],
      [
        "Ġkilimo",
        -8.448830988547117
      ],
      [
        "Ġkatiba",
        -8.451127739896593
      ],
      [
        "di",
        -8.456514916247484
      ],
      [
        "Ġama",
        -8.464516787392743
      ],
      [
        "Ġthat",
        -8.464667892024215
      ],
      [
        "Ġkikwete",
        -8.465156156512554
      ],
      [
        "Ġjamhuri",
        -8.46640664868047
      ],
      [
        "Ġrasmi",
        -8.466657353367543
      ],
      [
        "Ġwe",
        -8.468765248442002
      ],
      [
        "anza",
        -8.469463922705756
      ],
      [
        "Ġmahakama",
        -8.470773502413877
      ],
      [
        "Ġbei",
        -8.472647917589375
      ],
      [
        "Ġshughuli",
        -8.472674667260941
      ],
      [
        "Ġhalmashauri",
        -8.47493980723661
      ],
      [
        "ga",
        -8.475323980232567
      ],
      [
        "Ġfamilia",
        -8.475770239987902
      ],
      [
        "Ġzime",
        -8.47806415496405
      ],
      [
        "Ġ11",
        -8.47907523550947
      ],
      [
        "Ġlime",
        -8.482879481772038
      ],
      [
        "alisema",
        -8.484533631958982
      ],
      [
        "Ġvita",
        -8.48650937849595
      ],
      [
        "Ġgari",
        -8.487001728836468
      ],
      [
        "Ġkatibu",
        -8.488795239653372
      ],
      [
        "Ġpesa",
        -8.489449703320163
      ],
      [
        "Ġno",
        -8.490088379285364
      ],
      [
        "Ġam",
        -8.493145840986385
      ],
      [
        "Ġmali",
        -8.495711859994973
      ],
      [
        "Ġmbaya",
        -8.497324740165249
      ],
      [
        "chukua",
        -8.497745909290911
      ],
      [
        "Ġwakiwa",
        -8.49966829732063
      ],
      [
        "Ġulio",
        -8.500445384342257
      ],
      [
        "Ġshirika",
        -8.500701138064441
      ],
      [
        "Ġmwili",
        -8.500756122354
      ],
      [
        "Ġmengine",
        -8.501354359835682
      ],
      [
        "Ġ7",
        -8.501774309281288
      ],
      [
        "Ġmechi",
        -8.502382088581395
      ],
      [
        "Ġvyombo",
        -8.503374822065297
      ],
      [
        "Ġuchumi",
        -8.505217665097081
      ],
      [
        "ti",
        -8.50860968174559
      ],
      [
        "Ġkuweka",
        -8.508997085384403
      ],
      [
        "Ġ2015",
        -8.50995366373274
      ],
      [
        "Ġbidhaa",
        -8.510428359469213
      ],
      [
        "Ġunao",
        -8.514080563949902
      ],
      [
        "Ġjimbo",
        -8.515691449664349
      ],
      [
        "Ġmji",
        -8.517200036145425
      ],
      [
        "Ġmakubwa",
        -8.5194236426443
      ],
      [
        "re",
        -8.519506517277442
      ],
      [
        "mi",
        -8.520095442470312
      ],
      [
        "Ġchakula",
        -8.520247020305819
      ],
      [
        "Ġdodoma",
        -8.525632249411753
      ],
      [
        "home",
        -8.528609304347409
      ],
      [
        "Ġ2019",
        -8.532029661373716
      ],
      [
        "weka",
        -8.53220619967887
      ],
      [
        "Ġpa",
        -8.533001657565276
      ],
      [
        "Ġzetu",
        -8.535691555792704
      ],
      [
        "Ġsekta",
        -8.536689043169787
      ],
      [
        "Ġinaweza",
        -8.536788583334769
      ],
      [
        "Ġmkurugenzi",
        -8.537075948507951
      ],
      [
        "Ġuhuru",
        -8.537568642710559
      ],
      [
        "Ġkuendelea",
        -8.53993162069052
      ],
      [
        "Ġmay",
        -8.543535251148953
      ],
      [
        "Ġuongozi",
        -8.543645634044704
      ],
      [
        "Ġmbunge",
        -8.545224330546096
      ],
      [
        "Ġbinafsi",
        -8.546006086747306
      ],
      [
        "Ġyaliyo",
        -8.546393885847454
      ],
      [
        "com",
        -8.547289636497185
      ],
      [
        "Ġardhi",
        -8.547989378125054
      ],
      [
        "Ġmoyo",
        -8.549930349820182
      ],
      [
        "Ġmwanamke",
        -8.55453333832906
      ],
      [
        "Ġkuji",
        -8.557737208338018
      ],
      [
        "hata",
        -8.560176216820286
      ],
      [
        "Ġ18",
        -8.560461241788811
      ],
      [
        "fu",
        -8.566349832713932
      ],
      [
        "Ġumeme",
        -8.566502049931715
      ],
      [
        "Ġwith",
        -8.567186242288614
      ],
      [
        "Ġnime",
        -8.568517025882056
      ],
      [
        "Ġspika",
        -8.56921477594093
      ],
      [
        "weza",
        -8.573796075253572
      ],
      [
        "Ġmamlaka",
        -8.574790459895906
      ],
      [
        "Ġyanayo",
        -8.576097370033171
      ],
      [
        "Ġblog",
        -8.577476216897251
      ],
      [
        "Ġhoja",
        -8.578109523746702
      ],
      [
        "Ġvitu",
        -8.578294707678463
      ],
      [
        "vi",
        -8.579214031950277
      ],
      [
        "Ġbarabara",
        -8.581647067928849
      ],
      [
        "Ġbinadamu",
        -8.581986321959004
      ],
      [
        "Ġkiongozi",
        -8.584668672480772
      ],
      [
        "Ġanasema",
        -8.586056439836092
      ],
      [
        "Ġ16",
        -8.586309678220262
      ],
      [
        "Ġkujua",
        -8.588286797178284
      ],
      [
        "&",
        -8.588711622462656
      ],
      [
        "Ġare",
        -8.591025655968194
      ],
      [
        "Ġnyuma",
        -8.59228567887235
      ],
      [
        "Ġmabadiliko",
        -8.592306994883433
      ],
      [
        "Ġmashariki",
        -8.592450793169023
      ],
      [
        "9",
        -8.592465745010935
      ],
      [
        "Ġhospitali",
        -8.592895480374754
      ],
      [
        "Ġmrefu",
        -8.595177723283744
      ],
      [
        "Ġnaibu",
        -8.59574977531311
      ],
      [
        "Ġfulani",
        -8.595830982223866
      ],
      [
        "Ġchangamoto",
        -8.596981479273479
      ],
      [
        "Ġambacho",
        -8.597067690499664
      ],
      [
        "Ġmsaada",
        -8.59837800266258
      ],
      [
        "Ġ19",
        -8.599505687983926
      ],
      [
        "Ġmafunzo",
        -8.601716403861783
      ],
      [
        "Ġb",
        -8.602925474799427
      ],
      [
        "Ġmaoni",
        -8.603831281309605
      ],
      [
        "Ġyanga",
        -8.605823517732881
      ],
      [
        "Ġwabunge",
        -8.606268494494318
      ],
      [
        "lakini",
        -8.606959815205752
      ],
      [
        "Ġkile",
        -8.607048392889157
      ],
      [
        "Ġmafuta",
        -8.607665336401483
      ],
      [
        "Ġmapinduzi",
        -8.60806416284897
      ],
      [
        "Ġharaka",
        -8.608604576633839
      ],
      [
        "Ġkuto",
        -8.608638643508263
      ],
      [
        "Ġmoto",
        -8.608889564343265
      ],
      [
        "Ġkuanzia",
        -8.611037297151812
      ],
      [
        "Ġmheshimiwa",
        -8.611227312329085
      ],
      [
        "taka",
        -8.613871944254399
      ],
      [
        "Ġkanisa",
        -8.61421158986004
      ],
      [
        "Ġujumbe",
        -8.615784438082962
      ],
      [
        "Ġalipo",
        -8.61791094265833
      ],
      [
        "Ġbadala",
        -8.618284862329554
      ],
      [
        "pata",
        -8.6189500465967
      ],
      [
        "Ġkesi",
        -8.619108472292409
      ],
      [
        "Ġhai",
        -8.62223881221924
      ],
      [
        "Ġulaya",
        -8.622341712506865
      ],
      [
        "@",
        -8.623867439466474
      ],
      [
        "Ġbw",
        -8.623885298810244
      ],
      [
        "Ġsa",
        -8.626677343422683
      ],
      [
        "Ġkadhaa",
        -8.629731477534445
      ],
      [
        "Ġhaja",
        -8.631847939123082
      ],
      [
        "Ġ30",
        -8.633657983132734
      ],
      [
        "nga",
        -8.63649515678534
      ],
      [
        "v",
        -8.641381939299304
      ],
      [
        "Ġ8",
        -8.641594100159747
      ],
      [
        "Ġchina",
        -8.643437546599511
      ],
      [
        "Ġkundi",
        -8.644356815779055
      ],
      [
        "Ġyule",
        -8.645466912467297
      ],
      [
        "Ġko",
        -8.646080201704892
      ],
      [
        "Ġmaalum",
        -8.646572245014033
      ],
      [
        "Ġimani",
        -8.648646045859222
      ],
      [
        "Ġkujenga",
        -8.649084527761076
      ],
      [
        "Ġ14",
        -8.65160754477093
      ],
      [
        "Ġdini",
        -8.652950052457006
      ],
      [
        "Ġklabu",
        -8.654567491825567
      ],
      [
        "Ġfursa",
        -8.654693203252897
      ],
      [
        "Ġmatatizo",
        -8.655337585269622
      ],
      [
        "Ġndoa",
        -8.65545794546502
      ],
      [
        "mheshimiwa",
        -8.655815817194043
      ],
      [
        "ana",
        -8.658633304659327
      ],
      [
        "Ġbenki",
        -8.659185264317731
      ],
      [
        "Ġw",
        -8.659974579432632
      ],
      [
        "Ġkata",
        -8.660777231058717
      ],
      [
        "Ġmujibu",
        -8.662721899203905
      ],
      [
        "Ġmaelezo",
        -8.662854606512958
      ],
      [
        "Ġye",
        -8.664652065618437
      ],
      [
        "kuwa",
        -8.667989348612382
      ],
      [
        "aidha",
        -8.668250837914691
      ],
      [
        "Ġusiku",
        -8.674298489039728
      ],
      [
        "Ġakili",
        -8.675904071973081
      ],
      [
        "Ġhe",
        -8.67841482034902
      ],
      [
        "Ġ13",
        -8.679810242728388
      ],
      [
        "Ġwenyewe",
        -8.680389398431242
      ],
      [
        "Ġthis",
        -8.680655899966325
      ],
      [
        "Ġme",
        -8.682283438791199
      ],
      [
        "Ġvyama",
        -8.682661710238277
      ],
      [
        "Ġtabia",
        -8.68491754515745
      ],
      [
        "Ġp",
        -8.686388160232761
      ],
      [
        "Ġumri",
        -8.686845211412129
      ],
      [
        "Ġwapi",
        -8.6875487006444
      ],
      [
        "Ġchake",
        -8.691462893016306
      ],
      [
        "zo",
        -8.691887584467986
      ],
      [
        "Ġmatukio",
        -8.69253591013186
      ],
      [
        "tokea",
        -8.692954831884917
      ],
      [
        "jaribu",
        -8.697086338905045
      ],
      [
        "Ġ2012",
        -8.69830698957023
      ],
      [
        "Ġonline",
        -8.702003310854293
      ],
      [
        "tumia",
        -8.702036864564525
      ],
      [
        "*",
        -8.70533149958667
      ],
      [
        "Ġkuingia",
        -8.705605243524161
      ],
      [
        "11",
        -8.706032533794295
      ],
      [
        "Ġarusha",
        -8.706613590214491
      ],
      [
        "Ġmwana",
        -8.708227846256607
      ],
      [
        "Ġwaka",
        -8.709361961238459
      ],
      [
        "Ġzamani",
        -8.70993279549953
      ],
      [
        "mkuu",
        -8.710993252594303
      ],
      [
        "Ġsita",
        -8.711465680267821
      ],
      [
        "Ġwaandishi",
        -8.712517374979592
      ],
      [
        "Ġndo",
        -8.712644313807177
      ],
      [
        "Ġmtandao",
        -8.713897955322182
      ],
      [
        "Ġmasuala",
        -8.716492037611873
      ],
      [
        "Ġwachezaji",
        -8.717725003882986
      ],
      [
        "Ġneno",
        -8.71923066769873
      ],
      [
        "Ġgharama",
        -8.72454421859504
      ],
      [
        "Ġhiki",
        -8.726997209199151
      ],
      [
        "Ġnili",
        -8.72701427844042
      ],
      [
        "Ġidadi",
        -8.728561373157357
      ],
      [
        "12",
        -8.730226857237753
      ],
      [
        "Ġpekee",
        -8.73085135717767
      ],
      [
        "Ġuka",
        -8.732341152903997
      ],
      [
        "Ġshilingi",
        -8.734714639139344
      ],
      [
        "Ġvifaa",
        -8.736426807840697
      ],
      [
        "%",
        -8.738072916555263
      ],
      [
        "2014",
        -8.739057711993443
      ],
      [
        "Ġawali",
        -8.742935201329258
      ],
      [
        "!!",
        -8.74688159898202
      ],
      [
        "ja",
        -8.746966053275342
      ],
      [
        "Ġ17",
        -8.757413067275026
      ],
      [
        "kuchukua",
        -8.757683857280778
      ],
      [
        "Ġkaribuni",
        -8.758099651725113
      ],
      [
        "Ġjamaa",
        -8.758118416281398
      ],
      [
        "Ġviwanda",
        -8.765266236431025
      ],
      [
        "Ġkufikia",
        -8.768691912985553
      ],
      [
        "Ġkisiasa",
        -8.768942244610798
      ],
      [
        "te",
        -8.772257920490729
      ],
      [
        "Ġyaani",
        -8.772930330401632
      ],
      [
        "Ġlugha",
        -8.773685216796627
      ],
      [
        "Ġkilicho",
        -8.778379417391914
      ],
      [
        "Ġtano",
        -8.779020999697734
      ],
      [
        "hi",
        -8.78201159276854
      ],
      [
        "Ġnne",
        -8.782013727816405
      ],
      [
        "Ġitakuwa",
        -8.783462096964868
      ],
      [
        "Ġwawili",
        -8.783632872618842
      ],
      [
        "Ġroho",
        -8.787881928797606
      ],
      [
        "Ġkasi",
        -8.788159578939815
      ],
      [
        "the",
        -8.789849779825216
      ],
      [
        "Ġ25",
        -8.79195742141393
      ],
      [
        "Ġlili",
        -8.794596766779222
      ],
      [
        "Ġmawasiliano",
        -8.79495374917851
      ],
      [
        "Ġziara",
        -8.795195000053559
      ],
      [
        "Ġtukio",
        -8.798181480682384
      ],
      [
        "Ġsahihi",
        -8.800153702860326
      ],
      [
        "Ġmahali",
        -8.800218539085
      ],
      [
        "Ġwafanyakazi",
        -8.800254206247947
      ],
      [
        "Ġmiongoni",
        -8.802363390043688
      ],
      [
        "Ġsafari",
        -8.803782364132232
      ],
      [
        "Ġnina",
        -8.804600036734739
      ],
      [
        "Ġ9",
        -8.808525538351722
      ],
      [
        "wakati",
        -8.808917491250376
      ],
      [
        "Ġrahisi",
        -8.811771391038398
      ],
      [
        "x",
        -8.814818766256927
      ],
      [
        "Ġmapenzi",
        -8.818214754224403
      ],
      [
        "Ġajira",
        -8.818851123033372
      ],
      [
        "Ġmafanikio",
        -8.820758102069727
      ],
      [
        "miradi",
        -8.82099176213717
      ],
      [
        "in",
        -8.8212252282526
      ],
      [
        "Ġwadau",
        -8.822816153021094
      ],
      [
        "Ġdola",
        -8.823154647296157
      ],
      [
        "Ġmzuri",
        -8.824188284292113
      ],
      [
        "th",
        -8.82484751538093
      ],
      [
        "Ġanaweza",
        -8.82515058546445
      ],
      [
        "Ġbara",
        -8.825941814148608
      ],
      [
        "Ġun",
        -8.826871808729251
      ],
      [
        "ng",
        -8.828346173893994
      ],
      [
        "sasa",
        -8.829176189634099
      ],
      [
        "Ġhatari",
        -8.830833156538336
      ],
      [
        "Ġmzee",
        -8.833269021072606
      ],
      [
        "soma",
        -8.834035346882263
      ],
      [
        "Ġso",
        -8.83482375636128
      ],
      [
        "Ġne",
        -8.838542609596336
      ],
      [
        "es",
        -8.839457238433756
      ],
      [
        "Ġutawala",
        -8.846446785671183
      ],
      [
        "Ġhome",
        -8.849390949820297
      ],
      [
        "Ġmdogo",
        -8.85103293379559
      ],
      [
        "Ġsiyo",
        -8.85245901078351
      ],
      [
        "Ġan",
        -8.854609149461108
      ],
      [
        "Ġ2013",
        -8.857041613936333
      ],
      [
        "Ġbilioni",
        -8.857642359360106
      ],
      [
        "Ġdakika",
        -8.85885596143827
      ],
      [
        "Ġmke",
        -8.85967144757922
      ],
      [
        "Ġmsimu",
        -8.863869020527785
      ],
      [
        "Ġ21",
        -8.864364851341712
      ],
      [
        "Ġsoka",
        -8.86578206517121
      ],
      [
        "bo",
        -8.868332519729858
      ],
      [
        "onekana",
        -8.868585313799713
      ],
      [
        "Ġutafiti",
        -8.86918366597491
      ],
      [
        "Ġnamba",
        -8.86987590612418
      ],
      [
        "Ġkodi",
        -8.870617565556845
      ],
      [
        "Ġva",
        -8.871768702074103
      ],
      [
        "baada",
        -8.87200087181837
      ],
      [
        "tolewa",
        -8.87388174809686
      ],
      [
        "nda",
        -8.875113269739773
      ],
      [
        "Ġtuta",
        -8.875359702998972
      ],
      [
        "Ġakizungumza",
        -8.875716552406036
      ],
      [
        "Ġ24",
        -8.88041919593857
      ],
      [
        "Ġbu",
        -8.882746642465662
      ],
      [
        "Ġugonjwa",
        -8.882840712177208
      ],
      [
        "Ġtoka",
        -8.883331597904652
      ],
      [
        "Ġkinacho",
        -8.884079426673493
      ],
      [
        "Ġmwalimu",
        -8.886275808059624
      ],
      [
        "Ġambavyo",
        -8.890974089813232
      ],
      [
        "kuna",
        -8.891509552976142
      ],
      [
        "fanywa",
        -8.89156160596962
      ],
      [
        "leta",
        -8.891726326585909
      ],
      [
        "cha",
        -8.892812898744799
      ],
      [
        "Ġmkataba",
        -8.892859697651557
      ],
      [
        "Ġraia",
        -8.89658191460392
      ],
      [
        "ro",
        -8.897490458277886
      ],
      [
        "onyesha",
        -8.900614386435201
      ],
      [
        "Ġndogo",
        -8.90153867171916
      ],
      [
        "Ġupinzani",
        -8.90175031403937
      ],
      [
        "Ġyeyote",
        -8.902336870447908
      ],
      [
        "Ġkijiji",
        -8.902821710576603
      ],
      [
        "Ġdamu",
        -8.903909041668351
      ],
      [
        "Ġkauli",
        -8.90490704737182
      ],
      [
        "15",
        -8.907547393841432
      ],
      [
        "16",
        -8.908280400701841
      ],
      [
        "Ġzili",
        -8.90897954619829
      ],
      [
        "Ġkikao",
        -8.909676470537125
      ],
      [
        "2010",
        -8.909974709608344
      ],
      [
        "Ġbin",
        -8.910164539710488
      ],
      [
        "Ġmikoa",
        -8.911324732730526
      ],
      [
        "Ġmadini",
        -8.911511213049923
      ],
      [
        "Ġhaku",
        -8.912674374161389
      ],
      [
        "17",
        -8.912705758105487
      ],
      [
        "Ġushindi",
        -8.915080684835573
      ],
      [
        "Ġkijamii",
        -8.916633263857882
      ],
      [
        "Ġmacho",
        -8.91676697852127
      ],
      [
        "Ġasili",
        -8.918622915694934
      ],
      [
        "Ġbaadaye",
        -8.919126089522905
      ],
      [
        "hu",
        -8.919485895025925
      ],
      [
        "Ġushirikiano",
        -8.922316719696449
      ],
      [
        "Ġiliyopita",
        -8.92302708815997
      ],
      [
        "Ġsifa",
        -8.9235700717543
      ],
      [
        "Ġjumla",
        -8.92387205067405
      ],
      [
        "Ġmwanza",
        -8.929630186492894
      ],
      [
        "Ġgreat",
        -8.932072365006752
      ],
      [
        "Ġbongo",
        -8.933402660605914
      ],
      [
        "Ġkucheza",
        -8.93461743902955
      ],
      [
        "Ġkampeni",
        -8.935596284875945
      ],
      [
        "Ġfrom",
        -8.937446195124046
      ],
      [
        "ge",
        -8.93939588071855
      ],
      [
        "ingia",
        -8.939848962144195
      ],
      [
        "pia",
        -8.940239405667606
      ],
      [
        "Ġjamiiforums",
        -8.940657433624969
      ],
      [
        "bi",
        -8.942089751778104
      ],
      [
        "hii",
        -8.942572513954987
      ],
      [
        "Ġndiye",
        -8.943236232946708
      ],
      [
        "Ġhumo",
        -8.94331233721724
      ],
      [
        "Ġsaba",
        -8.943794201565279
      ],
      [
        "Ġkuishi",
        -8.94385704753732
      ],
      [
        "13",
        -8.948020304430877
      ],
      [
        "Ġfaida",
        -8.948699577265723
      ],
      [
        "Ġkikuu",
        -8.950713484414402
      ],
      [
        "Ġmaarufu",
        -8.95118290710128
      ],
      [
        "shi",
        -8.953745283445743
      ],
      [
        "Ġmipango",
        -8.954651435640889
      ],
      [
        "Ġ2011",
        -8.955320162962941
      ],
      [
        "Ġkupiga",
        -8.956937393315112
      ],
      [
        "pa",
        -8.958448412642996
      ],
      [
        "Ġkikubwa",
        -8.963200272463464
      ],
      [
        "miezi",
        -8.963426407484302
      ],
      [
        "Ġbure",
        -8.964438331898961
      ],
      [
        "pewa",
        -8.965061582539054
      ],
      [
        "Ġkupunguza",
        -8.967397364759128
      ],
      [
        "habari",
        -8.968225707322887
      ],
      [
        "Ġnot",
        -8.96834600608976
      ],
      [
        "Ġpombe",
        -8.968430878140445
      ],
      [
        "Ġkuzi",
        -8.969535881660628
      ],
      [
        "ali",
        -8.971360722768926
      ],
      [
        "Ġmuziki",
        -8.971826913886376
      ],
      [
        "Ġlu",
        -8.976069950898049
      ],
      [
        "Ġ22",
        -8.976310390256463
      ],
      [
        "Ġwanaume",
        -8.977692736270548
      ],
      [
        "Ġnayo",
        -8.978084522735244
      ],
      [
        "Ġmazungumzo",
        -8.979449984846543
      ],
      [
        "Ġilivyo",
        -8.981213493116046
      ],
      [
        "Ġule",
        -8.982688405570531
      ],
      [
        "_",
        -8.983827477066974
      ],
      [
        "Ġdr",
        -8.984984697809203
      ],
      [
        "Ġnew",
        -8.985895450073727
      ],
      [
        "Ġkitabu",
        -8.986784075631537
      ],
      [
        "Ġyale",
        -8.987777469634937
      ],
      [
        "Ġmna",
        -8.988024971708246
      ],
      [
        "Ġulinzi",
        -8.988477531044772
      ],
      [
        "Ġkusoma",
        -8.990465649209463
      ],
      [
        "Ġwanachama",
        -8.991679780589225
      ],
      [
        "Ġde",
        -8.992266499072334
      ],
      [
        "Ġmapema",
        -8.992467769600857
      ],
      [
        "Ġkutafuta",
        -8.992578673010483
      ],
      [
        "Ġchochote",
        -8.99341598923137
      ],
      [
        "Ġkanuni",
        -8.996451998818392
      ],
      [
        "Ġmpe",
        -8.998186101773504
      ],
      [
        "2019",
        -8.998840659168877
      ],
      [
        "picha",
        -8.999043970533855
      ],
      [
        "Ġthamani",
        -9.00024954224151
      ],
      [
        "Ġmawazo",
        -9.000738409574558
      ],
      [
        "14",
        -9.002987060232224
      ],
      [
        "Ġzi",
        -9.004098953057719
      ],
      [
        "Ġmbeya",
        -9.004205633071676
      ],
      [
        "Ġkali",
        -9.007280145874224
      ],
      [
        "Ġwateja",
        -9.008058740546614
      ],
      [
        "Ġlinalo",
        -9.008188722781007
      ],
      [
        "me",
        -9.008511076589429
      ],
      [
        "ho",
        -9.008647588824584
      ],
      [
        "20",
        -9.008836808859163
      ],
      [
        "Ġ23",
        -9.009717703772017
      ],
      [
        "Ġwapo",
        -9.009903877899225
      ],
      [
        "Ġwazazi",
        -9.010956198882363
      ],
      [
        "Ġyame",
        -9.01111266053809
      ],
      [
        "19",
        -9.012036766859126
      ],
      [
        "Ġkumi",
        -9.013386023883722
      ],
      [
        "Ġy",
        -9.015995644936124
      ],
      [
        "Ġndipo",
        -9.018836847392317
      ],
      [
        "Ġunited",
        -9.019836647522832
      ],
      [
        "Ġmwenyezi",
        -9.020732866220216
      ],
      [
        "Ġyo",
        -9.022049088792055
      ],
      [
        "Ġtovuti",
        -9.022637602281783
      ],
      [
        "Ġsoko",
        -9.023039836191892
      ],
      [
        "Ġwatumishi",
        -9.024118827463598
      ],
      [
        "Ġl",
        -9.024451495527604
      ],
      [
        "Ġor",
        -9.026218328162878
      ],
      [
        "se",
        -9.026929336857416
      ],
      [
        "Ġuingereza",
        -9.027879311669626
      ],
      [
        "Ġwanaweza",
        -9.03276711069054
      ],
      [
        "Ġkusaidia",
        -9.033002842753929
      ],
      [
        "Ġkitaifa",
        -9.033496499764404
      ],
      [
        "Ġkuangalia",
        -9.033555309161532
      ],
      [
        "Ġutaratibu",
        -9.033903460236791
      ],
      [
        "Ġuhusiano",
        -9.035012630111716
      ],
      [
        "Ġkulia",
        -9.03555758317936
      ],
      [
        "Ġkuku",
        -9.037508739340424
      ],
      [
        "Ġlililo",
        -9.037667790252934
      ],
      [
        "omba",
        -9.04009636325327
      ],
      [
        "Ġyour",
        -9.040102575715448
      ],
      [
        "Ġsauti",
        -9.04093036673731
      ],
      [
        "go",
        -9.041551022543713
      ],
      [
        "Ġsera",
        -9.042048456516534
      ],
      [
        "Ġhistoria",
        -9.04451979896057
      ],
      [
        "Ġmagari",
        -9.04711064666676
      ],
      [
        "Ġika",
        -9.047223469559423
      ],
      [
        "he",
        -9.04844038333728
      ],
      [
        "Ġusi",
        -9.0488273878223
      ],
      [
        "Ġyehova",
        -9.049127565474842
      ],
      [
        "Ġhave",
        -9.049458793368425
      ],
      [
        "Ġmtume",
        -9.049951626406257
      ],
      [
        "Ġmwanadamu",
        -9.050145288705403
      ],
      [
        "Ġkule",
        -9.054589323370918
      ],
      [
        "Ġkime",
        -9.05656253735772
      ],
      [
        "Ġaliyekuwa",
        -9.0581581834197
      ],
      [
        "labda",
        -9.060261777557988
      ],
      [
        "Ġ100",
        -9.061715484790868
      ],
      [
        "Ġbalozi",
        -9.063310804483962
      ],
      [
        "Ġnews",
        -9.06339898262759
      ],
      [
        "Ġhalisi",
        -9.063915994430358
      ],
      [
        "Ġhawana",
        -9.06607479833217
      ],
      [
        "Ġalivyo",
        -9.068130476821594
      ],
      [
        "Ġbarua",
        -9.068491294113809
      ],
      [
        "Ġhana",
        -9.06997314020187
      ],
      [
        "Ġall",
        -9.070466375543464
      ],
      [
        "Ġikulu",
        -9.071319127787596
      ],
      [
        "Ġkiuchumi",
        -9.071542408527357
      ],
      [
        "Ġwalimu",
        -9.075441175725125
      ],
      [
        "Ġkuleta",
        -9.076010527158203
      ],
      [
        "Ġkuweza",
        -9.076398197228327
      ],
      [
        "Ġuamuzi",
        -9.077850183773618
      ],
      [
        "Ġuchunguzi",
        -9.07844703241554
      ],
      [
        "Ġkushoto",
        -9.084086306667604
      ],
      [
        "Ġmapato",
        -9.08589760690003
      ],
      [
        "Ġmpira",
        -9.08620984700097
      ],
      [
        "on",
        -9.08731022425403
      ],
      [
        "fanyika",
        -9.088875827297253
      ],
      [
        "Ġkiswahili",
        -9.090474231187226
      ],
      [
        "de",
        -9.091969511270436
      ],
      [
        "Ġingawa",
        -9.093166125705212
      ],
      [
        "Ġrangi",
        -9.094775339258304
      ],
      [
        "Ġkuya",
        -9.09508125475697
      ],
      [
        "Ġkutosha",
        -9.095246048704244
      ],
      [
        "Ġkushiriki",
        -9.095439745962407
      ],
      [
        "Ġkifo",
        -9.095522779216482
      ],
      [
        "Ġ50",
        -9.09614656432183
      ],
      [
        "Ġwakulima",
        -9.097542985517643
      ],
      [
        "Ġswali",
        -9.09909898440709
      ],
      [
        "Ġnani",
        -9.099913554194336
      ],
      [
        "18",
        -9.102267724396748
      ],
      [
        "30",
        -9.10285595044083
      ],
      [
        "Ġthinkers",
        -9.103990324939517
      ],
      [
        "Ġ27",
        -9.10647110832272
      ],
      [
        "Ġhuru",
        -9.106903775323584
      ],
      [
        "Ġkuzuia",
        -9.108248748747132
      ],
      [
        "Ġbajeti",
        -9.10957368680143
      ],
      [
        "Ġmaswali",
        -9.110412880468605
      ],
      [
        "jitokeza",
        -9.111144700962084
      ],
      [
        "Ġkutaka",
        -9.112122474961785
      ],
      [
        "Ġrushwa",
        -9.116038114335415
      ],
      [
        "sh",
        -9.116415730269496
      ],
      [
        "Ġiwe",
        -9.117277751454717
      ],
      [
        "Ġjiji",
        -9.119515420047728
      ],
      [
        "Ġupendo",
        -9.12034085404488
      ],
      [
        "Ġnika",
        -9.121639771397804
      ],
      [
        "Ġmarehemu",
        -9.122136086679165
      ],
      [
        "enda",
        -9.122383713261849
      ],
      [
        "Ġmakini",
        -9.124730757204947
      ],
      [
        "Ġ26",
        -9.1252388276219
      ],
      [
        "Ġkula",
        -9.12579291418751
      ],
      [
        "Ġidara",
        -9.12632840603171
      ],
      [
        "Ġkombe",
        -9.126363226429168
      ],
      [
        "Ġwilayani",
        -9.129085582485123
      ],
      [
        "--",
        -9.129161534940485
      ],
      [
        "Ġkaskazini",
        -9.130258306146628
      ],
      [
        "Ġbungeni",
        -9.132441121277122
      ],
      [
        "Ġteknolojia",
        -9.13276794808476
      ],
      [
        "started",
        -9.133097565677492
      ],
      [
        "Ġkesho",
        -9.133336874869473
      ],
      [
        "Ġkuja",
        -9.133763624318034
      ],
      [
        "Ġmar",
        -9.134153701737892
      ],
      [
        "ishi",
        -9.135234387664172
      ],
      [
        "Ġcity",
        -9.135573239761976
      ],
      [
        "Ġdownload",
        -9.135773863287325
      ],
      [
        "Ġwakuu",
        -9.13600330637838
      ],
      [
        "Ġ28",
        -9.13607461821836
      ],
      [
        "acha",
        -9.136868519369454
      ],
      [
        "Ġimekuwa",
        -9.138175122623446
      ],
      [
        "Ġgazeti",
        -9.138270316649216
      ],
      [
        "Ġushauri",
        -9.139605954209529
      ],
      [
        "Ġman",
        -9.141389288733023
      ],
      [
        "Ġikiwemo",
        -9.141545051578538
      ],
      [
        "so",
        -9.14330537530642
      ],
      [
        "discussion",
        -9.144630185515403
      ],
      [
        "zidi",
        -9.145657628908165
      ],
      [
        "Ġnovemb",
        -9.145851276007638
      ],
      [
        "Ġutekelezaji",
        -9.146711212731988
      ],
      [
        "co",
        -9.147014820405134
      ],
      [
        "Ġkristo",
        -9.147669077476316
      ],
      [
        "Ġmatibabu",
        -9.147804321304283
      ],
      [
        "Ġwill",
        -9.148090160544454
      ],
      [
        "Ġup",
        -9.148739172294473
      ],
      [
        "Ġviwanja",
        -9.14933750740304
      ],
      [
        "Ġvina",
        -9.149411466840034
      ],
      [
        "Ġmy",
        -9.149505263781323
      ],
      [
        "Ġmwanzo",
        -9.150692432963975
      ],
      [
        "Ġnyerere",
        -9.151928221392277
      ],
      [
        "Ġurais",
        -9.15243800613438
      ],
      [
        "Ġdo",
        -9.153367484667116
      ],
      [
        "Ġukumbi",
        -9.153627215388754
      ],
      [
        "Ġmakamu",
        -9.154295264814609
      ],
      [
        "Ġzako",
        -9.155450326539652
      ],
      [
        "Ġngazi",
        -9.156059092654106
      ],
      [
        "she",
        -9.15608658191676
      ],
      [
        "Ġvituo",
        -9.157227184475229
      ],
      [
        "Ġkikosi",
        -9.157373631924022
      ],
      [
        "Ġhalafu",
        -9.157985075023213
      ],
      [
        "Ġrafiki",
        -9.15926987902372
      ],
      [
        "Ġyenu",
        -9.16032600980418
      ],
      [
        "Ġsiri",
        -9.161992437138002
      ],
      [
        "Ġhakika",
        -9.162557314191186
      ],
      [
        "Ġmajina",
        -9.16423765147783
      ],
      [
        "Ġnzima",
        -9.164440279610226
      ],
      [
        "Ġvitendo",
        -9.164784993663904
      ],
      [
        "Ġhi",
        -9.165727672493082
      ],
      [
        "vu",
        -9.16653911308075
      ],
      [
        "mba",
        -9.167577699039954
      ],
      [
        "chanzo",
        -9.167599836117477
      ],
      [
        "Ġmashindano",
        -9.168913634301424
      ],
      [
        "mimi",
        -9.168999805043352
      ],
      [
        "Ġcan",
        -9.169714775228911
      ],
      [
        "Ġwamekuwa",
        -9.170261346848594
      ],
      [
        "Ġzenye",
        -9.170932301502068
      ],
      [
        "Ġsalama",
        -9.1709642594255
      ],
      [
        "Ġbut",
        -9.173161428674875
      ],
      [
        "ina",
        -9.17505079436252
      ],
      [
        "Ġmakala",
        -9.177480964815205
      ],
      [
        "Ġmazuri",
        -9.177745515480716
      ],
      [
        "Ġujerumani",
        -9.178399791535186
      ],
      [
        "Ġvyote",
        -9.178872275757287
      ],
      [
        "Ġnaomba",
        -9.179735122644178
      ],
      [
        "Ġmo",
        -9.179739405360426
      ],
      [
        "Ġwazee",
        -9.180191278873794
      ],
      [
        "Ġajali",
        -9.181371271883725
      ],
      [
        "Ġfuraha",
        -9.1835415467712
      ],
      [
        "Ġkuboresha",
        -9.18365573071
      ],
      [
        "Ġmahitaji",
        -9.184579156015127
      ],
      [
        "be",
        -9.185276596199865
      ],
      [
        "Ġbodi",
        -9.18632030299239
      ],
      [
        "05",
        -9.186416515572905
      ],
      [
        "Ġdhambi",
        -9.187471987178611
      ],
      [
        "Ġshida",
        -9.187918676699695
      ],
      [
        "ita",
        -9.190876343990956
      ],
      [
        "Ġuhakika",
        -9.19088557132088
      ],
      [
        "Ġbiblia",
        -9.191655989578749
      ],
      [
        "Ġfc",
        -9.192751042485844
      ],
      [
        "Ġipo",
        -9.193188145142766
      ],
      [
        "Ġmp",
        -9.193727440199751
      ],
      [
        "kwenda",
        -9.193950945488854
      ],
      [
        "Ġjumuiya",
        -9.194719312955344
      ],
      [
        "Ġmaamuzi",
        -9.197423295992673
      ],
      [
        "Ġhifadhi",
        -9.19860014992677
      ],
      [
        "Ġmchezaji",
        -9.198949558927715
      ],
      [
        "Ġhewa",
        -9.199974881980038
      ],
      [
        "pokea",
        -9.20049502156906
      ],
      [
        "Ġiko",
        -9.20219364465476
      ],
      [
        "Ġawamu",
        -9.202715661968275
      ],
      [
        "Ġmchakato",
        -9.20337825155963
      ],
      [
        "Ġwowote",
        -9.203565114376296
      ],
      [
        "Ġmakosa",
        -9.204280195340106
      ],
      [
        "Ġuganda",
        -9.204755279616018
      ],
      [
        "chukuliwa",
        -9.20589656699666
      ],
      [
        "07",
        -9.207519959027472
      ],
      [
        "Ġapril",
        -9.20762903721468
      ],
      [
        "Ġulimwengu",
        -9.20803476160916
      ],
      [
        "Ġkupambana",
        -9.208133397566629
      ],
      [
        "Ġmore",
        -9.20953885793346
      ],
      [
        "=",
        -9.210418043477434
      ],
      [
        "Ġlita",
        -9.21285932568864
      ],
      [
        "tafuta",
        -9.214270897927491
      ],
      [
        "Ġsaid",
        -9.214337741837172
      ],
      [
        "Ġmbinu",
        -9.214860577284124
      ],
      [
        "Ġdada",
        -9.215336581216445
      ],
      [
        "Ġzita",
        -9.218153860922133
      ],
      [
        "Ġkushirikiana",
        -9.219236097704782
      ],
      [
        "serikali",
        -9.219574425846009
      ],
      [
        "Ġdi",
        -9.219970934536986
      ],
      [
        "ili",
        -9.222182219154988
      ],
      [
        "Ġkamili",
        -9.22315401974976
      ],
      [
        "Ġasubuhi",
        -9.223354972492448
      ],
      [
        "ombe",
        -9.225006257821631
      ],
      [
        "Ġkununua",
        -9.225138396034769
      ],
      [
        "Ġjanuary",
        -9.226325335247838
      ],
      [
        "Ġmh",
        -9.22694985713637
      ],
      [
        "patikana",
        -9.227121464350702
      ],
      [
        "Ġaskari",
        -9.227438413309292
      ],
      [
        "Ġkadi",
        -9.228019276430055
      ],
      [
        "toka",
        -9.22957392395588
      ],
      [
        "Ġmajibu",
        -9.229675090999049
      ],
      [
        "jua",
        -9.230511866140755
      ],
      [
        "Ġumuhimu",
        -9.23136589186888
      ],
      [
        "Ġmalengo",
        -9.231532011158048
      ],
      [
        "Ġjuhudi",
        -9.23265728062817
      ],
      [
        "08",
        -9.233433033615569
      ],
      [
        "ze",
        -9.23429628515806
      ],
      [
        "Ġsafi",
        -9.234868869590144
      ],
      [
        "Ġulikuwa",
        -9.235058379853884
      ],
      [
        "Ġzangu",
        -9.235495153254512
      ],
      [
        "Ġkushindwa",
        -9.2359801207078
      ],
      [
        "Ġujumla",
        -9.23720728237924
      ],
      [
        "Ġshaka",
        -9.23952413668104
      ],
      [
        "Ġnishati",
        -9.240570982206954
      ],
      [
        "Ġkuelekea",
        -9.24285888765809
      ],
      [
        "Ġte",
        -9.243611382281811
      ],
      [
        "tangaza",
        -9.243934419310488
      ],
      [
        "pita",
        -9.244105589040776
      ],
      [
        "Ġ29",
        -9.244278181960729
      ],
      [
        "Ġtaratibu",
        -9.244474305483292
      ],
      [
        "takiwa",
        -9.247596882666734
      ],
      [
        "Ġmalipo",
        -9.247794012615577
      ],
      [
        "Ġvyema",
        -9.248070753460746
      ],
      [
        "Ġutamaduni",
        -9.248934260322288
      ],
      [
        "06",
        -9.250548816738927
      ],
      [
        "Ġmtendaji",
        -9.251884136218123
      ],
      [
        "Ġtuzo",
        -9.252526106005512
      ],
      [
        "Ġuzalishaji",
        -9.25310632404378
      ],
      [
        "Ġhusika",
        -9.253898173593337
      ],
      [
        "tarajiwa",
        -9.253973134999033
      ],
      [
        "Ġkulingana",
        -9.257468275342758
      ],
      [
        "Ġtuli",
        -9.257818831063323
      ],
      [
        "fikia",
        -9.259155095470735
      ],
      [
        "Ġmabao",
        -9.260558229327804
      ],
      [
        "Ġnusu",
        -9.26211005251058
      ],
      [
        "Ġubora",
        -9.26353451255586
      ],
      [
        "Ġmada",
        -9.26420430628418
      ],
      [
        "Ġjuma",
        -9.264204642477416
      ],
      [
        "Ġsijui",
        -9.26528699548337
      ],
      [
        "ccm",
        -9.26624775121294
      ],
      [
        "Ġkufunga",
        -9.266967575714682
      ],
      [
        "Ġkocha",
        -9.26770256977346
      ],
      [
        "Ġwasanii",
        -9.267735993690168
      ],
      [
        "Ġmahakamani",
        -9.269856839234636
      ],
      [
        "Ġmfuko",
        -9.270270307617125
      ],
      [
        "Ġbao",
        -9.27137260045932
      ],
      [
        "Ġutalii",
        -9.272331152646576
      ],
      [
        "kubali",
        -9.273215218552195
      ],
      [
        "Ġkutekeleza",
        -9.273254166171473
      ],
      [
        "Ġnita",
        -9.27339207140991
      ],
      [
        "Ġripoti",
        -9.275866632550734
      ],
      [
        "Ġheshima",
        -9.276166674286468
      ],
      [
        "Ġmaadili",
        -9.276320325049578
      ],
      [
        "Ġfainali",
        -9.276421641542736
      ],
      [
        "wekwa",
        -9.276588641621103
      ],
      [
        "Ġwajumbe",
        -9.2779758524037
      ],
      [
        "Ġfilamu",
        -9.278288134015144
      ],
      [
        "itwa",
        -9.278396013100576
      ],
      [
        "tanzania",
        -9.279220071905325
      ],
      [
        "Ġkujiunga",
        -9.28020488730384
      ],
      [
        "july",
        -9.280232075572044
      ],
      [
        "Ġrwanda",
        -9.281446814876064
      ],
      [
        "Ġmasomo",
        -9.28189412859797
      ],
      [
        "Ġmaalumu",
        -9.282444809041316
      ],
      [
        "amini",
        -9.282747927523577
      ],
      [
        "Ġhas",
        -9.283988175968272
      ],
      [
        "Ġmtakatifu",
        -9.284579067422454
      ],
      [
        "nge",
        -9.284633249404507
      ],
      [
        "hivi",
        -9.287542776767914
      ],
      [
        "Ġmakundi",
        -9.287678615398082
      ],
      [
        "us",
        -9.28850013478482
      ],
      [
        "Ġprogramu",
        -9.290309182223222
      ],
      [
        "Ġwaliokuwa",
        -9.29096724169897
      ],
      [
        "akasema",
        -9.292075520480823
      ],
      [
        "Ġkutu",
        -9.29295265290379
      ],
      [
        "Ġkanda",
        -9.293460871398787
      ],
      [
        "Ġzile",
        -9.294502151402463
      ],
      [
        "Ġwasio",
        -9.296142198740174
      ],
      [
        "Ġkwako",
        -9.297098945177089
      ],
      [
        "Ġkosa",
        -9.297935486985354
      ],
      [
        "Ġkisasa",
        -9.300322177831047
      ],
      [
        "andika",
        -9.301043514201217
      ],
      [
        "sababisha",
        -9.301161451984576
      ],
      [
        "Ġcomments",
        -9.301445424286737
      ],
      [
        "Ġaugust",
        -9.301579572405394
      ],
      [
        "Ġmagonjwa",
        -9.30254209969534
      ],
      [
        "Ġmarch",
        -9.30513815989572
      ],
      [
        "Ġmingi",
        -9.306864395027771
      ],
      [
        "Ġkulipa",
        -9.307695792448175
      ],
      [
        "tumika",
        -9.307738382807864
      ],
      [
        "Ġkwetu",
        -9.307760829648904
      ],
      [
        "february",
        -9.308337216877876
      ],
      [
        "Ġtv",
        -9.309276140401971
      ],
      [
        "Ġ2020",
        -9.309999388960168
      ],
      [
        "chaguliwa",
        -9.310791232220016
      ],
      [
        "2009",
        -9.311522920204256
      ],
      [
        "Ġkuonyesha",
        -9.312102360751096
      ],
      [
        "julikana",
        -9.312855485701077
      ],
      [
        "Ġmadai",
        -9.313337229070273
      ],
      [
        "Ġkuni",
        -9.313775549732002
      ],
      [
        "Ġmwandishi",
        -9.314156811874264
      ],
      [
        "fungwa",
        -9.314517807920229
      ],
      [
        "09",
        -9.3153624025533
      ],
      [
        "fahamu",
        -9.316086101084052
      ],
      [
        "Ġkambi",
        -9.31639502058962
      ],
      [
        "watu",
        -9.31689687883049
      ],
      [
        "Ġjune",
        -9.317729386090242
      ],
      [
        "Ġmohamed",
        -9.31814389810796
      ],
      [
        "Ġajabu",
        -9.318580934182105
      ],
      [
        "Ġhuenda",
        -9.318702401775523
      ],
      [
        "Ġda",
        -9.319152765234264
      ],
      [
        "wana",
        -9.320094905659756
      ],
      [
        "cho",
        -9.320104392352164
      ],
      [
        "Ġbo",
        -9.320539199105562
      ],
      [
        "Ġng",
        -9.32085262674314
      ],
      [
        "Ġbahati",
        -9.320870875480088
      ],
      [
        "Ġawe",
        -9.32132028075481
      ],
      [
        "Ġvyuo",
        -9.321514704774913
      ],
      [
        "Ġlicha",
        -9.324725945242552
      ],
      [
        "Ġus",
        -9.326281730864489
      ],
      [
        "ngo",
        -9.32634040043442
      ],
      [
        "24",
        -9.327210805277758
      ],
      [
        "posted",
        -9.32727841708784
      ],
      [
        "Ġmikopo",
        -9.327692587889022
      ],
      [
        "Ġnk",
        -9.331179018127967
      ],
      [
        "hitaji",
        -9.331471329671812
      ],
      [
        "Ġafrica",
        -9.33203259812528
      ],
      [
        "Ġuwekezaji",
        -9.332273505070471
      ],
      [
        "eleza",
        -9.334941801792342
      ],
      [
        "Ġhaina",
        -9.33572708275841
      ],
      [
        "Ġkijana",
        -9.335903762320104
      ],
      [
        "siku",
        -9.335955434565056
      ],
      [
        "Ġsekondari",
        -9.338923190138711
      ],
      [
        "Ġsports",
        -9.339930465010832
      ],
      [
        "Ġkukaa",
        -9.341121640021644
      ],
      [
        "Ġz",
        -9.341637720908446
      ],
      [
        "Ġoctober",
        -9.342490486342562
      ],
      [
        "nde",
        -9.34330148638161
      ],
      [
        "athari",
        -9.343991188444312
      ],
      [
        "Ġmawili",
        -9.34496471524558
      ],
      [
        "Ġkisheria",
        -9.345384162219036
      ],
      [
        "Ġfa",
        -9.345525500622482
      ],
      [
        "Ġmgombea",
        -9.345886834950845
      ],
      [
        "Ġvipi",
        -9.346108722983468
      ],
      [
        "Ġkuzingatia",
        -9.347721108130944
      ],
      [
        "Ġmaombi",
        -9.347992020478868
      ],
      [
        "Ġkichwa",
        -9.34802550298207
      ],
      [
        "Ġufisadi",
        -9.350846903350158
      ],
      [
        "Ġnilikuwa",
        -9.352278861740402
      ],
      [
        "Ġuzinduzi",
        -9.353348733354274
      ],
      [
        "Ġkinyume",
        -9.353591004097048
      ],
      [
        "Ġle",
        -9.354867667212693
      ],
      [
        "Ġmiwili",
        -9.355479789518304
      ],
      [
        "december",
        -9.355660330842332
      ],
      [
        "angalia",
        -9.35602554061177
      ],
      [
        "Ġoyo",
        -9.356799978713193
      ],
      [
        "Ġone",
        -9.358140680156934
      ],
      [
        "Ġmashabiki",
        -9.358202419721286
      ],
      [
        "Ġlolote",
        -9.360565813270902
      ],
      [
        "Ġmakuu",
        -9.360730545214167
      ],
      [
        "03",
        -9.36079523684788
      ],
      [
        "Ġkuimarisha",
        -9.361165046931696
      ],
      [
        "Ġkuwepo",
        -9.36145087723017
      ],
      [
        "Ġmwanaume",
        -9.362450408983298
      ],
      [
        "Ġmaslahi",
        -9.365470525920806
      ],
      [
        "Ġwakazi",
        -9.366561437654838
      ],
      [
        "?\"",
        -9.368418246710316
      ],
      [
        "Ġdaraja",
        -9.368695013961087
      ],
      [
        "Ġmachi",
        -9.369028162742318
      ],
      [
        "Ġmitaa",
        -9.369413154842062
      ],
      [
        "Ġkuomba",
        -9.369466116055143
      ],
      [
        "akizungumza",
        -9.371690670079516
      ],
      [
        "Ġsilaha",
        -9.373321488551992
      ],
      [
        "Ġeti",
        -9.374570590526332
      ],
      [
        "01",
        -9.375950401189543
      ],
      [
        "Ġmorogoro",
        -9.375991950930397
      ],
      [
        "Ġjuni",
        -9.37773395017654
      ],
      [
        "Ġmanispaa",
        -9.378960545406152
      ],
      [
        "Ġpost",
        -9.37917064688688
      ],
      [
        "kila",
        -9.38142251606724
      ],
      [
        "Ġre",
        -9.383393549110568
      ],
      [
        "Ġazam",
        -9.385590703449722
      ],
      [
        "Ġaliyo",
        -9.385591326951989
      ],
      [
        "Ġseptember",
        -9.385865003763094
      ],
      [
        "Ġkuacha",
        -9.386589322709613
      ],
      [
        "Ġutendaji",
        -9.387236645157566
      ],
      [
        "piga",
        -9.387475914309205
      ],
      [
        "Ġh",
        -9.388676007264722
      ],
      [
        "Ġwimbo",
        -9.388680905572691
      ],
      [
        "Ġkushinda",
        -9.389259475182246
      ],
      [
        "shetani",
        -9.389306968078149
      ],
      [
        "!!!",
        -9.390838625481688
      ],
      [
        "Ġwagonjwa",
        -9.390974286094636
      ],
      [
        "Ġmawaziri",
        -9.396085970884869
      ],
      [
        "Ġuwe",
        -9.398014970956885
      ],
      [
        "Ġkwanini",
        -9.399268730999284
      ],
      [
        "Ġwajibu",
        -9.39957588245585
      ],
      [
        "Ġv",
        -9.399610324571798
      ],
      [
        "do",
        -9.39996677135124
      ],
      [
        "Ġamekuwa",
        -9.400878026621296
      ],
      [
        "julai",
        -9.402019280877273
      ],
      [
        "Ġukiwa",
        -9.402250597635284
      ],
      [
        "Ġmagharibi",
        -9.402425682339308
      ],
      [
        "gi",
        -9.402532624188463
      ],
      [
        "Ġfree",
        -9.402937296850272
      ],
      [
        "Ġishara",
        -9.403850112388024
      ],
      [
        "ila",
        -9.40433261845263
      ],
      [
        "Ġmume",
        -9.404368704186789
      ],
      [
        "Ġkiwanda",
        -9.406194499633813
      ],
      [
        "Ġmazao",
        -9.408133616131048
      ],
      [
        "Ġkurudi",
        -9.408210243500012
      ],
      [
        "ru",
        -9.409646657027372
      ],
      [
        "Ġletu",
        -9.409786725004295
      ],
      [
        "Ġvilivyo",
        -9.410998197824949
      ],
      [
        "Ġago",
        -9.411061032088869
      ],
      [
        "2008",
        -9.41139575723819
      ],
      [
        "Ġmbona",
        -9.412516448706423
      ],
      [
        "Ġkusababisha",
        -9.417981765136217
      ],
      [
        "Ġngumu",
        -9.418667187812964
      ],
      [
        "Ġkukabiliana",
        -9.418884480627607
      ],
      [
        "fika",
        -9.419167686413044
      ],
      [
        "Ġse",
        -9.41925130412472
      ],
      [
        "pi",
        -9.420051852434597
      ],
      [
        "Ġjoto",
        -9.421038656212556
      ],
      [
        "Ġiwapo",
        -9.421210235218334
      ],
      [
        "Ġyali",
        -9.423496737936285
      ],
      [
        "Ġcuf",
        -9.42372592794998
      ],
      [
        "Ġoktoba",
        -9.42387210453593
      ],
      [
        "Ġmiguu",
        -9.426208074018836
      ],
      [
        "Ġmzima",
        -9.427258745812352
      ],
      [
        "Ġjanuari",
        -9.428232451019916
      ],
      [
        "Ġambako",
        -9.430246758414304
      ],
      [
        "Ġhassan",
        -9.431455108262202
      ],
      [
        "04",
        -9.431634103640077
      ],
      [
        "Ġkuondoa",
        -9.43203580053322
      ],
      [
        "Ġutakuwa",
        -9.432135754168147
      ],
      [
        "tajwa",
        -9.43418653855295
      ],
      [
        "Ġuko",
        -9.435030616551485
      ],
      [
        "Ġwho",
        -9.435513550220133
      ],
      [
        "Ġbaina",
        -9.435595756908258
      ],
      [
        "kufuatia",
        -9.436348216451169
      ],
      [
        "Ġmauaji",
        -9.438602562682975
      ],
      [
        "Ġjioni",
        -9.439065542514156
      ],
      [
        "Ġmei",
        -9.440002838940185
      ],
      [
        "Ġkuanzisha",
        -9.440279195491222
      ],
      [
        "Ġtanga",
        -9.440954145641909
      ],
      [
        "Ġkutengeneza",
        -9.44223403186496
      ],
      [
        "Ġange",
        -9.44311667127356
      ],
      [
        "Ġkaka",
        -9.443330883435063
      ],
      [
        "Ġkutokea",
        -9.4442720460667
      ],
      [
        "23",
        -9.444977525998462
      ],
      [
        "Ġdiamond",
        -9.446361702679315
      ],
      [
        "Ġwafanyabiashara",
        -9.44686062600658
      ],
      [
        "Ġkike",
        -9.448150228202833
      ],
      [
        "Ġkujifunza",
        -9.448394732875778
      ],
      [
        "Ġsc",
        -9.448759778069606
      ],
      [
        "amesema",
        -9.449153732701474
      ],
      [
        "Ġwageni",
        -9.449479536040467
      ],
      [
        "Ġzawadi",
        -9.449581649356352
      ],
      [
        "Ġzoezi",
        -9.450688543194168
      ],
      [
        "Ġpwani",
        -9.451088474763312
      ],
      [
        "Ġsherehe",
        -9.45193394327286
      ],
      [
        "Ġsura",
        -9.452065814738711
      ],
      [
        "bu",
        -9.452814982413834
      ],
      [
        "Ġvibaya",
        -9.45372199740577
      ],
      [
        "Ġkili",
        -9.454488017170805
      ],
      [
        "tuna",
        -9.456256672612549
      ],
      [
        "maliza",
        -9.456834694922716
      ],
      [
        "Ġvitabu",
        -9.457293730356108
      ],
      [
        "Ġmajukumu",
        -9.457294605281067
      ],
      [
        "man",
        -9.457328470190864
      ],
      [
        "Ġkufanyika",
        -9.457420387779395
      ],
      [
        "Ġmitandao",
        -9.457985948241756
      ],
      [
        "Ġke",
        -9.45946410510457
      ],
      [
        "Ġkumaliza",
        -9.461696520980087
      ],
      [
        "sikia",
        -9.463711697121347
      ],
      [
        "Ġkusimamia",
        -9.465612072985694
      ],
      [
        "Ġkuhusiana",
        -9.465767131839904
      ],
      [
        "ani",
        -9.466478648215087
      ],
      [
        "Ġunapo",
        -9.467754252862417
      ],
      [
        "ve",
        -9.467882011825148
      ],
      [
        "baadhi",
        -9.467892009480291
      ],
      [
        "mpa",
        -9.469398112127854
      ],
      [
        "Ġmakazi",
        -9.469804075678084
      ],
      [
        "Ġusajili",
        -9.469826937274725
      ],
      [
        "kutana",
        -9.469914489768849
      ],
      [
        "Ġvijijini",
        -9.472311583391209
      ],
      [
        "Ġiringa",
        -9.472371467949934
      ],
      [
        "Ġkuondoka",
        -9.472543584031042
      ],
      [
        "Ġmikono",
        -9.472829698572
      ],
      [
        "tz",
        -9.4732383264887
      ],
      [
        "jakaya",
        -9.474887004480784
      ],
      [
        "Ġkufuata",
        -9.47552071117386
      ],
      [
        "Ġmakao",
        -9.475801013155722
      ],
      [
        "02",
        -9.47581604768671
      ],
      [
        "Ġziki",
        -9.476315372846052
      ],
      [
        "Ġkupokea",
        -9.477356286649918
      ],
      [
        "Ġushahidi",
        -9.479342480391756
      ],
      [
        "Ġunataka",
        -9.479791546599728
      ],
      [
        "21",
        -9.48010680985621
      ],
      [
        "Ġga",
        -9.48024321392765
      ],
      [
        "previous",
        -9.481268025147545
      ],
      [
        "Ġjan",
        -9.48131706787434
      ],
      [
        "katibu",
        -9.48188470317602
      ],
      [
        "Ġmazoezi",
        -9.48299645319106
      ],
      [
        "Ġ31",
        -9.483036444176529
      ],
      [
        "Ġshirikisho",
        -9.484430922028414
      ],
      [
        "Ġkukosa",
        -9.48509346703619
      ],
      [
        "Ġdata",
        -9.485633277634916
      ],
      [
        "naibu",
        -9.486635466749313
      ],
      [
        "Ġyuko",
        -9.486991886375522
      ],
      [
        "Ġmaafisa",
        -9.487349250831455
      ],
      [
        "Ġkwangu",
        -9.489025255473983
      ],
      [
        "Ġapr",
        -9.489511943124564
      ],
      [
        "hali",
        -9.491464520695326
      ],
      [
        "penda",
        -9.49181495640448
      ],
      [
        "25",
        -9.49183525766685
      ],
      [
        "st",
        -9.494453402151365
      ],
      [
        "Ġlako",
        -9.494643258954852
      ],
      [
        "Ġvinavyo",
        -9.495243868664051
      ],
      [
        "Ġmeneja",
        -9.495973711188844
      ],
      [
        "ndi",
        -9.496632593561776
      ],
      [
        "Ġsayansi",
        -9.497502333898687
      ],
      [
        "Ġkulinda",
        -9.49766201708725
      ],
      [
        "''",
        -9.498162530040462
      ],
      [
        "jibu",
        -9.498194934925408
      ],
      [
        "Ġti",
        -9.500040171412602
      ],
      [
        "Ġnyimbo",
        -9.501155623987232
      ],
      [
        "Ġmahusiano",
        -9.501576797747909
      ],
      [
        "Ġalama",
        -9.501737081903888
      ],
      [
        "Ġkatikati",
        -9.50280375251072
      ],
      [
        "Ġhis",
        -9.50387367914831
      ],
      [
        "q",
        -9.50623560338568
      ],
      [
        "Ġmadhara",
        -9.506315197975155
      ],
      [
        "Ġmchana",
        -9.50745416787016
      ],
      [
        "leo",
        -9.507837768412823
      ],
      [
        "Ġwenzake",
        -9.50810837606525
      ],
      [
        "Ġmno",
        -9.50832242372326
      ],
      [
        "nya",
        -9.509051717430047
      ],
      [
        "tia",
        -9.509743147286017
      ],
      [
        "Ġmashirika",
        -9.510649147132458
      ],
      [
        "tumiwa",
        -9.511314523640928
      ],
      [
        "Ġthey",
        -9.5116126272684
      ],
      [
        "kulia",
        -9.512533054698922
      ],
      [
        "Ġseptemba",
        -9.514757032061578
      ],
      [
        "pe",
        -9.515292760716434
      ],
      [
        "Ġstory",
        -9.515673257608404
      ],
      [
        "Ġamri",
        -9.517051516001072
      ],
      [
        "Ġ40",
        -9.51760949931848
      ],
      [
        "Ġnaona",
        -9.51765328276234
      ],
      [
        "ruhusu",
        -9.517663716941769
      ],
      [
        "Ġkumbukumbu",
        -9.51813591318978
      ],
      [
        "Ġktk",
        -9.518836068224898
      ],
      [
        "kosa",
        -9.519250495597122
      ],
      [
        "Ġatakuwa",
        -9.519443862718866
      ],
      [
        "mkurugenzi",
        -9.519559574199596
      ],
      [
        "Ġhati",
        -9.519953720990957
      ],
      [
        "Ġmwanga",
        -9.520433593037229
      ],
      [
        "22",
        -9.520657476841748
      ],
      [
        "Ġmpenzi",
        -9.520665966730354
      ],
      [
        "Ġhisia",
        -9.520685320957604
      ],
      [
        "Ġtakwimu",
        -9.522002376013845
      ],
      [
        "Ġmchango",
        -9.522547725104316
      ],
      [
        "Ġnguo",
        -9.523920064146171
      ],
      [
        "Ġkiislamu",
        -9.523971236802891
      ],
      [
        "Ġorodha",
        -9.524890253430614
      ],
      [
        "Ġisiyo",
        -9.525034718528447
      ],
      [
        "Ġusafiri",
        -9.525938140561916
      ],
      [
        "Ġwatatu",
        -9.526764044936558
      ],
      [
        "Ġoct",
        -9.527269265118152
      ],
      [
        "unga",
        -9.52909954207588
      ],
      [
        "Ġwenu",
        -9.530963713479244
      ],
      [
        "shika",
        -9.532117448127398
      ],
      [
        "fuata",
        -9.532804813659506
      ],
      [
        "Ġaug",
        -9.532893337630949
      ],
      [
        "Ġwaislamu",
        -9.533327938943504
      ],
      [
        "Ġahadi",
        -9.536013671614532
      ],
      [
        "Ġbandari",
        -9.536967140592273
      ],
      [
        "michuano",
        -9.537190666408032
      ],
      [
        "Ġkuuza",
        -9.537440459457615
      ],
      [
        "Ġuzoefu",
        -9.53855798430775
      ],
      [
        "Ġnadhani",
        -9.539122604551151
      ],
      [
        "Ġkote",
        -9.53920577270788
      ],
      [
        "Ġmtaa",
        -9.539982461312473
      ],
      [
        "kuwepo",
        -9.539984296001048
      ],
      [
        "pu",
        -9.540025368433271
      ],
      [
        "Ġkufika",
        -9.54057532394308
      ],
      [
        "Ġhotuba",
        -9.540599710910335
      ],
      [
        "Ġdec",
        -9.54089316743172
      ],
      [
        "Ġviwango",
        -9.54109358875035
      ],
      [
        "Ġkita",
        -9.541249464658785
      ],
      [
        "Ġpeople",
        -9.541835536266658
      ],
      [
        "Ġtiba",
        -9.541959552023542
      ],
      [
        "rudi",
        -9.542900881630953
      ],
      [
        "kazi",
        -9.54307301250492
      ],
      [
        "Ġmadarakani",
        -9.544592194254315
      ],
      [
        "Ġvingine",
        -9.545279515747238
      ],
      [
        "Ġjk",
        -9.5459072379532
      ],
      [
        "Ġmsimamo",
        -9.546252453467169
      ],
      [
        "??",
        -9.549630898422944
      ],
      [
        "Ġyupo",
        -9.550863631603708
      ],
      [
        "Ġtime",
        -9.550965247223862
      ],
      [
        "lenye",
        -9.551039962640264
      ],
      [
        "isha",
        -9.551653635328666
      ],
      [
        "onesha",
        -9.551763655096
      ],
      [
        "Ġhawezi",
        -9.552163056418848
      ],
      [
        "ndo",
        -9.552379786554663
      ],
      [
        "Ġmimba",
        -9.552387255756496
      ],
      [
        "Ġmsanii",
        -9.552661730354492
      ],
      [
        "Ġreal",
        -9.553257061115415
      ],
      [
        "una",
        -9.553628606751843
      ],
      [
        "gu",
        -9.553926704280256
      ],
      [
        "Ġmakubaliano",
        -9.554707683764232
      ],
      [
        "Ġjuzi",
        -9.55472942278054
      ],
      [
        "Ġsep",
        -9.555230096795787
      ],
      [
        "Ġsina",
        -9.555685987860606
      ],
      [
        "Ġusimamizi",
        -9.55568697703192
      ],
      [
        "Ġwaweze",
        -9.556324300782332
      ],
      [
        "Ġgu",
        -9.557124446349404
      ],
      [
        "Ġkimoja",
        -9.558237369933869
      ],
      [
        "Ġmadaktari",
        -9.55946959475713
      ],
      [
        "next",
        -9.56212280316386
      ],
      [
        "Ġwito",
        -9.564993192977036
      ],
      [
        "kuandika",
        -9.565015864542335
      ],
      [
        "Ġmfupi",
        -9.565200254942216
      ],
      [
        "Ġjukumu",
        -9.566102498663154
      ],
      [
        "Ġkuwapa",
        -9.567591409270888
      ],
      [
        "Ġchache",
        -9.567617853085364
      ],
      [
        "Ġkupewa",
        -9.567709636586358
      ],
      [
        "Ġwema",
        -9.567807666317815
      ],
      [
        "tokana",
        -9.568258601052891
      ],
      [
        "Ġjengo",
        -9.569260588349657
      ],
      [
        "Ġupya",
        -9.570079696731252
      ],
      [
        "jenga",
        -9.571116148083702
      ],
      [
        "Ġjumapili",
        -9.571523664346964
      ],
      [
        "jengwa",
        -9.571819405770832
      ],
      [
        "Ġco",
        -9.571920101244684
      ],
      [
        "Ġmatunda",
        -9.573436003482575
      ],
      [
        "Ġwasi",
        -9.573682783931478
      ],
      [
        "Ġkufa",
        -9.574512957482453
      ],
      [
        "shiriki",
        -9.574621352647766
      ],
      [
        "Ġdemokrasi",
        -9.57466023939522
      ],
      [
        "Ġhack",
        -9.575821644619907
      ],
      [
        "Ġtamaa",
        -9.575952568911031
      ],
      [
        "Ġakisema",
        -9.576199537285849
      ],
      [
        "Ġbinti",
        -9.577487190758324
      ],
      [
        "Ġukurasa",
        -9.577544715835632
      ],
      [
        "Ġwanasema",
        -9.577605539211495
      ],
      [
        "vyo",
        -9.577918565767934
      ],
      [
        "Ġkitendo",
        -9.578128566914955
      ],
      [
        "Ġallaah",
        -9.579616474014438
      ],
      [
        "Ġhofu",
        -9.579895174430147
      ],
      [
        "Ġif",
        -9.580074770434498
      ],
      [
        "mbo",
        -9.580232542626684
      ],
      [
        "Ġmikutano",
        -9.581329829909093
      ],
      [
        "Ġwataalamu",
        -9.581532943134134
      ],
      [
        "Ġwalipo",
        -9.583275320133712
      ],
      [
        "fanikiwa",
        -9.585361406766436
      ],
      [
        "Ġiran",
        -9.58584939408884
      ],
      [
        "Ġuwezekano",
        -9.585945194826095
      ],
      [
        "Ġhafla",
        -9.586067174707944
      ],
      [
        "Ġrasilimali",
        -9.58749167762607
      ],
      [
        "Ġprofesa",
        -9.58950776536645
      ],
      [
        "Ġkupanda",
        -9.590146661547326
      ],
      [
        "kumbuka",
        -9.590563398822509
      ],
      [
        "kata",
        -9.590797418384607
      ],
      [
        "wekezaji",
        -9.591083811547872
      ],
      [
        "Ġkukutana",
        -9.591578351389671
      ],
      [
        "Ġmiundombinu",
        -9.591779083830094
      ],
      [
        "Ġanapo",
        -9.593058215373988
      ],
      [
        "ongeza",
        -9.594067526992731
      ],
      [
        "Ġkuendeleza",
        -9.59471625444088
      ],
      [
        "Ġhuwezi",
        -9.595334039266405
      ],
      [
        "saidia",
        -9.59577283449308
      ],
      [
        "Ġjf",
        -9.597525927613455
      ],
      [
        "Ġanataka",
        -9.597536032999797
      ],
      [
        "ngi",
        -9.597705883208912
      ],
      [
        "Ġjoseph",
        -9.598114692690684
      ],
      [
        "Ġvingi",
        -9.59950288048248
      ],
      [
        "panda",
        -9.600201580140457
      ],
      [
        "nzi",
        -9.60169707768775
      ],
      [
        "zubeir",
        -9.60307633195356
      ],
      [
        "Ġmajira",
        -9.60413271970719
      ],
      [
        "Ġdarasa",
        -9.604151692716378
      ],
      [
        "kuja",
        -9.60521451678562
      ],
      [
        "Ġkupoteza",
        -9.605400398168678
      ],
      [
        "&#",
        -9.605885892731363
      ],
      [
        "kushoto",
        -9.606006511569454
      ],
      [
        "dai",
        -9.606102041010644
      ],
      [
        "Ġra",
        -9.606399926431353
      ],
      [
        "Ġmagazeti",
        -9.60669060105657
      ],
      [
        "Ġstars",
        -9.606979725315918
      ],
      [
        "lia",
        -9.607083446210709
      ],
      [
        "Ġtawala",
        -9.608720681770944
      ],
      [
        "Ġshein",
        -9.609029450177532
      ],
      [
        "jitihada",
        -9.609072756802483
      ],
      [
        "Ġasi",
        -9.609113184071882
      ],
      [
        "Ġmarafiki",
        -9.60951980683331
      ],
      [
        "Ġaibu",
        -9.609662710177568
      ],
      [
        "Ġmvua",
        -9.609849734084891
      ],
      [
        "daiwa",
        -9.61001935856833
      ],
      [
        "Ġprof",
        -9.61037622310632
      ],
      [
        "Ġdalili",
        -9.610468794579312
      ],
      [
        "son",
        -9.61164444628533
      ],
      [
        "Ġjun",
        -9.611809298255094
      ],
      [
        "tembelea",
        -9.612297233088452
      ],
      [
        "Ġmchanganyiko",
        -9.61391416148784
      ],
      [
        "Ġhadithi",
        -9.613975201997906
      ],
      [
        "Ġkimya",
        -9.61401711749147
      ],
      [
        "Ġvijiji",
        -9.614029406132246
      ],
      [
        "Ġhukumu",
        -9.615664651943629
      ],
      [
        "Ġwhat",
        -9.616434990657345
      ],
      [
        "Ġagosti",
        -9.61675863493349
      ],
      [
        "Ġmifugo",
        -9.62021193665256
      ],
      [
        "Ġfeb",
        -9.621127832724516
      ],
      [
        "Ġhawaja",
        -9.623724010955922
      ],
      [
        "Ġakitoa",
        -9.624192803844783
      ],
      [
        "Ġmitatu",
        -9.624492649058247
      ],
      [
        "Ġdaima",
        -9.625164381610068
      ],
      [
        "Ġmnamo",
        -9.62559493404164
      ],
      [
        "Ġalipokuwa",
        -9.625649389853765
      ],
      [
        "Ġlo",
        -9.625699791905053
      ],
      [
        "undwa",
        -9.626357709771442
      ],
      [
        "Ġjul",
        -9.626474861395796
      ],
      [
        "Ġkujadili",
        -9.626811057073146
      ],
      [
        "Ġhatimaye",
        -9.627813677256496
      ],
      [
        "Ġkumbe",
        -9.62869361701635
      ],
      [
        "Ġtuki",
        -9.62919573401678
      ],
      [
        "Ġpm",
        -9.62963326640375
      ],
      [
        "Ġhoteli",
        -9.629860462797962
      ],
      [
        "Ġjua",
        -9.630916189562576
      ],
      [
        "Ġakina",
        -9.631200289928907
      ],
      [
        "Ġadhabu",
        -9.631787670110224
      ],
      [
        "Ġwadogo",
        -9.632230446362692
      ],
      [
        "Ġsoma",
        -9.634961736450782
      ],
      [
        "Ġupo",
        -9.63624818433148
      ],
      [
        "Ġwasiwasi",
        -9.636882038308231
      ],
      [
        "Ġkudumu",
        -9.637450260970091
      ],
      [
        "Ġzingine",
        -9.637867758182653
      ],
      [
        "Ġdhamana",
        -9.638784895273156
      ],
      [
        "fungua",
        -9.63900264202855
      ],
      [
        "Ġafisa",
        -9.639068485897669
      ],
      [
        "gundua",
        -9.639690131432667
      ],
      [
        "Ġnjema",
        -9.641062215247098
      ],
      [
        "Ġmta",
        -9.64202964552688
      ],
      [
        "Ġseif",
        -9.642355191753408
      ],
      [
        "ry",
        -9.64275309770512
      ],
      [
        "matendo",
        -9.644852248620554
      ],
      [
        "Ġkutambua",
        -9.645240274562385
      ],
      [
        "elewa",
        -9.645940287731436
      ],
      [
        "Ġmfalme",
        -9.646320259601396
      ],
      [
        "beba",
        -9.64632679762774
      ],
      [
        "Ġshe",
        -9.646550625202568
      ],
      [
        "poteza",
        -9.647068623306549
      ],
      [
        "Ġarticle",
        -9.647091137027926
      ],
      [
        "Ġjirani",
        -9.64732013274799
      ],
      [
        "Ġufaransa",
        -9.647718791918129
      ],
      [
        "shwa",
        -9.647771575938132
      ],
      [
        "Ġtuhuma",
        -9.648173168334662
      ],
      [
        "wahi",
        -9.648307492675867
      ],
      [
        "Ġijumaa",
        -9.64882439437782
      ],
      [
        "Ġmatumaini",
        -9.64900928872852
      ],
      [
        "Ġtiketi",
        -9.649132164425057
      ],
      [
        "Ġwanataka",
        -9.649949295819946
      ],
      [
        "zungumza",
        -9.650293509704998
      ],
      [
        "Ġnane",
        -9.650822468344646
      ],
      [
        "kaimu",
        -9.651155338073725
      ],
      [
        "Ġallah",
        -9.651164704363524
      ],
      [
        "ch",
        -9.652295740079152
      ],
      [
        "Ġnov",
        -9.652469267311377
      ],
      [
        "Ġwachache",
        -9.652987759742215
      ],
      [
        "Ġmkazi",
        -9.653025777871308
      ],
      [
        "Ġwatendaji",
        -9.65330595302927
      ],
      [
        "Ġmaandamano",
        -9.654519978108471
      ],
      [
        "mwenyekiti",
        -9.655185550310447
      ],
      [
        "ripoti",
        -9.65547330321143
      ],
      [
        "Ġrisasi",
        -9.655482828735495
      ],
      [
        "Ġmasoko",
        -9.65649258930032
      ],
      [
        "Ġwakubwa",
        -9.657318471539476
      ],
      [
        "Ġuso",
        -9.657783527746084
      ],
      [
        "kutumika",
        -9.658580896783324
      ],
      [
        "cheza",
        -9.6590305164422
      ],
      [
        "Ġmiji",
        -9.659130312642356
      ],
      [
        "Ġnigeria",
        -9.660025445358295
      ],
      [
        "Ġpande",
        -9.660573611150422
      ],
      [
        "Ġchumba",
        -9.661022926024664
      ],
      [
        "Ġmstaafu",
        -9.661105022074985
      ],
      [
        "Ġutoaji",
        -9.6614162108802
      ],
      [
        "2007",
        -9.661709895323064
      ],
      [
        "Ġshinyanga",
        -9.661998914980591
      ],
      [
        "Ġvirusi",
        -9.662686759804185
      ],
      [
        "taarifa",
        -9.662770474405338
      ],
      [
        "Ġtaa",
        -9.662996670806791
      ],
      [
        "Ġniki",
        -9.664223785873018
      ],
      [
        "26",
        -9.664874657589175
      ],
      [
        "Ġkuchangia",
        -9.665155846852835
      ],
      [
        "Ġjamani",
        -9.665213267338094
      ],
      [
        "Ġmtanzania",
        -9.665227830198074
      ],
      [
        "Ġfacebook",
        -9.666078491591207
      ],
      [
        "anzishwa",
        -9.666176233433776
      ],
      [
        "Ġkilimanjaro",
        -9.666312359968192
      ],
      [
        "Ġkukuza",
        -9.666577102570884
      ],
      [
        "Ġaprili",
        -9.667191963716151
      ],
      [
        "Ġndivyo",
        -9.6672219334081
      ],
      [
        "mara",
        -9.66882082173751
      ],
      [
        "Ġgesi",
        -9.670537612267172
      ],
      [
        "Ġmakampuni",
        -9.672261514537997
      ],
      [
        "panga",
        -9.672313633053957
      ],
      [
        "Ġwatakao",
        -9.672354296713872
      ],
      [
        "desemb",
        -9.672365929497309
      ],
      [
        "Ġkuzungumza",
        -9.6735322325261
      ],
      [
        "lenga",
        -9.674109238470436
      ],
      [
        "video",
        -9.67437807544944
      ],
      [
        "pamoja",
        -9.674820128033977
      ],
      [
        "Ġwi",
        -9.674979513407107
      ],
      [
        "nunua",
        -9.675023899041284
      ],
      [
        "Ġbahari",
        -9.675268230564244
      ],
      [
        "Ġmiti",
        -9.676370868575196
      ],
      [
        "wezesha",
        -9.676402208248316
      ],
      [
        "Ġakawa",
        -9.676495912823643
      ],
      [
        "Ġlile",
        -9.676524701775206
      ],
      [
        "Ġbwa",
        -9.677247609661526
      ],
      [
        "mungu",
        -9.677966354399135
      ],
      [
        "Ġjukwaa",
        -9.678171403055355
      ],
      [
        "Ġmtazamo",
        -9.679080265935246
      ],
      [
        "Ġvime",
        -9.679396917994282
      ],
      [
        "Ġmpo",
        -9.681453576080846
      ],
      [
        "ume",
        -9.681521328839226
      ],
      [
        "Ġlike",
        -9.682341492977583
      ],
      [
        "Ġ$",
        -9.682756314152368
      ],
      [
        "Ġ07",
        -9.68375477905802
      ],
      [
        "Ġurusi",
        -9.68605371960432
      ],
      [
        "Ġiliyopo",
        -9.687070455609682
      ],
      [
        "Ġabiria",
        -9.687515566436604
      ],
      [
        "Ġibada",
        -9.688515989728456
      ],
      [
        "Ġakaunti",
        -9.688959927174585
      ],
      [
        "Ġel",
        -9.689143041068167
      ],
      [
        "Ġndoto",
        -9.689622120648576
      ],
      [
        "vunja",
        -9.689840057760632
      ],
      [
        "Ġwingi",
        -9.690368808887278
      ],
      [
        "Ġkulikuwa",
        -9.690734680333236
      ],
      [
        "Ġwanyama",
        -9.692395900836948
      ],
      [
        "Ġmajaliwa",
        -9.69499318648833
      ],
      [
        "Ġoff",
        -9.695332427989207
      ],
      [
        "Ġpeke",
        -9.695857383083116
      ],
      [
        "Ġmaadhimisho",
        -9.696005332074495
      ],
      [
        "Ġuongo",
        -9.696854608728984
      ],
      [
        "Ġnyama",
        -9.697330315415764
      ],
      [
        "Ġjaji",
        -9.697770382907771
      ],
      [
        "by",
        -9.698052980236152
      ],
      [
        "28",
        -9.698106140847347
      ],
      [
        "Ġjapo",
        -9.69817642096096
      ],
      [
        "Ġmadaraka",
        -9.69819067604736
      ],
      [
        "Ġtuka",
        -9.698918974445943
      ],
      [
        "paswa",
        -9.699227595898682
      ],
      [
        "Ġslaa",
        -9.699520312128548
      ],
      [
        "Ġnyota",
        -9.699748136367004
      ],
      [
        "uza",
        -9.69976169448116
      ],
      [
        "Ġreli",
        -9.700424433955302
      ],
      [
        "50",
        -9.701385489123147
      ],
      [
        "pigwa",
        -9.701586471212764
      ],
      [
        "Ġwakimbizi",
        -9.701684651515489
      ],
      [
        "Ġmaandalizi",
        -9.702433598789066
      ],
      [
        "Ġwalivyo",
        -9.702533125913048
      ],
      [
        "it",
        -9.702828030840683
      ],
      [
        "Ġswala",
        -9.70299255911805
      ],
      [
        "Ġenzi",
        -9.703297397903691
      ],
      [
        "nye",
        -9.703433523388682
      ],
      [
        "2017",
        -9.703591791769496
      ],
      [
        "Ġmw",
        -9.703744894504757
      ],
      [
        "Ġubunge",
        -9.704673368444006
      ],
      [
        "Ġsingida",
        -9.704855718110672
      ],
      [
        "Ġze",
        -9.705722940433828
      ],
      [
        "uliza",
        -9.706060148844625
      ],
      [
        "mabingwa",
        -9.707888270507448
      ],
      [
        "Ġhaija",
        -9.709288206991028
      ],
      [
        "Ġuliofanyika",
        -9.71001246804281
      ],
      [
        "shinda",
        -9.710385644025608
      ],
      [
        "Ġuliopita",
        -9.710922935316136
      ],
      [
        "Ġngozi",
        -9.712785211169212
      ],
      [
        "rejea",
        -9.71285916715276
      ],
      [
        "changia",
        -9.712972742503537
      ],
      [
        "font",
        -9.7134049042532
      ],
      [
        "Ġmedia",
        -9.713821788300436
      ],
      [
        "Ġhawaku",
        -9.714137368838475
      ],
      [
        "shindwa",
        -9.715393632129222
      ],
      [
        "amua",
        -9.716766874808238
      ],
      [
        "zwa",
        -9.717031576395472
      ],
      [
        "Ġreviewe",
        -9.718143162837986
      ],
      [
        "Ġwanapo",
        -9.718317391903756
      ],
      [
        "Ġkudhibiti",
        -9.720365736966192
      ],
      [
        "Ġbibi",
        -9.721807928744624
      ],
      [
        "Ġmkakati",
        -9.72254932237095
      ],
      [
        "one",
        -9.723024197067568
      ],
      [
        "Ġyata",
        -9.72337147142312
      ],
      [
        "Ġkuonekana",
        -9.724273099475214
      ],
      [
        "Ġve",
        -9.724616101613126
      ],
      [
        "Ġliki",
        -9.724687220013251
      ],
      [
        "lipa",
        -9.725101677063275
      ],
      [
        "Ġukimwi",
        -9.725696319174446
      ],
      [
        "Ġufanisi",
        -9.726170102015686
      ],
      [
        "Ġlowassa",
        -9.72652467392359
      ],
      [
        "husika",
        -9.728420280950298
      ],
      [
        "Ġziada",
        -9.728546695084423
      ],
      [
        "Ġmatangazo",
        -9.729833437690896
      ],
      [
        "Ġmbegu",
        -9.730115050881317
      ],
      [
        "hivyo",
        -9.730488702778326
      ],
      [
        "Ġtunaweza",
        -9.731825757878406
      ],
      [
        "Ġkigoma",
        -9.73297632376627
      ],
      [
        "Ġsudan",
        -9.733396449531162
      ],
      [
        "vo",
        -9.73441416834376
      ],
      [
        "simama",
        -9.738399752198571
      ],
      [
        "Ġchombo",
        -9.738597767874415
      ],
      [
        "Ġkufungua",
        -9.738623302406136
      ],
      [
        "elezea",
        -9.739091849728108
      ],
      [
        "Ġunajua",
        -9.739717231998478
      ],
      [
        "ce",
        -9.740362114076778
      ],
      [
        "Ġgo",
        -9.740495635568715
      ],
      [
        "mama",
        -9.740567074720357
      ],
      [
        "zungumzia",
        -9.741265060377884
      ],
      [
        "lala",
        -9.742478344816716
      ],
      [
        "ambiwa",
        -9.743265051619789
      ],
      [
        "sho",
        -9.743337086888593
      ],
      [
        "Ġtrump",
        -9.74436241985419
      ],
      [
        "lazimika",
        -9.746187000100326
      ],
      [
        "Ġfebruari",
        -9.746497977418326
      ],
      [
        "Ġinawezekana",
        -9.747401691583317
      ],
      [
        "Ġout",
        -9.747435170023342
      ],
      [
        "Ġmgeni",
        -9.74809139426262
      ],
      [
        "Ġnga",
        -9.74809625552046
      ],
      [
        "hakuna",
        -9.749169138637454
      ],
      [
        "or",
        -9.750908567530438
      ],
      [
        "Ġen",
        -9.751044664953724
      ],
      [
        "Ġmlango",
        -9.75175450197101
      ],
      [
        "tangazwa",
        -9.752849827903756
      ],
      [
        "naye",
        -9.753078396144383
      ],
      [
        "fikiria",
        -9.753081023067196
      ],
      [
        "Ġlangu",
        -9.753588269581313
      ],
      [
        "Ġher",
        -9.756381610074952
      ],
      [
        "adui",
        -9.757444145953825
      ],
      [
        "Ġimara",
        -9.757448044623487
      ],
      [
        "Ġkuchagua",
        -9.757706120775117
      ],
      [
        "Ġkutangaza",
        -9.758027614190668
      ],
      [
        "Ġwatumiaji",
        -9.758349176086057
      ],
      [
        "Ġpointi",
        -9.759122645911514
      ],
      [
        "Ġkagera",
        -9.75954665740666
      ],
      [
        "Ġthen",
        -9.76065766021953
      ],
      [
        "Ġuzito",
        -9.76069309774613
      ],
      [
        "Ġmwanafunzi",
        -9.761149522207749
      ],
      [
        "funga",
        -9.76125223076337
      ],
      [
        "Ġmashine",
        -9.761607763341322
      ],
      [
        "Ġmisaada",
        -9.762367144527987
      ],
      [
        "makofi",
        -9.76280615634844
      ],
      [
        "Ġmaumivu",
        -9.763116671370282
      ],
      [
        "Ġtanganyika",
        -9.763748216817891
      ],
      [
        "Ġmisri",
        -9.76443741215896
      ],
      [
        "fe",
        -9.76625906657578
      ],
      [
        "Ġjumamosi",
        -9.76640849590406
      ],
      [
        "Ġmtwara",
        -9.766787928756456
      ],
      [
        "fanyiwa",
        -9.767032808241977
      ],
      [
        "Ġmkewe",
        -9.767145965262475
      ],
      [
        "Ġyasiyo",
        -9.768141813745272
      ],
      [
        "pitia",
        -9.77009948632922
      ],
      [
        "Ġhau",
        -9.770577384688446
      ],
      [
        "ies",
        -9.771749717629316
      ],
      [
        "Ġpaul",
        -9.772889570121729
      ],
      [
        "Ġmgogoro",
        -9.773233061466478
      ],
      [
        "Ġhela",
        -9.774071412727055
      ],
      [
        "Ġkuongoza",
        -9.77432855996302
      ],
      [
        "Ġhususan",
        -9.77480416282452
      ],
      [
        "Ġkupinga",
        -9.77539664554852
      ],
      [
        "ongezeka",
        -9.776205513471204
      ],
      [
        "baki",
        -9.776613844219511
      ],
      [
        "Ġkiungo",
        -9.77842186645449
      ],
      [
        "Ġlive",
        -9.779126448165869
      ],
      [
        "Ġkuki",
        -9.779526479633702
      ],
      [
        "Ġwatakuwa",
        -9.780071154454356
      ],
      [
        "Ġkidato",
        -9.780225350890223
      ],
      [
        "sisitiza",
        -9.780737226607414
      ],
      [
        "Ġkumpa",
        -9.78083539206795
      ],
      [
        "Ġmipaka",
        -9.781640211925405
      ],
      [
        "Ġmeli",
        -9.781766716978126
      ],
      [
        "ano",
        -9.782196391346464
      ],
      [
        "Ġitakayo",
        -9.782746097690032
      ],
      [
        "Ġhatu",
        -9.783219768883884
      ],
      [
        "Ġhuja",
        -9.783650890199656
      ],
      [
        "Ġzisizo",
        -9.785293221460662
      ],
      [
        "Ġmanchester",
        -9.78687894330978
      ],
      [
        "tume",
        -9.78780393597726
      ],
      [
        "mhe",
        -9.78808699351132
      ],
      [
        "27",
        -9.788325237699905
      ],
      [
        "Ġmto",
        -9.788513199819528
      ],
      [
        "mb",
        -9.789049702626546
      ],
      [
        "Ġhumu",
        -9.789900370416207
      ],
      [
        "ment",
        -9.790039064934124
      ],
      [
        "Ġkuelewa",
        -9.790223385867016
      ],
      [
        "Ġziwa",
        -9.790265308416965
      ],
      [
        "linda",
        -9.790477542803846
      ],
      [
        "ibuka",
        -9.792332296192267
      ],
      [
        "hapa",
        -9.79347769665124
      ],
      [
        "Ġkwasababu",
        -9.794533916873736
      ],
      [
        "Ġmkopo",
        -9.794799130359513
      ],
      [
        "mbi",
        -9.795430781152628
      ],
      [
        "Ġsay",
        -9.795483740236952
      ],
      [
        "Ġtz",
        -9.796454843508368
      ],
      [
        "tengeneza",
        -9.796573942296405
      ],
      [
        "anzisha",
        -9.79776726074808
      ],
      [
        "nyi",
        -9.797887413056952
      ],
      [
        "Ġru",
        -9.798145562019611
      ],
      [
        "tazama",
        -9.798705261701096
      ],
      [
        "Ġmoshi",
        -9.798724551956749
      ],
      [
        "Ġatakaye",
        -9.799201640083387
      ],
      [
        "Ġfomu",
        -9.79998519188537
      ],
      [
        "Ġtheir",
        -9.800548969709116
      ],
      [
        "Ġmitano",
        -9.801895783878708
      ],
      [
        "chadema",
        -9.802683259833763
      ],
      [
        "jitahidi",
        -9.802791514062765
      ],
      [
        "Ġjinsia",
        -9.803441333446957
      ],
      [
        "kikundi",
        -9.803940410519154
      ],
      [
        "2018",
        -9.80448024275126
      ],
      [
        "Ġzitto",
        -9.804894527103306
      ],
      [
        "Ġsambamba",
        -9.80518759578092
      ],
      [
        "Ġkulevya",
        -9.80636761625774
      ],
      [
        "Ġlilikuwa",
        -9.8066677544214
      ],
      [
        "Ġmshindi",
        -9.80738444229044
      ],
      [
        "chi",
        -9.808374922880988
      ],
      [
        "Ġuhai",
        -9.808912154350876
      ],
      [
        "haya",
        -9.809112367160017
      ],
      [
        "Ġsyria",
        -9.809293574924716
      ],
      [
        "Ġupatikanaji",
        -9.81119553854966
      ],
      [
        "subiri",
        -9.811471324897443
      ],
      [
        "Ġ06",
        -9.811923619377511
      ],
      [
        "Ġkuendesha",
        -9.81232856087599
      ],
      [
        "Ġusio",
        -9.813108310198375
      ],
      [
        "ngu",
        -9.813896791246044
      ],
      [
        "Ġujao",
        -9.8141193875616
      ],
      [
        "Ġkusikia",
        -9.814446989962793
      ],
      [
        "Ġzilizopo",
        -9.81484691367512
      ],
      [
        "Ġrufaa",
        -9.81538948564132
      ],
      [
        "Ġhazina",
        -9.817317123930737
      ],
      [
        "mhandisi",
        -9.81810229050258
      ],
      [
        "Ġmkali",
        -9.818374218334002
      ],
      [
        "Ġkubadilisha",
        -9.818753503232465
      ],
      [
        "kiwemo",
        -9.818792877436358
      ],
      [
        "40",
        -9.81880034774696
      ],
      [
        "Ġharakati",
        -9.81887583085163
      ],
      [
        "Ġelfu",
        -9.819134766225613
      ],
      [
        "Ġx",
        -9.819596017235444
      ],
      [
        "ufalme",
        -9.81979260976336
      ],
      [
        "Ġkizazi",
        -9.820135044053528
      ],
      [
        "Ġwasichana",
        -9.820444846362646
      ],
      [
        "Ġisipokuwa",
        -9.821462556624091
      ],
      [
        "Ġsukari",
        -9.821996724332475
      ],
      [
        "Ġyenyewe",
        -9.822212001393552
      ],
      [
        "Ġkuamua",
        -9.82278214535176
      ],
      [
        "ujuzi",
        -9.822866535699312
      ],
      [
        "ene",
        -9.823756442487278
      ],
      [
        "Ġyalikuwa",
        -9.824076544223615
      ],
      [
        "Ġdu",
        -9.825072065759953
      ],
      [
        "endapo",
        -9.82545174734046
      ],
      [
        "sisi",
        -9.8254966119032
      ],
      [
        "Ġabout",
        -9.825713876576376
      ],
      [
        "ongea",
        -9.827577491518678
      ],
      [
        "zaidi",
        -9.829864725282324
      ],
      [
        "Ġkupita",
        -9.83106267282646
      ],
      [
        "Ġpole",
        -9.83141138292723
      ],
      [
        "Ġswahili",
        -9.832432359463228
      ],
      [
        "Ġkumu",
        -9.832590133240622
      ],
      [
        "Ġukubwa",
        -9.833263115076342
      ],
      [
        "Ġkuandaa",
        -9.83327311922744
      ],
      [
        "Ġhazi",
        -9.83327921055622
      ],
      [
        "Ġpengine",
        -9.83348079220812
      ],
      [
        "Ġhalali",
        -9.833648816698314
      ],
      [
        "Ġmme",
        -9.83619881514489
      ],
      [
        "Ġour",
        -9.836280313801202
      ],
      [
        "simamia",
        -9.836570519104855
      ],
      [
        "29",
        -9.836667491658115
      ],
      [
        "Ġmisingi",
        -9.837464392926366
      ],
      [
        "kitengo",
        -9.837861469792175
      ],
      [
        "Ġjibu",
        -9.837892741178637
      ],
      [
        "ikiwa",
        -9.838888871622752
      ],
      [
        "mp",
        -9.840680453624485
      ],
      [
        "jumanne",
        -9.841541196052011
      ],
      [
        "Ġnafuu",
        -9.841811836387304
      ],
      [
        "Ġngoma",
        -9.841899898344495
      ],
      [
        "kufa",
        -9.842288601366594
      ],
      [
        "Ġbaridi",
        -9.84325203342438
      ],
      [
        "kana",
        -9.84506864222462
      ],
      [
        "Ġmwingi",
        -9.845260115716812
      ],
      [
        "Ġmbio",
        -9.845294875040231
      ],
      [
        "ndugu",
        -9.84535221173844
      ],
      [
        "Ġsu",
        -9.845484428896189
      ],
      [
        "majengo",
        -9.845636209681752
      ],
      [
        "Ġ60",
        -9.846011324305405
      ],
      [
        "Ġbox",
        -9.846555540695237
      ],
      [
        "Ġkamwe",
        -9.846871655023197
      ],
      [
        "Ġsamaki",
        -9.847128698635933
      ],
      [
        "Ġindia",
        -9.847197656386836
      ],
      [
        "Ġwanasiasa",
        -9.848103376088048
      ],
      [
        "Ġmabaya",
        -9.848755937164718
      ],
      [
        "Ġunahitaji",
        -9.850013709719295
      ],
      [
        "Ġmaarifa",
        -9.851038353904483
      ],
      [
        "ondoka",
        -9.851158137938612
      ],
      [
        "Ġutumishi",
        -9.85207152010578
      ],
      [
        "Ġkatoliki",
        -9.852792868420472
      ],
      [
        "ers",
        -9.853002414469806
      ],
      [
        "barani",
        -9.854040446060925
      ],
      [
        "el",
        -9.854561674630627
      ],
      [
        "Ġkudai",
        -9.855119716813032
      ],
      [
        "Ġchi",
        -9.855223937142137
      ],
      [
        "Ġtabora",
        -9.856377807143616
      ],
      [
        "Ġmanufaa",
        -9.856654283351151
      ],
      [
        "Ġmikakati",
        -9.857717246497376
      ],
      [
        "shuka",
        -9.857834814451415
      ],
      [
        "Ġwashiriki",
        -9.858129438919187
      ],
      [
        "Ġwanadamu",
        -9.858739336000705
      ],
      [
        "zuia",
        -9.858842353008434
      ],
      [
        "Ġmkapa",
        -9.860346179829822
      ],
      [
        "tambua",
        -9.860747617031908
      ],
      [
        "Ġwapinzani",
        -9.86314530273464
      ],
      [
        "mwishoni",
        -9.86450159223436
      ],
      [
        "kula",
        -9.864704148138394
      ],
      [
        "Ġmbowe",
        -9.866078591557294
      ],
      [
        "2005",
        -9.866443504556988
      ],
      [
        "Ġmsaidizi",
        -9.866755255326751
      ],
      [
        "Ġafrican",
        -9.866810524802515
      ],
      [
        "Ġgood",
        -9.870541823503205
      ],
      [
        "madiwani",
        -9.870767630772113
      ],
      [
        "Ġmasharti",
        -9.87096551686612
      ],
      [
        "Ġradio",
        -9.871459933121155
      ],
      [
        "Ġaba",
        -9.87165374428756
      ],
      [
        "Ġarsenal",
        -9.872093991756994
      ],
      [
        "novemba",
        -9.872566778682218
      ],
      [
        "Ġja",
        -9.87277082458534
      ],
      [
        "Ġnya",
        -9.873428719560955
      ],
      [
        "Ġkigeni",
        -9.873629712021012
      ],
      [
        "Ġmilele",
        -9.873938832683244
      ],
      [
        "pelekea",
        -9.874321171032646
      ],
      [
        "Ġdaktari",
        -9.874758371920684
      ],
      [
        "Ġisrael",
        -9.877108591568234
      ],
      [
        "funguliwa",
        -9.877503275198052
      ],
      [
        "Ġmaziwa",
        -9.878542298843286
      ],
      [
        "Ġuk",
        -9.878922737606644
      ],
      [
        "Ġtamasha",
        -9.87910511004457
      ],
      [
        "fi",
        -9.879846892902725
      ],
      [
        "tegemea",
        -9.88159276537768
      ],
      [
        "Ġmadawa",
        -9.881991179298492
      ],
      [
        "Ġkukubali",
        -9.882739066467806
      ],
      [
        "peleka",
        -9.883933328460907
      ],
      [
        "stahili",
        -9.885047462050782
      ],
      [
        "Ġkiume",
        -9.885454440665
      ],
      [
        "tuma",
        -9.889014705190712
      ],
      [
        "Ġmafisadi",
        -9.889047589915725
      ],
      [
        "Ġkutembelea",
        -9.889446782088148
      ],
      [
        "elezwa",
        -9.890225800098126
      ],
      [
        "Ġkiti",
        -9.891067692341254
      ],
      [
        "Ġada",
        -9.89120630211364
      ],
      [
        "Ġalitoa",
        -9.892520824870406
      ],
      [
        "Ġbarabarani",
        -9.89269676967288
      ],
      [
        "Ġhakuwa",
        -9.893152184325308
      ],
      [
        "Ġhuruma",
        -9.893539161465489
      ],
      [
        "husisha",
        -9.89512192671982
      ],
      [
        "ula",
        -9.895544794421054
      ],
      [
        "Ġmti",
        -9.89622941539534
      ],
      [
        "wapa",
        -9.896928971826512
      ],
      [
        "Ġmikataba",
        -9.897584738391554
      ],
      [
        "che",
        -9.898910703939698
      ],
      [
        "Ġpemba",
        -9.899427542923828
      ],
      [
        "Ġbaadae",
        -9.899622330535164
      ],
      [
        "Ġkuongezeka",
        -9.899976110054611
      ],
      [
        "Ġinjili",
        -9.900416701639156
      ],
      [
        "Ġkuwasaidia",
        -9.900580628743011
      ],
      [
        "natakiwa",
        -9.901077998796
      ],
      [
        "Ġ08",
        -9.901530689562902
      ],
      [
        "Ġkale",
        -9.90155149503142
      ],
      [
        "mwa",
        -9.90167282525188
      ],
      [
        "Ġhasira",
        -9.901713614483214
      ],
      [
        "Ġvifo",
        -9.902152386166945
      ],
      [
        "Ġkujali",
        -9.902815982954024
      ],
      [
        "Ġmkononi",
        -9.904080872774587
      ],
      [
        "Ġmbinguni",
        -9.904230803145834
      ],
      [
        "Ġtisa",
        -9.904376867437076
      ],
      [
        "makamu",
        -9.904565829541294
      ],
      [
        "Ġvyakula",
        -9.904900133239192
      ],
      [
        "Ġwanafanya",
        -9.904985485211732
      ],
      [
        "sikiliza",
        -9.905172547381168
      ],
      [
        "Ġuzazi",
        -9.906314720871332
      ],
      [
        "Ġkuhifadhi",
        -9.90669923554584
      ],
      [
        "Ġworld",
        -9.907036009328817
      ],
      [
        "Ġnyakati",
        -9.907219438455126
      ],
      [
        "Ġhuna",
        -9.908230444488138
      ],
      [
        "Ġkukata",
        -9.908413644762604
      ],
      [
        "is",
        -9.910059217666989
      ],
      [
        "mbunge",
        -9.910575360271954
      ],
      [
        "tawala",
        -9.910725325722424
      ],
      [
        "Ġmwananchi",
        -9.910822456745024
      ],
      [
        "Ġburundi",
        -9.911504331151896
      ],
      [
        "Ġzipo",
        -9.911742294369594
      ],
      [
        "Ġviti",
        -9.9129184229535
      ],
      [
        "Ġother",
        -9.913542448023756
      ],
      [
        "Ġkisa",
        -9.91462768811476
      ],
      [
        "Ġbaraka",
        -9.915678544247484
      ],
      [
        "jaji",
        -9.916743412506603
      ],
      [
        "31",
        -9.916926101242936
      ],
      [
        "Ġtff",
        -9.91790106249194
      ],
      [
        "tekeleza",
        -9.917910476786632
      ],
      [
        "unda",
        -9.918234641144856
      ],
      [
        "Ġufundi",
        -9.918635476120947
      ],
      [
        "Ġdavid",
        -9.920382098865929
      ],
      [
        "Ġzenu",
        -9.921195341971636
      ],
      [
        "Ġshow",
        -9.92131914554253
      ],
      [
        "kwe",
        -9.922337194288271
      ],
      [
        "du",
        -9.92284469631923
      ],
      [
        "ju",
        -9.924644799206884
      ],
      [
        "tamko",
        -9.924899944323922
      ],
      [
        "Ġnjaa",
        -9.925163181202803
      ],
      [
        "Ġum",
        -9.926294431706236
      ],
      [
        "ametoa",
        -9.92679913763206
      ],
      [
        "ukuaji",
        -9.928241814509391
      ],
      [
        "Ġkujibu",
        -9.929270503541488
      ],
      [
        "ongoza",
        -9.931050785104864
      ],
      [
        "Ġkinondoni",
        -9.93113785882311
      ],
      [
        "vaa",
        -9.93130298143906
      ],
      [
        "Ġraha",
        -9.931382799347093
      ],
      [
        "Ġjipya",
        -9.931781438115516
      ],
      [
        "Ġ200",
        -9.932741976694745
      ],
      [
        "Ġuwepo",
        -9.93279163769065
      ],
      [
        "Ġneema",
        -9.933508449361282
      ],
      [
        "Ġangalia",
        -9.93377563406803
      ],
      [
        "Ġwagombea",
        -9.933822109421634
      ],
      [
        "Ġmr",
        -9.934738348980002
      ],
      [
        "um",
        -9.935438544445224
      ],
      [
        "Ġkuunda",
        -9.936168703845569
      ],
      [
        "Ġuturuki",
        -9.93695346695641
      ],
      [
        "nime",
        -9.937367269436873
      ],
      [
        "Ġinternational",
        -9.93778153187706
      ],
      [
        "Ġhamu",
        -9.938759104850815
      ],
      [
        "Ġmapambano",
        -9.939300532833157
      ],
      [
        "Ġjumatat",
        -9.939613490820769
      ],
      [
        "kamatwa",
        -9.939614539553672
      ],
      [
        "Ġkutatua",
        -9.940456692591956
      ],
      [
        "Ġsare",
        -9.940752976206594
      ],
      [
        "mojawapo",
        -9.942583211302818
      ],
      [
        "Ġkuzalisha",
        -9.943446165952524
      ],
      [
        "chagua",
        -9.944178211262305
      ],
      [
        "\",\"",
        -9.944735861858032
      ],
      [
        "Ġngono",
        -9.945301854841482
      ],
      [
        "mbu",
        -9.945563715077126
      ],
      [
        "Ġkutolewa",
        -9.94648570277569
      ],
      [
        "Ġ05",
        -9.946510341011972
      ],
      [
        "Ġwafuasi",
        -9.946778614939628
      ],
      [
        "Ġnairobi",
        -9.94710296245195
      ],
      [
        "Ġmema",
        -9.9477312168954
      ],
      [
        "Ġday",
        -9.948142061406486
      ],
      [
        "Ġburudani",
        -9.9486363496607
      ],
      [
        "baba",
        -9.94946222748039
      ],
      [
        "kutimiza",
        -9.9499634510738
      ],
      [
        "mfanya",
        -9.949975095816717
      ],
      [
        "jo",
        -9.9504363780941
      ],
      [
        "zingatia",
        -9.9513903656882
      ],
      [
        "Ġgod",
        -9.951558169324557
      ],
      [
        "Ġhow",
        -9.951806857074228
      ],
      [
        "Ġmadrid",
        -9.952075167473208
      ],
      [
        "Ġmarufuku",
        -9.952262500157175
      ],
      [
        "Ġmita",
        -9.95251714821099
      ],
      [
        "kabila",
        -9.952604464913154
      ],
      [
        "taja",
        -9.952758801513925
      ],
      [
        "Ġkorea",
        -9.953114957356904
      ],
      [
        "Ġinavyo",
        -9.954141822867909
      ],
      [
        "liwa",
        -9.954488963778878
      ],
      [
        "mgonjwa",
        -9.956405360856882
      ],
      [
        "ang",
        -9.958129043565355
      ],
      [
        "Ġchelsea",
        -9.958325035704403
      ],
      [
        "Ġbest",
        -9.95911617613194
      ],
      [
        "Ġkassim",
        -9.960430918101842
      ],
      [
        "Ġread",
        -9.960929921085002
      ],
      [
        "Ġusafi",
        -9.961070777475072
      ],
      [
        "Ġjust",
        -9.962365537998236
      ],
      [
        "Ġsija",
        -9.962486428272076
      ],
      [
        "Ġlini",
        -9.963570325576164
      ],
      [
        "2006",
        -9.963716766891316
      ],
      [
        "Ġinasema",
        -9.964072333176796
      ],
      [
        "Ġete",
        -9.964968141643018
      ],
      [
        "Ġdhana",
        -9.96563342482814
      ],
      [
        "Ġsuluhu",
        -9.965974465689628
      ],
      [
        "Ġmzazi",
        -9.96841909911448
      ],
      [
        "pinga",
        -9.96851715580928
      ],
      [
        "Ġmuri",
        -9.9688189178246
      ],
      [
        "jali",
        -9.970314090044376
      ],
      [
        "Ġvyao",
        -9.970767563732942
      ],
      [
        "Ġmia",
        -9.971009766947308
      ],
      [
        "Ġviungo",
        -9.972038365549365
      ],
      [
        "Ġnami",
        -9.972835146599136
      ],
      [
        "Ġshamba",
        -9.972869615165326
      ],
      [
        "Ġuislamu",
        -9.97314718879926
      ],
      [
        "Ġzinaweza",
        -9.973444333174088
      ],
      [
        "Ġkupatikana",
        -9.975435533179674
      ],
      [
        "Ġmagumu",
        -9.97586104306535
      ],
      [
        "kali",
        -9.97633907370762
      ],
      [
        "Ġrekodi",
        -9.97649298785383
      ],
      [
        "shuhudia",
        -9.976624698171742
      ],
      [
        "Ġwakristo",
        -9.97743830391568
      ],
      [
        "Ġkufuatilia",
        -9.977675253138765
      ],
      [
        "andaliwa",
        -9.977676601745204
      ],
      [
        "Ġkuzaliwa",
        -9.977708283343953
      ],
      [
        "Ġvigumu",
        -9.97841051898877
      ],
      [
        "Ġmzigo",
        -9.9786828644086
      ],
      [
        "Ġcdm",
        -9.97873511798515
      ],
      [
        "maelekezo",
        -9.978741187285667
      ],
      [
        "Ġmtihani",
        -9.97985774835963
      ],
      [
        "fo",
        -9.980735974469413
      ],
      [
        "hili",
        -9.980983172026704
      ],
      [
        "Ġkingine",
        -9.981369605422302
      ],
      [
        "Ġyango",
        -9.982553581097156
      ],
      [
        "2016",
        -9.983668145448435
      ],
      [
        "Ġkiingereza",
        -9.983872034283117
      ],
      [
        "Ġkuongea",
        -9.985634811312902
      ],
      [
        "Ġ04",
        -9.986648848777854
      ],
      [
        "mifumo",
        -9.986658228985416
      ],
      [
        "mapya",
        -9.987183423909464
      ],
      [
        "usi",
        -9.989805392096144
      ],
      [
        "Ġbana",
        -9.989875171680218
      ],
      [
        "ic",
        -9.990652625870696
      ],
      [
        "Ġijayo",
        -9.99086815610633
      ],
      [
        "mwaka",
        -9.992067278604644
      ],
      [
        "Ġgroup",
        -9.993562009851384
      ],
      [
        "Ġmoko",
        -9.99442731352434
      ],
      [
        "Ġkulala",
        -9.995272456731223
      ],
      [
        "Ġqur",
        -9.995434512831793
      ],
      [
        "Ġmigogoro",
        -9.995584748872826
      ],
      [
        "Ġkutokuwa",
        -9.996632791767883
      ],
      [
        "andaa",
        -9.996896738038783
      ],
      [
        "Ġkamanda",
        -9.996970866445125
      ],
      [
        "Ġwawakilishi",
        -9.997120446733364
      ],
      [
        "Ġvikao",
        -10.00033324542957
      ],
      [
        "ishia",
        -10.00041541886612
      ],
      [
        "Ġhebu",
        -10.00084385954919
      ],
      [
        "dar",
        -10.001168361563018
      ],
      [
        "Ġbank",
        -10.001324842819365
      ],
      [
        "haramu",
        -10.00153530203938
      ],
      [
        "Ġlika",
        -10.001978718288422
      ],
      [
        "Ġmjadala",
        -10.002138824695011
      ],
      [
        "Ġtsh",
        -10.002330941410918
      ],
      [
        "basi",
        -10.002502390865413
      ],
      [
        "Ġmfululizo",
        -10.003548837998828
      ],
      [
        "Ġkya",
        -10.003819460490686
      ],
      [
        "Ġangalau",
        -10.003836426852692
      ],
      [
        "shirika",
        -10.003981459635904
      ],
      [
        "Ġkibiashara",
        -10.005413798777962
      ],
      [
        "wewe",
        -10.00614886774746
      ],
      [
        "Ġ09",
        -10.006186698031309
      ],
      [
        "pelekwa",
        -10.006349965822332
      ],
      [
        "Ġongezeko",
        -10.006490108502604
      ],
      [
        "Ġwizi",
        -10.006532976170474
      ],
      [
        "Ġwawe",
        -10.006805689158936
      ],
      [
        "Ġvurugu",
        -10.006846470500252
      ],
      [
        "ingiza",
        -10.007436728248056
      ],
      [
        "Ġushirika",
        -10.00792048664858
      ],
      [
        "pendekeza",
        -10.008049585812724
      ],
      [
        "Ġmusic",
        -10.00854973615162
      ],
      [
        "Ġkero",
        -10.00912578965274
      ],
      [
        "Ġkiroho",
        -10.009400144126456
      ],
      [
        "hawa",
        -10.00962261619549
      ],
      [
        "Ġmaambukizi",
        -10.010226899018946
      ],
      [
        "Ġinaonekana",
        -10.010333998263953
      ],
      [
        "Ġukawa",
        -10.011792268458915
      ],
      [
        "dk",
        -10.012691891685442
      ],
      [
        "Ġchenye",
        -10.01294322381719
      ],
      [
        "Ġpeter",
        -10.013319903866456
      ],
      [
        "rs",
        -10.013328473019987
      ],
      [
        "Ġobama",
        -10.013429000663422
      ],
      [
        "Ġinakuwa",
        -10.013659373908109
      ],
      [
        "Ġst",
        -10.014200036429754
      ],
      [
        "Ġulemavu",
        -10.014699776318784
      ],
      [
        "Ġsala",
        -10.014716437120851
      ],
      [
        "Ġkipato",
        -10.014733457108344
      ],
      [
        "nd",
        -10.01487151068122
      ],
      [
        "jukwaa",
        -10.015531103176691
      ],
      [
        "ondoa",
        -10.017005262251365
      ],
      [
        "Ġkikamilifu",
        -10.01762941933034
      ],
      [
        "Ġkamba",
        -10.018579845028505
      ],
      [
        "Ġnafsi",
        -10.01890291210809
      ],
      [
        "lissu",
        -10.018920862334095
      ],
      [
        "mapendekezo",
        -10.019105347763094
      ],
      [
        "Ġkukamilisha",
        -10.019105842703471
      ],
      [
        "Ġvema",
        -10.019357001027362
      ],
      [
        "Ġbusara",
        -10.019414015479738
      ],
      [
        "kataa",
        -10.019815027871402
      ],
      [
        "Ġtafadhali",
        -10.020655712028995
      ],
      [
        "Ġofisini",
        -10.021288861340487
      ],
      [
        "Ġiliyokuwa",
        -10.02139697229134
      ],
      [
        "Ġmbadala",
        -10.021471486829665
      ],
      [
        "Ġwanavyo",
        -10.02166318177128
      ],
      [
        "hudhuria",
        -10.022294415278044
      ],
      [
        "Ġari",
        -10.022814433321612
      ],
      [
        "Ġwhich",
        -10.023960269272235
      ],
      [
        "Ġhigh",
        -10.02413848041184
      ],
      [
        "Ġmiss",
        -10.024434136461352
      ],
      [
        "Ġtra",
        -10.024835260634472
      ],
      [
        "Ġmstari",
        -10.025524950458273
      ],
      [
        "ir",
        -10.02560700158552
      ],
      [
        "Ġvodacom",
        -10.025856217388334
      ],
      [
        "Ġasiye",
        -10.02629313320716
      ],
      [
        "huyu",
        -10.02699090231873
      ],
      [
        "ame",
        -10.02702359349166
      ],
      [
        "lipwa",
        -10.027793941760688
      ],
      [
        "Ġvideos",
        -10.028116007713182
      ],
      [
        "Ġkipekee",
        -10.028454446096182
      ],
      [
        "sahau",
        -10.029530993590974
      ],
      [
        "Ġdhahabu",
        -10.029927394085243
      ],
      [
        "Ġang",
        -10.030410845216014
      ],
      [
        "Ġany",
        -10.030526305533083
      ],
      [
        "Ġwange",
        -10.03098224383258
      ],
      [
        "Ġuhalifu",
        -10.031111097906932
      ],
      [
        "Ġ03",
        -10.03119305238274
      ],
      [
        "Ġzilikuwa",
        -10.031557519776136
      ],
      [
        "Ġkuta",
        -10.03171073386664
      ],
      [
        "Ġhasara",
        -10.031804501930315
      ],
      [
        "Ġutu",
        -10.031971524235525
      ],
      [
        "mtu",
        -10.03240106324359
      ],
      [
        "Ġ01",
        -10.032570896351778
      ],
      [
        "Ġwapiga",
        -10.033968185110284
      ],
      [
        "ahidi",
        -10.034037685571892
      ],
      [
        "Ġover",
        -10.03404758240164
      ],
      [
        "Ġnow",
        -10.034757350323044
      ],
      [
        "jue",
        -10.035664904090186
      ],
      [
        "Ġnikiwa",
        -10.035689427115926
      ],
      [
        "Ġanga",
        -10.03582362023373
      ],
      [
        "mwe",
        -10.039286741792168
      ],
      [
        "Ġmawe",
        -10.040758750763676
      ],
      [
        "you",
        -10.041038035600996
      ],
      [
        "mteja",
        -10.043401025622384
      ],
      [
        "Ġkazini",
        -10.045116651041331
      ],
      [
        "uki",
        -10.045686860883126
      ],
      [
        "Ġkana",
        -10.046032040015431
      ],
      [
        "Ġmashambulizi",
        -10.046244539009916
      ],
      [
        "Ġhadharani",
        -10.046739524077472
      ],
      [
        "Ġwahusika",
        -10.047287666940893
      ],
      [
        "Ġmahojiano",
        -10.047770368454188
      ],
      [
        "Ġkufanikiwa",
        -10.049614515588292
      ],
      [
        "Ġmaua",
        -10.052509306582689
      ],
      [
        "Ġjumatano",
        -10.053037415763146
      ],
      [
        "Ġknow",
        -10.05340221854749
      ],
      [
        "Ġwaumini",
        -10.053534603781577
      ],
      [
        "timu",
        -10.05354037547346
      ],
      [
        "Ġmjumbe",
        -10.05385321063865
      ],
      [
        "andikwa",
        -10.054738785882884
      ],
      [
        "Ġkuamini",
        -10.055527289618702
      ],
      [
        "Ġmingine",
        -10.055989872020692
      ],
      [
        "Ġrating",
        -10.056149051849864
      ],
      [
        "gwa",
        -10.05641233502108
      ],
      [
        "Ġanayo",
        -10.057186694804926
      ],
      [
        "Ġunguja",
        -10.057332350029808
      ],
      [
        "Ġukaguzi",
        -10.058168866850128
      ],
      [
        "ruhusiwa",
        -10.059058003017809
      ],
      [
        "Ġmohammed",
        -10.059777337100147
      ],
      [
        "Ġ90",
        -10.059823591380797
      ],
      [
        "tupa",
        -10.06074872136121
      ],
      [
        "Ġgi",
        -10.061420846360951
      ],
      [
        "Ġuvuvi",
        -10.06152165412132
      ],
      [
        "thibitisha",
        -10.062051272159575
      ],
      [
        "Ġikawa",
        -10.064231467041424
      ],
      [
        "Ġuwanjani",
        -10.064587362615182
      ],
      [
        "Ġkunywa",
        -10.064735013577078
      ],
      [
        "kuhusu",
        -10.065511095948942
      ],
      [
        "Ġanafanya",
        -10.06713276757019
      ],
      [
        "Ġukosefu",
        -10.067215183244745
      ],
      [
        "Ġanavyo",
        -10.067415620993152
      ],
      [
        "Ġutulivu",
        -10.068486423619738
      ],
      [
        "Ġwilliam",
        -10.068843771443827
      ],
      [
        "mbe",
        -10.069588188259916
      ],
      [
        "Ġilipo",
        -10.070074358141962
      ],
      [
        "Ġthere",
        -10.070205510088424
      ],
      [
        "Ġkijeshi",
        -10.07026705904531
      ],
      [
        "Ġkompyuta",
        -10.071116711639924
      ],
      [
        "Ġkukusanya",
        -10.071838395705685
      ],
      [
        "rd",
        -10.07222625931757
      ],
      [
        "dhati",
        -10.07276042661517
      ],
      [
        "ton",
        -10.07280202831236
      ],
      [
        "Ġmake",
        -10.07369741942972
      ],
      [
        "Ġpopote",
        -10.074222900319295
      ],
      [
        "Ġ80",
        -10.075417567540288
      ],
      [
        "Ġbingwa",
        -10.075701330901396
      ],
      [
        "Ġurahisi",
        -10.07582750921733
      ],
      [
        "2015",
        -10.07583879963866
      ],
      [
        "jadili",
        -10.076270565869653
      ],
      [
        "Ġanajua",
        -10.076447040640996
      ],
      [
        "Ġubingwa",
        -10.077131220623375
      ],
      [
        "kutokana",
        -10.07715961712557
      ],
      [
        "Ġlwa",
        -10.07729877577515
      ],
      [
        "Ġled",
        -10.077372890142929
      ],
      [
        "Ġlove",
        -10.077896403258872
      ],
      [
        "Ġkusikiliza",
        -10.078025477797048
      ],
      [
        "Ġyanaweza",
        -10.078296755549149
      ],
      [
        "ubunifu",
        -10.07869377973767
      ],
      [
        "pili",
        -10.078938008761025
      ],
      [
        "wastani",
        -10.079068271888346
      ],
      [
        "Ġinaendelea",
        -10.079477192337292
      ],
      [
        "Ġkugombea",
        -10.080472341219878
      ],
      [
        "Ġtwitter",
        -10.082603156861769
      ],
      [
        "hayo",
        -10.08282075661131
      ],
      [
        "Ġvilevile",
        -10.0828428247903
      ],
      [
        "Ġmajeshi",
        -10.08317910803792
      ],
      [
        "!\"",
        -10.083541674462005
      ],
      [
        "Ġghafla",
        -10.08412660787727
      ],
      [
        "Ġro",
        -10.08426602470499
      ],
      [
        "tenda",
        -10.084411499235811
      ],
      [
        "kamilika",
        -10.084559110729757
      ],
      [
        "Ġulimwenguni",
        -10.08482054907824
      ],
      [
        "Ġmrisho",
        -10.085087473374733
      ],
      [
        "Ġvyanzo",
        -10.08538791847996
      ],
      [
        "Ġbar",
        -10.085403329489978
      ],
      [
        "Ġtuu",
        -10.085703653547498
      ],
      [
        "Ġengland",
        -10.087202859503115
      ],
      [
        "Ġdogo",
        -10.087701479324576
      ],
      [
        "wasiliana",
        -10.08829422483688
      ],
      [
        "Ġnaamini",
        -10.088484418341128
      ],
      [
        "wenzetu",
        -10.088544586382492
      ],
      [
        "Ġuliopo",
        -10.08855737237671
      ],
      [
        "Ġhatuna",
        -10.089493449588796
      ],
      [
        "Ġkenyatta",
        -10.090373411389994
      ],
      [
        "Ġpaulo",
        -10.09057831261498
      ],
      [
        "Ġbeen",
        -10.090849960209525
      ],
      [
        "Ġhaiku",
        -10.09125030414754
      ],
      [
        "Ġwakala",
        -10.091497831781696
      ],
      [
        "Ġaku",
        -10.09270632993498
      ],
      [
        "Ġ02",
        -10.093024518167072
      ],
      [
        "tiwa",
        -10.0935470794647
      ],
      [
        "Ġchuki",
        -10.093648442835942
      ],
      [
        "82",
        -10.093748582760004
      ],
      [
        "Ġcomment",
        -10.093912702190805
      ],
      [
        "Ġcase",
        -10.095309217271264
      ],
      [
        "Ġmsichana",
        -10.096585961718072
      ],
      [
        "aba",
        -10.097084895640483
      ],
      [
        "Ġkelele",
        -10.097862269608193
      ],
      [
        "Ġkongamano",
        -10.09811163834113
      ],
      [
        "Ġuliyo",
        -10.09840743008051
      ],
      [
        "aki",
        -10.099616440761698
      ],
      [
        "Ġmchungaji",
        -10.100659154881852
      ],
      [
        "Ġsemina",
        -10.101533706514942
      ],
      [
        "Ġtuko",
        -10.101709470038529
      ],
      [
        "Ġkurejea",
        -10.101744431652588
      ],
      [
        "ul",
        -10.10279479959896
      ],
      [
        "Ġmajani",
        -10.10314911109424
      ],
      [
        "Ġmtandaoni",
        -10.103430401974322
      ],
      [
        "Ġgoogle",
        -10.10390184191536
      ],
      [
        "Ġhakimu",
        -10.10437372690498
      ],
      [
        "Ġcorona",
        -10.1052590772351
      ],
      [
        "nayo",
        -10.106734518529937
      ],
      [
        "badilisha",
        -10.106994646483717
      ],
      [
        "Ġmafundish",
        -10.107276214870756
      ],
      [
        "Ġmatatu",
        -10.10749102300113
      ],
      [
        "Ġfikra",
        -10.107687895168883
      ],
      [
        "Ġkueleza",
        -10.10773436103227
      ],
      [
        "Ġalifanya",
        -10.107855353760815
      ],
      [
        "Ġambae",
        -10.108941287110156
      ],
      [
        "Ġaskofu",
        -10.109506991224272
      ],
      [
        "Ġkihistoria",
        -10.11009903253952
      ],
      [
        "Ġtanesco",
        -10.110908843400166
      ],
      [
        "Ġmaonyesho",
        -10.110922978241874
      ],
      [
        "Ġmalalamiko",
        -10.111220306472926
      ],
      [
        "mar",
        -10.111863920647256
      ],
      [
        "zaliwa",
        -10.112218229835236
      ],
      [
        "ati",
        -10.112649476777705
      ],
      [
        "Ġtija",
        -10.112879799433884
      ],
      [
        "Ġlife",
        -10.113343233307326
      ],
      [
        "badilika",
        -10.113594940277656
      ],
      [
        "Ġmaandishi",
        -10.114075217296516
      ],
      [
        "karne",
        -10.114343035362127
      ],
      [
        "Ġmwenzake",
        -10.115972482911314
      ],
      [
        "Ġcar",
        -10.11645462256211
      ],
      [
        "Ġkukua",
        -10.11687184623518
      ],
      [
        "Ġbabu",
        -10.117019680267262
      ],
      [
        "Ġvery",
        -10.119117213179134
      ],
      [
        "agizo",
        -10.11912726564304
      ],
      [
        "timiza",
        -10.11912967408415
      ],
      [
        "majimbo",
        -10.11915522488283
      ],
      [
        "ine",
        -10.119393026110725
      ],
      [
        "swali",
        -10.121768680179985
      ],
      [
        "iba",
        -10.12234615412906
      ],
      [
        "Ġhad",
        -10.122730179255726
      ],
      [
        "kurugenzi",
        -10.122885358765055
      ],
      [
        "shughulikia",
        -10.122946012358591
      ],
      [
        "Ġvikuu",
        -10.123088893657751
      ],
      [
        "Ġkipya",
        -10.12328110243778
      ],
      [
        "Ġkufungwa",
        -10.1235031186946
      ],
      [
        "Ġwere",
        -10.123983974565428
      ],
      [
        "Ġhawawezi",
        -10.124250361143831
      ],
      [
        "ion",
        -10.124459149157651
      ],
      [
        "Ġiliyofanyika",
        -10.124989050704686
      ],
      [
        "dereva",
        -10.125112645951154
      ],
      [
        "2013",
        -10.12531651398702
      ],
      [
        "Ġlindi",
        -10.12545735187075
      ],
      [
        "Ġkibao",
        -10.125782115758874
      ],
      [
        "tangazo",
        -10.126031354879816
      ],
      [
        "urafiki",
        -10.126351144127913
      ],
      [
        "Ġgeorge",
        -10.126404107961733
      ],
      [
        "Ġhesabu",
        -10.126861667276998
      ],
      [
        "Ġallaahu",
        -10.127246664964908
      ],
      [
        "shirikiana",
        -10.128448941280622
      ],
      [
        "Ġtumbo",
        -10.128803250482894
      ],
      [
        "mbali",
        -10.12937835587728
      ],
      [
        "Ġsumu",
        -10.130402241621054
      ],
      [
        "Ġusawa",
        -10.13117320623883
      ],
      [
        "Ġmwema",
        -10.13212026899787
      ],
      [
        "Ġmakali",
        -10.132463141921082
      ],
      [
        "Ġnakala",
        -10.132841227006152
      ],
      [
        "Ġbango",
        -10.13347661212887
      ],
      [
        "ter",
        -10.133782270496273
      ],
      [
        "ongozwa",
        -10.134022605048978
      ],
      [
        "Ġendelevu",
        -10.134517939098275
      ],
      [
        "fikishwa",
        -10.134641094409698
      ],
      [
        "Ġfull",
        -10.134897076181952
      ],
      [
        "Ġpro",
        -10.13499909778112
      ],
      [
        "maelfu",
        -10.135005890603283
      ],
      [
        "Ġits",
        -10.135715624184392
      ],
      [
        "Ġudhibiti",
        -10.136572575889264
      ],
      [
        "Ġbima",
        -10.136835428720794
      ],
      [
        "elekea",
        -10.136836486784908
      ],
      [
        "Ġmwinyi",
        -10.137424836753636
      ],
      [
        "endesha",
        -10.137710746394502
      ],
      [
        "moja",
        -10.137742655761304
      ],
      [
        "Ġsome",
        -10.138329775128334
      ],
      [
        "Ġnapenda",
        -10.138584655461251
      ],
      [
        "Ġudongo",
        -10.138727518976651
      ],
      [
        "Ġurefu",
        -10.13893145453519
      ],
      [
        "Ġmaskini",
        -10.139778661546334
      ],
      [
        "Ġpinda",
        -10.140475222082763
      ],
      [
        "Ġunavyo",
        -10.140783591135367
      ],
      [
        "Ġzima",
        -10.142376912279529
      ],
      [
        "kwanza",
        -10.142811749995891
      ],
      [
        "Ġredio",
        -10.142953904202557
      ],
      [
        "Ġar",
        -10.142963976522086
      ],
      [
        "maradhi",
        -10.143089029294249
      ],
      [
        "ation",
        -10.143468471689015
      ],
      [
        "Ġwapya",
        -10.143897140006612
      ],
      [
        "[.]",
        -10.14460422169191
      ],
      [
        "katikati",
        -10.1447145700995
      ],
      [
        "kuta",
        -10.144948860863815
      ],
      [
        "hitajika",
        -10.145705772062607
      ],
      [
        "Ġuendeshaji",
        -10.146736084339729
      ],
      [
        "land",
        -10.146969614866045
      ],
      [
        "Ġkona",
        -10.14725343244611
      ],
      [
        "Ġupungufu",
        -10.147813047909684
      ],
      [
        "Ġmlima",
        -10.149132624791676
      ],
      [
        "Ġhadhi",
        -10.149490622688791
      ],
      [
        "toleo",
        -10.149672499518225
      ],
      [
        "Ġothers",
        -10.150080472538995
      ],
      [
        "Ġmsi",
        -10.151060343238694
      ],
      [
        "iwa",
        -10.151271780364793
      ],
      [
        "Ġhisa",
        -10.151441357849247
      ],
      [
        "Ġmasaa",
        -10.152063929717482
      ],
      [
        "katoliki",
        -10.152335796753253
      ],
      [
        "Ġhaita",
        -10.152544129761957
      ],
      [
        "Ġvyenye",
        -10.152613752440844
      ],
      [
        "Ġnazo",
        -10.15308939859852
      ],
      [
        "Ġuteuzi",
        -10.153151359533773
      ],
      [
        "Ġnidhamu",
        -10.153446289145808
      ],
      [
        "potea",
        -10.15447091600194
      ],
      [
        "ity",
        -10.154680518388496
      ],
      [
        "aka",
        -10.154741311567047
      ],
      [
        "Ġpower",
        -10.15549451389322
      ],
      [
        "Ġkipa",
        -10.15586006962896
      ],
      [
        "Ġisraeli",
        -10.157958166297902
      ],
      [
        "kabidhiwa",
        -10.15801044566644
      ],
      [
        "Ġkuepuka",
        -10.158174467943368
      ],
      [
        "Ġpembeni",
        -10.158536736417528
      ],
      [
        "Ġserikalini",
        -10.15879711233434
      ],
      [
        "kosea",
        -10.158837171610076
      ],
      [
        "Ġkupanga",
        -10.158926679670264
      ],
      [
        "Ġmarekebisho",
        -10.160047754073291
      ],
      [
        "Ġthem",
        -10.160241995601506
      ],
      [
        "Ġulivyo",
        -10.16076459587339
      ],
      [
        "Ġ70",
        -10.161878098986532
      ],
      [
        "Ġwenzao",
        -10.16256885328072
      ],
      [
        "jifunza",
        -10.162853367350412
      ],
      [
        "shikilia",
        -10.163041313402749
      ],
      [
        "Ġally",
        -10.163393027037522
      ],
      [
        "Ġvili",
        -10.164066327932172
      ],
      [
        "Ġunge",
        -10.165063472585343
      ],
      [
        "ama",
        -10.165399201753903
      ],
      [
        "Ġufafanuzi",
        -10.166030232103145
      ],
      [
        "ck",
        -10.16620094352116
      ],
      [
        "Ġchaguo",
        -10.166389976531512
      ],
      [
        "eni",
        -10.166552587849663
      ],
      [
        "Ġdw",
        -10.167352793143577
      ],
      [
        "nyo",
        -10.167728837020585
      ],
      [
        "Ġalhamis",
        -10.16793007019776
      ],
      [
        "Ġkidini",
        -10.16808976438254
      ],
      [
        "jikuta",
        -10.168406300500642
      ],
      [
        "Ġmishahara",
        -10.16864406561994
      ],
      [
        "Ġkupeleka",
        -10.16888327283459
      ],
      [
        "Ġmovie",
        -10.168937399818171
      ],
      [
        "Ġhapana",
        -10.169012914025268
      ],
      [
        "fuatilia",
        -10.169342998097251
      ],
      [
        "Ġuharibifu",
        -10.16953602821143
      ],
      [
        "imesema",
        -10.169578681397866
      ],
      [
        "Ġcharles",
        -10.170325598180051
      ],
      [
        "Ġukatili",
        -10.170543660963446
      ],
      [
        "Ġusafirishaji",
        -10.171105156230333
      ],
      [
        "Ġibrahim",
        -10.171194674221034
      ],
      [
        "kisha",
        -10.17158900763453
      ],
      [
        "Ġkufanikisha",
        -10.171798141583094
      ],
      [
        "Ġmshahara",
        -10.172451410178711
      ],
      [
        "Ġiliyotolewa",
        -10.172516221877917
      ],
      [
        "Ġwazo",
        -10.172621346076763
      ],
      [
        "45",
        -10.173507798799823
      ],
      [
        "Ġvikwazo",
        -10.174033512936688
      ],
      [
        "Ġuchafu",
        -10.174373411417822
      ],
      [
        "Ġwanajeshi",
        -10.17439795328156
      ],
      [
        "Ġclub",
        -10.1745853400691
      ],
      [
        "Ġmwongozo",
        -10.174646860251984
      ],
      [
        "iyo",
        -10.174734682604242
      ],
      [
        "Ġmizigo",
        -10.175048467869363
      ],
      [
        "Ġshukrani",
        -10.175068250380791
      ],
      [
        "Ġshi",
        -10.175371926143306
      ],
      [
        "wapenzi",
        -10.175401335865304
      ],
      [
        "Ġban",
        -10.17541798154377
      ],
      [
        "Ġkwi",
        -10.176390083853017
      ],
      [
        "Ġmakonda",
        -10.176616561740616
      ],
      [
        "Ġmwelekeo",
        -10.176631372540085
      ],
      [
        "Ġwaliyo",
        -10.176732978421317
      ],
      [
        "jumuisha",
        -10.177593934791574
      ],
      [
        "leseni",
        -10.177598840890138
      ],
      [
        "hapo",
        -10.17773051369022
      ],
      [
        "Ġkinga",
        -10.178023763896553
      ],
      [
        "Ġmuhammad",
        -10.179032363126453
      ],
      [
        "kiri",
        -10.179369829835954
      ],
      [
        "Ġkuvunja",
        -10.17990110853724
      ],
      [
        "Ġinabidi",
        -10.181327205269287
      ],
      [
        "Ġkuwania",
        -10.18137080962029
      ],
      [
        "Ġnta",
        -10.181839430702862
      ],
      [
        "Ġliverpool",
        -10.18209110049808
      ],
      [
        "anzia",
        -10.182387744404291
      ],
      [
        "unganisha",
        -10.182458470208015
      ],
      [
        "Ġjames",
        -10.182763387764858
      ],
      [
        "benki",
        -10.182987792417174
      ],
      [
        "maandiko",
        -10.18329664502578
      ],
      [
        "Ġninyi",
        -10.183323807784342
      ],
      [
        "Ġnape",
        -10.183385647729043
      ],
      [
        "Ġsheikh",
        -10.184124701777112
      ],
      [
        "nina",
        -10.18417073810006
      ],
      [
        "Ġgovernment",
        -10.184202713985142
      ],
      [
        "naomba",
        -10.184553288280462
      ],
      [
        "jenerali",
        -10.184676060499248
      ],
      [
        "kubaliana",
        -10.184885531116016
      ],
      [
        "Ġkuvi",
        -10.185055608718091
      ],
      [
        "yaani",
        -10.185700171283877
      ],
      [
        "Ġmimea",
        -10.186235847267785
      ],
      [
        "tengenezwa",
        -10.186246667531066
      ],
      [
        "bidi",
        -10.186477125546556
      ],
      [
        "Ġgeita",
        -10.186835597863492
      ],
      [
        "Ġvinginevyo",
        -10.18696181546069
      ],
      [
        "viongozi",
        -10.187008239853116
      ],
      [
        "Ġmeya",
        -10.187048144957036
      ],
      [
        "32",
        -10.188211429089618
      ],
      [
        "Ġmwakilishi",
        -10.18833238678588
      ],
      [
        "Ġbig",
        -10.19034745028843
      ],
      [
        "Ġmuundo",
        -10.190909743757937
      ],
      [
        "Ġafter",
        -10.190958342719266
      ],
      [
        "dhahiri",
        -10.191393523740626
      ],
      [
        "Ġmashamba",
        -10.191688613413664
      ],
      [
        "Ġca",
        -10.191763843038643
      ],
      [
        "Ġamerika",
        -10.19183494006428
      ],
      [
        "ndu",
        -10.191869825829626
      ],
      [
        "Ġhaiwezi",
        -10.192418445832834
      ],
      [
        "Ġwanne",
        -10.19247240930466
      ],
      [
        "pichani",
        -10.19267388969514
      ],
      [
        "Ġutajiri",
        -10.192964823658857
      ],
      [
        "kwani",
        -10.193053553888726
      ],
      [
        "Ġchako",
        -10.193590984499131
      ],
      [
        "???",
        -10.193804211052276
      ],
      [
        "kati",
        -10.194363977365567
      ],
      [
        "Ġwhen",
        -10.19440630247892
      ],
      [
        "Ġushindani",
        -10.195248621622175
      ],
      [
        "Ġmshambuliaji",
        -10.197249576520946
      ],
      [
        "nchi",
        -10.197276014799446
      ],
      [
        "Ġtusi",
        -10.19753696866397
      ],
      [
        "Ġnilipo",
        -10.197706644376613
      ],
      [
        "Ġhatia",
        -10.197904776440188
      ],
      [
        "Ġinge",
        -10.198362168331476
      ],
      [
        "Ġ35",
        -10.19855002373514
      ],
      [
        "Ġufunguzi",
        -10.199064436905129
      ],
      [
        "Ġinaonyesha",
        -10.19950137699293
      ],
      [
        "Ġtigo",
        -10.199764480469602
      ],
      [
        "Ġcongo",
        -10.200880714754009
      ],
      [
        "agiza",
        -10.200892298459417
      ],
      [
        "Ġmzunguko",
        -10.20095788473024
      ],
      [
        "kwenye",
        -10.201379598965293
      ],
      [
        "Ġtawi",
        -10.201638018410534
      ],
      [
        "simba",
        -10.201971937880929
      ],
      [
        "Ġumekuwa",
        -10.201998714191983
      ],
      [
        "wasilisha",
        -10.203058400514928
      ],
      [
        "Ġvikundi",
        -10.20363699144911
      ],
      [
        "dumu",
        -10.204236473047535
      ],
      [
        "Ġairtel",
        -10.205077722577888
      ],
      [
        "Ġkuwekeza",
        -10.205206986439768
      ],
      [
        "ununuzi",
        -10.205567847485948
      ],
      [
        "35",
        -10.206072156326368
      ],
      [
        "unaweza",
        -10.20632618893633
      ],
      [
        "Ġnde",
        -10.206576284436968
      ],
      [
        "tukufu",
        -10.206871432713424
      ],
      [
        "Ġtakribani",
        -10.206944567250511
      ],
      [
        "Ġ500",
        -10.20696054497054
      ],
      [
        "hama",
        -10.206973969073434
      ],
      [
        "ble",
        -10.207312793665697
      ],
      [
        "Ġngo",
        -10.207325545592663
      ],
      [
        "Ġmsamaha",
        -10.207406759859946
      ],
      [
        "Ġkupigwa",
        -10.208091103833445
      ],
      [
        "Ġltd",
        -10.208151222798689
      ],
      [
        "Ġzitakazo",
        -10.208332854036296
      ],
      [
        "kweli",
        -10.208886117357697
      ],
      [
        "Ġdharura",
        -10.208907766235097
      ],
      [
        "Ġwanayo",
        -10.210395273449535
      ],
      [
        "tembea",
        -10.210496308218088
      ],
      [
        "tatizo",
        -10.211411885812058
      ],
      [
        "mauzo",
        -10.211543299374116
      ],
      [
        "Ġdon",
        -10.21269622374404
      ],
      [
        "Ġkubaki",
        -10.213027442291466
      ],
      [
        "33",
        -10.213514160121
      ],
      [
        "Ġamewataka",
        -10.213969648033832
      ],
      [
        "Ġkwenu",
        -10.214553325053776
      ],
      [
        "Ġkushika",
        -10.21509410845973
      ],
      [
        "Ġjapan",
        -10.21595247732698
      ],
      [
        "pangwa",
        -10.215987212589706
      ],
      [
        "hekima",
        -10.2160261533519
      ],
      [
        "kutoka",
        -10.216789493752213
      ],
      [
        "athiri",
        -10.216810088273885
      ],
      [
        "vyake",
        -10.217775643695964
      ],
      [
        "ll",
        -10.217878831733614
      ],
      [
        "Ġmavazi",
        -10.218289924262471
      ],
      [
        "Ġkusafiri",
        -10.218609636300634
      ],
      [
        "Ġkutuma",
        -10.21874182560982
      ],
      [
        "Ġnyie",
        -10.21957515300072
      ],
      [
        "Ġham",
        -10.220088410878867
      ],
      [
        "Ġkuchunguza",
        -10.22037678284616
      ],
      [
        "news",
        -10.22060012402437
      ],
      [
        "Ġkufikiri",
        -10.22127452040112
      ],
      [
        "Ġfm",
        -10.221320208546064
      ],
      [
        "Ġumaskini",
        -10.22152568899693
      ],
      [
        "ini",
        -10.22191713583734
      ],
      [
        "endeleza",
        -10.222126868794977
      ],
      [
        "Ġmuhimbili",
        -10.222220834495944
      ],
      [
        "Ġbomba",
        -10.22225656917187
      ],
      [
        "Ġustawi",
        -10.223010430430271
      ],
      [
        "sio",
        -10.22330896326017
      ],
      [
        "Ġdeni",
        -10.224085867790825
      ],
      [
        "kutetea",
        -10.224427482614484
      ],
      [
        "Ġ''",
        -10.22454905415913
      ],
      [
        "Ġjulius",
        -10.224663091820762
      ],
      [
        "Ġtukufu",
        -10.224741908830428
      ],
      [
        "Ġviumbe",
        -10.22527775420063
      ],
      [
        "Ġmumewe",
        -10.225970827435209
      ],
      [
        "Ġaliongeza",
        -10.226152787041958
      ],
      [
        "mageuzi",
        -10.22625967559978
      ],
      [
        "Ġkubadili",
        -10.22679141815096
      ],
      [
        "kamanda",
        -10.227219205015654
      ],
      [
        "hiyo",
        -10.22732112528459
      ],
      [
        "Ġharusi",
        -10.227518960486483
      ],
      [
        "jinsi",
        -10.2280701029486
      ],
      [
        "Ġwakili",
        -10.228324707972009
      ],
      [
        "Ġlondon",
        -10.22841571943875
      ],
      [
        "Ġwebsite",
        -10.228733428004505
      ],
      [
        "Ġmifuko",
        -10.228796852073677
      ],
      [
        "hatuwezi",
        -10.228798417684631
      ],
      [
        "wananchi",
        -10.22889107130879
      ],
      [
        "niaba",
        -10.228938715613436
      ],
      [
        "Ġkupima",
        -10.231024264573966
      ],
      [
        "Ġduka",
        -10.231213596839549
      ],
      [
        "Ġhufanya",
        -10.231287938920357
      ],
      [
        "tafiti",
        -10.23165013191343
      ],
      [
        "polisi",
        -10.23174850706162
      ],
      [
        "kusanya",
        -10.231875087564983
      ],
      [
        "able",
        -10.2320173190457
      ],
      [
        "bila",
        -10.23203066923994
      ],
      [
        "Ġissue",
        -10.232192450724778
      ],
      [
        "umba",
        -10.232237229292384
      ],
      [
        "34",
        -10.232341545784466
      ],
      [
        "Ġwanapata",
        -10.232427400726973
      ],
      [
        "Ġnataka",
        -10.232742371374783
      ],
      [
        "Ġmalaika",
        -10.23286821258734
      ],
      [
        "sallam",
        -10.233205531704437
      ],
      [
        "Ġkarume",
        -10.233428551359433
      ],
      [
        "Ġoperesheni",
        -10.234608921749532
      ],
      [
        "Ġabdallah",
        -10.235120049687469
      ],
      [
        "Ġsuper",
        -10.235153582395917
      ],
      [
        "Ġviwili",
        -10.235415822653266
      ],
      [
        "Ġmusa",
        -10.235456845693548
      ],
      [
        "suluhisho",
        -10.235502910432157
      ],
      [
        "Ġsafu",
        -10.236578159163033
      ],
      [
        "rudisha",
        -10.236857554386994
      ],
      [
        "iona",
        -10.237248820293594
      ],
      [
        "hisi",
        -10.237550579717276
      ],
      [
        "uta",
        -10.23831603084325
      ],
      [
        "Ġwenyeji",
        -10.238602116344254
      ],
      [
        "punguza",
        -10.238869591138856
      ],
      [
        "futa",
        -10.239027626851394
      ],
      [
        "Ġact",
        -10.240773643261996
      ],
      [
        "Ġwo",
        -10.240946453537653
      ],
      [
        "geuka",
        -10.240975287343607
      ],
      [
        "Ġkamish",
        -10.24220056496792
      ],
      [
        "Ġrobo",
        -10.242861091887685
      ],
      [
        "90",
        -10.242883197988208
      ],
      [
        "Ġpo",
        -10.243930227018208
      ],
      [
        "Ġkilo",
        -10.244162599117445
      ],
      [
        "Ġget",
        -10.24445166242604
      ],
      [
        "Ġinatoa",
        -10.244559309852084
      ],
      [
        "Ġnyaraka",
        -10.244579211799374
      ],
      [
        "Ġmaudhui",
        -10.244581509967828
      ],
      [
        "jamani",
        -10.244593689118377
      ],
      [
        "Ġyaki",
        -10.244904449217362
      ],
      [
        "Ġkukamilika",
        -10.245435038612484
      ],
      [
        "saka",
        -10.245588509510473
      ],
      [
        "Ġmie",
        -10.24605051815979
      ],
      [
        "Ġuzima",
        -10.24666632551451
      ],
      [
        "Ġratiba",
        -10.246886740086453
      ],
      [
        "Ġmchanga",
        -10.247149795940707
      ],
      [
        "Ġkadhalika",
        -10.247205766932954
      ],
      [
        "isa",
        -10.247325985374308
      ],
      [
        "60",
        -10.24758636681947
      ],
      [
        "Ġhere",
        -10.248398131060217
      ],
      [
        "Ġufahamu",
        -10.248441469580625
      ],
      [
        "kimbia",
        -10.249114649211716
      ],
      [
        "Ġstar",
        -10.249615836072492
      ],
      [
        "ufumbuz",
        -10.249832523274682
      ],
      [
        "mtindo",
        -10.250575560987992
      ],
      [
        "Ġkumbuka",
        -10.250908085323106
      ],
      [
        "Ġmaliasili",
        -10.25133384859974
      ],
      [
        "Ġkusimama",
        -10.251919603761516
      ],
      [
        "Ġmola",
        -10.252172896381794
      ],
      [
        "Ġhawata",
        -10.25259298677994
      ],
      [
        "Ġkiarabu",
        -10.253005809070729
      ],
      [
        "Ġmaduka",
        -10.253677620513752
      ],
      [
        "Ġmajadiliano",
        -10.25430139561784
      ],
      [
        "Ġvs",
        -10.254370057115327
      ],
      [
        "Ġkipaumbele",
        -10.254392177521131
      ],
      [
        "Ġmisitu",
        -10.254865913326528
      ],
      [
        "maana",
        -10.254965920006644
      ],
      [
        "Ġforum",
        -10.255273475551254
      ],
      [
        "Ġmabasi",
        -10.25537309980722
      ],
      [
        "Ġsomalia",
        -10.255461932853418
      ],
      [
        "Ġkutembea",
        -10.25570558226133
      ],
      [
        "Ġyandi",
        -10.255894878005003
      ],
      [
        "Ġulipo",
        -10.255944822224484
      ],
      [
        "kimsingi",
        -10.256198902151038
      ],
      [
        "Ġkifungu",
        -10.258174124593657
      ],
      [
        "Ġcasino",
        -10.25867460268222
      ],
      [
        "ungana",
        -10.25889464097969
      ],
      [
        "imba",
        -10.259130984542026
      ],
      [
        "maagizo",
        -10.25925317255798
      ],
      [
        "Ġunapaswa",
        -10.259511718216611
      ],
      [
        "Ġupasuaji",
        -10.259604985025044
      ],
      [
        "safiri",
        -10.259624075036
      ],
      [
        "il",
        -10.26055036418786
      ],
      [
        "Ġmboga",
        -10.26087660585009
      ],
      [
        "Ġtuwe",
        -10.260888673824736
      ],
      [
        "husu",
        -10.26108859238493
      ],
      [
        "Ġmajaribio",
        -10.264327072689486
      ],
      [
        "adi",
        -10.264808872356742
      ],
      [
        "Ġingekuwa",
        -10.265258436184729
      ],
      [
        "Ġgoli",
        -10.26528753447123
      ],
      [
        "Ġben",
        -10.265345225101388
      ],
      [
        "Ġtafsiri",
        -10.265767108308664
      ],
      [
        "36",
        -10.265887215195214
      ],
      [
        "haribu",
        -10.266282469751708
      ],
      [
        "Ġbarcelona",
        -10.267148689552055
      ],
      [
        "maanisha",
        -10.267523024284197
      ],
      [
        "Ġ32",
        -10.268375145859943
      ],
      [
        "tosha",
        -10.26871509410811
      ],
      [
        "Ġkuvutia",
        -10.26902953268968
      ],
      [
        "jipanga",
        -10.269411008584
      ],
      [
        "Ġwanajua",
        -10.270576686966296
      ],
      [
        "Ġitikadi",
        -10.270887384708724
      ],
      [
        "chama",
        -10.27098254750026
      ],
      [
        "Ġge",
        -10.2712725256183
      ],
      [
        "Ġwordpress",
        -10.271289380979752
      ],
      [
        "fundisha",
        -10.27141444179001
      ],
      [
        "marekani",
        -10.272255723367309
      ],
      [
        "Ġ300",
        -10.27229201416834
      ],
      [
        "inapaswa",
        -10.272368383626484
      ],
      [
        "kenya",
        -10.273620933512635
      ],
      [
        "reaction",
        -10.27367097808822
      ],
      [
        "kwisha",
        -10.274505516435145
      ],
      [
        "ende",
        -10.274532169195542
      ],
      [
        "askofu",
        -10.274836398418364
      ],
      [
        "Ġkiba",
        -10.27594813951002
      ],
      [
        "badili",
        -10.275953947927537
      ],
      [
        "Ġpresident",
        -10.276881635460384
      ],
      [
        "Ġwataalam",
        -10.277330037174917
      ],
      [
        "wafanya",
        -10.27772533754528
      ],
      [
        "Ġpamba",
        -10.27795308835942
      ],
      [
        "Ġkifedha",
        -10.278008338316322
      ],
      [
        "Ġmwakyembe",
        -10.279146695079913
      ],
      [
        "shaji",
        -10.279267684430549
      ],
      [
        "Ġuelewa",
        -10.27944090671943
      ],
      [
        "Ġvigezo",
        -10.280376978238746
      ],
      [
        "Ġhamad",
        -10.280379772042869
      ],
      [
        "Ġinafanya",
        -10.28058541712159
      ],
      [
        "Ġbbc",
        -10.282113418247391
      ],
      [
        "Ġbato",
        -10.282463871322433
      ],
      [
        "Ġmwake",
        -10.282929096170264
      ],
      [
        "Ġpindi",
        -10.283283023708908
      ],
      [
        "Ġsomo",
        -10.28333888119423
      ],
      [
        "Ġ~",
        -10.283932471372358
      ],
      [
        "jkt",
        -10.284553180248553
      ],
      [
        "2012",
        -10.28563757447235
      ],
      [
        "Ġnywele",
        -10.28643716497464
      ],
      [
        "swalla",
        -10.28672501233995
      ],
      [
        "Ġfirst",
        -10.28686302871376
      ],
      [
        "Ġlong",
        -10.28737579617352
      ],
      [
        "Ġpetro",
        -10.287445798459064
      ],
      [
        "Ġkumalizika",
        -10.287691897214714
      ],
      [
        "ata",
        -10.287801598589398
      ],
      [
        "/=",
        -10.288076418248217
      ],
      [
        "kuokoa",
        -10.288165515790014
      ],
      [
        "heshimiwa",
        -10.288660500204871
      ],
      [
        "Ġwanaoishi",
        -10.288739357982692
      ],
      [
        "fahamika",
        -10.289048916991351
      ],
      [
        "Ġemmanuel",
        -10.289990068362483
      ],
      [
        "Ġtani",
        -10.290027487089532
      ],
      [
        "Ġbanda",
        -10.290402074599973
      ],
      [
        "aga",
        -10.290488869705374
      ],
      [
        "zindua",
        -10.290581774286178
      ],
      [
        "muona",
        -10.290711923583132
      ],
      [
        "Ġkukagua",
        -10.291014430102344
      ],
      [
        "Ġsalamu",
        -10.29162738415566
      ],
      [
        "Ġabdul",
        -10.291647941850142
      ],
      [
        "Ġmagereza",
        -10.291657271260338
      ],
      [
        "Ġpe",
        -10.291943637553157
      ],
      [
        "kamata",
        -10.292082341175146
      ],
      [
        "Ġtop",
        -10.292450338446969
      ],
      [
        "Ġjela",
        -10.292936627404996
      ],
      [
        "Ġethiopia",
        -10.293031800570816
      ],
      [
        "Ġlishe",
        -10.29416599027096
      ],
      [
        "ofisa",
        -10.294317896211012
      ],
      [
        "38",
        -10.294801507960184
      ],
      [
        "Ġkuwasilisha",
        -10.294956786660876
      ],
      [
        "kujaribu",
        -10.295386578403624
      ],
      [
        "Ġtulikuwa",
        -10.295528252388426
      ],
      [
        "Ġasema",
        -10.295610620815694
      ],
      [
        "yanga",
        -10.295753475114918
      ],
      [
        "Ġalipata",
        -10.296496640983785
      ],
      [
        "kupa",
        -10.29700483506044
      ],
      [
        "bwana",
        -10.297246929225722
      ],
      [
        "Ġper",
        -10.297642134477098
      ],
      [
        "Ġcentre",
        -10.297908381663008
      ],
      [
        "Ġnajua",
        -10.29825171325013
      ],
      [
        "chapishwa",
        -10.299110689132895
      ],
      [
        "wakilisha",
        -10.29911778797982
      ],
      [
        "Ġzimbabwe",
        -10.299175144069874
      ],
      [
        "dr",
        -10.299964893427736
      ],
      [
        "endeshwa",
        -10.30003587334114
      ],
      [
        "Ġmadogo",
        -10.300450309419595
      ],
      [
        "pungua",
        -10.301229000323232
      ],
      [
        "kaka",
        -10.303608287105792
      ],
      [
        "Ġcup",
        -10.304133870821763
      ],
      [
        "Ġsamia",
        -10.30414723556448
      ],
      [
        "Ġmaria",
        -10.304148018498328
      ],
      [
        "Ġmaonesho",
        -10.304245277298358
      ],
      [
        "Ġwasomi",
        -10.304290219679412
      ],
      [
        "napaswa",
        -10.304456685481885
      ],
      [
        "Ġaliwa",
        -10.305167191222324
      ],
      [
        "Ġkuvaa",
        -10.305690177366913
      ],
      [
        "nili",
        -10.305737974859545
      ],
      [
        "Ġalso",
        -10.306005641121931
      ],
      [
        "Ġyear",
        -10.306222662236046
      ],
      [
        "Ġkutenda",
        -10.306523448286791
      ],
      [
        "Ġpepe",
        -10.30792257692746
      ],
      [
        "mambo",
        -10.308400978261652
      ],
      [
        "Ġred",
        -10.30861515736198
      ],
      [
        "and",
        -10.309306276822282
      ],
      [
        "Ġradhi",
        -10.309509299642528
      ],
      [
        "kabla",
        -10.3097533575107
      ],
      [
        "48",
        -10.310523904056792
      ],
      [
        "Ġutakao",
        -10.310582794744825
      ],
      [
        "ika",
        -10.310774678659277
      ],
      [
        "mali",
        -10.311571914246244
      ],
      [
        "Ġjiwe",
        -10.31190388142505
      ],
      [
        "tic",
        -10.3121108401469
      ],
      [
        "Ġmsiba",
        -10.31267771395908
      ],
      [
        "Ġnasi",
        -10.312708533913124
      ],
      [
        "Ġfidia",
        -10.3133880291656
      ],
      [
        "Ġlibya",
        -10.314160870557725
      ],
      [
        "uli",
        -10.314235882903391
      ],
      [
        "mwanzoni",
        -10.314565661526435
      ],
      [
        "meneja",
        -10.314800985989926
      ],
      [
        "net",
        -10.314847142191326
      ],
      [
        "elekeza",
        -10.314939742129608
      ],
      [
        "Ġkuunga",
        -10.31528907002534
      ],
      [
        "Ġho",
        -10.315466872428685
      ],
      [
        "ipa",
        -10.315542196511402
      ],
      [
        "chaguzi",
        -10.315543240552266
      ],
      [
        "Ġkume",
        -10.31605312849998
      ],
      [
        "Ġukanda",
        -10.316056579569722
      ],
      [
        "Ġ45",
        -10.316346267135993
      ],
      [
        "Ġmakamba",
        -10.316546989664005
      ],
      [
        "tetea",
        -10.317036028265724
      ],
      [
        "Ġombi",
        -10.317179256810904
      ],
      [
        "Ġyu",
        -10.31739423400117
      ],
      [
        "Ġwould",
        -10.317972623999182
      ],
      [
        "hifadhi",
        -10.318185063384004
      ],
      [
        "Ġmakanisa",
        -10.318359580368796
      ],
      [
        "Ġshuleni",
        -10.319128737464084
      ],
      [
        "Ġhim",
        -10.319583898416594
      ],
      [
        "Ġkaya",
        -10.319669461137462
      ],
      [
        "Ġmeza",
        -10.319684518436263
      ],
      [
        "ngwa",
        -10.31978264008101
      ],
      [
        "treni",
        -10.319839246326092
      ],
      [
        "ling",
        -10.320765869602052
      ],
      [
        "Ġinapo",
        -10.320840037343396
      ],
      [
        "tumwa",
        -10.321285964340408
      ],
      [
        "39",
        -10.322532624752352
      ],
      [
        "Ġmbwa",
        -10.322561630011757
      ],
      [
        "Ġtaji",
        -10.322665373105366
      ],
      [
        "tv",
        -10.324297023357706
      ],
      [
        "Ġtakriban",
        -10.32445002837444
      ],
      [
        "tarajia",
        -10.324551405568869
      ],
      [
        "vuta",
        -10.324772525525152
      ],
      [
        "Ġmonth",
        -10.325154572200963
      ],
      [
        "olewa",
        -10.326674779469949
      ],
      [
        "Ġkidemokrasi",
        -10.326834263083004
      ],
      [
        "Ġukuta",
        -10.327200965436614
      ],
      [
        "Ġnational",
        -10.327287838695462
      ],
      [
        "Ġitalia",
        -10.328142756821684
      ],
      [
        "ur",
        -10.3282797250076
      ],
      [
        "Ġpi",
        -10.328369956253256
      ],
      [
        "michango",
        -10.329664588526963
      ],
      [
        "Ġhaikuwa",
        -10.329977911766504
      ],
      [
        "Ġthan",
        -10.33068279478879
      ],
      [
        "pungufu",
        -10.330720369431138
      ],
      [
        "Ġmitihani",
        -10.330880424776616
      ],
      [
        "Ġsp",
        -10.330963343167328
      ],
      [
        "balozi",
        -10.330964830736953
      ],
      [
        "Ġalicho",
        -10.331295497258733
      ],
      [
        "Ġkufikiria",
        -10.331456794215356
      ],
      [
        "meamua",
        -10.332057956997607
      ],
      [
        "Ġeast",
        -10.332327854935723
      ],
      [
        "Ġbidii",
        -10.332399347226126
      ],
      [
        "pona",
        -10.332889993225937
      ],
      [
        "fikiwa",
        -10.333777594117953
      ],
      [
        "Ġbrazil",
        -10.3339894590981
      ],
      [
        "Ġminne",
        -10.334061174429458
      ],
      [
        "letwa",
        -10.335283515780471
      ],
      [
        "mke",
        -10.336030348761469
      ],
      [
        "Ġinapatikana",
        -10.336088794797451
      ],
      [
        "Ġaweze",
        -10.336248750238692
      ],
      [
        "ele",
        -10.336528994578682
      ],
      [
        "only",
        -10.336653364662997
      ],
      [
        "kutwa",
        -10.33701199510115
      ],
      [
        "Ġunayo",
        -10.337233909378678
      ],
      [
        "Ġnyekundu",
        -10.337344600871289
      ],
      [
        "Ġsaratani",
        -10.337665541694712
      ],
      [
        "Ġinternet",
        -10.33803823761692
      ],
      [
        "maji",
        -10.338118332522338
      ],
      [
        "Ġvisa",
        -10.338434407530343
      ],
      [
        "Ġhotel",
        -10.338883605756177
      ],
      [
        "Ġsiwezi",
        -10.33935618897546
      ],
      [
        "patiwa",
        -10.339700696874615
      ],
      [
        "Ġandroid",
        -10.339780310948292
      ],
      [
        "Ġmichael",
        -10.33990372658224
      ],
      [
        "Ġtaaluma",
        -10.340916546094054
      ],
      [
        "karatasi",
        -10.340958264703596
      ],
      [
        "Ġhutoa",
        -10.341495907993425
      ],
      [
        "anze",
        -10.34162584829048
      ],
      [
        "Ġkulipwa",
        -10.34171729545086
      ],
      [
        "haribika",
        -10.342058813036417
      ],
      [
        "Ġuwazi",
        -10.34236562275214
      ],
      [
        "ndio",
        -10.34249798535372
      ],
      [
        "Ġwalisema",
        -10.343229923443188
      ],
      [
        "madeni",
        -10.343281892164772
      ],
      [
        "Ġkubeba",
        -10.343377552921062
      ],
      [
        "years",
        -10.344724473599078
      ],
      [
        "tekelezwa",
        -10.34506895741238
      ],
      [
        "Ġkifungo",
        -10.345893971258212
      ],
      [
        "est",
        -10.346225446417918
      ],
      [
        "zunguka",
        -10.346439349896446
      ],
      [
        "37",
        -10.346439548156829
      ],
      [
        "Ġkando",
        -10.346827796916536
      ],
      [
        "maofisa",
        -10.346861565371066
      ],
      [
        "Ġsalum",
        -10.347516742724496
      ],
      [
        "Ġmwanasheria",
        -10.34787299847422
      ],
      [
        "nja",
        -10.348040705983896
      ],
      [
        "Ġmwenzi",
        -10.348123376305944
      ],
      [
        "Ġjanga",
        -10.348618662032193
      ],
      [
        "Ġubalozi",
        -10.348840438346818
      ],
      [
        "Ġapp",
        -10.350155326005533
      ],
      [
        "fafanua",
        -10.350179331930631
      ],
      [
        "Ġvikosi",
        -10.350783664864268
      ],
      [
        "onyeshwa",
        -10.350906346815163
      ],
      [
        "Ġmazishi",
        -10.350930214534182
      ],
      [
        "posho",
        -10.351070042994955
      ],
      [
        "Ġhouse",
        -10.351097457319009
      ],
      [
        "red",
        -10.351469750386222
      ],
      [
        "Ġemail",
        -10.351639138712066
      ],
      [
        "Ġinstagram",
        -10.35177133158998
      ],
      [
        "Ġglobal",
        -10.351832799434558
      ],
      [
        "Ġmitambo",
        -10.352340877469228
      ],
      [
        "Ġmoney",
        -10.352531722028004
      ],
      [
        "Ġalim",
        -10.352616774756749
      ],
      [
        "ile",
        -10.352641111798526
      ],
      [
        "if",
        -10.353121783029112
      ],
      [
        "iga",
        -10.353490118264654
      ],
      [
        "achia",
        -10.353621082942594
      ],
      [
        "Ġabu",
        -10.35433857893488
      ],
      [
        "Ġusa",
        -10.355056814525344
      ],
      [
        "kamilisha",
        -10.355518020344768
      ],
      [
        "Ġacha",
        -10.355864725181345
      ],
      [
        "Ġsame",
        -10.356322937325714
      ],
      [
        "Ġwatuhumiwa",
        -10.356511708540896
      ],
      [
        "Ġinahitaji",
        -10.356519567079708
      ],
      [
        "mbolea",
        -10.35691126373542
      ],
      [
        "Ġmateso",
        -10.35722688506452
      ],
      [
        "Ġkaunti",
        -10.359176337261976
      ],
      [
        "bainisha",
        -10.360056276585064
      ],
      [
        "Ġmana",
        -10.360384529660854
      ],
      [
        "Ġdc",
        -10.361854576020448
      ],
      [
        "ingizwa",
        -10.36206910200612
      ],
      [
        "nabii",
        -10.362119481351987
      ],
      [
        "Ġmono",
        -10.362272564930468
      ],
      [
        "Ġkavu",
        -10.362766041728744
      ],
      [
        "kufanya",
        -10.362848462937698
      ],
      [
        "Ġpage",
        -10.36306593343268
      ],
      [
        "Ġfupi",
        -10.363402986961354
      ],
      [
        "umbali",
        -10.364420298246348
      ],
      [
        "Ġmata",
        -10.364592525930124
      ],
      [
        "Ġmwanachama",
        -10.36479062690156
      ],
      [
        "Ġtunapo",
        -10.365088336329135
      ],
      [
        "Ġdevelopment",
        -10.365306685662627
      ],
      [
        "sehemu",
        -10.365401065916869
      ],
      [
        "Ġujinga",
        -10.36562578159048
      ],
      [
        "2020",
        -10.36594943557014
      ],
      [
        "huu",
        -10.36602365848503
      ],
      [
        "Ġubaguzi",
        -10.366257743601045
      ],
      [
        "yonso",
        -10.36633117547577
      ],
      [
        "chu",
        -10.366355913097149
      ],
      [
        "kamati",
        -10.366505576584656
      ],
      [
        "Ġparty",
        -10.367157975950304
      ],
      [
        "vyeti",
        -10.367593411951228
      ],
      [
        "ogopa",
        -10.368181667859716
      ],
      [
        "Ġziko",
        -10.36846145103263
      ],
      [
        "Ġazimio",
        -10.368767057319117
      ],
      [
        "Ġmakusudi",
        -10.368907985963716
      ],
      [
        "lla",
        -10.369584035744804
      ],
      [
        "Ġmosi",
        -10.369884504066793
      ],
      [
        "Ġumaarufu",
        -10.372380022686167
      ],
      [
        "Ġsee",
        -10.372426609274951
      ],
      [
        "Ġtunataka",
        -10.372806124830852
      ],
      [
        "ane",
        -10.374143260282036
      ],
      [
        "ari",
        -10.375040394790794
      ],
      [
        "Ġninge",
        -10.375065655498116
      ],
      [
        "ota",
        -10.375893448569958
      ],
      [
        "Ġtendo",
        -10.376341856371392
      ],
      [
        "Ġkuuliza",
        -10.376800423275784
      ],
      [
        "Ġtelevisheni",
[...]
