#version: 0.2
w a
Ġ k
n a
Ġ m
l i
Ġ wa
Ġk u
h a
y a
k a
Ġ na
n i
h i
Ġ a
Ġ ya
t a
b a
n g
Ġ s
m a
Ġm a
t i
z a
r i
k i
N K
U NK
Ġ UNK
l a
Ġ Ċ
z i
Ġ u
Ġk a
n d
y o
Ġ i
Ġk wa
k u
Ġ ha
j i
h u
s i
w e
t u
Ġ hi
j a
r a
Ġk i
m ba
Ġa li
f a
t o
l e
d a
b i
s a
c ha
p a
s ha
m e
f u
m i
y e
Ġ v
d i
m u
s e
Ġku wa
Ġ ta
k e
Ġka ti
b u
s hi
Ġ za
Ġ ni
t e
h e
Ġs i
p o
Ġ hu
Ġ n
z o
Ġ la
se ma
Ġkati ka
Ġ ba
n e
Ġm i
Ġs a
k o
p i
Ġ b
ng i
nd a
ng a
Ġv i
h o
Ġa mba
Ġ cha
Ġali sema
c hi
Ġwa na
ku wa
wa na
Ġi li
Ġhi yo
n o
m o
ng o
e le
l o
w i
m b
ng u
Ġku to
Ġb wana
n za
nd i
fa n
j u
n ye
f i
c he
Ġwa li
r u
ng e
Ġm o
Ġ e
Ġs e
r e
g a
Ġ tu
Ġm wa
Ġba a
ri ka
g o
Ġka ma
ki wa
Ġ ja
we nye
Ġ zi
Ġ li
Ġ d
Ġ da
Ġ ti
r o
v yo
z u
ka na
j e
fan ya
Ġ bi
fu ri
Ġsi furi
Ġmo ja
Ġ ju
ta ka
Ġbaa da
p e
mb o
shi ri
Ġm ku
c ho
d ha
Ġa na
Ġi na
ni a
u a
z e
Ġhu o
o ngo
ki ni
c hu
Ġwa ka
rika li
e nd
Ġse rikali
y i
n zi
li a
Ġhi lo
Ġ pa
g u
Ġm u
Ġa ki
d hi
Ġn chi
mo ja
Ġ wi
nd o
ngi ne
Ġla kini
Ġ we
Ġm e
s u
Ġ ra
g e
p u
Ġv ya
Ġ pi
Ġhi vyo
b wa
Ġ ji
che za
end ele
Ġwa tu
Ġ c
Ġya ke
Ġha o
Ġmwa ka
Ġwaka ti
i di
Ġ t
Ġm ba
Ġa me
bi li
s h
Ġk wenye
Ġku a
Ġk o
Ġi shiri
nza nia
Ġishiri ni
v u
Ġku i
Ġku o
y u
Ġmi a
Ġs hi
Ġ f
ongo zi
Ġi me
mi a
Ġhu yo
Ġ o
Ġma a
ri a
bu nge
Ġku mi
mb e
Ġwa ke
nd e
Ġti mu
m bi
s ho
Ġwa me
Ġha yo
da i
li o
Ġkuto kana
Ġsa ba
sh wa
Ġ po
Ġkwa mba
pa ta
d o
l u
zu ngu
Ġha ta
Ġwa ta
i fa
ki a
Ġm bili
ka ma
Ġsa sa
Ġmku u
Ġ ndi
n chi
Ġm ko
Ġja na
Ġmba li
i s
cheza ji
Ġta nzania
la a
m bu
ta kiwa
Ġma ha
zungu m
Ġwa ki
Ġta a
Ġkuto ka
hi di
Ġku ji
Ġwana nchi
Ġk e
n u
Ġha li
Ġwali o
n ja
Ġku u
g i
Ġamba yo
Ġamba o
z wa
ng wa
Ġda r
Ġku m
Ġe s
Ġka zi
Ġma ji
endele a
Ġhi zo
Ġ le
Ġta no
Ġf e
Ġsa laa
ne o
Ġili yo
Ġ ho
Ġsalaa m
Ġta tu
Ġpa moja
s o
Ġu na
b o
Ġza idi
Ġki la
Ġha tu
Ġamba ye
ti a
Ġu ta
Ġnchi ni
v i
Ġm wi
Ġka m
k we
i ni
zu ri
Ġwa o
Ġcha ma
ma ni
we za
Ġmaha kama
Ġpi a
Ġ ye
Ġku fanya
la ya
n ya
w o
Ġamba po
to a
Ġwa zi
Ġhu ku
Ġ ga
Ġb o
Ġhi cho
t hi
Ġvi ongozi
Ġra is
mba li
ji li
Ġku pi
Ġwa chezaji
Ġya o
Ġi ta
Ġn yi
k ta
ji ni
Ġm ka
Ġt he
Ġfe dha
Ġ te
si a
Ġsi ku
Ġmko a
Ġs he
to ke
Ġhu u
Ġmbali mbali
che zo
si ni
Ġn ne
nda ni
Ġti sa
Ġku li
Ġta ifa
Ġb e
Ġa f
li si
Ġme chi
Ġha di
ri fa
Ġma ra
Ġsi ta
ji a
Ġk we
Ġna fa
Ġm si
Ġhatu a
Ġ p
k wa
Ġkwa ni
d u
Ġku hu
Ġwi laya
Ġtaa rifa
ki o
Ġnafa si
Ġm wenye
Ġu pa
Ġki li
Ġs hu
Ġkuto a
Ġbi bi
Ġpo lisi
Ġn yu
fan yi
b e
Ġku fu
li wa
li ngi
pu ni
Ġba ra
Ġma ba
Ġzi na
tu mia
zungum za
Ġbaa dhi
Ġd e
Ġkam puni
Ġshi lingi
si li
ua la
wa nja
Ġa u
ba ri
Ġm moja
c m
ki sha
pi ta
Ġya nga
nge za
gu zi
Ġ wo
le wa
Ġzi li
Ġma sha
nd u
Ġc cm
Ġha bari
nd wa
ba ini
fi sa
Ġ fa
Ġs o
Ġku ta
Ġku bwa
Ġkwa nza
Ġ je
Ġu me
Ġku na
i na
Ġ ndani
Ġna ne
Ġali ye
Ġza o
a mu
Ġ to
Ġ pe
Ġm tu
Ġwazi ri
ti zo
o ne
Ġha ku
Ġmu da
Ġki tu
Ġma shi
Ġm we
yo te
Ġtu na
kta ri
u li
ngi a
lio ni
mi ni
Ġli gi
Ġ zo
Ġma ta
Ġku sa
we ze
Ġma mbo
chu ku
Ġe neo
Ġha wa
Ġupa nde
Ġu li
Ġnyu mba
Ġku ka
Ġya li
Ġa jili
Ġma ka
Ġm pa
tu mi
d e
Ġu cha
Ġda ktari
Ġsaba bu
t wa
Ġwana o
Ġ chi
Ġma ku
Ġu wanja
ki ti
ta a
Ġm wana
Ġsi mba
Ġm chezo
ri bu
Ġ j
Ġha ki
Ġshe ria
di li
he mu
shi takiwa
Ġsa na
to to
Ġwe ngine
ha ki
Ġ g
Ġs uala
Ġbi la
Ġju u
shi ndwa
Ġ wenye
Ġkama ti
Ġs u
Ġke si
si si
Ġju ma
Ġ ru
Ġku pa
Ġku pata
Ġhi i
Ġucha guzi
Ġma s
bi sha
Ġndi o
Ġi ki
a nza
Ġm sa
Ġ bunge
Ġwe ngi
Ġli li
Ġd hidi
li mu
Ġha pa
j wa
bi a
Ġ bu
Ġm go
Ġu lio
wa li
Ġle o
fanyi ka
Ġya na
ku ta
fa ni
Ġ ngu
Ġko cha
ju a
Ġwa a
Ġs ha
ele za
n ti
ma li
Ġwo te
Ġkuhu su
ra ka
Ġk la
Ġd u
Ġkla bu
Ġku we
u ri
s hu
ya ri
mbi a
n zo
Ġu we
Ġaki zungumza
mi li
Ġku fi
Ġha po
g hu
Ġtu kio
thi ni
ka ri
ba thini
Ġthe bathini
Ġd o
Ġma re
Ġina yo
Ġka b
Ġmwenye kiti
Ġhi vi
Ġku si
Ġali kuwa
Ġta yari
v a
Ġi kiwa
shiri ki
sha ra
Ġzo te
i sha
to lewa
m la
za ji
Ġku te
Ġtu me
di ni
Ġn je
Ġ ri
Ġki na
ti bu
ja na
Ġmia ka
Ġnyi ngine
da la
wi li
Ġu chu
Ġma e
ri ki
Ġa l
Ġkab la
endele o
Ġamba zo
ghu li
Ġzili zo
ta ji
Ġki pi
Ġkwe nda
Ġha m
Ġaf rika
Ġm bunge
Ġja mbo
Ġo fi
Ġka ribu
Ġu sa
Ġba do
ke a
Ġhi li
Ġju zi
Ġj o
ko sa
idi a
Ġmae neo
Ġha i
la la
Ġu te
s sa
Ġa ta
Ġma endeleo
sha uri
u ti
ji bu
Ġali po
Ġhaku na
zi ma
p ya
Ġa kiwa
Ġvi zuri
Ġm fu
do go
Ġana sema
ta no
mi wa
Ġpi li
ba bisha
Ġwi ki
Ġli na
ko si
Ġka uli
Ġki kwe
Ġkikwe te
ki li
ra tibu
Ġchi ni
ndi shi
fisa di
Ġha sa
Ġmku bwa
i a
Ġ he
ha ra
cha ma
Ġham sini
Ġmaba o
s he
Ġa s
dai wa
ta ra
fi ki
v e
si ka
Ġki ma
Ġu shi
Ġmi ko
Ġn ya
fu ta
Ġta tizo
Ġwa bunge
Ġvi jana
we zi
end e
Ġm b
a da
Ġna ye
Ġ re
zi a
amu zi
toke a
o na
c e
ka zi
n jwa
Ġwa fanya
mi i
mbe a
Ġuwe zo
Ġ fu
Ġmwi sho
n yi
Ġma zi
o ni
Ġ chu
o mba
chuku a
Ġku tumia
du ma
Ġofi si
Ġs ta
Ġali wa
Ġkati bu
Ġkua nzi
Ġki kosi
a si
Ġwa toto
Ġhu duma
Ġso ka
haki kisha
s ta
Ġbo ra
Ġku ra
Ġm cha
fa uti
Ġma isha
Ġmi lioni
ra di
Ġji jini
ta ba
Ġn jia
ru di
mi ka
Ġshu le
bi ngwa
Ġwa ku
pi ga
Ġa ro
u nga
Ġe l
Ġma li
ke le
Ġza ke
Ġu si
c h
Ġe limu
Ġba o
Ġnyi ngi
Ġaro baini
Ġsa a
Ġzina zo
pu ngu
Ġto fauti
Ġho s
Ġwa si
Ġmkoa ni
Ġamba lo
Ġkupi tia
Ġm jini
Ġdu nia
Ġmaa na
p ele
hi taji
Ġa wali
Ġyali yo
Ġu amuzi
te ndo
Ġ lu
ku ba
a no
Ġje shi
Ġd ha
Ġkuo ngeza
Ġku zi
nda ji
Ġa sili
Ġmb ele
shi nda
Ġwana chama
c i
e zi
dha a
Ġhos pita
we mo
Ġkipi ndi
i bu
ba ra
Ġhospita li
ki ka
Ġu ongozi
pe wa
Ġel fu
Ġja mii
Ġp ro
e l
Ġku hakikisha
Ġse hemu
Ġmpa ka
Ġm pi
fi ka
Ġte na
Ġa ka
Ġzi me
Ġji mbo
m wa
Ġ yo
ti ni
li sha
Ġi da
Ġ lo
c a
Ġki u
Ġba dala
y wa
s wa
hi mu
Ġga ri
Ġshu ghuli
go ro
r s
Ġ ge
ta ifa
ru ge
sa idia
ha ri
Ġki ka
Ġki asi
go njwa
ruge nzi
Ġwata nzania
fu nzi
Ġu hu
Ġwa kiwa
Ġm chezaji
Ġbara bara
Ġle ngo
Ġma da
Ġali o
Ġta ngu
Ġma wa
kwe nda
i da
nga za
Ġkuo ndo
Ġbi na
Ġwaka zi
ngi ra
Ġwa le
la ma
Ġku po
Ġwali kuwa
Ġki wa
Ġda kika
fa a
za ra
Ġme ngi
Ġye ye
po ti
Ġkwe li
ti sha
Ġki pa
te r
chu ano
Ġwi zara
Ġ ro
f e
n ki
fu a
Ġu m
bi ki
Ġv yo
Ġili kuwa
Ġmahakama ni
Ġmi chuano
ngu zi
Ġmku tano
Ġc o
Ġmi mi
Ġye nye
Ġm be
Ġngu vu
Ġma pe
Ġji na
zungum zia
c k
nda no
r y
Ġwa shitakiwa
Ġmpi ra
Ġmazi ngira
n si
Ġ ndo
Ġ fi
Ġ che
Ġkua nza
Ġmashi taka
la mu
Ġushi ndi
Ġmka taba
hu miwa
Ġasili mia
Ġm shitakiwa
Ġm ta
Ġu sha
ju mbe
ze ti
Ġho ja
Ġmaji ra
Ġu ki
ji ji
Ġkuo na
Ġtaa sisi
Ġm re
Ġa r
Ġsi mu
c o
Ġvya ma
Ġvyo mbo
so n
Ġkitu o
Ġkili mo
Ġali dai
Ġku sema
Ġwe tu
Ġmwi ngine
Ġmka zi
Ġde ci
Ġma ja
ti za
Ġpo i
Ġha ya
Ġma ele
lia na
Ġmsi ngi
Ġyana yo
Ġpoi nti
wa ni
Ġmata tizo
mu zi
f si
Ġma bo
Ġmashi ndano
Ġvi tu
Ġni ni
one kana
Ġku endelea
shiri kia
ba r
ho ji
Ġku tu
Ġka wa
sisi tiza
Ġmare hemu
g wa
to kana
Ġ yu
f o
Ġ nga
Ġki ongozi
Ġwaa ndishi
me a
Ġvi ta
Ġbi a
nzi bar
Ġaf ya
Ġndi yo
Ġa ina
amu a
Ġku ndi
Ġmko no
Ġame sema
Ġku ki
Ġku ja
Ġmi ta
ua ji
l y
di a
Ġu ja
Ġas kari
nza ni
Ġna mba
ti kana
Ġza nzibar
Ġmku rugenzi
Ġkaribu ni
Ġsa bi
Ġwame kuwa
n ne
Ġsi tini
Ġli me
a mini
za zi
Ġbe nki
Ġti sini
Ġuchu nguzi
Ġma pa
la zi
Ġm radi
l la
ka ni
Ġwafanya kazi
ri sha
Ġu fisadi
Ġla zima
Ġmasha biki
Ġki ku
mba na
fa fan
te d
Ġmsi mu
Ġsabi ni
fa ha
Ġkima taifa
s to
Ġ yote
Ġga zeti
Ġkufu a
ru a
Ġma o
ku la
Ġku cheza
Ġmaa lu
Ġ ze
Ġbi lioni
Ġkama nda
Ġku shindwa
ka bili
e nda
Ġni li
n ua
Ġma toke
Ġaliye kuwa
Ġmaku bwa
Ġmatoke o
r d
Ġku cha
fu nga
Ġwilaya ni
Ġ dini
Ġvi le
Ġmu jibu
Ġna o
Ġmo ro
gu mu
za lisha
ka ti
Ġsta rs
sa babisha
Ġku le
mbu lia
one sha
nga lia
ma a
mani ni
Ġthe manini
Ġma ma
Ġka bi
kuta na
Ġmiko a
Ġyo yote
Ġmi chezo
p wa
Ġu ni
sia sa
Ġbia shara
Ġm ti
Ġwa te
Ġuna o
Ġkuanzi a
Ġiliyo pita
bia shara
Ġfa ina
Ġusha hidi
Ġfaina li
Ġha ti
Ġpro fe
Ġku taka
me d
Ġwana wa
Ġma je
mi sha
Ġcha ke
nye sha
fan ywa
Ġm fa
Ġku mali
Ġume me
nda ri
Ġu je
pa swa
Ġla ke
Ġwana funzi
Ġnyumba ni
a sa
kuba li
Ġprofe sa
Ġwa la
Ġma mla
nge ze
Ġmamla ka
li ma
Ġke sho
Ġma ga
Ġkuwe po
nda a
Ġbaada ye
Ġm pya
Ġshi rika
i ngia
Ġku je
ba ki
fu ngu
Ġn zuri
Ġana ye
Ġmpa ngo
Ġka ta
ku ja
ndu zi
Ġuni ted
lia no
s t
Ġa ja
we ka
l ma
Ġku vu
Ġsi asa
Ġye tu
Ġga ni
Ġba li
Ġji nsi
Ġkika o
Ġma tumi
Ġmatumi zi
Ġma bingwa
mi zi
Ġme ngine
Ġku ku
ma n
ge ni
Ġkili cho
re je
tara jia
Ġmaele zo
te za
Ġc u
Ġu ka
Ġka mbi
re za
Ġwanawa ke
Ġwa pi
Ġma kosa
Ġma uaji
Ġcha de
Ġchade ma
ma na
Ġlili lo
Ġwa wili
Ġita kuwa
Ġmre fu
Ġda wa
Ġdo do
Ġm toto
Ġkiwa ngo
Ġma tu
Ġha lma
Ġu ha
Ġida di
Ġdodo ma
wa la
Ġki tendo
kwe li
Ġmsa ada
ke zaji
ze e
Ġkawa ida
Ġhalma shauri
Ġ ndu
Ġa h
Ġmi sa
Ġmabo mu
toke za
ende sha
Ġusi ku
Ġ cho
Ġi nga
Ġsi si
Ġwali mu
Ġinga wa
sha mbulia
Ġamba cho
pe nda
hu sika
Ġni a
Ġili vyo
Ġwe nza
Ġku jua
Ġma dai
fani kiwa
Ġbina fsi
Ġuje nzi
Ġni na
Ġba si
Ġkuwe ka
Ġcha nzo
Ġm bi
Ġna m
Ġkwa ke
Ġma n
Ġse kta
si sha
mba no
Ġkabi sa
shi a
Ġbara za
li zi
ba ya
Ġa mani
Ġshi riki
Ġuta ratibu
Ġku ha
mbu a
ru hi
Ġko di
Ġku chukua
fa dhi
fu ngwa
Ġn o
Ġcha kula
Ġmwe zi
Ġalio ngeza
mu i
Ġkufi kia
ji wa
tumi ka
Ġ l
Ġki jiji
to ka
Ġmas uala
Ġma pi
f f
po kuwa
Ġya me
Ġu kweli
Ġha raka
Ġmaa nda
mi lia
Ġn ye
bi ri
Ġg hara
Ġshiriki sho
Ġvi na
ta ja
Ġu ga
Ġuhu ru
lazi mika
hi ri
Ġmo ha
Ġc a
tara jiwa
Ġghara ma
Ġ nde
wa nda
Ġu fu
Ġmu himu
Ġm te
Ġm bo
ku mu
Ġni me
she ria
ongo za
dili ko
Ġkusa babisha
fafan ua
Ġmi ka
ra hi
Ġmaba diliko
Ġma r
Ġka dhaa
ni sha
Ġwali sema
te a
Ġki ta
Ġma zo
na l
Ġa b
Ġi mani
wa po
zi ka
Ġnam na
sia na
Ġpe ke
ji ri
Ġma dini
Ġ di
Ġhu mo
Ġru shwa
Ġku pungu
sa si
dha ra
x i
ba dili
ti wa
sa ni
sili sha
pa nga
Ġt ff
Ġndu gu
Ġsa wa
Ġmazo ezi
Ġmba ya
Ġko mbe
Ġwalio kuwa
o ndo
Ġpa le
Ġke nya
Ġu ma
Ġime kuwa
Ġuchu mi
Ġwa ko
Ġma le
da u
Ġta nga
su biri
Ġkui ngia
Ġku shinda
zu ia
Ġmi ongo
i shi
k ra
zi di
fi kia
go mbea
pa tikana
faha mu
wa hi
Ġma futa
mu a
Ġhaki mu
fa ri
Ġta ratibu
Ġi taka
Ġ r
Ġku rudi
la ni
Ġkusi ma
Ġa t
bi ti
Ġku ele
gu u
Ġkupi ga
Ġbe i
Ġma fani
Ġn e
Ġmwa nza
Ġv u
Ġcu f
Ġv ye
Ġkuo ne
Ġmaji na
mo to
ru sha
Ġbunge ni
Ġmgo mbea
Ġmafani kio
Ġjo h
Ġmfa no
Ġn u
ze a
Ġkuje nga
Ġya ngu
Ġn yo
Ġpi nda
Ġg ha
ti ba
hu su
Ġki le
mi shi
ko fu
Ġmapi nduzi
Ġjoh n
we po
Ġtu ta
pe ni
Ġkina cho
Ġdunia ni
Ġwa dau
Ġma xi
zi to
Ġi si
kama twa
Ġaja li
Ġmaxi mo
Ġi n
Ġndi ye
Ġmoro goro
re sha
Ġali m
Ġhu ko
ni sa
Ġkam peni
Ġmoha med
Ġi le
ru fu
Ġusa lama
s pa
Ġum ma
ki ri
Ġli cha
Ġmiongo ni
g ua
Ġu haki
Ġba rua
Ġkua cha
Ġmsi ma
Ġm ga
Ġku ti
je ti
Ġma ko
Ġu pi
Ġba jeti
lala mi
Ġki ba
Ġma fu
u ndo
Ġmfu mo
Ġmare kani
Ġu a
Ġu bingwa
ra n
t h
Ġtu li
u s
so ma
Ġkupa mbana
Ġute kele
se a
Ġkuhu siana
Ġku shu
Ġha ja
Ġmi cha
Ġda ra
chuku liwa
Ġwa taka
Ġma ju
Ġma de
Ġmi taa
ga la
Ġar dhi
Ġah ly
Ġwa ngu
ka ya
nge ne
Ġwaku lima
shambulia ji
Ġnde ge
Ġki me
Ġuli nzi
Ġmape ma
shirikia na
j o
Ġku nu
te zi
Ġe d
ha da
ku ru
Ġsa fari
Ġju mla
Ġa i
Ġcha nga
fi ti
kele za
la li
pi li
Ġja ji
Ġkuta futa
Ġkiku bwa
Ġ go
Ġzi ta
Ġpeke e
Ġndi po
Ġwaki li
Ġso ko
i n
Ġka nu
Ġha ssa
dha ni
Ġmaga ri
Ġm dogo
hu ma
Ġfa milia
Ġa su
Ġu gonjwa
Ġja kaya
Ġmada raka
Ġmapa to
Ġki sha
Ġta bia
Ġaki zungumzia
Ġame kuwa
mui ya
Ġmi undo
Ġtu huma
Ġnyu ma
Ġwa zazi
ch wa
Ġkwa o
Ġmba gala
Ġuwanja ni
Ġju muiya
Ġjuma pili
pele ka
Ġuhaki ka
n t
ku wepo
Ġhu sika
n yo
Ġali i
bo ra
Ġmisa ada
r t
Ġkanu ni
Ġu laya
Ġmaa muzi
Ġwa po
Ġha zi
Ġuja o
Ġasu bu
Ġe nda
Ġasubu hi
Ġ ngo
Ġha wana
Ġali yo
s ter
Ġvi baya
Ġhata ri
Ġkupungu za
Ġhassa n
ri dhi
Ġki siasa
Ġmwa limu
Ġkuli ko
Ġki dogo
Ġali toa
ka ta
cha ngia
sia no
Ġenda po
v o
Ġko sa
Ġo fisa
n yu
Ġku dai
Ġku shiriki
la hi
ke zo
Ġchanga moto
Ġa rusha
Ġu le
mbi nu
Ġku mu
Ġi wapo
ke za
Ġra s
Ġu moja
s ti
Ġa dha
Ġu ko
Ġki sa
Ġusa jili
Ġa p
Ġchu o
Ġmaalu mu
si ma
Ġsi o
Ġwatu humiwa
Ġkule ta
Ġka si
mo kra
Ġkuka bi
hari bi
d hu
Ġku bo
Ġka nisa
nga tia
Ġma kini
Ġki m
Ġbi dhaa
Ġwata tu
ng we
fi ri
Ġmiundo mbinu
Ġu ku
Ġum ri
i ngi
Ġmi guu
Ġbu sa
mili ki
ji tokeza
n ze
la nd
ele le
Ġme ne
ge ra
ge mea
Ġte me
Ġvi tendo
Ġt ha
Ġmasha riki
Ġha u
Ġvitu o
Ġmsima mo
Ġutekele zaji
k wi
Ġku kosa
Ġkufu nga
Ġm ke
Ġki fo
Ġali sisitiza
Ġras mi
Ġku e
Ġkuwa pa
Ġvi faa
Ġteme ke
Ġma fisadi
Ġamba vyo
Ġkuto sha
Ġmo to
Ġkua ngalia
zalisha ji
p h
Ġm zee
li pu
Ġku pewa
Ġna ibu
Ġu mu
Ġka gera
Ġumu himu
Ġmas lahi
Ġmbe ya
Ġmafu nzo
Ġm zuri
mba zi
Ġmu ngu
Ġdha mana
i d
shi ka
Ġkuondo ka
Ġwa we
ka to
ta ngaza
Ġwi l
wo te
Ġbo di
Ġwo wote
Ġwa shiriki
nga ji
ndi ka
Ġmwi li
Ġkusa idia
Ġkufi ka
m ko
ri poti
la m
Ġi po
ji jini
Ġwata a
Ġkumali za
Ġwa weze
Ġwenye we
Ġm ji
Ġhi zi
sa ba
dhi biti
Ġndo go
Ġap ri
d ri
Ġwa jumbe
Ġku baini
Ġu ra
mb ele
re va
Ġwafanya biashara
Ġku sini
nga na
mokra sia
Ġwa gonjwa
hi li
ju li
Ġaliwa taka
reje a
Ġadha bu
Ġku la
Ġna yo
Ġmwaka ni
Ġmaji bu
u me
fa riki
Ġza mani
pi gwa
ru gu
nyu me
mi za
Ġki nyume
Ġmi fu
Ġvi wanja
Ġmali po
ka a
ongo zwa
Ġji oni
Ġkuo mba
Ġha ina
lo te
Ġuga nda
r ti
hi hi
Ġu ju
Ġf o
Ġri sasi
i ta
Ġku fanyika
Ġki sheria
sha nga
mili ka
Ġkusi kili
Ġmaanda lizi
Ġku eleza
ma no
Ġi la
le a
Ġkati ba
Ġho fu
Ġkuka a
Ġwenza ke
Ġamba ko
Ġmale ngo
Ġmita mbo
da mu
Ġvi li
Ġvi ngine
ju i
Ġmu unga
Ġmcha kato
Ġida ra
Ġlo lote
Ġupi nzani
Ġmi s
Ġkufu ngwa
Ġku badili
hu di
Ġman che
o n
Ġu zalishaji
Ġha na
bu ni
Ġwali po
weze sha
Ġmuunga no
Ġma ne
Ġju ni
Ġhasa ra
Ġapri li
Ġmanche ster
Ġmane no
s taa
Ġba ba
ibu ka
Ġmao fisa
hi si
ndi a
nge a
Ġse ko
thi rika
weze kana
Ġdo la
Ġm shambuliaji
Ġma ni
bi tisha
mo nd
thi bitisha
Ġjo se
ma nja
Ġhu ru
Ġmaku ndi
Ġmbe gu
Ġseko ndari
u zi
Ġm na
Ġka li
endele za
Ġame wa
ha ni
Ġndo a
Ġk ha
ti lia
Ġsi la
Ġba ndari
Ġvi pi
Ġvu rugu
Ġya ta
Ġma go
Ġma so
Ġma oni
k to
ng ele
ndi c
Ġko ndic
ve r
Ġvi ka
ga r
Ġju hudi
fanyi wa
shi ndi
Ġra ia
spa a
lipu ko
Ġmani spaa
Ġsila ha
Ġsa hihi
Ġsha hidi
Ġute tezi
kili shi
Ġitaka yo
Ġm se
Ġna ni
nd ua
hu sisha
Ġmi ezi
Ġkuli pwa
Ġnga zi
Ġmicha el
Ġku shirikiana
ri ca
pe nzi
dha mini
Ġji ji
Ġmaalu m
Ġwa fu
Ġmata ifa
Ġiki wemo
Ġnu su
Ġkubo resha
Ġa bi
Ġu shirikia
Ġkili manja
Ġute ndaji
Ġushirikia no
Ġkilimanja ro
Ġka i
ku fa
Ġde mokrasia
Ġma cho
Ġu vu
sha ti
Ġmwa nzo
ke ti
Ġsa id
Ġma zuri
Ġzi ki
Ġiliyo kuwa
staa fu
Ġma be
pa nda
Ġmi pa
Ġuta fiti
Ġma wili
Ġvi wanda
ngeze ka
wa si
si ngi
Ġsa re
Ġye yote
Ġaf rica
fanyi a
Ġmaje ruhi
a st
ku mbu
Ġmi radi
mb wa
Ġfu lani
k ri
Ġku ko
Ġma zungum
Ġni shati
Ġmgo goro
Ġas kofu
Ġmazungum zo
Ġma za
Ġu ba
re he
Ġmwa ndishi
Ġo kto
Ġokto ba
o nyesha
li i
si wa
Ġki lo
he shi
Ġhu enda
Ġj k
kuba liana
Ġa ma
sha hara
te gemea
pi ka
Ġme i
Ġkui ngi
Ġm fanya
Ġi vo
Ġki su
Ġza mbia
Ġri ch
pungu fu
zi ri
ja a
chu ngu
Ġwatu mishi
Ġkuta ngaza
kabili wa
Ġa ji
mo si
Ġbo t
fua ta
e ma
la i
lo jia
Ġlina lo
Ġai dha
Ġma nu
si liano
Ġrich mond
Ġma chi
dha mu
Ġpa nde
Ġjuma mosi
Ġuhu siano
Ġze tu
ele zwa
Ġwe we
Ġuta wala
Ġmte ndaji
Ġmawa siliano
Ġtha mani
Ġs pika
Ġsa fi
Ġngu mu
Ġku zuia
ma ji
Ġma ge
Ġta mko
chu mi
Ġkuli pa
n s
Ġwa cha
ma vu
Ġu shauri
Ġkute keleza
juli kana
Ġmis ri
Ġmaza o
Ġka di
re re
Ġmaku u
Ġkupo teza
ma risha
Ġma lalami
zi ki
mi sho
te li
mbu li
Ġsu gar
Ġmalalami ko
Ġa za
Ġmawa ziri
Ġbina damu
ma ha
Ġma i
Ġwana weza
nya nga
du mu
Ġkiu chumi
Ġm taa
ta jwa
Ġs wali
hu dia
Ġp hiri
Ġco ast
Ġnye rere
Ġma g
si kia
le zi
Ġmi wili
Ġkui shi
mbu zi
Ġmwenye we
twa a
Ġuki m
n y
tu a
bi o
Ġse ra
Ġnga ssa
Ġkuone sha
Ġhu wa
zo e
nda o
nge kuwa
Ġmu ziki
Ġwi zi
Ġkuondo a
ba n
Ġma tiba
Ġkuto kea
gi za
Ġpe sa
Ġdara ja
Ġjk t
Ġivo ry
Ġmatiba bu
a ra
Ġwa ja
Ġa wa
Ġkuwa silisha
Ġshi nyanga
nya ma
Ġde reva
Ġkiu ngo
Ġwate ndaji
m ke
Ġwa u
Ġya ko
ti hada
sa n
Ġji tihada
Ġmaa rufu
ve mba
Ġwasi o
Ġno vemba
Ġabi ria
we kwa
ra ha
Ġali kiri
yu mba
t ta
Ġku zungumza
le nga
Ġmasha hidi
Ġali eleza
nge reza
Ġkuji a
Ġkukabi liana
Ġwa is
ri bio
hu ri
ngu a
ga wa
Ġaza m
Ġali hoji
Ġana weza
chu ngaji
Ġkui bu
Ġmika kati
Ġm v
li ki
Ġkuto kuwa
Ġju kumu
Ġfa ida
Ġmwe nza
Ġmaka mu
c t
r sa
Ġs laa
Ġma si
Ġu bora
shi ki
Ġsi yo
Ġfu rsa
Ġmene ja
wa rd
Ġsi fa
Ġwata kuwa
lala mika
Ġma dhara
Ġvi jijini
Ġaki toa
Ġkuji bu
Ġle nye
Ġwa ha
Ġwa piga
idi zi
Ġkupa nda
mali za
fiki shwa
Ġmwisho ni
i ngereza
Ġu weze
Ġi we
Ġbusa nda
ri wa
ku a
Ġmwa k
Ġli ta
Ġti keti
pu ka
Ġku gombea
Ġka nda
ru husu
Ġmaka o
Ġkuanzi sha
sani i
Ġed ward
pi nga
Ġwana takiwa
Ġwataka o
Ġku fa
ki zi
Ġkuwa a
po kea
uli zwa
Ġmbi nu
nd ele
ko di
Ġvi fo
ndi sha
Ġzi ara
Ġp ri
Ġwapi nzani
Ġvye ma
Ġwataa lamu
ni ki
Ġu pe
Ġv ema
Ġmka pa
Ġwasi wasi
l sea
wa zi
Ġma hitaji
Ġha wezi
Ġali fafanua
Ġja m
Ġho teli
ghuli kia
Ġche lsea
Ġwate ja
Ġm gumu
Ġku me
ma ini
Ġcha n
Ġwana taka
Ġuli kuwa
Ġhati ma
Ġjose ph
Ġni dhamu
Ġhali si
Ġmwana mke
pele kwa
Ġs te
ma du
Ġki ti
uli za
Ġmcha na
Ġkupo kea
Ġmaja ribio
Ġkusima mia
madu ni
Ġya le
ta ki
Ġsa lama
Ġju lai
sto ria
Ġmao mbi
Ġmti bwa
fungu a
n ywa
Ġmi go
Ġkuu za
Ġte k
Ġka s
Ġsi tta
Ġiliyo tolewa
Ġku kutana
Ġba r
Ġmo yo
pele lezi
Ġmta ndao
Ġze nye
Ġkim ya
i li
Ġm la
Ġwa sanii
ri nga
zi go
Ġi ringa
le s
fan ye
Ġina weza
Ġmcha ngo
Ġu po
Ġmku lo
Ġkuji unga
Ġmipa ngo
o ngeza
ji ta
po teza
Ġkuto lewa
fi a
Ġaki sema
Ġkiwa nda
ta mbua
Ġha kuwa
ja yo
Ġsa lu
Ġcha che
go ma
pu mba
Ġmwe kezaji
Ġar se
chungu za
Ġaji ra
Ġku ya
Ġhi ki
ra ni
ra mu
Ġwi ngi
li pa
Ġma sa
mi na
ne s
Ġalipo kuwa
Ġkufua tia
ka no
Ġa si
Ġta maa
Ġre li
Ġkumali zika
Ġmifu go
Ġuju mla
r l
Ġma lu
Ġu jumbe
Ġu pungufu
shi ma
Ġsa ma
Ġmo shi
Ġda mu
Ġmaka zi
Ġru vu
Ġhe shima
Ġjam huri
Ġmalu mbano
ki shwa
Ġi ka
Ġmi la
pu m
Ġf re
Ġkupi nga
Ġmasha rti
Ġmaku ba
Ġkufua ta
ngene za
f la
wa sili
li m
Ġwa vu
mba ni
o l
Ġku zalisha
Ġma u
tu ma
Ġmtu humiwa
Ġnya raka
Ġfi dia
Ġkisa sa
Ġku so
Ġwali yo
Ġkisu tu
s poti
Ġwa nne
endele e
nde kezo
Ġmwana spoti
Ġwaku u
Ġlu ku
Ġkunu nua
Ġvili vyo
Ġmakuba liano
Ġkuwa saidia
Ġata kuwa
Ġushi ndani
Ġkuja dili
Ġa ha
Ġi jayo
mi shwa
Ġmi ti
cho te
Ġri poti
Ġcho chote
Ġku sha
Ġka ra
Ġi lala
Ġmiko no
Ġki ra
nga ni
Ġke ro
Ġmaja mbazi
Ġmita tu
Ġnyo ta
Ġm ha
la fu
Ġu tu
Ġu bunge
Ġu ingereza
Ġli pumba
kama ta
Ġhawa ku
lla h
saba bi
d d
Ġku che
Ġki fungu
nga nisha
Ġwana ume
ndi kisha
Ġra shi
Ġkum wa
Ġuta maduni
she ni
Ġukim wi
Ġaha di
Ġkuwa taka
Ġli ki
mbi wa
Ġmfu pi
Ġkuzi ngatia
Ġkuibu ka
ng land
Ġu tumi
ye mbe
Ġhu yu
Ġe ngland
mbele a
Ġawa mu
Ġuweze kano
Ġku hi
Ġni ta
Ġmi ze
Ġmi shahara
ende shwa
Ġm jumbe
ko a
no lojia
Ġmgo si
Ġalipo ulizwa
dhu ria
Ġsalu m
n na
Ġku weza
fa ka
Ġv o
fi kisha
Ġhawa ja
Ġafrica n
m we
t ri
Ġi s
sa bu
Ġkui marisha
Ġmsa idizi
Ġmako cha
elele zo
m pa
Ġwa jibu
di o
ngi wa
Ġja nua
Ġmwi nyi
nyi ka
Ġmaju kumu
Ġluku vi
p te
mba mba
Ġali a
Ġsi ri
Ġvi jiji
Ġo ngeze
Ġmaha li
Ġuna weza
Ġp wani
Ġge o
Ġjanua ri
Ġongeze ko
Ġu pelelezi
ku kuru
Ġki ja
pa ji
Ġta kukuru
Ġiliyo po
Ġku endeleza
chi a
Ġaki li
Ġre kodi
ondo ka
Ġmv ua
Ġmwak yembe
Ġarse nal
Ġm chungaji
ha ti
Ġi ko
Ġba ina
gi zo
Ġhai ja
Ġya si
Ġka dhi
Ġi ma
Ġvi ti
ga ji
Ġmiko po
Ġvika o
Ġzi kiwa
Ġmwana funzi
k h
Ġm ja
cha na
Ġkuwa nia
su mbu
nu zi
be ba
Ġkusi kia
Ġmaje ngo
Ġcho mbo
Ġtek nolojia
r ge
li za
Ġku mbu
Ġvi lla
Ġkuli nda
Ġal ba
sta hili
Ġmape ndekezo
Ġufu ndi
Ġwacha che
Ġutumi shi
Ġwa zee
Ġla o
nga nyi
Ġmade ga
Ġa m
ra zi
sa nya
pa tia
Ġn zima
Ġvi u
Ġamba ni
Ġlili kuwa
Ġmatu kio
g ha
l l
li zo
yo n
Ġhu su
Ġwana siasa
Ġmfu ko
muzi ki
Ġwa pa
Ġs ele
Ġu pya
Ġka to
si wani
Ġki taifa
re fu
dhi misho
Ġra hisi
Ġf c
Ġmaa dhimisho
Ġofi sini
Ġkucha ngia
ka taa
Ġv a
lu ma
Ġupa tu
Ġkuka ta
Ġmas wali
Ġwawe kezaji
n ji
t ma
wa ji
Ġku dumu
bi dhi
Ġili sema
Ġmaa dili
Ġwaki wemo
Ġmfu lu
Ġkai mu
u ndwa
Ġma hu
Ġv yote
Ġili po
Ġzi le
lia m
Ġte ge
ran sa
s se
Ġm staafu
Ġwa husika
ne kana
Ġmaanda mano
Ġm to
Ġku zungumzia
Ġu fa
Ġha dhara
Ġki te
ru si
Ġtu zo
Ġg ra
fani kisha
va a
Ġyu po
Ġmkono ni
Ġab da
Ġa nd
Ġu taka
Ġki jana
fu nza
Ġta ni
Ġkua mua
Ġkuji tokeza
Ġkuli ngana
tumi wa
shu hudia
mili sha
Ġmapa mbano
faha mika
Ġat hu
a mbia
Ġha lafu
Ġsa mbamba
Ġvi wa
Ġmwaka le
Ġru faa
mbuli sho
Ġrashi d
i ro
w t
hi m
Ġba kari
Ġpa si
Ġmashi rika
Ġkiku u
Ġmadaraka ni
Ġima ra
li pwa
Ġu fafan
ndi si
ru me
Ġsama ki
Ġkira fiki
Ġufafan uzi
i twa
u ka
Ġm zima
Ġku endesha
Ġa taka
nda liwa
Ġzi ngine
Ġime a
Ġge reza
Ġkipa to
Ġpri son
Ġmfulu lizo
him bili
m taka
u r
Ġki chwa
Ġmu himbili
ndo ni
Ġaka u
Ġl yon
Ġmize ngo
ta ri
Ġhi storia
Ġba hati
nge weza
Ġse pte
Ġkuli kuwa
Ġmatu maini
Ġabda llah
Ġprison s
a ni
r wa
Ġma la
Ġha tma
ke bi
po ol
che zwa
Ġli ver
lia nza
Ġkupi gwa
Ġkipi go
Ġvina vyo
Ġliver pool
i kh
Ġku fanikiwa
ha ma
baini ka
mali zika
Ġsepte mba
ma mizi
Ġma we
la zwa
ja ribu
Ġwaku bwa
ruhi wa
Ġmai ti
Ġakau nti
Ġya ki
Ġha tia
Ġha lali
tu humiwa
Ġki no
ua wa
Ġzo mbe
Ġkuha ma
Ġgeo rge
i ka
m vi
t ha
Ġm ua
Ġm zungu
le ta
Ġcha i
Ġwaki zungumza
ck son
Ġmika taba
Ġwa gombea
Ġma te
Ġi b
Ġha ma
bi ka
Ġbe ki
Ġto ka
Ġulio pita
shanga a
w ongo
Ġm shindi
ta tu
sha ji
fu rahi
gu ndua
Ġpe mbe
Ġyu su
Ġkuone kana
Ġamewa taka
Ġkino ndoni
wa kilishi
Ġku dhibiti
Ġa go
ng ga
Ġi ku
ku ndu
Ġkila ngo
be la
Ġwaa thirika
Ġkute ngeneza
Ġwil liam
heshi miwa
Ġmwakale bela
l le
ta futa
pa ngwa
lo zi
gu liwa
Ġkum pa
Ġuta ta
Ġje ngo
sta wi
Ġmape nzi
Ġmfanya biashara
Ġmag haribi
Ġhatima ye
Ġku fanikisha
Ġali ya
Ġina endelea
Ġji rani
jia ndaa
ia mbia
Ġyu ko
Ġwenza o
Ġkuele kea
Ġyasi yo
Ġiku lu
a l
Ġwa raka
Ġku rejea
te tea
Ġmi lipuko
Ġina vyo
ndo ka
Ġfe r
Ġufu mbuzi
b we
d he
wa kabili
Ġm ri
Ġku cho
me s
sema ji
Ġbo ni
Ġmaba ya
Ġlili tokea
Ġkusikili za
zoe fu
u za
Ġm su
Ġku hoji
Ġku chunguza
ji panga
Ġali pata
se mba
Ġkuwa sili
Ġsa kata
pi a
Ġserikali ni
gi a
Ġkusikili zwa
i fu
n te
r les
ni i
Ġki moja
Ġv yu
su di
Ġt rl
Ġuta kuwa
Ġnya kati
Ġkufua tilia
Ġr wanda
l wa
Ġku kubali
ng go
sa jili
ele wa
Ġkuo nyesha
thi ri
Ġwenye ji
Ġjuma nne
Ġjuma tatu
Ġab du
Ġkuti miza
Ġviu ngo
Ġufa ransa
s ca
u d
ka milika
Ġu zi
si ri
Ġaki na
Ġo mbi
Ġuna jua
Ġmka kati
Ġmare kebi
Ġusa firi
kazi ni
Ġkuanzi shwa
Ġisi pokuwa
Ġkas kazini
Ġmarekebi sho
Ġm no
to ngo
Ġmi singi
Ġmaji maji
Ġzilizo po
m fanya
t y
Ġk elele
Ġku sisitiza
ha dha
Ġvi ku
ro dha
Ġaki wemo
Ġde semba
ce lo
Ġkiba li
Ġviwa ngo
si kiti
Ġwali zo
Ġt ra
Ġnyi mbo
Ġkufu ngua
Ġzili kuwa
Ġkujia ndaa
Ġmzungu ko
Ġku tumika
Ġi ndia
Ġba hari
ru hu
Ġbi nti
mbu lizi
Ġmka li
Ġulio fanyika
Ġkushu ka
Ġmanu faa
pum zi
ka bidhi
tu ba
bi di
ngo ni
Ġse ne
go go
Ġja ckson
je nga
Ġaki jibu
mbu kizi
Ġkuta mbua
Ġal ly
Ġbarabara ni
Ġmre ma
i f
Ġm semaji
ti shwa
si kini
Ġhi fadhi
Ġcha rles
Ġita endelea
Ġde ni
Ġmaka li
Ġulio po
Ġkufi kishwa
Ġkuvu nja
Ġuma sikini
li li
Ġku kamatwa
Ġku shika
Ġa ibu
zi ngatia
ku twa
Ġvi ngi
Ġse mina
Ġpa tri
Ġmu ssa
Ġhuku mu
Ġyali kuwa
Ġmazi shi
Ġmaele kezo
Ġgha fla
niki za
Ġmua faka
a nzi
Ġwa dogo
Ġma hi
po ngeza
nga zwa
Ġat hari
Ġmaso mo
kri sto
Ġmwenza ke
Ġm wongo
ti mu
te mbelea
Ġmi tano
shiri kisha
ze mbe
su ko
Ġvya o
Ġhai kuwa
Ġmawa zo
Ġwais lamu
Ġbar celo
Ġago sti
Ġboni fa
Ġbarcelo na
h ri
n ce
li fu
Ġku ni
Ġku twaa
ri o
Ġi dd
Ġn ja
Ġili tolewa
re sheni
Ġana amini
Ġpa u
Ġc hri
Ġzo ezi
hitaji ka
Ġilivyo kuwa
Ġkumbu kumbu
k he
p p
v is
wa di
Ġku chukuliwa
Ġna amini
to lea
je shi
Ġmu me
Ġmaa mbukizi
Ġpe ter
Ġkupa tikana
va mia
Ġzime kuwa
Ġhazi na
Ġkue puka
Ġmabe ki
Ġbonifa ce
Ġ gi
li ko
Ġku ongoza
Ġma cha
si kili
se mwa
Ġni ka
Ġvi siwani
wi shi
haki ki
Ġmsa nii
Ġwa za
ma s
Ġse if
Ġf ran
Ġhawa wezi
endesha ji
th mini
Ġib rahi
Ġ w
Ġwa miliki
ya nsi
za liwa
ki mu
Ġu stawi
Ġi ju
Ġki taa
Ġmi ngi
Ġvi me
Ġshi da
Ġkuka milisha
Ġge ita
Ġyu le
Ġin ter
b rua
p he
wa fanya
Ġku reje
Ġi weze
Ġmwa muzi
Ġzi taka
Ġo le
Ġfe brua
Ġkusa fi
Ġkuka taa
Ġjo po
fadhi li
shanga zwa
Ġa zi
Ġu ongo
Ġka rume
Ġki fu
ga l
Ġwata no
Ġkusa mba
Ġmwana sheria
Ġche tu
Ġkuja li
Ġiju maa
Ġm heshimiwa
Ġha mi
mi o
Ġana ripoti
Ġpi cha
Ġkuo ngezeka
Ġo ma
kwa misha
Ġkufu ta
Ġuwe kezaji
Ġmwongo zo
a na
s ua
s kofu
t to
Ġm vu
ka di
ba li
la u
ra ba
nga mano
Ġvi gumu
Ġkam we
Ġkwani ni
baini sha
Ġge si
co m
Ġvita mbulisho
Ġsene gal
Ġfebrua ri
a d
Ġm lipuko
li us
Ġna ho
ba ni
Ġka se
si ra
Ġta bora
Ġta kwi
Ġwana endelea
Ġju lius
Ġkui funga
Ġwaki dai
Ġbe ndi
chuku lia
Ġsu ra
Ġbu ru
Ġhai wezi
Ġfu raha
Ġwaku rugenzi
Ġwau mini
Ġtakwi mu
Ġwa wakilishi
Ġu endeshaji
chi ka
Ġzi po
Ġli yumba
Ġina daiwa
Ġra fiki
so ro
Ġbe nchi
Ġkupa nga
shu ghulikia
Ġchu ji
Ġlo wa
Ġmade ni
Ġkite ngo
a hidi
Ġku fanyiwa
Ġna omba
Ġma gumu
Ġka mili
Ġali vyo
da com
Ġta wi
shi nikiza
Ġmi ili
pi ki
chi wa
Ġda lili
Ġkua ndika
Ġmaa fa
vi d
Ġsha ka
Ġhe sabu
Ġmti hani
Ġmbi o
jita hidi
Ġvo dacom
Ġuzi nduzi
Ġibrahi m
Ġlowa ssa
Ġma bi
sa ha
Ġza ngu
Ġla b
Ġme li
Ġmaa skofu
Ġpo sho
Ġsu lu
Ġngu o
Ġhe wa
Ġuka guzi
ondo a
Ġule mavu
razi l
Ġ ngele
Ġku peleka
Ġu zoefu
Ġki a
Ġta kri
Ġmi kuta
Ġwali vyo
ga mbo
Ġmwa kilishi
Ġra ma
Ġra sili
Ġto to
Ġmwe ne
Ġmata tu
Ġchu mba
Ġaja bu
Ġuku mbi
Ġmage reza
Ġkija mii
Ġmri sho
Ġmikuta no
Ġrasili mali
c to
wa taka
Ġwa geni
ti on
Ġali anza
me nt
te nde
Ġn jaa
che zea
Ġzi wa
dhi fa
sh taka
Ġo pe
Ġshe ikh
Ġpe nal
Ġmwana nchi
Ġsu le
Ġmsa maha
Ġaliwa hi
ci o
Ġmar cio
Ġwafu asi
Ġaliya sema
Ġpatri ck
Ġpenal ti
Ġ gu
Ġwa penzi
Ġku baki
Ġa gizo
Ġma shtaka
Ġhu sse
mia ji
kwa zo
Ġkupa tiwa
Ġkute tea
Ġhai ta
Ġisi yo
Ġmja dala
Ġam ri
Ġgra ce
Ġathu man
tongo ji
ruhu siwa
Ġkase ja
t he
Ġm bu
Ġm so
li e
Ġma dogo
ji kuta
fa ra
ele zea
pe si
Ġkua ndaa
Ġkuhu sika
Ġkuka milika
shu ka
p ta
Ġku su
Ġhi spa
to n
Ġta wala
te keleza
Ġsi wezi
Ġwana po
fi kiwa
Ġse nde
Ġtu ki
Ġkuji funza
Ġmaba si
Ġbu ko
fiki ri
Ġpro g
fua tilia
Ġmse kwa
Ġvyu o
Ġngele ja
l p
to e
bi no
sa ini
pa mbana
Ġta nes
ke o
nga mizi
Ġvi elelezo
Ġvi paji
ju mu
Ġja ngwa
Ġt lp
Ġhatu wezi
Ġmisa maha
Ġdara sa
shiki lia
Ġutaka o
Ġzitaka zo
Ġtanes co
li nda
Ġwa nyama
Ġma gonjwa
sa ji
fu ku
se fu
Ġza wadi
Ġra ngi
zwa ji
ridhi ka
Ġuko sefu
Ġwafu gaji
Ġmigo goro
Ġhispa nia
Ġwa amuzi
Ġku re
Ġna zo
Ġma ho
Ġma nya
Ġhi sia
Ġwana yo
Ġwana fanya
pe nde
Ġho tuba
Ġje ne
Ġhawa ta
Ġmas hu
Ġkufi kisha
Ġlime kuwa
m ka
ka la
Ġa le
Ġi ssa
Ġki goma
ke bisha
Ġmi ngine
Ġili anza
mo n
ndi kwa
Ġti ba
ro u
Ġana taka
Ġpi ngamizi
Ġkua mini
Ġkum taka
Ġmgo njwa
wasili shwa
Ġabdu l
Ġnaho dha
Ġope resheni
f tari
o ngezeka
wa ma
Ġm sta
Ġm geni
Ġwa hi
Ġhi sa
le ni
me nti
fu u
mi vu
he ni
Ġla wama
Ġmi ku
Ġmi zigo
Ġwana tarajia
Ġja mes
Ġwame anza
Ġle tu
Ġkupi ta
Ġkili sema
Ġso ngea
Ġmwana muziki
Ġkucha gua
Ġkuku za
Ġlab da
Ġhusse in
Ġwa dhamini
ha na
ma nu
Ġali fanya
fa u
le we
sa ka
Ġli kiwa
Ġda vid
Ġbi hara
jia no
Ġpe mba
Ġhadhara ni
Ġmaho jiano
f re
wa silisha
ha mi
Ġu dha
Ġali cho
me wa
fu ngia
di n
Ġwana paswa
Ġwali anza
ru na
Ġja maa
Ġzi si
Ġbi ngwa
Ġina wezekana
Ġji bu
Ġkwe tu
Ġulio tolewa
Ġal bino
ende ra
Ġmiti hani
Ġhama d
Ġsule i
manu el
i taka
n sia
Ġm ra
Ġku lia
Ġma di
Ġu fani
Ġki da
Ġali endelea
te s
Ġmwa i
go pa
Ġina onekana
Ġko va
Ġime anza
Ġkuu nda
Ġru fani
Ġsha hada
Ġdu san
sta ni
Ġjimbo ni
Ġmbo we
ridhi sha
ingi za
ngani shwa
n ry
t d
u nda
li misha
Ġha runa
ja dili
ra li
Ġki de
le za
Ġzi tto
ro ad
Ġju kwa
Ġkui fanya
lu ki
Ġjuma tano
Ġhe nry
Ġlu gha
Ġnili kuwa
Ġmga nga
Ġura is
raba ti
i omba
Ġku go
Ġma he
Ġma one
ri s
Ġka sh
hu dhuria
Ġki geni
Ġali zo
Ġsi na
Ġsi ngi
Ġb endera
nda mizi
Ġwana daiwa
Ġana takiwa
Ġmu sta
su ru
sh we
Ġkui ba
Ġo rodha
ria dha
Ġwalio po
Ġtuna taka
Ġkusa ini
Ġmwana chama
Ġgo d
Ġmau mivu
Ġufani si
Ġmaone sho
Ġkash fa
Ġ pu
na rd
Ġm li
Ġm penzi
Ġku thibitisha
Ġna dhani
cha gua
Ġzi ma
Ġc i
Ġkazi ni
Ġshe khe
mili fu
Ġusa fi
Ġdha ru
Ġkuvu na
nze tu
kwi sha
sababi shwa
v ya
li ga
Ġku soma
Ġa nga
Ġu kia
Ġu so
Ġu mbali
Ġki ji
Ġki pe
Ġba ya
Ġpa po
Ġkum piga
Ġkusa ka
ve n
Ġhospitali ni
Ġvita bu
Ġl td
lalami kia
Ġbusa ra
Ġura fiki
shiki liwa
Ġale x
Ġmsta ri
Ġsingi da
Ġwa sa
mba ji
Ġali kwenda
da n
Ġcha o
Ġwana cho
Ġpa mbano
Ġkuta tua
Ġmgo di
Ġmada ktari
Ġro bo
rahi si
Ġitaka po
Ġuvu vi
Ġzisi zo
Ġsulei man
u liwa
Ġku subiri
Ġu go
Ġki e
Ġb razil
ngi lia
nga nya
Ġwali m
Ġzi ada
zu a
Ġina po
Ġra tiba
ge ria
Ġtaa luma
be rt
Ġchi liga
Ġusi mamizi
Ġkuki mbia
Ġkurudi sha
Ġmikono ni
Ġchiliga ti
li vu
Ġwa pya
mba bwe
Ġta rehe
Ġko ro
nu fa
toa ji
Ġshu ti
Ġkuta jwa
Ġume kuwa
Ġyali semwa
Ġkida to
l d
Ġs ho
ji unga
tu s
mu lo
Ġta thmini
Ġsa uti
Ġmaha kimu
nu nuzi
Ġmasha mbulizi
Ġdu ni
shu kuru
Ġhai ku
Ġhe liko
Ġmago li
Ġbihara mulo
Ġheliko pta
u mbele
Ġu kiwa
Ġka bu
Ġki biashara
mi ta
Ġti ct
Ġana tarajia
Ġina tarajia
ndo a
Ġwalio nekana
bo vu
Ġuta lii
Ġmwi ngi
tumi kia
nyi ko
Ġusi o
Ġdha na
Ġuma kini
Ġgo li
Ġtict s
a ji
Ġm ratibu
Ġku ke
Ġa da
Ġa nge
Ġu d
Ġu geni
Ġkatika ti
Ġsa yansi
Ġwana sema
Ġina kuwa
Ġaki tokea
Ġwi mbo
Ġshe rehe
Ġmashi ne
Ġngo zi
Ġkukabi dhi
Ġmene ji
p ha
Ġk ye
Ġu zazi
Ġka da
Ġi lani
Ġki ngine
ne sha
Ġsa fu
ho fia
Ġe ti
Ġina tokana
Ġra ja
Ġame a
Ġte le
Ġmsi tu
Ġmsa fara
Ġaliwa taja
Ġmta nzania
Ġvipi mo
Ġprog ramu
Ġdharu ra
Ġkye la
Ġm zigo
Ġku ba
Ġa lo
Ġu shiriki
Ġu toaji
Ġka soro
si mu
Ġwali dai
Ġe ndele
Ġvya nzo
Ġpi ki
Ġshe in
Ġyaliyo kuwa
Ġkambi ni
Ġkusima ma
Ġmwanzo ni
Ġmila n
Ġalba mu
Ġugo mvi
s kini
Ġa sasi
Ġu o
Ġki zuri
Ġali iambia
Ġza buni
Ġzi mbabwe
Ġwe nzetu
Ġkua jiri
Ġwalio kufa
Ġkusa jili
Ġre al
Ġshule ni
Ġkika milifu
Ġuma skini
Ġne w
Ġmaso ko
Ġwais lam
vis heni
Ġku pelekwa
Ġna fuu
ma i
Ġu zembe
Ġha dhi
Ġki is
Ġki dini
bu su
Ġe m
Ġana daiwa
Ġana fafanua
Ġina paswa
Ġpa nya
Ġkuo koa
Ġmaha busu
Ġwaki endelea
Ġho sea
ce la
Ġchu ki
Ġkuondo kana
Ġkabi la
Ġmale cela
Ġkuingi lia
Ġmeneji menti
Ġm shi
Ġwa rio
Ġa weze
ki mbia
cha pa
shi wa
Ġvi rusi
ho ro
Ġcha guzi
ele kea
che ze
je ngwa
je ruhiwa
Ġra ha
Ġpi ndi
mbu liwa
Ġkuta ja
Ġpe ngine
Ġkawa mbwa
Ġlililo fungwa
Ġgha sia
Ġkuacha na
Ġkuhama sisha
Ġpembe ni
Ġwario ba
hi fadhi
Ġa we
Ġma bili
Ġha sira
bi wa
Ġni ki
Ġsa me
Ġvi gogo
Ġli ndi
Ġwame amua
Ġkuu nga
Ġhatu na
Ġita lia
Ġjina i
Ġkule vya
Ġkushu ghulikia
Ġruvu ma
Ġugeni ni
Ġmabili oni
f ya
s si
na yo
Ġwa stani
Ġna wa
Ġa mi
le keo
Ġn jo
Ġt re
Ġime kuja
Ġkum wo
Ġwo di
Ġume baini
Ġulio fanywa
shu ghuli
mili kiwa
Ġjo to
Ġwale mavu
Ġmta mbo
Ġmbo na
Ġmke we
Ġtele visheni
u le
wa kili
Ġwa kia
Ġwa shambuliaji
Ġs t
Ġka hama
Ġi pa
me la
Ġili daiwa
Ġja di
Ġli ni
Ġli ngine
Ġda da
Ġina takiwa
ge zo
Ġc e
Ġo f
kwa ma
Ġmata nga
Ġhawa kuwa
Ġru ma
Ġmgo mo
Ġalipo zungumza
Ġushi rika
Ġmte ja
soma ji
Ġmwene ndo
Ġem manuel
m kabili
n so
r ry
Ġku za
Ġku lala
ra ji
Ġali shindwa
ke wa
zo te
Ġba lozi
Ġvi cto
Ġmo si
Ġda ni
Ġwaka la
gu son
Ġkuta kuwa
Ġzo zote
Ġmaka la
Ġzilizo pita
Ġmaja ji
Ġyame kuwa
Ġmfanya kazi
Ġhusu sani
Ġfer guson
a ban
e ndi
m p
m kia
wa zito
Ġm zazi
li ka
Ġya kiwa
Ġma dri
Ġka ka
mi sh
mo ro
Ġina fanya
vu nja
Ġmara fiki
Ġsha aban
Ġlu ca
Ġkuzi di
Ġkuha ribu
Ġgha na
Ġkuwapa tia
Ġvingine vyo
Ġwaja wazito
Ġkuhi fadhi
Ġpiki piki
Ġdani el
Ġmadri d
mish na
Ġluca s
b c
u zu
Ġku beba
Ġu bu
Ġali funga
sha ngaza
Ġwana vyo
ge n
Ġji ngine
Ġc ongo
Ġmasha mba
Ġmwe lekeo
ghu shi
sta m
Ġro stam
Ġche nye
Ġmasi kini
sajili wa
Ġtakri bani
c co
u zwa
Ġku fahamu
ta mba
Ġu bi
Ġki siwa
he bu
Ġsi jui
zo mea
Ġvi wili
Ġwana zo
Ġwali cho
Ġana yo
do mo
Ġiliyo undwa
Ġuna endelea
Ġmata kwa
Ġsha mba
kele zwa
Ġkuku sanya
Ġkilicho po
Ġah med
Ġmabi bo
Ġjangwa ni
luki ndo
Ġci ty
wa pa
li we
hi risha
Ġu ji
Ġu to
Ġu refu
Ġmi taji
Ġsa mu
nda mana
ngu ka
Ġja po
Ġana po
Ġt ho
Ġmba dala
Ġkiku ndi
Ġharaka ti
Ġkuele wa
sababi shia
Ġmahu siano
nte na
hadha ri
Ġnja ma
sikili za
Ġm hi
Ġku ua
ha wa
Ġkwa ngu
ku u
Ġha ramu
Ġki ko
to sha
bi la
se ni
Ġta n
Ġwana m
Ġwana pata
pu sha
Ġame toa
Ġkua hidi
Ġwame sema
nya nya
Ġp resha
Ġmasha ka
Ġmaku sudi
Ġzilizo kuwa
Ġyenye we
Ġmti ki
Ġnina cho
Ġl ya
Ġkubadili sha
Ġsele lii
Ġmanya ra
n to
Ġk ro
Ġwa so
Ġma ki
Ġma rudi
Ġi ti
ke zwa
ju ma
Ġo nyo
Ġmaa zi
Ġbo si
Ġupa tikana
Ġulio kuwa
Ġkusi tisha
Ġri tes
Ġkipa umbele
Ġnye kundu
Ġtuli kuwa
Ġwaja si
Ġkato liki
Ġkureje sha
Ġkure kebisha
uzu lu
Ġsamu el
Ġkro si
Ġupatikana ji
i fanya
r k
Ġ z
Ġna lo
Ġu sumbu
Ġi ngekuwa
tu bia
da nganyi
Ġkuwa lipa
Ġwana jeshi
Ġwali fanya
Ġwali pata
Ġtu ka
sho to
thi biti
Ġkuwe keza
pungu a
Ġmada wa
Ġkuki mbi
Ġnia ba
Ġca iro
Ġkita bu
Ġvika li
wazi sha
Ġkusha ngaza
Ġhusu san
Ġviku ndi
Ġmaazi mio
Ġusumbu fu
b ya
r bia
wa ns
Ġm zi
li nganishwa
Ġma ria
Ġka ga
Ġki nga
Ġki jijini
se me
Ġkuwa wezesha
Ġili pata
Ġwali a
Ġmwa ki
Ġina onesha
Ġko ndo
mbu lisha
Ġiliyo fanyika
Ġiliyo sababisha
Ġbe a
Ġmwe nde
Ġmas sa
Ġiki linganishwa
Ġsha m
Ġdo wans
Ġfi ti
Ġmajira ni
hoji wa
Ġuga waji
Ġdi wani
Ġmitaa ni
haribi ka
haribi fu
Ġfo mu
sumbu liwa
Ġjene rali
Ġubu ngo
Ġwa pata
Ġku lazimika
Ġa a
Ġa je
Ġa be
Ġma nye
Ġali onekana
fa kari
cha guliwa
me ta
se kana
Ġta ka
Ġhu wezi
Ġsa lim
ru ki
Ġaki m
Ġime amua
Ġmko po
Ġwaki fanya
Ġwaki taka
Ġle seni
Ġte te
Ġsu dan
Ġro ho
Ġwate tezi
Ġuka rabati
Ġalim taka
Ġziki wemo
Ġfran k
Ġbuko ba
Ġwapata o
Ġmanye ma
i funga
Ġwa kristo
Ġku kubaliana
Ġa lama
Ġya ani
ta ngazwa
Ġma pumzi
ti shia
Ġu zito
Ġki lio
Ġali amua
Ġta hadhari
Ġli le
Ġda ftari
Ġaki dai
dhi nisha
Ġime toa
Ġiliyo ko
Ġkuhu dhuria
Ġkili kuwa
Ġwanao ji
Ġdo go
mishi wa
heshi mu
Ġkume kuwa
Ġmapumzi ko
u mia
Ġm za
Ġwa fadhili
Ġku nyo
la us
Ġki ngu
le ndo
sa lia
sa idi
Ġvi kosi
Ġe nzi
Ġpa sca
Ġwata ni
nu sha
nya ngga
Ġtuna weza
Ġaliwa ambia
Ġzinazo tolewa
Ġnyo ngeza
Ġkumu ua
ripoti wa
Ġyusu f
Ġpasca l
d ra
t l
Ġwa shi
ha m
Ġna taka
Ġya po
ta si
zi ndua
Ġu e
nd we
si shwa
ra ja
da ni
me sha
di liwa
nga lie
Ġina hitaji
Ġra u
Ġime sema
lio na
Ġkuji patia
Ġmwana ume
Ġfo r
Ġkuingi za
Ġkujia ndikisha
Ġutu livu
Ġataka ye
tha mini
Ġudha ifu
Ġmwende sha
d y
wa i
Ġku mbe
Ġa bo
Ġa nna
Ġu maa
Ġu haribifu
Ġka mishna
yo ta
le y
Ġkuwa sha
Ġkuwa fanya
re s
shiri a
Ġpa mba
Ġko na
do ro
du mia
fanyi ke
Ġbara ka
Ġto yota
Ġhaku taka
Ġsu mu
Ġmas he
fua tiwa
Ġkilo mita
Ġwaha ndisi
Ġchri sto
Ġkitaa lamu
Ġkusamba za
Ġsulu hu
Ġendele vu
Ġkingu nge
Ġumaa rufu
a ngalia
a ndaliwa
e d
o nya
z we
Ġku fanyia
Ġku shinikiza
Ġha mu
Ġki ke
Ġki fua
Ġta ri
Ġni kiwa
Ġmi jini
Ġwana jua
Ġana paswa
Ġaki ba
Ġkuji ki
Ġkuli puka
du i
Ġfa ni
de n
Ġmsa jili
Ġyana weza
Ġmacho zi
Ġkuso nga
Ġtege me
hakiki shia
Ġmarudi ano
Ġchristo phe
Ġwa fungwa
ha bu
ba ka
Ġma mi
Ġma piga
Ġka dri
Ġi p
ja ji
Ġja mani
pu kizi
Ġame amua
Ġshi taka
Ġkumi liki
shwa ji
Ġbe n
Ġchi pukizi
Ġdha habu
mwa mbia
Ġkiu me
Ġfi lamu
kubali ka
Ġuha i
Ġmbo vu
Ġtanga zo
Ġvye nye
Ġkushu hudia
Ġzita kuwa
Ġkubadili ka
Ġkuko sekana
Ġkato ro
Ġruma nde
Ġmami lioni
Ġmapiga no
i ko
i toa
r c
w u
Ġku ruhusu
Ġku ghushi
ta fu
ta risha
Ġs h
Ġma na
Ġu shu
Ġu nunuzi
Ġu danganyi
si liana
Ġta ma
Ġmi ha
Ġmwa o
Ġzi ko
ro me
zu i
Ġwi to
Ġvya ke
Ġkui nua
ria mali
Ġwalio ko
Ġhaku kuwa
Ġru kwa
Ġhapa na
Ġuchu ngu
Ġkuondo lewa
Ġkutu liza
Ġr we
buni fu
Ġwavu ni
saha u
Ġmatanga zo
Ġip tl
Ġudanganyi fu
ni wa
ta na
ba da
Ġki se
Ġki gambo
mi ted
Ġn zito
nga zaji
Ġe to
Ġmwa mba
Ġli mited
Ġana pata
nia mbia
sh takiwa
Ġko te
Ġpo ri
zungu ka
mbu i
Ġkuu zwa
Ġkuu nganisha
Ġbe nja
Ġmsi chana
Ġkitu oni
Ġtuna omba
Ġmaka mba
taa nza
dili fu
kari bisha
Ġwiki endi
Ġndo to
Ġuha lifu
Ġmha ndisi
waji bika
Ġchristophe r
Ġkigambo ni
f ti
g h
m pi
p lo
Ġa fisa
Ġya taka
Ġi t
Ġali tumia
Ġali omba
Ġali fariki
wi ra
ju e
nge r
Ġtu ndu
Ġbaada e
Ġvya kula
Ġime shindwa
Ġime elezwa
gi wa
Ġita anza
Ġje rome
Ġpe ngo
Ġmaka tibu
Ġre dio
Ġco moro
Ġkuele zea
Ġalba m
Ġtege te
Ġburu ndi
fre y
Ġmra mba
Ġhosea h
u lo
Ġwa zuri
Ġu u
Ġu ndani
Ġali ko
me ni
di liano
Ġhu ndi
Ġina tarajiwa
Ġame pata
Ġo vyo
Ġmaa lim
Ġbo mu
Ġita toa
Ġmwe ma
Ġmwe ndo
Ġchi na
Ġbu re
Ġlina weza
ch wani
swa da
Ġmaja diliano
Ġkiba ha
dri ck
Ġmla ngo
Ġhatia ni
tende a
Ġm twa
Ġku vi
Ġku hara
Ġma lia
Ġma du
Ġu n
Ġki fa
Ġki pya
Ġsi ja
Ġwali fika
Ġtu mbo
Ġli po
Ġpa pa
dhi ni
Ġte a
Ġkuwe kwa
Ġwasi chana
Ġmbe zi
Ġkuja ribu
Ġmikoa ni
Ġlililo kuwa
Ġuha lali
Ġvina ra
Ġalii omba
Ġkim singi
Ġuku bwa
Ġyata kuwa
Ġmadi wani
Ġmusta fa
Ġud p
Ġtan road
Ġwajasi riamali
Ġmtwa ra
Ġmalia sili
Ġ q
Ġm shahara
Ġku kiwa
Ġna jua
hi a
Ġu za
Ġu la
Ġki elelezo
Ġali taka
Ġali ona
le tea
bi ra
Ġsa mwe
Ġwali pa
Ġtu a
Ġd pp
Ġda lali
Ġame fanya
vu nia
Ġndi zo
Ġkum saidia
Ġuna tokana
Ġpe t
Ġmata wi
Ġwanao fanya
Ġyaliyo tolewa
Ġmpi nzani
Ġkuki dhi
nal d
Ġmga o
Ġmade reva
Ġalii taka
Ġngo ma
sima ma
Ġkha li
lalamika ji
Ġwapa te
pende keza
Ġmaki pa
Ġtari me
e n
Ġm miliki
Ġku fafanua
Ġa sha
Ġma dhe
Ġka le
Ġi bada
Ġha ji
hu da
Ġki zuia
Ġv yumba
Ġhu juma
nga no
ru ku
Ġtu mba
Ġmwa nya
Ġmu fti
Ġaki fanya
Ġndi lo
ndu ka
Ġbu di
Ġkuzi ba
Ġuba guzi
Ġmage sa
rwa y
Ġmiku bwa
Ġraja b
Ġtho mas
Ġmadhe hebu
Ġkizuia ni
a thirika
l lo
n ny
r tini
Ġ dia
na fsi
Ġku chu
Ġku fariki
Ġu wazi
Ġki vu
Ġki zazi
Ġki tongoji
Ġali bainisha
mi n
Ġni geria
Ġmi nne
Ġvi kwazo
Ġili toa
Ġwali kamatwa
ru ka
Ġse re
pe ndi
Ġana jua
Ġpa to
gu ndu
Ġko rtini
Ġkui pa
Ġndi cho
chuku liwe
Ġhawa taki
kari riwa
va ro
Ġkute gemea
Ġal hami
Ġdha hiri
mui sho
Ġkupungu a
Ġmaju muisho
iro bi
nggo a
sikiti shwa
Ġwaso mi
b re
g we
Ġ ng
Ġ nda
Ġku nywa
Ġku gundua
Ġna irobi
ta wala
Ġma gu
ki za
hu tubia
we kea
Ġki fe
Ġali kataa
cha ngiwa
te l
Ġili a
Ġwali toa
ru mani
Ġe ra
pe mbe
Ġina wa
Ġwe st
Ġra za
Ġkui saidia
ria n
Ġuna tarajiwa
ndu ki
Ġkusa firi
Ġbu nduki
Ġngu mi
Ġnje ma
Ġkutu a
Ġunao fanywa
Ġuha ba
Ġuha misho
Ġuma ti
Ġhau na
Ġchan jo
Ġfre drick
Ġmala wi
Ġmala ria
Ġpau l
Ġkifu ngo
Ġkife dha
e r
ti n
ki mbi
ra sa
Ġki refu
Ġki chwani
sa firi
fu ndisha
Ġn saji
Ġla ngoni
Ġba ngi
Ġsa u
Ġsa le
Ġili eleza
Ġti ja
Ġra dhi
Ġkua mkia
Ġmko ngwe
Ġshe lukindo
Ġp la
kwa ju
Ġfa ini
Ġsta ns
unga na
Ġaka wa
Ġco m
ngeze a
Ġmaga zeti
hiri shwa
Ġmsima mizi
fuku za
fau tia
Ġrau ndi
Ġnsaji gwa
Ġstans laus
r ri
Ġm taji
Ġm penda
Ġwa somaji
Ġku fanywa
ma ri
la dala
Ġi kio
mu nd
Ġza in
ne a
Ġvi pe
Ġda ladala
ro dhe
vyo kuwa
Ġmku lima
Ġpa cha
dhi ri
Ġme za
Ġko ngamano
Ġkuji panga
Ġzina endelea
Ġume fika
Ġhawa jui
Ġmpa suko
Ġkusi kiti
Ġzilizo tolewa
fo rd
Ġnime kuwa
Ġne c
Ġkinacho takiwa
Ġwataa lam
ndikisha ji
ll ya
furahi shwa
Ġbaya na
Ġkabu ye
Ġiti kadi
c c
u e
z y
Ġ zuri
Ġm po
li lisha
Ġwa shindi
Ġwa dhifa
Ġku lazi
ri di
ki uka
Ġu kili
Ġka ndo
Ġha ra
Ġha vi
sa fi
Ġvi de
ele we
Ġwali lazimika
ro ka
pe li
Ġana fanya
Ġina taka
gu sti
sh tu
Ġkui taka
Ġf lo
Ġle ma
Ġkupi ma
Ġtuna amini
Ġkuka gua
Ġwanao taka
Ġwanao ishi
Ġj wt
Ġri dhaa
Ġzilizo baki
Ġalipo takiwa
Ġkika tiba
Ġkuje ruhiwa
Ġno rway
Ġmga wo
sima mia
Ġbandari ni
pesi le
Ġmwaki pesile
Ġyataka yo
Ġkuhara kisha
Ġalhami si
Ġera sto
Ġvide o
Ġjwt z
a n
a mbiwa
p ment
Ġma pya
Ġki wanja
Ġali takiwa
Ġkuwa tu
Ġn k
pi ra
pi shwa
pi gia
Ġwana tumia
lo pment
Ġtu po
Ġaki fungua
Ġkui twa
Ġmaji mbo
Ġkuli pia
du gu
Ġkufu ndisha
Ġbara ni
Ġzina weza
Ġde ve
Ġmwe nzi
Ġsu ngu
Ġdha ti
Ġnili po
Ġkusima misha
Ġuku aji
Ġvo cha
Ġis ra
Ġand re
Ġabo u
Ġmpenda zoe
rodhe sha
Ġdeve lopment
g hari
l da
r to
w n
Ġ fisadi
Ġm r
Ġku gawa
Ġku uawa
ka nusha
hi niwa
Ġa mina
Ġka dugu
ku mba
Ġki po
Ġki wira
Ġali ji
mu ni
te uliwa
Ġmi ke
ko o
Ġvi a
Ġwali wa
Ġmo kiwa
dha n
Ġpa nga
Ġra i
Ġame shindwa
Ġo sca
Ġhali na
Ġuna po
Ġzili eleza
Ġucha fu
Ġsu bira
Ġyanayo endelea
Ġuja nja
Ġmti ndo
Ġmaje shi
Ġkushinda na
Ġtuta kuwa
Ġmicha ngo
Ġwataka po
ngene zwa
Ġhau ja
pum zika
Ġpasi po
Ġrama dhan
Ġalo nso
Ġvicto ria
fautia na
Ġkadugu da
Ġosca r
a giza
Ġa sema
Ġma hiri
ti o
ti nga
zi o
Ġu dhibiti
Ġka ria
Ġha fla
hu siana
ra i
Ġki nye
le la
Ġkuwa kamata
Ġta s
he ma
Ġsi nza
Ġba n
Ġba sto
Ġba ndia
Ġmi mba
Ġmi pira
Ġvi pa
Ġvi ko
chi mbaji
Ġwali nzi
zu ka
Ġpo mbe
Ġndi vyo
mbu e
Ġwaki ongozwa
Ġkuji husisha
Ġkuji tuma
Ġkum fanya
Ġho ma
Ġkupi sha
Ġuli tolewa
Ġute uzi
Ġlu pembe
Ġkipa wa
Ġkutu nza
Ġkuki cha
Ġuje rumani
Ġuka nda
Ġman ji
Ġnu r
Ġmga wa
Ġed mund
Ġmla nzi
Ġgereza ni
Ġyusu ph
Ġrama dhani
Ġsende ka
hifadhi wa
Ġtama sha
Ġkise rikali
Ġbasto la
i marisha
o o
Ġku kuta
Ġku shoto
la ba
Ġu mwa
Ġu wt
ja ge
Ġza horo
Ġla ngo
Ġmi e
Ġb ri
Ġvi gezo
ele keza
ndi kishwa
Ġwali fanikiwa
nge ti
ga nda
Ġmwa jiri
ndo n
Ġkui dhinisha
Ġwame pata
Ġwata pata
Ġkuji uzulu
vi n
kwe pa
Ġte ule
weze kani
Ġmaka nisa
Ġiki endelea
Ġkima ro
Ġnya nge
Ġre hema
unga nisha
Ġyaliyo po
Ġfi fa
Ġkuku twa
Ġmoha m
Ġin jini
Ġmako ntena
Ġwalipo fika
Ġmabe nki
Ġyaki wemo
Ġmso ngamano
Ġanga lau
Ġukia ngalia
iko lojia
Ġpet ro
Ġsere ngeti
i ne
r ne
s uaji
t we
Ġm s
Ġm che
Ġm guu
Ġwa endelee
Ġku vamia
Ġa nne
Ġma nne
Ġu yo
Ġka na
Ġi fika
Ġki hi
Ġali fika
Ġali taja
sa ri
sa vyo
se r
Ġkuwa fikia
Ġta ra
Ġla nd
Ġba ga
Ġmi ji
Ġwana hitaji
mo yo
ngo la
nge zwa
go da
Ġt ri
Ġmaa gizo
mbe e
Ġupa suaji
Ġje zi
Ġmata jiri
Ġg lo
Ġulio pigwa
Ġtume kuwa
Ġata endelea
Ġyaliyo tokea
Ġmawa kala
Ġuja siri
Ġkai jage
mbuli ka
Ġviti sho
nggo mbe
Ġtre ni
Ġipa savyo
Ġkondo mu
Ġushu ru
Ġifika po
Ġbaga moyo
n jo
u m
wa ri
li la
Ġwa panga
Ġku pe
Ġku staafu
Ġku hofia
Ġa mo
za mo
Ġi nge
ji bika
si m
we leza
Ġki zi
pa te
pa tiwa
me ro
fu zu
Ġkuwa po
Ġni nyi
Ġcha fu
Ġwana kabiliwa
lo kuwa
wi no
re a
ze tini
ge me
Ġpo po
Ġwata weza
Ġwata hiniwa
Ġwaki sema
Ġwaki tumia
Ġkuji fungua
Ġbo ban
Ġzina onesha
Ġinayo wakabili
Ġkab we
Ġakiwa silisha
Ġnya dhifa
nyi ro
Ġmcha nga
Ġlo ndon
Ġro bert
Ġhaya ti
Ġkilicho kuwa
ridhi shwa
ndele o
nywa ji
jita mbulisha
Ġmila ngo
kabidhi wa
Ġkusafi risha
Ġsende u
Ġgod frey
Ġmhi na
Ġbenja min
Ġkaria koo
Ġnur din
q ua
s s
s wi
wa nga
Ġwa nge
ta ni
ta kuwa
Ġma dhu
Ġu dhamini
Ġka hawa
mba tana
fa na
mi s
mi ra
Ġkuwa siliana
Ġza hana
Ġba gen
Ġvi ki
Ġana ji
Ġana kuwa
Ġwatu miaji
Ġime endelea
kama no
Ġuta ngazaji
Ġga va
Ġkusa wazisha
Ġmaka da
Ġmwana siasa
Ġhaki ka
Ġkute nda
Ġnya nja
Ġalio nya
Ġkuona na
Ġyanayo husu
Ġkita kuwa
Ġvye ti
Ġua ndikishaji
Ġkunu fa
Ġste ven
Ġkumwa mbia
hadha risha
Ġazi z
jumu isha
Ġmshi kamano
Ġtanroad s
gundu lika
Ġmoham med
Ġzahana ti
Ġgava na
a chwa
i le
u zito
na di
Ġku lwa
Ġa la
Ġs we
ki dhi
la da
ku mbwa
tu pa
Ġhi a
ja zo
ra si
Ġali lazimika
sa mba
sa di
mi chezo
Ġkuwa peleka
Ġla ngu
ne di
Ġsa m
Ġsa ini
Ġwana ha
ngu liwa
nye ji
fi ke
Ġwali takiwa
Ġzi jazo
Ġmoja wapo
lia mbia
Ġmu swada
Ġme gawa
Ġji pya
Ġkua mbiwa
Ġshi ngo
Ġwata endelea
Ġwalio husika
Ġkuu mia
Ġkuu ndwa
bo ko
vi c
Ġye nu
Ġkupi tisha
Ġita wa
Ġbe ni
Ġkufu zu
Ġuli mwe
Ġsana a
Ġwaa ndamizi
Ġfu ngu
rudi sha
pungu za
Ġuja uzito
Ġitakayo fanyika
Ġis mai
nganyi ko
Ġmahi ta
Ġmli nzi
Ġkie nyeji
Ġami r
shughuli kiwa
Ġsamwe l
Ġukili nganisha
Ġulimwe ngu
Ġk wi
li shwa
Ġwa ji
Ġku chi
Ġna fikiri
Ġa c
Ġs qua
Ġma ke
Ġu ngu
Ġu gumu
Ġha jui
ra ti
ra bu
Ġki si
Ġali kamatwa
le o
di na
Ġkuwa eleza
Ġta fiti
ke zi
shi p
Ġsi dhani
Ġb ongo
Ġwana kuwa
Ġwali shindwa
Ġli ko
Ġana tarajiwa
Ġina bidi
Ġaki tumia
Ġwe nger
Ġkua ndamana
Ġko mp
Ġko plo
yu ta
Ġwame shindwa
gi lia
Ġiliyo pigwa
so a
vi le
Ġga ma
Ġbe r
Ġp c
uli ze
Ġbu kwi
Ġsha biki
kari bia
Ġnya ma
Ġwasi mamizi
Ġyo na
Ġmawa kili
Ġmaje raha
Ġno ti
Ġmazoezi ni
Ġvu mbi
Ġkue limisha
Ġkue pusha
Ġhuru ma
Ġkuwaa chia
Ġupe ndo
Ġupe ndeleo
Ġmahe nge
Ġmiha le
Ġmadu ka
Ġtea m
Ġungu ja
Ġkomp yuta
Ġbukwi mba
c cm
c ia
n ter
s ya
Ġm domo
Ġwa fanye
Ġku mua
Ġna di
Ġna uli
ba na
Ġu wajibika
hu mu
si ko
ja dala
Ġali jibu
Ġkuwa ta
Ġni po
Ġmi jadala
ngi li
Ġe pa
Ġja pa
pe we
nde r
Ġwame takiwa
nu suru
Ġwalio fika
vi o
Ġita fanya
Ġmka guzi
Ġkufu twa
Ġkufu rahi
Ġkuta ngazwa
Ġtuna jua
chuku e
Ġmaka lla
Ġwanao tumia
Ġiki fanya
va mizi
Ġkute mbelea
Ġri cha
Ġfu jo
Ġchu mvi
Ġusi kili
Ġwale ngwa
Ġardhi ni
Ġaliyo kuwa
Ġvipi ndi
shindi kana
Ġlita kuwa
Ġva n
Ġhami si
Ġoma ri
Ġburu dani
Ġwahi timu
Ġjukwa ani
wakili sha
Ġmtiki siko
Ġaje nda
Ġtegeme o
Ġkihi storia
Ġwapanga ji
Ġuwajibika ji
y ce
Ġku takiwa
Ġku daiwa
ka ne
Ġma t
za ma
Ġu rahisi
Ġu nyanya
Ġi a
ku miwa
tu humu
Ġki kwazo
Ġki nyangga
Ġali pewa
Ġkuwa funga
bu da
shi o
Ġza mu
po rt
Ġb ro
Ġvi tongoji
Ġwana shindwa
mb we
Ġtu weze
Ġmwa ndamizi
Ġti shio
pe r
pe sha
Ġmku mbo
Ġana cho
Ġana endelea
Ġina toa
su rika
Ġkua chiwa
Ġshi buda
Ġo wino
mbi e
Ġwame lazwa
Ġhata ki
Ġkuji amini
nu nua
Ġwalio jitokeza
Ġuna kuwa
Ġuta ona
Ġbe nedi
Ġje la
Ġmsa ko
Ġmsa laba
Ġinayo mkabili
Ġkupo na
Ġkucha guliwa
Ġlililo po
Ġca na
ngene zo
Ġmago meni
Ġuvu mi
Ġkara tasi
Ġkuche lewa
razi li
nji ka
Ġmate ngenezo
Ġkuhoji wa
Ġmvu tano
Ġuto vu
Ġkukimbi lia
Ġsqua d
Ġusikili zwaji
Ġkinyangga nyiro
m ji
r n
Ġm piga
Ġm lima
Ġku rusha
Ġna penda
ni ka
Ġa d
ta mbuliwa
Ġma se
Ġu cho
Ġu elewa
Ġka ba
Ġali mu
pa ganda
sha ngilia
fu ndi
Ġta ta
te nda
Ġba geni
Ġvi ba
Ġwana amini
Ġwana ishi
Ġili elezwa
Ġwali pokuwa
nge zi
Ġtu ko
mbo a
Ġana ongeza
Ġpa baya
Ġpa rt
Ġme ma
Ġkui chezea
Ġkuji kuta
Ġkwe nu
Ġtuna endelea
Ġmgo ngo
Ġuwe po
Ġmfu ngaji
Ġsta ili
Ġpro paganda
fsi ri
Ġkuki uka
Ġmapa nga
Ġvile vile
Ġkilicho tokea
Ġkuha tarisha
Ġupi maji
Ġaliyo itoa
nes s
Ġhami s
Ġjukwa a
Ġkiis lamu
Ġubi nafsi
Ġumwa gilia
Ġmegawa ti
Ġricha rd
Ġumwagilia ji
s ke
y s
Ġwa i
Ġna kala
Ġa n
Ġa cha
Ġi g
Ġki cha
Ġali zi
fu te
Ġkuwa chukulia
Ġkuwa ondoa
shi ndo
Ġni ko
Ġn mb
Ġmi cho
Ġvi po
Ġili takiwa
re ma
Ġli bya
Ġda ud
Ġbi ma
taka bali
Ġana o
Ġmu s
Ġwe ma
Ġkua thiri
nu nu
Ġwalio fanya
Ġkuu ngana
Ġga zetini
Ġkupi gia
Ġp hili
be n
Ġau gusti
Ġume anza
Ġmaka me
de a
Ġkufi cha
ona l
Ġnjia ni
Ġro mji
Ġmabo mba
Ġkawa wa
Ġze nu
Ġcu p
Ġmatu nda
Ġvina saba
Ġwako ngwe
Ġutekele zwaji
Ġsoko ine
juli kani
Ġmago go
Ġkilo meta
Ġiwe je
Ġmasa ngwa
Ġfre e
Ġva le
Ġmacha fu
Ġw hi
Ġoma r
Ġuji o
Ġuyo ga
Ġtara fa
sadi kiwa
a c
e s
f rika
Ġku penda
Ġku vaa
Ġu re
Ġi dhini
pa ti
mu ru
te z
Ġsa ra
Ġsa yi
ngi zi
Ġcha le
Ġili shinda
mo a
che lewa
cho ka
Ġame fariki
Ġkua giza
Ġkua chia
Ġf la
Ġwame kufa
Ġkuji ridhisha
Ġtuna wa
Ġwanao tuhumiwa
Ġkupa chika
Ġmsa firi
Ġsha uri
raka ti
Ġfu ndi
Ġusi ngizi
swa hili
Ġkika pu
Ġro nal
Ġuja mbazi
Ġmaga fu
Ġmar mo
Ġkinacho endelea
Ġkunu suru
Ġmse to
Ġkuwaa cha
Ġupe po
Ġkas sim
fuku zwa
Ġkipe ngele
Ġsho o
Ġkukabidhi wa
Ġkujiki ta
Ġeto ile
Ġandre w
Ġkinye mela
Ġbeni tez
Ġronal do
t ho
u kwa
Ġku haribika
Ġku pumzika
ha mishiwa
Ġna e
Ġna ku
Ġna ona
Ġa ri
Ġya ti
Ġma po
Ġma va
Ġma rufu
ti onal
ki fanya
ki zwa
Ġu lianza
Ġkwa ko
Ġali kaririwa
fa ruku
Ġkuwa ka
Ġkuwa taja
Ġta ba
bu ri
he wa
Ġla w
Ġla mi
ngo ro
ele ze
ngu nga
Ġwali taka
Ġaki taka
Ġaki hutubia
Ġra fa
Ġime wa
Ġwame a
laa ni
Ġiliyo chezwa
Ġkili ndi
Ġkuta mba
amu ru
Ġmtu mishi
Ġmwe kundu
Ġinayo endelea
Ġkute ke
Ġzinazo fanywa
Ġyaliyo fanyika
Ġl wa
Ġufu nguzi
Ġkiba o
ingi lio
Ġwil b
Ġkilo sa
Ġmanu nuzi
Ġmwenza o
Ġmasa lia
lau mu
Ġz fa
Ġkunyo ngwa
ghari mu
Ġmche le
Ġbenedi ct
Ġyati ma
Ġmava zi
Ġ riadha
Ġku wezesha
Ġku ruhusiwa
Ġa ngalia
ri da
Ġu bunifu
Ġi ni
we ni
le le
bi shwa
sa nyiko
Ġkuwa omba
Ġta jiri
Ġza na
te nga
Ġba ti
Ġwana muziki
Ġili fanya
ngu sha
Ġwali fikishwa
Ġe va
Ġja ne
Ġja sho
Ġli lia
je ngea
Ġju a
Ġana dai
Ġina shangaza
gu sa
Ġmu ngi
dhi li
Ġame m
Ġkuo ngea
Ġmaa rifa
mbe ni
lio ndo
Ġiliyo tokea
Ġuna takiwa
Ġte nga
Ġmsi mbazi
Ġkuta fakari
Ġwanao cheza
Ġru hu
Ġsha dra
Ġdo sari
Ġzilizo patikana
Ġhai wezekani
fiki ria
Ġzinazo endelea
Ġdha ifu
Ġzime anza
Ġfi kra
Ġkutu ma
Ġca nna
Ġnde fu
Ġr wa
Ġkuti nga
Ġkuti shia
Ġuju e
Ġmadawa ti
Ġcom muni
Ġpopo te
Ġkunufa ika
Ġnadi r
Ġshadra ck
Ġcanna varo
g ele
i ri
li x
Ġwa ishi
Ġwa chungaji
Ġku zo
Ġku pu
Ġku kwamisha
Ġna mi
Ġa nt
ng wana
Ġs m
Ġma pu
Ġma ry
Ġma pungufu
Ġma tha
Ġu nga
Ġka ri
ku sudi
Ġha rou
Ġali onesha
Ġali ingia
Ġali thibitisha
Ġali liambia
Ġkuwa hoji
Ġkuwa jibika
te ngeneza
Ġmi na
ko sea
pi tia
pi giwa
Ġvi bali
Ġwana dai
Ġili m
Ġili sababisha
fi sha
re ji
Ġmwa ke
Ġmwa nga
Ġd ua
pe ndwa
mbo zi
Ġpa tel
Ġaki changia
su mbua
Ġhao ni
Ġkui ta
Ġshi niki
Ġime sha
Ġwame sha
Ġmaha nga
Ġwalio kamatwa
Ġuna paswa
bo li
Ġwao ndo
Ġmaba ngo
ndu liwa
Ġtuna hitaji
Ġkute mbea
shauri wa
Ġkima endeleo
Ġaka sema
Ġlo liondo
Ġnga wai
Ġkuki ri
Ġkucha mbua
ndaa ji
fungu liwa
Ġwenza ngu
Ġgha la
kata re
Ġkula zwa
Ġuju zi
Ġmago doro
Ġukim ya
Ġkara tu
Ġmahu jaji
Ġmto ni
sikili zwa
Ġkusu ku
Ġwahi sani
fau lu
Ġkoro gwe
Ġtundu ma
Ġig p
Ġmarufu ku
Ġlwa katare
Ġmungi ki
Ġant ho
kusudi wa
Ġshiniki zo
Ġngawai ya
h c
i pata
p re
s so
Ġk ongo
Ġm zito
Ġa ngekuwa
Ġa ngola
ti boli
ji funza
si kika
Ġki ha
Ġki mia
Ġki rahisi
to she
sa ma
mi la
Ġv vu
Ġkuwa o
bu ru
te ngwa
te ngenezwa
Ġvi fungu
Ġvi tendea
Ġili onekana
che ni
che lewe
Ġtu ske
Ġli si
Ġina sema
Ġpo le
Ġwata lii
Ġwaki toa
Ġkuji endesha
Ġkuji tegemea
Ġwalio ndoka
Ġwalio hudhuria
Ġfe ki
Ġho u
Ġhatu jui
Ġmwi to
Ġita saidia
Ġkuhu dumia
Ġaliye wahi
Ġkuka bili
Ġngu ru
Ġkusi tishwa
Ġtume ona
Ġmb razili
Ġre u
nyi ma
Ġyanayo weza
Ġmatu si
Ġcho te
Ġab di
Ġne tiboli
Ġmafu ndi
Ġua nga
Ġhau wezi
Ġmaso ud
kumbu ka
Ġvilivyo po
Ġkuche zea
nufa isha
nufa ika
thibiti shwa
Ġabe id
Ġuza lendo
rri son
Ġruhu sa
Ġkimia ni
Ġtuske r
f ta
Ġ zu
Ġm kia
Ġm dhamini
Ġm lalamikaji
hi le
Ġa z
Ġma to
Ġma mia
Ġma do
ti ve
zi pata
Ġha rrison
hu sishwa
si ti
Ġki we
Ġki ga
Ġki baya
di i
Ġkuwa tia
Ġkuwa ona
ke li
bu ti
Ġba is
Ġba lali
ko be
pi tishwa
Ġb la
Ġvi chwa
Ġwana ne
Ġwana riadha
Ġwali amua
Ġda u
Ġbi dii
Ġina ongoza
Ġpa dri
gu e
Ġpi us
Ġkui ga
Ġkuo a
Ġime pata
Ġmaa ndishi
Ġkuji o
nu surika
Ġwalio na
Ġuna onesha
Ġuta jiri
vi ti
Ġkam pa
nya kua
thi mini
Ġshu kuru
Ġmaba ki
Ġde o
Ġmata no
Ġwenye viti
Ġbu ti
Ġkute kelezwa
Ġata fanya
Ġmta faruku
Ġunao tarajiwa
Ġanaye daiwa
Ġkita nzania
subiri wa
Ġkuele zwa
Ġwil l
singi zio
Ġmage uzi
Ġmasi kio
Ġupo te
Ġfre d
Ġmume we
Ġkusafi sha
Ġazi mio
Ġkuke mea
Ġkiis lam
Ġnjo mbe
Ġuu zaji
Ġvipe ngele
Ġglo ry
Ġmadhu buti
Ġharou b
Ġnguru we
Ġreu ben
Ġbais keli
a ndaa
a shiria
b ongo
d din
i kabili
m k
Ġku shi
Ġku lalamika
Ġma uri
ti ne
Ġu chezaji
Ġi sa
si bu
Ġhi ddin
Ġali piga
pa nia
Ġkuwa ua
Ġmi bovu
Ġb lu
Ġvi kiwa
ele kezwa
fi cha
Ġe nter
Ġtu si
Ġmwa ndo
Ġzi weze
Ġana wa
Ġme no
ge uka
Ġji nsia
Ġc pa
Ġame kiri
Ġkui omba
Ġime zidi
Ġmaa fisa
nde ni
Ġwame dai
Ġpo sta
laa mu
Ġkuji uliza
Ġwalio zungumza
Ġkum pata
so ka
Ġuna ona
Ġje rry
Ġto ny
Ġpe pe
tumi ke
bisha ra
Ġiki fuatiwa
Ġsha ri
Ġkipi mo
Ġkuzi kwa
Ġyo u
Ġwakiwa mo
Ġche nge
Ġmta zamo
Ġkuje ngwa
Ġmbi u
Ġdi ra
Ġkumu ona
Ġkisa ikolojia
Ġmse rbia
Ġuba lozi
Ġwavu vi
Ġsele man
Ġathu mani
Ġpau ni
Ġinter na
Ġkifu pi
Ġkuamini ka
Ġtumba ku
Ġsungu ti
Ġjapa n
Ġpart y
Ġhiddin k
Ġmwando sya
i shia
n ho
r re
Ġm kwaju
Ġwa toe
hi sho
ta mbulika
ba s
ma d
Ġu di
Ġu miliki
Ġka do
Ġha yu
Ġki ki
Ġki taka
Ġki kristo
Ġki shindo
Ġali fikishwa
to fautiana
cha nganya
Ġkuwa ko
Ġza ko
Ġsi ngo
Ġba kwa
Ġsa lamu
Ġwana ndoa
lo ni
wi n
Ġkuto kuwepo
Ġwali daiwa
Ġmo lle
Ġe ac
Ġmwa faka
Ġmwa ngunga
Ġd ro
ro ni
zu ku
Ġana m
Ġaki sisitiza
dhi hirisha
Ġme mbe
Ġc wt
Ġkuo nya
Ġwata fanya
Ġwaki subiri
Ġkum kamata
Ġfe lix
Ġbo ndia
Ġp ha
Ġzina sema
Ġtuna takiwa
mini fu
Ġwanao daiwa
Ġru zuku
Ġkupa nua
Ġmas kini
Ġtume amua
Ġhe ro
Ġnya ra
ibu a
Ġche ka
risha ji
Ġmfa dhili
Ġkumali zia
Ġkilicho fanyika
Ġne no
Ġkha mis
Ġuvu nji
Ġkuingi zwa
Ġliki zo
Ġsulu hisho
saini wa
Ġkaga ruki
Ġmassa ti
Ġmza mbia
Ġantho ny
Ġupote vu
Ġbakwa ta
Ġuvunji fu
c is
l fan
o pia
s te
s co
Ġk he
Ġku shambulia
Ġku kamata
Ġku kwepa
ha mu
Ġa ra
Ġma bu
Ġma fua
za lishwa
ri ck
Ġu kati
Ġu bongo
Ġka vu
ku sanya
hu kumiwa
Ġki gogo
Ġki oo
Ġali kana
Ġali cheza
to fu
mi e
mi ria
Ġkuwa hi
ke lewa
te ua
Ġsi mon
Ġba re
Ġba lama
pi sha
Ġvi sima
Ġvi nywaji
Ġili tokea
no a
ele wi
Ġja nga
Ġja lada
Ġzi pi
dha miria
Ġana kabiliwa
Ġmu shi
Ġt b
Ġame lazwa
Ġkua nguka
Ġkui wezesha
Ġime fanya
Ġime weka
Ġime ongezeka
Ġwame fanya
Ġpo tofu
Ġkuu liza
thi opia
Ġshe he
Ġmsi si
Ġp re
Ġkufu ngiwa
Ġzina takiwa
Ġwo ga
Ġtuna cho
Ġlo ri
Ġalio ndoka
Ġmar tin
Ġkurudi shiwa
Ġkuti mua
Ġhaja wahi
Ġhazi wezi
sima misha
Ġmabe hewa
Ġwau guzi
Ġasi ye
Ġalia hidi
anzi a
Ġwaza wa
Ġfran cis
Ġkizi mbani
Ġismai l
Ġaugusti no
Ġtaba ta
Ġkampa la
Ġbare gu
i ser
r ma
w ji
wa saidia
Ġwa je
Ġku ru
Ġku ripoti
Ġku ridhisha
Ġa ende
ta mka
Ġma fi
la na
Ġu kuta
Ġu bovu
Ġu chimbaji
ku sa
ku mo
si hi
ja li
Ġki baki
Ġki siwani
Ġki jeshi
Ġali ni
fa jiri
me h
Ġn hc
Ġla bo
ne ur
Ġmi fa
Ġsa lo
pi ngwa
Ġvi dogo
Ġili shindwa
Ġili tokana
mo ka
wi dhi
ngu lia
Ġwali ingia
Ġina lenga
Ġmu u
Ġmu sa
su lu
Ġkui mba
Ġshi mo
do le
Ġke l
Ġkum shambulia
Ġkum weleza
bo resha
Ġkufanya kazi
toke ze
Ġkili eleza
Ġde wji
Ġfa raja
Ġpe nzi
Ġuli fanyika
tumi e
Ġchi gu
Ġsu kari
Ġkupa ndisha
Ġwaa che
Ġsha rti
Ġinayo sababisha
Ġri ba
Ġal fajiri
Ġhe bu
Ġmazi wa
Ġmazi to
Ġkuzi ndua
Ġkuki thiri
Ġkuja diliwa
Ġmao vu
Ġmfa widhi
Ġkuha mia
Ġmbo lea
Ġmika nda
Ġed son
Ġkumu du
Ġhau kuwa
Ġkubaini sha
Ġkuwaa mbia
Ġkuhi timu
tri ce
Ġataka po
Ġkuwasili shwa
Ġmahi ndi
Ġnja no
Ġkoro sho
Ġkuke rwa
Ġbea trice
saidi e
Ġisra el
Ġmie mbeni
Ġhia ri
Ġfree man
Ġchale nji
Ġwaishi o
pre neur
preneur ship
g ba
i r
o ngea
s su
u re
Ġ nggombe
Ġm toa
Ġwa ga
ha ribu
ka sa
Ġa se
Ġma kwa
Ġma uli
za r
Ġu wi
Ġu kio
Ġi ran
ku ra
hu o
ja n
Ġki goda
pa swi
Ġkuwa bana
Ġmi su
Ġwana toa
Ġili amua
Ġwali endelea
Ġe thiopia
Ġse rbia
re nce
dha lilisha
Ġina cheza
nia s
Ġhuo huo
Ġaki endelea
Ġame tangaza
Ġime ji
Ġkuji tolea
Ġkum chagua
Ġkazi moto
Ġita fanyika
Ġmka nda
Ġkuli ma
Ġmara dhi
Ġaliye jitambulisha
one a
one kane
Ġg la
Ġyana endelea
Ġsha ban
Ġsha mbulizi
mili vu
Ġri siti
Ġchu mbani
Ġdha mira
Ġyanayo wakabili
Ġlime sema
Ġkuvu ru
Ġca f
badili ka
Ġtanga nyika
Ġwasio kuwa
Ġste phe
Ġwaliyo kuwa
Ġwaliyo nayo
Ġhawaja wahi
Ġkia fya
Ġada m
Ġkuajiri wa
Ġsh wari
Ġhara mbee
Ġmus takabali
Ġmachafu ko
Ġcommuni ty
Ġdro gba
Ġlabo ur
Ġstephe n
a s
l me
n ta
r ro
na zo
na chama
Ġm je
Ġwa zo
Ġku tisha
Ġku zomea
Ġna cho
hi sa
Ġma ya
Ġma kele
ti misha
Ġu bia
Ġka mba
Ġi man
Ġki bo
Ġki shiriki
se s
te ni
po po
Ġn ko
ko soa
pi ndu
Ġb re
Ġili wa
Ġili shuhudia
che a
Ġtu we
Ġmwa lala
Ġmwa nyika
Ġli taka
Ġti mo
ro ho
Ġmu husika
Ġo ld
Ġmaa bara
mbi ji
Ġwame toa
Ġpo ngezi
Ġwata cheza
kama nda
Ġuta a
Ġkupi mwa
Ġita chukua
Ġte mbo
Ġzina tarajiwa
ndu pindu
Ġto sha
Ġtuna yo
Ġwaa jiri
shu tu
Ġinayo tolewa
Ġkipi ndupindu
Ġnya si
Ġmada raja
Ġfi nias
Ġche yo
Ġusha mbulia
Ġusha wishi
Ġuki ukwa
Ġhaya na
funga ji
Ġkesho kutwa
Ġuka me
Ġuka bila
Ġlililo tolewa
Ġmbi nga
Ġca r
Ġufu gaji
lalami kiwa
Ġua nzi
Ġua nachama
Ġkime kuwa
nt re
Ġuko nga
Ġmna da
Ġkha lfan
Ġkume kuwepo
Ġgra y
Ġmsu mbiji
sikiti ka
sua sua
fre d
Ġuso ni
Ġwanam gambo
Ġmgawa nyiko
Ġtri lioni
Ġmapu nda
Ġkitaka cho
Ġushambulia ji
Ġukiukwa ji
b ri
g g
g hara
v ua
Ġm bwa
Ġku dhamini
ha u
ka wa
Ġa mana
Ġa ondo
ba isha
Ġs to
Ġma vu
Ġma thi
Ġu piga
Ġka ya
Ġali lalamika
Ġta f
Ġni co
te ndaji
ko ste
ngi sha
chi e
Ġwana ji
ro ro
je ruhi
Ġmku chika
cho ma
nzi a
Ġpa rk
Ġame i
Ġame anza
Ġkua chwa
Ġkuo gopa
Ġkuji toa
Ġiliyo baki
Ġuna vyo
tia tive
Ġkupi nduka
Ġaliye fariki
Ġto ba
Ġto leo
Ġchi fu
Ġlili tolewa
Ġmgo ngano
Ġngu zo
va miwa
Ġalipo fika
Ġzinazo shiriki
Ġwasi ra
Ġlo i
Ġlo s
Ġkiu tendaji
Ġkupo ra
Ġkutu pa
Ġkutu nga
Ġmbo ma
Ġkupiga na
Ġtuli yo
sti na
Ġuku sanya
ingi zwa
Ġkula u
Ġmifu ko
Ġwaha nga
Ġliki wemo
Ġmja ne
Ġilipo fika
Ġutaka po
Ġhama sa
Ġmsu kumo
nte koste
Ġtete si
Ġbaraka t
Ġunyanya saji
Ġkel vin
baisha ji
Ġmathi as
Ġupiga ji
Ġukusanya ji
a h
c ra
e ti
i me
l sa
m puni
p hia
r g
u pata
wa sa
Ġm shtakiwa
Ġku mba
ha la
Ġna sema
ni dhamu
Ġa de
ri ti
ki mba
Ġu ke
Ġu chelewe
Ġka mu
Ġha fi
Ġhi ndi
Ġki nidhamu
Ġali daiwa
Ġali mwambia
fa i
le nsia
me he
te kelezwa
Ġsi vyo
po lo
Ġmi llya
pi ma
Ġvi ji
Ġvi vu
Ġcha ti
Ġili fungwa
Ġwali pewa
ru iser
re kani
Ġmwa lu
Ġana zo
Ġana eleza
Ġana shangazwa
Ġpa pi
Ġaki ishi
Ġaki soma
Ġaki elezea
dhi a
Ġme ja
Ġt p
Ġmba roni
Ġame dai
Ġkua thirika
Ġo bre
mbi ki
Ġkuji weka
Ġho lela
Ġuna taka
Ġhatu taki
Ġbo nde
Ġkuli zungumzia
Ġso phia
Ġmwe nge
Ġkusa ba
Ġkuka twa
Ġyali fanyika
Ġmaka bila
Ġyana tokana
Ġdu ka
Ġre gi
Ġzinazo wakabili
Ġlo lensia
Ġusha biki
Ġhaya wezi
Ġanaye weza
Ġca mero
dhara u
Ġvye tu
Ġalim taja
Ġmaju mbani
nyo nge
Ġalii fungia
Ġmipa ka
Ġama tus
Ġmasi lingi
Ġviku u
Ġbahari ni
Ġvime kuwa
the r
Ġmwai kimba
Ġkide mokrasia
Ġusafi rishaji
Ġbea ch
Ġkhali fa
Ġber nard
Ġwilb road
Ġwaondo ke
Ġmifa no
Ġchigu mbi
Ġmauli d
Ġcamero on
b y
f ford
Ġku zima
Ġa ng
Ġa ngele
Ġs y
Ġma ua
ti e
ti ka
Ġu one
Ġi shi
we keza
tu re
mba zaji
mba wanga
Ġali chukua
le twa
se mi
Ġkuwa zuia
Ġn ze
Ġmi si
Ġsa idi
pi lia
Ġwana ki
Ġwana kwenda
Ġwana onekana
Ġwana tarajiwa
Ġili i
Ġili ifunga
Ġkuto ku
Ġkuto ko
nza ji
ju kuu
Ġe ph
ga e
Ġtu kiwa
Ġd c
Ġana hitaji
Ġana pokuwa
Ġwaka li
Ġmu kasa
Ġaki tangaza
Ġwi nga
Ġc ruiser
Ġime baki
Ġo ne
Ġwata laamu
Ġwaki pata
so mwa
Ġmka sa
Ġhaku weza
Ġmaka mpuni
Ġsu ed
Ġsu mbawanga
Ġmas wa
Ġiki wezekana
Ġwaa si
Ġalipo kea
Ġwasi we
Ġuhu jumu
Ġuki endelea
enda na
Ġunao endelea
Ġkuvu tia
Ġkuku a
Ġuha sama
Ġcho o
ongoza na
Ġmar k
Ġne ema
Ġkile leni
Ġua limu
Ġua dilifu
ngene zaji
Ġkunu nu
ingi lia
lipu ka
Ġfo rodha
Ġmtaa lamu
Ġtek si
Ġutu nzaji
anzi sha
Ġgu mbo
Ġbuko mbe
Ġutakao fanyika
Ġkugo nga
Ġmusta pha
Ġwasa idizi
Ġuo vu
Ġkusikiti sha
Ġala siri
Ġaz ma
Ġshari f
Ġukati li
Ġase c
Ġmavu no
Ġuchelewe shaji
Ġangele s
Ġnze ga
a cha
d jan
r ko
s pe
u ye
Ġwa toa
Ġwa uaji
Ġwa ngekuwa
Ġwa ngeweza
Ġwa jue
Ġku du
Ġku thamini
ha zi
ha tisha
Ġa ngeweza
Ġya lianza
ta ngulia
ba yo
Ġma ru
Ġma fta
Ġma kamanda
zi nga
Ġu p
Ġi shara
Ġki gi
Ġki roho
Ġali tangaza
Ġali jiunga
da nganya
bi le
cha ri
fu li
se i
Ġni lia
te ka
Ġhu tumika
Ġba ridi
Ġmi domo
nga ra
Ġvi siwa
Ġwana hisa
nge wa
Ġmo uri
Ġe lia
Ġe liza
Ġd rc
mbo ka
Ġana ishi
Ġina onyesha
Ġwi go
Ġwe nu
Ġt hi
Ġame wahi
Ġkui tisha
Ġime fika
Ġo r
Ġo ba
mbi u
Ġwame ji
Ġke nne
Ġwalio shiriki
Ġwalio panda
Ġkum sababishia
vi ta
Ġthe ir
Ġte ni
Ġbe ga
kwa mua
Ġmata raji
Ġuli mboka
Ġmwana ha
Ġmgo nja
nti na
Ġkute uliwa
Ġkauli mbiu
Ġkima penzi
Ġchu oni
Ġsta rehe
Ġkura hi
Ġlu teni
Ġmada rasa
Ġkuja za
lazi mu
Ġkuku mbwa
Ġuga ni
Ġmbo je
Ġkinacho onekana
Ġhazi ja
dhu riwa
Ġmifu mo
Ġabi djan
Ġhakuwa hi
Ġika wa
lim piki
Ġmau zo
Ġimea ndaliwa
Ġinavyo daiwa
kadi riwa
Ġkiko mo
Ġmagu fuli
Ġabou t
kumba tia
Ġuanga lizi
Ġbuti ku
Ġinterna tional
Ġade bayo
Ġpapi c
Ġmouri nho
Ġmataraji o
Ġadebayo r
a zi
c y
e m
e t
i ma
m pu
s tu
y we
Ġ h
Ġm shauri
Ġwa chu
Ġwa shtakiwa
Ġku tibu
Ġku yumba
Ġku tumiwa
Ġna s
Ġna weza
Ġa dai
Ġa fanye
Ġya lio
ng g
zi ba
Ġu ti
Ġi kia
Ġi pp
si ki
si on
tu lia
Ġki ne
Ġali sha
Ġali kosa
Ġali shangaa
Ġali elezea
sha wishi
Ġkuwa piga
Ġkuwa fikisha
Ġta bu
Ġni wa
Ġn na
nda rua
Ġili ibuka
Ġse nti
Ġja z
Ġina kabiliwa
Ġmu ni
Ġc rd
Ġmba tia
Ġko ngwa
Ġmia nya
Ġime bainika
mbi zi
Ġwaki kabiliwa
Ġwalio kuwepo
Ġkuu fanya
Ġkum nadi
Ġmaji ni
Ġbe ngo
be th
tumia ji
sili shwa
Ġso mo
Ġkuta wa
Ġtuna kwenda
Ġhaki na
Ġsu ma
Ġsu ti
Ġsu zy
Ġkupa ka
Ġulio ko
Ġdo mini
Ġkusi ndika
Ġata pata
Ġro se
co u
Ġvita tu
Ġunao fanyika
Ġman yo
ondo lea
Ġtuta endelea
Ġai twa
sti ne
Ġbaba ti
Ġkuko pa
Ġmigo di
Ġasi lia
dd y
nganyi kiwa
Ġtiba i
ris tia
Ġtas limu
Ġbro wn
Ġcana da
Ġwhi te
Ġfla vio
Ġmapo kezi
Ġini tiative
Ġmado la
Ġtb l
Ġuanzi shwaji
ghara mia
Ġobre n
Ġmisi tu
Ġeliza beth
Ġcrd b
Ġ giza
na sa
Ġwa shauri
Ġwa vamizi
Ġku shitakiwa
Ġku suasua
Ġa re
ma lia
Ġma jo
Ġu fahamu
Ġka r
Ġka me
Ġha rusi
Ġha ndeni
hu dumia
Ġki gezo
Ġali husika
Ġali ibuka
le ti
Ġkuwa so
Ġkuwa baini
Ġkuwa kuta
Ġta fsiri
Ġhu na
Ġba ria
Ġmi tu
Ġmi suko
Ġsa nto
nda miza
Ġcha li
Ġwana michezo
Ġili endelea
wi ta
ngu ru
Ġkuto lea
nye kiti
ru ni
Ġmo ses
Ġe u
re tari
ga sira
Ġtu maini
Ġja bu
Ġda nny
Ġina anza
Ġpa ra
su dia
Ġpi nzani
Ġji we
Ġt cra
Ġame ji
Ġame kufa
Ġkui gwa
Ġkui fungia
Ġime fikisha
Ġo dhia
Ġndi ko
mbu ko
Ġwaki mbizi
Ġkuji vunia
Ġwalio nesha
gi zaji
Ġkum hoji
Ġiliyo wasilishwa
Ġita i
Ġshe hia
Ġmasha mbani
Ġuli baini
Ġuli paji
Ġwanao kwenda
Ġchi mbuko
Ġmwana nyama
Ġwaa frika
Ġata hakikisha
Ġnya la
Ġre d
rudi a
Ġkupo tea
Ġuki riti
lazi misha
Ġkuvu njwa
Ġkuvu njika
Ġcu ba
Ġwalimu ua
Ġnina amini
Ġkuha mishiwa
Ġkusima mishwa
Ġkupiga nia
ingi e
Ġmwili ni
Ġvili kuwa
Ġnusu ra
Ġuba vu
Ġkuibu a
Ġisiyo kuwa
horo fa
Ġwanaoji husisha
Ġue nyekiti
tafu tia
Ġrwe gasira
Ġviko mbe
Ġrafa el
Ġkuvuru ga
ime t
rko vic
Ġkenne dy
ngg ye
Ġnna uye
Ġaitwa ye
Ġbaria di
Ġmisuko suko
Ġsanto s
retari eti
Ġodhia mbo
Ġmwananyama la
Ġukiriti mba
e li
o d
t t
u si
Ġm shiriki
Ġwa ma
Ġwa zalishaji
Ġku nyi
Ġku kwama
ya pata
Ġa endelee
ba kia
ng wi
Ġs tu
ti mua
za a
za ulo
ri ne
zi wa
Ġu fadhili
ji uliza
Ġki kazi
Ġki gumu
Ġki swahili
Ġali lo
Ġali kanusha
sa ko
sa mehe
me za
di er
Ġkuwa tambua
Ġta mi
ke mea
Ġni zar
po ra
Ġhu tumia
Ġn sa
Ġb bc
Ġvi pya
Ġwana ccm
Ġili ingia
Ġili chukuliwa
ngo ma
nye sho
Ġwali tumia
Ġmo ndu
ga ra
Ġja ma
Ġana toa
Ġina zidi
lia ni
Ġwi mbi
Ġra y
Ġc ristia
Ġmba o
Ġkua hirishwa
Ġkua muru
Ġime onekana
Ġwame panga
Ġwame fikishwa
Ġkuji tetea
Ġhali wezi
Ġwalio mba
Ġiliyo fuata
Ġbo ti
Ġkupi tishwa
Ġmka zo
Ġmka nganyiko
Ġbe nard
Ġshu kra
Ġmaba ra
Ġkuta mka
Ġuli vyo
Ġsu per
Ġiki toa
Ġwaa ndaaji
mali zia
Ġzilizo salia
Ġusa mbazaji
Ġhe r
Ġkima ra
Ġnya vu
pele kea
Ġkuzi tumia
Ġge zaulo
hari ri
Ġalio nyesha
Ġmabo ndia
Ġkutu lia
Ġkuha misha
Ġdi dier
Ġuhaki ki
Ġkushu ghuli
Ġkime sema
Ġzita tumika
sima mishwa
Ġmke mia
Ġlenye we
Ġkuche ze
Ġkija ni
Ġwapa mbe
Ġimea ndikwa
hama sisha
Ġtra fford
anzi shwa
Ġhaita kuwa
fuatilia ji
Ġmashu leni
Ġmahe ma
Ġkusaini wa
Ġsho ka
Ġalo yce
Ġmtiki la
Ġkulazi mishwa
Ġmr wanda
Ġkusuku ma
Ġara bia
Ġmwalu sako
Ġkurahi sisha
Ġabout rika
Ġmondu li
Ġshukra ni
Ġgezaulo le
a land
e pusha
i tumia
j we
l ta
p we
t s
t te
Ġ x
Ġ gumu
Ġm le
Ġm chu
Ġm do
Ġm pwa
li kwa
Ġwa r
Ġku be
Ġku ende
Ġku shirikisha
Ġku ridhika
Ġku fya
ka ji
hi shi
Ġs port
Ġma chu
ki ria
Ġu v
Ġu lia
Ġka shi
Ġka kobe
Ġi i
Ġi shu
Ġi wezekana
Ġha bi
ji husisha
Ġki ini
Ġki sima
Ġki soka
Ġali kutana
Ġv e
Ġkuwa tumia
Ġkuwa tisha
Ġkuwa fundisha
Ġta thimini
Ġsi ma
Ġla ini
ne zi
ko ko
pi tisha
Ġwana toka
Ġwana subiri
ndi kia
Ġwali kwenda
ru shwa
Ġmo sha
Ġse k
je nge
Ġju mu
Ġana vyo
Ġana ona
Ġana kwenda
Ġana onekana
Ġina eleza
nzi bari
gu nga
gu swa
Ġaki fafanua
Ġme ta
Ġme re
ge nda
pu gi
Ġvya ndarua
Ġmwaka pugi
Ġame lala
Ġame fikishwa
Ġko mbo
Ġkui toa
Ġkui eleza
Ġkui chapa
Ġshi ndano
Ġf fu
Ġime tolewa
Ġime fungwa
Ġime fikia
Ġo n
Ġmaa dui
Ġpo rto
lu mbana
Ġwalio tajwa
Ġkum peleka
Ġbo mba
Ġmsi ba
Ġkuhu sisha
ndu ku
Ġkuna weza
Ġtuna fanya
Ġtuna subiri
Ġwanao takiwa
kiti ko
Ġsu gu
Ġiki tokea
Ġlili fungwa
Ġleo nard
Ġkufi kiria
Ġkute ngua
Ġlina endelea
Ġnya nda
Ġyaliyo ko
Ġyaliyo fikiwa
Ġalio kuwa
Ġze aland
Ġkucha nga
Ġmfa lme
reje sha
Ġlililo tokea
Ġuha miaji
Ġbasi l
Ġmbi oni
Ġnyo ni
Ġkile le
Ġisi we
rt he
Ġaliyo pewa
sima miwa
mokra si
Ġziki endelea
Ġmachi bya
Ġwacha mbuzi
ban wa
Ġwaja ne
Ġmasi kitiko
Ġwapiga kura
ndele a
Ġkukubali ka
Ġwaza lendo
Ġmvu to
Ġmwene zi
Ġmashu huda
Ġmwai popo
Ġraja bu
simu lia
Ġlya ku
Ġue nezi
zui wa
Ġkifa milia
Ġula zima
kimbi lia
Ġsau di
Ġhauja kamilika
Ġpetro li
Ġvan cou
Ġdau di
Ġkishiriki na
Ġutaa lamu
Ġregi nald
Ġwanaki jiji
Ġmafta h
Ġoba ma
Ġnyala ndu
Ġiwezekana vyo
Ġvancou ver
d ness
i si
k wu
m y
m kuta
n sa
q ue
u is
Ġm pu
Ġm dhibiti
Ġwa hu
Ġwa mi
Ġku buni
Ġku goma
ya fanya
ka ra
ka twa
Ġna pe
hi ki
Ġa fa
Ġa dui
Ġya we
ta hidi
Ġma h
Ġma nti
Ġma uti
zi ni
zi nduliwa
Ġu fanyike
Ġkwa kuwa
ku zwa
ku liwa
Ġha rufu
si fu
Ġki ru
Ġki ingereza
Ġali umia
to roka
le keza
sa li
Ġkuwa u
Ġkuwa jengea
Ġni ku
Ġni liwa
zo ni
Ġba laa
Ġsa cco
Ġvi sa
Ġvi ingilio
Ġili bainika
Ġkuto wa
fi si
ga na
go pe
Ġja c
Ġja hazi
Ġina tumia
Ġina elezwa
chu kwu
Ġwaka wa
Ġpa ris
gu o
Ġaki pata
Ġme ya
Ġc lu
Ġshi koko
Ġf ro
Ġime chukua
Ġime tokana
Ġo th
Ġo kwi
Ġwame poteza
Ġwame jiandaa
Ġwata anza
is hu
Ġwalio pata
Ġwalio toa
Ġkum ka
Ġkum tafuta
Ġuna lenga
Ġuta endelea
Ġye su
Ġga bri
Ġkupi kia
Ġkupi ngwa
Ġita tajwa
Ġshu huda
Ġde f
Ġzili sema
Ġso u
Ġaliye m
Ġkusa hau
Ġmaka a
Ġwanao na
Ġg ridi
Ġkupa ndi
Ġlili po
Ġbu rian
Ġsha ba
Ġikiwa mo
Ġkute nga
Ġkute ua
Ġkina weza
Ġute geme
Ġalipo hojiwa
Ġakiwa mo
fiki e
Ġmb wana
Ġyaliyo patikana
Ġlu ha
Ġkuzi ka
Ġzime baki
Ġlo uis
Ġkiu fundi
Ġkipa ji
Ġmbe ga
fsi riwa
tokana yo
Ġmoro cco
Ġanaye ishi
Ġkuvu ta
Ġah mad
Ġkuha mishwa
Ġmale zi
Ġne mbo
Ġkiba rua
Ġmaju ra
Ġuku rasa
Ġhau le
Ġmis s
Ġmna zi
kumbu sha
Ġupe o
Ġkuso mewa
Ġkusha ngilia
Ġutu ruki
Ġkumbu ka
Ġmacha chari
Ġkiji nsia
Ġkie limu
Ġkaga me
Ġaa ah
Ġit c
Ġkusikiti shwa
Ġvipa nde
fana na
Ġkwi ngine
Ġkhe ri
Ġmabu la
Ġsalo me
Ġgla dness
Ġkudu misha
Ġjaz ba
Ġmanti ki
Ġsacco s
Ġclu b
Ġshikoko ti
Ġoth man
Ġgabri el
d ge
m shikilia
r ya
t hu
Ġ nd
wa wezesha
Ġm m
Ġm husika
Ġwa y
Ġwa daiwa
Ġwa nyonge
Ġku shauri
Ġku zaliwa
Ġku nggoa
Ġku zuka
ka vu
ka milisha
Ġa bu
Ġa pate
ma r
ma ria
ti b
ri thi
Ġu endelee
Ġu rusi
Ġu wakilishi
Ġi fanye
Ġi gunga
tu mwa
Ġki sasi
Ġali pa
Ġali vi
Ġali weza
Ġali shauri
Ġali zungumzia
Ġali weka
Ġali zaliwa
to shi
le mbo
me n
Ġkuwa tumikia
Ġta mbwe
Ġsi oni
Ġla ki
Ġba rthe
Ġsa hara
Ġvi nne
Ġcha ngu
Ġcha chu
Ġwana cheza
Ġwana stahili
Ġili kwenda
Ġili toka
Ġili lazimika
ele wana
Ġkuto roka
Ġe ver
Ġe rne
Ġe meh
je o
Ġina pata
Ġwaka e
Ġwe rema
Ġame iambia
Ġame itaka
Ġko mba
Ġkui noa
Ġkuo ko
Ġshi ri
Ġime fanikiwa
Ġime panga
Ġime tangaza
Ġwame fanikiwa
Ġwame iomba
Ġpo nda
Ġpo rt
Ġwata hakikisha
Ġmko ndo
Ġwaki daiwa
Ġwaki ishi
nu o
Ġwalio lazwa
Ġkum fikisha
Ġho boko
Ġbo ys
Ġita cheza
jia ndikisha
Ġkuhu sishwa
Ġupa nuzi
Ġde be
Ġume onesha
Ġtuna ona
Ġtuna paswa
Ġkuka tisha
Ġwanao dai
Ġwanao toka
Ġg y
Ġg re
Ġiki ongozwa
Ġwaa nze
Ġwaa minifu
Ġlina hitaji
she he
Ġnya yo
Ġre g
Ġsta hili
Ġaliwa eleza
piga na
Ġmali gha
Ġsaa d
Ġpro mo
ca l
fe reji
fua te
Ġco mpa
Ġfi mbo
Ġmaja ngili
fungu lia
Ġkuvu ka
Ġlililo wekwa
Ġnye ti
Ġkinacho fanyika
Ġua nze
Ġsafari ni
Ġsoko ni
Ġngo me
Ġkisa yansi
Ġkha n
Ġkha tib
Ġuba baishaji
Ġmag hala
Ġwasio julikana
Ġpri nce
Ġmha ndo
Ġkumwa chia
koa ji
Ġsele mani
Ġyasiyo kuwa
Ġwalizo panda
pumzi ke
hakiki she
Ġkuba hatisha
cheze sha
Ġkuza ma
Ġuji nga
Ġlya mu
Ġkubadilisha na
Ġmzi nga
Ġsija wahi
Ġtumbo ni
Ġpla ye
Ġkulazi misha
Ġban ka
Ġmchanga nuo
Ġlaw rence
shutu mu
Ġkumba ka
Ġuone vu
Ġmanyo ni
Ġkunyi mwa
Ġcristia no
Ġutegeme zi
Ġbarthe z
Ġmaligha fi
a mbatana
d ho
e limisha
i pa
l fu
u nge
u ngwa
li kana
Ġwa dai
Ġwa ende
Ġku nyesha
Ġku zua
Ġku tumikia
Ġku lumbana
Ġna shangaa
Ġa taji
Ġs c
Ġma ti
ki thiri
Ġu dini
Ġi pi
Ġi bara
Ġi endelee
Ġi toe
Ġhi za
Ġki vita
Ġali li
Ġali kubali
Ġali fanikiwa
sa wazisha
ye rn
Ġkuwa linda
Ġkuwa nyima
Ġta ji
ke la
te ke
Ġsi gara
Ġhu lazimika
Ġba yern
nda e
nga pi
Ġwana pokuwa
Ġwana lazimika
Ġili kuja
no lewa
Ġkuto fanya
Ġkuto weka
Ġwali kuta
Ġja pokuwa
Ġli we
Ġina shindwa
ua r
Ġaki cheza
Ġaki hojiwa
Ġme ru
Ġra mani
Ġame pewa
Ġame kaa
Ġkua dhi
Ġko ntena
Ġkui tumia
Ġkuo rodhesha
Ġkuo ngezwa
Ġime m
Ġime panda
Ġime lenga
ria no
Ġwame kubaliana
Ġwata za
Ġwaki m
Ġkuji imarisha
Ġkum tia
Ġkum kuta
Ġkum fanyia
Ġuta mwa
Ġita kutana
Ġhadi thi
Ġp t
Ġp hi
Ġzina hitajika
Ġfa us
Ġkuta thmini
Ġume tokana
Ġmpa nda
Ġkupa ngiwa
Ġmae lfu
Ġhe wani
Ġhos teli
Ġyaliyo kusudiwa
Ġche ti
Ġmaja ni
Ġnga pi
Ġuka ta
Ġnye nzo
Ġmar ley
Ġtuta wa
Ġhazi ku
Ġngo no
Ġkumu o
Ġuko mbozi
Ġura ni
Ġkuko pesha
ndele zo
Ġste lla
rl s
Ġmize ngwe
Ġpembe jeo
Ġkucho ma
Ġmabi nti
Ġami ri
wakili shwa
Ġvicto r
Ġubi shi
Ġmassa we
Ġkujiki nga
Ġkando ro
Ġuchafu zi
Ġviki wemo
Ġkuchi mba
Ġucho vu
Ġvale nti
Ġmauri ce
Ġhero es
Ġtaf rani
Ġkusaba bishwa
Ġdomini ck
Ġkushughuli kiwa
Ġmere meta
d c
i g
i mba
l f
o mbwa
u pe
u mwa
u nt
Ġ ele
Ġm pe
Ġwa mo
Ġku endeshwa
Ġku heshimu
Ġna fsi
Ġya tokanayo
ma sisha
Ġma k
Ġma me
Ġma ye
ti biwa
ki ta
Ġu pu
Ġu sulu
Ġka dha
Ġi d
Ġi tumike
ku lia
Ġhi ti
Ġhi la
mba le
Ġali kuwepo
Ġali rejea
fa li
da d
da li
bi n
sa mbu
se ba
Ġkuwa weka
Ġkuwa pongeza
Ġta baka
he sabu
Ġba da
Ġsa di
ngi za
Ġcha cha
Ġwana tuhumiwa
Ġili fanikiwa
Ġkuto kubali
nge penda
Ġe wu
Ġtu lio
Ġja mbazi
Ġli liwa
Ġli ssu
Ġbi b
cho shwa
Ġana tuhumiwa
nzi shwa
Ġpa ro
Ġpa mpu
Ġmu ga
Ġaki toka
Ġme dali
Ġra dio
Ġji cho
Ġt pa
Ġame weza
Ġame thibitisha
Ġame vaa
Ġko ngwe
Ġkui sha
Ġkui shauri
Ġkui sababishia
Ġime daiwa
Ġime tenga
Ġo ly
Ġwata lazimika
Ġwata mbue
Ġndi mbo
Ġwaki piga
Ġkuji hakikishia
nu si
nja ri
Ġkum zuia
Ġhatu ta
Ġuta fanyika
Ġuta saidia
Ġmwi shehe
Ġthe y
Ġte ndwa
Ġshe l
Ġmara tho
Ġmsi kiti
Ġp ua
kwa mbia
Ġshu tuma
Ġkufu nguliwa
Ġkufu kuzwa
Ġso malia
Ġaliye pata
Ġaliye tajwa
one y
Ġtuna o
Ġmata peli
Ġuli sema
Ġkuka rabati
Ġg horofa
Ġyana kuwa
Ġyana kwenda
Ġinayo fanywa
Ġinayo fuata
Ġkina ra
Ġal geria
Ġzilizo jitokeza
Ġzilizo wekwa
Ġlina shughulikiwa
Ġkima a
ende r
Ġchu pa
Ġsta di
sta n
Ġzinazo weza
Ġlu ga
Ġro oney
Ġco ca
Ġkucha fua
Ġlililo fanyika
Ġnde sambu
Ġmbo zi
Ġdi risha
Ġdi hile
Ġmga hawa
Ġmako nde
Ġmicha che
Ġaliyo nayo
ingi zia
Ġmke nya
Ġkue pu
Ġura ia
Ġamewa ambia
Ġitakayo anza
Ġkuko mesha
Ġuba dhiri
zoe a
Ġupo raji
Ġkusha wishi
Ġkusha mbuliwa
Ġkuche lewe
Ġrashi di
Ġalia ndika
Ġvilla rre
Ġviu mbe
Ġfer dina
Ġkucho chea
sikiti sha
Ġalivyo kuwa
Ġwalivyo kuwa
Ġmanya nya
Ġkide mokrasi
Ġalizo kuwa
Ġkukimbi zwa
Ġsh taka
Ġkivu tio
Ġsale h
elewe ke
rai m
Ġkana li
Ġnoti si
Ġkumua cha
Ġphili p
Ġfundi sho
Ġkuteke teza
Ġkuzo mewa
Ġdeo g
Ġhayu po
Ġkuwako mboa
Ġwaga nga
Ġlitaka lo
Ġvivu tio
Ġeph raim
Ġmpwa pwa
Ġsek retarieti
ishu kuru
Ġdef ender
Ġever ton
Ġshiri ma
masisha ji
Ġusulu hishi
Ġewu ra
Ġndesambu ro
Ġubadhiri fu
Ġvillarre al
Ġferdina nd
b rou
e ni
i nua
m tafuta
r dea
u x
u lu
Ġ guu
Ġm jukuu
Ġwa chi
Ġwa lalamikaji
Ġku mui
Ġku laani
Ġku nyakua
Ġna gu
hi timu
hi timisha
Ġa g
ta mani
ng y
Ġs s
Ġma nde
Ġma fia
ti we
Ġka no
Ġka pu
hu kumu
si ta
we r
ja bu
ja diliwa
ra y
Ġki ho
Ġki mila
Ġali paswa
Ġali tamba
Ġali sikika
to lewe
bi za
bi kwa
cha pishwa
pa a
mi r
Ġkuwa ondolea
Ġta nzani
Ġn bc
Ġla mpa
Ġmi ra
Ġwana sheria
lo vu
Ġwali kubaliana
ga ni
ga ndo
Ġda vis
ro ngoro
dha ri
Ġina ongozwa
Ġina sikitisha
Ġpa z
gu bikwa
Ġaki thibitisha
Ġaki zindua
ndo o
Ġame ibuka
Ġkua ndaliwa
Ġkua ndikishwa
vu tia
Ġime onesha
Ġime pangwa
Ġmaa jabu
Ġwame fikia
Ġwame onyesha
do m
do ndo
Ġwata toa
Ġmko ba
Ġmaha ra
Ġwaki dhani
Ġkuji li
Ġkuji fanya
Ġkuji kwamua
Ġke ko
Ġhali kuwa
Ġkuu gua
Ġkum ruhusu
Ġkum lipa
Ġuna tarajia
Ġkila ini
Ġmwi na
wo mba
Ġbo rdea
thi riwa
Ġte nda
toke e
Ġmara nda
Ġsita ki
du du
Ġume sababisha
Ġuli vyokuwa
de r
Ġmwana ngu
Ġiki bidi
Ġbu gando
kuta ne
Ġwaa rabu
Ġkufi kiwa
Ġinayo ongozwa
Ġzilizo ko
Ġata kwenda
Ġmfu ngwa
she wa
Ġwafanya bishara
Ġfu pi
Ġchu nya
Ġzinazo takiwa
Ġaka amua
Ġyo hana
Ġge r
fua tia
Ġco le
Ġche nga
Ġmre mbo
Ġyanayo tolewa
Ġvita nda
Ġze e
Ġnili vyo
maa nisha
Ġmapi go
Ġmar sei
wapo ngeza
Ġkurudi a
Ġgha fi
Ġjohn son
Ġkinacho daiwa
Ġai ngi
Ġzita tolewa
Ġzita chukuliwa
Ġngo rongoro
dhu ru
Ġkubaini ka
Ġura simu
Ġmifu pa
Ġkubadili shwa
Ġmse mwa
Ġwaja nja
Ġkiti ta
Ġarse ne
Ġkuso mesha
Ġhaija wahi
Ġmate i
Ġmate so
Ġchri s
Ġkide dea
Ġmli mani
Ġamea cha
Ġkuzidi wa
Ġninacho taka
Ġkuwasha wishi
Ġkifa hari
Ġmeza ni
safi risha
Ġswe den
rati us
Ġmagogo ni
Ġsm g
Ġkukabili wa
Ġkujio rodhesha
lsa fa
Ġelia s
Ġmwanaha rakati
Ġkuwaso mesha
Ġeu ro
Ġsima nzi
Ġkiru mba
Ġway ne
Ġdeog ratius
Ġwachi na
Ġlampa rd
Ġbordea ux
Ġmarsei lle
a ndikwa
j ja
l ya
l ka
n ha
n ham
o s
p ua
t ra
u mana
Ġm zo
Ġm kwe
Ġm dau
Ġwa penda
Ġwa nunuzi
Ġku hakiki
Ġku shangazwa
Ġku lalamikia
Ġku zunguka
Ġku ruka
ha li
ka we
Ġna zi
Ġa isha
Ġs wai
Ġma fa
zi kwa
Ġu liwa
Ġu fuatiliaji
ku mbana
ji vunia
tu kana
Ġhi p
Ġki kiwa
Ġki lwa
Ġali u
Ġali kuja
Ġali zidi
di c
di liana
Ġkuwa cha
Ġkuwa pata
Ġkuwa shirikisha
Ġkuwa fukuza
Ġta iri
Ġza ma
he mba
Ġba bu
Ġba lele
Ġmi che
Ġmi sima
Ġmi liki
Ġmi dd
Ġmi simu
Ġsa i
pi ngana
ngi lio
nga zia
Ġamba e
Ġcha mpi
Ġwana chi
Ġili cheza
fi wa
Ġwali i
ru shi
Ġmo rali
re we
re kebisha
Ġtu one
Ġtu fanye
Ġja y
Ġzi lianza
Ġzi chukuliwe
Ġd hara
Ġmku sanyiko
cho che
Ġana fahamu
Ġana sumbuliwa
Ġina sababisha
Ġina changia
Ġina tegemea
chu a
nzi sha
Ġpa zi
Ġmu undo
Ġmu taki
Ġaki onesha
Ġwi vu
ge a
Ġpi go
Ġame sha
Ġame omba
Ġkua hirisha
Ġko ua
Ġko rti
vu njwa
Ġkui weka
yu sa
yu lu
Ġime baini
Ġime jipanga
Ġime wataka
Ġwake nya
Ġwame pewa
Ġwame kuja
zungum zwa
Ġwaki jaribu
Ġke mika
Ġhali ta
Ġhali ja
Ġwalio pewa
Ġkum chukua
Ġho p
Ġuna m
Ġhatu ja
Ġmwi lima
Ġmka ta
jia ndae
Ġupa nga
Ġkili nda
Ġzili po
Ġfa ri
Ġfa tuma
Ġfa ulo
Ġkuta wala
Ġkuta zama
Ġaliye uawa
Ġto tte
Ġmashi na
Ġtuna sema
Ġchi kawe
Ġkupa ngwa
Ġbu nda
Ġbu lembo
Ġwaa dilifu
Ġkufi lisi
Ġdo ria
Ġinayo shika
Ġkute ka
Ġzilizo wasilishwa
Ġute ngenezaji
Ġlina tokana
Ġre ja
Ġchu ma
Ġmcha nganyiko
Ġlu shoto
ca st
Ġkupo tosha
Ġkutu pwa
Ġlime tokea
Ġlime kuja
Ġkuku mba
Ġkuku mbu
Ġkita mbulisho
Ġab bas
Ġr wi
Ġne ver
Ġvu njo
Ġkuti i
Ġtuli po
ngene zea
Ġed win
Ġzita saidia
nyo roro
Ġfo leni
wasi liana
Ġmwak yusa
Ġste ve
Ġmigo mo
Ġkuso mwa
Ġkira ia
Ġnita kuwa
Ġva zi
Ġilipo kuja
Ġaliya taja
Ġwaza nzibari
Ġkusafi ria
Ġoma ry
Ġudha lilisha
Ġud ongo
Ġkuhifadhi wa
Ġmashe khe
tafu twa
shtu ka
Ġflo rian
Ġbri dge
Ġwanaha rakati
Ġfungu o
Ġmake ngeza
dina li
Ġia nze
nunu liwa
Ġure no
Ġaondo ke
Ġuke rewe
Ġwachu nguzi
Ġkar dinali
Ġstu dio
Ġerne st
Ġcompa ny
Ġwataza maji
Ġid di
os ki
Ġmafa o
Ġmisima mo
Ġdhara u
Ġkemika li
Ġtotte nham
Ġudhalilisha ji
a ini
e h
i chezea
o fisha
p s
p ri
p ho
s mas
u ku
na nce
Ġm somaji
Ġwa re
Ġwa zungu
Ġwa ume
Ġwa chukuliwe
Ġku bisha
Ġku hesabu
ni ca
ng s
ma ndoo
ti miza
Ġu zuri
Ġu boresha
Ġi fu
ku nde
hu sia
Ġki be
Ġki nyama
Ġki lianza
Ġki hemba
Ġali kufa
to i
sha ni
mi ti
ke e
Ġn cc
Ġla ko
Ġmi nzi
Ġmi pya
Ġmi ondo
Ġmi kwaju
Ġsa poti
nda wazi
Ġvi boko
Ġcha ko
Ġili paswa
Ġili pokuwa
Ġwali weza
Ġwali toka
Ġwali panda
nge rs
Ġmo de
Ġmo nica
Ġe kari
re y
re mia
re sho
ga ma
Ġmwa liko
Ġja co
Ġli ve
Ġti mes
Ġana shindwa
Ġina dai
Ġina yote
ze se
yi mo
Ġpa saka
Ġmu si
Ġaki eleza
Ġaki kabiliwa
Ġaki tolea
Ġaki hitimisha
Ġwe nzi
Ġra bia
Ġra ngers
Ġame sikitishwa
Ġkua ndikwa
Ġko o
Ġkui vaa
Ġkuo lewa
Ġmia mba
Ġime sababisha
Ġime pungua
Ġwame omba
Ġwame kamatwa
Ġpo chi
Ġwata shiriki
Ġwaki changia
nu kuliwa
Ġhali ma
Ġwalio nyesha
Ġwalio athirika
Ġkum chi
Ġkum kata
Ġkum jeruhi
Ġiliyo fanya
Ġiliyo wekwa
so mea
Ġuna fanyika
Ġwao ne
Ġita ingia
Ġmaba no
Ġzina fanya
Ġzina dai
Ġde n
Ġfa lsafa
Ġso te
Ġje remia
Ġume sema
Ġaliye omba
Ġmwe ndelezo
Ġtuna tegemea
Ġhawa ko
Ġmpa ngilio
Ġchi ngy
Ġmwana e
Ġhapa kuwa
Ġbu ku
Ġyana onesha
Ġsha uku
mali ze
Ġmare fu
Ġinayo toa
Ġinayo husu
Ġzilizo endelea
Ġhai po
Ġas ton
Ġnya rugu
Ġnya gawa
Ġnya mbui
Ġyaliyo tokana
Ġyaliyo fanywa
Ġlu is
kuba liwa
Ġyo ndani
Ġwale zi
Ġuki wemo
Ġhaya kuwa
Ġyanayo jitokeza
Ġmabo resho
Ġman zese
Ġl yimo
fari ji
Ġkuele keza
Ġmako ngoro
Ġmako mandoo
Ġua ndishi
Ġgo fu
Ġkisha pu
Ġkumu unga
Ġtha t
Ġkha rto
Ġyata fanyika
Ġitakayo chezwa
Ġuba be
Ġmanu el
Ġmwenza ko
Ġwaha lifu
Ġmoyo ni
Ġwavu lana
Ġvilivyo kuwa
Ġmha gama
Ġkumwa cha
pte ni
Ġyaki endelea
bwe ni
Ġkitaa luma
Ġmaafa nde
the w
the rine
Ġmiku sanyiko
Ġkugo ngwa
Ġpu gu
Ġinapo tokea
Ġnawa omba
Ġkuhifadhi a
Ġsham te
Ġaa nze
Ġtegeme zi
Ġaliona o
Ġkusafiri shwa
Ġpla sti
mari shwa
Ġflo ra
Ġviko ngwe
Ġms ongo
Ġwaji tokeze
Ġkari m
Ġlisi lo
Ġblu e
Ġshehe na
Ġteni si
Ġjac ko
dho ofisha
Ġmaratho n
Ġguu s
Ġmzo zo
Ġware mbo
Ġuboresha ji
husia ni
Ġminzi ro
Ġnyarugu su
Ġkharto um
e ne
l ham
n ke
n zu
s y
u t
Ġ ngwe
wa husu
Ġm ki
Ġm cho
Ġm nyika
Ġwa m
Ġwa heshimiwa
Ġku tia
Ġku tiwa
ha ji
ha mishwa
Ġna ftari
Ġa tu
Ġa taanza
ta pa
ta fsiriwa
ma ma
Ġma bunge
ki bu
la h
la za
zi toa
Ġu kama
Ġu is
Ġu fungaji
Ġka lu
Ġka rne
Ġkwa saba
tu pilia
ja j
ja la
ra mba
Ġki fisadi
Ġki singizio
Ġali sababisha
Ġali kaa
Ġali uliza
Ġali uawa
Ġali kutwa
fu ngiwa
se ka
Ġkuwa sikiliza
Ġni lio
Ġla ma
Ġba nda
Ġba jaj
Ġmi o
Ġsa njari
nga ika
Ġvi singizio
Ġwana lipwa
Ġwana tafuta
Ġwana shikiliwa
mo ni
ele weka
ele keo
Ġkuto tajwa
Ġwali kuja
ru buni
nge rema
Ġe ntre
Ġse ngerema
re sa
re kta
Ġtu taka
Ġtu pu
Ġtu liona
Ġmwa mko
Ġmwa seba
go nga
Ġzi we
Ġli be
zu ni
je li
Ġbi d
cho fanya
Ġana tumia
Ġana shikiliwa
Ġina kwenda
Ġwaka guzi
Ġpa na
Ġaki daiwa
Ġaki jaribu
Ġame onyesha
Ġame mtaka
Ġkua nika
Ġko zi
vu ta
Ġkuo gele
Ġime shinda
Ġwame weka
Ġwaki tokea
Ġwaki onesha
Ġwaki shirikiana
Ġkuji endeleza
Ġkuji onea
Ġkuu li
Ġkum ta
Ġkum tambua
Ġkum patia
Ġle a
so mewa
bo n
Ġuta ifa
Ġuta kuta
Ġye men
Ġwazi ma
Ġbo nny
Ġkupi giwa
Ġte rry
Ġkuli fanyia
Ġmwenye ji
Ġkufu fua
Ġzili vyo
Ġje uri
Ġaliye ko
Ġtuna shangaa
Ġmaka buri
Ġucha che
Ġucha mbuzi
Ġwanao pinga
Ġhaki wezi
Ġsu mari
Ġmsa sani
kuta nisha
Ġwaa sisi
Ġkina na
Ġusa wa
fiki shwe
ce nt
Ġfu lham
Ġsta hiki
Ġaliwa pongeza
Ġmcha fu
Ġlo te
Ġche o
Ġuki zingatia
Ġyanayo husiana
Ġkuki fanya
Ġmapa cha
Ġunao takiwa
Ġuha masishaji
Ġvina weza
Ġnime amua
badili ke
Ġkurudi shwa
Ġtuta fanya
Ġin spe
Ġua ndikishwa
Ġzita endelea
Ġalii eleza
Ġkuko di
Ġlinalo wezekana
Ġmai ge
Ġwaha miaji
Ġwaha dhiri
Ġkiti mu
les brou
Ġasi ngeweza
Ġwavu milivu
Ġhawaku weza
ll s
Ġkite to
ngga ngga
Ġkucho mwa
Ġw p
Ġkitaa lam
Ġmra kibu
Ġmahe sabu
Ġkiji chi
Ġkusajili wa
Ġnew cast
shughuli sha
Ġkuza a
Ġwashi ndwe
Ġmashe ikh
Ġisra eli
Ġmgawa nyo
Ġamo ur
Ġmat rekta
Ġad riano
Ġkupu uza
Ġkuwao mbea
Ġhou se
Ġwaliona o
mk hana
Ġmolle l
Ġpha res
Ġuwi ndaji
Ġmkanda rasi
Ġtimo th
Ġcar lo
Ġkamu kara
Ġnas soro
Ġkine mela
Ġpara limpiki
Ġkufya tua
Ġuv ccm
Ġjumu ia
Ġfro m
Ġgy mkhana
Ġfaus tine
Ġmuga be
Ġshel lukindo
Ġmidd lesbrou
Ġchampi on
Ġkoua dio
Ġfari jala
Ġncc r
Ġukama taji
Ġkwasaba bu
Ġentre preneurship
Ġkuogele a
Ġinspe kta
Ġuandikishwa ji
Ġnewcast le
Ġmiddlesbrou gh
g he
l ton
n wa
o gopa
r pora
u fanya
Ġk ya
li ne
Ġwa staafu
Ġku ju
Ġna saha
Ġa ga
Ġa damu
Ġa ngani
Ġa toe
Ġa nto
ta hadharisha
Ġma m
Ġma tendo
Ġma thew
ti li
ki na
ki ma
Ġu baya
Ġu vamizi
ku sudia
Ġha pendi
ji wekea
hu na
ra himu
mba a
Ġali jua
Ġali rudi
Ġali ongoza
Ġali sikia
Ġali jeruhiwa
Ġali lokuwa
to nyama
le ba
Ġkuwa ita
Ġkuwa shughulikia
Ġkuwa letea
Ġni seme
Ġni liona
po na
po tokea
Ġhu a
Ġhu mu
Ġhu sababisha
Ġhu zuni
Ġmi lima
Ġsa buni
Ġsa ngara
pi shaji
nda ma
nga li
Ġvi si
Ġvi tano
Ġili o
Ġili fika
Ġili tangaza
Ġili husisha
Ġili undwa
Ġkuto taka
Ġwali shiriki
Ġwali kiri
Ġwali jitokeza
Ġwali kataa
Ġwali kutwa
Ġwali pwe
Ġmo mba
Ġse bu
Ġtu ni
Ġtu taa
Ġtu subiri
Ġmwa n
Ġti go
ro moka
Ġbi n
Ġju ven
pe wi
Ġana stahili
Ġina shika
Ġina endeshwa
Ġina hitajika
Ġmu ndu
Ġmu leba
Ġaki enda
Ġaki endesha
Ġaki kabidhi
Ġaki unganisha
Ġwe zi
Ġme pesi
Ġme ssi
ge ntina
Ġt bc
Ġame weka
Ġame ahidi
Ġkui o
Ġkui ona
Ġf m
Ġime ingia
Ġime fahamika
Ġo fa
Ġwame cheza
Ġwata tumia
Ġwata fiti
Ġwaki ja
Ġkuji nufaisha
Ġkuji epusha
Ġwalio a
Ġkum toa
Ġkum shauri
Ġkum fukuza
Ġho l
tia n
Ġuta ndawazi
vi lla
fanyi we
Ġzina onyesha
ndu gu
Ġje ma
Ġaliye zaliwa
Ġpe ndekezo
Ġtuna tarajia
Ġkusa li
Ġhawa ridhi
Ġhawa pendi
Ġuli tokea
Ġkuka ri
Ġkuka idi
Ġyali fungwa
de e
Ġwanao wa
Ġiki cheza
Ġiki shindwa
Ġiki shinda
Ġbu gu
Ġulio jitokeza
Ġulio pangwa
Ġsha bani
Ġkute nganisha
Ġri o
Ġjo la
Ġjo yce
Ġhai taki
Ġhai julikani
Ġata toa
Ġata ondoka
kili sha
Ġhe kima
she a
nyi a
Ġzinazo mkabili
Ġlu go
Ġlu de
Ġaka anza
Ġzime eleza
mwa chia
Ġkika tili
Ġro rya
Ġco rpora
Ġar gentina
Ġhaya ja
Ġyanayo fanywa
Ġyu pi
Ġvita ni
Ġuja zo
mbana ji
enda yo
Ġkucha nganyikiwa
Ġkuvu ja
Ġitakuwa je
Ġnime wa
Ġnyo mbi
gua no
Ġmaju kwa
nyo nga
Ġkubo moa
Ġkim chezo
Ġapri l
Ġamewa omba
Ġmtaa lam
Ġbar rick
Ġkumwa ga
Ġhaija fanya
Ġmfuko ni
Ġwapa mbanaji
Ġtege ta
Ġviwa ndani
Ġib rahimu
Ġfer na
ruhu si
Ġdeni s
Ġgi rls
Ġkureje shwa
Ġmvu ngi
Ġkia sia
Ġmso ndo
Ġkure kodi
Ġkide te
Ġkiji tonyama
Ġwanacho taka
Ġnjo vu
Ġkumwo na
Ġwalicho dai
Ġuto fauti
Ġwalia chiwa
Ġtaka taka
Ġwashi rika
Ġanna n
zui zi
dhini shwa
Ġtua ngalie
Ġkale nge
Ġamo s
Ġia ngalie
Ġvale n
Ġsara tani
toshe leza
Ġmafundi sho
Ġzu be
Ġmsisi tizo
kusa nyia
Ġloi ti
Ġkulau mu
Ġhafi fu
Ġkutoko meza
Ġmajo nzi
Ġmle mavu
Ġss p
Ġpaz zy
choche o
Ġnever land
Ġkumchi nja
Ġjuven tus
d l
f t
f rida
i c
k na
k sa
u ma
u ld
Ġ chukua
na ji
Ġm ru
Ġm nya
li pi
li ngani
Ġwa sema
Ġwa chimbaji
Ġwa hariri
Ġku da
Ġku shikilia
Ġku shikiliwa
Ġku vamiwa
ha ha
Ġna vyo
Ġna ture
Ġa cheni
Ġya wezekana
ta ge
ba i
Ġs ca
ma mu
ma rk
zi taka
Ġu thamini
Ġka fu
Ġka nga
Ġi u
Ġi zu
Ġi fike
Ġha shi
Ġha fahamu
ji ro
hu siki
Ġki za
Ġki weze
Ġki mea
Ġki dole
to liki
cha fua
cha mbua
pa nge
pa resheni
mi nia
mu unga
Ġkuwa za
Ġkuwa toa
Ġkuwa saka
Ġkuwa ziba
Ġkuwa nasa
Ġkuwa inua
Ġsi kuwa
Ġsi man
po ri
Ġhu ria
Ġhu fanyika
Ġn enda
Ġla za
ne th
Ġmi mo
Ġsa ka
Ġsa jini
Ġsa vio
ko twa
Ġb lo
Ġvi dole
chi we
Ġili dai
Ġili baini
Ġili ongeza
ele ka
ju ka
Ġwali funga
Ġwali husika
Ġwali mtaka
nge ni
Ġmo r
Ġe ast
Ġse m
Ġja mai
pe nha
mbo le
Ġana sisitiza
chu ana
Ġmu ongo
Ġaki pokea
Ġaki fuatiwa
Ġwatu livu
Ġwatu mie
Ġt wi
Ġame eleza
sh wi
Ġko ta
Ġko fia
vu njika
Ġkui ti
Ġkui kosoa
Ġime pokea
Ġime shuka
Ġo ic
Ġo paresheni
Ġwame kaa
Ġwame choshwa
Ġsaba saba
Ġpo li
Ġwata wa
Ġwata lipa
Ġwata lipwa
mbu kia
Ġwaki cheza
Ġwaki pinga
Ġwaki jiandaa
Ġwaki shinikiza
Ġkuji ingiza
Ġhali ku
Ġwalio m
Ġwalio wahi
Ġwalio chaguliwa
Ġkuu ngwa
gi le
Ġkum tetea
Ġkum choma
Ġes ther
Ġho tel
so ta
Ġuna fanywa
Ġmwi ru
Ġmwi mbaji
nya go
Ġbo b
Ġbo ig
Ġita shinda
Ġita kua
Ġita leta
Ġnyi e
Ġsiku kuu
jia mini
Ġshu jaa
Ġzina vyo
Ġwo uld
Ġzili tolewa
Ġso nga
Ġume kuja
Ġume fikia
Ġaliye taka
Ġaliye zungumza
Ġhaku fanya
Ġhaku ona
Ġhawa pati
Ġuli dai
Ġuli fikiwa
Ġg wa
Ġru ksa
Ġkuwe kewa
Ġinayo shiriki
Ġinayo ongoza
Ġinayo milikiwa
Ġkina endelea
Ġzilizo fanyika
Ġzilizo fanywa
Ġjo b
Ġhai toshi
Ġata rudi
Ġmiko cheni
Ġmazi ko
Ġzinazo chukuliwa
Ġdha mbi
el d
Ġaka ahidi
Ġuhu ni
Ġkupo ngezwa
Ġkupo kelewa
Ġro me
Ġco la
Ġco nso
Ġco penha
Ġfi li
Ġuki taka
Ġuki ongozwa
Ġhaya ku
Ġyanayo tokana
Ġmita ndao
Ġkucha pa
Ġunao endeshwa
Ġmfa ransa
Ġkilicho m
Ġuka wa
Ġman tage
Ġyame anza
badili sha
Ġtuta shinda
Ġkinacho subiriwa
Ġalim pa
Ġkushu sha
ridhi a
Ġmtaa ni
Ġwau zaji
Ġwatakao bainika
Ġkufa na
Ġkuso ta
Ġkuche zwa
Ġliki endelea
Ġkuhi mili
Ġhawaja pata
Ġkucho ka
Ġmno no
Ġviku bwa
Ġwalizo nazo
Ġsemina ri
Ġpau lo
Ġgi gg
Ġmacha che
Ġkusamba zwa
Ġtakri ma
Ġmbu na
Ġwanyama pori
Ġwanayo ishi
Ġhawata kubali
Ġkugo ngana
Ġgod frida
Ġtre kta
Ġkumwo mba
thibiti sho
saidi i
Ġkhali d
Ġtumba tu
Ġsau l
Ġikio nesha
Ġmpo nde
Ġhavi na
Ġkuwatu nza
Ġwanaha bari
Ġkisi cho
Ġalimu ua
Ġviba rua
Ġphili po
Ġmkia ni
Ġmolle imet
Ġmsisi mko
mbiki zia
Ġtibai juka
Ġkame ra
Ġchali nze
Ġred kna
Ġwama rekani
Ġmdo e
Ġreg gae
Ġlyamu ya
Ġplaye rs
Ġupu pu
Ġhiti lafu
Ġparo kia
Ġkukumba tia
Ġden mark
Ġloiti nggye
Ġsca nia
Ġkafu lila
Ġizu chukwu
Ġsiman jiro
Ġmimo sa
Ġjamai ca
Ġboig ny
Ġcopenha gen
Ġgigg s
Ġredkna pp
d da
h ya
m tu
m po
m zo
n jia
r th
s wana
s mo
s dom
t v
Ġ fika
Ġm chi
Ġm ge
Ġm lu
Ġm nyororo
li na
Ġwa wi
Ġwa shu
Ġwa cheze
Ġwa bunifu
Ġku ga
Ġku she
Ġku rugenzi
Ġku fahamika
Ġku liona
Ġku niambia
Ġku gharamia
Ġku guswa
ha nna
Ġna fanya
Ġna sisitiza
Ġna kaa
Ġa sali
Ġya hya
ba y
ng ton
Ġs wa
Ġs pa
Ġs ua
ma nga
Ġma chungu
ti ti
la nzi
Ġu ho
Ġu amini
Ġka goda
Ġka pteni
Ġi wa
Ġi itwa
Ġha s
Ġha ve
Ġha dhari
si ness
Ġki mo
Ġki ingilio
Ġali ka
Ġali kubaliana
Ġali shangazwa
Ġali kimbia
to sa
to weka
da ri
bi r
di rio
mu ona
Ġkuwa hudumia
Ġkuwa hamasisha
Ġkuwa elimisha
ke ni
Ġni lisha
he hebu
Ġsi fahamu
Ġsi moni
Ġhu penda
Ġmi dogo
nda rd
nga zi
Ġvi te
Ġvi lio
Ġvi zazi
Ġcha nggombe
chi lia
Ġwana a
Ġwana fa
Ġwana tegemea
Ġili kutana
Ġkuto fautiana
Ġwali ni
Ġwali kana
Ġwali cheza
Ġwali chukua
Ġwali kutana
Ġwali jikuta
Ġwali lokuwa
Ġe manuel
Ġse kunde
re th
Ġmwa mbu
Ġja bir
Ġd hehebu
Ġda ima
ro fi
vyo jua
Ġju bile
Ġana cheza
ua ke
Ġpa ngani
Ġmu ham
Ġaki sumbuliwa
Ġwi sdom
Ġra fu
Ġmba vu
Ġame rudi
Ġame kubali
Ġame kamatwa
Ġkua ngu
Ġko da
vu milia
Ġkui shia
Ġkui tangaza
Ġkui tumikia
Ġime i
Ġime lda
mia na
Ġo nyesho
mbi le
Ġwame wa
Ġwame jitokeza
Ġpo wer
Ġmko mbozi
mbu kiza
Ġmaha fali
Ġwaki shindwa
Ġwaki jua
Ġkuji ta
Ġkuji pa
Ġkuji linda
Ġwalio wa
gi zwa
Ġkum tumia
Ġkum dhibiti
Ġiliyo anza
Ġiliyo ongozwa
so me
Ġuna anza
Ġuna kuta
nya kulia
Ġwazi wazi
Ġbo cco
Ġbo uake
Ġkuli fanya
be a
Ġkufu ndishi
Ġde e
Ġwo rl
Ġzili toka
Ġaliye fahamika
Ġpe ntekoste
Ġhaku takuwa
Ġhawa oni
Ġuli po
Ġmaka si
Ġmaka dirio
de rs
Ġwanao weza
Ġwanao shiriki
Ġj ongo
Ġlili sababisha
Ġbu siness
Ġulio anza
Ġulio sababisha
Ġulio wekwa
Ġngu li
shu sha
Ġtume fanya
Ġtume choka
Ġri hanna
Ġkina takiwa
Ġnyingine zo
Ġal fred
Ġzilizo tengwa
Ġjo el
Ġalipo anza
Ġhe ri
Ġhe la
Ġmiko ba
Ġmb razil
Ġsta n
Ġsta r
Ġsta ndard
Ġzinazo fanya
Ġyaliyo pita
Ġyaliyo jitokeza
Ġpro je
Ġaka wataka
ca fa
Ġkuondo sha
Ġkupo kewa
fua twa
Ġco n
Ġco pa
Ġco unt
Ġfi nyu
Ġmta gwa
amini ka
Ġnili yo
Ġnili fanya
Ġnili pokuwa
Ġmaga nga
Ġkuje ruhi
Ġcu rkovic
Ġmatu nzo
fadhi liwa
Ġyame tokana
Ġca mp
Ġmar tine
Ġkita nda
Ġkita lii
Ġdi smas
Ġvye o
Ġtuta hakikisha
Ġdara sani
Ġai r
Ġngo mbale
ster bay
Ġhatari ni
Ġkuliko ni
Ġkumu omba
Ġkubo re
Ġwil fred
Ġkusaidia na
Ġmna taka
Ġkai taba
Ġbot swana
Ġkuishi wa
san ywa
raha man
Ġlita endelea
Ġwatakao shiriki
Ġhoteli ni
Ġkara ma
Ġnita fanya
mwe le
Ġkukata liwa
furahi sha
Ġgu mzo
Ġmso mi
pende kezwa
Ġushiriki na
Ġce cafa
Ġmwaki ngwe
Ġsham sa
doro ra
Ġmana ne
Ġpori ni
Ġtua che
Ġkivu ko
Ġsale he
ss y
Ġgama ya
fundi shwa
Ġmicho ro
Ġlilia n
Ġnami bia
Ġmina ra
Ġkiha lali
Ġukio na
Ġmje ma
Ġmaya i
Ġbre la
Ġwaajiri wa
Ġang likana
zinga tiwa
Ġthi s
Ġmuni ch
nguru ma
Ġkashi lila
Ġafa nde
Ġshaba an
Ġluha njo
Ġmaye mba
Ġkadha lika
Ġkuepu kana
Ġkapu ya
Ġkufilisi ka
aini shwa
Ġmomba sa
Ġtuni sia
Ġvalen cia
Ġiitwa yo
Ġjubile e
Ġkufundishi a
Ġworl d
a mbie
d f
e nzi
l lu
l de
m shi
n h
n ka
n no
o re
o ngeze
r dan
u se
u th
z za
Ġ zungu
Ġk mk
na m
na sua
Ġm c
Ġm lo
Ġm gu
Ġm wo
Ġm kwa
Ġm vo
Ġm pelelezi
Ġm fisi
Ġwa mu
Ġwa pewe
Ġwa pendwa
Ġku nya
Ġku twa
Ġku nyanya
Ġku ridhishwa
Ġku dharau
ha s
Ġna si
Ġna nyi
Ġa sia
Ġa shu
Ġa genda
Ġya ka
ta nisha
ba liani
Ġs po
Ġma mba
Ġma lazi
Ġma zembe
ti fu
ri fu
ki sa
ki bali
la n
Ġu wa
Ġu wongo
Ġu thibitisho
Ġi she
Ġi kumbu
Ġi anzi
ku wemo
Ġha ifa
hu dhuriwa
si ga
Ġki hu
Ġki bi
Ġki faa
Ġali te
Ġali zungumza
Ġali tua
Ġali tenda
sa i
sa nyo
sa limisha
pa chika
sha ck
fu tia
fu twa
mu liwa
Ġkuwa shinda
Ġta fakari
ke ra
bu rg
shi taki
shi ndwe
Ġza mbi
Ġsi asi
po lewa
po aji
Ġhu fanya
Ġn ywe
Ġvi oo
Ġvi et
Ġvi dic
Ġcha nde
chi ni
Ġwana u
Ġwana pinga
Ġili zidi
Ġili julikana
Ġili mtaka
Ġili bidi
lo mba
Ġkuto elewana
fi eld
Ġwali ko
Ġwali lo
Ġwali baini
Ġwali eleza
Ġmo lde
Ġe li
Ġe ri
re ta
Ġmwa ko
Ġli one
pe rushi
cho mwa
dha ria
Ġana kuja
Ġana penda
Ġana kiri
Ġana itwa
Ġina tambua
ze li
gu li
Ġmu mba
Ġaki omba
Ġaki onekana
Ġaki ingia
Ġaki subiri
Ġaki ongea
Ġme shack
Ġame cheza
Ġame uawa
Ġame furahishwa
Ġko ndoa
Ġkui a
Ġkui giza
Ġkui nusuru
yu ni
Ġime piga
Ġime poteza
mbe li
Ġwame onesha
Ġwame kubali
Ġwame kua
do zi
Ġwata fute
Ġmaha la
Ġwaki zungumzia
Ġwaki hoji
Ġkuji biwa
Ġwalio poteza
Ġwalio jeruhiwa
Ġkum funga
Ġkum sajili
Ġle mbeli
Ġiliyo mfanya
Ġuna fanya
Ġuna hitajika
Ġuta ni
Ġuta anza
ini sha
Ġchama ngwana
Ġwazi to
Ġga u
Ġita m
Ġita ongeza
Ġshe ki
lisi kia
kwa ana
Ġnyu ki
Ġde stu
Ġkuta saidia
Ġkuna tokana
Ġto ure
Ġhaku fahamu
Ġmwe siga
Ġtuna anza
weze shwa
Ġhawa kuwepo
Ġuli tokana
Ġuli iomba
Ġkuka nusha
Ġwanao soma
Ġchi polo
Ġmaku sanyo
Ġg rume
Ġg rou
Ġru tuba
Ġiki endeshwa
Ġulio chezwa
Ġulio malizika
Ġyana fanyika
Ġwaa ngalie
Ġdo nald
Ġtume jiandaa
Ġjo rdan
Ġata takiwa
Ġalipo ingia
Ġlina mshikilia
Ġfu so
Ġmali ma
Ġzinazo tokana
Ġzinazo husiana
pele kewa
Ġlu isi
Ġaka hoji
Ġzime endelea
Ġkiu ngwana
Ġge reji
Ġkipa za
Ġkipa nde
Ġro mbo
Ġro bin
Ġvyo o
Ġmta kuwa
co n
Ġlime anza
Ġnili m
Ġkule twa
Ġkuvu milia
Ġkilicho fanywa
Ġnina yo
shia na
Ġmapi pa
Ġyame kamilika
Ġmte go
Ġnime wahi
jiri wa
Ġdi da
Ġdi zeli
Ġmiongo zo
Ġitaka pokuwa
Ġwataka pokuwa
Ġaliyo toa
Ġkumu uliza
haribi wa
Ġkue nea
ndika no
staa rabu
ngele a
Ġkiti llya
Ġmigo ngano
Ġupo to
Ġkuya fanyia
Ġkara kana
Ġimea hidi
bwe teka
Ġtra wu
tion s
Ġutakao pigwa
Ġgod win
Ġkipe ntekoste
Ġkipe kee
Ġwasa maria
Ġuo poaji
Ġce lina
Ġchenye nye
Ġsham si
Ġwanaoji ita
plo ma
Ġq a
kimbi za
Ġsale wi
Ġikio nekana
Ġvipe perushi
Ġmpo ki
Ġyatakayo fanyika
Ġvia zi
fana nisha
Ġkufurahi shwa
Ġkaba nge
Ġviba o
Ġvipo dozi
Ġure mbo
Ġusingizi ni
Ġeva ns
Ġrwa kibali
Ġenter preneurship
Ġmafi zi
kusa nyika
Ġkibo sho
Ġtoba go
Ġkununu liwa
Ġkuende keza
Ġsport s
Ġmpu nga
Ġmm liki
Ġkuadhi misha
Ġbib lia
Ġoly mpi
Ġrwi lomba
Ġkibe nki
Ġmiondo ko
Ġbid co
Ġcarlo s
Ġbugu runi
Ġcorpora tion
Ġsaka re
Ġnakaa ya
Ġkmk m
Ġmvo mero
Ġashu ra
Ġishe ngoma
Ġikumbu kwe
Ġnywe le
Ġviet nam
Ġlione l
Ġdestu ri
Ġchipolo polo
Ġgrume ti
Ġgrou p
Ġrwakibali la
a ck
c u
e a
l va
o r
p uaji
r son
s sia
s lahi
t ba
u toa
Ġ pumzi
na damu
Ġm t
Ġm lezi
li shi
Ġwa rudi
Ġwa ngapi
Ġku hitaji
Ġku julikana
Ġku stawi
Ġku geuka
Ġku banwa
ya sema
Ġna wapongeza
ni ng
hi ko
Ġa ti
Ġa ku
Ġa rume
Ġa mon
Ġa seme
Ġya mea
Ġya kawa
Ġs co
Ġma che
Ġma furi
la s
la mi
Ġu toto
Ġu dogo
Ġu tumiaji
nd ra
Ġi l
Ġi tu
Ġi he
tu ti
tu ko
ra tasi
Ġali tarajia
Ġali pinga
to zwa
da da
bi da
sa lama
me ji
ye m
Ġkuwa te
Ġkuwa kumbusha
Ġta i
bu tu
shi kwa
te kele
Ġsi ndano
Ġsi rro
Ġhu saidia
Ġhu tegemea
zo eleka
Ġba yi
ne y
Ġmi mea
Ġsa lma
ko ra
Ġvi do
Ġvi weze
Ġvi kto
Ġcha guo
Ġcha kavu
chi mbia
Ġwana lo
Ġwana kula
Ġili pewa
Ġili wahi
nye shwa
che ro
Ġwali hoji
Ġwali paswa
Ġwali ibuka
Ġwali kufa
Ġwali goma
Ġwali wasilisha
Ġwali tenda
Ġmo tisha
Ġse villa
Ġtu ruka
Ġja ribio
Ġja siri
Ġzi nge
Ġzi lio
Ġli she
Ġd hu
vyo te
zu shi
Ġina shuka
end o
Ġmu ho
Ġaki weka
Ġwi th
Ġme dani
ge uza
Ġji ulize
idi ka
Ġt v
Ġmba ga
Ġame iomba
Ġame umia
Ġkua nga
Ġkua ndikisha
vu na
Ġkui fanyia
Ġkui patia
Ġkui jenga
Ġkui shangilia
Ġime pewa
Ġime twaa
Ġime undwa
Ġime dhamiria
nde ka
Ġwame i
Ġwame weza
Ġwame ona
Ġwame baki
Ġwame maliza
Ġwame unda
Ġwame pania
Ġwata shinda
Ġwaki na
Ġwaki onekana
Ġtaa ra
Ġkuji ko
Ġkuji pe
Ġkuji eleza
Ġkuji hami
Ġkuji nasua
Ġwalio uawa
Ġwalio upata
Ġkum kosa
Ġkum nggoa
Ġmaji biza
Ġiliyo toa
Ġiliyo funguliwa
Ġiliyo somwa
Ġho vyo
Ġuna tegemea
Ġuta mbuzi
Ġuta gundua
Ġuta peli
Ġita julikana
Ġita shuka
Ġte ve
Ġkuli shughulikia
Ġaf ter
Ġnafa ka
Ġkuhu tubia
kio ngezeka
Ġmwenye zi
Ġupa ndaji
Ġzina po
Ġzili dai
Ġkuta fsiri
Ġume endelea
Ġume kwisha
one shwa
Ġhaku pata
Ġtuna dhani
Ġmata baka
Ġuli puaji
Ġmaka bidhi
Ġmaka chero
Ġwanao hitaji
taa luma
Ġhaki ja
Ġg tv
Ġkupa mba
Ġkupa twa
Ġmas taa
Ġbu nu
Ġdu mila
Ġkufi kiri
Ġinayo daiwa
Ġinayo changia
Ġinayo shughulikia
Ġkusi ko
isha uri
Ġtume anza
Ġtume pokea
Ġata kutana
Ġata mbue
Ġlina wa
Ġlina tarajia
Ġhe kta
Ġkima isha
Ġkima slahi
Ġmb we
Ġre co
Ġaliwa omba
Ġmcha wi
rudi shia
Ġwasi je
Ġyaliyo wekwa
Ġlu ba
Ġkuzi fanya
Ġkuzi fanyia
Ġkuzi nduliwa
ca n
Ġmada bida
Ġvyo vyote
Ġuki fika
Ġmaja nga
Ġkuja diliana
rd s
Ġkucha pisha
Ġunao nyesha
Ġanaye ongoza
Ġanaye tuhumiwa
Ġilivyo tarajiwa
Ġmar wa
Ġkita ndani
Ġab dala
Ġr p
Ġne i
Ġtuta toa
Ġalim weleza
Ġkime eleza
Ġzita fanyika
Ġhazi kuwa
Ġuko di
ingi wa
Ġmke o
Ġwil son
Ġvili patikana
Ġkali nga
Ġyata endelea
Ġitakayo kuwa
Ġmse mo
Ġmipa kani
Ġkuingi liwa
Ġkulipa tia
san te
Ġmwak yo
Ġalia mbiwa
Ġmahu tuti
Ġpembe zoni
Ġmsu guano
siri mali
Ġwalizo kuwa
Ġmahi za
Ġchri stine
Ġwaza nzibar
Ġkia po
Ġmbu zi
Ġmbu ga
Ġkusu dio
Ġzitakazo tumika
Ġlikiwa mo
Ġpu nda
Ġitakapo tajwa
Ġwakia mini
Ġwalicho fanya
Ġninacho weza
Ġfiti na
res s
mbui za
Ġq ue
Ġkale mbo
Ġdia llo
kimbi zwa
safiri shwa
ue t
safi sha
shtu ko
Ġnk ya
Ġvia shiria
Ġswe d
samba a
samba zwa
Ġkufurahi a
Ġkicha po
Ġmatha lani
Ġhou pho
Ġbla ck
Ġisa ack
Ġblu u
Ġkuru buni
Ġuwi ano
Ġmisu li
Ġkununu lia
Ġmitu mba
Ġher ve
Ġkucheze sha
thu butu
Ġalivi taja
Ġele kezi
Ġluga lo
Ġmira thi
Ġzama le
Ġjaco b
Ġplasti ki
Ġmam luki
Ġsebu leni
Ġfili mbi
Ġkarama gi
tba ll
Ġarume ru
Ġmafuri ko
Ġvikto ria
Ġmajibiza no
Ġteve z
Ġmakabidhi ano
Ġhoupho uet
a ndika
e ndani
h lovu
i la
j omba
l ve
m sha
n ju
p l
r ch
s tus
y sterbay
Ġ rika
Ġ goro
Ġk cc
na nza
Ġm ro
Ġm daiwa
Ġm tumiaji
Ġm nh
Ġm jomba
li mali
Ġwa ya
Ġwa nya
Ġwa elewe
Ġwa fungaji
Ġku nde
Ġku ratibu
Ġku shtu
Ġku gundulika
Ġku buru
Ġku thibitishwa
Ġku endana
Ġku nke
ya n
ni pa
ni sani
Ġa chana
Ġa pewe
Ġya sema
Ġya liwa
Ġya fanyike
Ġya endayo
ta wa
ta in
ba ha
ba dhi
Ġs taka
ma rika
Ġma wi
ri st
ki e
la ta
la nga
zi ngira
zi rai
Ġka su
Ġka nisani
ku cha
Ġha zito
si tisha
ja vyo
ra za
ra go
ra rd
Ġki ju
Ġki ge
Ġki itwa
mba ri
Ġali shiriki
Ġali tolewa
Ġali zeti
Ġali toka
Ġali shuhudia
Ġali jikuta
Ġali simama
Ġali kabidhiwa
Ġali nukuliwa
da wi
sa nyika
pa mba
pa ngiwa
me le
fu rika
ye ye
di ria
mu ko
Ġkuwa nufaisha
Ġkuwa rubuni
Ġta nki
ke te
shi nde
Ġni no
te ngewa
Ġsi ne
Ġsi kio
Ġsi pendi
Ġhu weza
Ġhu jui
ne ja
Ġmi zi
Ġmi tini
Ġsa la
Ġsa lala
Ġsa ikolojia
Ġb y
Ġb wa
ngi liwa
nda y
Ġvi javyo
Ġvi rago
Ġcha mbo
Ġwana kuja
Ġwana dhani
Ġili taka
Ġili fikia
Ġili lenga
lo gile
wi s
ngu yeye
Ġkuto i
Ġkuto jihusisha
Ġwali kosa
Ġwali kaa
Ġwali sikia
Ġe x
Ġe ze
Ġe ve
ga a
ga n
ga s
ga ri
Ġtu lia
Ġmwa juma
Ġja nja
Ġda nsi
ro jo
Ġju sti
mbo w
Ġana omba
Ġana shangaa
Ġana umwa
Ġina patikana
Ġina jiandaa
Ġina kadiriwa
Ġwaka anza
lia mali
Ġmu soma
Ġaki onyesha
dhi bu
Ġme rre
Ġra m
Ġra pha
Ġji ko
Ġc li
Ġame jiunga
Ġame hamishiwa
Ġko mu
Ġko mbani
Ġko rea
vu tiwa
Ġkui unga
Ġkui marika
Ġshi mbo
Ġshi logile
Ġime takiwa
Ġime eleza
Ġime tokea
Ġime ombwa
Ġo mbe
Ġo ysterbay
Ġwame lala
Ġwame chukua
Ġwame kwenda
Ġwame fariki
Ġpo p
Ġpo rojo
Ġndi ti
Ġwaki kosa
Ġwaki shinda
Ġwaki endesha
Ġwaki fuatilia
Ġkuji ona
Ġkuji letea
Ġkuji wekea
nu ka
Ġwalio ingia
Ġwalio kaa
Ġwalio hukumiwa
Ġkuu dhi
Ġkum fungia
Ġkum simamisha
Ġkum kosoa
Ġle wis
Ġiliyo tokana
so nga
Ġuna sema
Ġuta shi
Ġuta tolewa
Ġbo nanza
Ġkupi ka
Ġkupi ngana
Ġita pata
Ġte sha
Ġte ndo
Ġshe a
Ġshe ha
Ġmara ndo
Ġmara is
Ġp hile
Ġkuhu dhuriwa
Ġupa ngaji
be za
Ġzina paswa
baini shwa
Ġfa bre
Ġfa hamu
Ġso mbe
Ġkuta mbulika
Ġume ona
Ġume kamilika
Ġaliye ingia
Ġhaku wepo
Ġmata mshi
Ġhawa po
Ġuli pinga
Ġwanao husika
Ġwanao pambana
Ġwanao gopa
Ġmaku mba
taa rifu
Ġmwana riadha
Ġsu fia
Ġsu nder
Ġru a
Ġiki taka
Ġiki fungwa
Ġiki ongoza
Ġmsa baha
Ġlili sema
Ġbu sh
Ġulio tokana
Ġyana zidi
Ġdo s
Ġinayo wa
Ġinayo fanya
Ġtume shindwa
Ġtume jipanga
Ġkina tarajia
Ġal haji
Ġzilizo pigwa
Ġusa hihi
Ġusa ili
Ġute kete
Ġalipo teza
Ġlina takiwa
Ġlina paswa
Ġhe med
Ġas se
Ġas gari
Ġre dondo
Ġaliwa shauri
Ġmali mbiki
Ġzinazo zalishwa
pungu zia
Ġmpaka njia
Ġmpi to
Ġlo ngi
Ġalio wa
Ġmawa lla
Ġche che
Ġmta res
Ġuki dai
Ġhaya husiani
Ġyanayo patikana
Ġkutu mbukia
Ġnga sa
Ġnamba ri
Ġsabi nusi
Ġlime toa
Ġlime zipata
Ġnili pata
Ġunao weza
Ġunao tumika
Ġanaye taka
Ġkuku sanyika
Ġkilicho mo
reje e
Ġmatu mla
Ġno ndo
Ġno rth
Ġuga idi
Ġpale stina
Ġr yan
Ġat leti
Ġnu ngwi
Ġnyo sso
Ġkinacho rushwa
Ġin jili
Ġalim shambulia
Ġua dui
Ġmitaa la
Ġhazi po
Ġras limali
Ġuko mo
Ġap r
Ġtha biti
Ġkula za
Ġwalipo kwenda
Ġitakayo pigwa
Ġkuko soa
heshi mika
Ġmai ra
Ġste pha
Ġzenye we
Ġkuhi miza
Ġzikiwa mo
furahi a
Ġvyu ma
Ġwalivyo fanya
Ġmbu lu
Ġwanapo ona
Ġutakao anza
Ġmashu ti
Ġalicho fanya
Ġukia chana
Ġzisizo kuwa
Ġusio zidi
Ġamea giza
Ġmshi tuko
Ġawe ke
Ġipa te
Ġruma nyika
Ġwanavyo fanya
Ġmzi ray
Ġabe neth
saidi wa
nyangga nya
Ġwashi ngton
Ġben son
Ġmana se
Ġbenja mini
gh t
Ġilia hirishwa
Ġkuwatu liza
Ġvipa umbele
Ġms d
geme e
Ġac p
Ġteam s
Ġmdomo ni
Ġcana varo
Ġubinafsi shaji
Ġalizi taja
Ġkuwaka tisha
Ġrwa mbow
Ġunga mo
Ġudi wani
Ġhayu ko
Ġpha rma
Ġtunacho taka
Ġmakele mo
Ġkulau miwa
Ġviji bweni
Ġsy lve
Ġilii chapa
Ġtami semi
Ġnd hlovu
Ġport smo
Ġgre en
Ġmame neja
Ġhila ry
Ġkano ni
Ġkiho lela
Ġtanzani te
Ġmahara ge
Ġaingi e
Ġkukumbu ka
Ġkubisha na
Ġkalu nguyeye
Ġkuuli zwa
nggangga nia
Ġhol di
Ġferna ndo
Ġmnya a
Ġiu ndwe
Ġlaza ro
Ġtwi ga
Ġsonga s
Ġgwa bi
Ġuamini fu
Ġolympi que
Ġkusiko julikana
Ġrp c
Ġkunde cha
Ġstaka badhi
Ġkiju so
Ġkiitwa cho
Ġsine ma
Ġmerre ikh
Ġrapha el
Ġphile mon
Ġfabre gas
Ġsufia ni
Ġsunder land
Ġutekete zaji
Ġmalimbiki zo
Ġatleti co
Ġstepha no
Ġportsmo uth
a nze
a thiri
g bo
i mani
l ko
m ford
n hu
o p
r m
u mu
Ġ fanya
Ġ ngwa
wa no
wa nyiko
Ġwa ba
Ġwa baya
Ġwa subiri
Ġwa zoefu
Ġwa fuate
Ġku zu
Ġku ongozwa
Ġku pendekeza
Ġku gusa
Ġku dhalilisha
Ġku dorora
ha tarisha
ya l
Ġna nga
Ġna ssi
ni dad
Ġa pi
Ġa mini
Ġa rudi
Ġa pumzike
Ġya dai
Ġya weze
ba gbo
Ġs cho
Ġma ngo
Ġma ina
ti i
za n
za na
zi tumia
Ġu fi
Ġu elekeo
Ġka a
Ġka tu
Ġka bo
Ġka nsa
yo nga
Ġi re
Ġha she
hu ra
si la
we nde
we kewa
tu nza
tu liwa
tu maini
tu pia
ra mi
ra mbi
Ġki du
Ġki ssa
Ġki buri
Ġki eleweke
Ġali shinda
Ġali enda
Ġali pigwa
Ġali pelekwa
Ġali tembelea
Ġali kemea
me ck
Ġv ua
di nga
mu ua
mu omba
Ġkuwa shwa
Ġkuwa chunguza
Ġkuwa fungia
Ġkuwa pigia
Ġkuwa unganisha
ke rwa
Ġza ina
Ġni nge
te te
te seka
Ġla i
Ġla ure
Ġla meck
Ġba kh
Ġmi u
Ġmi da
Ġmi nja
Ġmi fereji
nda mwa
Ġvi cha
Ġvi baka
Ġwana pewa
Ġwana ongoza
Ġwana soma
Ġwana pambana
Ġwana angalia
mo lewa
lo ngo
mb wi
Ġkuto zwa
Ġkuto ridhishwa
ndi kiza
nye za
fi i
Ġwali jua
Ġwali piga
Ġwali kuwepo
Ġwali vamia
Ġwali jeruhiwa
Ġmo ga
Ġe mira
re n
Ġtu ji
Ġtu nge
Ġzi taanza
je ro
Ġana lo
Ġina pokuwa
Ġina fahamu
ze r
chu kia
Ġwaka toliki
lia ne
Ġpa ki
Ġpa ngo
Ġpa jero
Ġaki o
Ġaki shindwa
Ġaki jua
Ġaki funga
Ġaki fanyiwa
Ġaki pinga
ndo go
Ġra mbi
ge zwa
Ġpi ck
Ġt wanga
Ġame onesha
Ġame fanikiwa
Ġkua gwa
Ġkui bwa
Ġkui futa
Ġkui peleka
Ġkuo ngelea
Ġshi ngoni
Ġf le
Ġime ona
Ġime saidia
Ġime fanywa
Ġime toka
Ġime rejea
Ġime fikiwa
Ġo ce
Ġo man
Ġo ur
Ġo cto
Ġo ut
Ġo dinga
Ġwame kosa
Ġwame onekana
Ġwame ingia
Ġwame toka
Ġwame kata
Ġwame mtaka
Ġwata pewa
Ġwata kwenda
Ġwata ingia
Ġwaki ji
Ġkuji kusanyia
nu kuu
Ġwalio ji
Ġwalio baki
Ġwalio shuhudia
Ġwalio sajiliwa
Ġkuu mana
Ġkuu ngua
Ġkuu kumbatia
Ġkum chukulia
Ġkum zomea
Ġkum teua
Ġes ter
Ġiliyo malizika
Ġiliyo sainiwa
Ġho di
Ġuna onekana
Ġuna pokuwa
Ġuna karibia
Ġhatu kuwa
Ġuta fu
Ġuta mbulisho
Ġwao mbole
nya ni
Ġbo sco
Ġbo lton
Ġkupi ndu
Ġita weza
Ġita tumia
Ġita tolewa
Ġita bainika
Ġita bidi
Ġita sikilizwa
Ġnyi ka
Ġshe meji
Ġkuli pu
Ġkuli maliza
Ġkuli pua
Ġkuhu jumu
be l
Ġzili tumika
Ġfa bia
Ġkuta i
Ġje mbe
Ġje raha
Ġume wa
Ġume shindwa
Ġume hifadhiwa
Ġpe nye
one kani
Ġhaku takiwa
Ġhaku patikana
Ġtuna po
Ġtuna pata
Ġtuna kutana
Ġuli zinduliwa
Ġucha pishaji
Ġwanao shindwa
Ġwanao stahili
Ġg bagbo
Ġbila li
Ġru di
Ġkupa kia
Ġiki zingatiwa
Ġulio mba
Ġdo a
Ġinayo weza
Ġinayo fanyika
Ġinayo tumika
Ġinayo nolewa
Ġkute ngenezea
Ġtume shuhudia
Ġkina toa
Ġhai ko
Ġata weza
Ġlina kuwa
Ġhe kari
Ġhe lko
ve s
Ġre hani
Ġsta mford
Ġaliwa shukuru
Ġmali sho
Ġzinazo sababisha
Ġzinazo tumika
Ġzinazo ikabili
Ġlu cy
ibu liwa
Ġzime kuja
Ġyo mbo
Ġkiu salama
Ġro ver
Ġro yal
Ġmta wanyiko
Ġmaele wano
Ġyanayo tokea
Ġkuja a
nne rs
Ġnili taka
Ġnili kwenda
Ġkucha pwa
Ġkucha nganya
Ġmaga nda
Ġanaye kwenda
Ġnina taka
Ġnina ona
Ġkuha mi
Ġnye ndo
Ġnye upe
Ġmte ra
Ġnime ona
Ġkita lu
Ġr b
Ġkuele weka
Ġtuta pata
Ġisi vyo
Ġkiba sila
Ġtabia nchi
Ġalii pongeza
Ġngo mbe
Ġngo nyani
Ġhatari shi
Ġkumu weka
Ġndogo ndogo
Ġwalipo teza
kumbu kwa
Ġkilo lo
Ġkuingi wa
Ġmfanya bishara
Ġkisu kari
Ġmag endo
Ġmwenza ngu
Ġasi we
Ġhawaku taka
nna h
mwe leza
Ġwalizo pewa
Ġkuni pa
Ġwanayo pata
Ġhawata kuwa
Ġinakuwa je
Ġendele a
Ġnjo ro
Ġce ntre
Ġmaria m
Ġabe l
Ġmza ha
Ġaliko kwenda
Ġaliko sea
Ġdia mond
Ġtri nidad
Ġhia ce
Ġulimwengu ni
Ġkisi ki
Ġkufurahi sha
Ġmat ch
Ġunyanya paa
Ġkicha a
pati kani
Ġtunawa omba
Ġbati lda
Ġmatha re
Ġilim radi
Ġkiha nsi
Ġmakwa o
Ġmisu ngwi
Ġkibo nde
Ġnko ngo
Ġutakapo kamilika
Ġkutibu a
Ġve nance
jenge ka
Ġwahu dumu
teke tea
Ġvalenti no
Ġjeremia h
Ġvisi vyo
Ġkuiti kia
Ġkuga wana
Ġmwambu si
Ġproje ct
Ġnei der
Ġmro pe
Ġnassi b
Ġkabo yonga
Ġhashe em
Ġkidu chu
Ġlaure nt
Ġemira tes
Ġrambi rambi
Ġocto ba
Ġwaombole zaji
Ġkupindu kia
b ra
c ka
c rati
e tu
e ngua
g hani
k lia
l ly
m riwa
n se
o ch
r do
r gi
s ye
s burg
u miza
Ġ gia
wa nya
Ġk li
na mo
Ġm da
Ġm nda
Ġm taka
Ġm kweli
Ġm nyama
Ġm lipa
li ke
li ngu
Ġwa hakikishe
Ġku zungu
Ġku fadhili
Ġku dhihirisha
Ġku vua
ha mia
ya toa
Ġna hisi
Ġna tional
Ġna manga
Ġna dharia
Ġa y
Ġa te
Ġa daiwa
Ġa nder
Ġya nge
Ġya ssi
ta fakari
ba kari
ma nia
ti h
ti she
ti us
ri e
la ka
Ġu mbo
Ġu zushi
Ġka yo
Ġka ndoka
Ġka tende
Ġka therine
Ġha si
ji bisha
hu mbi
tu pwa
Ġhi lda
ra tus
Ġki ng
Ġki pu
Ġki ria
Ġki muziki
Ġki fanyike
Ġali panda
Ġali stahili
Ġali jitahidi
Ġali pigiwa
le nia
da ka
me zi
mi ly
di riki
Ġkuwa shambulia
Ġkuwa zidi
Ġkuwa dhibiti
Ġkuwa endeleza
Ġkuwa ruhusu
Ġkuwa uza
Ġkuwa rudishia
Ġta na
Ġta nu
Ġni si
Ġni we
Ġni kia
Ġni ngekuwa
te zwa
Ġsi ngu
po a
Ġhu toa
Ġla dha
sema ry
Ġba k
Ġmi zito
Ġmi lele
Ġmi lenia
Ġsa ru
Ġsa lam
ko mbe
nga a
nga tiwa
Ġvi pu
Ġvi oski
Ġwana kosa
Ġwana shinda
Ġwana penda
Ġwana zidi
Ġwana maji
Ġwana tambua
Ġwana elewa
Ġili zo
Ġili ona
Ġili kubaliana
Ġili pokea
Ġili pingwa
mo crati
ngu mi
Ġkuto cheza
Ġkuto ridhika
fi ji
Ġwali ji
Ġwali rudi
Ġwali kula
Ġwali tarajia
Ġwali fikia
Ġwali wahi
Ġwali pinga
Ġwali wataka
Ġwali sikika
Ġmo on
Ġse rt
re mka
Ġtu wa
Ġtu liwa
Ġtu taanza
Ġmwa nge
Ġmwa dilifu
Ġmwa minifu
go ngwa
Ġkama ra
Ġli ngekuwa
Ġli lianza
Ġda di
ro d
Ġbi mani
Ġju mbe
Ġju lio
taka ta
Ġmku funzi
Ġina kutana
Ġina subiri
nzi lishi
Ġpa ka
Ġpa zuri
Ġmu lla
Ġaki ri
Ġaki lalamika
dhi mu
su si
ge mewa
pu uza
Ġji dawi
endele zwa
Ġc ct
Ġt rc
Ġame u
Ġame rika
Ġame fika
Ġame kwenda
Ġame ingia
Ġame panga
Ġame pokea
Ġame jikuta
Ġame tamba
Ġkua shiria
Ġkua thiriwa
Ġko sta
vu ti
Ġkui pata
Ġkui shinda
Ġkui ondoa
Ġshi ja
Ġime ba
Ġime kubali
Ġime ongeza
Ġime hifadhiwa
Ġo bi
Ġo lu
Ġwame shinda
Ġwame tangaza
Ġwame panda
Ġwame ondoka
Ġwame ridhika
Ġpo da
Ġwata i
Ġwata taka
Ġwata ondoka
Ġmko ni
is he
Ġwaki unga
Ġwaki fika
Ġwaki lalamika
Ġtaa bu
Ġkutoka milika
Ġkuji kimu
Ġkuji ficha
Ġkuji salimisha
Ġke e
Ġwalio fariki
Ġwalio saini
Ġkuu tumia
Ġkuu nguruma
Ġkum wi
Ġkum penda
Ġkum saka
Ġkum pigia
Ġiliyo a
Ġiliyo andaliwa
Ġiliyo jengeka
Ġuna hitaji
Ġuna malizika
Ġuna fuu
bo bea
Ġhatu takuwa
Ġmwi n
Ġwao koaji
wo na
Ġita tokea
Ġita hakikisha
Ġita mar
Ġsiku ona
Ġaf c
Ġaf ghani
Ġkwe ka
Ġnafa hamu
Ġp s
Ġupa na
Ġnyu klia
Ġkufu ru
Ġkufu tia
Ġbara sa
Ġzina fanyika
Ġde mocrati
Ġau st
Ġzili fanyika
Ġmasha ti
Ġfa tih
Ġso da
Ġso ud
Ġkuta biri
Ġkuta thimini
Ġje etu
Ġume zidi
Ġaliye sema
Ġaliye dai
Ġaliye tumia
Ġaliye fika
Ġaliye funga
Ġaliye tambulika
Ġto p
Ġto ur
Ġto vuti
one wa
Ġhaku penda
Ġmwe mbamba
Ġmwe mezi
Ġtuna cheza
Ġtuna toa
Ġtuna ambiwa
ngia ji
Ġhawa fanyi
Ġuli sababisha
Ġuli fanikiwa
Ġuli sainiwa
Ġyali po
Ġmpa re
Ġmpa mbano
Ġwanao m
Ġwanao pata
Ġwanao fika
Ġwanao penda
Ġwanao kabiliwa
Ġmaku tano
Ġmwana michezo
Ġg idi
Ġsu n
Ġru fiji
Ġkupa kua
Ġkupa sua
Ġiki poteza
Ġbu r
Ġbu tu
Ġbu twaa
Ġbu rma
Ġulio tokea
Ġulio kuwepo
Ġulio kithiri
wali pa
Ġngu oni
Ġdu ngu
mili kisha
Ġkusi kika
va n
Ġkute ngwa
Ġtume kuja
dala li
Ġzilizo haribika
Ġusa nii
Ġjo e
Ġhai paswi
Ġata tumia
Ġata lazimika
Ġata rejea
Ġata fikishwa
Ġalipo kutana
Ġmfu asi
Ġnya ngumi
Ġre si
Ġfu ti
Ġaliwa sili
Ġaliwa silisha
taba ki
Ġmali ndi
Ġlu do
Ġlu kombe
Ġkuzi ngatiwa
Ġaka ongeza
Ġzime fungwa
Ġzime panda
Ġyo rk
rs t
Ġkupo romoka
Ġwizara ni
Ġro semary
Ġco ro
Ġco sta
Ġnguvu ni
Ġndo ssa
Ġmta fiti
Ġuki enda
Ġmaja lada
Ġvitu ko
shirikia ne
Ġmita zamo
Ġlime endelea
Ġlime tangaza
sto n
sto ry
Ġunao tarajia
Ġwala u
Ġanaye cheza
Ġanaye kabiliwa
Ġanaye shughulikia
Ġanaye sikiliza
Ġkilicho daiwa
Ġkilicho baki
reje shwa
Ġwapi me
Ġlililo ko
Ġlililo wasilishwa
Ġcho oni
Ġilivyo tokea
Ġnina jua
Ġyame pangwa
Ġnye pesi
Ġnime fanya
Ġnime pata
Ġkita mbaa
Ġdi o
Ġdi mbani
Ġwako loni
Ġat h
Ġtuta weza
Ġisi toshe
Ġile mela
Ġkuti lia
Ġwataka a
Ġgo ti
Ġwakili pwa
Ġalii twa
Ġngo ja
Ġule vi
Ġuko o
Ġuko loni
dhu lu
Ġwil ly
Ġmitambo ni
Ġmna mo
Ġmna dhimu
Ġuvu jaji
kumbu ke
chungu zwa
Ġkuishi nikiza
Ġhuwa fanya
gawa nyika
Ġmv yulu
Ġkanda rasi
Ġkas sia
Ġbar ca
les s
Ġfre de
Ġfre dy
Ġkumwa jibisha
Ġhawaja lipwa
Ġalia giza
Ġgeo frey
Ġhaija fahamika
Ġimea hirishwa
Ġyusu fu
Ġyasiyo faa
Ġmahi ndra
Ġkureje shewa
Ġazi za
Ġkusamba a
Ġmagereza ni
tende wa
Ġgu ru
Ġzitakazo chukuliwa
Ġjene za
Ġjene reta
Ġabdul rahaman
Ġpu sh
Ġpu ruku
Ġkiji weni
Ġkabu zi
Ġusio julikana
Ġkuba kia
Ġuo zo
Ġuo koaji
Ġwajasi liamali
Ġtaka dini
Ġakim karibisha
Ġwashi ndani
Ġmashe he
Ġtama ti
Ġrwe humbi
Ġaliko kuwa
Ġsija ona
Ġuza mili
Ġsamwe li
Ġtua nze
Ġkuchu ana
Ġikio mba
Ġban kobe
Ġkizi nga
Ġsam son
Ġitawa saidia
Ġismai lia
Ġkuchi lingu
Ġkuwata wanya
Ġmase se
Ġmase bu
Ġkuteke tea
Ġeva rist
Ġsm z
Ġmatha yo
Ġzu hura
Ġkiga li
Ġmauri tius
Ġenter tain
Ġmafi cho
Ġmje mas
Ġnko ma
Ġsto re
Ġamei eleza
Ġkutawa liwa
Ġsuma tra
Ġitai karibisha
lta n
Ġwar sha
Ġkube nea
Ġhabi b
Ġkombo ra
Ġkupandi shwa
Ġkwingine ko
Ġkimaa ndishi
Ġkuchelewe shwa
Ġkujili mbikizia
Ġuis lamu
Ġtutaka po
Ġtuliona o
Ġlibe ratus
Ġhawaridhi ki
Ġlude te
Ġmru ndikano
Ġhashi m
minia na
Ġmlu ndwa
some ka
Ġstan ley
Ġkubore shwa
Ġvido nge
Ġluba mbe
Ġabdala h
diria ji
Ġlongi do
Ġkatu ramu
Ġnjoro ge
Ġmnda sha
Ġmtaka tifu
Ġander son
Ġkayo mbo
Ġkandoka ndo
Ġsingu luma
Ġsaru ji
Ġvipu ri
Ġolu och
Ġafghani stan
Ġdemocrati c
Ġpuruku shani
Ġrwehumbi za
Ġbankobe za
Ġkuchilingu lo
Ġentertain ment
a che
b ele
d h
e la
e sta
i re
i bwa
i marishwa
l bert
m zito
n chama
o mbe
r res
s la
s per
t na
t ka
u b
Ġ dili
Ġ ngeni
wa ona
Ġm h
Ġm me
Ġm swada
Ġm fereji
li mba
li sia
Ġwa s
Ġwa ni
Ġwa ongo
Ġwa seme
Ġku ripotiwa
Ġku ghari
Ġku chunguzwa
ha misha
ka idi
Ġna ko
Ġna tion
Ġna dra
Ġna sikitika
Ġna jiuliza
ni cha
ni nga
Ġa one
Ġa taa
Ġa chukuliwe
Ġa gusti
Ġa onekane
Ġya di
Ġya pi
Ġya kini
Ġs wi
ri ri
ri zi
ri es
ki ki
Ġu sema
Ġu endele
Ġu hitaji
Ġka lo
Ġka unda
Ġka nzu
Ġka takata
Ġi dri
Ġi tende
ku ma
si de
ja mii
Ġki bu
Ġki gu
Ġki nyo
Ġki sanii
Ġki zuizi
Ġali fikia
Ġali kata
Ġali hisi
Ġali fungua
Ġali jaribu
Ġali tolea
bi bu
bi nafsi
sa wa
sa dia
sa wazi
sha hada
fu nge
mi ng
mi zwa
di shu
Ġkuwa gawa
Ġkuwa tafuta
Ġkuwa tetea
Ġkuwa sihi
Ġkuwa fungulia
Ġta swa
Ġni le
te lai
he za
Ġsi amini
Ġhu pata
Ġhu chukua
Ġhu fanywa
Ġn ba
Ġn cha
Ġba wa
Ġba ngo
Ġmi lio
Ġmi lle
Ġsa n
ko la
pi o
pi mwa
Ġvi p
Ġvi taka
Ġcha to
Ġcha nika
chi shwa
Ġwana na
Ġwana peleka
Ġwana taaluma
Ġili weza
Ġili ongoza
Ġili pigwa
Ġili twaa
Ġili wafanya
Ġili badilika
Ġili anzishwa
Ġili sawazisha
no w
Ġkuto jua
Ġkuto pewa
Ġkuto gombea
Ġkuto kubaliana
Ġkuto zingatia
ndi zi
ndi shwa
fan ywe
nye me
fi chwa
che l
Ġwali enda
Ġwali fanyiwa
Ġwali shuhudia
Ġwali bainika
ru pu
re st
ga i
Ġtu jue
Ġtu pate
Ġtu shinde
Ġja ck
Ġzi tumike
Ġli weze
Ġd dc
vyo weza
pe shwa
Ġana subiri
Ġana miliki
Ġana kubalika
Ġina tia
Ġina piga
Ġina kuja
Ġina penda
Ġina mpa
Ġwaka fanya
gu vu
Ġmu h
Ġmu we
Ġmu hidi
Ġmu heza
Ġaki lia
Ġaki ona
Ġaki shirikiana
Ġaki ongozwa
Ġaki simulia
Ġwi n
ndo ko
Ġwe re
Ġme gh
su ka
ge r
pu rupu
Ġpi ngu
Ġc ra
Ġc da
Ġt ran
Ġt wende
Ġmba sa
Ġame taka
Ġame sisitiza
Ġame funga
Ġame pania
Ġko nya
vu te
Ġkui kabili
Ġkui wakilisha
Ġkui dhinishwa
Ġime patikana
Ġime kwisha
Ġime tengewa
Ġwame rudi
Ġwame kiri
Ġwame pokea
Ġwame jikuta
Ġwame jeruhiwa
Ġwame hifadhiwa
Ġwame choka
Ġpo a
do u
Ġhata mu
Ġwata kutana
Ġwata chukuliwa
Ġmko saji
mbu liana
zungum ze
Ġwaki omba
Ġwaki ingia
Ġwaki weka
Ġwaki haha
Ġke jeli
Ġwalio taka
Ġwalio fukuzwa
Ġkuu ona
Ġkuu mwa
Ġkum fuata
Ġkum chafua
Ġmaji ji
Ġfe nicha
Ġiliyo fanywa
Ġiliyo patikana
Ġho i
Ġhatu ku
Ġhatu elewi
Ġuta malizika
Ġmwi ba
Ġmwi zi
Ġwao gele
Ġkupi tiwa
Ġmka to
Ġsiku weza
Ġkuli nganisha
Ġkuli jadili
Ġbe nze
Ġkili po
Ġshu ngu
Ġkufu kua
Ġzina eleza
Ġzina tolewa
bari ki
Ġzili patikana
Ġfa mily
Ġje ni
Ġume fanya
Ġume tolewa
Ġume lenga
Ġkuna sa
Ġaliye kufa
amu liwa
Ġto rres
Ġpe op
Ġmtu pu
Ġhaku sema
Ġhaku baliani
Ġmwe ka
uli ka
Ġuli fanywa
de gar
Ġwanao mba
Ġwanao sema
Ġwanao piga
Ġmwana we
Ġg uar
Ġsu nday
Ġsu ltan
Ġru ngwe
Ġmas kani
Ġiki sema
Ġiki pinga
Ġlili fanya
Ġlili kuja
Ġbu nju
Ġleo degar
Ġyana tokea
Ġyana onekana
Ġsha ngwe
Ġsha mbani
yari shaji
Ġkufi chua
kari ri
Ġdo zi
Ġinayo tarajia
Ġinayo lenga
Ġinayo tumiwa
Ġinayo ashiria
Ġkute remka
Ġtume gundua
Ġzilizo tokana
Ġkipi limba
Ġham na
Ġjo na
Ġhai hitaji
Ġhai lingani
Ġata taka
Ġalipo kwenda
Ġalipo fikishwa
Ġlina daiwa
kili shwa
Ġkima rekani
zia na
Ġchu rch
Ġsta shahada
Ġwaku funzi
Ġzinazo onesha
Ġwasi fanye
Ġlu bele
Ġkuzi nduka
ci e
mwa muru
ca ps
Ġkupo rwa
Ġkiwa ndani
Ġfi ore
Ġfi tna
Ġmta siwa
Ġuki soma
Ġyanayo fanyika
Ġmabo vu
Ġvitu ka
Ġkutu ngwa
Ġkutu pilia
Ġkutu mbuiza
Ġyu ssu
Ġnga o
Ġmao ngezi
Ġkucha ngisha
Ġunao onesha
Ġanaye m
Ġanaye takiwa
Ġkuku pa
Ġmatu ta
Ġuha lisia
Ġndu gai
taja diliwa
Ġuga vi
Ġufu kwe
Ġmte tezi
Ġnime zungumza
Ġmar co
Ġmazo ea
Ġab raha
Ġsawa sawa
Ġr ba
Ġkuele kezwa
Ġvu guvu
Ġkuone shwa
Ġnyo roro
Ġkinacho weza
Ġalim fuata
Ġmga we
Ġmga mbo
Ġmako mbe
ran ce
Ġtuli fanya
Ġtuli cheza
Ġkime pata
Ġkime shindwa
dhani wa
Ġalii toa
kata liwa
Ġkumu enzi
Ġkubo molewa
Ġhau ku
Ġkufunga na
Ġwalipo kea
Ġamewa onya
Ġkha tibu
Ġitakayo shiriki
Ġmacho ni
Ġuvu mba
Ġuvu milivu
Ġafrica ns
Ġkuko so
Ġlinalo ongozwa
Ġmanu ngu
Ġmachi nji
Ġwacha nga
Ġlita jwe
Ġwatakao kuwa
Ġste sheni
Ġmla ndizi
Ġmasa we
Ġsama hani
Ġmha dhiri
Ġutumi ke
Ġkuhi timisha
sabu la
Ġkija cho
Ġmja mzito
Ġvinavyo shiriki
Ġinavyo takiwa
Ġkucho ta
Ġvyu oni
Ġuzi o
Ġnika wa
ahidi wa
Ġtakri ban
Ġhaita kubali
Ġkusu sia
Ġwanayo ipata
Ġwahi ndi
Ġalicho kuwa
Ġalicho dai
Ġalicho kifanya
Ġmwai sabula
Ġzima moto
Ġci rkovic
Ġkipe nka
Ġkuke sha
Ġmshi rika
Ġkumwo mbea
nyanya sa
seme kana
Ġmassa nja
Ġsham huna
Ġakim tuhumu
Ġrau l
Ġkhali j
Ġkale nda
Ġdia na
Ġmwenzi e
Ġsungu ra
Ġrai si
Ġala n
Ġkaba mbe
Ġviba nda
Ġkari pio
Ġmina zi
Ġkuwao koa
Ġkujio ngezea
Ġpepe ta
Ġyou ng
Ġmuu guzi
Ġishi ndwe
Ġmaru purupu
Ġtibai gana
Ġwhite caps
Ġnsa nze
Ġray mond
Ġx a
Ġmchu jo
Ġaliyem taja
Ġkumuo a
Ġbada e
Ġsadi ki
Ġliliwa silishwa
Ġmanyanya so
Ġlitakalo fanyika
Ġag nes
Ġmande la
Ġunam fahamu
Ġifu nda
Ġkusali mia
Ġmuongo zo
Ġkilichom sibu
Ġmimosa s
Ġwanafa milia
Ġkujita mbulisha
Ġkashilila h
Ġmgu lani
Ġgau de
Ġtaara b
Ġreco rds
Ġzamale k
Ġeve nt
Ġmoga dishu
Ġyassi n
Ġkughari mia
Ġyakini fu
Ġusema o
Ġuendele zaji
Ġkinyo ngo
sawazi shia
telai ti
Ġvitaka vyo
Ġmegh ji
Ġtran s
Ġkonya gi
Ġwaogele aji
Ġbenze ma
Ġpeop le
Ġlubele je
Ġfiore ntina
Ġyussu f
Ġabraha m
Ġvuguvu gu
Ġmachinji o
a ch
e w
g ri
l m
m za
m sumbua
m kariri
n cha
o di
o tball
t che
v ji
y p
wa omba
wa rt
Ġk k
Ġk df
Ġm ze
Ġm vi
Ġm zoefu
li ng
Ġwa baki
Ġwa bovu
Ġwa chukue
Ġwa dudu
Ġku mb
Ġku mbi
Ġku keti
Ġku semwa
Ġku chukulia
Ġku bweteka
ha lo
ha ngaika
ka tisha
ka gua
Ġna toa
Ġna shukuru
Ġna sso
ni shwa
Ġa nde
Ġa nti
Ġa fikishwe
Ġya ngeweza
ta tua
Ġs p
ma sha
Ġma b
Ġma sumbu
ti ng
ti can
ki we
ki nga
ki el
zi mia
Ġu nge
Ġu vi
Ġu reje
Ġka go
Ġka guo
yo ba
yo mba
Ġi su
Ġi ct
Ġi cc
Ġi chukue
Ġi cu
ku za
ku zi
Ġha kwenda
Ġha rry
Ġha fai
ji weza
ji sikia
we ed
tu u
Ġhi v
Ġhi ll
Ġhi jja
ra l
ra co
Ġki nda
Ġki che
Ġki penzi
Ġki ara
Ġki zembe
Ġki shiwa
Ġali vunja
Ġali chaguliwa
Ġali teuliwa
Ġali gae
Ġali simulia
fa ki
le n
cha l
cha nganyikiwa
pa le
sha pata
mi ri
mi kwa
di di
di ploma
mu du
se re
se mea
Ġkuwa changia
Ġkuwa jenga
Ġkuwa tembelea
Ġkuwa ingiza
Ġkuwa nggoa
Ġkuwa amuru
Ġkuwa vutia
Ġkuwa safirisha
Ġkuwa punguzia
Ġkuwa kinga
Ġta o
shi mba
Ġza ka
Ġni weze
Ġni mea
te ma
te rs
Ġsi ko
Ġsi menti
Ġsi elewi
po ka
po tosha
Ġhu anza
Ġhu taki
Ġn te
Ġn ju
Ġla ana
Ġla zio
Ġba na
Ġba shi
Ġba dra
Ġmi zuri
Ġmi thi
Ġsa telaiti
ko lewa
ko moa
pi ku
pi sho
pi twa
Ġb m
Ġb weni
nda vi
Ġvi za
Ġvi ngu
ho fii
Ġwana kutana
Ġwana hisi
Ġwana jipanga
Ġwana ruhusiwa
Ġwana sumbuliwa
Ġwana nchama
Ġili cha
Ġili tumia
Ġili fanyika
Ġili fafanua
Ġili onyesha
no cent
mo ko
ngo ndo
mb ley
ngu ti
Ġkuto za
Ġkuto toa
Ġkuto shiriki
Ġbwana usi
ndi ko
ju lisha
fi lisi
Ġwali shinda
Ġwali fungwa
Ġwali rejea
Ġwali lalamika
Ġwali uawa
Ġwali sawazisha
Ġwali tibiwa
nge fu
nge nye
Ġmo ris
Ġmo llo
Ġe no
Ġse a
Ġse ngondo
re r
re si
ga ta
ga st
Ġmwa mwa
Ġmwa thirika
go si
Ġja mbia
Ġja rida
Ġzi ka
Ġzi tokana
Ġli e
Ġli ka
Ġli sa
Ġti t
zu oni
Ġbi l
Ġju mba
Ġju stine
pe z
dha titi
Ġana zungumza
Ġana anza
Ġana pewa
Ġana ongoza
Ġana hisi
Ġana sikia
Ġana tafuta
Ġina leta
Ġina jitahidi
Ġina milikiwa
Ġina jivunia
Ġwaka ma
Ġpa r
gu mizi
Ġmu l
Ġmu has
Ġaki shinda
Ġaki rejea
Ġaki kanusha
dhi mishwa
dhi lifu
Ġwe kundu
Ġwe mbley
Ġra h
ge u
ge za
ge dia
Ġpi pa
Ġc c
Ġc lo
Ġc pl
Ġame kana
Ġame baki
Ġame lazimika
Ġame kataa
Ġame ridhika
Ġkua muliwa
Ġkua chishwa
Ġkui ongoza
Ġkui tetea
Ġkui tembelea
Ġkui fundisha
Ġkuo mbea
Ġkuo mbwa
Ġshi vji
Ġf lu
Ġime cheza
Ġime sisitiza
Ġime funga
Ġime thibitisha
Ġime maliza
Ġime beba
Ġime zindua
Ġime fuzu
Ġo na
Ġo limpiki
Ġo zoni
Ġmaa ndiko
Ġwame shika
Ġwame jipanga
Ġwame vamia
Ġwame ahidi
Ġwame itaka
Ġwame niambia
Ġwame sikitishwa
Ġsaba s
pata zo
Ġwata takiwa
Ġwata kuja
mbu kizwa
Ġwaki sisitiza
Ġwaki hofia
Ġwaki imba
Ġkuji vua
Ġkuji rekebisha
Ġkuji furahisha
Ġkuji chimbia
Ġwalio shindwa
Ġwalio anza
Ġwalio kimbia
Ġwalio faulu
Ġwalio nusurika
Ġkum taja
Ġkum pokea
Ġkum linda
Ġkum tuhumu
Ġkum shawishi
Ġkum nasa
Ġkum tukana
Ġmaji taka
Ġfe stus
Ġiliyo cho
Ġiliyo pewa
Ġiliyo kutana
Ġiliyo chunguza
Ġho ssa
bo gast
tia ma
Ġuta husisha
Ġuta sikia
Ġuta punguza
vi a
vi ndavi
Ġmwi ko
Ġwao ngeze
Ġga mbia
Ġga bon
Ġbo ko
Ġita chezwa
Ġnyi gu
Ġmka si
Ġte c
Ġte ngefu
Ġkuli taka
Ġkuli ndwa
Ġkuli eleza
Ġkuli mwa
Ġmara shi
Ġp ra
Ġp ct
be ni
Ġmaba nda
Ġzina tumika
Ġzina toka
Ġzina tofautiana
Ġde r
Ġwo lf
Ġso k
Ġso fia
Ġkuta tanisha
Ġume sha
Ġume thibitisha
Ġaliye shindwa
Ġpe p
Ġhaku toa
Ġhaku taja
Ġtuna ingia
Ġmata masha
Ġhawa paswi
Ġuli kwama
Ġyali jitokeza
Ġyali bainishwa
Ġmaka mishna
Ġmpa na
Ġwanao jua
Ġwanao sadikiwa
Ġj w
Ġsu u
Ġiki dai
Ġiki fika
Ġiki tumiwa
Ġlili toa
Ġlili eleza
Ġlili fika
Ġbu tiama
Ġyana toa
Ġyana hitaji
Ġwaa ndamana
Ġwaa chiwe
Ġsha idi
Ġsha ibu
Ġsha ngazi
raka no
Ġdu wasa
Ġinayo takiwa
Ġinayo tarajiwa
Ġinayo endeshwa
Ġinayo wafanya
va lia
mla umu
Ġkute lekeza
Ġtume kaa
Ġtume ambiwa
Ġata chukua
Ġata weka
Ġalipo fanya
Ġalipo fariki
Ġmfu gaji
Ġmfu muko
Ġlina po
she heni
Ġkima ya
Ġkima zingira
Ġre fa
Ġkura n
Ġmcha mbuzi
Ġwaku bali
Ġaro n
Ġmali ck
Ġusi we
Ġzinazo daiwa
Ġzinazo husika
Ġwasi tumie
Ġyaliyo sababisha
Ġyaliyo sababishwa
Ġyaliyo lipuka
Ġlu sa
Ġkuzi pata
shinda no
ci sion
Ġaka shindwa
Ġzime shindwa
Ġzime tumika
Ġzime fikia
Ġzime salia
mwa gwa
mwa chie
Ġyo no
Ġyo nna
Ġlo pez
ca te
Ġge mu
Ġkupo nya
Ġro ad
ck y
Ġmta ma
Ġmta ngazaji
Ġuki ngoni
Ġar bogast
Ġyanayo ikabili
Ġkutu humiwa
Ġnga no
Ġnga lo
Ġlime sababisha
Ġlime jipanga
lazi z
Ġmao le
Ġmao nyesho
Ġkucha pishwa
Ġuni on
Ġwate ule
misha ji
ngeze wa
Ġanaye penda
Ġkilicho elezwa
Ġkilicho mfanya
Ġuka azi
Ġlililo anza
Ġuha mishaji
Ġndu lu
Ġilivyo fanya
Ġilivyo pangwa
Ġilivyo zoeleka
Ġnina weza
Ġbasi lio
Ġno u
Ġyame kwisha
Ġvina paswa
Ġca g
Ġufu pi
Ġmte i
Ġmbo ga
Ġnime kuja
Ġmar sh
Ġkita nzi
Ġkita endelea
Ġpale pale
Ġuma hiri
Ġat raco
Ġne manja
Ġnu ru
Ġkile vi
Ġin ve
Ġin land
Ġin nocent
Ġalim piga
Ġkuti biwa
Ġmako fi
Ġkiba raka
Ġua gizaji
Ġaliyo i
Ġaliyo fanya
Ġaliyo yapata
vo cate
Ġkushiriki shwa
keza na
Ġkumaliza na
rti um
Ġfo otball
Ġjose pha
Ġmna weza
Ġmse kela
Ġuba kaji
Ġuba dhilifu
Ġlinalo endelea
Ġlinalo weza
Ġaza nia
Ġmtaa la
nyama za
Ġwasio jiweza
gawa nywa
Ġkufa ulu
Ġkuwaa ngalia
Ġupe kuzi
Ġjam meh
Ġkume sababisha
Ġmla wa
Ġmasa a
Ġmasa nja
Ġsama tta
Ġika shindwa
Ġluku ki
Ġhawaku fanya
Ġhawaku takiwa
Ġliki tokea
dio la
hati ka
Ġhaija toa
Ġva tican
Ġimea ndaa
kebi shwa
Ġvinavyo weza
Ġmri thi
Ġabdu laziz
wadi wa
Ġhami d
Ġalivyo fanya
the o
Ġwanapo pata
Ġtuki endelea
Ġzitakazo patikana
Ġmashu huri
rou k
hami shia
Ġalicho eleza
Ġmadi risha
Ġalizo nazo
Ġwanacho takiwa
Ġwalim piga
nufa i
Ġkumwo koa
Ġst re
Ġlya tuu
Ġiti faki
Ġmzi mu
Ġmaria n
Ġkifua ni
Ġmiha yo
Ġuu zwaji
Ġula zaji
Ġdia lo
Ġkuchu kizwa
Ġhawataki wi
Ġnda lah
Ġnda vindavi
Ġvia tu
Ġwaliwa ua
Ġhauja wahi
Ġbri gedia
Ġkupe ndelea
Ġmadhu muni
samba za
Ġkwi sha
Ġmake lle
Ġkuwata hadharisha
Ġkuwata ngazia
Ġad vocate
Ġmase ngi
Ġmgongo lwa
Ġwai tara
Ġan field
Ġalizi taka
Ġanao gopa
Ġwhi ch
Ġsara h
Ġwamea pa
Ġwilb rod
Ġkuzo ro
Ġkushi kwa
Ġanawa fahamu
Ġpre cision
Ġkuru shiana
Ġmtoa no
Ġimeji dhatiti
Ġtimo theo
Ġcar ling
Ġchifu pa
Ġmaru beni
azi mia
Ġalisha wahi
Ġsenti mita
Ġchali gha
Ġalilo fanya
Ġkucheze wa
Ġwar yoba
Ġkuchanga mkia
Ġkuwau miza
Ġkuoko lewa
Ġvalenti ne
Ġmak ka
Ġsadi k
Ġkuchelewe sha
Ġmande u
Ġger rard
jja h
Ġkuwacha raza
Ġmiche weni
Ġsai mon
Ġmusi ba
Ġlama di
Ġlea gue
Ġanto ny
Ġtutaa ngalia
Ġkukari riwa
Ġsem kucha
Ġconso rtium
Ġwashu kiwa
Ġnilisha ngaa
Ġjongo we
Ġkustawi sha
Ġhakija fahamika
Ġlinawa shikilia
Ġmwakyo ma
Ġgoro gosi
Ġwanya ncha
Ġhazito shi
Ġkige ndi
Ġbwa wa
Ġeze kiel
Ġjanja weed
Ġshea rer
Ġgwabi saba
Ġnanga le
Ġvua i
Ġbakh resa
Ġutafu taji
Ġfabia n
Ġkutai fisha
Ġkee nja
Ġps rc
dhulu miwa
Ġfrede rick
Ġmaficho ni
Ġkigu gumizi
Ġwanana chi
Ġguar diola
Ġgaude nce
Ġnasso r
Ġande ngenye
Ġmasumbu ko
Ġkago nji
Ġisu nto
Ġkiara bu
Ġaligae sha
diploma sia
Ġnju ga
Ġmithi li
Ġvingu nguti
Ġmollo imet
Ġmwamwa ja
Ġzitokana zo
Ġhossa m
Ġwolf sburg
Ġwaandamana ji
Ġjosepha t
Ġndalah wa
a tu
b li
c ce
c us
d yu
e eh
f fari
i jua
i ongoza
l be
m my
n je
n zwa
n tongo
o gope
s m
s na
y namo
Ġ tokea
Ġ zui
Ġ fikiria
wa n
na da
Ġm hu
Ġm jenga
Ġm hariri
Ġm dee
Ġm shtuko
li ti
li da
li cha
Ġwa wa
Ġwa kweli
Ġwa ngwe
Ġwa mis
Ġwa badilike
Ġku s
Ġku wi
Ġku ro
Ġku mbana
Ġku hisi
Ġku ngga
Ġku sumbuliwa
Ġku zuiwa
Ġku rithi
Ġku wezeshwa
Ġku endelezwa
Ġku dhulumiwa
ka za
ka bi
ka uti
Ġna a
Ġna ka
Ġna me
Ġna anza
Ġna wasi
Ġna sikia
ni fu
Ġa hu
Ġa ua
Ġa funge
Ġya ha
Ġya jayo
ta mbui
ta sari
ti le
ki zu
zi mwa
Ġu gu
Ġu gi
Ġu kwe
Ġka mi
Ġka lenga
nd y
yo sisi
Ġi one
Ġi fuata
Ġi cheze
ku li
ku fu
ku rani
ku sanywa
Ġha j
ji za
ji kita
hu la
hu nga
si rika
si en
we zo
tu ka
tu saidia
Ġhi lla
Ġhi sani
ra m
ra lia
Ġki chocheo
Ġki diplomasia
Ġali kuta
Ġali changia
Ġali jitokeza
Ġali lalamikia
Ġali zindua
Ġali hukumiwa
Ġali tamka
Ġali kimbizwa
to za
to ry
le te
da y
bi e
sha vin
sha ngiliwa
se sha
Ġkuwa chukua
Ġkuwa onesha
Ġkuwa fanyia
Ġkuwa chagua
Ġkuwa onya
Ġkuwa rudisha
Ġkuwa wakilisha
Ġkuwa changanya
Ġkuwa hamisha
shi fu
Ġni lianza
Ġni lisikia
te ze
te mbea
te gemee
he mbe
Ġsi r
Ġsi lva
Ġhu lka
Ġhu sna
Ġla la
Ġba d
Ġba hi
Ġba kora
Ġmi wa
Ġmi li
Ġmi refu
ko toka
ngi ngi
nga i
Ġvi fu
Ġvi ngo
ho fu
Ġcha mbu
Ġwana anza
Ġwana baki
Ġwana changia
Ġwana uza
Ġili shiriki
Ġili omba
Ġili tajwa
Ġili endeshwa
Ġili ondoka
Ġili fikiwa
wi la
wi ji
Ġkuto pata
Ġkuto tumia
nza na
che mbe
Ġwali amini
Ġwali kubali
Ġwali panga
Ġwali zidi
Ġwali thibitisha
Ġwali iambia
Ġwali hudhuria
Ġe che
Ġe eeh
Ġtu nda
Ġtu kia
Ġtu endelee
go mbana
Ġja phe
Ġli pi
Ġli lo
Ġd ynamo
Ġda nada
Ġda yosisi
Ġti no
ro ba
Ġbi ze
Ġju do
Ġju liana
Ġju isi
Ġana faa
Ġana pinga
Ġana mwachia
Ġina tu
Ġina shinda
Ġina ingia
Ġina lazimika
Ġina fuatilia
Ġina elekea
Ġina tosha
Ġina dhihirisha
Ġina fuatia
Ġwaka tumia
Ġpa nda
gu ni
Ġmu ulize
Ġaki i
Ġaki pewa
Ġme atu
Ġra da
Ġra sirimali
Ġra chel
pu r
Ġt t
Ġt radi
Ġame o
Ġame kuja
Ġame toka
Ġame ongeza
Ġame shangazwa
Ġame ongozana
sh tua
Ġkua pa
Ġkua mbulia
Ġkua mka
Ġkua ngusha
vu ka
Ġkui pe
Ġkui husisha
Ġkui gawa
Ġkui tambua
Ġkui uza
Ġkui laza
Ġkuo ngezea
yu mbi
Ġf ri
Ġime po
Ġime weza
Ġime kwenda
Ġime kamilika
Ġime wasilisha
Ġime ripotiwa
Ġime imarisha
Ġime tupilia
Ġo a
Ġo mba
ria na
mbe r
mbe ba
mbe zi
Ġwame taka
Ġwame wasili
Ġwame gundua
Ġwame kwisha
Ġwame gombana
Ġhata weza
Ġwata ona
Ġwata fikishwa
Ġmbili nyi
Ġwaki ona
Ġwaki pewa
Ġwaki ondoka
Ġwaki tafuta
Ġwaki jadili
Ġwaki kimbia
Ġwaki shangilia
Ġkuji tangaza
Ġkuji chukulia
Ġkuji ondoa
Ġkuji sahau
Ġkuji pima
Ġhali po
Ġwalio kwenda
Ġwalio maliza
Ġwalio itwa
Ġwalio simamishwa
Ġwalio bobea
Ġkuu nganishwa
gi e
gi ka
Ġkum shinikiza
Ġkum shukuru
Ġkum wita
Ġkum dhuru
Ġkum kimbiza
Ġes sien
Ġiliyo cheza
Ġiliyo achwa
Ġho ng
Ġho ts
Ġuna wa
Ġuna daiwa
Ġuna kuja
Ġuna zidi
vi er
Ġwazi di
Ġga li
Ġga dda
Ġbo mani
Ġbo hari
Ġita kuja
Ġita ibuka
Ġita fikisha
Ġita kwaana
Ġmka a
Ġthe one
Ġbe gi
kwa a
Ġkuhu kumiwa
Ġkili endelea
Ġkili mfanya
Ġshu kurani
Ġnyu zi
Ġkufu tiwa
Ġkufu nika
Ġzina kuwa
Ġzina hitaji
Ġzina kwenda
Ġzina zidi
Ġde us
Ġwo sia
Ġfa tma
Ġso cie
Ġje rson
Ġume pata
Ġume pangwa
Ġume gharimu
Ġaliye pewa
Ġaliye onekana
Ġaliye sababisha
Ġaliye jitokeza
Ġaliye jiunga
Ġto ulo
Ġpe po
Ġpe ndo
Ġhaku jua
Ġmwe la
Ġtuna zo
Ġtuna penda
Ġtuna poteza
Ġmata a
Ġkusa bisha
Ġhawa a
Ġuli takiwa
Ġuli ibuka
Ġuli zuka
Ġkuka wa
Ġkuka tika
Ġyali vyo
Ġyali takiwa
Ġyali tolewa
Ġyali daiwa
Ġyali fanywa
Ġucha kavu
Ġwanao toa
Ġwanao ongoza
Ġwanao fanyiwa
Ġg k
Ġru ssia
Ġkupa suka
Ġiki pata
Ġiki daiwa
Ġiki tarajiwa
Ġlili tokana
Ġbu stani
Ġulio nekana
Ġwaa mini
yari sha
Ġkufi dia
Ġkufi chwa
Ġinayo taka
Ġinayo tumia
Ġinayo husika
Ġinayo patikana
va l
Ġkute sa
Ġkute ngewa
Ġtume pata
Ġtume panga
Ġri dhi
Ġhai le
Ġata shinda
Ġata fute
Ġalipo pata
Ġalipo jaribu
Ġlina wezekana
she ki
Ġkima sai
Ġre mtu
Ġfu lsa
Ġchu i
sta l
Ġmcha ka
Ġwaku nga
Ġzinazo fanyika
Ġzinazo ingizwa
pele ke
Ġyaliyo wasilishwa
Ġkuzi toa
Ġpro dyu
Ġaka ona
Ġaka omba
Ġaka sisitiza
mwa ndama
Ġkiu ta
Ġkiu tawala
Ġge t
Ġalio koa
Ġmbe nnah
Ġfi stu
Ġar shavin
Ġyanayo daiwa
Ġyanayo toka
Ġyanayo mkabili
Ġmabo si
Ġkutu mwa
Ġuja ngili
Ġlime tolewa
Ġkule nga
Ġunao tokana
Ġunao tumiwa
Ġanaye jua
Ġkuku sudia
Ġuka ribu
Ġmatu mbo
Ġuha ndisi
Ġuha sibu
Ġndu nguru
Ġnam pongeza
Ġno t
Ġyame tolewa
Ġvina takiwa
Ġnime furahi
Ġdi ckson
Ġwako rofi
Ġisi je
Ġalim womba
Ġmga ya
Ġkuti kisa
Ġmafu pi
Ġua ndaaji
Ġtuli zo
Ġtuli pokuwa
Ġmaju mba
Ġmaju ngu
Ġgo doro
Ġaliyo fikia
Ġfo unda
Ġfo od
Ġvili po
Ġwalipo anza
Ġwalipo kutana
Ġmna takiwa
Ġamewa agiza
Ġkha nga
Ġyata wasaidia
Ġvika ratasi
Ġwafu ngwe
rehe kea
Ġlinalo hitaji
Ġlinalo changia
Ġmanu mba
Ġmag hembe
Ġwasio faa
Ġwatakao fanya
Ġwatakao unda
ndisha ji
wasili she
Ġwaliyo fanya
Ġwaliyo jiwekea
Ġmiti ndo
Ġkara ta
Ġnita hakikisha
Ġam pe
Ġilipo anza
Ġimea nzisha
Ġago mbee
al th
Ġinavyo fanya
Ġmri ndoko
Ġkucho moka
Ġgi ven
Ġnika sema
Ġw ho
kadi r
Ġtuki fanya
Ġtuki pata
Ġprog ram
Ġutakao chezwa
Ġabdul kadir
Ġalizo toa
Ġpu bli
Ġitakapo kutana
Ġitakapo kamilika
Ġsho rt
Ġhaiku fanya
Ġusio kuwa
Ġkuba kwa
Ġtre ika
Ġkumwo ndoa
Ġwakia nza
Ġmatanga lu
Ġkuza lishwa
Ġwanavyo taka
Ġwanazo pata
Ġkiko ngwe
Ġmzi zi
Ġkaga sheki
Ġwalia mbiwa
nyangga nywa
Ġue fa
Ġatakaye kuwa
Ġmana ibu
Ġmwamba o
Ġit v
Ġtundu ru
llo w
Ġnda licha
Ġilia ndika
Ġilia hirisha
Ġnec ta
Ġkuwatu pia
Ġtas wira
Ġms takabali
Ġglo ria
Ġmake ne
Ġwai kizu
Ġbati li
Ġmina ne
Ġimesha toa
Ġuanga lifu
Ġkushi tu
Ġenter pri
Ġmuu zaji
Ġmaya nga
Ġtp c
Ġone sho
Ġteni s
Ġkine si
Ġgiza ni
Ġmabara za
Ġher bert
Ġulia nzishwa
Ġmpu tu
Ġniliwa hi
Ġsou nd
Ġabu bakari
Ġalili taka
Ġhatuja wahi
Ġmusi c
fariji ka
Ġkuju tia
ruhusi we
Ġzube ri
lipi no
Ġkiza ni
Ġmor ris
Ġpoli ce
Ġkushe rehekea
Ġuho lanzi
Ġcon su
Ġkibi nadamu
Ġalite kwa
Ġmumba la
Ġkuanga liwa
Ġwakina mama
Ġukodi shaji
Ġire land
Ġzaina b
Ġkuhami shia
Ġkli niki
Ġtana pa
Ġaust ralia
Ġbur kina
Ġidri sa
Ġitende ke
Ġmuh tasari
Ġkukoso lewa
Ġmze ru
didi mia
Ġzaka ria
Ġbashi r
Ġrah co
Ġlusa hunga
Ġzui o
Ġmhu dumu
Ġwamis ri
kabi liana
Ġugu nduzi
Ġugi riki
Ġukwe paji
Ġifuata vyo
Ġhilla ry
Ġvingo zi
Ġchambu so
Ġjaphe t
Ġdanada na
Ġtradi ng
Ġhots pur
Ġgadda fi
Ġsocie dad
Ġtoulo use
Ġprodyu za
Ġfistu la
Ġfounda tion
Ġndalicha ko
c la
e f
f fe
f dia
g ra
g ga
g uaji
i ra
i land
i kumba
k t
k y
l kia
m fu
m lo
m husu
m kamata
r si
s va
t su
v yulu
x on
z ya
Ġ fanye
Ġk w
Ġk yi
na wa
Ġm w
Ġm ni
Ġm mo
Ġm mea
li fanya
li ngana
li tolea
Ġwa l
Ġwa cheza
Ġwa ria
Ġwa toke
Ġwa lewa
Ġwa co
Ġwa endesha
Ġwa pelelezi
Ġwa semaji
Ġwa jukuu
Ġwa kutane
Ġku ridhi
Ġku kubaliwa
Ġku dhoofisha
Ġku fadhiliwa
Ġku nyangganywa
Ġku didimia
ha resa
Ġna endelea
Ġna fta
Ġna kwambia
Ġna tumaini
ni la
hi sha
hi mili
Ġa yo
Ġa mu
Ġa hiri
Ġa subiri
Ġa ishi
Ġa cheze
Ġa fike
Ġa ddy
Ġa samehe
Ġa jiandae
Ġa chilia
Ġa shindwe
Ġya taanza
Ġya kiongezeka
ta r
ta he
ta kia
ta sse
ba a
ba kwa
ba nguka
Ġs g
Ġs kimu
ma ro
Ġma ro
Ġma taka
Ġma bwa
Ġma ridhi
Ġma tongo
Ġma llya
ri ol
ki nde
la ndo
la swa
zi ke
Ġu nye
Ġu tia
Ġu chukua
Ġu kika
Ġu chwa
Ġu nyu
Ġu wezesha
Ġu ngeweza
Ġu hifadhi
Ġu wakili
Ġu fike
Ġka sema
Ġka mo
Ġka wo
yo o
Ġi ji
Ġi ngeweza
Ġi tumie
Ġi tolewe
Ġi mwachie
Ġha p
Ġha amini
Ġha elewi
ji bishwa
ji shughulisha
si tiza
si tishwa
we le
tu letea
ra we
ra zo
ra nga
ra nyi
ra tisha
Ġki to
Ġki wi
Ġki fi
Ġki pata
Ġki zungu
Ġki shu
Ġki vya
Ġki gundu
Ġki onekane
Ġki oski
Ġki miti
Ġali badili
Ġali tajwa
Ġali lazwa
Ġali gundua
Ġali kabidhi
Ġali niambia
Ġali jitambulisha
Ġali chelewa
Ġali toweka
fa ru
fa idika
da r
bi t
bi tiwa
sa mu
cha ne
cha ngwa
sha na
mi ze
di shi
mu nya
se ke
Ġkuwa la
Ġkuwa shauri
Ġkuwa unga
Ġkuwa pokea
Ġkuwa chapa
Ġkuwa tishia
Ġkuwa hakikishia
Ġkuwa jeruhi
Ġkuwa rejesha
Ġkuwa nyanyasa
Ġkuwa jibishwa
ke s
Ġza mza
Ġni cho
Ġni ende
te re
Ġsi po
Ġsi zini
Ġsi kinde
Ġhu tolewa
Ġhu changia
Ġhu fariki
Ġhu kaa
Ġn el
Ġba te
ne za
Ġmi nde
Ġmi gi
Ġmi ssa
Ġmi sikiti
Ġmi raji
Ġmi tsu
Ġsa nga
Ġsa kina
Ġsa ffari
nda wili
Ġvi vyo
Ġvi tokana
Ġvi chocheo
Ġvi nyago
Ġvi rgi
Ġvi ew
Ġvi faru
ho go
Ġcha ngo
Ġcha nila
Ġwana tu
Ġwana ye
Ġwana shitakiwa
Ġwana tokea
Ġwana chukua
Ġwana piga
Ġwana weka
Ġwana endesha
Ġwana fahamu
Ġwana ripoti
Ġwana fikishwa
Ġili lala
Ġili chukua
Ġili wasili
Ġili bainisha
Ġili itaka
Ġili zua
Ġili kwama
Ġili gundulika
Ġili shindikana
mo nyo
mo ud
lo us
wi shika
ngu ni
ngu kia
Ġkuto m
Ġkuto kwa
Ġkuto fauti
Ġkuto patikana
Ġkuto ruhusu
Ġkuto safiri
ndi ns
fi dhi
che zi
Ġwali sababisha
Ġwali jipanga
Ġwali tembelea
Ġwali saini
Ġwali ungana
Ġwali pigana
ru zi
ru puka
ru wasa
Ġmo ruwasa
Ġe da
Ġse ke
Ġse gera
Ġse bas
Ġse rie
Ġse lous
re no
ga bo
Ġtu nu
Ġtu taji
Ġtu taja
Ġmwa ma
Ġmwa sota
Ġmwa munya
Ġzi gi
Ġzi liwa
Ġzi wani
Ġzi ngeweza
Ġli banguka
Ġd ho
Ġda n
Ġda y
Ġda vo
Ġti c
ro bi
ro ndins
je e
je ngi
pe rs
Ġmku kuta
cho i
Ġana ingia
Ġana lazimika
Ġana lalamika
Ġana tambua
Ġana ungana
Ġana shauriwa
Ġina shiriki
Ġina tokea
Ġina rudi
Ġina husika
Ġina miliki
Ġina ibuka
Ġina tafuta
Ġina mfanya
Ġina wataka
chu kuwa
Ġwaka shindwa
Ġwaka amua
Ġpa tasse
Ġmu so
Ġmu nse
Ġmu yomba
Ġmu vyulu
Ġaki a
Ġaki tuhumiwa
Ġaki itaka
Ġaki malizia
Ġaki ichezea
Ġaki saidiwa
dhi bitiwa
Ġnchi mbi
Ġwi gan
Ġwe pesi
Ġme r
Ġme dia
Ġme xi
Ġme ela
Ġra ge
Ġra simu
pu li
Ġpi lau
Ġwatu mia
Ġt dl
Ġt sva
Ġame ona
Ġame chukua
Ġame shinda
Ġame onekana
Ġame enda
Ġame shika
Ġame rejea
Ġame pigwa
Ġame maliza
Ġame jeruhiwa
Ġame kanusha
Ġame nusurika
Ġame pachika
sh taki
Ġkua pishwa
Ġko ng
Ġko to
Ġko ngs
Ġkui vunja
Ġkui laumu
Ġkui marishwa
Ġkuo ta
Ġkuo za
Ġkuo sha
Ġkuo ana
Ġkuo polewa
Ġkuo ngezewa
Ġshi na
Ġime tumia
Ġime changia
Ġime wasili
Ġime unda
Ġime kiuka
Ġo da
ria ni
mbe ro
nde nga
Ġwame baini
Ġwame shauri
Ġwame unga
Ġwame enda
Ġwame fungwa
Ġwame ruhusiwa
Ġhata kuwa
Ġwata chukua
Ġwata weka
Ġwata wala
Ġwata tajwa
Ġmbali zi
mbu lio
Ġwaki enda
Ġwaki lazimika
Ġwaki rejea
Ġwaki kaa
Ġwaki tuhumiwa
Ġwaki lalamikia
Ġkuji jengea
Ġkuji tahidi
Ġkuji milikisha
nu s
Ġwalio pa
Ġwalio pita
Ġwalio piga
Ġwalio onekana
Ġwalio weka
Ġwalio fikishwa
Ġwalio tembelea
Ġwalio hojiwa
Ġwalio tangulia
Ġwalio jiandikisha
Ġwalio hamishwa
Ġkuu taka
Ġkuu nawa
zwa gi
Ġkum tembelea
Ġkum sikiliza
Ġkum tishia
Ġkum pisha
Ġkum pitisha
Ġmaji gambo
Ġle so
Ġle bo
Ġfe sto
Ġfe dhe
Ġiliyo m
so cia
Ġuna toka
Ġuna changia
Ġhatu po
tia l
Ġuta kwenda
Ġuta patikana
Ġuta husu
Ġuta wawezesha
vi lle
vi nger
kwe a
Ġye meni
nya geni
jili sti
Ġita onekana
Ġita amua
Ġita tumika
Ġita lazimika
Ġita zidi
Ġita fahamika
Ġita gharamia
Ġita umana
Ġmka ngo
Ġmka nyageni
Ġte ri
Ġkuli tumia
Ġkuli tekeleza
Ġkuli tumikia
Ġbe twe
lisi sitiza
Ġp te
Ġkutoa ndikwa
Ġnyu mbu
Ġbara ck
Ġmaba lozi
Ġzina fanywa
Ġzina tarajia
Ġzina patikana
Ġde bre
Ġzili sababisha
Ġmasha iri
Ġmasha ngingi
Ġfa so
Ġfa taki
Ġso lo
Ġkuta kuwepo
Ġkuta mbuliwa
Ġume saidia
Ġume jaa
Ġume bainisha
Ġkuna kuwa
Ġkuna kuwepo
Ġaliye toa
Ġaliye shika
Ġaliye lazwa
Ġaliye jeruhiwa
Ġto wn
Ġpe rsi
Ġhaku stahili
Ġmwe nzetu
Ġtuna kuwa
Ġtuna shindwa
Ġtuna sisitiza
Ġtuna fahamu
Ġtuna angalia
Ġtuna sikitika
mini ka
Ġzo la
Ġmata iri
Ġhawa ji
Ġhawa julikani
Ġhawa toi
Ġhawa pewi
Ġuli ngo
Ġuli iambia
Ġkuka ndamiza
Ġyali endelea
Ġyali kamatwa
Ġyali kuwepo
Ġmaka ta
Ġmaka bra
Ġmpa ngaji
de ni
Ġwanao endesha
Ġwanao unda
Ġwanao shikiliwa
Ġwanao aminika
Ġmwana jeshi
Ġmwana dada
Ġmwana langa
dili ka
Ġsu pers
Ġru th
Ġru ninga
bisha niwa
Ġiki sisitiza
Ġiki elezwa
Ġmsa maria
Ġlili fanyika
Ġlili shuhudia
Ġbu mbuli
Ġbu zwagi
Ġulio baki
Ġulio fuata
Ġulio andaliwa
Ġyana sababishwa
Ġngu za
Ġsha vu
Ġsha mbulio
Ġdu bai
Ġinayo onekana
Ġinayo zalisha
Ġinayo onesha
Ġinayo julikana
Ġinayo zua
Ġkusi fia
va la
mla lami
Ġkute ngenezwa
Ġkute nguliwa
Ġkute ndeka
Ġtume cheza
Ġkina sababisha
Ġal bert
Ġal pha
Ġzilizo mo
Ġzilizo shiriki
Ġzilizo tumika
Ġzilizo kutwa
Ġham za
Ġjo ha
Ġhai husiki
Ġhai dar
Ġute guaji
Ġata pewa
Ġata wasili
uti cal
Ġalipo sikia
Ġalipo tafutwa
Ġakiwa hutubia
Ġlina fanya
Ġlina changiwa
Ġas socia
fiki she
ve wa
Ġnya tahe
Ġnya gabo
ce n
ce utical
Ġchu nusi
Ġaliwa onya
sta di
Ġnjia panda
Ġzinazo toa
Ġzinazo tokea
Ġzinazo tarajiwa
Ġzinazo patikana
Ġzinazo mwandama
Ġwasi faulu
Ġyaliyo salia
Ġlu ndo
Ġlu ndenga
Ġdha hama
Ġkuzi saidia
Ġmpaka ni
Ġaka kubali
Ġaka ibuka
Ġzime o
Ġzime takiwa
Ġkiu chezaji
Ġmada ftari
Ġalio ngezea
ngira i
Ġkupo kezana
Ġfi d
Ġfi ve
Ġche mbe
Ġche geni
Ġuki sema
Ġuki jua
Ġhaya ko
Ġyanayo tumiwa
Ġmabo ma
Ġvitu oni
Ġkutu o
Ġkutu saidia
fo a
Ġvita kuwa
Ġlime pata
Ġlime chukua
Ġlime onesha
Ġlime zidi
Ġkufua ti
Ġkufua twa
kati ka
Ġprofe ssa
Ġanaye dai
Ġanaye kubalika
Ġanaye sadikiwa
Ġkuku saidia
Ġkuku mbana
Ġkuku rupuka
Ġkilicho ko
Ġkilicho pita
reje shwe
Ġuka li
Ġwapi ge
Ġndu llu
Ġnina wa
Ġnam heshimu
Ġshiriki shi
Ġno ra
Ġyame fikia
Ġuga li
Ġmte y
Ġnime soma
Ġnime pokea
Ġmar tha
Ġkita fanya
Ġdi mba
Ġr c
Ġnu jo
Ġnyo so
Ġnyo robi
Ġkile ma
Ġtuta cheza
Ġin ji
Ġalim kuta
Ġalim pongeza
Ġmga ndo
Ġkuti shiwa
Ġupi nzania
Ġkiba be
Ġhaja fanya
Ġhaja pata
Ġkime ra
Ġkime toa
Ġed gar
Ġed uar
Ġgo od
Ġzita fungwa
Ġkisha wishi
Ġalii tisha
vo ti
Ġkumu eleza
Ġuko mavu
Ġmiguu ni
Ġtha iland
Ġtha bit
Ġwawe ke
Ġfo ster
lea n
Ġmna ra
Ġvipi go
Ġziki toa
Ġmabe gi
Ġkuko peshwa
Ġkilo mbero
Ġkilo voti
Ġaji unge
Ġlinalo onesha
Ġmai li
Ġwau zwe
Ġwaha fidhi
Ġupe mbuzi
Ġkume tokana
Ġste la
Ġste ndi
Ġkiti lya
Ġbar cla
Ġmla y
Ġmla ngoni
Ġkuya patia
Ġmasa nduku
Ġwaliyo pewa
Ġmha sibu
Ġkumwa ndikia
Ġliki endeshwa
ondoka ne
Ġwapa nde
Ġwapa tiwe
waji bisha
Ġkite ndawili
Ġvinavyo takiwa
Ġyasiyo ruhusiwa
Ġinavyo onekana
Ġfer re
Ġkucho shwa
Ġmsu mari
lwa nde
ud s
Ġtra fiki
Ġtra ders
Ġgi re
Ġgi rondins
Ġmacha me
Ġvime tawala
Ġlab riol
Ġkia frika
Ġukumbi ni
Ġhaita sita
Ġzitakazo fanyika
pende za
Ġhawata weza
Ġmashu ka
Ġmashu jaa
Ġbihara mlo
Ġkulia ndama
Ġkugo mea
Ġalizo pata
Ġpu fdia
Ġitakapo toa
Ġitakapo malizika
Ġkie mba
Ġhaiku weza
Ġgoli ni
Ġushiriki shwaji
Ġuo ga
Ġnawa b
Ġwakia mua
Ġkuza gaa
Ġwanavyo dai
gen cy
Ġanapo kosea
Ġwanam shikilia
Ġlya ssa
den tial
Ġben z
Ġmwamba laswa
Ġkivu li
Ġhara re
Ġhavi wezi
Ġflo rence
Ġnilipo pata
Ġnilipo fika
Ġkuwapo ra
Ġanaji pendekeza
Ġsam puli
Ġkwi mba
Ġjapa ni
Ġmpiga chapa
Ġkicha ka
Ġalizi kwa
Ġkuvaa na
Ġsara fu
Ġkuwaka ndamiza
Ġjane th
Ġkupu mua
Ġdua ra
Ġimesha anza
Ġkiwe lu
Ġkiga ila
Ġmasikio ni
Ġisa ck
Ġkiki endelea
Ġanam fahamu
Ġkuwahi miza
Ġpre side
Ġmakwa lu
Ġukio ndoa
Ġtuliyo nayo
Ġnilia mua
Ġthi e
Ġor ji
Ġyalio nekana
Ġniwa ambie
Ġmuni shi
Ġkutawa nya
leti c
Ġtami mu
Ġmchu mba
Ġmachu ngwa
Ġmachu vewa
Ġmah moud
Ġkuwau zia
Ġkupandi kizwa
Ġluha mba
Ġkuoko ta
Ġhatuta kubali
Ġkumui ta
Ġkumui ngiza
Ġwalii ba
Ġtuone shwe
Ġkarim jee
ene za
Ġngwe nya
Ġlama da
Ġmio nzi
Ġkya ruzi
Ġwalioa ndikishwa
Ġlugo nzo
ruhusi wi
Ġkuchapa na
Ġspa so
Ġkimo lo
Ġvite ga
Ġmuham mad
Ġkunyanya swa
Ġianzi shwe
Ġeri c
Ġupoto shaji
Ġutoto ni
tekele ze
Ġdhu luma
Ġkujiko mboa
Ġmbwe mbwe
Ġkurubuni wa
Ġkushtu kiza
Ġmizi zi
Ġjusti n
Ġsombe tini
Ġpharma ceutical
Ġsylve ster
Ġfle tche
Ġkulipu liwa
Ġmlipa kodi
Ġbak haresa
Ġkumwi ngiza
Ġiliyoa nguka
Ġmwin jilisti
Ġdungu maro
Ġresi dential
Ġcoro lla
Ġath letic
Ġkalo u
nyeme lewa
Ġmuhidi n
Ġjeni sta
Ġkk kt
Ġbm t
Ġclo uds
Ġnyigu lila
Ġkuro poka
Ġahu eni
Ġyaha ya
Ġfanye ni
Ġmni geria
Ġmmo monyo
Ġwaria lwande
Ġwalewa le
Ġwaco moro
Ġayo ub
Ġahiri sho
Ġasamehe we
Ġmabwa wa
Ġmaridhi ano
Ġutia ji
Ġuchukua ji
Ġuchwa ra
Ġunyu mba
Ġuwezesha ji
Ġkamo te
Ġkawo go
ranyi razo
Ġkishu jaa
Ġkivya ke
Ġkigundu la
Ġzamza m
Ġnel son
Ġmigi ngo
Ġmissa nga
Ġmitsu bi
Ġvitokana vyo
Ġvirgi nia
Ġkutofauti sha
Ġsebas tian
Ġmwamunya nge
Ġzigi ranyirazo
Ġdavo odi
Ġmuso nye
Ġmunse ri
Ġtsva ngirai
Ġkongs vinger
Ġleso tho
Ġfedhe ha
Ġdebre cen
Ġpersi e
Ġmakabra sha
Ġsupers port
mlalami kia
Ġnyagabo na
Ġnujo ma
Ġeduar do
Ġwahafidhi na
Ġbarcla ys
Ġlabriol le
Ġpreside nt
Ġfletche r
Ġmmomonyo ko
a rs
a chiwa
b by
b bie
c ca
c tion
f fi
i ba
i sa
i gizaji
k shi
m shinda
n son
n jwe
o nyeshwa
p pa
p ro
s k
s ka
u ze
u onesha
Ġ fan
Ġ pungu
Ġ ngga
Ġ elewa
wa pi
Ġk ri
na vyo
na swa
Ġm sema
Ġm gi
Ġm tibu
Ġm chuano
Ġm shanga
Ġwa su
Ġwa lala
Ġwa ingie
Ġku ho
Ġku lio
Ġku shauriwa
Ġku lalamikiwa
Ġku zoea
Ġku dondo
Ġku dhuru
Ġku pelekewa
Ġku binafsi
ka yi
Ġna pata
Ġna nya
Ġna lazimika
ni o
Ġa di
Ġa ne
Ġa sh
Ġa sisitiza
Ġa jue
Ġa ongeze
Ġa sante
Ġya tokee
ta l
ta nga
Ġs se
Ġma lo
Ġma bisha
Ġma lai
ti ndo
ti kio
la di
Ġu su
Ġu bwa
Ġu hari
Ġu chukue
Ġu malizia
Ġka u
Ġka we
Ġka goma
Ġka kola
Ġi lo
Ġi ze
Ġi ruhusu
Ġi fikie
Ġi ramba
Ġha ri
Ġha lai
Ġha nzu
si fia
si mikwa
Ġhi s
Ġhi chi
Ġhi yari
Ġhi gh
Ġhi rizi
ra h
ra nsi
ra em
Ġki toto
Ġki chama
Ġki nywa
Ġali unga
Ġali amini
Ġali tarajiwa
Ġali shuka
Ġali toroka
Ġali ishukuru
to ria
le d
bi ye
sa kama
cha ngi
Ġv ladi
di ja
Ġkuwa ongoza
Ġkuwa kata
Ġkuwa maliza
Ġkuwa sajili
Ġkuwa hifadhi
Ġkuwa tendea
Ġkuwa hadharisha
Ġkuwa nusuru
Ġkuwa laumu
Ġkuwa jali
Ġkuwa timua
Ġta li
Ġta mbo
Ġta zara
Ġta ndika
Ġta maduni
te sa
te ria
Ġsi ha
Ġsi mko
Ġhu shindwa
Ġhu jitokeza
Ġhu ll
Ġhu tumiwa
Ġn ende
Ġba ka
ne la
Ġmi ru
Ġmi ro
Ġmi gumu
Ġmi ning
Ġmi kiki
Ġsa r
ko zi
Ġb rian
nda rasi
nga la
nga miza
Ġcha no
Ġcha mele
Ġwana li
Ġwana ngu
Ġwana lala
Ġwana shirikiana
Ġwana kaa
Ġwana kwamisha
Ġwana hofia
Ġwana patiwa
Ġili sha
Ġili jibu
Ġili kubali
Ġili kua
Ġili ahidi
Ġili wasilishwa
Ġili wasilisha
Ġili kiuka
Ġili anzia
lo lo
Ġkuto endelea
Ġkuto chukuliwa
Ġkuto fuata
Ġkuto rudia
Ġkuto chapishwa
ndi ndi
ndi kwe
Ġwali sha
Ġwali tarajiwa
Ġwali badili
Ġwali fungua
Ġwali wasili
Ġwali jaribu
Ġwali gundua
Ġwali shangazwa
Ġwali ahidi
Ġwali ifunga
Ġwali anzisha
nge li
Ġmo x
Ġe bby
Ġse ma
Ġse kayi
ga li
ga nga
Ġtu kubali
Ġtu ondo
Ġtu ngekuwa
Ġtu jenge
Ġtu ngependa
Ġtu kutane
Ġtu shirikiane
Ġmwa sika
Ġkama la
Ġja wa
Ġja vier
Ġzi to
Ġzi kio
Ġzi nduka
Ġzi patazo
Ġli a
Ġd na
Ġd rea
Ġda i
Ġda mas
je t
Ġbi g
dha lili
Ġana enda
Ġana soma
Ġana dhani
Ġana onyesha
Ġana lipa
Ġana elezea
Ġana pambana
Ġana wajibika
Ġana sikitishwa
Ġana jali
Ġina fanyika
Ġina tumika
Ġina poteza
Ġina mtaka
Ġina tekeleza
Ġina changiwa
Ġina aminika
Ġhuo nekana
Ġwaka ndarasi
Ġpa t
Ġaki hoji
Ġaki amini
Ġaki taja
Ġaki ongoza
Ġaki tajwa
Ġaki ondoka
Ġaki mtaka
Ġaki ongozana
Ġme tho
Ġra nchi
ge d
ge sho
Ġpi ga
Ġc d
Ġc ska
Ġt h
Ġame tokea
Ġame kata
Ġame ondoka
Ġame chaguliwa
Ġame teuliwa
Ġame zitaka
Ġkua jili
Ġkua inisha
Ġkua miniana
Ġko ffi
Ġkui rudisha
Ġkuo ga
Ġf ransi
Ġime kutana
Ġime kata
Ġime kaa
Ġime jaa
Ġime jiandaa
Ġime tinga
Ġime zipata
Ġo p
Ġwame tumia
Ġwame fika
Ġwame lazimika
Ġwame goma
Ġwame lipwa
Ġwame shangazwa
Ġwame tishia
Ġwame gawanyika
lu la
Ġwata shindwa
Ġwata panda
Ġwata jitahidi
Ġwata pambana
Ġwata nufaika
Ġndi e
Ġndi zi
Ġmko pi
mbu ra
Ġmaha dhi
Ġwaki i
Ġwaki chukua
Ġwaki jitokeza
Ġwaki safiri
Ġwaki itumia
Ġkuji tambua
Ġkuji nadi
Ġkuji nyonga
Ġkuji nyakulia
nu shwa
Ġhali wezekani
Ġwalio omba
Ġwalio pigwa
Ġwalio kimbilia
Ġwalio hitimu
nja ji
Ġkuu zima
Ġkuu tangaza
Ġkum zika
Ġkum kabidhi
Ġkum nusuru
Ġkum timua
Ġkum fungulia
Ġkum taarifu
Ġkum nyangganya
Ġkum potosha
Ġkum komoa
Ġiliyo kwenda
Ġiliyo wafanya
Ġiliyo jengwa
Ġiliyo salia
Ġho ngo
Ġho dari
Ġuna cho
Ġuna toa
Ġuna kwenda
Ġuna hisi
Ġuna endeshwa
Ġuna sababishwa
bo a
Ġhatu oni
Ġuta mu
Ġuta pata
Ġuta baki
Ġuta fanikiwa
Ġmwi nuka
Ġmwi tikio
ini ng
Ġwao ga
Ġwao ndoka
Ġga ry
Ġbo ma
Ġbo bi
Ġkupi ndisha
Ġita taka
Ġita shindwa
Ġita ona
Ġita ongozwa
Ġita gharimu
Ġnyi nyi
kta ba
Ġmka ba
Ġthe lu
Ġte mba
Ġkuli saidia
Ġkuli endesha
Ġkuli fikisha
Ġbe no
Ġp si
Ġp ele
kwa ru
Ġkili ma
Ġkili dai
Ġzina a
Ġzina toa
Ġzina tumia
Ġde bbie
Ġzili ki
Ġzili tawala
Ġfa me
Ġfa rm
Ġkuta fu
Ġkuta nda
Ġkuta fiti
Ġkuta yarisha
Ġume toa
Ġume isha
Ġume fanywa
Ġume ibuka
Ġume malizika
Ġaliye fanya
Ġaliye piga
Ġaliye kuwepo
Ġaliye julikana
Ġaliye pokea
amu e
Ġhaku husika
Ġmashi mo
Ġmwe usi
Ġtuna iomba
Ġtuna shukuru
Ġtuna ishukuru
Ġhawa m
Ġuli wekwa
Ġkuka u
Ġyali sababisha
Ġmaka mo
de l
de on
Ġucha paji
Ġwanao endelea
Ġwanao nyesha
Ġwanao ingia
Ġwanao tarajiwa
Ġwanao miliki
Ġwanao tajwa
Ġwanao fundisha
Ġmwana ye
Ġmwana miti
Ġmchezo ni
Ġj hiko
Ġhaki kisha
Ġg wari
Ġg wiji
Ġsu r
Ġsu biri
Ġkupa a
Ġiki eleza
Ġiki shiriki
Ġiki hitaji
Ġiki enda
Ġiki endesha
Ġiki subiri
Ġiki jiandaa
Ġmsa lala
Ġlili patikana
Ġlili mkariri
Ġhapa swi
Ġbu ra
Ġmgo ngoni
Ġulio jaa
Ġulio fikiwa
Ġyana enda
Ġyana fanywa
Ġdu ru
Ġdu kani
Ġdu lly
shu shwa
Ġinayo anza
Ġinayo zungumzia
Ġinayo sikilizwa
Ġkab ongo
Ġkusi ndikiza
va e
mla zi
Ġtume weza
Ġtume piga
Ġtume weka
Ġtume fanikiwa
Ġtume poteza
Ġkina fanyika
Ġkina onesha
Ġkina tarajiwa
Ġmae gesho
Ġal l
Ġal len
Ġzilizo tokea
Ġzilizo wahi
Ġzilizo kuwepo
Ġzilizo mfanya
Ġham jui
lala ma
Ġata cheza
Ġata shindwa
Ġata chukuliwa
Ġata wasilisha
Ġalipo amua
Ġalipo tembelea
kili zaji
Ġhe y
tara ji
Ġkima shindano
Ġnya ndindi
Ġfu kwe
Ġfu ll
Ġchu ngwa
Ġaliwa asa
Ġaliwa siliana
Ġkura sa
Ġsaa lam
Ġzinazo ongoza
Ġzinazo tumiwa
Ġzinazo hitajika
pungu ze
Ġmaana ni
Ġlu saka
Ġkuzi pa
Ġkuzi weka
Ġkuzi uza
Ġkuzi rai
Ġaka m
Ġaka jibu
Ġaka onekana
Ġaka enda
Ġaka toka
Ġaka kaa
Ġzime sema
Ġzime toka
Ġzime wekwa
Ġzime kwisha
Ġzime tengwa
mwa giza
Ġkika wa
Ġmada ta
Ġalio kolewa
Ġro we
Ġco co
Ġndo o
Ġfi ni
Ġmre no
Ġar thu
Ġhaya to
Ġhaya endi
Ġhaya endani
Ġyanayo takiwa
Ġyanayo ingia
Ġyanayo tarajiwa
Ġyanayo sababishwa
Ġkutu kana
Ġkutu maini
Ġyu mo
Ġkuki fanyia
Ġuja zaji
Ġlime onekana
Ġlime ingia
Ġlime kwisha
Ġmapa fu
faha misha
Ġkufua tiwa
Ġnili rudi
Ġnili tegemea
Ġkule a
Ġmti ro
Ġmti riri
Ġunao sababisha
Ġanaye fanya
Ġanaye paswa
Ġkuvu liwa
man n
Ġuka diriaji
Ġwapi nga
Ġyame kuja
Ġyame jaa
Ġca ll
Ġca ps
Ġca therine
Ġmar ch
Ġdi pri
Ġkupungu zwa
Ġkupungu ziwa
Ġkusima miwa
Ġat la
Ġne story
Ġnyo ka
Ġtuta zungumza
Ġtuta weka
Ġtuta pambana
Ġisi ngekuwa
Ġmako vu
Ġkiba oni
Ġtuli taka
Ġtuli pata
Ġmicha kato
Ġkime i
Ġkime panga
Ġgo ngo
Ġzita wekwa
Ġzita uzwa
nt sy
Ġalii sawazishia
Ġkumu uza
Ġkisa i
Ġkisa nduku
dhu rio
Ġkim tindo
ngwe a
nze nu
Ġhau takuwa
Ġvili eleza
Ġmis sion
Ġkha dija
Ġyata saidia
Ġitakayo weza
Ġitakayo wasaidia
Ġuvu njaji
Ġziki fanya
Ġziki tolewa
Ġziki elekezwa
Ġmabe re
Ġlinalo daiwa
Ġlinalo kwamisha
Ġlinalo milikiwa
Ġwau za
Ġwau ngwana
Ġwasio fahamika
Ġalihoji wa
Ġwaha sibu
Ġwatakao kwenda
niki zwa
ili ka
Ġkuya fanya
Ġasi je
Ġmila ngoni
Ġkuso mea
Ġvilivyo chukuliwa
Ġkusha mbuliana
Ġkara shani
Ġmha lifu
Ġmha zini
Ġhawaku pewa
Ġkuche ka
Ġalia cha
bidhi wa
Ġmahu dhurio
Ġilipo cheza
Ġilipo pata
Ġufa ulu
Ġmate ke
Ġmate mbezi
Ġinavyo elezwa
ifu ngia
Ġtra ining
timu liwa
Ġchri stina
Ġgi deon
Ġmacha no
Ġmacha pisho
Ġnika ona
Ġnika enda
Ġwaza miaji
Ġw he
Ġzitaka po
Ġazi zi
Ġmvu lana
saha ulika
Ġwalivyo navyo
Ġhaita weza
the rn
lie ni
Ġkusu ka
Ġalicho ki
jadili we
Ġkugo mbana
Ġmli kuwa
Ġanga lieni
Ġukia cha
Ġukia chilia
Ġkiji ko
Ġwasa fi
Ġwanacho ki
Ġwanacho hitaji
Ġkie v
Ġinapo fika
Ġange penda
Ġmsitu ni
Ġniki sema
Ġnawa ambia
Ġnawa hakikishia
Ġwakia cha
raji i
Ġwalicho kuwa
Ġanapo kwenda
Ġmhi liwa
danganyi ki
Ġtuka e
Ġabo ud
Ġmashe tani
Ġmana ged
Ġushu huda
Ġkuvi taka
Ġkuvi tumia
Ġula ji
Ġkuchu ja
Ġnda bila
Ġmagu nia
Ġinawa fikia
Ġraza k
safi ria
Ġkipo lisi
Ġwaliwa eleza
Ġpetro jet
Ġkupe ndwa
Ġkupe ana
Ġkunufa isha
Ġwaji nga
Ġanao ngea
nunu lia
Ġaugusti ne
Ġnaku shauri
Ġnaku hakikishia
Ġlaw rance
Ġini esta
Ġjane t
Ġlisi lokuwa
Ġkiga nja
Ġyou th
Ġinterna tion
Ġpre toria
Ġimeji wekea
Ġsto o
Ġnico las
Ġhafi dh
Ġkusaba bi
Ġeph raem
Ġwachu mba
Ġyalio nesha
Ġjama l
Ġanavyo taka
Ġmah susi
Ġvisa nduku
Ġsou thern
Ġnd lovu
Ġalipa chika
Ġag rey
Ġmode sta
Ġwam pe
Ġchampion s
Ġaga pe
Ġanto nio
Ġwanaowa nia
Ġhaitaki wi
Ġnimewa ambia
Ġmajukwa a
Ġmuham med
Ġcount ry
Ġniliyo nayo
Ġspo nso
Ġuwa ziri
Ġmwako sya
Ġyamea ndaliwa
Ġil hali
Ġihe lele
Ġkujipe ndelea
Ġque ns
Ġrua ngwa
Ġkuzu ilika
Ġkissa si
Ġlai zer
Ġmiu jiza
Ġpaki stan
Ġakio rodhesha
Ġoce an
Ġhelko pta
Ġkufuru kuta
Ġkassia n
Ġaone she
Ġagusti no
gri i
Ġureje shaji
Ġnimea mbiwa
Ġstre et
Ġnaka gawa
Ġnawasi hi
Ġremtu llah
Ġwanaye mtaka
Ġassocia tion
Ġpungu zo
Ġmtibu che
Ġnanya ro
Ġane lka
Ġsse ntongo
Ġmabisha no
Ġmalai ka
Ġuhari fu
Ġumalizia ji
Ġkakola ki
Ġize chukwu
Ġhalai ki
Ġhanzu runi
Ġvladi mir
Ġnende ni
Ġmiru ngi
Ġmiro ntsy
Ġchamele one
Ġdrea m
dhalili shwa
Ġwaondoka ne
Ġmwanamiti ndo
Ġgwari de
Ġarthu r
Ġkutumaini wa
Ġmtiriri ko
Ġdipri van
a gizwa
d re
d ongo
e da
e go
e ns
f le
f da
f ye
f ran
h ma
i t
i karibisha
i dhinishwa
j jana
l c
m chukua
m shirikisha
n keti
o a
o ga
p co
p les
p port
s c
t rea
u ni
u ndi
u gua
v ra
x tile
y t
Ġ xi
Ġ pungufu
wa dogo
wa kera
Ġk now
na ti
na ne
na nge
Ġm sha
Ġm nge
Ġm kiwa
Ġm dai
Ġm lio
Ġm zungumza
Ġm endeleo
Ġm linda
Ġm bunifu
li s
li mwa
li nganisha
li via
Ġwa se
Ġwa nja
Ġwa hoji
Ġwa wapo
Ġwa ganda
Ġwa mbura
Ġku ng
Ġku ndu
Ġku sudi
Ġku ridhia
Ġku geuza
Ġku thubutu
Ġku dhibitiwa
Ġku fye
Ġku yt
ha mishi
ka mu
ka ndamiza
ka nushwa
Ġna n
Ġna za
Ġna takiwa
hi r
hi miza
Ġa e
Ġa ju
Ġa nia
Ġa yu
Ġa jibu
Ġa zima
Ġa eleze
Ġa gg
Ġa rejee
Ġya lia
Ġya ngekuwa
ta za
ta te
ta weza
ta kuwepo
ta ndao
ta ngazia
ba to
ba re
ng gwa
Ġs ongo
Ġs wala
ma me
Ġma nzi
Ġma tinga
ti m
ti mishwa
ti cia
ti choi
za i
za ne
ki l
ki vu
ki ndwa
la w
la ri
Ġu bo
Ġu nya
Ġu enda
Ġu funga
Ġu nyama
Ġu swi
Ġu staarabu
Ġu bel
Ġu dalali
Ġu stadi
Ġka la
Ġka nye
Ġka lla
Ġka niki
Ġka fara
Ġka sulu
yo ka
Ġi nzi
Ġi nde
Ġi julikana
Ġi eleweke
Ġi jadiliwe
Ġkwa ya
Ġkwa le
Ġha le
Ġha sha
Ġha hitaji
Ġha miliki
Ġha jita
Ġha julikani
ji tegemea
ji uzulu
ji tosheleza
si bi
we ries
tu mu
tu mbo
tu llo
tu saidii
Ġhi mi
Ġhi zza
ja za
ra jia
ra ld
Ġki wili
Ġki zito
Ġki dhibiti
Ġki ngereza
Ġki bira
Ġki mbari
Ġki jjah
Ġki jjana
Ġali cha
Ġali endesha
Ġali chukuliwa
Ġali ripoti
Ġali goma
Ġali lipa
Ġali sajiliwa
Ġali gundulika
Ġali fukuzwa
Ġali amuru
Ġali ongozana
Ġali tupilia
Ġali daka
Ġali gongwa
Ġali timuliwa
to fauti
le x
bi ria
bi nho
sa a
sa liwa
pa ndwa
sha mba
me l
fu nze
di us
Ġkuwa sema
Ġkuwa tuma
Ġkuwa vamia
Ġkuwa sababishia
Ġkuwa simamisha
Ġkuwa kumbatia
Ġkuwa lazimisha
Ġkuwa fariji
Ġkuwa shitaki
Ġkuwa puuza
Ġkuwa julisha
Ġkuwa wajibisha
Ġta nda
Ġta ngo
Ġta kati
ke na
ke jeli
bu m
bu s
Ġza nte
Ġni taka
Ġni pe
Ġni one
Ġni fanye
Ġni ngependa
te nge
Ġsi kili
po l
Ġhu ja
Ġhu amua
Ġhu tengenezwa
Ġhu haribu
Ġn ka
Ġn zo
Ġn kindwa
Ġn tullo
Ġn shamba
Ġla hisi
Ġla dy
Ġba ta
Ġba nd
Ġba lla
Ġba jaji
Ġba lta
ne ta
ne ne
Ġmi ria
Ġmi wani
Ġmi zinga
Ġmi bare
Ġsa mba
Ġsa da
Ġsa kaya
Ġsa hau
Ġsa dc
ko ba
ko sesha
pi ge
pi ck
ngi ka
ngi zia
nda n
nga nywa
nga tinga
Ġvi sasi
Ġvi shindo
Ġvi cent
Ġvi zuizi
Ġvi roba
ho ngo
ho dha
Ġcha u
Ġcha wala
Ġcha neta
chi nga
Ġwana fu
Ġwana eleza
Ġwana shiriki
Ġwana amua
Ġwana ingia
Ġwana ibuka
Ġwana endeleza
Ġwana fuata
Ġwana mtaka
Ġwana jaribu
Ġwana tekeleza
Ġwana fikiri
Ġwana linda
Ġwana elekea
Ġwana vunja
Ġwana tupa
Ġwana jamii
Ġili cho
Ġili kosa
Ġili tarajiwa
Ġili kata
Ġili ripoti
Ġili tuma
Ġili pangwa
Ġili wataka
Ġili jikuta
Ġili tangazwa
Ġili zindua
Ġili itoa
Ġili tinga
Ġili elekeza
Ġili amuru
Ġili funguliwa
mo ngwa
mo vic
lo d
wi zi
ngu u
Ġkuto fika
Ġkuto onesha
Ġkuto fungwa
Ġkuto fikia
Ġkuto tekeleza
Ġkuto sikilizwa
Ġkuto jali
Ġkuto jiandikisha
fi siri
Ġwali jibu
Ġwali weka
Ġwali chukuliwa
Ġwali dhani
Ġwali tegemea
Ġwali kua
Ġwali kamata
Ġwali jitahidi
Ġwali itaka
Ġwali jadili
Ġwali iomba
Ġwali lalamikia
Ġwali ghushi
Ġwali kusanya
Ġwali hukumiwa
Ġwali tumwa
Ġwali naswa
ru s
ru bai
nge ka
Ġmo i
Ġmo na
Ġmo ra
Ġmo ven
Ġmo sco
Ġmo bile
Ġmo ney
Ġe c
Ġe likana
Ġe vra
Ġse n
Ġse ti
Ġse kela
re kea
re kebishwa
Ġtu mu
Ġtu seme
Ġtu fikie
Ġtu kumbuke
Ġtu riani
Ġmwa f
Ġmwa rabu
Ġmwa rami
Ġmwa shimba
go ngana
Ġzi fanye
Ġzi endelee
Ġli ndoni
Ġli kawa
Ġd j
Ġda h
Ġda mpo
Ġti b
Ġti me
Ġti tus
Ġti ngatinga
zu ki
Ġbi sibi
furi a
mbo ra
Ġana tokea
Ġana unga
Ġana husika
Ġana elewa
Ġana shughulikia
Ġana chezea
Ġana tamba
Ġana pendwa
Ġina jua
Ġina saidia
Ġina faa
Ġina sisitiza
Ġina amini
Ġina julikana
Ġina kua
Ġina chunguza
Ġina pambana
Ġina shikilia
Ġina ongezeka
Ġina saka
Ġina jumuisha
Ġina tamka
Ġina ogopa
Ġina semekana
ze sheni
chu mu
Ġwaka a
Ġpa n
Ġpa wa
Ġpa ja
Ġpa dre
Ġmu tu
Ġmu kama
Ġmu wasa
Ġmu koba
Ġaki u
Ġaki mu
Ġaki husika
Ġaki sikia
Ġaki maliza
Ġaki kataa
Ġaki ungwa
Ġaki chambua
Ġaki shangiliwa
Ġwi liam
Ġwi nners
Ġme rc
Ġra mi
Ġra cka
ge zi
pu o
Ġvya ko
Ġvya ngu
Ġji pu
Ġji tahidi
Ġc le
Ġmwaka lu
idi wa
Ġt z
Ġt ch
Ġt fda
Ġmba raka
Ġame tumia
Ġame zungumzia
Ġame fungwa
Ġame fikia
Ġame rica
Ġame panda
Ġame pinga
Ġame fungua
Ġame leta
Ġame jiandaa
Ġame zaliwa
Ġame vunja
Ġame onya
Ġame changanyikiwa
Ġko ne
vu ru
Ġkui kosa
Ġkui zungumzia
Ġkui fahamu
Ġkui kataa
Ġkui tekeleza
Ġkui ingiza
Ġkui sikiliza
Ġkui andaa
Ġkui anzisha
Ġkuo tea
Ġkuo poa
Ġf k
Ġf t
Ġime futa
Ġime lazimika
Ġime peleka
Ġime shika
Ġime tajwa
Ġime kua
Ġime mfanya
Ġime kabidhi
Ġime bidi
Ġime itaka
Ġime simama
Ġime nunua
Ġime badilika
Ġime mwamuru
Ġime saliwa
Ġo c
Ġo bc
Ġo gana
sho ga
Ġwame endelea
Ġwame piga
Ġwame chukuliwa
Ġwame ibuka
Ġwame tajwa
Ġwame kataa
Ġwame vaa
Ġwame itwa
Ġwame lalamikia
Ġwame kimbia
Ġwame sahau
Ġwame athirika
Ġwame nusurika
Ġwame anzisha
Ġwame zoea
Ġwame kusanyika
do keza
do ndoka
lu zo
Ġwata jua
Ġwata baki
Ġwata kuwepo
Ġwata ongeza
ifa hamu
kia h
nchi e
laa m
Ġmaha lu
Ġmaha simu
Ġwaki lia
Ġwaki mtaka
Ġwaki elekea
Ġwaki ogopa
Ġwaki teseka
Ġwaki safiria
Ġkuji fua
Ġkuji funga
Ġkuji pendekeza
Ġkuji changanya
Ġkuji biza
Ġke rne
Ġwalio kosa
Ġwalio shinda
Ġwalio patikana
Ġwalio salia
Ġwalio ripotiwa
Ġwalio teuliwa
Ġwalio toroka
Ġkuu zika
Ġkuu soma
Ġkuu miza
Ġkuu elewa
Ġkuu kwamisha
gi ji
Ġkum jua
Ġkum shu
Ġkum wanda
Ġkum shika
Ġkum wezesha
Ġkum tuma
Ġkum lalamikia
Ġkum danganya
Ġkum shutumu
Ġes tate
Ġmaji vu
Ġle nu
Ġfe llow
Ġsalaa ma
Ġiliyo kuwepo
Ġiliyo changia
Ġiliyo husisha
Ġiliyo fikiwa
Ġiliyo zua
Ġiliyo pitishwa
Ġuna faa
Ġuna dhani
Ġuna sikia
Ġuna maanisha
bo ru
Ġuta baini
Ġuta wekwa
Ġuta jadili
vi ck
kwe po
Ġwao gope
Ġga lla
Ġga mbari
Ġga sper
Ġga pco
Ġbo n
Ġkupi tishia
Ġita chukuliwa
Ġita wezekana
Ġita ondoka
Ġita tangazwa
Ġita simamia
Ġita wakilishwa
Ġita jadiliwa
Ġthe m
Ġte xtile
Ġkuli tokana
Ġkuli tolea
Ġkuli ingiza
Ġkuli mudu
Ġbe st
Ġbe tha
Ġaf p
Ġp f
Ġp p
Ġkuhu kumu
Ġkili pata
Ġshu ka
be ya
Ġbara fu
Ġzina chukuliwa
Ġzina changia
Ġzina lenga
Ġzina milikiwa
Ġzili takiwa
Ġzili mfanya
Ġzili kanushwa
Ġfa bio
Ġfa ili
Ġkuta fisiri
Ġje an
Ġje zza
Ġume amua
Ġume baki
Ġume changia
Ġume leta
Ġume zingatia
Ġume fikiwa
Ġume pungua
Ġume gubikwa
Ġume athiri
Ġkuna wa
Ġkuna di
Ġkuna pokuwa
Ġaliye anza
Ġaliye ongoza
Ġaliye kamatwa
Ġaliye maliza
Ġaliye sajiliwa
Ġaliye hamishiwa
Ġto ssi
Ġpe a
Ġpe te
Ġpe nati
Ġmtu pa
one shi
Ġhaku fahamika
Ġhaku takuwepo
Ġkitu nda
Ġmwe ra
Ġmwe mbe
Ġmwe pesi
Ġtuna vyo
Ġtuna chukua
Ġtuna shinda
Ġtuna shirikiana
Ġzo rro
Ġkusa lia
Ġkusa idiwa
Ġhawa jiamini
Ġhawa danganyiki
Ġuli shindwa
Ġuli pwa
Ġuli kiri
Ġuli lenga
Ġkuka ba
Ġkuka guliwa
Ġkuka raba
Ġyali dai
Ġyali tokea
Ġyali fika
Ġyali kwenda
Ġyali elezwa
Ġyali pelekwa
Ġyali sababishwa
Ġmaka sha
Ġmaka ramba
Ġmpa ya
de t
twa nga
Ġwanao a
Ġwanao uza
Ġwanao vunja
Ġchi d
Ġchi lolo
Ġmwana zuoni
dili sha
Ġsana wari
Ġwengine o
Ġsu pport
Ġsu zane
Ġsu zuki
Ġsu furia
Ġru nze
Ġru bin
Ġkupa tia
Ġiki tumia
Ġiki zidi
Ġiki shirikiana
Ġlili pata
Ġlili wekwa
Ġbu nyago
Ġulio mo
Ġulio tangazwa
Ġulio wakilishwa
Ġyana takiwa
Ġyana sababisha
Ġwaa ndikishaji
Ġwaa nzilishi
Ġsha ti
nti c
mali zike
Ġdu me
Ġkuwe mo
mbia na
Ġdo na
Ġdo kezo
Ġdo tto
Ġinayo kwenda
Ġinayo tokana
Ġinayo fahamika
Ġinayo jenga
Ġinayo jengwa
Ġinayo tishia
Ġinayo simamia
Ġinayo zalishwa
Ġkusi fu
va te
Ġkute gua
Ġtume fikia
Ġtume dhamiria
Ġtume azimia
Ġri wa
Ġkina kuwa
Ġkina taka
Ġkina piga
Ġkina hitaji
Ġkina kwenda
Ġkina fuata
Ġal bum
Ġzilizo chukuliwa
Ġzilizo undwa
Ġkipi ngu
Ġusa nifu
Ġjo hari
Ġata kosa
Ġata mpa
Ġalipo ona
Ġlina dai
Ġlina onekana
Ġlina endesha
Ġlina potokea
Ġhe ka
Ġhe alth
fiki shia
ve y
Ġkima ng
Ġnya nga
Ġnya kato
Ġre nard
Ġre ser
Ġre det
Ġfu lana
nyi keni
Ġchu ya
Ġsta ples
Ġaliwa jibu
Ġaliwa ita
Ġaliwa agiza
Ġaliwa tahadharisha
Ġmcha ngiaji
Ġusi ri
Ġzinazo wa
Ġzinazo hitaji
Ġzinazo kabili
Ġzinazo endesha
Ġzinazo changia
Ġzinazo lenga
Ġzinazo uzwa
Ġwasi endelee
Ġwasi pate
pele kwe
Ġyaliyo fungwa
Ġyaliyo mfanya
Ġlu bu
Ġjeshi ni
Ġkuzi taka
Ġkuzi ona
Ġkuzi choma
Ġaka e
Ġaka dai
Ġaka iomba
Ġzime tolewa
Ġzime onesha
Ġzime ongezeka
Ġzime athirika
Ġzime kabidhiwa
Ġlo v
ca la
ca tion
Ġge ti
Ġge mbe
Ġge rald
hari bia
Ġkika nda
Ġro ma
Ġro ge
Ġro binho
Ġco a
Ġco mp
Ġfi rst
Ġfi lbert
Ġmta hiko
Ġuki ingia
Ġar tuma
Ġmaja liwa
Ġmaja rida
Ġyanayo zunguka
Ġmabo ndeni
Ġkuki nga
Ġkuki saidia
Ġkuki nusuru
Ġuja maa
Ġlime tokana
lazi mishwa
faha mi
sto ne
Ġmao no
Ġnili zungumzia
Ġnili kutana
Ġnili lazimika
funga mana
Ġmama dou
Ġmti ndi
Ġunao beba
Ġunao itwa
Ġhati hati
Ġwanawa jibika
Ġmfa rakano
Ġwala nguzi
Ġkuje ngeka
Ġanaye tumia
Ġanaye tambuliwa
st ro
Ġkuku sanywa
Ġkilicho rushwa
Ġuka mili
Ġlililo sababisha
Ġlililo husika
Ġlililo achwa
Ġwalimu uliza
Ġilivyo agizwa
Ġnina vyo
Ġnam tumbo
Ġkuha ha
Ġno sa
Ġno el
mui ka
Ġl ra
Ġl lc
Ġmapi tio
Ġyame tokea
Ġyame onesha
Ġyame patikana
Ġyame kuwepo
Ġyame ibuka
Ġyame fichwa
Ġnye gezi
Ġca stro
Ġmbo go
Ġnime m
Ġmar t
Ġmar law
Ġkita maduni
wapo kea
jiri dhi
Ġdi ngi
Ġdi grii
Ġdi ego
Ġtanga wizi
Ġkupiga kura
Ġne wala
Ġvu ta
Ġvu ia
Ġvu dee
Ġnu hu
Ġnyo nga
Ġkile o
Ġtuta kutana
Ġalim choma
Ġmga nda
Ġmako mbora
Ġkiba guzi
Ġtuli sema
Ġtuli kubaliana
Ġhaja toa
Ġwataka yo
Ġkime amua
Ġkunu sa
Ġkunu kuu
Ġkunu surika
hada a
Ġchanga nyikeni
Ġgo ha
Ġzita cheza
in st
Ġhassa no
Ġalii patia
Ġalii chezea
rt ha
Ġaliyo pata
Ġaliyo ulizwa
Ġaliyo ifanya
Ġaliyo yafanya
Ġkuliko mboa
ingi zaji
ingi lie
Ġmke kena
Ġkue neza
lipu liwa
Ġkuomba omba
Ġfo rest
hudi wa
Ġjuni or
Ġmani la
Ġmna li
Ġmna ri
Ġmna jua
Ġmna dani
Ġmna vyojua
Ġamewa sili
Ġyata tangazwa
Ġmago nchie
Ġmabe gani
Ġkisu kuma
Ġaji uzulu
Ġlinalo fanya
Ġlinalo sababisha
Ġlinalo wafanya
Ġmage ti
ns ki
Ġmai mamu
Ġkutokuwa shwa
Ġmasi lahi
Ġkanda nda
Ġwatakao kaa
Ġpri vate
Ġkume ga
Ġmigo ri
Ġmla ge
Ġkuya tumia
Ġkuya weka
Ġkuya maliza
Ġkuya tekeleza
Ġmasa ma
Ġreli ni
Ġsama di
Ġika onekana
Ġmau ji
Ġmau mbile
Ġwaliyo pata
Ġwaliyo toa
Ġkara te
Ġkara nja
Ġhawaku pata
Ġhawaku husika
Ġnita toa
Ġnita kwenda
Ġhawaja toa
Ġhawaja fika
Ġalia pa
Ġkija zi
Ġhaija tulia
gha i
Ġwapa ndaji
Ġva t
Ġmfulu luzo
Ġilipo mtafuta
Ġufa saha
Ġand res
Ġimea giza
Ġvinavyo onesha
Ġyaki toka
Ġmate geme
lle mon
lwa kil
Ġabdu llah
Ġabdu lwakil
Ġwalizo pata
pumzi sha
Ġwadogo wadogo
Ġkuni saidia
Ġmume o
Ġgi da
Ġgi lbe
Ġibrahi movic
Ġinter pol
Ġnaho da
Ġalivyo dai
Ġalivyo shiriki
Ġalivyo ahidi
Ġhaita toa
Ġhaita vumilia
Ġisiyo hamishi
Ġmso lla
Ġkusu bili
Ġkusu biria
Ġwanapo fanya
Ġwanapo kutana
fikiri e
Ġprog ress
Ġwanayo taka
pende nt
Ġissa ck
Ġmadi na
Ġalizo cheza
Ġdharu la
Ġwanacho fanya
Ġwanacho chea
Ġwalim vamia
Ġkoro ngoni
Ġkabu ri
Ġmwingi liano
Ġst k
Ġce nt
Ġce nter
Ġce sc
Ġushirika no
Ġkuzidi sha
Ġwanavyo fikiria
Ġwanazo toa
Ġkiko mbe
Ġwanam tandao
Ġmaki nda
Ġmarudi o
Ġiti gi
Ġz lata
Ġkondo o
Ġaa che
Ġaa chiwe
Ġakim nadi
Ġrwe ye
Ġkise sa
Ġula nga
Ġasha nti
Ġng genda
tin nggye
Ġbangi li
Ġpla y
Ġukili nganishwa
Ġhara wa
Ġyatakayo tolewa
Ġkuwatu kana
Ġmwenzi o
Ġaliji tolea
Ġaliji biwa
Ġaliji uzulu
Ġwaliwa ambia
Ġrai la
Ġvipa nya
Ġumwa gaji
Ġmwajiri wa
Ġuyo le
Ġwange pata
Ġwange shinda
Ġanaji husisha
Ġanaji sikia
Ġwanaha tarisha
rati ka
Ġber na
Ġber bato
Ġanacho taka
Ġanacho fahamu
Ġanacho kifanya
Ġucho chezi
Ġalimu uliza
Ġkicha ngani
Ġmus yoka
Ġkupenda na
Ġkuachia na
Ġshoo ting
Ġimewa hukumu
Ġkuteke tezwa
Ġamem taja
Ġkari bia
Ġimesha twaa
Ġwamesha fanya
Ġkusuku mana
toshe lezi
Ġkiga idi
Ġbla nketi
Ġvikiwa mo
Ġudi nde
Ġkuwako pesha
Ġanam fanyia
Ġhero in
Ġkhe lla
Ġwaje nge
Ġwaga ruka
Ġmakwa ti
Ġmakele le
Ġbre weries
Ġutaa lam
Ġtembo ni
Ġgray son
Ġloi t
Ġloi tinnggye
Ġanazo daiwa
Ġsy ria
Ġsy kes
Ġishi nde
Ġkutoku elewana
Ġkutoko mea
Ġkuthamini wa
Ġuti ngo
Ġsuma ye
Ġsuma ry
Ġmajo kofu
Ġkar zai
Ġameji toa
lta nt
Ġmdo si
Ġkuende shea
Ġkashi nde
Ġhabi bu
Ġanavyo fanya
Ġwahu ni
Ġkumka tisha
Ġkumka shifu
Ġpromo ta
Ġpromo tion
Ġlyamu ngo
Ġataji nyakulia
Ġphi rri
Ġphi llemon
Ġmak yembe
Ġbib le
Ġmahara mia
Ġkujili nganisha
Ġnilivyo sema
Ġkuwacha ngisha
Ġhalita kubali
Ġbuku ku
Ġatu e
Ġuis lam
Ġmio yo
Ġkumta peli
Ġkya ka
Ġaga inst
Ġmwan ri
Ġmwan tumu
Ġkuio ngezea
Ġlugo yo
Ġkuda nganywa
Ġblo ck
Ġpoli ticia
Ġkufana na
Ġmge ule
Ġswa mel
Ġuho dari
Ġvite ngo
Ġdee p
Ġair bus
Ġmlo longo
Ġmwo mbaji
Ġuwa muzi
Ġianzi she
Ġeri trea
Ġupoto shwaji
Ġqa tar
Ġati mize
Ġil boru
yem penda
Ġwanalo weza
Ġmuho nza
Ġkujipe nyeza
Ġque ens
Ġkuburu zwa
Ġkuburu twa
Ġyaliwa silishwa
Ġmawi mbi
Ġkasu mba
Ġkasu ke
Ġram li
Ġjiko ni
Ġasse nga
Ġholdi ng
Ġholdi ngs
nhu a
Ġngwa lima
Ġscho les
Ġufi nyu
Ġwakiji fanya
Ġgia n
Ġmda halo
Ġmwange si
Ġbutu ndwe
Ġludo vick
Ġguru mo
Ġswi den
Ġkibu ta
Ġmille nia
Ġcra nes
Ġanayem tetea
Ġict r
Ġwakama twe
Ġmul tichoi
Ġiliyocho ngwa
Ġmkasi mongwa
Ġpra do
Ġkuzoro ta
Ġname less
Ġhaj j
lete e
Ġakii zungumzia
Ġgali leo
Ġget ru
Ġpubli c
Ġconsu ltant
Ġamu like
Ġunye ti
Ġkuwala ghai
Ġchango mbe
Ġmexi co
Ġinji nia
Ġthie rry
Ġkubinafsi sha
Ġdai ly
Ġmetho dius
Ġatla ntic
Ġxi nhua
Ġmnge ta
Ġmzungumza ji
Ġkundu chi
Ġkufye ka
Ġnaza reth
Ġaju za
Ġayu bu
taza miwa
Ġmanzi e
Ġufunga shaji
Ġubel giji
Ġkalla ghe
Ġinde pendent
Ġijulikana yo
Ġhajita mbui
Ġhimi d
Ġkiwili wili
Ġkijjana ngoma
tofauti na
Ġtango ld
Ġtakati fu
Ġzante l
Ġnzo wa
Ġnkindwa biye
Ġballa ck
Ġbalta zar
Ġmiria m
Ġmoven pick
Ġmosco w
Ġmwashimba yi
Ġbisibi si
Ġmerc y
Ġmwakalu kwa
Ġtch c
Ġkujibiza na
Ġkerne l
Ġkumwanda ma
Ġfellow ship
Ġulipwa ji
Ġkukaraba tiwa
Ġrunze we
Ġbunyago ngo
Ġreser ves
Ġcomp lex
Ġartuma s
Ġmategeme o
Ġgilbe rto
Ġisiyohamishi ka
Ġzlata n
Ġberbato v
Ġpoliticia n
Ġmultichoi ce
a r
a ga
a chia
a ngusha
b b
c l
c lu
d son
e v
e nea
g by
i taji
j kaa
l ga
l lio
m pata
m lida
n ci
o sha
o nge
q u
r vi
r man
s bon
t ti
t ter
t land
u f
u na
u dhi
u riana
w s
Ġ pumba
Ġ nggo
wa l
Ġk cm
na o
na cho
na shati
na bas
Ġm cheza
Ġm ch
Ġm kristo
Ġm raba
Ġm pendwa
Ġm vita
Ġm dudu
li taka
li fikia
Ġwa n
Ġwa da
Ġwa ndishi
Ġwa ter
Ġwa changia
Ġwa endeshaji
Ġwa jitahidi
Ġwa sahau
Ġwa ulize
Ġwa swahili
Ġwa fuatiliaji
Ġwa fiwa
Ġwa jiandae
Ġwa fikishwe
Ġwa zungumze
Ġwa ruhusiwe
Ġku bu
Ġku lewa
Ġku duma
Ġku nggo
Ġku thibiti
Ġku haribiwa
Ġku ngganggania
Ġku nyamaza
Ġku kwea
Ġku pendeza
Ġku dhalilishwa
ha ba
ha ng
ha ngaza
ya kimbia
Ġna we
Ġna kuja
Ġna itwa
Ġna jaribu
Ġna elewa
Ġna ambiwa
Ġna rudia
Ġna muomba
ni kwa
ni ona
Ġa j
Ġa po
Ġa nza
Ġa fungu
Ġa lafu
Ġa hakikishe
Ġa malize
Ġa hofii
Ġya ku
Ġya fuata
ta fe
Ġs mi
Ġs pu
Ġs kauti
ma si
Ġma su
Ġma fungu
Ġma bweni
ti c
ti lisha
la ngo
zi nduka
zi kutanisha
Ġu i
Ġu fanya
Ġu ende
Ġu ngekuwa
Ġu fungua
Ġu kristo
Ġu swahili
Ġu rithi
Ġu ndugu
Ġka mbo
Ġka mishi
Ġka zan
Ġi m
Ġi kubali
Ġi faka
Ġi mpa
Ġi an
Ġi fahami
ku du
ku penda
ku zwe
Ġha ye
Ġha lam
Ġha toi
si o
tu zi
tu me
tu pu
tu ngwa
ja lo
ra jiwa
ra gha
Ġki ngo
Ġki bunge
Ġki do
Ġki michezo
Ġki staarabu
mba ro
Ġali lia
Ġali penda
Ġali peleka
Ġali fanyiwa
Ġali ulizwa
Ġali saini
Ġali hudhuria
Ġali kumbwa
Ġali hamishiwa
Ġali kimbilia
Ġali katwa
Ġali kumbana
Ġali shtuka
to o
le kezwa
le um
bi ke
cha ka
cha gue
pa i
pa ri
sha m
sha mu
fu r
se ve
se in
Ġkuwa lea
Ġkuwa husisha
Ġkuwa jadili
Ġkuwa zomea
Ġkuwa punguza
Ġkuwa sumbua
Ġkuwa ficha
Ġkuwa onea
Ġkuwa kwamua
Ġkuwa tafutia
Ġkuwa pelekea
Ġkuwa futia
Ġkuwa kimbiza
Ġkuwa hadaa
Ġta ke
Ġta too
bu ka
bu rn
shi kana
Ġza kia
Ġni je
te wa
te ta
te lekeza
te gemewa
Ġsi semi
Ġsi una
po fanya
Ġhu poteza
Ġhu lipwa
Ġhu angalia
Ġhu ghe
Ġhu dson
Ġhu sein
Ġla a
Ġba the
Ġba by
ne ti
ne se
ne gali
Ġmi no
Ġmi iko
Ġmi llio
Ġsa l
Ġsa o
Ġsa mani
ko suko
ko pesha
Ġb ru
Ġb razili
Ġb ft
ngi e
nda lo
nga si
nga tie
Ġvi nye
Ġvi unga
Ġvi sion
Ġcha pa
chi kwa
Ġwana zungumza
Ġwana shauri
Ġwana hoji
Ġwana miliki
Ġwana unda
Ġwana shukuru
Ġwana fikiria
Ġwana kusudia
Ġwana tembea
Ġili weka
Ġili tarajia
Ġili jitokeza
Ġili tua
Ġili maliza
Ġili stahili
Ġili kutwa
Ġili chelewa
mo gata
ele ke
wi ng
Ġkuto onekana
Ġkuto husika
Ġkuto ita
Ġkuto poteza
Ġkuto kubalika
ju miwa
che zwe
Ġwali zungumza
Ġwali ongoza
Ġwali fafanua
Ġwali twaa
Ġwali pelekwa
Ġwali kimbia
Ġwali pendekeza
Ġwali kiuka
Ġwali kumbwa
Ġwali haribu
ru ru
Ġe nyi
Ġe lisha
Ġe nywa
Ġse mi
Ġse co
Ġse nsa
Ġse lula
Ġse rvi
re ja
ga sa
Ġtu ngi
Ġtu je
Ġtu mbi
Ġtu rudi
Ġtu mie
Ġtu tumie
Ġtu tabaki
Ġmwa if
Ġmwa frika
Ġbaa ada
go mba
Ġzi kawa
Ġli ga
Ġli fe
Ġli mea
Ġli baki
Ġli wezekana
Ġli taanza
Ġli sbon
Ġli jalo
Ġti na
ro ws
vyo taka
Ġju ve
pe o
pe rusha
Ġmku puo
cho kuwa
Ġana rudi
Ġana piga
Ġana kula
Ġana toka
Ġana tajwa
Ġana maliza
Ġana bainisha
Ġana jitahidi
Ġana elekea
Ġana husishwa
Ġana tamani
Ġina chukua
Ġina zungumzia
Ġina toka
Ġina fikia
Ġina ruhusu
Ġina stahili
Ġina undwa
Ġina itwa
Ġina wafanya
Ġina uzwa
Ġina elekeza
Ġina sadikiwa
Ġina subiriwa
nia cha
Ġwaka toa
Ġwaka pewa
Ġpa li
Ġpa zia
Ġpa tupu
Ġmu mia
Ġmu uaji
Ġmu elekeo
Ġmu igizaji
Ġmu seve
Ġaki ja
Ġaki pita
Ġaki kosa
Ġaki fika
Ġaki kaa
Ġaki hudhuria
Ġaki simama
Ġaki fukuzwa
ndo lewa
Ġme h
Ġme kundu
su sa
pu kia
Ġji li
Ġji tokeze
Ġwatu mwa
Ġwatu letee
Ġc lau
Ġmwaka se
idi we
Ġame po
Ġame takiwa
Ġame endelea
Ġame daiwa
Ġame kutana
Ġame tuma
Ġame furahi
Ġame kabidhi
Ġame ripotiwa
Ġame zindua
Ġame tenda
Ġame yasema
bili o
Ġkua ngua
Ġkua msha
Ġkua mbukizwa
Ġko mpu
Ġishiri ki
Ġkui piga
Ġkui penda
Ġkui pokea
Ġkui lipa
Ġkui fikisha
Ġkui shirikisha
Ġkui linda
Ġkui jadili
Ġkui gharimu
Ġkui dharau
Ġkui chukia
Ġf lani
Ġime lala
Ġime ibuka
Ġime onyesha
Ġime leta
Ġime sajili
Ġime jitahidi
Ġime jikuta
Ġime tekeleza
Ġime zua
Ġime tamba
Ġime changiwa
Ġime shindikana
Ġime chelewa
Ġime amuru
Ġime pania
Ġime tafsiriwa
Ġime ridhia
Ġime amuliwa
Ġo swa
Ġo ff
Ġo den
Ġo bri
Ġo ther
ria l
Ġwame shiriki
Ġwame wahi
Ġwame rejea
Ġwame jaa
Ġwame tua
Ġwame zingatia
Ġwame jitahidi
Ġwame chelewa
Ġwame dhamiria
Ġwame jiandikisha
Ġwame pona
lu s
lu nga
lu hisha
lu ev
zungu kwa
Ġwata li
Ġwata kosa
Ġwata fanikiwa
Ġwata zidi
Ġwata patikana
Ġwata sikia
Ġmko jo
Ġmaha ka
zungum zi
Ġwaki shiriki
Ġwaki kutana
Ġwaki pigwa
Ġwaki onyesha
Ġwaki shuhudia
Ġwaki hojiwa
Ġwaki laumu
Ġkuji zuia
Ġkuji tenga
Ġkuji somea
Ġke mpi
Ġke ssy
Ġhali ko
Ġwalio cheza
Ġwalio ngeza
Ġwalio fanikiwa
Ġwalio lipwa
Ġwalio zaliwa
Ġwalio nunua
Ġwalio ufanya
Ġkuu toa
Ġkuu jua
Ġkuu ziwa
gi ti
Ġdar ren
Ġdar fur
Ġkum subiri
Ġkum vaa
Ġkum vamia
Ġkum chezea
Ġkum lazimisha
Ġkum pelekea
Ġkum shitaki
Ġmaji safi
Ġle mb
Ġle ed
Ġfe ri
Ġfe de
Ġiliyo onekana
Ġiliyo wahi
Ġiliyo ifanya
Ġiliyo tumwa
so or
so gezwa
Ġuna tumika
Ġuna ruhusu
Ġuna jenga
Ġuna tosha
Ġuna ambiwa
Ġuna jumuisha
Ġuna tekelezwa
Ġuna wakilishwa
Ġuna fuatia
Ġuta sema
Ġuta wi
Ġuta yari
Ġuta kubali
Ġuta lazimika
Ġuta zidi
Ġuta kuwepo
Ġuta pigwa
Ġuta wezesha
Ġuta fikiri
vi ng
Ġye ars
Ġwazi ngatie
Ġita takiwa
Ġita piga
Ġita hitaji
Ġita toka
Ġita patikana
Ġita onyesha
Ġita tua
Ġita pambana
Ġita wasilisha
Ġita wapa
Ġte zi
Ġsiku amini
Ġshe tani
Ġkuli pi
Ġkuli tokea
Ġkuli weka
Ġkuli peleka
Ġkuli tangaza
Ġkuli zua
Ġkuli ingizia
Ġbe ca
Ġbe ck
Ġbe eni
Ġaf e
Ġhadi ja
Ġmsi ka
Ġmsi tari
Ġkufu rika
Ġzina anza
Ġzina shiriki
Ġzina rudi
Ġzina kutana
Ġzina sababishwa
Ġzina karibia
Ġzina elekezwa
Ġzili ko
Ġzili endelea
Ġzili pokuwa
Ġzili ibuka
Ġzili shindikana
Ġfa ragha
Ġfa ngasi
Ġfa mogata
Ġso lwa
Ġso nny
Ġkuta ongeza
Ġkuta fsiriwa
Ġume ingia
Ġume fanikiwa
Ġume fungwa
Ġkuna changia
Ġkuna hitajika
Ġaliye wa
Ġaliye pita
Ġaliye shinda
Ġaliye husika
Ġhaku kua
Ġhaku sita
Ġmwe nda
yote ndeka
Ġtuna pita
Ġtuna baki
Ġtuna jiandaa
Ġtuna ahidi
Ġtuna jitahidi
Ġzo go
chuku i
Ġhawa kuba
Ġhawa amini
Ġhawa ishi
Ġuli yo
Ġuli endelea
Ġuli pokuwa
Ġuli pangwa
Ġuli tangazwa
Ġkuka lia
Ġyali tumika
Ġyali chukuliwa
Ġmaka sy
Ġmaka ssy
Ġmpa le
Ġmpa ngala
de i
Ġwanao kaa
Ġwanao tambua
Ġwanao ndoka
Ġwanao jiunga
Ġchi di
Ġmaku zi
Ġmaku ngu
Ġmwana soka
Ġhaki po
Ġru ga
Ġru gby
Ġkupa ngisha
Ġiki fanyika
Ġiki zalisha
Ġiki sababisha
Ġiki shika
Ġiki bainika
Ġiki tafuta
Ġiki zingatia
Ġiki shuka
Ġlili pa
Ġlili taka
Ġlili fanikiwa
Ġlili ibuka
Ġlili ifanya
Ġlili pingwa
bia s
Ġbu lls
Ġbu hangaza
Ġulio tumika
Ġulio ibuka
Ġyana tarajia
Ġyana tarajiwa
Ġyana lenga
Ġyana yotendeka
Ġngu ba
Ġwaa ndaji
Ġwaa likwa
Ġsha nga
nti ne
Ġdu nga
Ġdu kudu
Ġkuwe kea
shu tumiwa
kari m
Ġdo n
Ġdo gg
Ġinayo zidi
Ġinayo jitokeza
Ġinayo kwamisha
Ġinayo jumuisha
Ġinayo simamiwa
va s
Ġtume chukua
Ġtume lazimika
Ġtume kubaliana
Ġri ta
Ġri ca
Ġri jkaa
Ġal so
Ġal lan
Ġzilizo i
Ġzilizo fanya
Ġzilizo anza
Ġzilizo panda
Ġzilizo tengenezwa
Ġzilizo tangulia
Ġzilizo lifikia
Ġjo nson
Ġhai jui
Ġata kuja
Ġata gombea
Ġata shirikiana
Ġata kufa
Ġata tua
Ġata chaguliwa
Ġata kumbukwa
Ġalipo kuja
Ġakiwa taka
Ġakiwa shutumu
Ġlina kwenda
Ġlina sababisha
Ġlina tarajiwa
Ġlina zidi
Ġlina onyesha
Ġlina elekea
Ġlina nyemelewa
Ġchini chini
Ġhe lle
Ġkima nzi
Ġre di
Ġre nald
Ġre gency
ce s
Ġaliwa shangaza
Ġaliwa hakikishia
Ġaliwa sihi
Ġusi kubali
Ġusi ndika
Ġzinazo tumia
Ġzinazo toka
Ġzinazo husu
Ġzinazo stahili
Ġzinazo milikiwa
Ġwasi weze
pele zi
Ġyaliyo mo
Ġyaliyo ongozwa
Ġyaliyo semwa
Ġyaliyo athirika
Ġyaliyo sambaa
Ġkuzi mia
Ġkuzi fikia
Ġasili mi
Ġaka ondoka
Ġaka onya
Ġzime sha
Ġzime fanya
Ġzime pata
Ġzime ingia
Ġzime patikana
Ġzime chukuliwa
Ġzime onyesha
Ġzime sajiliwa
mwa kilisha
Ġyo ur
Ġkiu la
Ġge rma
Ġge tafe
Ġalio dai
Ġalio ngea
Ġalio ambatana
Ġalio ufanya
Ġalio utoa
Ġkiwa nga
fua ti
Ġfi si
Ġfi nal
Ġche m
Ġusha ngilia
Ġuki pata
Ġuki fanyika
Ġuki jaribu
Ġar rows
Ġyanayo i
Ġyanayo onekana
Ġyanayo lenga
Ġyanayo zalishwa
Ġyanayo sambazwa
Ġkuki mbiwa
Ġkuja wa
Ġlime beba
faha miana
Ġze sco
Ġnili zo
Ġnili endelea
Ġnili jua
Ġnili hisi
Ġkucha fu
Ġkule lewa
Ġwate ngenezaji
Ġunao tumia
Ġunao husu
Ġunao zingatia
Ġunao kubalika
Ġhati miliki
Ġwanawa nia
Ġmfa ume
Ġkumali zwa
Ġmaga zi
Ġmaga zetini
Ġanaye soma
Ġanaye ichezea
Ġkata ni
Ġaja y
Ġkuvu tiwa
Ġkuvu tana
Ġkilicho sababisha
Ġkilicho andaliwa
Ġuka milisha
Ġlililo pita
Ġlililo ulizwa
Ġndu mbaro
Ġcho ke
Ġilivyo tangazwa
Ġnina penda
Ġnina vyojua
Ġnam shukuru
Ġman soor
Ġkuha ngaika
Ġno ma
Ġl ua
Ġyame fanyika
Ġyame beba
Ġuga nga
Ġufu jaji
Ġufu ndishaji
Ġnime sha
Ġnime shindwa
Ġnime anza
Ġnime sikia
Ġkita peli
Ġab c
Ġdi mita
badili shwa
fikia na
wahi ba
Ġitaka a
Ġkurudi wa
Ġat hali
Ġnu kuu
Ġgha li
Ġtuta tumia
Ġtuta zidi
Ġkinacho onesha
Ġisi nge
Ġisi ngeweza
Ġalim wita
gua y
Ġkuti shwa
Ġmako po
Ġtuli kwenda
Ġhaja jua
Ġmaju zi
Ġkime m
Ġkime fanya
Ġkime anza
Ġkime tokana
Ġkime jipanga
Ġai twe
Ġgo lf
Ġhassa ni
Ġkisha biki
Ġhazi onekani
Ġkumu hoji
dhu i
Ġkim bilio
Ġhau ko
Ġhau patikani
Ġkue li
Ġkuwapa ngia
Ġkuwapa ndisha
Ġmji nga
Ġmji mwe
Ġura mbo
Ġkula umia
Ġviwanja ni
hihi sha
Ġfo sse
Ġkubadili shia
on jo
Ġwalipo fanya
Ġwalipo ingia
Ġamewa taja
Ġamewa ita
Ġyata shirikisha
Ġmago ke
Ġitakayo saidia
dhamini wa
Ġwafu kuzwe
Ġziki tumika
Ġaji tokeze
Ġmag reth
Ġwasio taka
raha ti
Ġmasi hara
maliza ne
Ġwatakao shindwa
Ġwatakao achwa
Ġkufa idika
Ġkuwaa dhibu
Ġpri nte
Ġkume za
Ġkiti vo
Ġbar ry
Ġbar nabas
Ġupo le
jita futia
Ġsalu mu
pumba vu
Ġkuya toa
Ġkuya jadili
Ġasi cheze
Ġika pata
Ġika shinda
Ġika ifunga
Ġmau nda
Ġmau go
Ġmau dhui
Ġkuso gezwa
Ġwaliyo fikia
Ġvilivyo tumika
Ġvilivyo patikana
Ġvilivyo wekwa
Ġvilivyo kutwa
Ġvilivyo sajiliwa
Ġkusha uriana
Ġmha shamu
Ġhawaku fanikiwa
Ġhawaku ridhika
Ġhawaku furahishwa
Ġliki ja
Ġnita furahi
Ġakili ni
Ġakili mali
Ġhaija pata
Ġhaija julikana
Ġima ge
Ġalba nia
Ġva luev
Ġmahu biri
Ġilipo tokea
Ġabda lla
Ġataka a
Ġmala susa
Ġvinavyo tumika
tha n
furahi i
Ġinavyo elekeza
Ġmsu ya
Ġmsu kosuko
Ġwalizo toa
pumzi shwa
Ġsene ta
Ġnika jua
Ġvime ng
Ġvime endelea
kadi liwa
Ġalivyo sema
Ġkia ngazi
cto r
tende ka
Ġope n
Ġhusse n
Ġmbu guni
Ġmbu rahati
Ġkusu luhisha
Ġtuki enda
Ġtuki subiri
Ġutakao tumika
Ġzitakazo shiriki
Ġzitakazo saidia
Ġzitakazo wasaidia
Ġabdul karim
Ġalicho sema
Ġmra ma
Ġkulia ngalia
Ġkida mlida
Ġalizo zitoa
Ġukia mua
Ġkipe peo
Ġwasa a
Ġwasa liti
Ġwasa idiwe
Ġwanacho subiri
Ġitakapo kuja
Ġzisizo pungua
Ġinapo cheza
Ġinapo bidi
Ġkoro fi
Ġhaiku eleza
Ġange anza
Ġamea chiwa
Ġamea mbatana
Ġkuba na
Ġkuba tilisha
Ġmshi ndani
Ġniki pata
Ġniki rudi
fya tua
Ġnjo o
shughuli kiwe
Ġwakia chiwa
Ġchenye we
Ġwalicho pata
Ġanayo taka
Ġanayo paswa
Ġanayo ishi
Ġanapo fanya
Ġtho bias
Ġmhi timu
Ġkiko sini
Ġmaki sio
Ġz hang
Ġtuka fanya
Ġwalia ndika
Ġwalia ndamana
Ġwanaoji tolea
Ġkunyo a
tasi ta
Ġkufanyia na
Ġtari mo
tafu na
Ġkuvi patia
Ġkuvi ziana
Ġwalipa tiwa
Ġtua chane
Ġvyumba ni
Ġilia nguka
Ġinawa nia
Ġcom pe
Ġzuri ch
Ġmpo to
Ġyatakayo anza
Ġunapo taka
Ġtas nia
Ġpetro leum
Ġmguu ni
Ġamo ri
Ġinge fanya
Ġitawa bana
Ġwaji pange
Ġac qu
Ġhataki wi
Ġmpiga nia
Ġkaba ti
Ġmicho mo
Ġtaba samu
Ġsm s
Ġwamesha anza
Ġkuwao ngezea
Ġkukabili na
Ġmato pe
Ġmato fali
Ġkiwe we
Ġisa ac
Ġshari ff
Ġara b
Ġkuvuru nda
Ġiliwa chukua
Ġiliwa lazimu
Ġkudhamini wa
Ġaondo e
Ġtaf sili
Ġwameji toa
ima rika
Ġikia nza
Ġikia ngalia
Ġkuwakuta nisha
Ġjama ika
Ġkube bwa
Ġulia mua
Ġniku vute
Ġkutowa tendea
Ġalipa twa
Ġmati ku
Ġmati lda
Ġphi l
Ġmpe ka
Ġmpe pai
Ġmsikiti ni
Ġkimaa bara
Ġger vas
Ġwapenda nao
Ġaliu taka
Ġhalita wezekana
Ġifu twe
Ġmode st
Ġinayote kelezwa
Ġmki nga
Ġatu eleze
Ġlibe ria
Ġlea ders
Ġkukodi sha
Ġhua dhimishwa
Ġhawaridhi shwi
Ġlude wa
Ġmajukwa ani
Ġkiza mani
Ġblo ndy
Ġwaliom tangulia
Ġkufana nisha
Ġmchi zi
Ġkuangu shwa
Ġwaliowa chagua
mwele ze
Ġwamu unge
Ġkihu ni
Ġalitua mbia
Ġmumba i
Ġitam kosa
Ġsheki lango
Ġrobin son
Ġaku do
Ġsco tland
Ġmache da
Ġkujiko sha
Ġblack burn
Ġtulia mbiwa
Ġrua ha
Ġwaba be
Ġvicha che
Ġtuji ulize
Ġtuji pange
Ġkipu uzi
Ġilizo cheza
Ġwaliji patia
Ġameu taka
Ġimeba kiwa
Ġobi nna
Ġdio uf
Ġjona than
Ġxa bi
Ġmvi nyo
Ġlie wing
Ġlinapo kuja
Ġkus wekwa
Ġeche sa
Ġtino co
Ġtt cl
yumbi sha
Ġtheone stina
Ġridhi wani
Ġhaile ngi
Ġkushitu kiza
Ġwanatu fanyia
Ġtutaja ribu
Ġkri keti
Ġmshanga o
Ġmalo ri
Ġsimko nda
Ġlia ndikwe
kwaru zana
Ġziliki ukwa
Ġjhiko man
Ġhayato u
Ġnan cy
Ġae g
Ġagg rey
Ġtanda le
Ġmtindi o
Ġukamili ke
Ġrweye mamu
lga ria
Ġkcm c
Ġwachangia ji
Ġkunggo lewa
Ġyafuata yo
Ġspu rs
Ġufungua ji
Ġkamishi na
Ġifaka ra
Ġimpa ct
Ġifahami ke
Ġhalam shauri
Ġkido nda
Ġsiuna jua
Ġhughe s
Ġbathe z
Ġmillio n
Ġvinye si
Ġkutoita mbua
Ġenyi mba
Ġseco nd
Ġtumie ni
Ġmwaif wani
Ġliwezekana lo
Ġmumia s
Ġmuseve ni
Ġjitokeze ni
Ġkompu ta
Ġoswa ld
Ġobri en
Ġleed s
Ġbeca use
Ġbeck ham
Ġbeeni e
Ġdukudu ku
Ġkuwekea na
Ġrica rdo
Ġrijkaa rd
Ġhelle n
Ġusindika ji
Ġgerma in
Ġushangilia ji
Ġukamilisha ji
Ġdimita r
Ġmjimwe ma
Ġkulaumia na
Ġfosse tt
Ġacqu ire
a u
a z
a jili
a ture
a timua
a thiriwa
b le
b rt
c ris
d ele
e nne
f ra
h me
i ti
i mu
i ry
i wezesha
i pinga
i wakilisha
j ele
k zi
k ko
k wo
l ku
l bino
l tra
m wi
m yi
m vu
m saidia
m taja
m shukuru
m nukuu
n ni
n sha
o ke
o ngezwa
o gra
p ti
r p
r mai
s ja
s ongo
s chal
t si
t wana
u wa
u ru
u lia
x y
Ġ ly
wa kuta
wa dia
wa uliza
wa shangaza
Ġk j
na lo
na ment
Ġm y
Ġm nza
Ġm bia
Ġm chwa
Ġm zaliwa
Ġm hifadhi
Ġm mari
Ġm nyonge
li ni
li sa
li nga
li pe
li kabili
li zwe
Ġwa fa
Ġwa to
Ġwa weza
Ġwa mbali
Ġwa pita
Ġwa uli
Ġwa bia
Ġwa zalisha
Ġwa rti
Ġwa refu
Ġwa elewa
Ġwa zembe
Ġwa mpi
Ġwa fike
Ġwa shangilia
Ġwa rithi
Ġwa nufai
Ġwa vae
Ġku kana
Ġku ongo
Ġku heshi
Ġku gharimu
Ġku ngara
Ġku gubikwa
Ġku zungumzwa
Ġku heshimika
ha n
ya taka
ya bwa
ya ona
ka rehe
ka mfu
Ġna i
Ġna shauri
Ġna hitaji
Ġna tarajia
Ġna subiri
Ġna kiri
Ġna kubaliana
Ġna ungana
ni ni
ni zi
ni shi
ni mana
ni uma
Ġa no
Ġa dhi
Ġa ck
Ġa nua
Ġa kubali
Ġa man
Ġa nywa
Ġa chukue
Ġa tiwe
Ġa kerwa
Ġa kumbuke
Ġa ombe
Ġa mweleze
Ġya weza
Ġya elezwa
Ġya anze
ta nda
ba t
ba liane
Ġs re
Ġs ter
Ġs chal
Ġs kuli
ma h
ma cho
Ġma yo
Ġma ngi
Ġma nda
Ġma dha
Ġma geni
Ġma sasi
Ġma husu
Ġma mbukizi
Ġma ngunga
Ġma dalali
Ġma lkia
Ġma pro
Ġma ktaba
Ġma ngwea
ti ri
ti ke
ti mkia
za bo
za titi
ri c
ki le
ki sheni
ki nolojia
ki sye
ki nzana
la lisha
Ġu s
Ġu mba
Ġu da
Ġu bisha
Ġu endeshwa
Ġu wasilisha
Ġu elewe
Ġu semi
Ġu ima
Ġu lisisitiza
Ġu shoga
Ġu ltra
Ġka he
Ġka ngo
Ġka toke
Ġka milika
Ġka baka
Ġka yuni
yo l
yo ngeza
Ġi f
Ġi ra
Ġi di
Ġi fanyike
Ġi eleze
Ġi zinga
Ġi kutane
Ġi ishe
Ġi fanywe
Ġi ondokane
Ġkwa kua
Ġkwa ajili
ku saidia
Ġha ns
Ġha nsa
ji kwa
ji fungua
hu mia
si ona
we nge
tu r
tu ni
tu eleza
tu mbukiza
Ġhi ck
Ġhi saba
ra mo
Ġki so
Ġki swa
Ġki misha
Ġki ngeweza
Ġki ssi
Ġki kifanya
Ġki buru
Ġki liani
Ġki shindwe
Ġki nsha
mba tanisha
Ġali mo
Ġali fi
Ġali pe
Ġali tokea
Ġali fungwa
Ġali ishi
Ġali gombea
Ġali fuata
Ġali tambua
Ġali pambana
Ġali unda
Ġali ungana
Ġali vamiwa
Ġali zuiwa
Ġali somewa
Ġali himiza
Ġali dokeza
to ko
to kwa
le r
le na
da cris
cha k
cha nga
cha ria
cha pisha
pa ndia
sha le
sha kamilika
me na
me di
me no
me hewa
fu lizo
mi ne
mi lwa
mi shwe
ye kuwa
Ġv f
Ġv ol
di t
mu uliza
se ga
se nyi
Ġkuwa toka
Ġkuwa fahamu
Ġkuwa tenga
Ġkuwa kumbuka
Ġkuwa samehe
Ġkuwa kilisha
Ġkuwa fahamisha
Ġta laka
Ġta hir
Ġkati li
bu ra
bu lu
bu jikwa
shi e
shi pa
Ġza ki
Ġza nu
Ġza vala
Ġza charia
Ġni c
Ġni limu
Ġni ce
Ġni endelee
Ġni xon
te le
te bo
te mela
he ka
he sha
he ns
Ġsi ro
Ġsi nde
Ġsi va
po fika
po wer
po romoka
Ġhu pe
Ġhu kosa
Ġhu tokea
Ġhu pewa
Ġhu patikana
Ġhu siano
Ġhu julikana
Ġhu pelekwa
Ġhu teuliwa
Ġhu tofautiana
Ġhu zitumia
Ġn ta
Ġn so
Ġn kuru
Ġn ss
Ġn jele
Ġn zabo
zo ga
zo mewa
Ġla st
Ġla wn
Ġla mar
Ġla ger
Ġba ck
Ġba pti
ne n
ne t
Ġmi lu
Ġmi ndu
Ġmi sta
Ġmi nta
Ġmi lls
Ġmi shtuko
Ġmi hogo
Ġmi shipa
Ġmi zoga
Ġsa raka
Ġsa ed
Ġsa mir
Ġsa lva
ko sekana
pi te
pi ngi
ngi ri
ngi re
ngi lwa
nda i
nga mia
nga ziwa
Ġvi zito
Ġvi chwani
Ġvi ngapi
ho a
ho lo
Ġamba kisye
Ġcha kwe
Ġcha rls
Ġcha nggwa
chi sha
Ġwana chu
Ġwana jibu
Ġwana kubali
Ġwana husika
Ġwana damu
Ġwana mpa
Ġwana jitahidi
Ġwana ridhika
Ġwana heshimu
Ġwana shughulikiwa
Ġwana jifunza
Ġwana andaa
Ġwana soka
Ġwana changanya
Ġwana kimbilia
Ġwana umwa
Ġwana ndugu
Ġwana imani
Ġwana kagua
Ġwana ijua
Ġili jua
Ġili funga
Ġili onesha
Ġili endesha
Ġili peleka
Ġili kuwepo
Ġili kaa
Ġili poteza
Ġili kataa
Ġili chezwa
Ġili malizika
Ġili mfanya
Ġili andaliwa
Ġili pendekeza
Ġili ibua
Ġili somwa
Ġili pitisha
Ġili ungwa
Ġili hali
Ġili ibuliwa
Ġili someka
Ġili katika
no mo
lo wa
wi wa
mb eleza
ngu ri
Ġkuto kwenda
Ġkuto kula
Ġkuto fanyiwa
Ġkuto lipwa
Ġkuto mkuta
ju ta
fi ndi
fi sini
che to
Ġwali pe
Ġwali zuia
Ġwali changia
Ġwali tangaza
Ġwali fariki
Ġwali pigwa
Ġwali elezwa
Ġwali tuma
Ġwali jenga
Ġwali shuka
Ġwali elekea
Ġwali mwambia
Ġwali gundulika
Ġwali laani
Ġwali timua
Ġwali pingana
Ġwali yasema
Ġwali yem
Ġwali zirai
Ġwali mweleza
Ġwali mbeba
ru za
ru mwa
nge ja
nge kubali
Ġmo ve
Ġmo rt
Ġmo sso
Ġmo unt
Ġmo reno
Ġmo nomo
Ġe mi
Ġse ya
Ġse ro
Ġse ge
Ġse ndalo
re la
ga le
ga ge
Ġtu kaa
Ġtu anzi
Ġtu nguri
Ġmwa pi
Ġmwa mbi
Ġmwa sisi
Ġmwa gala
Ġmwa ita
Ġmwa nzilishi
Ġmwa chembe
go o
go pi
go myi
Ġja son
Ġja ngili
Ġzi lia
Ġzi ende
Ġzi rudi
Ġzi fanyiwe
Ġzi anze
Ġzi tajadiliwa
Ġli sema
Ġli nda
Ġli ndo
Ġli su
Ġli ripoti
Ġli lle
Ġli tolewe
Ġli tajadiliwa
Ġli shughulikiwe
Ġd p
Ġd r
Ġd ci
Ġti ndu
ro nga
ro gomyi
vyo kwenda
je vic
Ġbi lio
Ġbi man
Ġbi sse
Ġju ddy
mbo to
Ġmku ki
Ġmku mba
Ġmku nya
Ġmku ranga
dha li
dha ry
Ġana ni
Ġana shitakiwa
Ġana zungumzia
Ġana baki
Ġana zidi
Ġana shirikiana
Ġana shika
Ġana staafu
Ġana tegemea
Ġana jaribu
Ġana hitajika
Ġana tekeleza
Ġana wasilisha
Ġana shangaza
Ġana teuliwa
Ġana patiwa
Ġana sikitika
Ġana ingilia
Ġana kumbukwa
Ġana ifahamu
Ġana jitafutia
Ġina wali
Ġina kosa
Ġina pewa
Ġina enda
Ġina zalisha
Ġina fanywa
Ġina weka
Ġina shirikiana
Ġina kufa
Ġina panda
Ġina ongeza
Ġina ondoka
Ġina shughulikia
Ġina shikiliwa
Ġina hofia
Ġina wapa
Ġina thamini
Ġina sikitishwa
Ġina tupa
Ġina punguza
Ġina karibia
Ġina tambulika
Ġina kusanya
Ġina eleweka
Ġina kusudia
Ġina toweka
Ġina nipa
Ġina walipa
Ġina katisha
ua li
Ġhuo ni
Ġwaka endelea
Ġserikali a
Ġpa c
Ġpa la
Ġpa ndisha
Ġpa lku
Ġpa schal
gu lda
Ġmu ha
Ġmu ke
Ġmu te
Ġmu hara
Ġmu njo
Ġmu ghe
Ġmu lisa
Ġmu findi
Ġaki si
Ġaki chukua
Ġaki rudi
Ġaki piga
Ġaki baki
Ġaki kiri
Ġaki ibuka
Ġaki fuatilia
Ġaki shikilia
Ġaki elekea
Ġaki tamba
Ġaki chaguliwa
Ġaki faulu
dhi misha
Ġwi ne
ndo ng
Ġwe ka
Ġwe te
su mi
su ngu
Ġra sh
Ġra gga
Ġra bat
ge la
ge si
Ġpi p
Ġpi ngili
bwa ga
Ġji pe
Ġji nta
Ġji mmy
Ġwatu lie
Ġwatu ache
Ġwatu humia
Ġc la
Ġc el
Ġc lean
Ġmwaka linga
Ġmwaka sumi
Ġt cc
Ġmba rouk
Ġame kosa
Ġame kua
Ġame poteza
Ġame mpa
Ġame lipwa
Ġame jitahidi
Ġame mwambia
Ġame kaririwa
Ġame ridhishwa
Ġame kabidhiwa
Ġame fungiwa
Ġame tahadharisha
Ġame pona
Ġame muua
Ġame daka
Ġame yataka
Ġkua ga
Ġkua mbukiza
Ġkua mriwa
Ġkua mbatanisha
Ġko ko
Ġko nda
Ġko lo
Ġko nde
Ġko loni
vu liwa
Ġkui cha
Ġkui soma
Ġkui fuata
Ġkui ruhusu
Ġkui chunguza
Ġkui elezea
Ġkui agiza
Ġkui acha
Ġkui lazimu
Ġkui kumbatia
Ġkui shawishi
Ġkui ingizia
Ġkui pua
Ġkui safisha
Ġkui tupia
Ġkui sadia
Ġkui vuru
Ġkui tafuna
Ġkuo nyeshwa
yu ya
yu ku
yu llu
Ġshi ka
Ġshi lla
Ġshi gala
Ġshi gela
Ġime tia
Ġime fanyika
Ġime isha
Ġime omba
Ġime chukuliwa
Ġime jitokeza
Ġime wekwa
Ġime malizika
Ġime tosha
Ġime haribika
Ġime tangazwa
Ġime shauriwa
Ġime ibua
Ġime wekeza
Ġime katwa
Ġime gubikwa
Ġime tanda
Ġo ca
Ġo mbeni
Ġo tim
Ġo yuku
Ġmaa fikia
Ġmaa lbino
Ġkumi minika
nde z
nde ge
Ġtimu atimua
sho nwa
Ġwame ua
Ġwame daiwa
Ġwame ripoti
Ġwame twaa
Ġwame pinga
Ġwame mpa
Ġwame jenga
Ġwame kutwa
Ġwame wasilisha
Ġwame simama
Ġwame patiwa
Ġwame ridhishwa
Ġwame kumbwa
Ġwame tambuliwa
Ġwame hamishiwa
Ġwame geuka
Ġwame shutu
Ġwame pima
Ġwame fungiwa
Ġwame zirai
Ġsaba si
Ġpo ly
Ġpo ol
do jevic
Ġhata fanya
Ġhata rudi
Ġwata sema
Ġwata changia
Ġwata kua
Ġwata poteza
Ġwata zingatia
Ġwata saini
Ġwata patiwa
Ġwata shughulikiwa
Ġwata umana
kama na
Ġmko si
Ġmko paji
mbu ke
mbu sho
Ġwaki sha
Ġwaki jibu
Ġwaki funga
Ġwaki baki
Ġwaki peleka
Ġwaki tegemea
Ġwaki nywa
Ġwaki poteza
Ġwaki jipanga
Ġwaki jeruhiwa
Ġwaki sumbuliwa
Ġwaki mbie
Ġwaki faulu
Ġwaki husishwa
Ġwaki somewa
Ġwaki tafakari
Ġwaki mlaumu
Ġtaa dhari
Ġkutoka ta
Ġkuji ua
Ġkuji jua
Ġkuji funzi
Ġkuji hadhari
Ġkuji danganya
Ġkuji rudia
Ġkuji fungulia
Ġkuji tosheleza
Ġkuji engua
Ġkuji pumzisha
Ġke nge
Ġke vin
nu kiwa
Ġwalio takiwa
Ġwalio chukua
Ġwalio kuja
Ġwalio fikia
Ġwalio fanyiwa
Ġwalio ondoka
Ġwalio bainika
Ġwalio kwama
Ġwalio achwa
Ġwalio kumbwa
Ġwalio letwa
Ġwalio bakia
Ġwalio pendekezwa
Ġwalio kuwemo
Ġwalio kusanyika
Ġwalio tawa
Ġwalio furika
Ġwalio simikwa
Ġwalio yakimbia
Ġkuu zia
Ġkuu weka
Ġkuu linda
Ġkuu vunja
Ġkuu ziana
gi mbana
Ġkum kubali
Ġkum fahamu
Ġkum nyo
Ġkum dhamini
Ġkum leta
Ġkum pongeza
Ġkum wekea
Ġkum rudisha
Ġkum ficha
Ġkum dhalilisha
Ġkum lazimu
Ġkum tafutia
Ġkum kemea
Ġkum rejesha
Ġkum hukumu
Ġkum nyonga
Ġkum semea
Ġkum piku
Ġkum hamishia
Ġkum yoo
Ġkum shtaki
Ġle nno
Ġfe ature
Ġiliyo nyesha
Ġiliyo tumika
Ġiliyo toka
Ġiliyo chukuliwa
Ġiliyo jaa
Ġiliyo tumiwa
Ġiliyo pangwa
Ġiliyo kamilika
Ġiliyo sajiliwa
Ġiliyo teuliwa
Ġiliyo elekezwa
Ġiliyo anzia
Ġiliyo bakia
Ġiliyo andikwa
Ġho ni
so nge
Ġuna yo
Ġuna eleza
Ġuna chukua
Ġuna penda
Ġuna patikana
Ġuna kabiliwa
Ġuna julikana
Ġuna kwamisha
Ġuna elekea
Ġuna changiwa
Ġuna anzia
bo ngeja
Ġkila we
Ġhatu wa
Ġuta fanya
Ġuta tokana
Ġuta kuja
Ġuta dhani
Ġuta kubaliana
Ġuta ondoa
vi ch
Ġmwi ka
Ġmwi ngira
Ġmwi bura
Ġwao vu
Ġwao mbaji
nya le
wo ngwa
Ġga yo
Ġga di
Ġbo az
jili mbikizia
Ġita pita
Ġita fika
Ġita kwenda
Ġita sababisha
Ġita fikia
Ġita fanyiwa
Ġita panda
Ġita poteza
Ġita shirikisha
Ġita wafanya
Ġita jadili
Ġita ifunga
Ġita mbue
Ġita fuzu
Ġita anzia
Ġita tekelezwa
Ġita vunjika
Ġmka te
Ġmka milifu
Ġmka sim
Ġmka azi
Ġthe o
Ġthe re
Ġte ddy
Ġte kinolojia
sia mini
Ġshe mwe
Ġshe mwele
Ġkuli shambulia
Ġkuli twaa
Ġkuli kamata
Ġkuli rudisha
Ġkuli nusuru
Ġkuli valia
Ġkuli sakama
Ġbe si
Ġbe be
Ġbe en
Ġbe rtha
Ġmara du
Ġmsi ndai
Ġp lus
du miwa
Ġkili tokea
Ġkili fungwa
Ġshu ra
Ġnyu ndo
be u
Ġkufu ja
Ġkufu ndishwa
Ġkufu nikwa
Ġmaba le
Ġmaba vu
Ġzina pata
Ġzina onekana
Ġzina tokana
Ġzina sababisha
Ġzina endeshwa
Ġzina endana
Ġde mu
Ġde vid
Ġau ction
Ġau lizwe
bari sha
kisha mbulia
Ġwo n
Ġwo men
Ġzili ingia
Ġzili kamatwa
Ġzili kuwepo
Ġzili kubaliana
Ġzili fya
Ġzili kwama
Ġzili pitishwa
Ġfa hari
Ġfa st
Ġfa rasi
Ġfa rouk
Ġso l
Ġso ja
Ġso gea
Ġkuta tokea
Ġkuta sababisha
Ġkuta mbulisha
Ġkuta hadharisha
Ġkuta futwa
Ġkuta rajia
Ġkuta mbiana
Ġkuta ngaziwa
Ġje sse
Ġje mes
Ġje nni
Ġume chukua
Ġume pewa
Ġume onekana
Ġume onyesha
Ġume mfanya
Ġume tawala
Ġume ingiwa
Ġkuna sababisha
Ġaliye po
Ġaliye cheza
Ġaliye kosa
Ġaliye chukua
Ġaliye kwenda
Ġaliye paswa
Ġaliye baki
Ġaliye toka
Ġaliye kiri
Ġaliye pigwa
Ġaliye lalamika
Ġaliye mpa
Ġaliye kataa
Ġaliye tuhumiwa
Ġaliye wataka
Ġaliye athirika
Ġaliye teuliwa
Ġaliye unganisha
Ġaliye achwa
Ġaliye nusurika
Ġaliye mwakilisha
Ġaliye pandia
Ġto go
Ġto pe
Ġto tal
Ġto hme
Ġpe rami
Ġmtu me
Ġmtu ambie
Ġmtu kufu
Ġhaku eleza
Ġhaku paswa
Ġkitu lo
yote ngwa
Ġtuna rudi
Ġtuna tambua
Ġtuna wataka
Ġtuna elekea
Ġtuna mshikilia
uli we
Ġzo mea
Ġmata ta
Ġmata ji
Ġmata mu
Ġmata ngi
Ġmata mko
Ġkusa dia
Ġkusa mehewa
Ġhawa o
Ġhawa fahamu
Ġhawa ita
Ġhawa elewi
Ġhawa fai
Ġhawa semi
Ġhawa nufai
Ġuli za
Ġuli mi
Ġuli taka
Ġuli tumia
Ġuli eleza
Ġuli ingia
Ġuli zidi
Ġuli kuwepo
Ġuli jaa
Ġuli ngoni
Ġuli bainisha
Ġuli sababishwa
Ġkuka tiwa
Ġyali ko
Ġyali badili
Ġyali bainika
Ġyali lipuka
Ġyali safirishwa
Ġyali sambaa
Ġyali yotengwa
Ġmaka mbi
Ġmaka ratasi
tumi i
de dit
Ġucha nguzi
Ġucha ngiaji
Ġwanao changia
Ġwanao jenga
Ġwanao shinikiza
Ġwanao linda
Ġwanao hitimu
Ġwanao hamishwa
Ġwanao eneza
Ġwanao ipinga
Ġchi ma
Ġchi ef
Ġmaku ti
Ġmaku la
Ġmaku cha
Ġmaku yuni
Ġmaku mbusho
Ġmwana fa
Ġmwana idi
Ġhaki kuwa
Ġhaki tambui
Ġhaki kisheni
Ġg hari
Ġsu b
Ġsu ng
Ġsu pu
Ġsu zan
Ġsu chak
Ġru ngu
Ġru jwa
Ġru wai
Ġru gimbana
Ġmas kofu
Ġiki jua
Ġiki pewa
Ġiki ingia
Ġiki tumika
Ġiki toka
Ġmsa sa
Ġmsa fi
Ġmsa hama
Ġlili vyo
Ġlili ingia
Ġlili kuwepo
Ġlili ibua
Ġlili gongana
Ġbu nyi
Ġbu sere
Ġbu sega
Ġbu yuya
Ġulio kwenda
Ġulio changia
Ġulio endeshwa
Ġulio sababishwa
Ġulio oneshwa
Ġulio ikumba
Ġyana po
Ġyana daiwa
Ġyana ongezeka
Ġyana vyokwenda
Ġngu rdo
Ġwaa dishi
Ġsha rri
Ġdu lla
mbia ji
Ġuwe kaji
Ġkufi kwa
Ġdo r
Ġinayo sema
Ġinayo hitaji
Ġinayo kuja
Ġinayo onyesha
Ġinayo jiandaa
Ġinayo sikiliza
Ġinayo ikabili
Ġinayo fanana
va liwa
mla ni
Ġkute swa
Ġkute gwa
Ġkute nganishwa
Ġkute tere
Ġkute lekezwa
Ġtume wa
Ġtume sema
Ġtume fika
Ġtume badili
Ġtume wahi
Ġtume jaribu
Ġtume shapata
Ġri sk
Ġkina fanya
Ġkina tumika
Ġkina ongoza
Ġkina ibuka
Ġkina husisha
wili milwa
Ġuchu mba
Ġmae mbe
Ġal mas
Ġal pho
Ġzilizo sababisha
Ġzilizo chezwa
Ġzilizo sajiliwa
Ġzilizo athirika
Ġzilizo elekezwa
Ġzilizo chapishwa
Ġzilizo ainishwa
Ġzilizo chomwa
Ġzilizo changwa
Ġhai husiani
Ġata piga
Ġata amua
Ġata enda
Ġata ongoza
Ġata fanyiwa
Ġata hitajika
Ġata zikwa
Ġata litolea
Ġalipo ngeza
Ġalipo chukua
Ġalipo tea
Ġalipo tangaza
Ġalipo pigiwa
Ġalipo kelewa
Ġalipo ombwa
Ġakiwa ambia
Ġmfu ngo
Ġmfu fulizo
Ġlina toa
Ġlina onesha
Ġlina changia
Ġlina husisha
Ġlina kabiliwa
Ġlina julikana
Ġlina tambua
Ġlina wakabili
Ġlina milikiwa
Ġlina gusa
Ġlina mtafuta
Ġhe ma
Ġhe ga
hara kisha
fiki i
ve la
ve rs
Ġkima kosa
Ġnya m
Ġnya mlani
Ġnya wilimilwa
Ġmb weni
ada mu
Ġre so
Ġre nal
Ġwafanya kzi
Ġfu nunu
Ġchu ngu
Ġsta te
Ġsta de
Ġaliwa pa
Ġaliwa kuta
Ġaliwa hoji
Ġaliwa tambua
Ġmcha ki
Ġmcha pa
Ġmcha che
Ġmcha uru
taba dilika
Ġwaku baliane
Ġusi yempenda
ch ris
Ġzinazo zalisha
Ġzinazo nesha
Ġzinazo elekezwa
Ġwasi liana
Ġwasi mame
Ġyaliyo kamatwa
Ġyaliyo bishaniwa
Ġlu lanzi
Ġlu kaza
Ġlu seke
Ġlu oga
Ġlu dacris
Ġlu bongeja
kuba liane
Ġkuzi mwa
Ġkuzi taja
Ġkuzi fahamu
Ġkuzi peleka
Ġkuzi fikisha
Ġkuzi chapa
Ġkuzi nunua
Ġaka pata
Ġaka toa
Ġaka kutana
Ġaka rejea
Ġaka uliza
Ġaka mtaka
Ġaka shtuka
Ġzime fanikiwa
Ġzime zidi
Ġzime thibitisha
Ġzime kamilika
Ġzime thibitishwa
Ġzime teketea
Ġyo ndan
Ġlo sheni
Ġlo tto
ca rp
Ġkiu yu
Ġkiu ndani
Ġkiu kweli
Ġge ni
Ġge ne
saidia na
Ġwakiwa silisha
Ġalio upata
Ġbina adamu
Ġkupo o
Ġkupo ngeza
Ġkiwa lani
Ġro tike
Ġro vers
fe dhe
Ġilikuwa je
Ġco ol
Ġco sota
Ġnguvu kazi
Ġmape ngo
Ġjina la
Ġndo moko
Ġfi sh
Ġche nu
Ġmta resi
Ġuki fanya
Ġuki subiri
Ġuki zidi
Ġuki uliza
Ġuki jumuisha
Ġar vid
co tt
Ġhaya takuwa
Ġyanayo fanya
Ġyanayo hitaji
Ġyanayo kabili
Ġyanayo semwa
Ġyanayo ashiria
Ġyanayo endana
Ġyanayo zungumzwa
Ġmabo nu
Ġkutu bu
Ġkutu pi
Ġkutu funga
Ġkutu wezesha
Ġkutu letea
Ġkutu nzia
Ġkutu nzwa
Ġvita lis
Ġkuki piga
Ġkuki endesha
Ġkuki wepo
Ġkuki maliza
Ġmita ro
Ġuja si
Ġlime fanya
Ġlime shindwa
Ġlime fanikiwa
Ġlime changia
Ġlime zua
Ġlime pungua
Ġlime funguliwa
Ġmao fisini
Ġze c
Ġnili sema
Ġnili weza
Ġnili kuta
Ġnili chukua
Ġnili mwambia
Ġnao gopa
maa nishi
Ġmama laka
Ġuni t
Ġuni rea
Ġunao sema
Ġunao anza
Ġunao faa
Ġunao jengwa
Ġunao milikiwa
Ġunao elekeza
Ġunao ishia
Ġunao zalishwa
Ġwala ji
Ġmaga idi
Ġmaga wo
Ġmaga nyale
Ġanaye tokea
Ġanaye endesha
Ġanaye chezea
Ġanaye shikiliwa
st re
st ment
Ġkuvu ma
Ġkuku fanya
Ġkilicho i
Ġkilicho onekana
Ġkilicho wekwa
Ġcu l
Ġuka tibu
Ġuka taji
Ġuka omba
Ġwapi nzania
Ġlililo lipuka
Ġdawa sco
Ġuha maji
Ġmisa si
Ġnia nze
Ġilivyo ripotiwa
Ġilivyo ainishwa
Ġnina fahamu
Ġnina dhani
Ġmbi se
Ġmbi chi
Ġman y
Ġkuha lalisha
fadhi ri
Ġl wenge
Ġyame piga
Ġyame onekana
Ġyame panda
Ġyame onyesha
Ġyame elezwa
Ġyame wekwa
Ġyame ongezeka
Ġnye lo
Ġvina endelea
Ġmoha medi
Ġca n
Ġca re
Ġca rles
Ġca nto
Ġca ssia
Ġnde like
Ġmte ule
Ġmte temela
Ġnime cheza
Ġnime fika
Ġnime toka
Ġnime vaa
Ġnime sikitika
Ġnime jifungua
Ġmika te
Ġmar ko
Ġmar cus
Ġkita ko
Ġkita ngiri
Ġab ramo
Ġdi ploma
ondo kana
Ġwako se
Ġwako paji
ishi e
mua cha
Ġitaka vyokuwa
Ġr f
Ġat c
Ġat hana
Ġat hens
Ġne ville
Ġvu na
Ġvu milia
Ġnyo ngo
Ġtuta jua
Ġtuta fanikiwa
Ġkinacho hitajika
Ġkinacho nolewa
Ġin sha
Ġin clu
Ġalim tuhumu
Ġmga na
Ġmako nda
Ġkiba nda
Ġkiba deni
Ġtuli takiwa
Ġtuli kuta
Ġtuli kutana
Ġtuli paswa
Ġtuli safirisha
Ġkushu guli
Ġhaja jibu
Ġhaja kata
Ġhaja ondoka
Ġkime dai
Ġkime weka
Ġkime fanikiwa
Ġkime fungwa
Ġkime tangaza
Ġkime kamilika
Ġkunu na
Ġgo ngola
Ġgo spe
Ġgo tebo
Ġzita kutana
Ġkanu mba
Ġasu kile
Ġalii pa
Ġenda gulda
Ġngo le
Ġngo wi
Ġaliyo fanyiwa
Ġaliyo mshirikisha
Ġkumu ondoa
sti ment
Ġkisa nga
Ġkubo ronga
Ġhau wapi
kwi nda
Ġkue nguliwa
Ġmoto moto
Ġmungu ki
Ġwil le
Ġwashiriki shwe
Ġwataa ngalia
Ġmji ra
juli kane
rti ng
Ġfo rt
Ġmis senyi
Ġwalipo ra
Ġwalipo kuja
Ġwalipo tea
Ġmna ona
Ġkha rumwa
Ġyata tolewa
Ġyata julikana
Ġitakayo tolewa
Ġitakayo wezesha
Ġitakayo wapa
Ġitakayo wawezesha
Ġkai tka
Ġuvu naji
Ġziki pata
Ġziki uzwa
Ġziki chomwa
Ġkuko kotwa
Ġkuko hoa
Ġmaza lio
Ġuba tizo
Ġlinalo ikabili
Ġmanu ndu
Ġkadi ri
Ġmai con
Ġmag horofa
Ġmag nus
Ġwaja sirimali
Ġwau nge
Ġwau nde
Ġyako me
Ġwasio penda
Ġwasio zingatia
Ġwasio gope
Ġmv yullu
Ġslaa m
Ġmasi nde
Ġiwe kwe
Ġlita toa
Ġwatakao hudhuria
Ġwatakao athirika
Ġwatakao iwakilisha
Ġkuwaa thiri
Ġkuwaa ngusha
Ġkuwaa chisha
ndele wa
Ġupe pelezi
Ġkume jitokeza
Ġste wart
Ġkiti ne
Ġkiti moto
Ġmla cha
Ġmla ngali
Ġkuya ona
Ġkuya fikisha
Ġkuya kimbia
Ġmasa fa
Ġasi ngekuwa
Ġasi tishe
Ġasi ingilie
Ġika tokea
Ġwavu te
Ġwavu naji
Ġmau ngo
Ġmau rus
Ġwaliyo cheza
Ġwaliyo ipata
Ġvilivyo ko
Ġkira ndo
Ġmha nga
Ġutu mbo
Ġutu mwa
Ġhawaku ona
Ġhawaku ridhishwa
Ġkumwa gia
Ġkuhi timishwa
Ġnita m
Ġnita sema
Ġnita tumia
Ġhawaja kata
Ġhawaja tambuliwa
Ġis lam
Ġmwinyi haji
Ġalia nguka
Ġalia pishwa
Ġalia likwa
Ġhaija sajiliwa
Ġyasi n
Ġyasi we
Ġima mu
Ġmja ta
Ġkumbu ruza
Ġwapa nia
Ġwapa gani
Ġkato ni
Ġva lle
Ġilipo kwenda
Ġilipo fikia
Ġilipo ifunga
Ġmto e
Ġmto ro
Ġkite ra
Ġutaka tika
Ġataka pokuwa
Ġimea nzishwa
ani c
Ġmala ngali
Ġvinavyo tokana
Ġvinavyo milikiwa
Ġyaki tolewa
Ġyaki tokea
Ġyaki enda
Ġchai rman
Ġyasiyo ridhisha
Ġinavyo sema
Ġinavyo kuwa
Ġinavyo eleza
Ġinavyo wezekana
Ġinavyo shughulikia
Ġinavyo tafsiriwa
Ġmsu ruru
Ġmsu meno
sajili we
Ġakina mama
Ġwalizo cheza
Ġpatri ce
Ġmahi nga
Ġmasomo ni
Ġnika pata
Ġnika hisi
Ġw dl
Ġvime shindwa
Ġvime ongezeka
Ġkureje wa
kadi ri
Ġalivyo weza
Ġalivyo husika
Ġsule man
Ġgu i
Ġgu nia
Ġhaita fanya
Ġhaita mbui
Ġisiyo tarajiwa
Ġmso mba
fara nga
Ġwanapo taka
Ġwanapo kwenda
Ġwanapo amua
Ġwanapo ishi
Ġtuki weza
Ġzitakazo jadiliwa
Ġwanayo yapata
Ġhawata fanya
Ġkuamini wa
hami ki
Ġmadi nda
Ġmadi zini
Ġalizo pewa
Ġpu yol
Ġanga ruki
Ġwasa malia
Ġwalim kuta
Ġwalim peleka
Ġinapo fanya
Ġinapo fikia
Ġinapo karibia
Ġhaiku sema
Ġhaiku weka
Ġhaiku furahishwa
Ġukiwa mo
Ġusio zingatia
Ġange fanya
Ġeti enne
Ġamea nguka
Ġamea jiriwa
Ġkuba ndika
fya tulia
Ġnawa wi
Ġnawa shukuru
Ġami t
Ġkumwo nesha
Ġipa ngwe
Ġce ment
Ġhawakuwa hi
Ġkuza liana
Ġwanavyo tumia
Ġubi nadamu
Ġwanazo tumia
Ġwanazo pewa
Ġwanazo toka
Ġwalicho eleza
Ġanayo i
Ġanayo dai
Ġanayo toa
Ġanapo ona
Ġanapo tekeleza
Ġmhi ndi
Ġmhi mili
Ġtan power
Ġninacho jua
Ġninacho waomba
Ġtuka wa
Ġtuka pata
Ġtuka wapa
Ġwalia mbatana
Ġsham ra
Ġakim zungumzia
Ġmza nzibari
Ġkunyo osha
Ġfor ce
Ġatakaye bainika
Ġatakaye fukuzwa
Ġmashe ha
Ġben con
Ġvyenye we
tafu tie
Ġushu jaa
Ġwalioko lewa
Ġrwe yongeza
Ġeto o
Ġmakamba ko
Ġuu guzi
Ġaliko lazwa
Ġbure au
Ġkifa lme
Ġpapa ra
Ġq uali
Ġkuchu nga
Ġkuchu kuwa
Ġkuchu kia
Ġkivu le
Ġkivu mbi
Ġmagu ha
Ġilia ndikwa
Ġinawa shikilia
Ġinawa nyima
Ġuhamisho ni
er re
Ġsau dia
Ġmpo le
Ġmpo rogomyi
Ġmajimbo ni
Ġsungu sungu
Ġnilipo wauliza
Ġaliji fungua
Ġvia po
Ġwatakapo pata
Ġwatakapo jiridhi
Ġhauja anza
Ġkinye si
Ġban k
Ġbri en
Ġnyange rela
Ġmche cheto
Ġkana kamfu
Ġkupe nya
Ġinge chukua
Ġwange penda
Ġwange saini
Ġviki endelea
Ġviki changia
Ġanaji sumbua
Ġkuchi mbwa
Ġkisi ga
Ġgama nya
Ġkumua chia
Ġkumua ngusha
Ġbro oke
Ġanacho amini
Ġad hma
Ġmase la
Ġkaba tele
Ġtunawa subiri
Ġlilia nzia
Ġrwa karehe
Ġwamesha toa
Ġwamesha maliza
Ġkiha rusi
buru zwa
chelewe sha
Ġabdi kadiri
Ġmato nya
Ġmato roka
Ġkujio koa
Ġtusi je
Ġanam shangaa
Ġukati ri
Ġtb s
Ġtunacho takiwa
Ġmafi ga
Ġalini uliza
Ġsalo mon
Ġmuu mini
Ġatakapo fikisha
Ġukio nekana
Ġimeji kita
Ġmaya la
Ġbre lla
Ġlitaka po
Ġaondo lewe
Ġsto ri
Ġnico l
Ġwanaji vunia
Ġunavyo jua
Ġtuliyo pewa
Ġutakapo malizika
Ġuke ni
Ġkamu ngu
Ġhafi dhi
Ġviji dudu
Ġvivu li
Ġanazo fanya
Ġregi na
Ġdc b
Ġimebaki za
Ġnilia mini
Ġelia sa
Ġmwanaha lisi
Ġhazija thibitishwa
Ġyalio kotwa
Ġuti tiri
siki i
Ġalisha tangaza
Ġdomini c
Ġkuwaso mea
Ġkutolea na
Ġitai saidia
Ġubavu ni
Ġwama chinga
Ġalilo sema
Ġnsa chris
Ġulivyo kwenda
Ġulia ndaliwa
Ġii i
Ġkiini macho
Ġwami siona
Ġafa dhali
Ġmah tani
Ġniku pe
Ġniliwa ambia
Ġjac que
Ġlilipo zungumza
Ġlilipo fika
Ġclub s
Ġalivi taka
Ġkomba ini
Ġreg nald
Ġpromo sheni
Ġplaye d
Ġataji tahidi
Ġmati mbwa
Ġipi te
Ġalili toa
teke tezwa
Ġimem hukumu
Ġwakim shinikiza
Ġwakim tuhumu
Ġhaziku fanikiwa
Ġmpe ma
Ġmak sudi
Ġmaye nga
Ġupu uzi
Ġhiti misho
Ġparo ko
Ġluga ta
Ġkuepu kika
Ġkiho mbo
Ġger son
Ġnilivyo wahi
Ġmdau la
Ġnazi r
Ġuliwa silisha
Ġwalii chapa
Ġrwi za
eh mann
Ġjaco bo
Ġlive line
Ġinayote ngenezwa
Ġkoo ky
Ġplasti c
Ġmcho pa
Ġwam chague
tapa kaa
Ġnilio mba
Ġkuuli zia
Ġkumta zama
nggangga nizi
Ġtimoth y
Ġchampion ship
Ġkuio poa
Ġkuda ka
minia ni
Ġkuwaza wadia
Ġhaliku patikana
Ġzinavyo tumika
Ġkushe rekea
Ġspa in
Ġalika gua
Ġwanaa ngamia
Ġwanafa idi
Ġmbavu ni
Ġkuangu kiwa
Ġkuangu kia
ongeze wa
Ġwamu one
Ġkunya kuwa
Ġspo rting
lan keti
Ġhaifa i
Ġhaifa hamiki
Ġwaliko kwenda
Ġeli sante
Ġkuia chia
Ġsheki dele
Ġnilim jibu
Ġqa ida
Ġaku twe
Ġsco lari
Ġzinge fanywa
Ġzinge tumika
Ġzilio nekana
Ġzilio nesha
Ġmuho go
Ġwamei sababishia
Ġmbwe tte
Ġukodi shwaji
Ġkushtu shwa
Ġyaliwa kabili
tawa liwa
Ġsikio ni
Ġmizi ngo
Ġkutoi chagua
Ġkutoi pigia
Ġjusti ce
Ġpharma cce
Ġsylve stre
Ġscho ol
Ġufi lipino
Ġpaki stani
Ġoce anic
Ġwalioji endeleza
Ġunakaribia na
Ġrudi sha
Ġhelko pita
Ġate uliwe
Ġkiria ndong
Ġkosta din
Ġkosta dic
Ġtour nament
Ġgidi on
Ġgidi yabwa
Ġludo vic
Ġcosta ntine
Ġguru dumu
Ġwamerudi shwa
Ġshungu li
Ġjona s
Ġkuchangisha na
Ġhauku zingatia
Ġxa vi
Ġvitakavyo nufaika
Ġmab lanketi
Ġuvi vu
Ġuvi mbe
Ġkiche ko
Ġnte mo
Ġilicha pwa
Ġilicha ruka
Ġtit le
Ġtit les
Ġpar mena
geu kia
Ġcc brt
Ġflu ehmann
Ġsok ya
Ġsok si
Ġmtei te
Ġinve stment
Ġinve stiment
Ġkungga ra
Ġnaa ly
Ġkami saa
Ġmili to
Ġvifu rushi
Ġkuipe perusha
Ġomba omba
Ġdeus dedit
Ġhawaa miniani
Ġkiuta maduni
Ġtulizo nazo
Ġenterpri ses
Ġkw ua
Ġwal cott
Ġkuridhi wa
Ġnafta r
Ġsg r
Ġukika milika
wele zea
Ġkiwi laya
Ġkifi kra
Ġnicho laus
Ġbate nzi
Ġseke retarieti
Ġdho w
Ġwaliopa twa
Ġhawaji tumi
Ġshavu ni
Ġzimeo kotwa
Ġmitsubi sh
isa l
Ġfan ja
Ġngga mbi
Ġmsema kweli
Ġmgi na
Ġadi mu
Ġusu kani
Ġkau wekeza
Ġhigh land
Ġjawa ra
Ġth t
Ġthelu thi
Ġkukau shia
Ġsur vey
mlazi mu
Ġcoco dy
Ġwasafi rishaji
Ġkusababi shiwa
fran co
Ġmsha biki
Ġchau dhary
Ġdona ire
Ġroge rs
Ġcoa stal
Ġninavyo zungumza
Ġcent ral
Ġberna beu
Ġgian franco
Ġkambo na
Ġlaa kko
Ġbru ce
Ġservi ce
Ġlemb resi
Ġruga zia
Ġshanga rai
Ġmagazi ne
Ġprinte rs
ogra fia
rmai ne
sja ur
Ġmnza va
Ġwarti sla
Ġwampi gie
Ġwashangilia ji
Ġwanufai ke
Ġkuongo zea
Ġkuheshi miana
Ġadhi ma
Ġack ley
Ġanua ni
Ġsre dojevic
Ġster wart
Ġschal ke
Ġmayo we
Ġmadha mbi
Ġmahusu si
Ġubisha ni
Ġuendeshwa ji
Ġuwasilisha ji
Ġuima ra
Ġkahe na
Ġkango mba
Ġizinga tie
Ġhansa rd
Ġhick s
Ġhisaba ti
Ġkiswa ga
Ġkissi mbo
Ġkiburu gwa
Ġkinsha sa
Ġalifi kwa
toko meza
Ġsiva ngilwa
Ġnso mbo
Ġnkuru mah
Ġnss f
Ġnjele kela
Ġnzabo nimana
Ġmilu tin
Ġmindu va
Ġmista ri
Ġminta nga
Ġsaraka si
Ġsalva tory
Ġchanggwa lu
Ġmove ment
Ġmort gage
Ġmonomo tapa
Ġsege rea
Ġtukaa mbiwa
Ġmwambi ngu
Ġbilio nea
Ġbisse t
Ġinawali nda
Ġpalku ris
Ġmuhara mi
Ġmunjo li
Ġmughe iry
Ġrash has
Ġjinta o
Ġcel lo
Ġclean ser
Ġtcc ia
Ġkuivuru ga
Ġoca mpo
Ġmaafikia no
Ġwameshutu shwa
Ġpoly carp
Ġkujifunzi a
Ġwaliotawa nyika
Ġkumnyo foa
Ġkumyoo shea
Ġlenno x
Ġmkasim wongwa
Ġshemwe ta
Ġshemwele kwa
Ġmaradu fu
Ġzilifya tuliwa
Ġperami ho
Ġzomea zomea
Ġhawanufai ki
Ġghari b
Ġrujwa hula
Ġruwai chi
Ġbunyi huna
Ġbusere sere
Ġngurdo to
Ġsharri f
Ġkutetere ka
Ġalpho nce
Ġrenal da
Ġluseke lo
Ġrotike n
fedhe hesha
Ġarvid sjaur
Ġcanto na
Ġcassia n
Ġabramo vich
Ġathana s
Ġkushuguli kia
Ġgongola mboto
Ġgospe l
Ġgotebo rg
Ġvalle y
Ġwatakapojiridhi sha
Ġkanakamfu mu
Ġwamisiona ri
Ġpharmacce ss
Ġlaakko nen
b yari
c chi
c ro
d ro
i hidi
i weka
i chapa
k maa
l t
m na
m ya
m kini
m pita
m kubali
m chagua
m wino
n sheni
n can
o z
p ress
r den
r ray
u tumia
u zwe
u gh
u riano
u wezo
y re
y maa
y dou
Ġ punguza
wa r
wa ta
wa nia
wa zwa
wa ingiza
Ġk hu
na ye
Ġm ma
Ġm nu
Ġm soma
Ġm chumi
Ġm liona
Ġm thamini
Ġm kifanya
Ġm filisi
Ġm pumbavu
Ġm kwinda
li ve
li shia
li fahamu
Ġwa nde
Ġwa fanyi
Ġwa ratibu
Ġwa hitaji
Ġwa el
Ġwa mwa
Ġwa fahamu
Ġwa haribifu
Ġwa eleze
Ġwa sso
Ġwa pumzike
Ġwa rejeshwe
Ġwa julikane
Ġku nga
Ġku liam
Ġku shangaa
Ġku hitajika
Ġku fanyike
Ġku zui
Ġku pelekea
Ġku nguruma
Ġku dondoka
Ġku pumzishwa
ha d
ha j
ha ria
ha kama
ha ndu
ya nga
ka li
ka pi
ka lia
ka nwa
Ġna ki
Ġna shindwa
Ġna ssa
Ġna soro
Ġna ahidi
Ġna kumbuka
Ġna tamani
ni e
ni unga
ni um
Ġa vu
Ġa nya
Ġa fahamu
Ġa onya
Ġa den
Ġya ya
Ġya kia
Ġya daiwa
Ġya ishe
Ġya nini
Ġya mkini
ta el
ta neti
ba no
ba miza
ba ika
ba guliwa
ba hatika
ng yo
Ġs ma
Ġs ti
Ġs fa
Ġs lo
Ġs pe
Ġs now
Ġs wahiba
ma ya
Ġma nd
Ġma nga
Ġma sika
Ġma rida
Ġma lya
Ġma cca
ti fa
ti bia
ti shiwa
za me
za wadiwa
ri ng
ri um
ki i
ki taka
ki zaji
ki chini
ki mya
la nya
la ve
zi sha
zi taja
Ġu be
Ġu hara
Ġu pungu
Ġu zee
Ġu ondoa
Ġu nder
Ġu badilike
Ġu mbile
Ġu malizike
Ġka t
Ġka sha
Ġka shindwa
Ġka lamu
Ġka vis
nd sa
nd wi
Ġi chi
Ġi mo
Ġi je
Ġi ndo
Ġi vu
Ġi nchi
Ġi ngia
Ġi kaa
Ġi gogo
Ġi seme
Ġi chukuliwe
Ġi pewe
Ġi onekane
Ġi tokee
Ġi fanyiwe
Ġi endayo
Ġi onge
Ġi chezwe
ku nywa
Ġha d
Ġha v
Ġha pp
Ġha lf
Ġha byari
ji bo
ji endesha
ji tuma
ji biwa
hu jumu
si fika
si misha
si ndikiza
we n
we lekeza
tu nga
tu fanya
tu ndika
tu liza
Ġhi ro
Ġhi vo
Ġhi lls
Ġhi maya
ja nja
ja zana
ra ma
ra ika
ra tion
Ġki b
Ġki lu
Ġki ngwa
Ġki raka
Ġki in
Ġki nyanga
Ġki twana
mba ka
mba shi
Ġali se
Ġali pita
Ġali lala
Ġali ia
Ġali panga
Ġali fahamu
Ġali tegemea
Ġali kua
Ġali ruhusu
Ġali fahamika
Ġali zua
Ġali ripotiwa
Ġali pendekeza
Ġali furahishwa
Ġali unganisha
Ġali patiwa
Ġali tupa
Ġali nunua
Ġali shauriwa
Ġali tofautiana
Ġali tulia
Ġali malizia
Ġali sifu
Ġali vunjika
Ġali tii
Ġali hamia
Ġali rejeshwa
Ġali vuka
Ġali lazimishwa
Ġali zawadiwa
le zo
da lena
bi c
bi kia
sa la
pa to
pa vu
pa ndisha
fu mania
mi we
mi nye
mi ia
Ġv er
se li
Ġkuwa jua
Ġkuwa jibu
Ġkuwa kabili
Ġkuwa asa
Ġkuwa panga
Ġkuwa uliza
Ġkuwa fuatilia
Ġkuwa nunua
Ġkuwa buru
Ġkuwa kusanya
Ġkuwa dhalilisha
Ġkuwa danganya
Ġkuwa tosa
Ġkuwa taarifu
Ġkuwa kilishwa
Ġkuwa shtua
Ġkuwa nunulia
Ġkuwa tibia
Ġta ulo
Ġta zama
ke sha
ke llo
bu yu
bu du
bu bujikwa
shi ndani
Ġni kio
Ġni rudi
Ġni ck
Ġni yon
Ġni ckson
Ġni taanza
Ġni jue
Ġni pewe
Ġni ingie
te sha
te ngana
te lea
te ngenezea
he l
he lm
Ġsi hitaji
Ġsi ngano
po li
po kelewa
Ġhu m
Ġhu fa
Ġhu po
Ġhu cheza
Ġhu pita
Ġhu tokana
Ġhu zalisha
Ġhu leta
Ġhu jikuta
Ġhu sababishwa
Ġhu ambiwa
Ġhu andaa
Ġhu anzia
Ġn se
Ġn ke
Ġn jiwa
Ġla kshi
Ġba mba
Ġba pa
Ġba dhi
Ġba nde
Ġba ske
Ġba kuli
ne sia
ne kano
Ġmi to
Ġmi lo
Ġmi kosi
Ġmi suru
Ġmi nyororo
Ġmi himili
Ġmi shale
Ġsa w
Ġsa nta
Ġsa hel
ko ro
ko dia
Ġb ra
Ġb end
nga liwa
Ġvi we
Ġvi ga
Ġvi je
Ġvi bovu
Ġvi shawishi
Ġvi onjo
ho i
Ġcha lle
Ġcha mwino
chi chi
chi pukia
Ġwana ni
Ġwana rudi
Ġwana enda
Ġwana onesha
Ġwana fikia
Ġwana patikana
Ġwana chukuliwa
Ġwana kufa
Ġwana kubaliana
Ġwana lalamika
Ġwana maliza
Ġwana pokea
Ġwana vaa
Ġwana tumiwa
Ġwana shangaa
Ġwana jiandaa
Ġwana jikuta
Ġwana hudhuria
Ġwana kiuka
Ġwana kamilisha
Ġwana kumbana
Ġwana muunga
Ġwana teseka
Ġwana onewa
Ġwana fahamiana
Ġwana buruzwa
Ġili piga
Ġili panga
Ġili ondo
Ġili changia
Ġili endeleza
Ġili panda
Ġili ruhusu
Ġili beba
Ġili iambia
Ġili unda
Ġili uzwa
Ġili kubalika
Ġili zitaka
mo ta
mo ngo
mo rial
wi a
wi ti
wi ana
ngu la
ngu shwa
Ġkuto chukua
Ġkuto tumika
Ġkuto fahamu
Ġkuto lipa
Ġkuto wasilisha
Ġkuto wapa
Ġkuto kidhi
Ġkuto husishwa
Ġkuto walipa
ndi kizwa
ndi kizaji
ju u
ju kumu
ju muika
fi chua
fi lipino
Ġwali li
Ġwali tokea
Ġwali unga
Ġwali baki
Ġwali patikana
Ġwali maliza
Ġwali stahili
Ġwali tuhumiwa
Ġwali ruhusiwa
Ġwali hojiwa
Ġwali niambia
Ġwali tawala
Ġwali tupa
Ġwali liambia
Ġwali shangilia
Ġwali kaidi
Ġwali shushwa
nge ra
nge tokea
nge nder
Ġmo sse
Ġmo chari
Ġmo nela
Ġe a
Ġe bu
Ġe mbe
Ġe ct
Ġe ngender
Ġse c
Ġse ki
Ġse pe
Ġse be
re d
re t
re ko
re rs
re mko
re mke
re kodi
ga mba
ga rt
ga wiwa
Ġtu i
Ġtu lisha
Ġtu amini
Ġtu lianza
Ġtu chukue
Ġtu zungumze
Ġtu kufu
Ġtu kubaliane
Ġmwa ngu
Ġmwa mbie
Ġmwa lami
go ni
go mbe
Ġkama ta
Ġzi mo
Ġzi kiri
Ġzi saidie
Ġzi ingie
Ġzi tolewe
Ġzi malizane
Ġzi uzwe
Ġli ke
Ġli itwa
Ġli tokee
Ġli ght
Ġli ving
Ġli ndsa
Ġd ri
Ġd st
Ġd jibo
Ġda z
Ġda ta
Ġda fa
Ġda kawa
Ġti mamu
ro ng
ro ver
ro fisha
ro oz
je mas
Ġbi o
Ġbi shara
Ġbi ll
Ġju an
Ġmku fu
dha ma
dha nia
Ġana ki
Ġana funga
Ġana onesha
Ġana kubali
Ġana endesha
Ġana fariki
Ġana julikana
Ġana lenga
Ġana kataa
Ġana lipwa
Ġana wataka
Ġana ruhusiwa
Ġana shikilia
Ġana shukuru
Ġana chaguliwa
Ġana kumbuka
Ġana pingana
Ġana vuta
Ġana imani
Ġana tory
Ġana kupenda
Ġina o
Ġina ona
Ġina omba
Ġina endesha
Ġina husisha
Ġina malizika
Ġina tuhumiwa
Ġina shirikisha
Ġina pungua
Ġina tengeneza
Ġina pingwa
Ġina badilika
Ġina maanisha
Ġina uma
Ġina umiza
Ġina jukumu
ze ni
Ġwaka tokea
Ġwaka kubali
Ġwaka toka
Ġwaka ongeza
Ġwaka poteza
Ġwaka niambia
yi minye
Ġpa a
Ġpa uli
Ġpa per
gu n
gu liwe
Ġmu re
Ġmu one
Ġmu ita
Ġmu llah
Ġmu rray
Ġaki ji
Ġaki lala
Ġaki amua
Ġaki miliki
Ġaki ulizwa
Ġaki uliza
Ġaki poteza
Ġaki tetea
Ġaki tembelea
Ġaki ahidi
Ġaki safiri
Ġaki pigiwa
Ġaki anzia
Ġaki tamka
Ġaki yafanya
Ġaki kumbana
Ġaki zitoa
Ġaki bubujikwa
Ġwe s
Ġwe ll
Ġwe nzenu
Ġme n
Ġme cky
Ġme morial
su gua
Ġra pa
Ġra yon
Ġpi lla
Ġwatu tsi
Ġmwaka nyama
Ġmwaka mele
idi e
Ġt ta
Ġmba sha
Ġame baini
Ġame shauri
Ġame badili
Ġame fuata
Ġame tua
Ġame goma
Ġame pangwa
Ġame tetea
Ġame pongeza
Ġame bainisha
Ġame ruhusiwa
Ġame saini
Ġame kwisha
Ġame fuzu
Ġame fukuzwa
Ġame tengeneza
Ġame teua
Ġame tumwa
Ġame vutiwa
Ġame kerwa
Ġame farijika
Ġame litaka
Ġame kitaka
Ġkua zima
Ġkua fiki
Ġkua budu
Ġko fi
Ġko pe
vu ja
Ġkui tia
Ġkui mali
Ġkui lamu
Ġkui onesha
Ġkui dhibiti
Ġkui pinga
Ġkui leta
Ġkui pongeza
Ġkui ridhisha
Ġkui chagua
Ġkui angalia
Ġkui karibisha
Ġkui samba
Ġkui boresha
Ġkui haribu
Ġkui tafutia
Ġkui dhoofisha
Ġkui tunza
Ġkui sambaza
yu t
yu nga
Ġmia liko
Ġshi lton
Ġime wahi
Ġime kiri
Ġime pigwa
Ġime ondoka
Ġime saini
Ġime kwama
Ġime ifanya
Ġime kumbwa
Ġime pendekezwa
Ġime gawanyika
Ġo lewa
Ġo ndoka
Ġo kapi
Ġo wen
Ġo kello
Ġwame ki
Ġwame sisitiza
Ġwame funga
Ġwame kutana
Ġwame tiwa
Ġwame ishi
Ġwame zidi
Ġwame patikana
Ġwame soma
Ġwame changia
Ġwame sikia
Ġwame beba
Ġwame shuhudia
Ġwame ongezeka
Ġwame kwama
Ġwame ripotiwa
Ġwame furahishwa
Ġwame fuzu
Ġwame shikwa
Ġwame ishauri
Ġwame sitisha
Ġwame sahaulika
Ġwame jazana
Ġpo telea
do r
lu ka
zungu sha
Ġhata rajii
Ġhata jiuzulu
Ġwata lala
Ġwata piga
Ġwata fika
Ġwata onekana
Ġwata toka
Ġwata jitokeza
Ġwata ibuka
Ġwata onyesha
Ġwata pelekwa
Ġwata fungua
Ġwata ngazaji
Ġwata ishia
Ġwata chuana
Ġwata yarishaji
kama twe
Ġmko loni
Ġtanzania n
mbu keni
Ġwaki eleza
Ġwaki fungwa
Ġwaki shika
Ġwaki tangaza
Ġwaki hisi
Ġwaki sikia
Ġwaki uza
Ġwaki jitahidi
Ġwaki tekeleza
Ġwaki hudhuria
Ġwaki vunja
Ġwaki fuatiwa
Ġwaki zunguka
Ġwaki jihusisha
Ġwaki shapata
Ġwaki lalama
Ġkuji fu
Ġkuji amu
Ġkuji ingizia
Ġkuji tosa
Ġkuji fananisha
Ġkuji zatiti
Ġkuji fedhehesha
Ġkuji tundika
Ġkuji gamba
Ġke nyo
nu e
Ġhali paswi
Ġwalio mo
Ġwalio tumia
Ġwalio daiwa
Ġwalio kula
Ġwalio funga
Ġwalio onesha
Ġwalio tarajiwa
Ġwalio ripoti
Ġwalio ibuka
Ġwalio jiunga
Ġwalio fuzu
Ġwalio jitambulisha
Ġwalio guswa
Ġwalio kulia
Ġwalio utoa
Ġkuu wa
Ġkuu omba
Ġkuu kubali
Ġkuu peleka
Ġkuu fanyia
Ġkuu onyesha
Ġkuu tetea
Ġkuu fananisha
Ġkuu mizwa
Ġkum jibu
Ġkum weka
Ġkum fikia
Ġkum tangaza
Ġkum maliza
Ġkum chunguza
Ġkum shangaa
Ġkum tolea
Ġkum hifadhi
Ġkum sahau
Ġkum tupa
Ġkum laumu
Ġkum gusa
Ġkum changanya
Ġkum samehe
Ġkum chezesha
Ġle e
Ġfe rooz
Ġiliyo wa
Ġiliyo shindwa
Ġiliyo jitokeza
Ġiliyo fanyiwa
Ġiliyo kufa
Ġiliyo panda
Ġiliyo beba
Ġiliyo wapa
Ġiliyo kusudiwa
Ġiliyo zaa
Ġiliyo mkuta
Ġiliyo katwa
Ġiliyo jiwekea
Ġho ward
Ġho ngera
so u
so gea
so geza
Ġuna dai
Ġuna pata
Ġuna tia
Ġuna tumia
Ġuna pita
Ġuna fiki
Ġuna enda
Ġuna kutana
Ġuna subiri
Ġuna itwa
Ġuna tafuta
Ġuna elewa
Ġuna fikiri
Ġuna gharimu
Ġhatu fanyi
Ġhatu kubali
Ġuta leta
Ġuta shangaa
Ġuta wafanya
Ġuta tuzi
vi an
vi sion
Ġmwi ta
Ġmwi ga
Ġmwi gizaji
Ġkam ti
Ġwao nge
Ġye ke
Ġye ster
wo od
Ġga d
Ġga me
Ġga rama
Ġbo mbo
Ġbo moa
Ġkupi kwa
Ġita shiriki
Ġita baki
Ġita husisha
Ġita fungua
Ġita malizika
Ġita tembelea
Ġita ondoa
Ġita ongezeka
Ġita ingiza
Ġita angalia
Ġita fute
Ġita ongezewa
Ġmka o
Ġmka toliki
Ġte ke
Ġsiku taka
Ġsiku pata
Ġsiku jua
Ġsiku baliani
Ġshe pu
Ġshe kio
Ġkuli chukua
Ġkuli sababisha
Ġkuli fikia
Ġkuli kuwepo
Ġkuli wezesha
Ġkuli tambua
Ġkuli tetea
Ġkuli tafutia
jia ngusha
Ġp st
kwa ni
Ġkuhu jumiwa
Ġupa chika
Ġkili fanya
Ġkili zua
Ġshu guli
Ġkutoa miniana
Ġnyu fa
be bwa
be rwa
Ġkufu mbia
Ġzina tokea
Ġzina ingia
Ġzina kuja
Ġde s
Ġzili shindwa
Ġzili fanywa
Ġzili fungwa
Ġmasha uriano
baini ke
Ġfa dhili
Ġfa tael
Ġso mani
Ġso ny
Ġso meni
Ġso cce
Ġkuta tuliwa
Ġume fanyika
Ġume tokea
Ġume enda
Ġume weka
Ġume panda
Ġume zua
Ġume pitwa
Ġume enea
Ġkuna swa
Ġkuna ifanya
Ġaliye daiwa
Ġaliye tokea
Ġaliye kuja
Ġaliye ibuka
Ġaliye ondoka
Ġaliye shuhudia
Ġaliye umia
Ġaliye tenda
Ġaliye simamishwa
Ġto uri
Ġpe ma
Ġpe dro
Ġpe nsheni
Ġmtu tu
one s
one ka
Ġhaku fafanua
Ġhaku kubaliana
Ġhaku ridhika
Ġhaku mtaja
Ġmwe we
Ġmwe tu
Ġmwe upe
Ġmwe beya
Ġtuna enda
Ġtuna zalisha
Ġtuna shuhudia
Ġtuna jipanga
Ġtuna elewa
Ġtuna fuatilia
Ġtuna ungana
Ġtuna jiuliza
Ġtuna vyoweza
Ġmata yari
Ġmata nki
Ġmata tani
Ġkusa mehe
Ġhawa hitaji
Ġhawa kubali
Ġhawa husiki
Ġhawa ruhusiwi
Ġhawa tumii
Ġuli ye
Ġuli fanya
Ġuli weza
Ġuli kwenda
Ġuli ongozwa
Ġuli maji
Ġuli shuhudia
Ġuli changiwa
Ġuli imarishwa
Ġuli zimwa
Ġkuka wepo
Ġkuka sirika
Ġyali zidi
Ġyali ongozwa
Ġyali wekwa
Ġyali lenga
Ġyali mfanya
Ġyali fikiwa
Ġyali vunjwa
Ġmaka to
Ġwanao onekana
Ġwanao paswa
Ġwanao dhani
Ġwanao ngea
Ġwanao tegemea
Ġwanao lalamika
Ġwanao vaa
Ġwanao bainika
Ġwanao hitajika
Ġwanao wataka
Ġwanao zomea
Ġwanao sumbuliwa
Ġwanao husishwa
Ġwanao upata
Ġwanao heshimika
Ġwanao niunga
Ġchi le
Ġchi pata
Ġchi bulu
Ġchi lave
Ġmwana ndoa
Ġmwana jamii
Ġj ones
Ġhaki miliki
Ġsu nga
Ġru ta
Ġru ti
Ġkupa ndwa
Ġiki tolewa
Ġiki chukua
Ġiki julikana
Ġiki maliza
Ġiki shughulikia
Ġiki jitahidi
Ġiki itaka
Ġiki tangazwa
Ġiki sikilizwa
Ġiki lalamikiwa
Ġiki kemea
Ġlili pita
Ġlili beba
Ġlili vyokuwa
Ġlili pitishwa
Ġlili mtafuta
Ġbu t
Ġbu berwa
Ġulio dumu
Ġulio fanikisha
Ġulio jengwa
Ġyana fanya
Ġyana taka
Ġyana toka
Ġyana patikana
Ġyana tegemea
Ġyana ifanya
Ġyana potokea
Ġwaa mke
Ġwaa mbie
Ġwaa chie
Ġsha ni
Ġsha da
Ġsha ihidi
Ġdu ncan
shu a
Ġuwe ke
Ġdo kta
Ġdo wn
Ġinayo tokea
Ġinayo faa
Ġinayo paswa
Ġinayo kabiliwa
Ġinayo stahili
Ġinayo undwa
Ġinayo leta
Ġinayo uzwa
Ġinayo andaliwa
Ġinayo kubalika
Ġinayo lingana
Ġkute mwa
Ġkute gea
Ġkute seka
Ġtume sha
Ġtume zungumza
Ġtume baini
Ġtume toka
Ġtume sikia
Ġtume fungua
Ġtume ongeza
Ġtume jitahidi
Ġri ziki
Ġkina sema
Ġkina tumia
Ġkina amini
Ġkina paswa
Ġkina ongozwa
Ġkina wezekana
Ġkina elezea
Ġal ves
Ġal masi
Ġal kmaa
Ġal haj
Ġzilizo nunuliwa
taji tokeza
Ġham fahamu
Ġusa idizi
Ġusa gaji
Ġjo shua
Ġhai ji
Ġhai fanyi
Ġhai elewe
Ġhai kidhi
Ġhai saidii
Ġhai furahii
Ġhai maanishi
Ġute ja
Ġata zungumza
Ġata jua
Ġata kubali
Ġata nyo
Ġata staafu
Ġata pelekwa
Ġata ruhusiwa
Ġata pambana
Ġata pona
Ġalipo taka
Ġalipo rudi
Ġalipo pewa
Ġalipo fikia
Ġalipo rejea
Ġalipo pigwa
Ġalipo ondoka
Ġalipo jiunga
Ġalipo kewa
Ġalipo ongea
Ġakiwa taja
Ġmfu ru
Ġpili ka
Ġlina pata
Ġlina fanyiwa
Ġlina shikiliwa
Ġlina uzwa
ia ndikia
Ġhe a
Ġhe leni
Ġas teria
Ġas yut
Ġkima tendo
Ġkima hakama
Ġkima pato
Ġnya ya
Ġnya wazwa
Ġnya mongo
Ġre fu
Ġre ina
zia cha
njwa ji
Ġfu ko
Ġaliwa laumu
Ġkura simisha
Ġmcha ngani
Ġmaisha ni
rudi sho
rudi shiwa
unga ne
kele ze
Ġzinazo anza
Ġzinazo faa
Ġzinazo chezwa
Ġzinazo shughulikia
Ġzinazo simamia
Ġzinazo fanana
pungu zwa
Ġhos pta
Ġwasi ji
Ġwasi fu
Ġwasi rudi
Ġwasi ingie
Ġwasi kilizaji
Ġwasi ndikizaji
Ġyaliyo onekana
Ġyaliyo toka
Ġyaliyo kuwepo
Ġyaliyo tajwa
Ġyaliyo andaliwa
Ġyaliyo rushwa
Ġyaliyo zungumzwa
Ġyaliyo kubaliwa
Ġyaliyo kuwemo
Ġlu pa
Ġlu lu
Ġlu hala
Ġkuzi wezesha
Ġkuzi fumania
ibu ke
Ġpro ta
Ġpro sper
Ġmpi nga
Ġaka fanya
Ġaka cheza
Ġaka kuta
Ġaka chukua
Ġaka ingia
Ġaka fariki
Ġaka nywa
Ġaka chagua
Ġaka niambia
Ġzime cheza
Ġzime pewa
Ġzime funga
Ġzime tangaza
Ġzime pelekwa
Ġzime undwa
Ġzime jengwa
Ġzime ripotiwa
mwa nga
mwa gia
Ġlo ngo
Ġlo ve
Ġkiu no
Ġkiu janja
Ġkiu shindani
Ġge tini
Ġge handu
Ġuhu sika
Ġwakiwa ita
Ġkuondo shwa
Ġkuondo kewa
Ġbina mu
Ġkupo kwa
poti wa
Ġro dri
Ġro mania
Ġro cchi
Ġilikuwa po
Ġco me
Ġndo vu
Ġfi go
Ġfi nance
Ġmta wala
Ġmta ita
Ġmta nashati
Ġuki toa
Ġuki tumia
Ġuki fanyiwa
Ġar teta
Ġhaya jengi
Ġhaya toshelezi
Ġyanayo tia
Ġyanayo toa
Ġyanayo faa
Ġyanayo onesha
Ġyanayo paswa
Ġyanayo changia
Ġyanayo kwamisha
Ġyanayo wahusu
Ġkutu patia
Ġkutu ambia
Ġkutu nukiwa
Ġkutu kanwa
fo ka
fo nte
Ġvita saidia
Ġkundi ni
Ġkuki taka
Ġkuki tumia
Ġkuki peleka
Ġkuki jenga
Ġkuki noa
Ġkuki nzana
Ġkuja zwa
Ġkuja miia
ly wood
nne s
Ġlime dai
Ġlime isha
Ġlime amua
Ġlime jaa
Ġlime ongeza
Ġlime kabidhiwa
Ġlime shindikana
Ġmao mbole
Ġze nji
Ġnili shindwa
Ġnili ingia
Ġnili toka
Ġnili shuhudia
Ġnili uza
Ġnili chofanya
Ġnili chokuwa
Ġkucha kaa
Ġwate gemee
Ġwate remke
Ġwate keleze
Ġunao daiwa
Ġunao tokea
Ġunao hitaji
Ġunao stahili
Ġunao hitajika
Ġunao fanana
Ġhati shiki
Ġmaje mbe
kubali ki
Ġanaye husika
Ġanaye toka
Ġanaye miliki
Ġanaye stahili
Ġanaye kwamisha
Ġanaye tamba
Ġanaye heshimika
Ġkuvu mi
Ġkilicho takiwa
Ġkilicho jiri
Ġkilicho kaa
Ġkilicho wafanya
Ġkilicho andikwa
Ġuka e
Ġlililo mshinda
Ġilivyo wahi
Ġilivyo ahidiwa
Ġilivyo rekebishwa
Ġnam penda
Ġman ka
Ġman su
mui ta
toka yo
Ġmapi to
ff rey
Ġyame saidia
Ġyame sababisha
Ġyame zidi
Ġyame fikiwa
Ġyame wasilishwa
Ġnye ngine
Ġnye usi
Ġvina tumika
Ġvina fanana
Ġca ta
Ġca me
Ġca rri
Ġca story
Ġmte mi
Ġmte bwa
Ġmte remko
Ġnime kuta
Ġnime kwenda
Ġnime kaa
Ġnime sikitishwa
Ġnime furahishwa
Ġnime choka
Ġkita mbi
Ġkita fanyika
Ġkita ingia
Ġkita fiti
Ġab rahaman
Ġab del
Ġdi d
Ġdi semba
Ġdi rk
Ġdi vision
xi en
Ġmale nga
Ġat rium
Ġkuele wana
Ġnu nua
mishi we
Ġtuta chukua
Ġtuta ingia
Ġtuta ongeza
Ġtuta fikisha
Ġtuta leta
Ġkinacho fanya
Ġkinacho tokea
Ġkinacho sababisha
Ġkinacho husu
Ġkinacho shika
Ġkinacho fuata
Ġkinacho elezwa
Ġisi po
Ġin taneti
Ġalim toa
Ġalim tetea
Ġalim welezea
Ġkuti liana
Ġmako ye
Ġmafu mbo
Ġmafu vu
Ġtuli cho
Ġtuli tarajia
Ġtuli fanikiwa
Ġtuli dhani
Ġtuli tegemea
Ġhaja enda
Ġhaja funga
Ġmaju ma
Ġkime ona
Ġkime baki
Ġkime poteza
Ġai rway
Ġzita fanywa
Ġzita panda
Ġzita lipwa
Ġzita chezwa
nt s
nyo o
nyo nya
Ġalii mba
Ġalii taja
Ġalii dhibiti
Ġalii kabidhi
Ġalii ngilia
Ġalii dhinisha
[...]
