<s>	0
</s>	1
<unk>	2
<pad>	3
!	4
"	5
#	6
$	7
%	8
&	9
'	10
(	11
)	12
*	13
+	14
,	15
-	16
.	17
/	18
0	19
1	20
2	21
3	22
4	23
5	24
6	25
7	26
8	27
9	28
:	29
;	30
<	31
=	32
>	33
?	34
@	35
A	36
B	37
C	38
D	39
E	40
F	41
G	42
H	43
I	44
J	45
K	46
L	47
M	48
N	49
O	50
P	51
Q	52
R	53
S	54
T	55
U	56
V	57
W	58
X	59
Y	60
Z	61
[	62
\	63
]	64
^	65
_	66
`	67
a	68
b	69
c	70
d	71
e	72
f	73
g	74
h	75
i	76
j	77
k	78
l	79
m	80
n	81
o	82
p	83
q	84
r	85
s	86
t	87
u	88
v	89
w	90
x	91
y	92
z	93
{	94
|	95
}	96
~	97
¡	98
¢	99
£	100
¤	101
¥	102
¦	103
§	104
¨	105
©	106
ª	107
«	108
¬	109
®	110
¯	111
°	112
±	113
²	114
³	115
´	116
µ	117
¶	118
·	119
¸	120
¹	121
º	122
»	123
¼	124
½	125
¾	126
¿	127
À	128
Á	129
Â	130
Ã	131
Ä	132
Å	133
Æ	134
Ç	135
È	136
É	137
Ê	138
Ë	139
Ì	140
Í	141
Î	142
Ï	143
Ð	144
Ñ	145
Ò	146
Ó	147
Ô	148
Õ	149
Ö	150
×	151
Ø	152
Ù	153
Ú	154
Û	155
Ü	156
Ý	157
Þ	158
ß	159
à	160
á	161
â	162
ã	163
ä	164
å	165
æ	166
ç	167
è	168
é	169
ê	170
ë	171
ì	172
í	173
î	174
ï	175
ð	176
ñ	177
ò	178
ó	179
ô	180
õ	181
ö	182
÷	183
ø	184
ù	185
ú	186
û	187
ü	188
ý	189
þ	190
ÿ	191
Ā	192
ā	193
Ă	194
ă	195
Ą	196
ą	197
Ć	198
ć	199
Ĉ	200
ĉ	201
Ċ	202
ċ	203
Č	204
č	205
Ď	206
ď	207
Đ	208
đ	209
Ē	210
ē	211
Ĕ	212
ĕ	213
Ė	214
ė	215
Ę	216
ę	217
Ě	218
ě	219
Ĝ	220
ĝ	221
Ğ	222
ğ	223
Ġ	224
ġ	225
Ģ	226
ģ	227
Ĥ	228
ĥ	229
Ħ	230
ħ	231
Ĩ	232
ĩ	233
Ī	234
ī	235
Ĭ	236
ĭ	237
Į	238
į	239
İ	240
ı	241
Ĳ	242
ĳ	243
Ĵ	244
ĵ	245
Ķ	246
ķ	247
ĸ	248
Ĺ	249
ĺ	250
Ļ	251
ļ	252
Ľ	253
ľ	254
Ŀ	255
ŀ	256
Ł	257
ł	258
Ń	259
wa	260
Ġk	261
na	262
Ġm	263
li	264
Ġwa	265
Ġku	266
ya	267
ha	268
ka	269
Ġu	270
Ġna	271
ni	272
hi	273
Ġya	274
ta	275
Ġa	276
ba	277
ng	278
ma	279
ti	280
Ġs	281
Ġma	282
za	283
ri	284
ki	285
nk	286
la	287
Ġunk	288
zi	289
nd	290
Ġka	291
yo	292
čĊ	293
ku	294
Ġi	295
Ġkwa	296
ji	297
hu	298
si	299
Ġha	300
ja	301
we	302
mba	303
ra	304
Ġhi	305
tu	306
Ġki	307
fa	308
to	309
da	310
bi	311
le	312
sa	313
cha	314
fu	315
sha	316
pa	317
Ġali	318
me	319
ye	320
mi	321
mu	322
di	323
Ġv	324
Ġkuwa	325
Ġta	326
ke	327
se	328
Ġkati	329
bu	330
shi	331
he	332
Ġza	333
te	334
zo	335
Ġn	336
po	337
Ġsi	338
Ġhu	339
Ġla	340
Ġkatika	341
Ġni	342
ne	343
sema	344
Ġba	345
Ġmi	346
Ġsa	347
ko	348
pi	349
ngi	350
nda	351
nga	352
Ġamba	353
bwa	354
Ġcha	355
ho	356
Ġvi	357
chi	358
kuwa	359
no	360
Ġili	361
Ġwana	362
mo	363
Ġhiyo	364
ngo	365
bo	366
wi	367
nza	368
ngu	369
ndi	370
nye	371
lo	372
ele	373
che	374
ju	375
Ġkuto	376
fan	377
Ġmwa	378
bwana	379
Ġalisema	380
fi	381
Ġmo	382
ru	383
Ġe	384
Ġwali	385
nge	386
re	387
Ġbwana	388
ga	389
Ġse	390
go	391
kiwa	392
be	393
wenye	394
Ġbaa	395
Ġti	396
rika	397
Ġja	398
Ġli	399
Ġda	400
Ġzi	401
Ġd	402
ro	403
Ġkama	404
zu	405
vyo	406
kana	407
furi	408
Ġsifuri	409
kati	410
fanya	411
Ġtu	412
Ġmoja	413
shiri	414
je	415
Ġju	416
mbo	417
taka	418
pe	419
nia	420
cho	421
dha	422
Ġbi	423
Ġbaada	424
Ġmku	425
Ġina	426
ua	427
Ġhuo	428
ongo	429
chu	430
kini	431
Ġana	432
yi	433
ze	434
nzi	435
lia	436
Ġnchi	437
Ġmu	438
gu	439
moja	440
dhi	441
rikali	442
Ġpa	443
end	444
Ġhilo	445
cheza	446
Ġwi	447
Ġserikali	448
ndo	449
Ġme	450
ge	451
ngine	452
su	453
pu	454
Ġvya	455
ali	456
Ġra	457
Ġyake	458
Ġc	459
Ġmwaka	460
Ġwe	461
Ġji	462
Ġt	463
Ġhivyo	464
bili	465
Ġkwenye	466
Ġpi	467
endele	468
Ġlakini	469
idi	470
Ġame	471
nzania	472
Ġishiri	473
Ġishirini	474
Ġhao	475
Ġkua	476
sh	477
vu	478
Ġkui	479
Ġtimu	480
tumi	481
Ġkumi	482
am	483
Ġmia	484
ongozi	485
Ġshi	486
Ġkuo	487
Ġko	488
Ġmba	489
Ġf	490
yu	491
sho	492
Ġo	493
ria	494
Ġwake	495
Ġwakati	496
nde	497
Ġime	498
mbe	499
Ġhuyo	500
ifa	501
chezaji	502
bunge	503
Ġwatu	504
lio	505
Ġmaa	506
kama	507
zungu	508
kwa	509
Ġkwamba	510
Ġsaba	511
Ġwame	512
Ġmbili	513
lu	514
Ġaki	515
Ġsala	516
shwa	517
Ġpo	518
dai	519
Ġjana	520
pata	521
Ġtanzania	522
do	523
Ġhayo	524
Ġkutokana	525
gi	526
nchi	527
Ġmko	528
Ġwata	529
nja	530
is	531
Ġdar	532
Ġmkuu	533
Ġes	534
kia	535
zungum	536
ngwa	537
alisema	538
Ġsasa	539
Ġambayo	540
Ġndi	541
Ġsalaam	542
Ġkuu	543
Ġambao	544
Ġkutoka	545
Ġkum	546
hidi	547
Ġkuji	548
Ġkam	549
vi	550
Ġtatu	551
nu	552
Ġiliyo	553
Ġtano	554
Ġmbali	555
takiwa	556
mbu	557
Ġwalio	558
Ġambaye	559
Ġwananchi	560
zwa	561
Ġmaji	562
so	563
Ġnchini	564
Ġkazi	565
mbali	566
neo	567
Ġhizo	568
kazi	569
Ġke	570
chezo	571
Ġhali	572
Ġfe	573
Ġwaki	574
Ġtaa	575
Ġle	576
Ġmaha	577
Ġzaidi	578
tia	579
endelea	580
bia	581
Ġambapo	582
Ġpamoja	583
Ġwao	584
Ġwachezaji	585
mani	586
Ġmwi	587
kwe	588
laya	589
Ġkufanya	590
Ġkila	591
ini	592
Ġbo	593
Ġho	594
jini	595
Ġchama	596
Ġuta	597
zuri	598
tari	599
Ġhuku	600
weza	601
jili	602
Ġhicho	603
Ġye	604
Ġtaifa	605
tua	606
Ġnyi	607
Ġaf	608
Ġkupi	609
Ġmechi	610
Ġyao	611
toa	612
wo	613
Ġuna	614
nya	615
Ġthe	616
Ġte	617
thi	618
Ġmbalimbali	619
Ġnne	620
Ġtisa	621
sini	622
Ġmkoa	623
Ġnafa	624
wanja	625
Ġita	626
jia	627
Ġnafasi	628
Ġwazi	629
ndani	630
Ġviongozi	631
Ġhuu	632
Ġrais	633
Ġsiku	634
sia	635
Ġfedha	636
Ġshe	637
Ġbe	638
Ġmsi	639
Ġmaba	640
toke	641
du	642
Ġsita	643
Ġkuli	644
Ġmahakama	645
zungumza	646
Ġmara	647
Ġkwani	648
Ġwilaya	649
ina	650
Ġpia	651
Ġkutoa	652
Ġga	653
puni	654
Ġkili	655
Ġhata	656
fanyi	657
tumia	658
uala	659
Ġhadi	660
Ġkufu	661
Ġyanga	662
Ġbara	663
Ġzina	664
lingi	665
aki	666
liwa	667
bari	668
kisha	669
Ġligi	670
Ġshu	671
lisi	672
Ġnyu	673
rifa	674
Ġso	675
Ġkwe	676
Ġshilingi	677
Ġp	678
Ġupa	679
Ġmwenye	680
kio	681
Ġhatua	682
sili	683
Ġau	684
Ġkampuni	685
Ġkwanza	686
Ġkubwa	687
Ġfa	688
Ġde	689
Ġmasha	690
lewa	691
Ġzili	692
kata	693
pita	694
Ġhawa	695
ndwa	696
Ġkuta	697
ngeza	698
Ġpolisi	699
Ġuwanja	700
cm	701
Ġkuhu	702
Ġbaadhi	703
Ġume	704
shinda	705
Ġmchezo	706
uli	707
mia	708
Ġnane	709
guzi	710
Ġmmoja	711
Ġaliye	712
Ġpe	713
Ġndani	714
Ġto	715
Ġwo	716
baini	717
Ġhabari	718
ngia	719
Ġzao	720
Ġtaarifa	721
Ġccm	722
Ġmuda	723
Ġkusa	724
tizo	725
one	726
Ġmata	727
ndu	728
ktari	729
muzi	730
fisa	731
Ġbibi	732
lioni	733
yote	734
Ġmwe	735
chuku	736
Ġsimba	737
Ġzo	738
jo	739
weze	740
Ġajili	741
Ġmaku	742
kiti	743
Ġeneo	744
de	745
Ġyali	746
Ġmpa	747
Ġchi	748
mini	749
Ġwanao	750
Ġjuu	751
twa	752
mbi	753
Ġjuma	754
Ġkitu	755
ribu	756
haki	757
taa	758
Ġmambo	759
labu	760
Ġdhidi	761
Ġwaziri	762
Ġnyumba	763
Ġsheria	764
Ġuli	765
dili	766
Ġucha	767
Ġsababu	768
Ġkuna	769
Ġklabu	770
Ġupande	771
wali	772
Ġje	773
Ġru	774
Ġsu	775
Ġmtu	776
Ġhaku	777
shindwa	778
Ġwenye	779
sisi	780
Ġsuala	781
mali	782
toto	783
nti	784
Ġkupata	785
Ġkamati	786
anza	787
Ġg	788
ada	789
Ġhaki	790
Ġiki	791
hemu	792
Ġmwana	793
Ġwaa	794
Ġbila	795
kuta	796
Ġkupa	797
Ġsana	798
jwa	799
Ġikiwa	800
bisha	801
shu	802
fani	803
Ġdu	804
Ġbunge	805
limu	806
Ġngu	807
shiriki	808
Ġdaktari	809
fanyika	810
Ġlili	811
Ġulio	812
Ġuchaguzi	813
jana	814
Ġndio	815
uri	816
thini	817
Ġkuwe	818
bathini	819
Ġthebathini	820
Ġmiaka	821
Ġwengine	822
Ġyana	823
Ġafrika	824
Ġwengi	825
bla	826
Ġinayo	827
Ġmas	828
Ġmaka	829
Ġbu	830
riki	831
yari	832
Ġuwe	833
shitakiwa	834
Ġmsa	835
jua	836
Ġwote	837
Ġdo	838
katika	839
Ġhapa	840
Ġzote	841
nzo	842
Ġalikuwa	843
Ġambazo	844
Ġleo	845
Ġkufi	846
Ġnje	847
dala	848
Ġtuna	849
ghu	850
Ġkuka	851
Ġpili	852
mili	853
Ġsha	854
va	855
shara	856
Ġnyingine	857
mwa	858
tolewa	859
Ġmabao	860
eleza	861
mla	862
Ġmgo	863
Ġkute	864
Ġhii	865
Ġal	866
Ġkesi	867
Ġkusi	868
endeleo	869
bele	870
Ġusa	871
ssa	872
Ġhapo	873
Ġkipi	874
Ġkaribu	875
Ġham	876
kosi	877
Ġzilizo	878
Ġkwenda	879
Ġkabla	880
Ġkina	881
wili	882
Ġtayari	883
akizungumza	884
Ġmae	885
zaji	886
shauri	887
she	888
kari	889
raka	890
Ġjo	891
Ġri	892
dini	893
rati	894
pya	895
uti	896
Ġkima	897
kosa	898
Ġofi	899
ghuli	900
taji	901
ve	902
chama	903
idia	904
Ġmaendeleo	905
bingwa	906
tara	907
Ġmare	908
Ġmwenyekiti	909
hara	910
isha	911
ndishi	912
Ġsoka	913
Ġchini	914
Ġmaeneo	915
lala	916
kea	917
Ġvijana	918
Ġjambo	919
Ġmfu	920
mua	921
Ġkocha	922
Ġute	923
Ġkuhusu	924
Ġata	925
Ġakiwa	926
jibu	927
Ġjijini	928
Ġua	929
Ġjuzi	930
kwete	931
Ġbado	932
Ġkikwete	933
Ġhamsini	934
zia	935
Ġhasa	936
tano	937
shindi	938
Ġsta	939
Ġbao	940
Ġhivi	941
zima	942
Ġwiki	943
kili	944
njwa	945
Ġhai	946
ano	947
babisha	948
Ġvizuri	949
Ġmiko	950
ratibu	951
Ġuwezo	952
Ġhili	953
dogo	954
Ġuchu	955
mii	956
Ġlina	957
Ġmkubwa	958
nyi	959
Ġkikosi	960
sika	961
kika	962
Ġre	963
tokana	964
chukua	965
Ġmpi	966
miwa	967
duma	968
Ġmwisho	969
Ġfu	970
Ġtukio	971
Ġkutumia	972
Ġbora	973
fauti	974
daiwa	975
fiki	976
hakikisha	977
Ġofisi	978
Ġhuduma	979
ce	980
Ġhe	981
Ġmazi	982
Ġmilioni	983
Ġkuanzi	984
Ġchu	985
Ġel	986
asi	987
futa	988
radi	989
Ġalipo	990
kele	991
unga	992
Ġmashi	993
tokea	994
kataba	995
oni	996
Ġnya	997
fisadi	998
rs	999
ndaji	1000
ci	1001
Ġdunia	1002
Ġnjia	1003
rudi	1004
ch	1005
Ġmbunge	1006
Ġnyingi	1007
Ġaro	1008
taifa	1009
ezi	1010
Ġwafanya	1011
Ġhakuna	1012
wezi	1013
Ġzinazo	1014
dhaa	1015
Ġarobaini	1016
Ġambalo	1017
Ġkupitia	1018
Ġelimu	1019
Ġtofauti	1020
Ġwaku	1021
Ġzake	1022
Ġmjini	1023
Ġtume	1024
Ġwabunge	1025
Ġtatizo	1026
Ġmkoani	1027
ona	1028
Ġmcha	1029
Ġmali	1030
Ġelfu	1031
mbea	1032
chuano	1033
Ġshule	1034
ibu	1035
pungu	1036
Ġkuzi	1037
Ġkuongeza	1038
Ġwatoto	1039
hitaji	1040
pewa	1041
gonjwa	1042
Ġyaliyo	1043
Ġkipindi	1044
Ġkatibu	1045
omba	1046
sta	1047
mika	1048
Ġusi	1049
Ġkuhakikisha	1050
wemo	1051
lisha	1052
kuba	1053
bara	1054
shindano	1055
Ġmaana	1056
el	1057
ana	1058
Ġmpira	1059
Ġkauli	1060
Ġjamii	1061
Ġdakika	1062
Ġuongozi	1063
mbia	1064
Ġanasema	1065
genzi	1066
Ġwasi	1067
himu	1068
ia	1069
Ġsaa	1070
rugenzi	1071
goro	1072
Ġpoi	1073
swa	1074
Ġpointi	1075
Ġuhu	1076
ca	1077
Ġmbele	1078
Ġkura	1079
Ġasili	1080
Ġmichuano	1081
Ġdha	1082
tendo	1083
Ġkiu	1084
Ġmaisha	1085
Ġwanachama	1086
Ġyo	1087
Ġmka	1088
biki	1089
Ġlu	1090
Ġbadala	1091
Ġsehemu	1092
Ġas	1093
tini	1094
piga	1095
Ġkiasi	1096
Ġmpaka	1097
pele	1098
ngaza	1099
ende	1100
ywa	1101
Ġzime	1102
ck	1103
Ġkiwa	1104
saidia	1105
or	1106
Ġum	1107
Ġmashindano	1108
ter	1109
Ġida	1110
fika	1111
fe	1112
funzi	1113
Ġge	1114
hari	1115
Ġlo	1116
Ġmchezaji	1117
Ġwakiwa	1118
ngira	1119
Ġlengo	1120
Ġtena	1121
faa	1122
Ġkipa	1123
zara	1124
Ġvyo	1125
hata	1126
Ġhos	1127
Ġshughuli	1128
Ġyenye	1129
bar	1130
fua	1131
Ġco	1132
Ġmkataba	1133
kao	1134
poti	1135
zungumzia	1136
nsi	1137
Ġkupo	1138
Ġwizara	1139
Ġkuondo	1140
pitali	1141
ida	1142
Ġmada	1143
Ġnguvu	1144
bini	1145
Ġkuanza	1146
co	1147
wazi	1148
Ġilikuwa	1149
Ġhospitali	1150
Ġvyombo	1151
Ġmre	1152
jiji	1153
kwenda	1154
unk	1155
Ġjimbo	1156
nzibar	1157
Ġpro	1158
Ġmazingira	1159
ly	1160
Ġushindi	1161
Ġmengi	1162
son	1163
Ġyeye	1164
Ġmita	1165
Ġwatanzania	1166
Ġjeshi	1167
Ġwale	1168
gwa	1169
Ġtangu	1170
wani	1171
Ġbina	1172
Ġmsimu	1173
inali	1174
Ġmaja	1175
Ġmichezo	1176
Ġwalikuwa	1177
Ġkilimo	1178
Ġkimataifa	1179
Ġfi	1180
Ġwakazi	1181
Ġbarabara	1182
Ġar	1183
Ġaka	1184
Ġzanzibar	1185
ted	1186
Ġmkutano	1187
Ġkuona	1188
Ġmbe	1189
Ġfainali	1190
Ġafya	1191
nguzi	1192
Ġyanayo	1193
nki	1194
Ġmta	1195
Ġuamuzi	1196
Ġbia	1197
Ġjina	1198
onekana	1199
Ġkucheza	1200
Ġaliwa	1201
Ġkaribuni	1202
zeti	1203
Ġwaandishi	1204
Ġuja	1205
Ġawali	1206
Ġche	1207
Ġtaasisi	1208
humiwa	1209
Ġmsingi	1210
Ġaina	1211
Ġmatatizo	1212
lla	1213
lamu	1214
Ġtisini	1215
Ġwetu	1216
Ġstars	1217
Ġsimu	1218
liana	1219
Ġasilimia	1220
shirikia	1221
Ġuki	1222
Ġgari	1223
Ġnga	1224
Ġmape	1225
Ġvita	1226
jumbe	1227
Ġmashabiki	1228
mea	1229
Ġdeci	1230
Ġndo	1231
zalisha	1232
Ġmkono	1233
Ġkusema	1234
funga	1235
Ġvyama	1236
biti	1237
Ġro	1238
Ġuni	1239
Ġmashitaka	1240
nne	1241
Ġamesema	1242
Ġmkazi	1243
Ġkuja	1244
Ġkundi	1245
Ġmapa	1246
Ġsitini	1247
nzani	1248
Ġyu	1249
maa	1250
shambu	1251
pwa	1252
Ġmwingine	1253
Ġmahakamani	1254
Ġmaele	1255
Ġvitu	1256
Ġkiku	1257
Ġmaalu	1258
fsi	1259
Ġkuendelea	1260
kutana	1261
Ġmti	1262
tikana	1263
Ġwamekuwa	1264
Ġkituo	1265
Ġnamba	1266
kocha	1267
Ġkumali	1268
Ġkawa	1269
rua	1270
dia	1271
Ġndiyo	1272
tiza	1273
jiwa	1274
Ġsabini	1275
manini	1276
Ġthemanini	1277
Ġkutu	1278
Ġkutaka	1279
med	1280
Ġmajira	1281
kani	1282
Ġmoro	1283
Ġiliyopita	1284
ff	1285
Ġmradi	1286
kabili	1287
Ġmujibu	1288
ongeza	1289
st	1290
mbana	1291
Ġumeme	1292
zazi	1293
Ġkushindwa	1294
Ġkweli	1295
enda	1296
man	1297
lazi	1298
Ġmakubwa	1299
Ġmikoa	1300
Ġunited	1301
Ġhoja	1302
Ġaliyekuwa	1303
Ġkuanzia	1304
Ġlime	1305
Ġhaya	1306
Ġwate	1307
ingia	1308
Ġkucha	1309
shahidi	1310
liaji	1311
Ġwafanyakazi	1312
sisitiza	1313
sto	1314
kula	1315
gumu	1316
Ġbiashara	1317
wakati	1318
Ġkuki	1319
tarajia	1320
amua	1321
hiri	1322
fafan	1323
Ġkule	1324
Ġwilayani	1325
asa	1326
ndaa	1327
liano	1328
Ġyoyote	1329
Ġkiongozi	1330
kta	1331
Ġyote	1332
nyesha	1333
lima	1334
Ġbenki	1335
Ġmpya	1336
husu	1337
pia	1338
Ġunao	1339
paswa	1340
misha	1341
Ġkufua	1342
nua	1343
Ġmabingwa	1344
Ġchake	1345
Ġvile	1346
jenga	1347
Ġah	1348
Ġb	1349
Ġshiriki	1350
sababisha	1351
onesha	1352
Ġlake	1353
tumizi	1354
Ġbilioni	1355
uaji	1356
fesa	1357
baki	1358
baada	1359
Ġmatumizi	1360
lakini	1361
Ġkabi	1362
weka	1363
Ġkesho	1364
Ġufisadi	1365
siasa	1366
tokeo	1367
lma	1368
Ġsiasa	1369
Ġlazima	1370
Ġmkurugenzi	1371
biashara	1372
Ġmarehemu	1373
Ġuje	1374
Ġnzuri	1375
kubali	1376
Ġgazeti	1377
Ġnao	1378
Ġmabo	1379
ngalia	1380
nduzi	1381
Ġnyumbani	1382
Ġze	1383
lama	1384
Ġmrefu	1385
Ġshirikisho	1386
faha	1387
fanywa	1388
Ġanaye	1389
Ġjinsi	1390
Ġlililo	1391
mlaka	1392
kuja	1393
Ġmaje	1394
Ġwanafunzi	1395
Ġkuwepo	1396
amini	1397
Ġmfa	1398
Ġkuvu	1399
ndari	1400
Ġmar	1401
wasi	1402
Ġbali	1403
wala	1404
Ġmatokeo	1405
Ġkata	1406
Ġbaadaye	1407
Ġwashitakiwa	1408
fungwa	1409
Ġshirika	1410
lmashauri	1411
Ġdini	1412
fungu	1413
Ġmaga	1414
Ġkombe	1415
fo	1416
Ġkuti	1417
Ġkuku	1418
Ġnye	1419
mizi	1420
Ġambacho	1421
Ġitakuwa	1422
Ġwala	1423
Ġmamlaka	1424
Ġmpango	1425
ngeze	1426
tumishi	1427
Ġaskari	1428
Ġdawa	1429
Ġuha	1430
Ġmama	1431
Ġuhuru	1432
Ġhalmashauri	1433
Ġwanawa	1434
geni	1435
sheria	1436
Ġkiwango	1437
Ġkikao	1438
ngawa	1439
Ġmengine	1440
tokeza	1441
pinzani	1442
reje	1443
Ġtff	1444
Ġyetu	1445
fanikiwa	1446
ondo	1447
sani	1448
Ġkilicho	1449
Ġilivyo	1450
lizi	1451
Ġnaye	1452
toka	1453
Ġnini	1454
Ġwalimu	1455
Ġkuweka	1456
Ġhati	1457
Ġkuchukua	1458
Ġkwake	1459
Ġcu	1460
Ġmasuala	1461
nal	1462
sisha	1463
Ġmoha	1464
Ġmbi	1465
Ġufu	1466
Ġmao	1467
Ġdodo	1468
Ġushahidi	1469
zika	1470
kumu	1471
kweli	1472
Ġdodoma	1473
Ġmakosa	1474
zoezi	1475
Ġwenza	1476
Ġmatu	1477
Ġnia	1478
Ġmimi	1479
Ġujenzi	1480
xi	1481
mbano	1482
Ġmadai	1483
kezaji	1484
harama	1485
shambuliaji	1486
jiri	1487
teza	1488
Ġuchunguzi	1489
Ġusiku	1490
wapo	1491
Ġwawili	1492
Ġkujua	1493
Ġmazoezi	1494
Ġkijiji	1495
Ġl	1496
Ġwaka	1497
nisha	1498
Ġman	1499
Ġkuha	1500
Ġmaelezo	1501
tumika	1502
Ġgharama	1503
Ġkufikia	1504
ongoza	1505
zee	1506
guu	1507
Ġmtoto	1508
Ġkita	1509
pokuwa	1510
Ġidadi	1511
Ġnili	1512
ishi	1513
Ġcho	1514
Ġkadhaa	1515
mbua	1516
Ġkawaida	1517
Ġmapi	1518
Ġpeke	1519
Ġmwezi	1520
Ġwanawake	1521
dau	1522
timu	1523
Ġimani	1524
Ġsekta	1525
Ġmuhimu	1526
diliko	1527
Ġbinafsi	1528
Ġitaka	1529
biri	1530
Ġalidai	1531
Ġkushinda	1532
Ġchakula	1533
tarajiwa	1534
Ġkabisa	1535
naye	1536
husika	1537
Ġbasi	1538
Ġmaanda	1539
wanda	1540
Ġprofesa	1541
rd	1542
Ġuga	1543
Ġab	1544
mana	1545
Ġbaraza	1546
Ġuka	1547
fadhi	1548
endesha	1549
ximo	1550
Ġyame	1551
Ġmte	1552
Ġmshitakiwa	1553
reza	1554
Ġnam	1555
Ġamani	1556
Ġtanga	1557
Ġkusababisha	1558
Ġdi	1559
Ġmadini	1560
Ġmabadiliko	1561
maji	1562
Ġnu	1563
moto	1564
Ġmwanza	1565
penda	1566
Ġahly	1567
ry	1568
Ġnde	1569
baya	1570
Ġmsaada	1571
Ġkupungu	1572
Ġvina	1573
Ġmauaji	1574
wahi	1575
Ġne	1576
Ġgani	1577
firi	1578
ruhi	1579
Ġubingwa	1580
Ġkenya	1581
Ġat	1582
badili	1583
Ġutaratibu	1584
Ġtaratibu	1585
Ġrushwa	1586
fanikio	1587
lazimika	1588
rahi	1589
Ġhumo	1590
Ġkusima	1591
fikia	1592
Ġimekuwa	1593
Ġuchumi	1594
kra	1595
Ġuma	1596
rusha	1597
Ġmohamed	1598
Ġaja	1599
Ġkitendo	1600
panga	1601
Ġpale	1602
subiri	1603
Ġnamna	1604
spa	1605
Ġingawa	1606
mui	1607
shia	1608
ongoni	1609
Ġwadau	1610
Ġkuingia	1611
fari	1612
Ġkupiga	1613
Ġduniani	1614
fafanua	1615
Ġkurudi	1616
Ġkujenga	1617
Ġsawa	1618
zuia	1619
silisha	1620
taja	1621
zidi	1622
Ġwaliokuwa	1623
tea	1624
Ġukweli	1625
pili	1626
Ġndiye	1627
Ġmafanikio	1628
Ġno	1629
siana	1630
hn	1631
Ġin	1632
gombea	1633
rufu	1634
us	1635
Ġmga	1636
Ġkile	1637
sasi	1638
Ġca	1639
dema	1640
Ġmitaa	1641
hada	1642
Ġvye	1643
lani	1644
Ġalii	1645
milia	1646
Ġvu	1647
zea	1648
keleza	1649
Ġumma	1650
Ġulaya	1651
Ġugonjwa	1652
Ġnyo	1653
Ġmorogoro	1654
resha	1655
Ġmafu	1656
patikana	1657
Ġchadema	1658
Ġjohn	1659
Ġmapinduzi	1660
gua	1661
Ġkuone	1662
Ġmbo	1663
Ġkushiriki	1664
Ġuhaki	1665
tiwa	1666
dhara	1667
Ġj	1668
ngene	1669
Ġjumapili	1670
sea	1671
Ġdara	1672
Ġuwanjani	1673
Ġujao	1674
Ġgo	1675
Ġkuele	1676
takuwa	1677
Ġisi	1678
Ġmajina	1679
Ġusalama	1680
waziri	1681
Ġmale	1682
Ġhuko	1683
Ġile	1684
bora	1685
Ġpinda	1686
Ġkushu	1687
Ġmiguu	1688
Ġkambi	1689
Ġmsima	1690
Ġpekee	1691
nyo	1692
ambia	1693
Ġardhi	1694
Ġhusika	1695
Ġamekuwa	1696
Ġmaximo	1697
Ġkanu	1698
Ġkodi	1699
Ġmabomu	1700
undo	1701
kaya	1702
Ġmbaya	1703
Ġr	1704
Ġhakimu	1705
ili	1706
pri	1707
Ġwataka	1708
Ġsoko	1709
Ġkupambana	1710
kiri	1711
Ġkiba	1712
kamatwa	1713
Ġmadaraka	1714
rt	1715
Ġadha	1716
Ġmafuta	1717
Ġkwao	1718
wepo	1719
Ġbarua	1720
Ġchanga	1721
ster	1722
Ġgha	1723
Ġkinacho	1724
Ġutekele	1725
Ġjakaya	1726
ndugu	1727
Ġcuf	1728
tezi	1729
Ġkufunga	1730
Ġmarekani	1731
Ġkanuni	1732
Ġkime	1733
lalami	1734
nyu	1735
Ġyangu	1736
gera	1737
fahamu	1738
Ġusajili	1739
Ġwakulima	1740
Ġumri	1741
Ġkikubwa	1742
Ġhaja	1743
Ġlicha	1744
Ġnyuma	1745
Ġbungeni	1746
kuru	1747
Ġkutafuta	1748
Ġmfano	1749
lali	1750
Ġhatari	1751
Ġmiongoni	1752
fiti	1753
in	1754
Ġngo	1755
nisa	1756
Ġharaka	1757
Ġsafari	1758
sima	1759
Ġkuacha	1760
Ġmfumo	1761
Ġmapato	1762
Ġuhakika	1763
Ġmwalimu	1764
Ġbidhaa	1765
shirikiana	1766
Ġmaalumu	1767
Ġhazi	1768
anasema	1769
Ġchanzo	1770
chukuliwa	1771
Ġchuo	1772
nt	1773
Ġkunu	1774
Ġarusha	1775
Ġndege	1776
uzi	1777
land	1778
Ġsisi	1779
Ġmaamuzi	1780
zalishaji	1781
Ġmaju	1782
Ġhassa	1783
Ġkupunguza	1784
Ġmade	1785
Ġaliyo	1786
Ġmisa	1787
Ġmiundo	1788
Ġmagari	1789
Ġwako	1790
jitokeza	1791
ingi	1792
huma	1793
Ġhatu	1794
Ġkisiasa	1795
chwa	1796
Ġchangamoto	1797
sti	1798
Ġms	1799
ridhi	1800
Ġkasi	1801
Ġkisa	1802
Ġkisha	1803
Ġtabia	1804
shika	1805
gar	1806
peni	1807
Ġbodi	1808
Ġteme	1809
mbinu	1810
Ġadhabu	1811
wakili	1812
lahi	1813
Ġkagera	1814
keza	1815
mokra	1816
Ġmsimamo	1817
th	1818
wataka	1819
ngwe	1820
muhimu	1821
kofu	1822
ngatia	1823
Ġkuleta	1824
ph	1825
Ġumoja	1826
Ġumuhimu	1827
Ġmicha	1828
Ġulinzi	1829
Ġkumaliza	1830
Ġkumu	1831
Ġkubo	1832
Ġalim	1833
Ġmis	1834
muiya	1835
Ġkudai	1836
Ġule	1837
rais	1838
Ġkuwapa	1839
pigwa	1840
Ġjumla	1841
Ġras	1842
Ġmapema	1843
tangaza	1844
Ġmashariki	1845
Ġmdogo	1846
Ġuku	1847
mari	1848
kuwepo	1849
ndic	1850
Ġndipo	1851
siano	1852
Ġhawana	1853
Ġtemeke	1854
dri	1855
ngaji	1856
Ġvifaa	1857
dhani	1858
dhu	1859
Ġkusini	1860
Ġtuhuma	1861
Ġkukabi	1862
Ġhassan	1863
ita	1864
Ġkupewa	1865
kezo	1866
Ġkampeni	1867
Ġkuliko	1868
akizungumzia	1869
Ġkuhusiana	1870
Ġkukosa	1871
changia	1872
Ġwalisema	1873
Ġjumuiya	1874
id	1875
Ġzamani	1876
Ġenda	1877
Ġwatatu	1878
Ġmitambo	1879
Ġmiundombinu	1880
Ġok	1881
thibiti	1882
Ġbei	1883
Ġmgombea	1884
peleka	1885
Ġmafunzo	1886
Ġwangu	1887
Ġkue	1888
Ġambavyo	1889
Ġvibaya	1890
Ġendapo	1891
Ġmakini	1892
Ġkanisa	1893
Ġviwanja	1894
Ġkufungwa	1895
mbele	1896
kato	1897
tisha	1898
kutokana	1899
Ġiwapo	1900
Ġutekelezaji	1901
Ġrasmi	1902
Ġasu	1903
Ġapri	1904
Ġkidogo	1905
hoji	1906
nze	1907
rica	1908
toba	1909
Ġmaslahi	1910
Ġitakayo	1911
Ġwaweze	1912
Ġtha	1913
miliki	1914
Ġmbeya	1915
Ġkula	1916
Ġwil	1917
Ġuzalishaji	1918
ripoti	1919
Ġambako	1920
Ġvitendo	1921
Ġkufika	1922
mwi	1923
Ġmke	1924
Ġwazazi	1925
tiba	1926
Ġkamanda	1927
ast	1928
ns	1929
Ġuko	1930
buhi	1931
ndika	1932
Ġkosa	1933
Ġvituo	1934
nyume	1935
mokrasia	1936
hili	1937
rafiki	1938
miza	1939
chester	1940
Ġmaandalizi	1941
jijini	1942
Ġhau	1943
mond	1944
Ġseko	1945
Ġkusaidia	1946
Ġuganda	1947
Ġasubuhi	1948
Ġndugu	1949
Ġkim	1950
gala	1951
Ġmwakani	1952
haribi	1953
Ġndogo	1954
Ġwenzake	1955
Ġkinyume	1956
Ġsare	1957
Ġmoto	1958
Ġsekondari	1959
hali	1960
Ġmani	1961
Ġnina	1962
Ġkuangalia	1963
Ġkulipwa	1964
Ġsugar	1965
Ġmalipo	1966
ibuka	1967
Ġnusu	1968
wana	1969
manja	1970
saba	1971
Ġfamilia	1972
Ġkuondoka	1973
Ġwapo	1974
Ġipo	1975
bio	1976
ngana	1977
Ġmungu	1978
wote	1979
fariki	1980
ongozwa	1981
Ġmene	1982
Ġafrica	1983
Ġwenyewe	1984
Ġidara	1985
Ġwawe	1986
Ġwashiriki	1987
shati	1988
Ġmifu	1989
Ġkutosha	1990
gemea	1991
rejea	1992
onyesha	1993
elele	1994
jeti	1995
endeleza	1996
spaa	1997
Ġmanispaa	1998
mko	1999
rti	2000
Ġushi	2001
zam	2002
Ġajali	2003
Ġaprili	2004
Ġmzuri	2005
Ġwagonjwa	2006
Ġiv	2007
Ġjaji	2008
Ġkukata	2009
Ġkisheria	2010
Ġnime	2011
Ġbajeti	2012
dhibiti	2013
Ġofisa	2014
milika	2015
ver	2016
Ġmse	2017
kaa	2018
dhamini	2019
Ġjioni	2020
Ġwowote	2021
Ġjose	2022
Ġmafisadi	2023
Ġkatiba	2024
Ġnishati	2025
mku	2026
Ġkufanyika	2027
Ġkali	2028
Ġmbagala	2029
Ġmataifa	2030
wezesha	2031
Ġmalengo	2032
Ġoktoba	2033
Ġkuso	2034
mano	2035
Ġmaso	2036
Ġvili	2037
Ġzita	2038
manjaro	2039
hihi	2040
ribio	2041
ndua	2042
Ġmika	2043
Ġtuli	2044
Ġraia	2045
kamanda	2046
Ġdola	2047
Ġkubaini	2048
Ġuju	2049
laa	2050
Ġila	2051
Ġhaina	2052
shanga	2053
Ġsio	2054
rere	2055
Ġutendaji	2056
Ġcoast	2057
Ġalitoa	2058
kodi	2059
lote	2060
Ġkuomba	2061
Ġkilimanjaro	2062
Ġkukaa	2063
Ġnyerere	2064
kt	2065
Ġkubadili	2066
dhamu	2067
taafu	2068
Ġmisri	2069
Ġupinzani	2070
ziki	2071
mbazi	2072
Ġhizi	2073
Ġed	2074
Ġkondic	2075
Ġmchakato	2076
hani	2077
Ġnaibu	2078
Ġmabe	2079
Ġhana	2080
Ġkifo	2081
damu	2082
lea	2083
buni	2084
Ġmuunga	2085
Ġjiji	2086
Ġikiwemo	2087
ory	2088
Ġkueleza	2089
Ġmiezi	2090
Ġngazi	2091
rugu	2092
Ġmajibu	2093
vemba	2094
sanii	2095
hudi	2096
Ġbaba	2097
Ġvingine	2098
lojia	2099
twaa	2100
Ġrich	2101
Ġlolote	2102
Ġmbegu	2103
Ġkuboresha	2104
Ġivory	2105
Ġmuungano	2106
juli	2107
Ġziki	2108
Ġmuziki	2109
Ġkujia	2110
shirikiano	2111
Ġnayo	2112
ngele	2113
ndia	2114
Ġtuta	2115
Ġwataa	2116
Ġdhamana	2117
bwe	2118
ume	2119
Ġkuzuia	2120
tuna	2121
Ġsaid	2122
Ġkutangaza	2123
Ġushirikiano	2124
Ġmago	2125
Ġkadi	2126
Ġmipa	2127
mosi	2128
Ġmakundi	2129
Ġmajaribio	2130
Ġrichmond	2131
husisha	2132
neno	2133
Ġjuni	2134
Ġmwili	2135
Ġmanchester	2136
Ġmaoni	2137
ran	2138
ngea	2139
zungumzo	2140
on	2141
Ġwatumishi	2142
Ġmachi	2143
Ġmanu	2144
Ġmawasi	2145
Ġmaneno	2146
misho	2147
keti	2148
Ġhasara	2149
Ġmaalum	2150
kabiliwa	2151
Ġmawasiliano	2152
Ġkushirikiana	2153
Ġaji	2154
singi	2155
teli	2156
Ġwatuhumiwa	2157
Ġdemokrasia	2158
Ġwafanyabiashara	2159
Ġmtendaji	2160
Ġnovemba	2161
Ġviwanda	2162
jui	2163
Ġiliyokuwa	2164
Ġwajumbe	2165
hati	2166
Ġmacho	2167
Ġmiwili	2168
Ġchan	2169
rehe	2170
Ġfulani	2171
kumbu	2172
Ġzambia	2173
Ġmji	2174
Ġmzee	2175
Ġuvu	2176
Ġmaza	2177
Ġsafi	2178
Ġsahihi	2179
Ġmakuu	2180
Ġawa	2181
reva	2182
Ġwakili	2183
Ġbot	2184
hami	2185
Ġmazungumzo	2186
san	2187
gawa	2188
Ġjumamosi	2189
chumi	2190
fanyiwa	2191
Ġdaraja	2192
Ġmshambuliaji	2193
shahara	2194
penzi	2195
Ġkuingi	2196
Ġmaarufu	2197
Ġlinalo	2198
Ġvurugu	2199
hisi	2200
mara	2201
mavu	2202
Ġmazuri	2203
Ġmiradi	2204
Ġmisaada	2205
Ġazam	2206
Ġwalipo	2207
Ġhofu	2208
Ġbusa	2209
Ġkutekeleza	2210
Ġrisasi	2211
siwa	2212
Ġhuru	2213
Ġhuenda	2214
Ġjuhudi	2215
maliza	2216
mpa	2217
ndao	2218
Ġutawala	2219
Ġkiuchumi	2220
Ġmawili	2221
hadi	2222
elezwa	2223
mbuli	2224
fanyia	2225
wezekana	2226
Ġngumu	2227
ngezeka	2228
thibitisha	2229
Ġmazao	2230
Ġuba	2231
Ġubora	2232
Ġabi	2233
Ġphiri	2234
Ġpesa	2235
Ġutetezi	2236
Ġjkt	2237
kauli	2238
Ġushauri	2239
tihada	2240
Ġsila	2241
Ġkutokuwa	2242
Ġmgogoro	2243
Ġngassa	2244
al	2245
kwi	2246
Ġmv	2247
Ġmtaa	2248
madu	2249
panda	2250
serikali	2251
Ġnja	2252
chungaji	2253
pungufu	2254
maduni	2255
kizi	2256
hudia	2257
Ġnidhamu	2258
pika	2259
katibu	2260
chungu	2261
idizi	2262
dumu	2263
Ġmtibwa	2264
mbwa	2265
lipu	2266
tilia	2267
Ġve	2268
Ġmajeruhi	2269
lalamiko	2270
Ġtiketi	2271
Ġwatendaji	2272
Ġsilaha	2273
ara	2274
Ġkukutana	2275
Ġama	2276
mbuzi	2277
Ġmakao	2278
Ġkusikili	2279
fuata	2280
Ġkupoteza	2281
Ġwatakao	2282
Ġmichael	2283
rsa	2284
Ġmna	2285
lai	2286
zito	2287
Ġkisu	2288
bibi	2289
Ġwanatakiwa	2290
Ġmwanzo	2291
Ġhoteli	2292
Ġyeyote	2293
Ġfursa	2294
Ġsifa	2295
Ġkuibu	2296
Ġkujiunga	2297
Ġthamani	2298
ban	2299
kubaliana	2300
Ġkiwanda	2301
Ġvyema	2302
maha	2303
Ġhara	2304
wekwa	2305
tegemea	2306
zoe	2307
Ġkulipa	2308
Ġkuondoa	2309
tta	2310
Ġmwak	2311
ngekuwa	2312
Ġutafiti	2313
Ġwasio	2314
Ġuhusiano	2315
mhu	2316
ny	2317
Ġmei	2318
Ġjitihada	2319
Ġbinadamu	2320
kri	2321
Ġmfanya	2322
Ġwafu	2323
Ġwapiga	2324
Ġste	2325
pinga	2326
Ġwanaweza	2327
ruhusu	2328
Ġdamu	2329
Ġwizi	2330
Ġwatakuwa	2331
Ġjoseph	2332
Ġmikakati	2333
lii	2334
liki	2335
Ġwaja	2336
yanga	2337
sikia	2338
tuhumiwa	2339
shaji	2340
Ġkuwasilisha	2341
Ġbandari	2342
Ġmwandishi	2343
Ġjukumu	2344
nyama	2345
Ġkukabiliana	2346
spoti	2347
Ġmgumu	2348
Ġkugombea	2349
maini	2350
Ġkanda	2351
ngereza	2352
Ġkuishi	2353
nyanga	2354
Ġkuonesha	2355
julikana	2356
idha	2357
Ġnani	2358
rison	2359
Ġalisisitiza	2360
Ġkutokea	2361
yumba	2362
Ġmwishoni	2363
Ġkiungo	2364
pamoja	2365
Ġvijijini	2366
Ġsalama	2367
Ġmwenza	2368
Ġmakuba	2369
Ġkupanda	2370
Ġkumalizika	2371
Ġajira	2372
lsea	2373
Ġwapi	2374
Ġmalalamiko	2375
lam	2376
kua	2377
rani	2378
pokea	2379
Ġhuwa	2380
Ġfre	2381
giza	2382
Ġruvu	2383
Ġkuanzisha	2384
Ġkas	2385
Ġilala	2386
Ġmila	2387
Ġvipi	2388
Ġpande	2389
Ġiliyotolewa	2390
Ġmwekezaji	2391
Ġulikuwa	2392
storia	2393
Ġkuzungumza	2394
Ġkuzalisha	2395
Ġmag	2396
daktari	2397
chezwa	2398
pum	2399
Ġmakamu	2400
ondoka	2401
Ġafrican	2402
ingereza	2403
mwe	2404
Ġkuko	2405
Ġmahitaji	2406
kuna	2407
Ġkilo	2408
lenga	2409
Ġmoshi	2410
Ġshinyanga	2411
Ġtek	2412
shughuli	2413
Ġmbinu	2414
Ġkuepu	2415
Ġawamu	2416
Ġmakubaliano	2417
Ġwapinzani	2418
riwa	2419
ringa	2420
Ġiringa	2421
mbani	2422
ndisha	2423
Ġfc	2424
Ġlenye	2425
ngeneza	2426
mke	2427
tajwa	2428
les	2429
heshi	2430
ngua	2431
Ġmashahidi	2432
Ġmitatu	2433
Ġmtandao	2434
Ġkusimamia	2435
Ġkisasa	2436
Ġmipango	2437
dd	2438
nywa	2439
Ġwacha	2440
Ġspika	2441
jayo	2442
lezi	2443
Ġsera	2444
Ġziara	2445
Ġakizungumza	2446
Ġkimya	2447
baa	2448
ngland	2449
Ġmakazi	2450
kufa	2451
Ġiwe	2452
raha	2453
Ġalikiri	2454
ndikisha	2455
Ġengland	2456
Ġwingi	2457
ulizwa	2458
Ġkupokea	2459
Ġwateja	2460
fungua	2461
Ġwasanii	2462
Ġmawaziri	2463
Ġchache	2464
Ġinaweza	2465
Ġmwanaspoti	2466
Ġalipokuwa	2467
lipuko	2468
Ġkufa	2469
shiki	2470
nes	2471
Ġkutolewa	2472
aliongeza	2473
Ġrekodi	2474
Ġmifugo	2475
Ġmla	2476
Ġmage	2477
Ġika	2478
Ġmigo	2479
Ġanaweza	2480
Ġfaida	2481
Ġndoa	2482
Ġufundi	2483
Ġabiria	2484
ani	2485
Ġuweze	2486
taki	2487
Ġfo	2488
Ġkuuza	2489
Ġhalisi	2490
Ġmatiba	2491
paji	2492
Ġkuwania	2493
shima	2494
Ġsitta	2495
Ġbaina	2496
Ġwaliyo	2497
Ġakisema	2498
Ġmwinyi	2499
Ġheshima	2500
Ġukimwi	2501
Ġkufuata	2502
Ġzetu	2503
Ġzenye	2504
Ġujumla	2505
Ġmatibabu	2506
ol	2507
waki	2508
hayo	2509
niki	2510
Ġmasi	2511
Ġmiti	2512
Ġjamhu	2513
muziki	2514
fikishwa	2515
marisha	2516
Ġvilivyo	2517
Ġjamhuri	2518
Ġupe	2519
zigo	2520
Ġkirafiki	2521
Ġutamaduni	2522
thirika	2523
Ġmwenyewe	2524
lalamika	2525
tambua	2526
nolojia	2527
Ġjulai	2528
Ġrashi	2529
Ġatakuwa	2530
Ġmkapa	2531
wasili	2532
kukuru	2533
nganisha	2534
sheni	2535
Ġwasiwasi	2536
Ġmaofisa	2537
chunguza	2538
Ġkuibuka	2539
pte	2540
rl	2541
Ġupo	2542
ndele	2543
Ġijayo	2544
Ġaliongeza	2545
Ġmsaidizi	2546
Ġmikono	2547
nyika	2548
Ġkuzingatia	2549
Ġchelsea	2550
Ġkujadili	2551
Ġwataalamu	2552
Ġwavu	2553
Ġyata	2554
yon	2555
Ġsiyo	2556
Ġmasharti	2557
Ġmchana	2558
Ġmchango	2559
Ġvema	2560
gha	2561
tri	2562
Ġyale	2563
senal	2564
Ġsalu	2565
Ġvijiji	2566
goma	2567
Ġmgosi	2568
Ġmeneja	2569
Ġujumbe	2570
Ġslaa	2571
Ġmasa	2572
Ġkai	2573
siwani	2574
razi	2575
faka	2576
Ġtamaa	2577
poteza	2578
Ġsama	2579
Ġushindani	2580
lipa	2581
Ġkuendeleza	2582
Ġyako	2583
Ġkuwataka	2584
Ġtakukuru	2585
koa	2586
sumbu	2587
lumbano	2588
Ġpwani	2589
Ġdereva	2590
Ġmaombi	2591
mbelea	2592
Ġkuya	2593
kano	2594
Ġmakocha	2595
tuma	2596
yembe	2597
Ġvo	2598
Ġbar	2599
Ġmize	2600
fikisha	2601
jeruhi	2602
Ġmfupi	2603
pelekwa	2604
Ġkununua	2605
itwa	2606
habari	2607
Ġmau	2608
Ġhakuwa	2609
mina	2610
Ġkuwasaidia	2611
Ġvikao	2612
Ġkumwa	2613
Ġtege	2614
Ġfidia	2615
dhuria	2616
awali	2617
aidha	2618
Ġmzungu	2619
Ġuingereza	2620
Ġmadhara	2621
jita	2622
dio	2623
Ġwanataka	2624
ambu	2625
nuzi	2626
Ġkupinga	2627
pelelezi	2628
llah	2629
Ġhatima	2630
Ġmajukumu	2631
ct	2632
Ġkume	2633
Ġhawezi	2634
Ġchai	2635
Ġviwa	2636
dhimisho	2637
islamu	2638
Ġkero	2639
fla	2640
nna	2641
Ġasi	2642
Ġtamko	2643
Ġmishahara	2644
Ġmoyo	2645
Ġliki	2646
Ġkujibu	2647
Ġwakuu	2648
mwenye	2649
lizo	2650
Ġupungufu	2651
Ġmawa	2652
Ġhiki	2653
Ġkija	2654
lebe	2655
Ġvifo	2656
luma	2657
lebela	2658
iro	2659
Ġwau	2660
Ġutu	2661
Ġmako	2662
Ġtuzo	2663
Ġhawaku	2664
Ġreli	2665
Ġmwakyembe	2666
Ġsalum	2667
Ġutumishi	2668
Ġahadi	2669
sanya	2670
shiwa	2671
Ġlao	2672
chia	2673
Ġpasi	2674
ndoni	2675
ndekezo	2676
gizo	2677
Ġiliyopo	2678
taarifa	2679
Ġmajengo	2680
Ġlyon	2681
mwenyekiti	2682
ungo	2683
Ġwaha	2684
ngiwa	2685
nganyi	2686
Ġvilla	2687
liam	2688
Ġathu	2689
Ġmvua	2690
Ġyasi	2691
Ġmalumbano	2692
kishwa	2693
Ġkitaifa	2694
kamata	2695
malizika	2696
sababi	2697
Ġteknolojia	2698
jadala	2699
sajili	2700
mishwa	2701
Ġarsenal	2702
Ġnyota	2703
Ġkisutu	2704
baadhi	2705
mtaka	2706
nji	2707
Ġswali	2708
Ġusafiri	2709
Ġhaija	2710
Ġmstaafu	2711
kh	2712
wafanya	2713
Ġkika	2714
Ġnzima	2715
Ġambani	2716
ndisi	2717
chezea	2718
fia	2719
Ġmfuko	2720
Ġgeor	2721
liza	2722
Ġkuhi	2723
Ġmai	2724
Ġkiti	2725
rusi	2726
refu	2727
Ġzikiwa	2728
Ġmfulu	2729
Ġmkononi	2730
Ġuwezekano	2731
Ġrashid	2732
wachezaji	2733
Ġkufanikiwa	2734
Ġkudumu	2735
mbamba	2736
Ġkino	2737
biwa	2738
patia	2739
Ġtani	2740
Ġsiri	2741
chote	2742
pumba	2743
Ġwewe	2744
endelee	2745
Ġalba	2746
Ġkusikia	2747
Ġchochote	2748
ptemba	2749
Ġmha	2750
lipwa	2751
Ġkuweza	2752
Ġutaka	2753
Ġmahu	2754
Ġiko	2755
sabu	2756
Ġviti	2757
Ġmwanamke	2758
Ġmadarakani	2759
Ġgeorge	2760
ward	2761
Ġkara	2762
simba	2763
bidhi	2764
Ġkuwaa	2765
nekana	2766
Ġseptemba	2767
endeshwa	2768
Ġkujiandaa	2769
Ġmzunguko	2770
Ġkinondoni	2771
tma	2772
Ġmri	2773
Ġataka	2774
Ġimara	2775
Ġalio	2776
Ġlipumba	2777
dhari	2778
lianza	2779
Ġmahali	2780
Ġnyaraka	2781
stahili	2782
Ġaskofu	2783
Ġkuchangia	2784
ahidi	2785
sse	2786
Ġwanne	2787
Ġkuzungumzia	2788
Ġago	2789
Ġmala	2790
fanye	2791
shangaza	2792
Ġprison	2793
fanikisha	2794
Ġuliopita	2795
vaa	2796
Ġmatumaini	2797
Ġmfululizo	2798
kulu	2799
Ġis	2800
Ġzile	2801
Ġkulinda	2802
Ġkutengeneza	2803
Ġkipigo	2804
Ġmadega	2805
Ġwilliam	2806
elelezo	2807
Ġmizengo	2808
Ġubunge	2809
Ġam	2810
Ġhadhara	2811
Ġkifungu	2812
Ġbakari	2813
gaji	2814
Ġlita	2815
tumiwa	2816
Ġmaadhimisho	2817
kataa	2818
Ġaliwataka	2819
Ġmapambano	2820
mbulisho	2821
Ġprisons	2822
Ġwapa	2823
mamizi	2824
Ġikulu	2825
Ġkichwa	2826
rume	2827
suko	2828
Ġmajimaji	2829
soma	2830
Ġluku	2831
Ġmapendekezo	2832
Ġkutimiza	2833
ll	2834
uka	2835
Ġupya	2836
Ġkite	2837
pool	2838
Ġilisema	2839
Ġnyimbo	2840
Ġkupigwa	2841
uliza	2842
Ġrufaa	2843
Ġripoti	2844
Ġyupo	2845
Ġkikuu	2846
Ġkuhama	2847
Ġvinavyo	2848
verpool	2849
hama	2850
hivi	2851
kipi	2852
Ġhusu	2853
Ġhawaja	2854
Ġwenyeji	2855
Ġmaswali	2856
Ġkipato	2857
Ġyusu	2858
uza	2859
Ġmua	2860
Ġwazee	2861
mas	2862
funza	2863
Ġva	2864
lozi	2865
Ġrahisi	2866
Ġkumbu	2867
Ġjumanne	2868
shuhudia	2869
stawi	2870
Ġabda	2871
Ġsamaki	2872
wt	2873
Ġupelelezi	2874
lafu	2875
nega	2876
gundua	2877
Ġmaadili	2878
Ġwakiwemo	2879
Ġunaweza	2880
milisha	2881
Ġzilizopo	2882
ngezeko	2883
Ġviwango	2884
undwa	2885
wadi	2886
Ġmshindi	2887
Ġwahusika	2888
hatua	2889
tatu	2890
ndaliwa	2891
ngani	2892
ngoni	2893
Ġmkulo	2894
guliwa	2895
Ġmwakalebela	2896
Ġkuamua	2897
Ġmajambazi	2898
fafanuzi	2899
ransa	2900
Ġwachache	2901
Ġwajibu	2902
Ġand	2903
kundu	2904
Ġidd	2905
Ġjack	2906
Ġakili	2907
Ġkulikuwa	2908
Ġmtuhumiwa	2909
Ġshahidi	2910
Ġmikopo	2911
nuari	2912
Ġchombo	2913
Ġisipokuwa	2914
if	2915
ika	2916
mvi	2917
skofu	2918
Ġkucho	2919
Ġib	2920
Ġilipo	2921
beba	2922
ongozo	2923
gia	2924
Ġutakuwa	2925
Ġkulingana	2926
Ġgra	2927
mkuu	2928
Ġabdallah	2929
ifu	2930
Ġkutwaa	2931
Ġkufanikisha	2932
Ġufafanuzi	2933
Ġsele	2934
mimi	2935
Ġjanuari	2936
Ġmussa	2937
Ġkujitokeza	2938
Ġmwanafunzi	2939
wakilishi	2940
Ġbusanda	2941
anzi	2942
ikh	2943
the	2944
waji	2945
Ġmchungaji	2946
ngga	2947
Ġmawe	2948
Ġhalali	2949
Ġhistoria	2950
tume	2951
mes	2952
Ġvyote	2953
Ġwanaume	2954
Ġtra	2955
Ġboni	2956
Ġjengo	2957
Ġwakubwa	2958
Ġkuonekana	2959
Ġagosti	2960
mbili	2961
Ġmzima	2962
Ġmaambu	2963
Ġvyu	2964
semaji	2965
Ġvisiwani	2966
Ġpatri	2967
Ġkuonyesha	2968
Ġongezeko	2969
Ġakiwemo	2970
Ġbeki	2971
Ġjumatatu	2972
Ġlilikuwa	2973
Ġmashirika	2974
com	2975
Ġyasiyo	2976
Ġlukuvi	2977
negal	2978
mbunge	2979
ur	2980
nggo	2981
Ġanaripoti	2982
Ġserikalini	2983
Ġkuimarisha	2984
Ġofisini	2985
Ġkufuatia	2986
Ġmasomo	2987
Ġmabeki	2988
pumzi	2989
Ġmaambukizi	2990
rles	2991
lim	2992
Ġkuendesha	2993
Ġkushika	2994
Ġufa	2995
Ġyaki	2996
Ġhatia	2997
bika	2998
Ġalieleza	2999
Ġsambamba	3000
Ġzingine	3001
Ġmuhi	3002
kazini	3003
Ġupatu	3004
Ġnyakati	3005
Ġkufuatilia	3006
Ġufumbuzi	3007
Ġmatukio	3008
Ġabdu	3009
vis	3010
hadhari	3011
kuhusu	3012
jipanga	3013
dacom	3014
pangwa	3015
Ġkuwasili	3016
Ġnita	3017
Ġmikataba	3018
Ġseif	3019
gogo	3020
shirikisha	3021
Ġkuifunga	3022
Ġtoka	3023
bainika	3024
Ġuliopo	3025
nalti	3026
Ġkushuka	3027
Ġwawekezaji	3028
Ġedward	3029
Ġkaskazini	3030
Ġkukubali	3031
Ġkudhibiti	3032
tishwa	3033
Ġhama	3034
Ġbahati	3035
shtaka	3036
Ġkumpa	3037
celo	3038
Ġmuhimbili	3039
Ġmno	3040
Ġkuua	3041
kamilika	3042
face	3043
tongo	3044
kebi	3045
semba	3046
Ġwanasiasa	3047
cheze	3048
Ġwalizo	3049
Ġvyao	3050
Ġbendi	3051
Ġpenalti	3052
Ġyalikuwa	3053
ty	3054
Ġhatma	3055
Ġtawi	3056
jumaa	3057
resheni	3058
Ġpau	3059
Ġpembe	3060
Ġmwanasheria	3061
kutano	3062
Ġkupatikana	3063
hitajika	3064
Ġakau	3065
Ġmaandamano	3066
Ġvodacom	3067
ud	3068
yansi	3069
Ġhifadhi	3070
seja	3071
Ġcharles	3072
hojiwa	3073
wishi	3074
ngeweza	3075
Ġsenegal	3076
Ġtrl	3077
Ġzilikuwa	3078
cio	3079
Ġmkali	3080
Ġmanufaa	3081
Ġjackson	3082
Ġboniface	3083
tha	3084
Ġmsu	3085
Ġkurejea	3086
Ġkuchunguza	3087
kabidhi	3088
zaliwa	3089
zimi	3090
siri	3091
furahi	3092
Ġviku	3093
Ġliverpool	3094
Ġamewataka	3095
Ġburu	3096
Ġwenzao	3097
Ġmagharibi	3098
Ġmrisho	3099
zimio	3100
lle	3101
Ġkusisitiza	3102
tafuta	3103
rio	3104
Ġijumaa	3105
chana	3106
tekeleza	3107
chika	3108
Ġilitolewa	3109
Ġmwamuzi	3110
jeshi	3111
jengwa	3112
Ġrama	3113
jiandaa	3114
Ġally	3115
fahamika	3116
Ġmarcio	3117
ondoa	3118
zoefu	3119
Ġmuafaka	3120
mfanya	3121
Ġustawi	3122
bidi	3123
Ġbahari	3124
Ġzitaka	3125
alipo	3126
Ġmabaya	3127
Ġkutambua	3128
Ġdusan	3129
Ġlilitokea	3130
Ġuliofanyika	3131
Ġyuko	3132
shangaa	3133
wakizungumza	3134
Ġkumbukumbu	3135
Ġpatrick	3136
Ġakaunti	3137
mpuni	3138
nce	3139
wassa	3140
Ġmjumbe	3141
lius	3142
Ġuzi	3143
bati	3144
zingatia	3145
Ġtabora	3146
semwa	3147
tembelea	3148
Ġmitano	3149
Ġjulius	3150
Ġkuongezeka	3151
Ġakitoa	3152
Ġbenchi	3153
Ġdesemba	3154
Ġtoto	3155
Ġmrema	3156
Ġathari	3157
Ġinter	3158
celona	3159
ad	3160
ime	3161
wakabili	3162
Ġmto	3163
Ġwadogo	3164
Ġmate	3165
Ġkato	3166
Ġkaseja	3167
jaribu	3168
leta	3169
Ġmisingi	3170
sudi	3171
Ġjirani	3172
mbulizi	3173
Ġkilango	3174
Ġkusamba	3175
Ġwaamuzi	3176
Ġmaelekezo	3177
Ġkuelekea	3178
Ġkuepuka	3179
dhe	3180
vya	3181
Ġwagombea	3182
Ġkutumika	3183
kadi	3184
nii	3185
kutwa	3186
ngamano	3187
Ġvipaji	3188
ruhu	3189
Ġope	3190
thiri	3191
Ġbarabarani	3192
shangazwa	3193
Ġkusikiliza	3194
Ġmw	3195
Ġkukamatwa	3196
yasema	3197
masha	3198
kimu	3199
Ġhami	3200
Ġkijana	3201
rodha	3202
kwamisha	3203
vid	3204
Ġutata	3205
Ġshuti	3206
Ġmakali	3207
Ġhewa	3208
Ġchuji	3209
endeshaji	3210
Ġmsekwa	3211
razil	3212
gra	3213
lwa	3214
Ġkuchukuliwa	3215
Ġmahi	3216
ris	3217
Ġkadhi	3218
Ġkarume	3219
elewa	3220
Ġole	3221
Ġkujali	3222
Ġathuman	3223
Ġutakao	3224
brua	3225
Ġkelele	3226
Ġmvu	3227
Ġkuongoza	3228
Ġmashtaka	3229
kipa	3230
Ġkimoja	3231
Ġkitaa	3232
shawishi	3233
tetea	3234
Ġhuyu	3235
ngazwa	3236
Ġviungo	3237
Ġsura	3238
shuka	3239
Ġmarekebi	3240
Ġhaikuwa	3241
Ġmapenzi	3242
Ġkibali	3243
Ġhazina	3244
Ġibrahi	3245
Ġufaransa	3246
Ġmarekebisho	3247
watu	3248
manu	3249
Ġiweze	3250
Ġkifu	3251
tolea	3252
Ġvingi	3253
Ġilianza	3254
Ġjangwa	3255
Ġinavyo	3256
Ġch	3257
Ġkuandika	3258
Ġfebrua	3259
Ġhukumu	3260
Ġkufungua	3261
Ġmatatu	3262
Ġgesi	3263
Ġlowassa	3264
Ġmtihani	3265
Ġkuvunja	3266
Ġilivyokuwa	3267
Ġrwanda	3268
Ġmwenzake	3269
jeruhiwa	3270
Ġhatimaye	3271
Ġmawazo	3272
pp	3273
phe	3274
Ġgu	3275
Ġmra	3276
Ġmso	3277
Ġwaso	3278
hawa	3279
Ġmacha	3280
Ġindia	3281
jaji	3282
ton	3283
mboni	3284
alidai	3285
Ġpicha	3286
soro	3287
Ġkukamilisha	3288
Ġshahada	3289
Ġjopo	3290
Ġmkakati	3291
Ġzimekuwa	3292
fadhili	3293
ftari	3294
Ġzawadi	3295
Ġsemina	3296
Ġanaamini	3297
Ġsongea	3298
Ġmwananchi	3299
Ġnguo	3300
vamia	3301
Ġmbio	3302
Ġukumbi	3303
Ġabdul	3304
manuel	3305
Ġw	3306
Ġkuni	3307
Ġaibu	3308
kila	3309
lau	3310
sikili	3311
Ġwanatarajia	3312
jumu	3313
Ġwalivyo	3314
Ġsende	3315
Ġkuifanya	3316
Ġfer	3317
Ġdeni	3318
hakiki	3319
Ġkufikisha	3320
ven	3321
Ġkuanzishwa	3322
Ġwakurugenzi	3323
Ġkijamii	3324
Ġoperesheni	3325
Ġfebruari	3326
nry	3327
Ġgi	3328
Ġwaza	3329
Ġwageni	3330
Ġwamiliki	3331
Ġkufanyiwa	3332
bali	3333
bani	3334
jikuta	3335
Ġhalafu	3336
Ġhusse	3337
Ġtiba	3338
pesi	3339
zembe	3340
ndoka	3341
Ġamewa	3342
Ġposho	3343
Ġhawawezi	3344
Ġpemba	3345
mwana	3346
Ġkutetea	3347
Ġmazishi	3348
Ġvitambulisho	3349
Ġrobo	3350
Ġkukuza	3351
Ġulemavu	3352
pro	3353
lili	3354
Ġkureje	3355
simu	3356
sikini	3357
sikiti	3358
leni	3359
Ġalipata	3360
menti	3361
Ġtakri	3362
shiniki	3363
heni	3364
tende	3365
Ġmingi	3366
mwaka	3367
Ġumasikini	3368
Ġkushughuli	3369
heshimiwa	3370
Ġkaimu	3371
Ġvyuo	3372
Ġzitakazo	3373
una	3374
Ġkha	3375
Ġwaraka	3376
Ġkupeleka	3377
Ġuendeshaji	3378
siku	3379
jaa	3380
tuba	3381
dan	3382
moro	3383
Ġziwa	3384
Ġbinti	3385
chunguzi	3386
Ġakina	3387
Ġkujifunza	3388
viongozi	3389
Ġkusafiri	3390
Ġmwene	3391
Ġmsanii	3392
Ġgeita	3393
Ġmfanyabiashara	3394
jitahidi	3395
tongoji	3396
Ġibrahim	3397
sua	3398
linda	3399
lazwa	3400
rabati	3401
fuu	3402
fungia	3403
Ġtawala	3404
Ġsakata	3405
Ġvime	3406
Ġliyumba	3407
rou	3408
Ġrasili	3409
ndera	3410
Ġwatano	3411
Ġzoezi	3412
Ġfuraha	3413
Ġlililofungwa	3414
Ġghafla	3415
ridhika	3416
nesco	3417
Ġkitengo	3418
Ġmwongozo	3419
Ġrasilimali	3420
Ġnk	3421
Ġwapenzi	3422
Ġmabi	3423
Ġmagonjwa	3424
mbaji	3425
shangi	3426
ment	3427
Ġtanesco	3428
ngali	3429
Ġmwai	3430
Ġbingwa	3431
Ġinaendelea	3432
Ġinatarajia	3433
Ġombi	3434
riadha	3435
Ġwakidai	3436
Ġmabasi	3437
Ġkupanga	3438
Ġdharu	3439
Ġlugha	3440
Ġaliwahi	3441
spania	3442
Ġmadeni	3443
skini	3444
td	3445
uliwa	3446
Ġwanyama	3447
Ġkubaki	3448
Ġnazo	3449
hodha	3450
fikiwa	3451
Ġlikiwa	3452
Ġdavid	3453
Ġjukwa	3454
Ġimeanza	3455
Ġitaendelea	3456
Ġkufikishwa	3457
Ġkukamilika	3458
Ġhenry	3459
Ġchetu	3460
Ġkuvuna	3461
Ġumaskini	3462
mkurugenzi	3463
Ġhussein	3464
wama	3465
Ġwaislamu	3466
hana	3467
Ġkibiashara	3468
Ġkigeni	3469
Ġkigoma	3470
fara	3471
Ġlab	3472
Ġmilipuko	3473
Ġvigumu	3474
Ġzipo	3475
Ġmusta	3476
Ġtaaluma	3477
Ġkupita	3478
Ġpeter	3479
Ġsule	3480
Ġsulu	3481
Ġlimekuwa	3482
Ġkuchagua	3483
kwimu	3484
Ġmigogoro	3485
Ġuzinduzi	3486
mka	3487
uzwa	3488
Ġngele	3489
Ġkusu	3490
sira	3491
saha	3492
Ġmiku	3493
Ġwanayo	3494
runa	3495
pende	3496
Ġci	3497
Ġamei	3498
Ġkuandaa	3499
Ġkuunda	3500
Ġhawata	3501
Ġshaka	3502
Ġhaiwezi	3503
thmini	3504
Ġkukataa	3505
Ġamri	3506
unda	3507
nayo	3508
Ġmbu	3509
Ġwahi	3510
mar	3511
Ġkide	3512
saji	3513
saini	3514
chapa	3515
Ġalifanya	3516
Ġalianza	3517
sefu	3518
pongeza	3519
fisha	3520
Ġjames	3521
Ġmume	3522
Ġkuamini	3523
Ġkuajiri	3524
shfa	3525
Ġkusaka	3526
kilishi	3527
Ġhesabu	3528
Ġmagoli	3529
Ġmitihani	3530
shinikiza	3531
fre	3532
mmanuel	3533
Ġwapya	3534
Ġwadhamini	3535
Ġkure	3536
Ġsho	3537
Ġmadi	3538
Ġkiga	3539
lex	3540
saka	3541
fuku	3542
Ġalivyo	3543
keo	3544
Ġsayansi	3545
Ġilii	3546
juma	3547
road	3548
kamati	3549
Ġkambini	3550
Ġtele	3551
Ġyule	3552
Ġgoli	3553
shikilia	3554
Ġbarcelona	3555
Ġhadharani	3556
Ġngeleja	3557
pha	3558
Ġmjadala	3559
Ġmsemaji	3560
kala	3561
Ġuongo	3562
Ġurais	3563
Ġmadogo	3564
Ġkashfa	3565
jadili	3566
leza	3567
Ġaliyasema	3568
mewa	3569
Ġsingi	3570
Ġmingine	3571
Ġmikutano	3572
bert	3573
Ġanataka	3574
Ġpapo	3575
Ġshida	3576
Ġwameanza	3577
bainisha	3578
onesho	3579
Ġkupatiwa	3580
milifu	3581
Ġgereza	3582
Ġprogra	3583
Ġbrazil	3584
Ġdarasa	3585
Ġuvuvi	3586
ruhusiwa	3587
andaliwa	3588
Ġwawakilishi	3589
Ġugeni	3590
Ġmagumu	3591
Ġhispania	3592
toe	3593
bino	3594
mivu	3595
tes	3596
Ġnjo	3597
Ġlawama	3598
Ġmizigo	3599
ndamizi	3600
Ġwanaendelea	3601
Ġemmanuel	3602
ndoa	3603
shwe	3604
Ġkamwe	3605
Ġhosea	3606
Ġkusaini	3607
Ġkusajili	3608
chukulia	3609
Ġzombe	3610
Ġjumatano	3611
Ġrufani	3612
Ġbuko	3613
Ġusimamizi	3614
Ġajabu	3615
Ġukosefu	3616
Ġmilan	3617
Ġmagereza	3618
Ġmaiti	3619
ld	3620
mb	3621
nte	3622
tto	3623
wasilisha	3624
Ġkugo	3625
Ġkusubiri	3626
Ġubo	3627
Ġuso	3628
Ġmaonesho	3629
jiunga	3630
mbabwe	3631
fau	3632
bila	3633
ker	3634
Ġzangu	3635
Ġkatikati	3636
elezea	3637
Ġzisi	3638
Ġakitokea	3639
Ġkumtaka	3640
Ġwaliopo	3641
Ġbendera	3642
Ġkuhusika	3643
Ġyalisemwa	3644
Ġchumba	3645
Ġvitabu	3646
Ġltd	3647
Ġkurudisha	3648
Ġgod	3649
ridhisha	3650
shughulikia	3651
visheni	3652
Ġdharura	3653
Ġsingida	3654
Ġufani	3655
Ġmaho	3656
hudhuria	3657
Ġkie	3658
kebisha	3659
Ġzabuni	3660
mon	3661
ndikwa	3662
Ġanatarajia	3663
dhifa	3664
geria	3665
Ġratiba	3666
Ġorodha	3667
Ġmaafa	3668
jiano	3669
Ġsheikh	3670
Ġkutajwa	3671
Ġalipozungumza	3672
Ġukaguzi	3673
Ġisiyo	3674
Ġmikononi	3675
Ġsulei	3676
ed	3677
Ġuzoefu	3678
Ġange	3679
Ġmarudi	3680
tukio	3681
Ġkia	3682
Ġalia	3683
Ġnika	3684
Ġchao	3685
Ġvirusi	3686
chiwa	3687
Ġwanapo	3688
Ġjadi	3689
Ġdalili	3690
Ġziada	3691
Ġwimbo	3692
Ġrafiki	3693
kwazo	3694
luki	3695
Ġutalii	3696
Ġduni	3697
Ġuwekezaji	3698
Ġjoto	3699
shambulia	3700
Ġnjaa	3701
Ġchri	3702
Ġzisizo	3703
Ġufanisi	3704
ssi	3705
Ġagizo	3706
mai	3707
Ġmanya	3708
Ġhadhi	3709
tus	3710
nganya	3711
horo	3712
Ġvielelezo	3713
Ġwalianza	3714
Ġinadaiwa	3715
Ġmbadala	3716
Ġkumpiga	3717
Ġkazini	3718
Ġmahakimu	3719
Ġkufuta	3720
fikiri	3721
Ġmashine	3722
Ġwatetezi	3723
Ġnew	3724
rahisi	3725
Ġumakini	3726
Ġmeneji	3727
Ġkusikilizwa	3728
Ġvipimo	3729
Ġhamad	3730
Ġtelevisheni	3731
Ġmahojiano	3732
Ġsuleiman	3733
khe	3734
mmoja	3735
sca	3736
ule	3737
Ġwasa	3738
Ġwario	3739
Ġalex	3740
nduli	3741
Ġissa	3742
Ġharuna	3743
lewe	3744
Ġtakwimu	3745
Ġbaya	3746
Ġwanapaswa	3747
Ġzima	3748
Ġinapo	3749
alifafanua	3750
Ġce	3751
Ġwameamua	3752
zwaji	3753
Ġkilisema	3754
Ġreal	3755
Ġnyekundu	3756
nzetu	3757
Ġwafugaji	3758
Ġmaumivu	3759
Ġalbamu	3760
Ġlabda	3761
Ġugenini	3762
Ġwarioba	3763
Ġz	3764
washitakiwa	3765
liga	3766
Ġkuche	3767
Ġkulia	3768
kampuni	3769
Ġnafuu	3770
Ġasasi	3771
pambana	3772
Ġwanafanya	3773
rosi	3774
Ġinapaswa	3775
Ġanatakiwa	3776
Ġrangi	3777
Ġimekuja	3778
islam	3779
Ġletu	3780
Ġmwingi	3781
Ġmwanamuziki	3782
Ġalbino	3783
Ġitakapo	3784
Ġcairo	3785
Ġaliiambia	3786
Ġkukabidhi	3787
kristo	3788
Ġwafuasi	3789
profesa	3790
rbia	3791
staafu	3792
Ġkrosi	3793
limisha	3794
Ġnaamini	3795
tangu	3796
Ġami	3797
Ġipa	3798
leo	3799
chagua	3800
nyema	3801
Ġzimbabwe	3802
Ġinaonekana	3803
gezo	3804
nyiko	3805
Ġghana	3806
Ġwaumini	3807
sababishwa	3808
Ġjangwani	3809
lp	3810
mchezaji	3811
nso	3812
Ġukiwa	3813
Ġkida	3814
Ġalizo	3815
Ġalishindwa	3816
mechi	3817
mita	3818
nesha	3819
Ġsauti	3820
hofia	3821
Ġmwakilishi	3822
suru	3823
Ġtre	3824
ambiwa	3825
Ġof	3826
Ġitalia	3827
Ġkwetu	3828
Ġkutatua	3829
Ġchiliga	3830
Ġwaathirika	3831
Ġkuwekeza	3832
stani	3833
Ġusio	3834
Ġmkewe	3835
Ġbusara	3836
sajiliwa	3837
Ġprogramu	3838
Ġmenejimenti	3839
Ġchiligati	3840
ongezeka	3841
Ġugo	3842
Ġkasoro	3843
Ġhisia	3844
Ġtarehe	3845
zua	3846
Ġpambano	3847
Ġpindi	3848
Ġkuiba	3849
tumikia	3850
nunuzi	3851
Ġwalionekana	3852
Ġsherehe	3853
Ġumekuwa	3854
wazisha	3855
Ġkabila	3856
Ġngozi	3857
Ġmstari	3858
drid	3859
wasilishwa	3860
Ġgrace	3861
cco	3862
rdi	3863
umbele	3864
uchunguzi	3865
nard	3866
Ġanga	3867
Ġmashu	3868
Ġmadrid	3869
Ġkinga	3870
Ġtan	3871
Ġdaftari	3872
Ġinatokana	3873
Ġtlp	3874
Ġkuokoa	3875
Ġkova	3876
Ġmashamba	3877
Ġkutakuwa	3878
Ġjene	3879
Ġmgonjwa	3880
Ġshuleni	3881
Ġyaliyokuwa	3882
Ġdhana	3883
ord	3884
Ġkuondokana	3885
Ġkusimama	3886
ingiza	3887
Ġmasoko	3888
Ġkikamilifu	3889
Ġkuhamasisha	3890
aji	3891
Ġpu	3892
Ġmza	3893
Ġubu	3894
Ġudha	3895
Ġusumbu	3896
tamba	3897
Ġaweze	3898
Ġkamili	3899
Ġkiji	3900
Ġalifunga	3901
Ġwanadaiwa	3902
Ġlingine	3903
Ġanadaiwa	3904
Ġkoro	3905
Ġwatani	3906
Ġmsitu	3907
Ġmashambulizi	3908
Ġmatanga	3909
kelezwa	3910
Ġjinai	3911
Ġushirika	3912
Ġkuingilia	3913
Ġmfanyakazi	3914
Ġmahusiano	3915
Ġkushughulikia	3916
Ġcity	3917
Ġmarudiano	3918
Ġusumbufu	3919
cto	3920
Ġmgeni	3921
Ġmlipuko	3922
Ġkuza	3923
Ġuzazi	3924
Ġada	3925
Ġkidini	3926
pande	3927
Ġtaka	3928
zote	3929
Ġinafanya	3930
Ġcongo	3931
Ġtho	3932
Ġpengine	3933
Ġzozote	3934
Ġsudan	3935
Ġhaiku	3936
Ġkuzidi	3937
cas	3938
Ġjimboni	3939
Ġkikundi	3940
Ġkitabu	3941
Ġmganga	3942
Ġwajasi	3943
Ġwavuni	3944
Ġkidato	3945
Ġmli	3946
Ġmshi	3947
Ġmzigo	3948
Ġkulala	3949
tambu	3950
Ġkipe	3951
Ġalicho	3952
Ġsafu	3953
Ġinatakiwa	3954
Ġakiba	3955
nufa	3956
Ġhotuba	3957
Ġmsafara	3958
Ġzilizopita	3959
Ġalipoulizwa	3960
Ġlucas	3961
lalamikia	3962
Ġruvuma	3963
Ġmwenendo	3964
tl	3965
Ġmb	3966
Ġkuthibitisha	3967
ham	3968
kali	3969
Ġuto	3970
laus	3971
Ġkami	3972
jio	3973
wengine	3974
Ġkizuri	3975
dani	3976
muru	3977
Ġkuwawezesha	3978
Ġsame	3979
Ġsamu	3980
Ġwanacho	3981
Ġendele	3982
Ġanapo	3983
dhinisha	3984
domo	3985
Ġkuunga	3986
Ġiliyofanyika	3987
Ġwakiendelea	3988
toaji	3989
Ġfani	3990
den	3991
Ġchenye	3992
Ġkulevya	3993
Ġahmed	3994
Ġghasia	3995
Ġkuwapatia	3996
Ġpembeni	3997
Ġugomvi	3998
endi	3999
Ġkye	4000
Ġkufahamu	4001
Ġnahodha	4002
Ġmapumzi	4003
raja	4004
Ġkingine	4005
lendo	4006
safiri	4007
kewa	4008
Ġnor	4009
ngamizi	4010
ruki	4011
Ġlindi	4012
Ġbihara	4013
Ġinakuwa	4014
Ġinawezekana	4015
Ġraja	4016
Ġbaraka	4017
Ġmwanachama	4018
Ġuliotolewa	4019
Ġshamba	4020
Ġmajaji	4021
Ġmtanzania	4022
Ġkukusanya	4023
Ġnilikuwa	4024
Ġmgao	4025
drick	4026
Ġkusoma	4027
Ġvinginevyo	4028
kwisha	4029
shikiliwa	4030
Ġhususani	4031
shangilia	4032
Ġkyela	4033
Ġmapumziko	4034
ame	4035
dy	4036
dra	4037
mshitakiwa	4038
rry	4039
uzu	4040
Ġushiriki	4041
Ġyakiwa	4042
bao	4043
tio	4044
Ġmahe	4045
Ġkabu	4046
Ġhisa	4047
lekeo	4048
salia	4049
chaguliwa	4050
Ġwanavyo	4051
Ġmwaki	4052
Ġeto	4053
Ġwalifanya	4054
Ġtuki	4055
Ġwenzetu	4056
Ġonyo	4057
rian	4058
Ġmaaskofu	4059
Ġmaazimio	4060
tumiaji	4061
Ġpengo	4062
Ġmsamaha	4063
ghushi	4064
Ġrites	4065
Ġchuki	4066
Ġkawambwa	4067
Ġkukimbia	4068
Ġwakala	4069
Ġmbowe	4070
Ġkusonga	4071
Ġwahandisi	4072
Ġtakribani	4073
Ġubungo	4074
Ġsamuel	4075
ingawa	4076
nto	4077
way	4078
Ġwashambuliaji	4079
Ġwastani	4080
Ġkuba	4081
Ġue	4082
Ġuzito	4083
Ġurefu	4084
Ġutoaji	4085
kuu	4086
Ġip	4087
Ġilani	4088
bina	4089
sasa	4090
chanzo	4091
Ġalikwenda	4092
Ġtahadhari	4093
Ġvigogo	4094
Ġilipata	4095
Ġwanazo	4096
Ġwalicho	4097
Ġwalipata	4098
Ġjingine	4099
bilioni	4100
Ġpingamizi	4101
shna	4102
Ġkumwo	4103
Ġruma	4104
Ġkusitisha	4105
Ġukarabati	4106
Ġkuelewa	4107
Ġaliyoi	4108
Ġkubadilisha	4109
kipiki	4110
Ġhoseah	4111
iomba	4112
mtu	4113
mkabili	4114
liko	4115
Ġuo	4116
tion	4117
Ġmanyema	4118
Ġmabilioni	4119
zindua	4120
Ġkaga	4121
Ġkahama	4122
huku	4123
Ġkikati	4124
Ġaliamua	4125
Ġtathmini	4126
Ġsalim	4127
Ġlile	4128
Ġiliyosababisha	4129
Ġwakitaka	4130
nyangga	4131
Ġmashaka	4132
Ġkuhudhuria	4133
Ġmatakwa	4134
Ġmpasuko	4135
wazito	4136
Ġwalemavu	4137
Ġmtambo	4138
Ġuhali	4139
Ġkilichopo	4140
Ġniaba	4141
Ġyamekuwa	4142
Ġnyongeza	4143
Ġwajawazito	4144
sumbuliwa	4145
Ġtegeme	4146
Ġkusambaza	4147
Ġiptl	4148
iko	4149
mshambuliaji	4150
liwe	4151
livu	4152
Ġkupelekwa	4153
Ġupi	4154
Ġaa	4155
Ġkada	4156
sishwa	4157
rali	4158
Ġkike	4159
Ġkijijini	4160
tosha	4161
diliwa	4162
hebu	4163
Ġniki	4164
Ġmitaji	4165
Ġchaguzi	4166
Ġmosi	4167
Ġwalim	4168
Ġzitto	4169
Ġanayo	4170
Ġvyake	4171
Ġvyanzo	4172
aliwa	4173
Ġrau	4174
Ġamea	4175
Ġkona	4176
riamali	4177
Ġimea	4178
Ġkuunganisha	4179
Ġumebaini	4180
Ġzilizokuwa	4181
Ġkipaumbele	4182
Ġmajirani	4183
Ġkujiandikisha	4184
Ġkuingiza	4185
Ġnjama	4186
Ġmwanzoni	4187
Ġharakati	4188
alipoulizwa	4189
Ġmabibo	4190
uzulu	4191
bc	4192
Ġmpenzi	4193
Ġkukiwa	4194
Ġkunyo	4195
Ġumbali	4196
Ġalo	4197
Ġabe	4198
Ġkipya	4199
danganyi	4200
Ġkuwalipa	4201
Ġsiwezi	4202
Ġlangoni	4203
Ġmiili	4204
Ġwanapata	4205
Ġera	4206
Ġenzi	4207
uawa	4208
alim	4209
Ġametoa	4210
Ġkuahidi	4211
Ġfor	4212
Ġupatikana	4213
Ġkutaja	4214
shukuru	4215
Ġmakamba	4216
milikiwa	4217
Ġzinazotolewa	4218
fuatilia	4219
haribifu	4220
Ġchanjo	4221
Ġfredrick	4222
Ġkuhifadhi	4223
Ġatakaye	4224
Ġyusuf	4225
Ġmramba	4226
sikiliza	4227
ngalie	4228
Ġkigamboni	4229
lukindo	4230
Ġupatikanaji	4231
fya	4232
ofisa	4233
uta	4234
Ġmzazi	4235
licha	4236
lingani	4237
Ġkushangaza	4238
nina	4239
niel	4240
hii	4241
Ġalama	4242
bada	4243
ley	4244
mulo	4245
Ġwanasema	4246
gopa	4247
Ġjapo	4248
Ġdaniel	4249
pembe	4250
Ġanapaswa	4251
Ġkumiliki	4252
kwama	4253
Ġuliokuwa	4254
Ġusafi	4255
Ġhaita	4256
Ġyenyewe	4257
Ġmadaktari	4258
Ġfilamu	4259
Ġuhai	4260
Ġkuharibu	4261
Ġkushuhudia	4262
Ġfomu	4263
sababishia	4264
tendea	4265
Ġbiharamulo	4266
aban	4267
nsia	4268
nny	4269
Ġkuhara	4270
Ġkuhoji	4271
Ġkuruhusu	4272
Ġuza	4273
Ġurafiki	4274
Ġyataka	4275
Ġawe	4276
Ġhasira	4277
Ġkizazi	4278
Ġkisiwa	4279
Ġvikali	4280
Ġmwao	4281
Ġzitakuwa	4282
Ġmeli	4283
puka	4284
aliwataka	4285
Ġpikipiki	4286
Ġkondo	4287
Ġimetoa	4288
kwaju	4289
vile	4290
Ġshein	4291
Ġkwanini	4292
akitoa	4293
Ġuliofanywa	4294
Ġyanaweza	4295
Ġfiti	4296
Ġkutuliza	4297
Ġmbovu	4298
Ġmlanzi	4299
Ġtegete	4300
Ġvikundi	4301
Ġkitaalamu	4302
Ġkurejesha	4303
Ġtanroad	4304
en	4305
itaka	4306
mp	4307
mpi	4308
wai	4309
Ġwazuri	4310
Ġnaomba	4311
tanzania	4312
tatizo	4313
jihusisha	4314
Ġhamu	4315
meni	4316
mesha	4317
sekana	4318
pukizi	4319
vunja	4320
Ġkuinua	4321
shoto	4322
ndesha	4323
Ġakifanya	4324
Ġpori	4325
Ġkujipatia	4326
Ġiliyoko	4327
Ġiliyoundwa	4328
Ġwalioko	4329
Ġtete	4330
dugu	4331
Ġwodi	4332
Ġmwelekeo	4333
Ġrukwa	4334
Ġmakala	4335
Ġdogo	4336
Ġshaaban	4337
swada	4338
fedha	4339
fuatiwa	4340
Ġndoto	4341
maarufu	4342
Ġmikoani	4343
Ġkuachana	4344
wananchi	4345
ndikishaji	4346
thamini	4347
Ġbukoba	4348
Ġendelevu	4349
Ġerasto	4350
bya	4351
ccm	4352
ifanya	4353
mkia	4354
Ġmhi	4355
Ġkukubaliana	4356
Ġud	4357
Ġuharibifu	4358
hia	4359
Ġaje	4360
Ġkale	4361
Ġiti	4362
husiana	4363
Ġalionekana	4364
Ġalifafanua	4365
Ġkuwafanya	4366
Ġhundi	4367
Ġvicto	4368
jue	4369
Ġtumba	4370
guson	4371
Ġfra	4372
Ġakidai	4373
Ġkujiki	4374
Ġfaini	4375
Ġmakusudi	4376
Ġchipukizi	4377
Ġkuwekwa	4378
Ġkiume	4379
Ġmitaani	4380
Ġkibaha	4381
Ġzikiwemo	4382
hamisi	4383
Ġburundi	4384
frey	4385
Ġkurekebisha	4386
Ġmanyara	4387
Ġmatangazo	4388
duguda	4389
angalia	4390
ss	4391
ulo	4392
wans	4393
Ġmtwa	4394
Ġwakia	4395
Ġkufanyia	4396
Ġkubeba	4397
Ġuzembe	4398
Ġumaarufu	4399
nime	4400
Ġkadri	4401
yota	4402
Ġit	4403
Ġingekuwa	4404
mited	4405
kesi	4406
elekea	4407
Ġjamaa	4408
Ġlimited	4409
Ġtuka	4410
Ġinahitaji	4411
uamuzi	4412
Ġpamba	4413
shtakiwa	4414
Ġimesema	4415
Ġmkopo	4416
akijibu	4417
Ġtoyota	4418
varo	4419
Ġmgodi	4420
Ġmgomo	4421
Ġstans	4422
Ġcomoro	4423
Ġkumuua	4424
bunifu	4425
Ġharamu	4426
wajibika	4427
Ġwajasiriamali	4428
Ġmtwara	4429
Ġstanslaus	4430
ddi	4431
er	4432
wapa	4433
Ġkutua	4434
Ġkulazimika	4435
kanu	4436
Ġununuzi	4437
Ġabo	4438
baka	4439
tinga	4440
Ġmahiri	4441
Ġmakipa	4442
kiza	4443
saidi	4444
mela	4445
polisi	4446
Ġmwamba	4447
Ġeti	4448
Ġwalidai	4449
dhini	4450
Ġwito	4451
gen	4452
Ġkuipa	4453
Ġkote	4454
Ġimeamua	4455
Ġwakifanya	4456
Ġkilikuwa	4457
Ġpresha	4458
Ġhawakuwa	4459
mbiwa	4460
Ġmsajili	4461
Ġdowans	4462
Ġsham	4463
mwambia	4464
Ġredio	4465
pungua	4466
kubalika	4467
Ġmgawo	4468
Ġngoma	4469
Ġhatuwezi	4470
Ġmalawi	4471
Ġmalaria	4472
Ġkatoliki	4473
Ġwasomi	4474
Ġsuluhu	4475
sajigwa	4476
bre	4477
qua	4478
ue	4479
Ġwafadhili	4480
Ġkuvi	4481
Ġkufariki	4482
Ġkughushi	4483
hakuna	4484
tangazwa	4485
Ġikio	4486
Ġkilio	4487
Ġaliomba	4488
zomea	4489
Ġsamwe	4490
nguka	4491
zui	4492
Ġinaonesha	4493
Ġanajua	4494
Ġameamua	4495
Ġkuisaidia	4496
Ġbea	4497
Ġben	4498
dilifu	4499
walisema	4500
Ġuliopigwa	4501
Ġbure	4502
Ġtunataka	4503
Ġalhamisi	4504
karibisha	4505
Ġlupembe	4506
fuatia	4507
Ġhospitalini	4508
Ġuhamisho	4509
nald	4510
Ġlya	4511
Ġtulikuwa	4512
Ġmasikini	4513
lalamikaji	4514
Ġwapate	4515
Ġhususan	4516
nggoa	4517
Ġramadhani	4518
Ġchristo	4519
Ġthomas	4520
akiwa	4521
rto	4522
wu	4523
Ġkulazi	4524
Ġkugundua	4525
Ġyaani	4526
Ġanna	4527
Ġmalia	4528
zio	4529
huda	4530
jage	4531
fakari	4532
mene	4533
seni	4534
seme	4535
Ġzahoro	4536
Ġnzito	4537
Ġnsajigwa	4538
Ġnigeria	4539
ngano	4540
Ġvikosi	4541
Ġwanajua	4542
shiria	4543
dhiri	4544
Ġraha	4545
Ġflo	4546
Ġkuuzwa	4547
Ġunaendelea	4548
Ġmarafiki	4549
Ġhawataki	4550
taanza	4551
Ġridhaa	4552
Ġuandikishaji	4553
Ġkipawa	4554
Ġfifa	4555
Ġaliwaambia	4556
Ġkukidhi	4557
Ġmteja	4558
Ġdiwani	4559
Ġvyenye	4560
Ġrwe	4561
haribika	4562
Ġkubadilika	4563
Ġmachozi	4564
Ġmikubwa	4565
Ġnorway	4566
Ġchristophe	4567
Ġmaliasili	4568
ile	4569
rk	4570
vo	4571
wn	4572
zwe	4573
Ġkushinikiza	4574
kabla	4575
Ġumwa	4576
Ġudanganyi	4577
niwa	4578
Ġazi	4579
mabingwa	4580
tishia	4581
Ġmana	4582
Ġmami	4583
Ġkiko	4584
Ġkiwanja	4585
Ġkitongoji	4586
fundisha	4587
Ġalitakiwa	4588
diliano	4589
kezwa	4590
Ġbaga	4591
Ġmike	4592
Ġminne	4593
ngazaji	4594
Ġviwili	4595
moyo	4596
Ġwalifika	4597
Ġtija	4598
katisha	4599
dhali	4600
ndon	4601
Ġmegawa	4602
Ġwest	4603
tumie	4604
Ġimeshindwa	4605
liona	4606
Ġwamesema	4607
shwaji	4608
Ġiliyopigwa	4609
tarisha	4610
nyanya	4611
Ġkulipia	4612
fanyike	4613
Ġmatawi	4614
Ġhakukuwa	4615
Ġwikiendi	4616
chwani	4617
Ġkuondolewa	4618
Ġmadawa	4619
Ġkushindana	4620
Ġtangazo	4621
Ġmisamaha	4622
Ġukubwa	4623
Ġsteven	4624
Ġpaul	4625
Ġkamishna	4626
Ġkuharakisha	4627
Ġyatakayo	4628
Ġudanganyifu	4629
Ġmamilioni	4630
Ġbagamoyo	4631
azi	4632
gwe	4633
ine	4634
rc	4635
um	4636
Ġmr	4637
Ġmheshimiwa	4638
Ġwapata	4639
Ġwashindi	4640
Ġkumbe	4641
Ġkunywa	4642
habu	4643
Ġundani	4644
Ġuwazi	4645
nili	4646
tana	4647
tasi	4648
ridi	4649
kimbia	4650
zinga	4651
Ġkaka	4652
Ġkwangu	4653
wekea	4654
tubia	4655
Ġkifua	4656
Ġkirefu	4657
michezo	4658
Ġvyumba	4659
Ġkuwasi	4660
teuliwa	4661
Ġsijui	4662
Ġbangi	4663
Ġbalozi	4664
Ġsale	4665
Ġtict	4666
Ġpato	4667
mbee	4668
zunguka	4669
kiangalia	4670
Ġkumsaidia	4671
Ġbosi	4672
Ġkupisha	4673
Ġkusawazisha	4674
Ġchina	4675
nyiro	4676
Ġdhahiri	4677
Ġmajadiliano	4678
hirisha	4679
Ġkusimamisha	4680
Ġitakayofanyika	4681
pumzika	4682
irobi	4683
Ġyusuph	4684
Ġuhalifu	4685
Ġraundi	4686
Ġwapatao	4687
Ġticts	4688
njo	4689
onya	4690
pta	4691
Ġmshahara	4692
Ġwaislam	4693
Ġkufafanua	4694
Ġnairobi	4695
hifadhi	4696
historia	4697
Ġyatakuwa	4698
tawala	4699
maximo	4700
Ġsh	4701
Ġmaalim	4702
Ġifika	4703
Ġibada	4704
Ġkifa	4705
Ġkingu	4706
Ġtas	4707
Ġzain	4708
Ġhujuma	4709
Ġlango	4710
wino	4711
rumani	4712
Ġdada	4713
Ġpanya	4714
Ġndizo	4715
Ġleseni	4716
Ġunatarajiwa	4717
Ġshekhe	4718
Ġbenja	4719
Ġkufuzu	4720
Ġjezi	4721
Ġsumu	4722
Ġhakutaka	4723
Ġsanaa	4724
Ġmassa	4725
Ġbudi	4726
Ġtunaweza	4727
unganisha	4728
Ġyaliyopo	4729
Ġdhahabu	4730
Ġmtindo	4731
Ġuhalali	4732
Ġkupungua	4733
Ġkukosekana	4734
Ġmhandisi	4735
Ġmustafa	4736
pendekeza	4737
Ġudhaifu	4738
Ġrumande	4739
Ġfrank	4740
meneja	4741
Ġchristopher	4742
Ġifikapo	4743
gh	4744
mgo	4745
udi	4746
kai	4747
Ġnadhani	4748
Ġst	4749
kikosi	4750
ndwe	4751
Ġkaduguda	4752
Ġhavi	4753
rai	4754
kemea	4755
hema	4756
Ġbandia	4757
Ġilitoa	4758
Ġlipo	4759
Ġdalali	4760
dhan	4761
Ġvyakula	4762
Ġamepata	4763
Ġowino	4764
Ġkufundisha	4765
Ġmatajiri	4766
Ġngumi	4767
Ġkukagua	4768
vamizi	4769
kaririwa	4770
Ġrehema	4771
ungana	4772
Ġkutunza	4773
Ġlililokuwa	4774
Ġnec	4775
Ġwatakapo	4776
mahakama	4777
heshimu	4778
Ġhatiani	4779
Ġramadhan	4780
Ġferguson	4781
sikitishwa	4782
unajua	4783
Ġmadiwani	4784
binafsi	4785
ikolojia	4786
frika	4787
mchezo	4788
umia	4789
Ġafisa	4790
Ġmat	4791
zamo	4792
Ġkahawa	4793
sim	4794
Ġkichwani	4795
patiwa	4796
Ġmiji	4797
Ġmijini	4798
ndamana	4799
wira	4800
Ġbaadae	4801
Ġradhi	4802
Ġkongamano	4803
vic	4804
Ġkupima	4805
Ġteule	4806
Ġitaanza	4807
Ġzinaweza	4808
Ġpet	4809
chukuliwe	4810
Ġwanaoishi	4811
mbilia	4812
Ġkituoni	4813
Ġzilizobaki	4814
Ġmpinzani	4815
Ġmchanga	4816
ngezea	4817
Ġmoham	4818
Ġukanda	4819
majira	4820
Ġkuelezea	4821
simama	4822
Ġhauja	4823
Ġmilango	4824
Ġkilomita	4825
Ġutulivu	4826
Ġpasipo	4827
hakikishia	4828
fukuza	4829
rdin	4830
Ġkikatiba	4831
Ġtanroads	4832
Ġmegawati	4833
Ġkingunge	4834
fti	4835
llo	4836
rre	4837
Ġndu	4838
Ġudhamini	4839
Ġasha	4840
bana	4841
Ġmaria	4842
Ġmakatibu	4843
Ġhaji	4844
Ġkielelezo	4845
fuzu	4846
Ġaliona	4847
Ġalikataa	4848
Ġzamu	4849
Ġsina	4850
pira	4851
ngola	4852
Ġmwanya	4853
ganda	4854
Ġinawa	4855
dhili	4856
Ġpacha	4857
Ġjibu	4858
vunia	4859
Ġkuichezea	4860
Ġkuidhinisha	4861
doro	4862
giwa	4863
Ġkuundwa	4864
Ġwaliokufa	4865
dui	4866
Ġkulipuka	4867
Ġbarani	4868
Ġwanaotaka	4869
Ġnjema	4870
Ġkusikiti	4871
Ġkimaro	4872
Ġlinaweza	4873
cela	4874
Ġyanayoendelea	4875
Ġyanayohusu	4876
Ġkawawa	4877
Ġuhaba	4878
Ġvinara	4879
Ġnoti	4880
Ġvumbi	4881
Ġmalecela	4882
Ġhatuna	4883
Ġmagomeni	4884
Ġkumekuwa	4885
Ġalbam	4886
Ġandre	4887
Ġburudani	4888
Ġsendeu	4889
pesile	4890
sahau	4891
Ġzfa	4892
Ġmwakipesile	4893
ghari	4894
upande	4895
Ġkhali	4896
Ġmpo	4897
Ġkuchu	4898
Ġkukuta	4899
Ġkulwa	4900
Ġuwt	4901
tin	4902
Ġswe	4903
Ġmadhu	4904
kiongozi	4905
Ġia	4906
Ġkinyangga	4907
Ġkifedha	4908
lela	4909
savyo	4910
changiwa	4911
meta	4912
mero	4913
min	4914
Ġtata	4915
port	4916
Ġnikiwa	4917
nea	4918
Ġvigezo	4919
chimbaji	4920
nguti	4921
Ġsere	4922
Ġlini	4923
Ġziko	4924
Ġanafanya	4925
gusti	4926
gunduli	4927
geme	4928
Ġkuitaka	4929
Ġkomp	4930
yuta	4931
Ġmaagizo	4932
giliaji	4933
Ġmkongwe	4934
Ġunatokana	4935
Ġshelukindo	4936
dumia	4937
Ġzilieleza	4938
Ġmwendesha	4939
deo	4940
Ġuchafu	4941
Ġmwanaume	4942
Ġkutegemea	4943
Ġuteuzi	4944
Ġuchungu	4945
Ġnyanja	4946
Ġkuziba	4947
anafafanua	4948
Ġdhati	4949
Ġyona	4950
Ġmagazeti	4951
Ġcup	4952
Ġnurdin	4953
Ġinjini	4954
ngenezwa	4955
Ġukuaji	4956
razili	4957
Ġismai	4958
Ġkifungo	4959
Ġgodfrey	4960
Ġamir	4961
Ġipasavyo	4962
Ġtreni	4963
Ġetoile	4964
Ġabou	4965
Ġumwagiliaji	4966
Ġmohammed	4967
Ġkinyangganyiro	4968
gundulika	4969
Ġkompyuta	4970
andaa	4971
rne	4972
sya	4973
Ġng	4974
wari	4975
wabunge	4976
Ġmja	4977
Ġmratibu	4978
Ġmlima	4979
Ġwaendelee	4980
Ġkufanywa	4981
Ġkustaafu	4982
Ġun	4983
Ġure	4984
Ġukili	4985
Ġnawa	4986
tafu	4987
Ġsqua	4988
Ġmadu	4989
Ġmapya	4990
Ġkando	4991
jali	4992
Ġkiserikali	4993
Ġkihistoria	4994
bira	4995
sama	4996
samba	4997
Ġkuwapo	4998
Ġmipira	4999
ngoro	5000
bovu	5001
wiki	5002
ndikishwa	5003
ruku	5004
Ġwalinzi	5005
Ġwalitakiwa	5006
Ġwalitoa	5007
rodhe	5008
vyokuwa	5009
per	5010
peli	5011
Ġmkulima	5012
Ġmeza	5013
Ġraza	5014
vutio	5015
Ġomari	5016
Ġkujihusisha	5017
Ġkujituma	5018
Ġmwendo	5019
Ġwanaofanya	5020
Ġulitolewa	5021
Ġkupachika	5022
rudisha	5023
Ġujasiri	5024
Ġhayati	5025
Ġkilichokuwa	5026
Ġufunguzi	5027
Ġkinachotakiwa	5028
simamia	5029
wakilisha	5030
Ġhauna	5031
Ġvan	5032
nggombe	5033
Ġkuuawa	5034
Ġmsongamano	5035
Ġsendeka	5036
Ġjukwaa	5037
fautia	5038
Ġjenerali	5039
Ġtegemeo	5040
es	5041
Ġzuri	5042
lila	5043
lishwa	5044
Ġwashi	5045
Ġkudaiwa	5046
Ġkugawa	5047
Ġushu	5048
Ġnadi	5049
Ġhajui	5050
rafa	5051
Ġkimia	5052
pate	5053
Ġalifariki	5054
Ġkuwafunga	5055
Ġkuwaondoa	5056
pishwa	5057
Ġchale	5058
Ġvideo	5059
Ġwaliwa	5060
Ġwalishindwa	5061
Ġwalikamatwa	5062
Ġmojawapo	5063
niambia	5064
Ġinataka	5065
Ġanakuwa	5066
Ġpapa	5067
Ġamefanya	5068
Ġkuamkia	5069
Ġovyo	5070
liondo	5071
kamano	5072
Ġiliyochezwa	5073
Ġhalina	5074
Ġhawajui	5075
nduki	5076
Ġmwema	5077
Ġikilingani	5078
Ġbunduki	5079
Ġmfungaji	5080
Ġlondon	5081
Ġcom	5082
Ġrobert	5083
Ġujerumani	5084
Ġkitakuwa	5085
Ġugawaji	5086
Ġmgawa	5087
ingilio	5088
Ġalimtaka	5089
ripotiwa	5090
nganyiko	5091
kipindi	5092
wtz	5093
furahishwa	5094
Ġhamisi	5095
ntena	5096
Ġangalau	5097
Ġmshikamano	5098
Ġkimiani	5099
Ġikilinganishwa	5100
cc	5101
wasaidia	5102
Ġmguu	5103
Ġwafungwa	5104
Ġula	5105
Ġura	5106
Ġnalo	5107
hivyo	5108
Ġamo	5109
lada	5110
rasa	5111
Ġhia	5112
fano	5113
letea	5114
sari	5115
Ġalitumia	5116
Ġkuwasha	5117
Ġkuwaeleza	5118
Ġzana	5119
Ġsaini	5120
pigia	5121
Ġwanam	5122
nguliwa	5123
Ġmwajiri	5124
Ġwalia	5125
ngeti	5126
ngezwa	5127
Ġdpp	5128
Ġtundu	5129
Ġinatarajiwa	5130
Ġmufti	5131
Ġcana	5132
Ġkuambiwa	5133
Ġkuitwa	5134
Ġshitaka	5135
Ġakijibu	5136
Ġpombe	5137
Ġwatapata	5138
Ġwataweza	5139
Ġndicho	5140
Ġkujifungua	5141
Ġkupigia	5142
Ġpla	5143
Ġikiendelea	5144
Ġzilizotolewa	5145
Ġyaliyotolewa	5146
Ġloliondo	5147
Ġkupona	5148
Ġkutinga	5149
Ġkukutwa	5150
Ġmanji	5151
pangaji	5152
Ġmadereva	5153
Ġmichango	5154
Ġmwenzao	5155
Ġkuepusha	5156
Ġmlango	5157
Ġkaijage	5158
Ġkikapu	5159
llya	5160
Ġselelii	5161
Ġrajab	5162
Ġitikadi	5163
Ġsamwel	5164
Ġsquad	5165
rodhesha	5166
ashiria	5167
eti	5168
nter	5169
pment	5170
nali	5171
Ġmdomo	5172
Ġwatumiaji	5173
Ġkuvamia	5174
Ġungu	5175
Ġuwajibika	5176
Ġnataka	5177
nika	5178
Ġmake	5179
Ġmadhe	5180
kiuka	5181
Ġhafla	5182
raji	5183
Ġkiki	5184
fana	5185
Ġalitaka	5186
Ġaliendelea	5187
Ġalifika	5188
muni	5189
Ġzahana	5190
tel	5191
Ġsija	5192
Ġsinza	5193
Ġsam	5194
kosea	5195
Ġwanashindwa	5196
Ġwanakabiliwa	5197
lopment	5198
ruka	5199
nger	5200
Ġmuswada	5201
Ġameshindwa	5202
Ġshingo	5203
Ġwataendelea	5204
Ġkumfanya	5205
Ġkujiuzulu	5206
vin	5207
Ġwakiongozwa	5208
Ġitatoa	5209
Ġdeve	5210
vana	5211
Ġataendelea	5212
Ġheliko	5213
Ġroho	5214
Ġkujaribu	5215
Ġvyeti	5216
Ġjwtz	5217
Ġsokoine	5218
Ġyakiwemo	5219
Ġmahita	5220
jumuisha	5221
Ġkusafirisha	5222
Ġbayana	5223
Ġutovu	5224
Ġaliyoitoa	5225
kanusha	5226
Ġukilinganisha	5227
fautiana	5228
Ġunguja	5229
Ġuwajibikaji	5230
Ġmadhehebu	5231
Ġzahanati	5232
Ġdevelopment	5233
Ġhelikopta	5234
as	5235
plo	5236
rn	5237
suaji	5238
twe	5239
uongozi	5240
yce	5241
Ġq	5242
lix	5243
Ġuu	5244
Ġucho	5245
Ġurahisi	5246
hile	5247
Ġyapo	5248
tibo	5249
Ġmagu	5250
ladala	5251
weleza	5252
Ġkicha	5253
lengo	5254
Ġkuwakamata	5255
Ġtari	5256
Ġtamasha	5257
ser	5258
busu	5259
Ġland	5260
Ġlangu	5261
Ġbalali	5262
Ġviki	5263
Ġviko	5264
Ġvipe	5265
Ġvikwazo	5266
Ġwanatumia	5267
Ġwanahitaji	5268
Ġwanajeshi	5269
Ġmwandamizi	5270
Ġwalifanikiwa	5271
reji	5272
Ġjapa	5273
Ġdaladala	5274
Ġjua	5275
pendi	5276
zetini	5277
Ġpanga	5278
tumike	5279
Ġimeendelea	5280
Ġakim	5281
Ġkuumia	5282
nusuru	5283
mbui	5284
Ġmajimbo	5285
Ġwakisema	5286
Ġmahanga	5287
Ġboban	5288
Ġber	5289
Ġupasuaji	5290
Ġkutangazwa	5291
Ġumefika	5292
dea	5293
Ġinayomkabili	5294
Ġmakame	5295
Ġshadra	5296
Ġkutenda	5297
Ġkutembelea	5298
Ġyaliyotokea	5299
Ġmkaguzi	5300
Ġakawa	5301
Ġkuchaguliwa	5302
Ġkukiuka	5303
Ġunaofanywa	5304
Ġbro	5305
Ġmarmo	5306
Ġnetibo	5307
Ġmanunuzi	5308
mbulika	5309
Ġbandarini	5310
nywaji	5311
ness	5312
Ġkabuye	5313
Ġshadrack	5314
Ġnetiboli	5315
athirika	5316
imarisha	5317
mya	5318
rtini	5319
sso	5320
wanga	5321
Ġmpenda	5322
Ġwange	5323
Ġwadhifa	5324
Ġwapangaji	5325
Ġkurusha	5326
Ġkuhofia	5327
Ġkupumzika	5328
Ġugumu	5329
tayari	5330
Ġari	5331
Ġmanne	5332
Ġidhini	5333
hutubia	5334
rabu	5335
tupa	5336
Ġkinye	5337
Ġalihoji	5338
miongoni	5339
mund	5340
Ġkuwahoji	5341
hewa	5342
Ġlaw	5343
Ġmimba	5344
Ġvitendea	5345
Ġilieleza	5346
boko	5347
nyeji	5348
elewe	5349
Ġmokiwa	5350
rema	5351
ganga	5352
gazeti	5353
Ġliko	5354
zuka	5355
Ġtutakuwa	5356
mboa	5357
shtu	5358
Ġkortini	5359
Ġwametakiwa	5360
Ġndilo	5361
Ġkuungana	5362
Ġkujipanga	5363
vio	5364
soka	5365
Ġgavana	5366
Ġzinaonesha	5367
Ġaliyewahi	5368
minifu	5369
Ġsubira	5370
Ġmashe	5371
Ġshabiki	5372
Ġricha	5373
Ġchumvi	5374
Ġujanja	5375
Ġujauzi	5376
Ġmajeshi	5377
funguliwa	5378
ngenezo	5379
Ġkunufa	5380
Ġmseto	5381
Ġfred	5382
Ġkassim	5383
nnavaro	5384
kabidhiwa	5385
Ġwahitimu	5386
Ġnjombe	5387
Ġkienyeji	5388
Ġkuchelewa	5389
Ġkukabidhiwa	5390
Ġmzambia	5391
Ġupimaji	5392
Ġkondomu	5393
Ġujauzito	5394
achwa	5395
agiza	5396
mradi	5397
tho	5398
ys	5399
Ġwakristo	5400
Ġudhibiti	5401
Ġuelewa	5402
tani	5403
Ġanne	5404
Ġamina	5405
Ġmava	5406
jazo	5407
mbatana	5408
rasi	5409
Ġkipo	5410
Ġkizuia	5411
Ġkiwira	5412
Ġkuwaji	5413
Ġkuwafikia	5414
buti	5415
shio	5416
ship	5417
Ġnmb	5418
nedi	5419
Ġbasto	5420
Ġmina	5421
Ġchafu	5422
Ġwanakuwa	5423
Ġwanamuziki	5424
ngunga	5425
Ġmwando	5426
Ġepa	5427
Ġeva	5428
ben	5429
Ġtishio	5430
Ġzijazo	5431
roka	5432
jengea	5433
Ġinatoa	5434
Ġinaongoza	5435
sumbua	5436
Ġkuathiri	5437
Ġwaliojitokeza	5438
Ġmahabusu	5439
kwepa	5440
Ġunapo	5441
Ġtenga	5442
Ġaugusti	5443
Ġumeanza	5444
Ġkusafisha	5445
nduka	5446
nduliwa	5447
Ġwanaocheza	5448
Ġikifanya	5449
Ġwaandamizi	5450
Ġinayowakabili	5451
Ġmakalla	5452
Ġhapana	5453
karibia	5454
Ġkimaendeleo	5455
harakati	5456
punguza	5457
Ġwasimamizi	5458
Ġdhaifu	5459
Ġkuonana	5460
Ġutekelezwaji	5461
ridhishwa	5462
Ġwalipofika	5463
Ġubaguzi	5464
Ġseleman	5465
Ġjukwaani	5466
Ġwahisani	5467
kerwa	5468
tambuliwa	5469
Ġmbrazili	5470
Ġvictoria	5471
Ġkuwasiliana	5472
Ġmadhubuti	5473
Ġserengeti	5474
Ġmavazi	5475
Ġkizuiani	5476
Ġbastola	5477
Ġmwandosya	5478
gele	5479
hc	5480
ifunga	5481
lda	5482
swi	5483
Ġdia	5484
Ġmtaji	5485
Ġmkwaju	5486
Ġwaji	5487
Ġkumua	5488
hatu	5489
kane	5490
Ġulianza	5491
hiniwa	5492
Ġala	5493
Ġkaba	5494
huo	5495
Ġkisi	5496
sadi	5497
pati	5498
Ġalilazimika	5499
Ġnhc	5500
Ġbati	5501
kondic	5502
noa	5503
ngusha	5504
ndio	5505
lokuwa	5506
fike	5507
rea	5508
Ġlitakuwa	5509
jenge	5510
takabali	5511
Ġpius	5512
mbeni	5513
Ġwamepata	5514
Ġakitumia	5515
Ġpopo	5516
mbue	5517
Ġwaliofika	5518
Ġhoma	5519
Ġkupitisha	5520
Ġunajua	5521
Ġteam	5522
Ġkutamba	5523
Ġulimwe	5524
Ġruhu	5525
Ġhakika	5526
shirikisho	5527
Ġbuti	5528
Ġmpiga	5529
Ġnyadhifa	5530
Ġzinazoendelea	5531
stam	5532
pigano	5533
Ġwalengwa	5534
Ġmbezi	5535
Ġrostam	5536
Ġmapanga	5537
Ġkutuma	5538
naldo	5539
Ġmatusi	5540
Ġkitanzania	5541
Ġchote	5542
Ġumati	5543
Ġaliyokuwa	5544
ingie	5545
Ġkuelimisha	5546
Ġmserbia	5547
Ġmabenki	5548
hamishiwa	5549
Ġharambee	5550
Ġvitisho	5551
chezesha	5552
Ġmatengenezo	5553
Ġkatoro	5554
Ġpetro	5555
Ġnadir	5556
Ġmpendazoe	5557
Ġrichard	5558
Ġulimwengu	5559
ac	5560
askofu	5561
pre	5562
Ġnda	5563
Ġkwi	5564
Ġkupe	5565
Ġkukwamisha	5566
Ġkujeruhiwa	5567
Ġkushoto	5568
Ġnami	5569
tanga	5570
Ġmapigano	5571
zama	5572
yoga	5573
kundi	5574
kumbwa	5575
fundi	5576
Ġaliji	5577
Ġaliingia	5578
mira	5579
Ġvvu	5580
Ġkuwako	5581
Ġtajiri	5582
Ġbalama	5583
Ġmie	5584
Ġmiha	5585
Ġmicho	5586
ngili	5587
Ġvitongoji	5588
ndisho	5589
Ġlibya	5590
Ġdaud	5591
rome	5592
Ġtua	5593
Ġtuweze	5594
Ġanaji	5595
Ġanadai	5596
liambia	5597
Ġjipya	5598
Ġomar	5599
Ġkujiamini	5600
Ġkujiridhisha	5601
soa	5602
Ġfelix	5603
Ġbongo	5604
Ġutangazaji	5605
nyakua	5606
Ġbenedi	5607
Ġmsimbazi	5608
Ġmsichana	5609
Ġphili	5610
Ġdosari	5611
Ġshauri	5612
Ġstaili	5613
Ġfungu	5614
cia	5615
Ġronaldo	5616
Ġkumalizia	5617
Ġkukicha	5618
hirishwa	5619
Ġbri	5620
Ġmabomba	5621
Ġlililopo	5622
Ġmary	5623
Ġkutishia	5624
Ġmazoezini	5625
Ġkuhatarisha	5626
Ġcannavaro	5627
Ġninacho	5628
singizio	5629
njika	5630
Ġisra	5631
Ġmvutano	5632
Ġshoo	5633
scal	5634
aliwataja	5635
Ġbenjamin	5636
gharimu	5637
Ġchalenji	5638
Ġtarime	5639
sker	5640
wji	5641
Ġriadha	5642
Ġmtumishi	5643
Ġmmiliki	5644
Ġmlalamikaji	5645
Ġwachungaji	5646
Ġkuchi	5647
Ġan	5648
bas	5649
Ġmado	5650
rick	5651
kisi	5652
kitu	5653
kifanya	5654
Ġkado	5655
kufuatia	5656
Ġhar	5657
Ġharou	5658
Ġkiislamu	5659
Ġkikwazo	5660
dakika	5661
lele	5662
mila	5663
Ġkuwatu	5664
Ġkuwatia	5665
Ġkuwataja	5666
Ġkuwapeleka	5667
kezi	5668
tenda	5669
tenga	5670
tendaji	5671
ngizi	5672
Ġvisima	5673
Ġilia	5674
Ġwanane	5675
Ġwanaishi	5676
Ġwanariadha	5677
elekeza	5678
fisi	5679
Ġtusker	5680
Ġanatarajiwa	5681
Ġanafafanua	5682
gusa	5683
Ġwema	5684
Ġosca	5685
nder	5686
ndeni	5687
Ġwamesha	5688
Ġakifungua	5689
nuliwa	5690
mbulisha	5691
Ġwaliofanya	5692
Ġfeki	5693
Ġwakitumia	5694
Ġgazetini	5695
Ġpri	5696
Ġwanaotuhumiwa	5697
bishara	5698
Ġnguru	5699
Ġuwepo	5700
Ġkuficha	5701
Ġhero	5702
Ġnjiani	5703
onal	5704
Ġyaliyofanyika	5705
Ġusingizi	5706
Ġwasichana	5707
Ġwakiwamo	5708
Ġzenu	5709
Ġkuhami	5710
Ġabdi	5711
Ġmbolea	5712
Ġwakongwe	5713
sababu	5714
Ġmabehewa	5715
Ġwataalam	5716
Ġmageuzi	5717
Ġupepo	5718
ndeleo	5719
Ġvocha	5720
Ġkuwaachia	5721
hadharisha	5722
Ġhamis	5723
Ġwhi	5724
Ġkuajiriwa	5725
Ġmlinzi	5726
Ġabeid	5727
Ġuzalendo	5728
Ġtumbaku	5729
Ġkujikita	5730
Ġruhusa	5731
Ġbenedict	5732
Ġoscar	5733
cu	5734
fta	5735
ir	5736
lfan	5737
Ġkongo	5738
Ġwafanye	5739
Ġkupu	5740
Ġkutakiwa	5741
Ġkuhojiwa	5742
Ġkuharibika	5743
Ġac	5744
Ġangola	5745
Ġkabwe	5746
kumba	5747
kura	5748
humu	5749
weni	5750
Ġalipewa	5751
Ġalikamatwa	5752
Ġtarafa	5753
keli	5754
shindo	5755
pitia	5756
pitishwa	5757
ndano	5758
Ġilitakiwa	5759
Ġilishinda	5760
Ġmwanga	5761
Ġmwanyika	5762
Ġdua	5763
zuku	5764
pewe	5765
pesha	5766
Ġinabidi	5767
Ġmushi	5768
Ġpapi	5769
Ġmema	5770
Ġtri	5771
Ġamekiri	5772
Ġkuachia	5773
Ġshiniki	5774
Ġfla	5775
Ġwameshindwa	5776
Ġposta	5777
iskeli	5778
Ġkumpata	5779
Ġkujio	5780
Ġkujikuta	5781
Ġwaliohudhuria	5782
wezekani	5783
Ġwanaotumia	5784
Ġjela	5785
Ġruzuku	5786
Ġmwanasiasa	5787
Ġkusitishwa	5788
shindikana	5789
Ġfujo	5790
Ġnyama	5791
Ġnyange	5792
Ġzimeanza	5793
Ġyanayoweza	5794
Ġmtazamo	5795
ndaaji	5796
Ġmfadhili	5797
Ġmbiu	5798
Ġkumuona	5799
Ġujuzi	5800
Ġhuruma	5801
Ġnjano	5802
shughulikiwa	5803
Ġvilivyopo	5804
wafanyakazi	5805
Ġkusuku	5806
Ġgerezani	5807
Ġkorogwe	5808
Ġmahenge	5809
Ġajenda	5810
Ġaziz	5811
Ġmaduka	5812
Ġkunufaika	5813
sadikiwa	5814
Ġnguruwe	5815
Ġshinikizo	5816
ikabili	5817
opia	5818
rg	5819
ure	5820
ukwa	5821
waa	5822
walio	5823
wakazi	5824
Ġkhati	5825
nadi	5826
Ġmzi	5827
Ġukati	5828
Ġubia	5829
Ġujio	5830
Ġunyanya	5831
tional	5832
Ġmapo	5833
Ġmapu	5834
Ġmauri	5835
Ġmawakili	5836
zalishwa	5837
kizwa	5838
kusa	5839
faruku	5840
sanyiko	5841
pania	5842
michuano	5843
tengeneza	5844
popo	5845
pofika	5846
Ġbare	5847
Ġbaiskeli	5848
Ġsara	5849
koo	5850
Ġvipo	5851
Ġvisiwa	5852
chelewa	5853
juzi	5854
Ġmwake	5855
Ġwalifikishwa	5856
Ġtumbo	5857
Ġinasema	5858
Ġhuohuo	5859
Ġanam	5860
Ġanakabiliwa	5861
Ġmusa	5862
Ġmungi	5863
gue	5864
Ġpart	5865
Ġpark	5866
Ġpascal	5867
Ġamem	5868
Ġamefariki	5869
Ġkuagiza	5870
Ġkuachiwa	5871
Ġkuita	5872
Ġfran	5873
Ġmaandishi	5874
Ġmaabara	5875
ngwana	5876
Ġwaliohusika	5877
Ġlema	5878
Ġhou	5879
thiopia	5880
Ġhataki	5881
Ġzinaendelea	5882
Ġpc	5883
Ġpepe	5884
chukue	5885
Ġjerry	5886
Ġwaajiri	5887
Ġmgongo	5888
Ġkutekelezwa	5889
Ġzinazofanywa	5890
swahili	5891
Ġmajeraha	5892
Ġkutimua	5893
Ġkilichotokea	5894
Ġndefu	5895
Ġaliiomba	5896
Ġmbona	5897
Ġkinachoendelea	5898
Ġkisaikolojia	5899
Ġkulazwa	5900
Ġedmund	5901
kumbuka	5902
hamis	5903
Ġfree	5904
Ġupendo	5905
Ġupendeleo	5906
Ġkumwambia	5907
Ġmawakala	5908
Ġathumani	5909
Ġkuhitimu	5910
Ġkuwaacha	5911
laumu	5912
Ġmumewe	5913
faulu	5914
kaimu	5915
Ġjapan	5916
Ġharoub	5917
Ġbaregu	5918
bl	5919
vua	5920
nao	5921
Ġmje	5922
Ġmkia	5923
Ġwami	5924
Ġkuwezesha	5925
Ġkulalamika	5926
haya	5927
Ġuchezaji	5928
Ġushambuliaji	5929
Ġnae	5930
Ġyati	5931
Ġaz	5932
Ġangele	5933
mama	5934
made	5935
Ġsm	5936
zar	5937
laba	5938
Ġkako	5939
Ġkaria	5940
kusanya	5941
kusudi	5942
Ġkio	5943
Ġkiwe	5944
Ġkitaka	5945
fajiri	5946
bishwa	5947
paganda	5948
Ġalijibu	5949
Ġalikaririwa	5950
Ġkuwao	5951
Ġkuwabana	5952
Ġtaba	5953
buri	5954
buda	5955
tengenezwa	5956
polo	5957
Ġmijadala	5958
pindu	5959
Ġiliamua	5960
Ġwalitaka	5961
Ġserbia	5962
Ġjasho	5963
Ġlilia	5964
mbozi	5965
alitoa	5966
Ġimezidi	5967
Ġmaafisa	5968
Ġakitaka	5969
Ġakizungumzia	5970
Ġkumshambulia	5971
nunua	5972
Ġwaliozungumza	5973
Ġitawa	5974
Ġitafanya	5975
Ġshukuru	5976
Ġfaraja	5977
Ġdeo	5978
Ġkutafakari	5979
Ġtoba	5980
ndupindu	5981
Ġwanaoji	5982
Ġsunguti	5983
Ġkipindupindu	5984
Ġmaziwa	5985
Ġzinazoshiriki	5986
Ġtumekuwa	5987
stars	5988
Ġpropaganda	5989
Ġfikra	5990
Ġakasema	5991
Ġukimya	5992
fsiri	5993
Ġvinasaba	5994
muisho	5995
Ġmajumuisho	5996
Ġhauwezi	5997
Ġkimsingi	5998
laamu	5999
Ġwasiokuwa	6000
Ġlikizo	6001
Ġmahujaji	6002
Ġatakapo	6003
Ġinterna	6004
mashabiki	6005
Ġmachafu	6006
Ġkhalfan	6007
Ġmustapha	6008
fukuzwa	6009
Ġkunyongwa	6010
Ġudp	6011
Ġmihale	6012
Ġharrison	6013
Ġpapic	6014
Ġmungiki	6015
Ġyatima	6016
Ġangeles	6017
kusudiwa	6018
ah	6019
mk	6020
phiri	6021
umu	6022
uben	6023
Ġbla	6024
Ġfisadi	6025
wasa	6026
Ġmdhamini	6027
Ġmzito	6028
Ġwai	6029
Ġkujengwa	6030
Ġunga	6031
Ġubunifu	6032
Ġubinafsi	6033
Ġuchimbaji	6034
Ġnauli	6035
Ġnajua	6036
Ġara	6037
tine	6038
rif	6039
kidhi	6040
kitendo	6041
Ġisa	6042
husishwa	6043
tuli	6044
Ġkisiwani	6045
Ġkigogo	6046
toshe	6047
tofautiana	6048
bile	6049
changanya	6050
Ġalionesha	6051
Ġkuwahi	6052
Ġkuwaomba	6053
ses	6054
teua	6055
Ġsingo	6056
piki	6057
hoja	6058
Ġwanadai	6059
widhi	6060
Ġmwafaka	6061
Ġmwangunga	6062
Ġenter	6063
Ġethiopia	6064
Ġwalipokuwa	6065
Ġwalilazimika	6066
Ġlisi	6067
Ġziweze	6068
Ġdro	6069
Ġtupo	6070
Ġmus	6071
Ġpabaya	6072
alieleza	6073
Ġcpa	6074
Ġametangaza	6075
Ġhaoni	6076
Ġkuiga	6077
Ġkuiwezesha	6078
Ġshibuda	6079
Ġkuoa	6080
Ġold	6081
Ġakisisitiza	6082
Ġsalamu	6083
Ġwatafanya	6084
Ġkujitegemea	6085
villa	6086
Ġiliyobaki	6087
Ġwakisubiri	6088
Ġbomu	6089
Ġunakuwa	6090
Ġkufungiwa	6091
Ġzinasema	6092
Ġdewji	6093
miaji	6094
Ġmwenzi	6095
walimu	6096
Ġglo	6097
Ġmaskini	6098
Ġkukabili	6099
Ġalfajiri	6100
ibua	6101
anaongeza	6102
fford	6103
Ġunaotarajiwa	6104
Ġmfawidhi	6105
subiriwa	6106
Ġmsimamizi	6107
Ġkibao	6108
Ġhajawahi	6109
Ġhaziwezi	6110
thibitishwa	6111
Ġnimekuwa	6112
julikani	6113
Ġuvumi	6114
Ġubalozi	6115
Ġkilometa	6116
Ġvale	6117
anzia	6118
limpiki	6119
sainiwa	6120
Ġkuaminika	6121
Ġandrew	6122
Ġismail	6123
bri	6124
mfu	6125
mbwe	6126
rko	6127
sco	6128
Ġkhamis	6129
Ġkupenda	6130
Ġkudhamini	6131
Ġkukemea	6132
Ġuwi	6133
Ġukuta	6134
Ġnakala	6135
nite	6136
tambulika	6137
Ġase	6138
Ġmafua	6139
Ġmarufu	6140
Ġmapungufu	6141
Ġini	6142
Ġiman	6143
siti	6144
sibu	6145
sako	6146
shabiki	6147
Ġalibainisha	6148
Ġaliliambia	6149
dii	6150
Ġkuwaua	6151
Ġkuwachukulia	6152
Ġtafiti	6153
buru	6154
Ġlabo	6155
Ġsayi	6156
Ġilitokana	6157
moa	6158
Ġwalipa	6159
Ġbima	6160
Ġbidii	6161
nzia	6162
Ġmembe	6163
Ġobre	6164
Ġimeelezwa	6165
Ġwamedai	6166
Ġakiishi	6167
Ġwatahiniwa	6168
Ġkujiuliza	6169
Ġunatakiwa	6170
Ġitasaidia	6171
Ġzinatakiwa	6172
Ġpre	6173
Ġjerome	6174
Ġinayoendelea	6175
Ġzilizopatikana	6176
kilizwaji	6177
Ġreuben	6178
Ġnyasi	6179
Ġkuzindua	6180
Ġusikilizwaji	6181
Ġuhujumu	6182
Ġmkanda	6183
Ġngawai	6184
meamua	6185
Ġkukiri	6186
Ġmbinga	6187
Ġcar	6188
Ġaliitaka	6189
Ġkuelezwa	6190
Ġkimekuwa	6191
Ġwill	6192
Ġmasoud	6193
Ġkuingizwa	6194
Ġwaliyonayo	6195
Ġupote	6196
Ġmasalia	6197
Ġmasangwa	6198
jitambulisha	6199
Ġmakontena	6200
Ġkaratasi	6201
anzisha	6202
anzishwa	6203
Ġpauni	6204
imet	6205
ristia	6206
Ġutakaofanyika	6207
Ġkifupi	6208
nufaisha	6209
dhalilisha	6210
Ġushuru	6211
Ġcommuni	6212
Ġhiari	6213
Ġvipengele	6214
Ġpopote	6215
Ġbutiku	6216
kisiko	6217
madega	6218
Ġkariakoo	6219
nitez	6220
Ġngawaiya	6221
iser	6222
Ġnggombe	6223
naibu	6224
Ġwazo	6225
Ġwatoe	6226
Ġkuzo	6227
Ġkuchezea	6228
Ġkuruhusiwa	6229
Ġumiliki	6230
Ġushawishi	6231
Ġuyoga	6232
nidhamu	6233
Ġad	6234
Ġade	6235
Ġazimio	6236
bayo	6237
mashindano	6238
mary	6239
tive	6240
Ġmavu	6241
zaulo	6242
rida	6243
kimba	6244
zipata	6245
wekeza	6246
tumu	6247
Ġkiha	6248
Ġkirahisi	6249
bie	6250
bin	6251
fute	6252
Ġaliko	6253
Ġalikosa	6254
meh	6255
Ġkuwaambia	6256
tekelezwa	6257
Ġnico	6258
pima	6259
pingwa	6260
pigiwa	6261
Ġviji	6262
Ġvikiwa	6263
Ġvinywaji	6264
Ġilifanya	6265
Ġilionekana	6266
Ġwanaamini	6267
win	6268
nzaji	6269
chelewe	6270
Ġmwalala	6271
ruga	6272
retari	6273
goda	6274
Ġjalada	6275
Ġlitaka	6276
mboka	6277
choka	6278
Ġmkumbo	6279
Ġanacho	6280
Ġanaendelea	6281
Ġpadri	6282
sulu	6283
Ġkuiomba	6284
Ġimesha	6285
Ġimepata	6286
Ġwamefanya	6287
Ġkumkamata	6288
Ġkumweleza	6289
viti	6290
Ġwaliondoka	6291
Ġbonde	6292
Ġmaradhi	6293
Ġzinatarajiwa	6294
ulize	6295
Ġmatano	6296
Ġwanaodaiwa	6297
Ġsuti	6298
Ġsued	6299
Ġikifuatiwa	6300
Ġkupanua	6301
Ġshaban	6302
Ġshambulizi	6303
Ġmgonja	6304
shauriwa	6305
Ġful	6306
Ġalipotakiwa	6307
Ġgezaulo	6308
fuati	6309
Ġmadaraja	6310
cou	6311
Ġaliwataja	6312
Ġchenge	6313
fungaji	6314
Ġmtikisiko	6315
Ġmartin	6316
Ġkurudishiwa	6317
Ġkileleni	6318
Ġcaf	6319
ilidaiwa	6320
mwisho	6321
Ġuvunji	6322
Ġstephe	6323
Ġvipindi	6324
Ġiweje	6325
Ġutunzaji	6326
Ġgray	6327
Ġgumbo	6328
Ġkidemokrasia	6329
nufaika	6330
amesema	6331
Ġkagaruki	6332
Ġalonso	6333
Ġmhina	6334
ddink	6335
Ġbeach	6336
Ġaugustino	6337
Ġlabour	6338
bayor	6339
retarieti	6340
Ġgezaulole	6341
Ġuvunjifu	6342
Ġstephen	6343
by	6344
cis	6345
em	6346
gba	6347
nka	6348
ste	6349
suala	6350
upata	6351
zy	6352
ligi	6353
Ġwavamizi	6354
Ġkukamata	6355
Ġkuridhisha	6356
Ġkukerwa	6357
Ġaondo	6358
Ġmato	6359
Ġmaru	6360
Ġinge	6361
Ġkwako	6362
hukumu	6363
jan	6364
Ġhiddink	6365
Ġkigi	6366
Ġkishiriki	6367
Ġkishindo	6368
Ġkinidhamu	6369
Ġalipiga	6370
kelewa	6371
Ġhuwezi	6372
nezi	6373
Ġmibovu	6374
Ġsaidi	6375
pisha	6376
Ġilifungwa	6377
Ġwaliamua	6378
ngezi	6379
rence	6380
Ġjamani	6381
Ġtuko	6382
Ġanao	6383
Ġanashangazwa	6384
Ġmuu	6385
dhia	6386
dhihirisha	6387
Ġwimbi	6388
Ġpinzani	6389
Ġameanza	6390
Ġkongwa	6391
Ġkoplo	6392
Ġimeji	6393
Ġimefanya	6394
kwata	6395
lusako	6396
Ġwatacheza	6397
Ġndivyo	6398
Ġkujiweka	6399
Ġkampa	6400
Ġiliyotokea	6401
Ġwaliokamatwa	6402
Ġkenne	6403
Ġutajiri	6404
Ġbengo	6405
Ġmsisi	6406
Ġmabango	6407
onekane	6408
malizia	6409
Ġwaache	6410
Ġwaafrika	6411
Ġmakada	6412
Ġtunaomba	6413
Ġkuteke	6414
Ġkutembea	6415
Ġkipimo	6416
Ġuadilifu	6417
Ġmazito	6418
Ġchumbani	6419
Ġlos	6420
Ġmtafaruku	6421
Ġkutupa	6422
Ġunaoendelea	6423
Ġblu	6424
Ġkeshokutwa	6425
Ġanayedaiwa	6426
Ġlililotolewa	6427
Ġdira	6428
Ġneno	6429
badilika	6430
Ġaliifungia	6431
Ġardhini	6432
ntho	6433
Ġedson	6434
mpaka	6435
Ġmasilingi	6436
Ġmasikio	6437
sukosuko	6438
hamasisha	6439
Ġwasomaji	6440
Ġiliifunga	6441
Ġadam	6442
Ġkipengele	6443
Ġbarakat	6444
hifadhiwa	6445
Ġshwari	6446
meroon	6447
Ġcanada	6448
Ġkinyemela	6449
Ġkuwajibika	6450
Ġparty	6451
Ġkitakacho	6452
Ġdrogba	6453
rkovic	6454
Ġmarufuku	6455
Ġupotevu	6456
Ġadebayor	6457
acha	6458
eneo	6459
ila	6460
lvin	6461
ssu	6462
Ġzu	6463
nachama	6464
Ġmshauri	6465
Ġwangekuwa	6466
Ġkuripoti	6467
Ġkuvaa	6468
Ġkukwepa	6469
hau	6470
hazi	6471
haribu	6472
Ġup	6473
Ġuke	6474
Ġnaona	6475
Ġnafikiri	6476
hisho	6477
tamka	6478
Ġantho	6479
mad	6480
Ġmakwa	6481
risha	6482
kiungo	6483
Ġkari	6484
kumo	6485
Ġhayu	6486
jambo	6487
Ġkibo	6488
tofu	6489
same	6490
Ġalikana	6491
Ġkuwaona	6492
Ġnsa	6493
Ġnipo	6494
koti	6495
Ġchati	6496
Ġvichwa	6497
Ġilishindwa	6498
Ġilishuhudia	6499
Ġkutoku	6500
ficha	6501
Ġmolle	6502
rushwa	6503
Ġwalii	6504
gari	6505
Ġsek	6506
Ġjane	6507
Ġjanga	6508
roni	6509
Ġinacheza	6510
Ġinakabiliwa	6511
Ġanaishi	6512
Ġmuni	6513
geuka	6514
Ġameji	6515
Ġamelazwa	6516
Ġkuimba	6517
Ġkuichapa	6518
Ġkuonya	6519
Ġone	6520
Ġimefikisha	6521
Ġmaarifa	6522
Ġwametoa	6523
Ġwamekufa	6524
Ġpotofu	6525
vita	6526
Ġwakitoa	6527
Ġwaondo	6528
Ġmwito	6529
Ġyenu	6530
Ġkupimwa	6531
thimini	6532
Ġitachukua	6533
Ġmabara	6534
Ġkufutwa	6535
Ġkufurahi	6536
Ġaliyefariki	6537
Ġtosha	6538
ntina	6539
Ġgridi	6540
Ġmakanisa	6541
Ġtunaendelea	6542
Ġkuteuliwa	6543
Ġriba	6544
Ġrisiti	6545
Ġatafanya	6546
Ġatapata	6547
Ġuanachama	6548
Ġzinazowakabili	6549
Ġwasiwe	6550
Ġwasira	6551
endana	6552
Ġkuvutia	6553
Ġuhasama	6554
Ġmatunda	6555
Ġkuhamia	6556
Ġcameroon	6557
nyonge	6558
ntre	6559
Ġkunusuru	6560
Ġwilb	6561
Ġmagogo	6562
zoea	6563
Ġkilosa	6564
Ġwavuvi	6565
Ġasilia	6566
Ġusafirishaji	6567
Ġkaratu	6568
Ġtrafford	6569
Ġhamasa	6570
Ġtibai	6571
Ġmwaikimba	6572
Ġsuluhisho	6573
Ġkiafya	6574
Ġkulazimishwa	6575
Ġtaslimu	6576
Ġmjane	6577
Ġisrael	6578
Ġmadola	6579
Ġwhite	6580
Ġfrancis	6581
Ġtabata	6582
Ġobren	6583
Ġmavuno	6584
couver	6585
cy	6586
djan	6587
ghara	6588
ipata	6589
lme	6590
mwalimu	6591
njia	6592
phia	6593
stu	6594
ts	6595
Ġwaishi	6596
yapata	6597
Ġudi	6598
hisa	6599
Ġsport	6600
kina	6601
zinduliwa	6602
Ġkamba	6603
Ġhindi	6604
Ġkijeshi	6605
toshi	6606
chari	6607
Ġalimu	6608
Ġaliahidi	6609
Ġlami	6610
Ġniko	6611
Ġbakwata	6612
Ġmisi	6613
kosoa	6614
kokoti	6615
ngisha	6616
Ġiliwa	6617
Ġiliibuka	6618
Ġwanandoa	6619
Ġmonduli	6620
Ġmoses	6621
Ġeliza	6622
beth	6623
Ġjabu	6624
choma	6625
Ġrafa	6626
Ġtp	6627
Ġkuinoa	6628
Ġimewa	6629
Ġimeweka	6630
Ġkumtu	6631
Ġkujitoa	6632
Ġkazimoto	6633
Ġkelvin	6634
Ġshehia	6635
Ġbega	6636
Ġkulizungumzia	6637
Ġgama	6638
Ġkuhudumia	6639
nduku	6640
mbiza	6641
Ġulipaji	6642
Ġsuper	6643
Ġikiwamo	6644
Ġnguzo	6645
Ġlilitolewa	6646
Ġmsalaba	6647
Ġsharti	6648
Ġsharif	6649
mwandishi	6650
Ġkusindika	6651
Ġregi	6652
fikiria	6653
Ġher	6654
Ġchuoni	6655
Ġnyavu	6656
Ġkuzikwa	6657
Ġcheka	6658
Ġukiendelea	6659
Ġkujadiliwa	6660
Ġkutunga	6661
manchester	6662
lazimisha	6663
Ġlimesema	6664
Ġhayawezi	6665
Ġkuchambua	6666
Ġnilipo	6667
lalamikiwa	6668
Ġukusanya	6669
Ġnusura	6670
Ġmikanda	6671
Ġkubainisha	6672
Ġabidjan	6673
Ġamatus	6674
Ġteksi	6675
Ġmigodi	6676
Ġmauzo	6677
nganyikiwa	6678
Ġvikuu	6679
imeelezwa	6680
kadiriwa	6681
Ġmwaipopo	6682
Ġshoka	6683
Ġusoni	6684
Ġwasaidizi	6685
Ġuenezi	6686
hukumiwa	6687
Ġitc	6688
saidie	6689
Ġmadawati	6690
Ġmrwanda	6691
Ġkusikitisha	6692
Ġuuzaji	6693
Ġmapunda	6694
Ġkakobe	6695
Ġmustakabali	6696
Ġasec	6697
dhiambo	6698
Ġkampala	6699
Ġkennedy	6700
Ġelizabeth	6701
Ġukusanyaji	6702
aland	6703
iri	6704
mpu	6705
mtoto	6706
mchungaji	6707
ucha	6708
wake	6709
nazo	6710
Ġmche	6711
Ġmbwana	6712
Ġmtoa	6713
Ġkuzima	6714
Ġkushambu	6715
baisha	6716
Ġsy	6717
Ġstu	6718
Ġmauli	6719
Ġmafta	6720
riti	6721
rithi	6722
lana	6723
ziba	6724
zingira	6725
Ġipp	6726
mbazaji	6727
ture	6728
tulia	6729
Ġkine	6730
tofauti	6731
fuli	6732
Ġaliondoka	6733
dier	6734
sei	6735
tengwa	6736
Ġninyi	6737
neur	6738
Ġmitu	6739
Ġmifano	6740
Ġvidogo	6741
Ġvifungu	6742
chie	6743
Ġwanakwenda	6744
loni	6745
Ġkutoko	6746
Ġkutokuwepo	6747
ruiser	6748
Ġeac	6749
rewe	6750
Ġtimo	6751
Ġdanny	6752
roro	6753
pendwa	6754
Ġinaonyesha	6755
Ġanawa	6756
Ġanapokuwa	6757
surika	6758
Ġjinsia	6759
Ġtbl	6760
Ġkuandamana	6761
Ġkuigwa	6762
Ġodhiambo	6763
Ġimebaki	6764
Ġwameji	6765
dole	6766
Ġwatalii	6767
Ġkumchagua	6768
Ġkujitolea	6769
Ġwalioshiriki	6770
Ġwakipata	6771
Ġutaona	6772
Ġunavyo	6773
Ġshehe	6774
Ġbenitez	6775
tokeze	6776
Ġkulima	6777
Ġpha	6778
Ġupanuzi	6779
Ġpenzi	6780
mbiki	6781
mbiji	6782
Ġwenyeviti	6783
Ġgla	6784
kutanisha	6785
Ġkupandisha	6786
Ġinayotolewa	6787
Ġmakabila	6788
Ġmsako	6789
milivu	6790
Ġmgongano	6791
Ġzilizosalia	6792
nyima	6793
Ġkiutendaji	6794
Ġmkazo	6795
Ġmkanganyiko	6796
pigana	6797
fereji	6798
Ġujambazi	6799
Ġvitatu	6800
Ġzealand	6801
Ġmark	6802
Ġmagafu	6803
Ġwenzangu	6804
Ġtanganyika	6805
Ġkupigana	6806
Ġkimesema	6807
simamo	6808
simamisha	6809
Ġhazija	6810
Ġmiss	6811
Ġukonga	6812
Ġhaule	6813
Ġtuliyo	6814
Ġwapigakura	6815
Ġlikiwemo	6816
Ġmsukumo	6817
Ġmsumbiji	6818
Ġmtoni	6819
suasua	6820
Ġkusainiwa	6821
Ġubongo	6822
Ġubovu	6823
Ġuovu	6824
Ġaloyce	6825
Ġabout	6826
Ġtunduma	6827
Ġmagufuli	6828
preneur	6829
Ġfreeman	6830
Ġazma	6831
Ġanthony	6832
Ġmisitu	6833
baishaji	6834
preneurship	6835
epu	6836
isi	6837
tte	6838
Ġh	6839
Ġkumba	6840
Ġkudu	6841
Ġkunggoa	6842
kawa	6843
kasa	6844
Ġuji	6845
Ġukia	6846
Ġnas	6847
Ġang	6848
Ġaende	6849
Ġaidha	6850
barua	6851
mare	6852
Ġmakele	6853
zini	6854
zitaka	6855
Ġkashi	6856
Ġkavu	6857
Ġig	6858
Ġishara	6859
huu	6860
sikika	6861
Ġhandeni	6862
Ġkikazi	6863
Ġkisasi	6864
Ġkikristo	6865
Ġkigezo	6866
sali	6867
Ġalitangaza	6868
Ġalifikishwa	6869
yeye	6870
miria	6871
muliwa	6872
Ġtaf	6873
Ġtami	6874
teni	6875
Ġnze	6876
Ġhutumika	6877
Ġmillya	6878
ngassa	6879
Ġchangu	6880
Ġviu	6881
Ġilidaiwa	6882
Ġwanaji	6883
Ġwanamichezo	6884
nyesho	6885
cheni	6886
Ġjaz	6887
Ġjama	6888
roho	6889
dhamiria	6890
Ġmkuchika	6891
Ġinashangaza	6892
Ġanaonekana	6893
nzibari	6894
Ġpara	6895
Ġmeno	6896
Ġray	6897
Ġcwt	6898
Ġcristia	6899
Ġcruiser	6900
Ġwenger	6901
Ġwerema	6902
Ġamepewa	6903
Ġamewahi	6904
Ġkuachwa	6905
Ġkuanguka	6906
Ġkuifungia	6907
Ġkuongea	6908
Ġkombo	6909
Ġmbatia	6910
Ġor	6911
Ġimefungwa	6912
kwamua	6913
Ġporto	6914
Ġwatalaamu	6915
ishu	6916
Ġkuufanya	6917
Ġkuuliza	6918
Ġwalionesha	6919
Ġholela	6920
Ġutaa	6921
Ġkupingwa	6922
Ġkupitishwa	6923
Ġteni	6924
Ġtendwa	6925
Ġitai	6926
Ġitafanyika	6927
jiandikisha	6928
Ġmabaki	6929
Ġsophia	6930
Ġtoleo	6931
onea	6932
Ġwanaokwenda	6933
Ġulifanyika	6934
Ġlilifungwa	6935
urin	6936
Ġyanatokana	6937
Ġmakampuni	6938
Ġkukatwa	6939
Ġkimaa	6940
Ġkimara	6941
Ġakiwamo	6942
Ġuanzi	6943
Ġnyala	6944
Ġnyayo	6945
Ġnyanda	6946
pigaji	6947
Ġzimebaki	6948
Ġkupora	6949
Ġkukimbilia	6950
Ġkukua	6951
Ġufugaji	6952
Ġmaovu	6953
Ġlwa	6954
Ġwakali	6955
ishia	6956
Ġbasil	6957
Ġugani	6958
Ġukabila	6959
Ġnembo	6960
Ġkusimamishwa	6961
Ġkibarua	6962
rthe	6963
Ġngono	6964
ingizwa	6965
Ġhatujui	6966
Ġkumudu	6967
Ġokwi	6968
Ġhaukuwa	6969
halifu	6970
Ġmifumo	6971
Ġzitatumika	6972
bweni	6973
Ġmagesa	6974
Ġhakuwahi	6975
Ġasiye	6976
Ġwauguzi	6977
Ġuturuki	6978
Ġhawajawahi	6979
Ġbaharini	6980
sikilizwa	6981
Ġwazalendo	6982
tangulia	6983
Ġkorosho	6984
Ġkagame	6985
Ġtetesi	6986
Ġmgawanyiko	6987
Ġbernard	6988
Ġbrown	6989
Ġkusukuma	6990
Ġkioo	6991
Ġmachafuko	6992
Ġarabia	6993
samehe	6994
Ġnzega	6995
ford	6996
gg	6997
jwe	6998
lf	6999
mji	7000
mkuta	7001
mratibu	7002
nta	7003
tt	7004
thu	7005
uye	7006
uis	7007
Ġkhe	7008
Ġmbwa	7009
Ġkuru	7010
Ġkutumiwa	7011
Ġkuthamini	7012
kara	7013
Ġurani	7014
Ġyawe	7015
Ġangekuwa	7016
titi	7017
timua	7018
Ġsc	7019
Ġmaya	7020
Ġmajo	7021
zaidi	7022
Ġkaya	7023
Ġkwakuwa	7024
Ġkiru	7025
Ġkigumu	7026
Ġalichukua	7027
Ġalionyesha	7028
Ġalithibitisha	7029
Ġkuwaka	7030
Ġkuwaso	7031
Ġkuwazuia	7032
shikwa	7033
Ġnna	7034
Ġsivyo	7035
Ġnizar	7036
Ġmidomo	7037
Ġchali	7038
Ġvibali	7039
nolewa	7040
Ġilitokea	7041
Ġiliingia	7042
Ġilikuja	7043
Ġilitoka	7044
Ġwanaki	7045
Ġwanaonekana	7046
Ġwanahisa	7047
eleze	7048
elewana	7049
elekezwa	7050
chea	7051
jukuu	7052
Ġmwalusako	7053
res	7054
gae	7055
gambo	7056
gando	7057
gasira	7058
benki	7059
Ġinazidi	7060
Ġanatoa	7061
Ġanahitaji	7062
Ġpatel	7063
Ġwigo	7064
sudia	7065
Ġkuadhi	7066
Ġkongwe	7067
Ġimetolewa	7068
Ġimechukua	7069
Ġimeonekana	7070
Ġimepanga	7071
Ġimeongezeka	7072
kwanza	7073
Ġpole	7074
Ġwakikabiliwa	7075
tiative	7076
Ġhoboko	7077
Ġunapaswa	7078
Ġunaonesha	7079
Ġkilindi	7080
Ġsou	7081
Ġsomo	7082
Ġyalifanyika	7083
mbiu	7084
Ġsukari	7085
Ġwaandaaji	7086
Ġyanaendelea	7087
Ġinayosababisha	7088
Ġburian	7089
Ġbugando	7090
Ġdomini	7091
Ġtunatakiwa	7092
Ġtunaamini	7093
Ġkinaweza	7094
Ġatahakikisha	7095
Ġstadi	7096
tokanayo	7097
Ġalipokea	7098
Ġyaliyofikiwa	7099
Ġkurahi	7100
Ġdhamira	7101
Ġluha	7102
Ġlouis	7103
Ġmadarasa	7104
Ġcheyo	7105
Ġukiukwa	7106
Ġukiriti	7107
Ġmtikila	7108
Ġlililowekwa	7109
Ġkuvuruga	7110
Ġkilichofanyika	7111
Ġkuhamishwa	7112
Ġdidier	7113
Ġnyoni	7114
Ġmboma	7115
ngenezaji	7116
Ġghala	7117
simamishwa	7118
stina	7119
stine	7120
Ġmifuko	7121
verton	7122
Ġzikiendelea	7123
Ġmagodoro	7124
Ġmipaka	7125
Ġmnada	7126
Ġkuwasilishwa	7127
Ġmahindi	7128
Ġmvuto	7129
Ġwazawa	7130
Ġvimekuwa	7131
fred	7132
Ġkugonga	7133
Ġrwegasira	7134
Ġuchafuzi	7135
Ġvancouver	7136
Ġmiembeni	7137
Ġheroes	7138
Ġinternational	7139
Ġcommunity	7140
Ġkishirikina	7141
Ġsekretarieti	7142
Ġwaishio	7143
uchaguzi	7144
Ġmaulid	7145
epusha	7146
Ġukiukwaji	7147
Ġukiritimba	7148
an	7149
ema	7150
lta	7151
mti	7152
mtuhumiwa	7153
msemaji	7154
mkutano	7155
uki	7156
ushindi	7157
Ġx	7158
watuhumiwa	7159
Ġmle	7160
Ġmpwa	7161
Ġwashauri	7162
Ġwazalishaji	7163
Ġkushitakiwa	7164
Ġkushauri	7165
Ġkugoma	7166
Ġkushangilia	7167
yafanya	7168
Ġukio	7169
Ġukata	7170
Ġushabiki	7171
Ġupigaji	7172
Ġnaweza	7173
hiki	7174
Ġyalio	7175
Ġyalianza	7176
Ġangalia	7177
Ġaitwa	7178
Ġangeweza	7179
Ġadui	7180
maka	7181
Ġmabu	7182
Ġmafi	7183
Ġmakamanda	7184
rine	7185
ziwa	7186
yoni	7187
kulia	7188
Ġiran	7189
Ġhabi	7190
Ġhafi	7191
mbawanga	7192
tumwa	7193
Ġkira	7194
Ġkisoka	7195
toria	7196
dad	7197
sambu	7198
Ġalipa	7199
Ġalidaiwa	7200
Ġalihusika	7201
Ġalimwambia	7202
mir	7203
Ġkuwajengea	7204
Ġzako	7205
Ġsima	7206
Ġsimon	7207
Ġlaki	7208
Ġbageni	7209
Ġbarthe	7210
Ġmiche	7211
ndae	7212
ngara	7213
ngalizi	7214
Ġvinne	7215
Ġvivutio	7216
Ġviingilio	7217
Ġilifanikiwa	7218
Ġeu	7219
Ġerne	7220
Ġwaliendelea	7221
rembo	7222
Ġdaudi	7223
rongoro	7224
Ġtukiwa	7225
Ġjumu	7226
Ġinapata	7227
Ġinatumia	7228
Ġinalenga	7229
gunga	7230
Ġwinga	7231
genda	7232
alimu	7233
Ġthi	7234
Ġamekufa	7235
Ġkuamuru	7236
Ġshimo	7237
Ġshikokoti	7238
Ġmbaroni	7239
yulu	7240
Ġoba	7241
Ġwamelazwa	7242
lumbana	7243
Ġpongezi	7244
Ġndimbo	7245
Ġwaliopanda	7246
Ġhaliwezi	7247
Ġbondia	7248
Ġunalenga	7249
Ġmaratho	7250
Ġgabri	7251
katare	7252
Ġkuhusishwa	7253
Ġwoga	7254
Ġkusaba	7255
Ġmatara	7256
Ġmwekundu	7257
Ġchifu	7258
Ġwanaona	7259
Ġulimboka	7260
Ġsugu	7261
Ġsumbawanga	7262
Ġhakuweza	7263
Ġikitoa	7264
Ġbukwi	7265
Ġtunayo	7266
Ġusambazaji	7267
shehe	7268
Ġuangalizi	7269
Ġwafanyabishara	7270
Ġkuzitumia	7271
baraza	7272
Ġyou	7273
hariri	7274
Ġhayana	7275
Ġkukithiri	7276
Ġkuvunjika	7277
Ġkutibu	7278
Ġwakawa	7279
ongozana	7280
rdb	7281
Ġukame	7282
Ġndesambu	7283
Ġneema	7284
Ġisiwe	7285
Ġngorongoro	7286
ingilia	7287
Ġitakayoanza	7288
Ġubavu	7289
Ġwaliyokuwa	7290
Ġupeo	7291
Ġkijani	7292
Ġkuchoma	7293
ther	7294
Ġyasiyokuwa	7295
Ġwalizopanda	7296
Ġmachachari	7297
Ġameiambia	7298
Ġamiri	7299
Ġmlimani	7300
Ġflorian	7301
mgogoro	7302
Ġhaujakamilika	7303
fanana	7304
Ġuchovu	7305
Ġvikombe	7306
Ġkuwakomboa	7307
Ġkuhamishiwa	7308
Ġflavio	7309
Ġukatili	7310
Ġmaurice	7311
cheleweshaji	7312
fuatiliaji	7313
gharamia	7314
Ġaboutrika	7315
Ġkudumisha	7316
Ġcristiano	7317
ishukuru	7318
urinho	7319
Ġnyalandu	7320
Ġlwakatare	7321
Ġnnauye	7322
Ġbarthez	7323
Ġgabriel	7324
Ġbukwimba	7325
Ġndesamburo	7326
eni	7327
ig	7328
ima	7329
iti	7330
mkazi	7331
ps	7332
spe	7333
usi	7334
unge	7335
umana	7336
Ġgumu	7337
wame	7338
nand	7339
nadhani	7340
Ġmchu	7341
Ġmdhibiti	7342
likana	7343
Ġwatoa	7344
Ġwauaji	7345
Ġwangeweza	7346
Ġkushirikisha	7347
Ġkukatisha	7348
Ġkusuasua	7349
hamu	7350
kamilisha	7351
Ġufahamu	7352
Ġurusi	7353
Ġuwakilishi	7354
Ġufadhili	7355
Ġufanyike	7356
Ġukiangalia	7357
Ġabu	7358
Ġamana	7359
ngwi	7360
maye	7361
maofisa	7362
timisha	7363
timiza	7364
Ġmaye	7365
Ġmase	7366
Ġmaua	7367
zikwa	7368
Ġkano	7369
Ġkabo	7370
Ġishi	7371
Ġipi	7372
sina	7373
wele	7374
wengi	7375
Ġkizi	7376
Ġkibaya	7377
Ġkilianza	7378
Ġkiswahili	7379
fali	7380
bishi	7381
sakata	7382
paswi	7383
Ġalilo	7384
Ġalikutana	7385
Ġaliweka	7386
Ġkuwau	7387
Ġkuwafundisha	7388
Ġtaji	7389
Ġtabu	7390
Ġbagen	7391
Ġbaridi	7392
Ġmisimu	7393
Ġmisukosuko	7394
Ġsau	7395
Ġsaudi	7396
koste	7397
pilia	7398
Ġchacha	7399
Ġvisi	7400
Ġvipya	7401
Ġvipande	7402
Ġwanatoa	7403
moka	7404
ndikia	7405
lovu	7406
Ġelia	7407
Ġeph	7408
Ġwalitumia	7409
gana	7410
beza	7411
beki	7412
Ġinaanza	7413
Ġanaeleza	7414
Ġmukasa	7415
guo	7416
Ġclu	7417
Ġcrdb	7418
Ġwenu	7419
Ġamefikishwa	7420
Ġamevaa	7421
Ġkuathirika	7422
Ġshindano	7423
Ġkomba	7424
Ġmbao	7425
Ġimefika	7426
Ġwamea	7427
Ġwamepanga	7428
Ġakicheza	7429
Ġakiendelea	7430
Ġwataza	7431
Ġwatahakikisha	7432
Ġkuugua	7433
Ġwaliotoa	7434
Ġwaliokuwepo	7435
Ġwaliotajwa	7436
Ġwakii	7437
Ġwakiishi	7438
Ġboys	7439
Ġunatarajia	7440
silishwa	7441
Ġmashambani	7442
Ġkutawa	7443
Ġkutawala	7444
Ġkuhusisha	7445
Ġkusahau	7446
Ġwanaotoka	7447
Ġwanaojihusisha	7448
mbizwa	7449
Ġhakina	7450
Ġikitokea	7451
Ġikiongozwa	7452
Ġwaasi	7453
Ġwaanze	7454
shutumu	7455
Ġmsafiri	7456
Ġleonard	7457
Ġtunawa	7458
Ġtunajua	7459
vamiwa	7460
Ġstarehe	7461
Ġreg	7462
rudia	7463
Ġyaliyoko	7464
cast	7465
Ġger	7466
Ġkipaji	7467
Ġcompa	7468
Ġkupotea	7469
Ġyanayowakabili	7470
Ġaliwaeleza	7471
Ġkujaza	7472
baadaye	7473
Ġkuvunjwa	7474
Ġcuba	7475
Ġdihile	7476
Ġkupigania	7477
Ġkilele	7478
Ġuhakiki	7479
Ġsafarini	7480
simamiwa	7481
Ġhaziku	7482
mokrasi	7483
wanafunzi	7484
ddy	7485
Ġkumwachia	7486
Ġutakapo	7487
Ġalionya	7488
Ġwapambe	7489
Ġwalivyokuwa	7490
Ġmabinti	7491
Ġbukombe	7492
ntekoste	7493
ccos	7494
rdinali	7495
Ġrajabu	7496
zuiwa	7497
Ġsaleh	7498
Ġkifahari	7499
tafutia	7500
Ġkandoro	7501
Ġulazima	7502
Ġkhatib	7503
Ġmaftah	7504
Ġigp	7505
Ġviumbe	7506
Ġutaalamu	7507
Ġkurahisisha	7508
Ġaitwaye	7509
Ġmatarajio	7510
Ġclub	7511
ambani	7512
cko	7513
inua	7514
iwapo	7515
klabu	7516
kwu	7517
msanii	7518
od	7519
que	7520
rwa	7521
rro	7522
Ġnd	7523
nasa	7524
Ġmshtakiwa	7525
Ġwajue	7526
Ġwanyonge	7527
Ġkuzuka	7528
Ġkunyakua	7529
hatisha	7530
katwa	7531
Ġuv	7532
Ġupu	7533
Ġualimu	7534
Ġnacho	7535
hitimu	7536
Ġyatokanayo	7537
tapa	7538
tamko	7539
Ġataji	7540
Ġaendelee	7541
Ġafanye	7542
bakia	7543
Ġmanti	7544
laza	7545
zitoa	7546
Ġkame	7547
Ġiwezekana	7548
jamii	7549
jadiliwa	7550
Ġkiho	7551
Ġkiini	7552
Ġkisima	7553
Ġkiroho	7554
fai	7555
familia	7556
danganya	7557
paa	7558
Ġalisha	7559
Ġalicheza	7560
Ġaliibuka	7561
Ġalizaliwa	7562
meza	7563
yern	7564
Ġkuwafikisha	7565
Ġzama	7566
Ġhutumia	7567
Ġhulazimika	7568
Ġniwa	7569
Ġbalele	7570
Ġmira	7571
Ġsanto	7572
Ġsaccos	7573
pitisha	7574
ngiza	7575
ndarua	7576
Ġchachu	7577
Ġilikwenda	7578
Ġwanasheria	7579
Ġwanatarajiwa	7580
Ġwanasubiri	7581
Ġwanastahili	7582
nyekiti	7583
firia	7584
Ġeverton	7585
Ġwalidaiwa	7586
ngers	7587
Ġjambazi	7588
Ġtusi	7589
pen	7590
choche	7591
chukwu	7592
Ġanakwenda	7593
nziro	7594
Ġmuhusika	7595
Ġpampu	7596
pugi	7597
Ġrangers	7598
Ġmwakapugi	7599
Ġamedai	7600
Ġameibuka	7601
Ġkuahirishwa	7602
Ġkuisha	7603
Ġkuitoa	7604
Ġkuitisha	7605
Ġkuivaa	7606
Ġfro	7607
yusa	7608
Ġoly	7609
Ġimetokana	7610
Ġimefanikiwa	7611
Ġwamefikishwa	7612
Ġwameiomba	7613
gizaji	7614
Ġkumtafuta	7615
Ġkumsababishia	7616
Ġkujiendesha	7617
vijana	7618
nuo	7619
nusurika	7620
Ġwaliomba	7621
somwa	7622
Ġwakidaiwa	7623
Ġmwina	7624
Ġkufanyakazi	7625
Ġboti	7626
Ġbomba	7627
Ġutamwa	7628
Ġthey	7629
Ġmsiba	7630
Ġmabano	7631
Ġzinahitajika	7632
Ġumetokana	7633
Ġaliyejitambulisha	7634
Ġwanaotakiwa	7635
Ġgre	7636
Ġwaaminifu	7637
Ġkupaka	7638
Ġduka	7639
Ġyanakuwa	7640
Ġinayoongozwa	7641
Ġtunakwenda	7642
Ġkukarabati	7643
Ġkuteua	7644
Ġzilizojitokeza	7645
Ġkimapenzi	7646
Ġutegeme	7647
Ġhaitakuwa	7648
Ġlinaendelea	7649
Ġalipofika	7650
Ġyaliyopatikana	7651
stadi	7652
mikali	7653
pelekea	7654
Ġcoca	7655
idadi	7656
Ġmajani	7657
Ġchenga	7658
fsiriwa	7659
Ġunaofanyika	7660
Ġmabondia	7661
Ġanayeishi	7662
Ġlililotokea	7663
wasiliana	7664
ondolea	7665
Ġwalimuua	7666
Ġnilivyo	7667
Ġchoo	7668
Ġmgahawa	7669
reshaji	7670
Ġmboje	7671
Ġmalezi	7672
nyota	7673
Ġkinachoonekana	7674
Ġngome	7675
Ġhatutaki	7676
Ġalimtaja	7677
dhuriwa	7678
wanachama	7679
Ġvilikuwa	7680
Ġtutaendelea	7681
Ġmtaalamu	7682
Ġmnazi	7683
Ġikawa	7684
Ġfoleni	7685
Ġuporaji	7686
ndelezo	7687
Ġmakongoro	7688
Ġkitita	7689
Ġaliokuwa	7690
pumzike	7691
Ġamewaambia	7692
sikitika	7693
Ġmwenezi	7694
Ġalivyokuwa	7695
horofa	7696
Ġuenyekiti	7697
Ġkubadilishana	7698
Ġmassati	7699
Ġmchanganuo	7700
Ġnotisi	7701
Ġkhalifa	7702
Ġlawrence	7703
Ġmapokezi	7704
Ġwaondoke	7705
Ġwilbroad	7706
Ġreginald	7707
Ġstudio	7708
Ġjazba	7709
Ġparalimpiki	7710
Ġuanzishwaji	7711
Ġkizimbani	7712
Ġmantiki	7713
Ġiwezekanavyo	7714
Ġsantos	7715
azam	7716
dness	7717
lfu	7718
mheshimiwa	7719
ongea	7720
rdea	7721
ux	7722
Ġmpu	7723
Ġmdo	7724
Ġwarembo	7725
Ġkuzaliwa	7726
Ġkushawishi	7727
Ġkuridhika	7728
Ġkushambulia	7729
Ġkuzua	7730
Ġkuzomea	7731
Ġkulumbana	7732
Ġucheleweshaji	7733
Ġnaku	7734
Ġnagu	7735
hishi	7736
Ġacha	7737
Ġapate	7738
mada	7739
tie	7740
Ġmah	7741
Ġmachu	7742
Ġmauti	7743
zaa	7744
Ġikia	7745
Ġiddi	7746
Ġitumike	7747
sifu	7748
Ġhip	7749
Ġkibaki	7750
Ġkivutio	7751
Ġkigoda	7752
sawazisha	7753
Ġalivi	7754
Ġalizungumzia	7755
dinand	7756
Ġkuwatumia	7757
Ġkuwapiga	7758
Ġkuwaweka	7759
Ġtafsiri	7760
semi	7761
teka	7762
zozo	7763
Ġncc	7764
Ġmisu	7765
Ġmiondo	7766
Ġsapoti	7767
ndamiza	7768
Ġilisababisha	7769
Ġwanachi	7770
Ġwanatuhumiwa	7771
elewi	7772
Ġkutofanya	7773
Ġkutoweka	7774
Ġkutolea	7775
Ġmosha	7776
runi	7777
Ġwaliweza	7778
Ġwalikwenda	7779
ngependa	7780
Ġjapokuwa	7781
Ġjahazi	7782
Ġliwe	7783
Ġtuni	7784
Ġtumboni	7785
pema	7786
Ġinasababisha	7787
Ġanafahamu	7788
nzishwa	7789
liani	7790
guswa	7791
Ġmeta	7792
Ġmeja	7793
Ġjiwe	7794
Ġjicho	7795
Ġameweza	7796
vutia	7797
Ġkuieleza	7798
ambie	7799
Ġoc	7800
Ġomary	7801
Ġimeshinda	7802
Ġwamefikia	7803
Ġakionesha	7804
dom	7805
Ġwataanza	7806
njari	7807
Ġkumkuta	7808
Ġkumpeleka	7809
Ġkumfanyia	7810
Ġkumlipa	7811
Ġkujivunia	7812
Ġkujiimarisha	7813
Ġmajini	7814
Ġkemikali	7815
Ġmwilima	7816
Ġhop	7817
Ġkupikia	7818
Ġunataka	7819
Ġitacheza	7820
Ġitakutana	7821
jiandae	7822
Ġzinadai	7823
Ġzilisema	7824
Ġkutazama	7825
Ġaliyeuawa	7826
Ġkusali	7827
Ġmwenge	7828
Ġwanaodai	7829
Ġgy	7830
Ġikiwezekana	7831
kutane	7832
Ġinayofuata	7833
Ġbur	7834
Ġtunacho	7835
Ġtunasubiri	7836
Ġkutenga	7837
Ġmaelfu	7838
nyia	7839
Ġfundisho	7840
fikie	7841
Ġchupa	7842
Ġzinazotakiwa	7843
Ġzinazoweza	7844
Ġmaligha	7845
Ġkuzika	7846
Ġyaliyofanywa	7847
Ġkiufundi	7848
Ġmkasa	7849
fuate	7850
Ġpromo	7851
Ġyanayotolewa	7852
Ġmorocco	7853
lazimu	7854
Ġanayeweza	7855
Ġmfalme	7856
Ġkuvuta	7857
Ġkutisha	7858
Ġmbioni	7859
Ġabbas	7860
Ġrwa	7861
Ġsokoni	7862
Ġkinachofanyika	7863
ingizia	7864
Ġitakayochezwa	7865
Ġmkenya	7866
Ġmkemia	7867
Ġkusomwa	7868
Ġzitasaidia	7869
Ġujue	7870
kumbusha	7871
Ġubabaishaji	7872
Ġmwakyusa	7873
Ġstella	7874
Ġlenyewe	7875
trice	7876
ambulia	7877
Ġvazi	7878
Ġferdinand	7879
mwanamuziki	7880
simulia	7881
mwakalebela	7882
Ġkidedea	7883
Ġuboreshaji	7884
Ġkielimu	7885
Ġmashuleni	7886
safirisha	7887
utafiti	7888
Ġkujikinga	7889
Ġshamte	7890
Ġbeatrice	7891
Ġkulazimisha	7892
Ġalasiri	7893
Ġphilip	7894
kumbatia	7895
Ġkujiorodhesha	7896
Ġunyanyasaji	7897
kusanyia	7898
Ġglory	7899
Ġinitiative	7900
Ġlitakalo	7901
Ġrafael	7902
seille	7903
Ġkirumba	7904
Ġdominick	7905
Ġmpwapwa	7906
Ġmarathon	7907
castle	7908
Ġutegemezi	7909
rdeaux	7910
Ġmalighafi	7911
ar	7912
andikwa	7913
dc	7914
dho	7915
dge	7916
et	7917
ene	7918
imani	7919
ichezea	7920
jkt	7921
my	7922
pho	7923
ukweli	7924
ukiangalia	7925
Ġguu	7926
Ġgiza	7927
wawezesha	7928
Ġmkwe	7929
Ġmnyika	7930
Ġwar	7931
Ġway	7932
Ġwashtakiwa	7933
Ġkuende	7934
Ġkunyesha	7935
Ġkutumikia	7936
hai	7937
hapa	7938
hagen	7939
kavu	7940
Ġulia	7941
Ġuone	7942
Ġuvamizi	7943
Ġubishi	7944
hiyo	7945
Ġadamu	7946
balozi	7947
ngs	7948
maeneo	7949
Ġsto	7950
Ġswai	7951
Ġmande	7952
Ġmathi	7953
Ġmamia	7954
rima	7955
kisa	7956
kibu	7957
kiria	7958
Ġkamu	7959
Ġkapu	7960
Ġkanali	7961
kuliwa	7962
kutoka	7963
Ġifanye	7964
sita	7965
Ġharusi	7966
wer	7967
Ġhila	7968
Ġkikiwa	7969
Ġkigu	7970
Ġkivu	7971
Ġkiingereza	7972
Ġkiislam	7973
toroka	7974
chapishwa	7975
fungiwa	7976
Ġaliu	7977
Ġaliweza	7978
Ġalirejea	7979
Ġalijiunga	7980
Ġalikanusha	7981
Ġkuwakuta	7982
Ġkuwatisha	7983
Ġkuwashirikisha	7984
Ġkuwashawishi	7985
Ġkuwalinda	7986
zoni	7987
Ġniku	7988
Ġbaria	7989
Ġbayern	7990
Ġmipya	7991
Ġmikwaju	7992
ngilio	7993
ndawazi	7994
Ġvisa	7995
Ġilim	7996
Ġiliendelea	7997
Ġilipaswa	7998
Ġilichukuliwa	7999
Ġwanau	8000
Ġwanaccm	8001
Ġwanaharakati	8002
los	8003
Ġkutotaka	8004
Ġemeh	8005
Ġwaliingia	8006
resa	8007
gara	8008
Ġsenti	8009
gope	8010
Ġdrc	8011
Ġtuwe	8012
Ġtulio	8013
Ġtumaini	8014
choshwa	8015
Ġbib	8016
Ġmkusanyiko	8017
Ġinadai	8018
Ġinashindwa	8019
Ġanazo	8020
Ġanavyo	8021
Ġanatuhumiwa	8022
Ġanasumbuliwa	8023
yimo	8024
Ġmuundo	8025
Ġpasaka	8026
aliendelea	8027
Ġtpa	8028
Ġpigo	8029
Ġamelala	8030
Ġamekaa	8031
Ġamethibitisha	8032
Ġkuandikishwa	8033
Ġkuitumia	8034
Ġshirima	8035
Ġkuoko	8036
Ġon	8037
Ġimetangaza	8038
Ġwamefanikiwa	8039
Ġwamejiandaa	8040
Ġakipata	8041
Ġakienda	8042
Ġakitoka	8043
Ġakiunganisha	8044
Ġport	8045
Ġwaliopata	8046
Ġbordeaux	8047
Ġutaendelea	8048
Ġunaona	8049
Ġitaingia	8050
Ġkufunguliwa	8051
akisoma	8052
Ġpua	8053
Ġfaus	8054
Ġzilivyo	8055
Ġkutamka	8056
Ġumesema	8057
Ġumesababisha	8058
Ġumeonesha	8059
Ġaliyem	8060
Ġaliyezaliwa	8061
oney	8062
Ġulivyo	8063
Ġwaarabu	8064
Ġkupandi	8065
Ġulioko	8066
Ġinayoshiriki	8067
Ġinayofanywa	8068
Ġinayoshika	8069
Ġmaswa	8070
Ġkufikiria	8071
Ġkukari	8072
Ġkinara	8073
Ġatakwenda	8074
Ġuandishi	8075
Ġuandikishwa	8076
Ġfupi	8077
Ġyaliyokusudiwa	8078
Ġlushoto	8079
Ġconso	8080
Ġcopen	8081
Ġmapacha	8082
manji	8083
Ġlililofanyika	8084
Ġkuvuka	8085
Ġmarseille	8086
Ġkukumbwa	8087
Ġnyenzo	8088
Ġlyimo	8089
Ġwakae	8090
Ġmanyoni	8091
Ġkuhamisha	8092
Ġdirisha	8093
krani	8094
Ġkurudia	8095
Ġvunjo	8096
nyororo	8097
ilielezwa	8098
Ġmajura	8099
Ġmajukwa	8100
Ġaliyopewa	8101
Ġaliyonayo	8102
Ġzitachukuliwa	8103
Ġmanuel	8104
hamishwa	8105
Ġubadhiri	8106
Ġkuibua	8107
banwa	8108
Ġwasiojulikana	8109
Ġkukopa	8110
Ġforodha	8111
Ġrashidi	8112
Ġbarrick	8113
Ġkumwacha	8114
Ġtegeta	8115
Ġkumekuwepo	8116
Ġviwandani	8117
Ġmakonde	8118
Ġhaijawahi	8119
Ġmhando	8120
Ġkukubalika	8121
hakikishe	8122
Ġwazanzibari	8123
Ġkhan	8124
Ġwanayoishi	8125
Ġisiyokuwa	8126
Ġkuchelewe	8127
Ġkuzidiwa	8128
Ġaanze	8129
Ġaaah	8130
akiwasilisha	8131
rtoum	8132
Ġkikomo	8133
Ġkifamilia	8134
rreal	8135
Ġkusikitishwa	8136
Ġsweden	8137
Ġureno	8138
Ġuraia	8139
Ġmakengeza	8140
askari	8141
Ġvikiwemo	8142
Ġkuchimba	8143
Ġuwindaji	8144
Ġfulham	8145
Ġmolleimet	8146
Ġmchele	8147
tten	8148
Ġujinga	8149
Ġkuwasomesha	8150
Ġernest	8151
Ġobama	8152
Ġwatazamaji	8153
Ġcompany	8154
chocheo	8155
Ġnccr	8156
Ġmathias	8157
Ġbariadi	8158
Ġuandikishwaji	8159
Ġcopenhagen	8160
Ġubadhirifu	8161
aini	8162
ambatana	8163
brou	8164
cra	8165
elimisha	8166
lsa	8167
lton	8168
mcha	8169
mzee	8170
msingi	8171
rdo	8172
tff	8173
ufanya	8174
washiriki	8175
nawa	8176
naomba	8177
nance	8178
Ġmkata	8179
Ġmhusika	8180
Ġmzozo	8181
Ġwaende	8182
Ġwatumie	8183
Ġkunyi	8184
Ġkubuni	8185
Ġkuchezwa	8186
Ġkuhakiki	8187
Ġkukwama	8188
Ġuendelee	8189
Ġusulu	8190
Ġnazi	8191
tahadharisha	8192
Ġare	8193
baha	8194
maja	8195
masisha	8196
mabao	8197
Ġmak	8198
Ġmatha	8199
kita	8200
kithiri	8201
kuli	8202
kuzwa	8203
Ġii	8204
Ġiwa	8205
Ġibara	8206
hudumia	8207
siness	8208
Ġharufu	8209
mbale	8210
Ġkiweze	8211
Ġkisingizio	8212
Ġkivita	8213
fasi	8214
biza	8215
bikwa	8216
leti	8217
changa	8218
Ġalipaswa	8219
Ġalikuwepo	8220
Ġalishangaa	8221
Ġaliumia	8222
yekuwa	8223
miti	8224
diliana	8225
Ġkuwapata	8226
Ġkuwabaini	8227
Ġkuwafukuza	8228
Ġkuwahamasisha	8229
Ġtabaka	8230
potokea	8231
Ġbanka	8232
Ġmidd	8233
Ġmisimamo	8234
Ġsai	8235
Ġsaka	8236
Ġsadi	8237
Ġsalo	8238
Ġsahara	8239
pishaji	8240
ndama	8241
ngapi	8242
Ġambae	8243
Ġvia	8244
china	8245
Ġilicheza	8246
Ġilipokuwa	8247
Ġilibainika	8248
Ġmwaliko	8249
Ġmourinho	8250
Ġeast	8251
Ġwalipewa	8252
resho	8253
Ġjay	8254
Ġlive	8255
Ġdavis	8256
Ġdc	8257
jeo	8258
Ġjubile	8259
chofanya	8260
gubikwa	8261
Ġmeru	8262
Ġvyandarua	8263
alitaja	8264
Ġradio	8265
Ġcam	8266
Ġameomba	8267
Ġamesikitishwa	8268
Ġkuogopa	8269
Ġkuongezwa	8270
Ġkuorodhesha	8271
Ġkota	8272
Ġffu	8273
riano	8274
Ġakihutubia	8275
Ġponda	8276
Ġmkondo	8277
Ġwatashiriki	8278
Ġndiko	8279
Ġkuungwa	8280
Ġkumchi	8281
Ġkumchukua	8282
Ġkumzuia	8283
Ġkumruhusu	8284
Ġkumfikisha	8285
Ġkumjeruhi	8286
Ġkumnadi	8287
Ġkujihakikishia	8288
Ġkujikwamua	8289
nulia	8290
Ġiliyofanya	8291
mbuko	8292
Ġwalionyesha	8293
somea	8294
Ġwakimbi	8295
Ġwakitokea	8296
Ġwaone	8297
Ġmwishehe	8298
Ġbocco	8299
Ġbonny	8300
Ġboig	8301
Ġutandawazi	8302
Ġkupinduka	8303
Ġtembo	8304
tokee	8305
Ġkilinda	8306
Ġkilieleza	8307
Ġshukrani	8308
Ġsonga	8309
Ġkwenu	8310
Ġmwenyeji	8311
Ġaliyetaka	8312
Ġtotten	8313
Ġmatapeli	8314
Ġmwendelezo	8315
Ġmpanda	8316
Ġmpangilio	8317
Ġuchache	8318
Ġkunaweza	8319
malize	8320
Ġmwanae	8321
Ġuliosababisha	8322
Ġyanakwenda	8323
Ġinayohusu	8324
Ġinayoongoza	8325
Ġmakaa	8326
Ġbunda	8327
Ġbusiness	8328
Ġmsasani	8329
Ġtunafanya	8330
Ġtunaona	8331
Ġusawa	8332
Ġzilizoendelea	8333
Ġuanze	8334
Ġstar	8335
Ġlinahitaji	8336
Ġlinashughulikiwa	8337
kikao	8338
Ġnyara	8339
Ġtumeona	8340
Ġkaulimbiu	8341
cal	8342
cafa	8343
barcelona	8344
Ġakaamua	8345
Ġyanayofanywa	8346
Ġyanayojitokeza	8347
Ġcheti	8348
Ġrobin	8349
Ġromji	8350
mbanaji	8351
Ġhayakuwa	8352
Ġahmad	8353
Ġbre	8354
Ġmaboresho	8355
Ġkutii	8356
Ġwakaguzi	8357
Ġjohnson	8358
Ġmbozi	8359
ngenezea	8360
Ġgofu	8361
Ġmajumbani	8362
Ġmsongo	8363
Ġkisayansi	8364
Ġukurasa	8365
dhuru	8366
Ġkusomewa	8367
Ġkusomesha	8368
Ġzitatolewa	8369
Ġbabati	8370
Ġmwilini	8371
Ġmachibya	8372
mpard	8373
Ġwajane	8374
Ġkukomesha	8375
Ġkukopesha	8376
shughulisha	8377
Ġvilivyokuwa	8378
pteni	8379
Ġmizengwe	8380
Ġwahadhiri	8381
Ġwapambanaji	8382
Ġkuchochea	8383
Ġilipofika	8384
Ġselemani	8385
Ġpembejeo	8386
Ġkitaaluma	8387
Ġinavyodaiwa	8388
Ġmrakibu	8389
Ġhawatakubali	8390
Ġkidemokrasi	8391
Ġkurekodi	8392
Ġkusajiliwa	8393
Ġmaafande	8394
Ġnewcastle	8395
Ġalizokuwa	8396
Ġkuzama	8397
Ġudongo	8398
Ġlyaku	8399
Ġmgawanyo	8400
jengeka	8401
Ġmkandarasi	8402
Ġaondoke	8403
Ġukerewe	8404
Ġkushambuliwa	8405
Ġshehena	8406
Ġgladness	8407
Ġkumbaka	8408
Ġsimanzi	8409
Ġeuro	8410
Ġmayemba	8411
Ġtunisia	8412
Ġguus	8413
lsafa	8414
Ġusuluhishi	8415
masishaji	8416
Ġjubilee	8417
Ġboigny	8418
Ġtottenham	8419
gye	8420
hya	8421
ipa	8422
jja	8423
lly	8424
nsa	8425
oa	8426
ombwa	8427
ofisha	8428
sdom	8429
tra	8430
uku	8431
ungwa	8432
unt	8433
Ġele	8434
wale	8435
wania	8436
wajumbe	8437
napenda	8438
Ġmfisi	8439
Ġwabunifu	8440
Ġwalalamikaji	8441
Ġwaganga	8442
Ġwahalifu	8443
Ġkushe	8444
Ġkumui	8445
Ġkuyumba	8446
Ġkushangazwa	8447
kaji	8448
Ġnasaha	8449
Ġyahya	8450
tage	8451
tahidi	8452
nggye	8453
maria	8454
matokeo	8455
mamlaka	8456
kimbilia	8457
Ġkana	8458
Ġkalu	8459
kumbana	8460
kusudia	8461
Ġigunga	8462
jifunza	8463
jiwekea	8464
huri	8465
sihi	8466
sion	8467
Ġhapendi	8468
Ġkihe	8469
Ġkitimu	8470
toi	8471
tonyama	8472
dali	8473
daka	8474
bir	8475
leba	8476
Ġalini	8477
Ġalikuja	8478
Ġalifanikiwa	8479
Ġalielezea	8480
Ġalitamba	8481
men	8482
Ġkuwasikiliza	8483
Ġkuwanyima	8484
kee	8485
kela	8486
burg	8487
Ġnbc	8488
Ġnilia	8489
Ġminziro	8490
Ġvizazi	8491
Ġvisingizio	8492
Ġwanacheza	8493
Ġwanapokuwa	8494
Ġwanahabari	8495
Ġwanalipwa	8496
Ġwanatafuta	8497
bon	8498
eleweka	8499
juka	8500
Ġkutokubali	8501
Ġkutoroka	8502
Ġmwambu	8503
Ġmwamko	8504
Ġekari	8505
Ġwalitoka	8506
Ġwalikubaliana	8507
Ġwalikutwa	8508
reta	8509
Ġsebu	8510
Ġtimes	8511
Ġjabir	8512
Ġzipi	8513
katifu	8514
uadio	8515
Ġanaona	8516
zese	8517
Ġmuleba	8518
Ġwisdom	8519
Ġmedali	8520
alisisitiza	8521
Ġrai	8522
Ġramani	8523
Ġameahidi	8524
Ġkuambu	8525
vuta	8526
Ġkuiti	8527
Ġkuishauri	8528
Ġkuiweka	8529
Ġkuisababishia	8530
Ġmianya	8531
Ġkuogele	8532
Ġkozi	8533
Ġofa	8534
Ġoth	8535
Ġimebaini	8536
Ġimefikia	8537
Ġimepanda	8538
Ġimejipanga	8539
Ġimepangwa	8540
Ġimepungua	8541
Ġwamepewa	8542
Ġakidaiwa	8543
dondo	8544
Ġwatatumia	8545
Ġwatalazimika	8546
Ġkumwi	8547
Ġkumtoa	8548
Ġkumsajili	8549
Ġkujifanya	8550
Ġkujiendeleza	8551
nunuliwa	8552
Ġiliyofuata	8553
Ġiliyowasilishwa	8554
Ġwaliopewa	8555
somewa	8556
Ġkeko	8557
Ġhalija	8558
Ġlea	8559
Ġhotel	8560
Ġyesu	8561
nyakulia	8562
Ġtheir	8563
thiriwa	8564
Ġsikukuu	8565
Ġhadithi	8566
Ġzinavyo	8567
Ġzinafanya	8568
akichangia	8569
Ġpt	8570
Ġdef	8571
Ġden	8572
Ġdebe	8573
Ġtoure	8574
kitiko	8575
der	8576
Ġchimbuko	8577
Ġulibaini	8578
Ġjeuri	8579
Ġghorofa	8580
Ġikishinda	8581
Ġwaadilifu	8582
Ġkupangiwa	8583
Ġuliojitokeza	8584
Ġuliopangwa	8585
Ġtunahitaji	8586
mwachia	8587
Ġzilizoko	8588
Ġzilizofanywa	8589
Ġzilizowekwa	8590
shea	8591
Ġjor	8592
ration	8593
Ġstahili	8594
Ġyaliyotokana	8595
Ġyondani	8596
Ġyohana	8597
Ġluga	8598
Ġaston	8599
Ġlori	8600
Ġhosteli	8601
Ġcopa	8602
Ġkupotosha	8603
Ġkuondosha	8604
Ġmrembo	8605
Ġwalezi	8606
Ġmajangili	8607
Ġfili	8608
Ġukiwemo	8609
Ġrose	8610
maanisha	8611
Ġkutulia	8612
endayo	8613
endapo	8614
Ġlimekuja	8615
Ġkuchafua	8616
Ġkukifanya	8617
Ġbbc	8618
Ġkuvuja	8619
Ġmarley	8620
Ġmaganga	8621
rejesha	8622
Ġmantage	8623
Ġmanzese	8624
Ġkitambulisho	8625
badilisha	8626
Ġmafundi	8627
dharau	8628
Ġkuelekeza	8629
wakilishwa	8630
Ġmichache	8631
Ġkulaani	8632
Ġkubadilishwa	8633
Ġedwin	8634
Ġubabe	8635
Ġmasikitiko	8636
Ġkiteto	8637
Ġpaulo	8638
ruhusi	8639
Ġutakaopigwa	8640
Ġmsondo	8641
Ġamewaomba	8642
Ġkushughulikiwa	8643
Ġkusafirishwa	8644
Ġameitaka	8645
Ġnjovu	8646
Ġkugongwa	8647
Ġmanyanya	8648
Ġkijinsia	8649
Ġkijitonyama	8650
Ġtakataka	8651
Ġmwakingwe	8652
Ġtegemezi	8653
Ġkalenge	8654
ssy	8655
zuizi	8656
Ġlyamu	8657
Ġmassawe	8658
mgosi	8659
Ġalionao	8660
Ġmponde	8661
Ġamos	8662
Ġplaye	8663
Ġwajitokeze	8664
Ġkwingine	8665
tangazia	8666
Ġmichoro	8667
Ġbridge	8668
cuf	8669
Ġkuwaombea	8670
mkhana	8671
tosheleza	8672
Ġtibaijuka	8673
Ġkuadhimisha	8674
makamu	8675
Ġkiraia	8676
Ġjumuia	8677
Ġuvccm	8678
Ġgymkhana	8679
dhoofisha	8680
Ġwayne	8681
Ġsakare	8682
Ġkihemba	8683
Ġkuogelea	8684
Ġothman	8685
enzi	8686
ft	8687
grati	8688
ksa	8689
lka	8690
msimu	8691
mganga	8692
nh	8693
nzu	8694
ore	8695
pwe	8696
sy	8697
swali	8698
tv	8699
ut	8700
upe	8701
Ġfika	8702
wasanii	8703
nam	8704
najua	8705
nahodha	8706
nafasi	8707
Ġmge	8708
Ġmwo	8709
Ġmshiriki	8710
lina	8711
line	8712
lipi	8713
lilisha	8714
liverpool	8715
Ġwamo	8716
Ġwaje	8717
Ġwapenda	8718
Ġwaume	8719
Ġwachukuliwe	8720
Ġkube	8721
Ġkubisha	8722
Ġkushikilia	8723
Ġkulalamikia	8724
Ġkushtu	8725
yataja	8726
hala	8727
Ġutoto	8728
Ġuthamini	8729
Ġufungaji	8730
Ġufuatiliaji	8731
Ġnape	8732
Ġnafsi	8733
tawa	8734
Ġag	8735
Ġakao	8736
Ġanto	8737
Ġasali	8738
bado	8739
malia	8740
mapema	8741
Ġss	8742
Ġspa	8743
Ġmabunge	8744
kima	8745
kinga	8746
lami	8747
lanzi	8748
Ġkaita	8749
Ġkardinali	8750
kume	8751
kunde	8752
jivunia	8753
husia	8754
siga	8755
jawahi	8756
rahimu	8757
Ġkifisadi	8758
Ġkiingilio	8759
Ġkimila	8760
toliki	8761
fulila	8762
Ġaliongoza	8763
Ġalikaa	8764
Ġalisikia	8765
Ġkuwacha	8766
Ġkuwaita	8767
Ġkuwatumikia	8768
Ġkuwaziba	8769
Ġkuwainua	8770
Ġkuwaondolea	8771
Ġtanzani	8772
sene	8773
tele	8774
Ġsimanji	8775
Ġhua	8776
Ġhuna	8777
Ġhuria	8778
Ġmio	8779
Ġsanjari	8780
pingana	8781
Ġchampi	8782
Ġvipa	8783
Ġilikutana	8784
Ġililazimika	8785
Ġilielezwa	8786
Ġiliundwa	8787
Ġwanatoka	8788
Ġwanalazimika	8789
ngoma	8790
chelsea	8791
Ġkutowa	8792
Ġkutoelewana	8793
fiwa	8794
Ġmode	8795
ruma	8796
Ġwalikuta	8797
rey	8798
rekebisha	8799
gani	8800
Ġzilianza	8801
zuni	8802
Ġtuone	8803
pewi	8804
nias	8805
Ġinaeleza	8806
Ġinachangia	8807
uake	8808
chua	8809
Ġparo	8810
Ġpangani	8811
Ġparis	8812
Ġwivu	8813
alikuwa	8814
alikwa	8815
Ġameweka	8816
Ġameonyesha	8817
Ġkuandaliwa	8818
Ġkuandikwa	8819
Ġkuio	8820
Ġkuitangaza	8821
Ġkuitumikia	8822
Ġmiamba	8823
yuni	8824
Ġimeingia	8825
Ġimesababisha	8826
Ġimetwaa	8827
Ġwamei	8828
Ġwameomba	8829
Ġwameonesha	8830
Ġwameonyesha	8831
Ġwamekubaliana	8832
Ġakikabiliwa	8833
Ġpoli	8834
Ġmkombozi	8835
zungumzwa	8836
Ġkumtia	8837
Ġkumtumia	8838
Ġkumkata	8839
Ġkumshauri	8840
Ġkumhoji	8841
Ġkumtambua	8842
Ġkumpatia	8843
Ġkumchoma	8844
Ġkujitetea	8845
Ġkujilinda	8846
Ġkujiepusha	8847
Ġiliyotoa	8848
Ġiliyoanza	8849
Ġiliyowekwa	8850
Ġhalita	8851
Ġhalima	8852
Ġhaliku	8853
Ġwakipiga	8854
Ġwakidhani	8855
Ġmahafali	8856
Ġbouake	8857
Ġutasaidia	8858
Ġtea	8859
Ġtenda	8860
Ġwazito	8861
Ġkulifanyia	8862
Ġkufufua	8863
Ġkufukuzwa	8864
Ġzinaonyesha	8865
Ġfaulo	8866
Ġzilitolewa	8867
Ġhawako	8868
Ġkutathmini	8869
Ġumekuja	8870
Ġumefikia	8871
Ġkusafiria	8872
Ġmatabaka	8873
Ġmwesiga	8874
dee	8875
ders	8876
Ġchipolo	8877
Ġwanaoweza	8878
taalamu	8879
Ġulivyokuwa	8880
Ġruksa	8881
Ġikicheza	8882
Ġikishindwa	8883
Ġwaasisi	8884
Ġulioanza	8885
Ġinayotoa	8886
Ġmakasi	8887
Ġbuku	8888
Ġtunapaswa	8889
van	8890
Ġkutengua	8891
Ġalgeria	8892
Ġzilizofanyika	8893
Ġjob	8894
Ġakiwasilisha	8895
kilisha	8896
Ġhaiwezekani	8897
cent	8898
Ġhewani	8899
Ġnyagawa	8900
Ġtumeamua	8901
kubaliwa	8902
eld	8903
Ġluteni	8904
Ġcola	8905
Ġkupokewa	8906
Ġfimbo	8907
Ġfinias	8908
Ġyanayohusiana	8909
Ġujazo	8910
Ġukiongozwa	8911
Ġukizingatia	8912
Ġvitanda	8913
Ġrooney	8914
maadhimisho	8915
Ġkuchanga	8916
Ġkuchanganyikiwa	8917
Ġunaotakiwa	8918
fungulia	8919
Ġkukumba	8920
Ġkukumbu	8921
Ġnyeti	8922
Ġuhamiaji	8923
Ġcurkovic	8924
Ġyameanza	8925
Ġvyetu	8926
Ġmafundisho	8927
guano	8928
Ġrwaki	8929
Ġkununuliwa	8930
Ġkishapu	8931
marishwa	8932
Ġapril	8933
mwingine	8934
Ġukombozi	8935
Ġzitafanyika	8936
Ġkubainika	8937
tunaamini	8938
lipuka	8939
Ġsteve	8940
Ġkuishiwa	8941
lesbrou	8942
ndelea	8943
Ġyatafanyika	8944
Ġmoyoni	8945
Ġvillarreal	8946
Ġkuhimili	8947
Ġmaige	8948
lls	8949
Ġkuchomwa	8950
Ġibrahimu	8951
Ġilipokuja	8952
thew	8953
therine	8954
Ġtrawu	8955
Ġyakiendelea	8956
Ġkusambazwa	8957
vyama	8958
Ġmvungi	8959
ventus	8960
balila	8961
Ġkhartoum	8962
Ġlikiwamo	8963
Ġinapotokea	8964
Ġcecafa	8965
Ġcelina	8966
Ġmashuhuda	8967
Ġpugu	8968
Ġudhalilisha	8969
Ġameacha	8970
fyatua	8971
Ġvictor	8972
Ġikionesha	8973
Ġyatakayofanyika	8974
zingatiwa	8975
Ġshtaka	8976
Ġhavina	8977
Ġwanamgambo	8978
Ġsijawahi	8979
Ġque	8980
Ġkumuacha	8981
hatuwezi	8982
Ġkabange	8983
Ġkuwatunza	8984
Ġprince	8985
Ġtrilioni	8986
Ġhouse	8987
Ġwaajiriwa	8988
Ġsmg	8989
Ġdeograti	8990
Ġwanaojiita	8991
Ġvalenti	8992
Ġkarim	8993
sturi	8994
Ġsports	8995
Ġkashilila	8996
Ġtafrani	8997
Ġkheri	8998
Ġmayai	8999
Ġmajonzi	9000
Ġmabula	9001
Ġkusababishwa	9002
Ġelias	9003
Ġupupu	9004
Ġfrom	9005
Ġmiondoko	9006
Ġuonevu	9007
Ġfaustine	9008
ainishwa	9009
Ġkunyimwa	9010
Ġmiddlesbrou	9011
Ġkumchinja	9012
Ġkaitaba	9013
husiani	9014
Ġsimanjiro	9015
Ġchipolopolo	9016
Ġrwakibalila	9017
Ġudhalilishaji	9018
Ġdeogratius	9019
Ġmiddlesbrough	9020
alo	9021
dl	9022
eli	9023
ic	9024
mshi	9025
mwili	9026
mkataba	9027
mshikilia	9028
mfano	9029
ogopa	9030
pl	9031
ssia	9032
ulu	9033
ushauri	9034
Ġnge	9035
waraka	9036
wahusu	9037
Ġmt	9038
Ġmjukuu	9039
Ġmnyororo	9040
lie	9041
Ġwazungu	9042
Ġwacheze	9043
Ġwaheshimiwa	9044
Ġwahariri	9045
Ġwachina	9046
Ġkutia	9047
Ġkurugenzi	9048
Ġkuridhi	9049
Ġkukodi	9050
Ġkuendeshwa	9051
Ġkungga	9052
Ġkushikiliwa	9053
haji	9054
kaidi	9055
Ġui	9056
Ġuti	9057
Ġudini	9058
Ġnaftari	9059
Ġnature	9060
tamani	9061
tafsiriwa	9062
Ġashu	9063
Ġair	9064
maba	9065
mamu	9066
Ġmazembe	9067
Ġmameneja	9068
riam	9069
las	9070
langa	9071
lazima	9072
zitaja	9073
Ġkafulila	9074
husi	9075
Ġhashi	9076
Ġhave	9077
Ġhafahamu	9078
tuta	9079
Ġkihu	9080
Ġkinyama	9081
letwa	9082
saa	9083
Ġalili	9084
Ġalisababisha	9085
meji	9086
minia	9087
mikoa	9088
Ġkuwatoa	9089
Ġtathimini	9090
seba	9091
shirika	9092
hesabu	9093
zoele	9094
pori	9095
Ġhufanyika	9096
Ġhuzuni	9097
Ġlako	9098
Ġlaini	9099
Ġnino	9100
Ġbabu	9101
Ġbanda	9102
Ġmimo	9103
Ġmilima	9104
ngaika	9105
bwawa	9106
Ġvio	9107
chini	9108
chilia	9109
Ġilio	9110
Ġilidai	9111
Ġilibaini	9112
Ġiliongeza	9113
Ġilibidi	9114
nyeshwa	9115
elekeo	9116
Ġkutotajwa	9117
Ġkutojihusisha	9118
fiani	9119
Ġmor	9120
Ġmorali	9121
Ġwalicheza	9122
Ġwalifunga	9123
Ġwalihoji	9124
ngewa	9125
rekta	9126
Ġtigo	9127
Ġjaco	9128
Ġjacko	9129
Ġlibe	9130
Ġlissu	9131
Ġdansi	9132
Ġziwe	9133
Ġzichukuliwe	9134
Ġinayote	9135
Ġinaongozwa	9136
Ġanashindwa	9137
Ġanasisitiza	9138
liamali	9139
gumbi	9140
Ġmessi	9141
Ġmedani	9142
gentina	9143
alibainisha	9144
Ġtwi	9145
Ġamekubali	9146
Ġkuishia	9147
Ġkuishangilia	9148
Ġkuinusuru	9149
Ġkombani	9150
Ġkofia	9151
Ġoic	9152
Ġimeonesha	9153
Ġimepokea	9154
Ġimelenga	9155
Ġimetenga	9156
kwambia	9157
Ġwamekuja	9158
Ġwamemaliza	9159
Ġwamepoteza	9160
Ġakionekana	9161
Ġakizindua	9162
Ġakifuatiwa	9163
Ġwatatoa	9164
Ġwatambue	9165
Ġkumdhibiti	9166
Ġkumnggoa	9167
Ġkujili	9168
Ġkujiingiza	9169
Ġkujionea	9170
nusi	9171
nukuliwa	9172
Ġiliyoongozwa	9173
Ġwaliochaguliwa	9174
Ġwalionao	9175
Ġhalikuwa	9176
Ġwakicheza	9177
Ġwakizungumza	9178
Ġwakionekana	9179
Ġwakionesha	9180
Ġmwimbaji	9181
Ġutakuta	9182
womba	9183
Ġunafanyika	9184
Ġtesha	9185
Ġitam	9186
Ġitashuka	9187
Ġmsikiti	9188
dudu	9189
Ġmaranda	9190
inadaiwa	9191
fanyiwe	9192
Ġzinapo	9193
akielezea	9194
Ġshuhuda	9195
lisika	9196
Ġphi	9197
Ġfatuma	9198
Ġdesturi	9199
Ġzilipo	9200
Ġhawaridhi	9201
Ġkutasaidia	9202
Ġaliyeingia	9203
Ġaliyetajwa	9204
Ġyalifungwa	9205
Ġchigumbi	9206
Ġulitokana	9207
Ġjer	9208
Ġjema	9209
Ġhakuona	9210
Ġhakiwezi	9211
Ġmwananyama	9212
shusha	9213
Ġnguli	9214
Ġuliochezwa	9215
Ġkuwekewa	9216
Ġyanaonesha	9217
Ġmakaburi	9218
Ġbunu	9219
Ġkufikiwa	9220
dalali	9221
Ġshabani	9222
Ġshauku	9223
mwanzo	9224
Ġkutenganisha	9225
Ġusaili	9226
Ġkinana	9227
Ġkinatakiwa	9228
shewa	9229
Ġjoel	9230
Ġutengenezaji	9231
Ġhaipo	9232
Ġhaitaki	9233
Ġlinatokana	9234
Ġrec	9235
Ġfundi	9236
Ġhekta	9237
Ġzinazotokana	9238
Ġzinazohusiana	9239
Ġmchanganyiko	9240
Ġmalima	9241
Ġyaliyojitokeza	9242
Ġuhuni	9243
fuatwa	9244
Ġcount	9245
Ġfinyu	9246
Ġargentina	9247
Ġakaanza	9248
Ġmbega	9249
Ġyanayotokana	9250
Ġnambari	9251
Ġkukimbizwa	9252
Ġvilevile	9253
Ġblo	9254
Ġanayetuhumiwa	9255
Ġuhamasishaji	9256
Ġmatunzo	9257
Ġmapipa	9258
Ġabraha	9259
Ġmtego	9260
Ġnungwi	9261
Ġnever	9262
Ġkurudishwa	9263
Ġdarasani	9264
Ġkinachodaiwa	9265
nyumba	9266
Ġkumuunga	9267
Ġkumuomba	9268
Ġkuenea	9269
Ġthat	9270
Ġkimchezo	9271
wanawake	9272
Ġmifupa	9273
Ġkukataliwa	9274
tunahitaji	9275
hatimaye	9276
sanywa	9277
Ġwalipokwenda	9278
Ġmaghala	9279
Ġkumwaga	9280
Ġmfukoni	9281
Ġkarama	9282
Ġmnono	9283
sirimali	9284
mfanyabiashara	9285
Ġdenis	9286
Ġkurejeshwa	9287
Ġnko	9288
Ġwanyamapori	9289
mark	9290
Ġkugongana	9291
Ġaliandika	9292
Ġkipekee	9293
Ġmbrazil	9294
Ġmahesabu	9295
Ġkubahatisha	9296
mtuhumu	9297
Ġkuhifadhia	9298
Ġkuhifadhiwa	9299
Ġkalembo	9300
Ġtumbatu	9301
uet	9302
Ġikionekana	9303
Ġflora	9304
dhalika	9305
Ġmatrekta	9306
Ġmpoki	9307
Ġianze	9308
tafutwa	9309
Ġamour	9310
Ġminara	9311
Ġevans	9312
Ġpetroli	9313
Ġnamibia	9314
Ġhoupho	9315
Ġmjema	9316
Ġmkiani	9317
Ġungamo	9318
Ġlisilo	9319
Ġkukabiliwa	9320
mfumo	9321
Ġvijibweni	9322
Ġmsisimko	9323
Ġkuteketeza	9324
Ġblue	9325
Ġkinemela	9326
Ġkutokomeza	9327
Ġnassoro	9328
Ġwanakijiji	9329
Ġluhanjo	9330
Ġmlemavu	9331
Ġreggae	9332
Ġkiholela	9333
Ġkusalimia	9334
Ġcamp	9335
Ġwakimbizi	9336
Ġsongas	9337
Ġdenmark	9338
Ġjordan	9339
Ġfilimbi	9340
alonso	9341
Ġashura	9342
zoeleka	9343
Ġmimosa	9344
Ġmwananyamala	9345
Ġhouphouet	9346
asili	9347
bra	9348
eh	9349
ghe	9350
gbo	9351
hlovu	9352
kwenye	9353
ktoria	9354
lde	9355
mta	9356
msa	9357
mzo	9358
nwa	9359
rya	9360
smo	9361
ukia	9362
wadau	9363
nanza	9364
Ġmm	9365
Ġmzinga	9366
Ġmnh	9367
lishi	9368
Ġkushi	9369
Ġkutwa	9370
Ġkuhitaji	9371
Ġkuheshimu	9372
Ġkuendana	9373
hatarisha	9374
Ġuho	9375
Ġap	9376
Ġafa	9377
Ġataa	9378
Ġatoe	9379
bagbo	9380
mati	9381
mambo	9382
Ġmamba	9383
Ġmathew	9384
rifu	9385
Ġkanga	9386
Ġifu	9387
Ġkwasababu	9388
jika	9389
mbaa	9390
tuko	9391
Ġkiza	9392
Ġkiju	9393
Ġkiitwa	9394
Ġkilwa	9395
Ġkidole	9396
tolewe	9397
dari	9398
lensia	9399
shani	9400
pachika	9401
Ġalikubali	9402
Ġalikabidhiwa	9403
Ġkuwashwa	9404
Ġkuwashinda	9405
Ġkuwatambua	9406
Ġkuwapongeza	9407
Ġzambi	9408
Ġsikuwa	9409
Ġsidhani	9410
Ġsigara	9411
Ġhusababisha	9412
Ġlaza	9413
Ġlampard	9414
Ġniseme	9415
Ġbada	9416
Ġmimea	9417
Ġmiliki	9418
Ġmifereji	9419
Ġsalma	9420
Ġsaikolojia	9421
Ġsavio	9422
kora	9423
Ġchanggombe	9424
Ġviweze	9425
Ġvibao	9426
Ġviktoria	9427
Ġilizidi	9428
Ġilitangaza	9429
Ġwanashikiliwa	9430
jumla	9431
jukumu	9432
field	9433
Ġmomba	9434
Ġmolde	9435
Ġentre	9436
Ġwalilo	9437
Ġwalishiriki	9438
Ġwalikutana	9439
Ġwalisikia	9440
Ġwalikataa	9441
Ġwalijikuta	9442
ngerema	9443
remia	9444
gama	9445
Ġsekunde	9446
Ġsengerema	9447
Ġlione	9448
Ġdhara	9449
rofi	9450
roge	9451
vyote	9452
mbole	9453
chomwa	9454
Ġinaelezwa	9455
Ġinaendeshwa	9456
Ġinahitajika	9457
Ġanau	9458
Ġanatumia	9459
Ġanakiri	9460
Ġpana	9461
ndoo	9462
ndogo	9463
Ġmeya	9464
Ġmepesi	9465
gea	9466
geuza	9467
aliyekuwa	9468
Ġrabia	9469
Ġcli	9470
Ġcor	9471
Ġwenzi	9472
Ġtv	9473
idika	9474
Ġamesha	9475
Ġamekamatwa	9476
vunjwa	9477
vutiwa	9478
Ġkuiona	9479
Ġkuigiza	9480
Ġkoo	9481
Ġkorea	9482
Ġkouadio	9483
Ġmbavu	9484
ndeka	9485
Ġimei	9486
Ġimem	9487
Ġimewataka	9488
Ġimepoteza	9489
Ġimeshuka	9490
Ġmaadui	9491
Ġwamecheza	9492
Ġwameweza	9493
Ġwameweka	9494
Ġwamekamatwa	9495
Ġwamechoshwa	9496
Ġakishindwa	9497
Ġakiingia	9498
Ġakisubiri	9499
Ġakifanyiwa	9500
Ġakijaribu	9501
Ġakisumbuliwa	9502
Ġpop	9503
Ġpower	9504
gizwa	9505
Ġmkoba	9506
Ġwatawa	9507
Ġkuuli	9508
Ġkuumana	9509
Ġkumka	9510
Ġkumfukuza	9511
Ġkujieleza	9512
Ġkujikusanyia	9513
Ġiliyomalizika	9514
Ġiliyofunguliwa	9515
Ġwaliowa	9516
Ġwaliolazwa	9517
Ġwaliosajiliwa	9518
Ġwalioathirika	9519
Ġwalioupata	9520
Ġwakishindwa	9521
Ġwakipinga	9522
Ġwakijaribu	9523
Ġmahara	9524
Ġmwiru	9525
Ġhovyo	9526
Ġchamangwana	9527
Ġutaanza	9528
Ġutafanyika	9529
Ġutagundua	9530
Ġyemen	9531
nyago	9532
Ġnafaka	9533
Ġitaongeza	9534
Ġshel	9535
Ġsitaki	9536
Ġkulifanya	9537
Ġshujaa	9538
Ġkutai	9539
Ġaliyeko	9540
Ġaliyezungumza	9541
Ġaliyeomba	9542
Ġworl	9543
oneshwa	9544
Ġulisema	9545
Ġulidai	9546
Ġuchapishaji	9547
Ġjeremia	9548
Ġrutuba	9549
Ġhakufanya	9550
Ġgbagbo	9551
Ġikitaka	9552
Ġikifungwa	9553
Ġlilim	9554
Ġuliomba	9555
Ġuliomalizika	9556
Ġinayomilikiwa	9557
Ġinayonolewa	9558
Ġbush	9559
Ġdonald	9560
Ġtunao	9561
Ġtunasema	9562
Ġkukaidi	9563
Ġkuteka	9564
Ġkinaendelea	9565
Ġjoyce	9566
Ġmarefu	9567
Ġataondoka	9568
Ġstahiki	9569
Ġmikoba	9570
Ġmikocheni	9571
Ġlinatarajia	9572
Ġred	9573
Ġmaziko	9574
Ġalipohojiwa	9575
Ġzinazochukuliwa	9576
Ġzinazozalishwa	9577
Ġmchawi	9578
Ġsaad	9579
swana	9580
ender	9581
Ġgeo	9582
Ġgereji	9583
Ġlolensia	9584
Ġkipaza	9585
Ġvyovyote	9586
Ġkupongezwa	9587
Ġkupokelewa	9588
Ġmitandao	9589
Ġmajanga	9590
Ġcheo	9591
Ġngapi	9592
Ġyupi	9593
Ġkutumbu	9594
Ġkutupwa	9595
Ġkuchapwa	9596
Ġkuchanganya	9597
Ġanayeongoza	9598
Ġmfaransa	9599
Ġkutiwa	9600
rejee	9601
Ġkilichomo	9602
wapongeza	9603
Ġmapigo	9604
fadhiliwa	9605
Ġaliieleza	9606
Ġnyosso	9607
Ġjk	9608
Ġrwi	9609
Ġhatarini	9610
Ġkumuuliza	9611
Ġkubore	9612
Ġitakayopigwa	9613
Ġkulaumu	9614
Ġwilson	9615
Ġndogondogo	9616
Ġninaamini	9617
laani	9618
tunajua	9619
Ġmipakani	9620
Ġbotswana	9621
mpango	9622
Ġwatakaoshiriki	9623
Ġwatakaobainika	9624
Ġmnamo	9625
Ġhotelini	9626
baan	9627
Ġmigomo	9628
Ġzenyewe	9629
rls	9630
Ġwahanga	9631
Ġzikiwamo	9632
Ġmhagama	9633
Ġhawajapata	9634
nganishwa	9635
Ġkuchoka	9636
Ġwalizonazo	9637
Ġvikubwa	9638
alipotakiwa	9639
Ġmatei	9640
Ġchris	9641
Ġgumzo	9642
Ġmachache	9643
Ġferna	9644
sikitisha	9645
Ġnkya	9646
Ġmikusanyiko	9647
pendekezwa	9648
ssib	9649
Ġtrekta	9650
Ġkuzaa	9651
Ġwalichodai	9652
Ġkumwomba	9653
Ġkikatili	9654
dhinishwa	9655
wura	9656
Ġsalehe	9657
raim	9658
Ġswed	9659
Ġiangalie	9660
gemee	9661
Ġurembo	9662
Ġmezani	9663
Ġkichapo	9664
Ġvikongwe	9665
eleweke	9666
Ġdiamond	9667
kituo	9668
Ġkupuuza	9669
Ġtobago	9670
Ġvalen	9671
Ġhayupo	9672
Ġmunich	9673
Ġherve	9674
Ġphares	9675
mbikizia	9676
marehemu	9677
Ġtenisi	9678
Ġchalinze	9679
Ġkanoni	9680
Ġsaul	9681
Ġephraim	9682
Ġzamale	9683
Ġolympi	9684
Ġalivitaja	9685
Ġoctoba	9686
changamoto	9687
Ġdefender	9688
Ġneverland	9689
asilimia	9690
Ġkijuso	9691
Ġkiitwacho	9692
Ġentrepreneurship	9693
Ġlionel	9694
Ġdharau	9695
Ġcorpo	9696
Ġworld	9697
ack	9698
dda	9699
itumia	9700
lya	9701
lva	9702
ons	9703
omero	9704
pua	9705
sri	9706
smas	9707
sburg	9708
uld	9709
watia	9710
namo	9711
nasua	9712
Ġmc	9713
Ġmda	9714
Ġmpe	9715
Ġwahu	9716
Ġwawi	9717
Ġwastaafu	9718
Ġwanunuzi	9719
Ġkuzu	9720
Ġkujulikana	9721
Ġkujeruhi	9722
Ġkufahamika	9723
Ġkuliona	9724
Ġkuruka	9725
Ġkuridhishwa	9726
Ġkuchezesha	9727
Ġkuthibitishwa	9728
Ġkugharamia	9729
Ġkuhesabu	9730
has	9731
hamia	9732
Ġuzuri	9733
Ġuliwa	9734
Ġubaya	9735
Ġnafanya	9736
Ġnapenda	9737
nidad	9738
hitimisha	9739
Ġyaka	9740
Ġyaendayo	9741
Ġai	9742
Ġatu	9743
Ġasema	9744
Ġaga	9745
Ġasia	9746
Ġaisha	9747
Ġarume	9748
Ġaingie	9749
Ġagenda	9750
bakari	9751
mafanikio	9752
malalamiko	9753
mandoo	9754
tiwe	9755
tibiwa	9756
Ġmafa	9757
Ġmalazi	9758
Ġmachungu	9759
rist	9760
lah	9761
Ġkasu	9762
Ġkarne	9763
Ġkapteni	9764
yonga	9765
Ġiu	9766
Ġiitwa	9767
Ġitoe	9768
jibisha	9769
jaj	9770
jabu	9771
javyo	9772
ray	9773
raza	9774
ramba	9775
rago	9776
rambi	9777
Ġhiti	9778
tumaini	9779
Ġking	9780
Ġkimuziki	9781
dawi	9782
sanyo	9783
futwa	9784
shamba	9785
shahada	9786
pange	9787
Ġalizungumza	9788
Ġalishiriki	9789
Ġalitarajia	9790
Ġalikubaliana	9791
Ġalilalamika	9792
Ġalijeruhiwa	9793
Ġaliambiwa	9794
Ġalilokuwa	9795
Ġalitenda	9796
muunga	9797
dic	9798
Ġkuwaru	9799
kesho	9800
seka	9801
Ġsiasi	9802
Ġnilio	9803
Ġnitakuwa	9804
Ġbajaj	9805
Ġminja	9806
Ġmidogo	9807
Ġmiongozo	9808
Ġsangara	9809
nday	9810
ndard	9811
ngaliwa	9812
Ġchande	9813
Ġchaguo	9814
Ġchakavu	9815
hogo	9816
Ġvido	9817
Ġviazi	9818
Ġviboko	9819
Ġvijavyo	9820
Ġvirago	9821
Ġvidic	9822
Ġilipewa	9823
Ġiliwahi	9824
Ġilifikia	9825
Ġilijulikana	9826
Ġwanatambua	9827
molewa	9828
bomu	9829
wilaya	9830
nguyeye	9831
Ġmwan	9832
Ġmwajuma	9833
Ġeri	9834
Ġeve	9835
Ġwalichukua	9836
Ġwalipaswa	9837
Ġwaliibuka	9838
Ġwalikaa	9839
Ġwalipanda	9840
Ġwalipinga	9841
Ġwalimtaka	9842
rekani	9843
reth	9844
bea	9845
Ġdau	9846
Ġdaima	9847
rope	9848
romoka	9849
Ġtutaka	9850
Ġjuventus	9851
dharia	9852
Ġinakwenda	9853
Ġinashika	9854
Ġanapata	9855
Ġanaomba	9856
Ġanastahili	9857
Ġanashangaa	9858
Ġanashikiliwa	9859
Ġmumba	9860
Ġmuga	9861
Ġmundu	9862
Ġpazi	9863
Ġmerre	9864
alii	9865
Ġwezi	9866
Ġtbc	9867
Ġtwanga	9868
Ġtcra	9869
Ġpick	9870
Ġamerika	9871
Ġameonesha	9872
Ġamemtaka	9873
Ġamejiunga	9874
Ġamefurahishwa	9875
Ġamehamishiwa	9876
Ġkuachi	9877
Ġkuangu	9878
Ġkuahirisha	9879
shwi	9880
vunjika	9881
Ġkuitu	9882
Ġkuolewa	9883
Ġkorti	9884
Ġfm	9885
Ġfle	9886
Ġoman	9887
Ġwakenya	9888
Ġimeahidi	9889
Ġimebainika	9890
Ġwamekata	9891
Ġwamekubali	9892
Ġwametoka	9893
Ġwamekua	9894
Ġwameondoka	9895
Ġwamemtaka	9896
Ġakitangaza	9897
gile	9898
Ġwatashinda	9899
Ġwataingia	9900
Ġkumta	9901
Ġkumkosa	9902
Ġkumfunga	9903
Ġkumfungia	9904
Ġkumkosoa	9905
Ġkujisa	9906
Ġkujibiwa	9907
Ġkujinufaisha	9908
Ġwaliona	9909
some	9910
Ġwakishinikiza	9911
Ġwakifuatilia	9912
Ġbob	9913
Ġutani	9914
Ġutashi	9915
Ġutambuzi	9916
Ġnyie	9917
Ġnyika	9918
Ġkupika	9919
Ġkupigiwa	9920
Ġunafanya	9921
nyange	9922
Ġitashinda	9923
jiamini	9924
inawezekana	9925
Ġkufundishi	9926
Ġzinapaswa	9927
akifafanua	9928
akihojiwa	9929
lisikia	9930
Ġupanga	9931
Ġupandaji	9932
Ġfari	9933
Ġfalsafa	9934
Ġzilitoka	9935
miaka	9936
Ġaliyepata	9937
Ġwould	9938
Ġmakusanyo	9939
Ġwanaohitaji	9940
Ġwanaohusika	9941
taasisi	9942
taarifu	9943
Ġulii	9944
Ġulipinga	9945
Ġulifikiwa	9946
Ġkunatokana	9947
Ġsumari	9948
Ġhakutakuwa	9949
Ġgrou	9950
Ġikibidi	9951
Ġikizingatiwa	9952
Ġmwanangu	9953
Ġmwanaharakati	9954
Ġkupamba	9955
Ġkupangwa	9956
Ġmastaa	9957
Ġtunashangaa	9958
Ġshabaan	9959
Ġnyinginezo	9960
Ġalfred	9961
Ġusahihi	9962
Ġkinatarajia	9963
Ġrio	9964
Ġkimaisha	9965
Ġatatakiwa	9966
Ġatatoa	9967
Ġatarudi	9968
Ġstashahada	9969
Ġhaijulikani	9970
Ġhaitoshi	9971
Ġlinatakiwa	9972
Ġredondo	9973
Ġfuso	9974
Ġhekari	9975
Ġhekima	9976
Ġnyambui	9977
Ġmchafu	9978
Ġkuzifanya	9979
stan	9980
Ġkiungwana	9981
Ġyombo	9982
Ġlugo	9983
Ġasse	9984
Ġmpakanjia	9985
Ġyanayopatikana	9986
Ġrombo	9987
nners	9988
Ġkujaa	9989
Ġlimetokea	9990
Ġunaoendeshwa	9991
Ġby	9992
Ġanayetaka	9993
Ġmarwa	9994
Ġmartine	9995
ngezewa	9996
Ġkilichodaiwa	9997
Ġmatumla	9998
Ġkitalii	9999
Ġnilifanya	10000
Ġitakapokuwa	10001
Ġyamekamilika	10002
Ġdimbani	10003
Ġinjili	10004
Ġmitaala	10005
Ġjongo	10006
Ġwatakaa	10007
Ġghafi	10008
Ġngombale	10009
ingiwa	10010
Ġhatuta	10011
thibitisho	10012
Ġitakayokuwa	10013
Ġukodi	10014
Ġivo	10015
Ġkusota	10016
ngelea	10017
Ġtutafanya	10018
Ġmvyulu	10019
Ġmvomero	10020
Ġwajanja	10021
mwele	10022
Ġwachambuzi	10023
Ġmigongano	10024
Ġupoto	10025
Ġwavumilivu	10026
Ġkumwajibisha	10027
Ġlikiendelea	10028
Ġmakomandoo	10029
Ġhawakuweza	10030
Ġhaijafanya	10031
Ġmateso	10032
Ġtakrima	10033
unaweza	10034
Ġnkongo	10035
Ġkidete	10036
Ġiliichapa	10037
Ġnjoroge	10038
edward	10039
Ġkiasia	10040
Ġusiozidi	10041
Ġmashuti	10042
Ġjenereta	10043
Ġpush	10044
tambulisha	10045
Ġutofauti	10046
Ġwanachotaka	10047
Ġmahema	10048
Ġrumanyika	10049
ninacho	10050
Ġuzamili	10051
Ġporini	10052
Ġwakiamini	10053
Ġshamsi	10054
Ġshamsa	10055
lionao	10056
nilikuwa	10057
Ġkhalid	10058
Ġismailia	10059
sambaa	10060
Ġwaliachiwa	10061
Ġplasti	10062
Ġmdomoni	10063
mbuiza	10064
Ġtrinidad	10065
Ġunyanyapaa	10066
kusanyika	10067
Ġisaack	10068
Ġkuzomewa	10069
Ġadriano	10070
Ġmsisitizo	10071
Ġhayuko	10072
Ġkibosho	10073
Ġmitumba	10074
Ġtimoth	10075
Ġanglikana	10076
Ġhafifu	10077
Ġkaboyonga	10078
Ġndhlovu	10079
Ġkamera	10080
Ġkapuya	10081
Ġkalunguyeye	10082
Ġmwambusi	10083
Ġsebuleni	10084
kumekuwa	10085
Ġparokia	10086
Ġtwiga	10087
Ġrecord	10088
Ġkaramagi	10089
Ġshellukindo	10090
Ġcorporation	10091
Ġarumeru	10092
Ġmafao	10093
Ġiitwayo	10094
Ġmerreikh	10095
Ġkufundishia	10096
Ġgroup	10097
asema	10098
andika	10099
cka	10100
etu	10101
it	10102
iki	10103
ikiwa	10104
ize	10105
ldi	10106
lve	10107
mli	10108
mpo	10109
mluki	10110
nno	10111
ombi	10112
uni	10113
utoa	10114
uth	10115
Ġrika	10116
watoto	10117
Ġkya	10118
Ġkmk	10119
naji	10120
Ġmkwa	10121
Ġmlu	10122
Ġmdaiwa	10123
Ġmdau	10124
Ġmbwe	10125
Ġmnyama	10126
Ġwarudi	10127
Ġwazoefu	10128
Ġwachimbaji	10129
Ġwapewe	10130
Ġwafuate	10131
Ġkusha	10132
Ġkuratibu	10133
Ġkuongozwa	10134
Ġkustawi	10135
Ġkuzunguka	10136
Ġkugundulika	10137
Ġkuniambia	10138
Ġkugusa	10139
Ġkuvua	10140
Ġkuguswa	10141
yal	10142
hanna	10143
Ġukama	10144
Ġnasema	10145
Ġnavyo	10146
Ġnasisitiza	10147
Ġnassib	10148
ning	10149
nica	10150
hilo	10151
Ġyaliwa	10152
Ġyaweze	10153
tain	10154
Ġao	10155
Ġapi	10156
Ġadai	10157
Ġamini	10158
Ġapewe	10159
Ġapumzike	10160
manga	10161
maele	10162
marika	10163
mashe	10164
Ġswi	10165
Ġscho	10166
Ġsco	10167
Ġmati	10168
Ġmatendo	10169
Ġmamluki	10170
zan	10171
rie	10172
kijana	10173
lata	10174
ndra	10175
Ġkadhalika	10176
Ġizu	10177
Ġishu	10178
Ġiendelee	10179
humbiza	10180
sila	10181
siwezi	10182
Ġhas	10183
Ġhasi	10184
Ġhaifa	10185
rab	10186
tupilia	10187
Ġkige	10188
Ġkifaa	10189
Ġkibenki	10190
tosa	10191
sai	10192
sawazi	10193
salama	10194
pamba	10195
pale	10196
paresheni	10197
Ġalishauri	10198
Ġalikutwa	10199
Ġaliuawa	10200
Ġalikimbia	10201
muko	10202
muona	10203
diriki	10204
Ġkuwaza	10205
Ġkuwasaka	10206
Ġkuwashughulikia	10207
Ġkuwaunganisha	10208
Ġkuwaletea	10209
Ġkuwanasa	10210
Ġkuwaelimisha	10211
Ġtambwe	10212
keni	10213
shiana	10214
tekele	10215
Ġny	10216
Ġnondo	10217
pona	10218
Ġsine	10219
Ġhumu	10220
Ġhupenda	10221
Ġhutegemea	10222
Ġlaure	10223
Ġniliwa	10224
Ġmitini	10225
ngazi	10226
Ġchako	10227
Ġchanika	10228
hofu	10229
Ġvite	10230
Ġvibarua	10231
chimbia	10232
Ġilifika	10233
Ġilihusisha	10234
Ġwanashinda	10235
boresha	10236
chero	10237
Ġkutocheza	10238
Ġkutozwa	10239
Ġmwako	10240
Ġmotisha	10241
Ġmonica	10242
rupu	10243
Ġewura	10244
Ġwalieleza	10245
Ġwalikosa	10246
Ġwalienda	10247
Ġwalikuja	10248
Ġwalihusika	10249
Ġwalikiri	10250
Ġwalijitokeza	10251
gaa	10252
gonga	10253
bel	10254
Ġjamai	10255
Ġliliwa	10256
Ġlishe	10257
Ġlingekuwa	10258
Ġdadi	10259
Ġdhu	10260
Ġtusubiri	10261
jeli	10262
Ġjulio	10263
takata	10264
Ġbid	10265
Ġinakutana	10266
Ġinapokuwa	10267
Ġinasubiri	10268
Ġinapatikana	10269
Ġinategemea	10270
Ġinatambua	10271
Ġinajiandaa	10272
Ġinashuka	10273
Ġinakadiriwa	10274
chuana	10275
Ġanaongeza	10276
Ġanakuja	10277
Ġmuham	10278
Ġpaz	10279
Ġwith	10280
Ġmere	10281
ger	10282
susi	10283
puuza	10284
purupu	10285
alihoji	10286
Ġrafu	10287
Ġcra	10288
Ġcda	10289
Ġamecheza	10290
Ġametamba	10291
Ġkuanika	10292
Ġkuikabili	10293
Ġkuijenga	10294
Ġkuifanyia	10295
Ġkuimarika	10296
Ġkuongelea	10297
Ġkontena	10298
Ġout	10299
Ġoparesheni	10300
Ġimeandaliwa	10301
Ġimeombwa	10302
Ġwatulivu	10303
Ġmaajabu	10304
Ġwameshinda	10305
Ġwameona	10306
Ġwameonekana	10307
Ġwameingia	10308
Ġwamejitokeza	10309
Ġwamefariki	10310
Ġwamekaa	10311
Ġwameunda	10312
Ġakiomba	10313
Ġakiweka	10314
Ġakipokea	10315
Ġsalam	10316
Ġpochi	10317
dozi	10318
Ġwatafiti	10319
Ġnditi	10320
Ġkuungua	10321
Ġkutokamilika	10322
Ġkumpigia	10323
Ġkujinasua	10324
Ġiliyoandaliwa	10325
Ġiliyosainiwa	10326
Ġwaliobaki	10327
Ġwaliowahi	10328
sota	10329
songa	10330
Ġwakina	10331
Ġwakija	10332
Ġtaarab	10333
tian	10334
Ġwaogele	10335
Ġbolton	10336
Ġbonanza	10337
Ġholdi	10338
Ġafc	10339
Ġunaanza	10340
Ġunahitajika	10341
Ġitatumia	10342
Ġitajulikana	10343
Ġitakua	10344
Ġitamar	10345
Ġwazima	10346
Ġwaziwazi	10347
Ġshemeji	10348
Ġbarasa	10349
akitangaza	10350
Ġshutuma	10351
Ġnyuki	10352
Ġsombe	10353
Ġhawatakuwa	10354
Ġhawapati	10355
Ġkutafsiri	10356
Ġumetolewa	10357
Ġumekwisha	10358
Ġaliyetumia	10359
Ġpentekoste	10360
Ġtop	10361
Ġtony	10362
Ġmatamshi	10363
degar	10364
Ġwanaopenda	10365
taaluma	10366
taarabu	10367
Ġulisababisha	10368
Ġulisainiwa	10369
Ġjeetu	10370
Ġrua	10371
Ġsufiani	10372
Ġgwa	10373
Ġgidi	10374
Ġgtv	10375
Ġikiendeshwa	10376
Ġmwanamichezo	10377
shuhuda	10378
Ġnguoni	10379
Ġlilipo	10380
Ġlilisababisha	10381
Ġuliotokana	10382
Ġyanafanyika	10383
Ġyanazidi	10384
Ġinayotarajia	10385
Ġinayochangia	10386
Ġmakachero	10387
Ġdos	10388
Ġhapakuwa	10389
Ġtunaanza	10390
Ġtunategemea	10391
Ġshamhu	10392
beleje	10393
Ġzilizowasilishwa	10394
sheem	10395
Ġmfungwa	10396
Ġatakutana	10397
Ġatambue	10398
ziana	10399
Ġstandard	10400
Ġlinapaswa	10401
fikishwe	10402
Ġheri	10403
Ġchuma	10404
Ġmashina	10405
rudishia	10406
Ġzinazoikabili	10407
Ġtumeshindwa	10408
Ġmalisho	10409
ibuliwa	10410
Ġyaliyopita	10411
Ġyaliyowekwa	10412
caps	10413
Ġlubeleje	10414
Ġzimeendelea	10415
con	10416
Ġproje	10417
sons	10418
Ġmajalada	10419
Ġarsene	10420
Ġaliwapongeza	10421
Ġcheche	10422
Ġroyal	10423
maanda	10424
Ġlimeanza	10425
Ġhayaja	10426
Ġhayahusiani	10427
Ġkuchapa	10428
Ġunaotarajia	10429
aminika	10430
Ġnyepesi	10431
Ġkilichobaki	10432
Ġilivyotarajiwa	10433
Ġwakaanza	10434
Ġkitandani	10435
Ġniliyo	10436
Ġnilipokuwa	10437
Ġugavi	10438
Ġabdala	10439
Ġyametokana	10440
Ġmtetezi	10441
majimaji	10442
Ġvinaweza	10443
Ġnei	10444
Ġinspe	10445
Ġkushusha	10446
nyonga	10447
Ġrba	10448
prisons	10449
Ġkibasila	10450
Ġkinachosubiriwa	10451
Ġkufungana	10452
Ġmsd	10453
Ġkumuweka	10454
Ġthabiti	10455
Ġkulaza	10456
Ġukoo	10457
Ġkusaidiana	10458
Ġmsemo	10459
kaaya	10460
Ġmachinji	10461
kumbukwa	10462
Ġlinaloongozwa	10463
Ġmtaalam	10464
Ġvenance	10465
arabu	10466
Ġmwakyo	10467
Ġstepha	10468
mweleza	10469
Ġkuepukana	10470
Ġkufana	10471
Ġwavulana	10472
Ġasingeweza	10473
Ġlitaendelea	10474
Ġnitafanya	10475
Ġwalizokuwa	10476
furahisha	10477
Ġmsomi	10478
Ġzitakazotumika	10479
Ġmbuzi	10480
Ġmbuga	10481
Ġmbulu	10482
mbwi	10483
Ġzisizokuwa	10484
Ġcentre	10485
Ġipate	10486
Ġwajasiliamali	10487
tambui	10488
tions	10489
saidii	10490
saidiwa	10491
Ġmanane	10492
azimia	10493
Ġbenjamini	10494
ght	10495
Ġmatch	10496
sambazwa	10497
Ġwashindwe	10498
Ġcanavaro	10499
Ġminazi	10500
Ġalan	10501
Ġtuache	10502
Ġphilipo	10503
waandishi	10504
Ġsaratani	10505
Ġpepeta	10506
Ġmjemas	10507
Ġblack	10508
Ġubinafsishaji	10509
Ġcarlos	10510
Ġkihansi	10511
Ġmarupurupu	10512
Ġzube	10513
Ġsylve	10514
Ġthis	10515
Ġmirathi	10516
Ġmpunga	10517
Ġmdoe	10518
Ġlitakalofanyika	10519
arsenal	10520
Ġkamukara	10521
Ġhilary	10522
Ġkuitikia	10523
Ġlyamuya	10524
orentina	10525
Ġssp	10526
Ġkukumbatia	10527
husiki	10528
mwanzoni	10529
Ġabraham	10530
Ġmombasa	10531
Ġvalencia	10532
Ġolympique	10533
Ġkmkm	10534
Ġukamataji	10535
Ġizuchukwu	10536
sawazishia	10537
Ġsinema	10538
Ġlaurent	10539
Ġjamaica	10540
Ġwaogeleaji	10541
Ġshamhuna	10542
Ġinspekta	10543
Ġmachinjio	10544
Ġstephano	10545
angalie	10546
dh	10547
endani	10548
kha	10549
klia	10550
knolojia	10551
llu	10552
mjumbe	10553
msumbua	10554
nse	10555
op	10556
ot	10557
rch	10558
ski	10559
spika	10560
src	10561
sper	10562
use	10563
Ġngwe	10564
wano	10565
wanyiko	10566
nataka	10567
Ġmnda	10568
Ġmchi	10569
Ġmcho	10570
Ġmgu	10571
Ġmrope	10572
like	10573
Ġwam	10574
Ġwaya	10575
Ġwaga	10576
Ġwachunguzi	10577
Ġwahakikishe	10578
Ġkuju	10579
Ġkufadhili	10580
Ġkunyanya	10581
Ġkupendekeza	10582
Ġkudhalilisha	10583
Ġkudhihirisha	10584
haha	10585
halmashauri	10586
hatma	10587
kaka	10588
kagua	10589
Ġuw	10590
Ġuendele	10591
Ġuislamu	10592
Ġuthibitisho	10593
Ġnadharia	10594
nipa	10595
nisani	10596
hiko	10597
Ġyadi	10598
tanisha	10599
tafakari	10600
Ġaseme	10601
Ġataanza	10602
bay	10603
badhi	10604
ball	10605
ngy	10606
mania	10607
makocha	10608
mazingira	10609
Ġspo	10610
Ġstaka	10611
Ġmango	10612
Ġmafuri	10613
Ġmafia	10614
zambia	10615
ries	10616
kimbiza	10617
zikiwa	10618
Ġkandoka	10619
Ġkaunda	10620
Ġkatakata	10621
Ġkanisani	10622
you	10623
kuingia	10624
Ġihe	10625
jiuliza	10626
huyu	10627
huwezi	10628
side	10629
Ġhadhari	10630
jala	10631
wezo	10632
rami	10633
rard	10634
Ġhiv	10635
Ġhiza	10636
tumeamua	10637
Ġkimo	10638
Ġkimea	10639
Ġkizuizi	10640
Ġkiarabu	10641
fainali	10642
dar	10643
dada	10644
lembo	10645
safari	10646
chambua	10647
shack	10648
Ġalishinda	10649
Ġalirudi	10650
Ġalitoka	10651
Ġalishangazwa	10652
Ġalinukuliwa	10653
mishna	10654
diwani	10655
dirio	10656
Ġkuwajenga	10657
Ġkuwagawa	10658
Ġkuwachunguza	10659
Ġkuwauza	10660
Ġkuwapigia	10661
Ġkuwakumbusha	10662
Ġtai	10663
butu	10664
tete	10665
Ġsikio	10666
Ġsimenti	10667
Ġhufanya	10668
Ġhutoa	10669
Ġlazio	10670
Ġnile	10671
Ġbank	10672
Ġbayi	10673
Ġbalaa	10674
Ġbakh	10675
Ġmiu	10676
Ġmiongo	10677
Ġmizuri	10678
Ġsabuni	10679
piku	10680
ngilia	10681
ngamiza	10682
Ġvipu	10683
Ġvidole	10684
Ġilicha	10685
Ġiliona	10686
Ġilipigwa	10687
Ġilimtaka	10688
Ġilimradi	10689
Ġilianzishwa	10690
Ġilipingwa	10691
Ġwanaa	10692
Ġwanapewa	10693
Ġwanapinga	10694
moko	10695
wis	10696
nguluma	10697
longo	10698
logile	10699
Ġmwange	10700
Ġmollo	10701
Ġex	10702
Ġwaliji	10703
Ġwalibaini	10704
Ġwalikula	10705
Ġwaliwahi	10706
Ġwalitenda	10707
ngefu	10708
resi	10709
rest	10710
rekodi	10711
Ġsert	10712
Ġsevilla	10713
Ġjasiri	10714
Ġlia	10715
Ġzitaanza	10716
vyojua	10717
Ġtupu	10718
Ġtutaa	10719
Ġtufanye	10720
pez	10721
peshwa	10722
Ġmkufunzi	10723
Ġinafahamu	10724
Ġinasikitisha	10725
Ġanacheza	10726
Ġanapenda	10727
Ġanasubiri	10728
zeli	10729
nzilishi	10730
Ġmul	10731
Ġmusi	10732
guli	10733
Ġpango	10734
ndoko	10735
Ġmeshack	10736
Ġrambi	10737
Ġrapha	10738
Ġcpl	10739
Ġwemb	10740
Ġameeleza	10741
Ġamerudi	10742
Ġameingia	10743
Ġamejikuta	10744
Ġkuagwa	10745
vute	10746
Ġkuia	10747
Ġkuibwa	10748
Ġkuishinda	10749
Ġkuiunga	10750
Ġkuiwakilisha	10751
Ġkuikosoa	10752
Ġshingoni	10753
Ġshilogile	10754
Ġkostadi	10755
Ġmbaga	10756
Ġoce	10757
ndege	10758
Ġimecheza	10759
Ġimedaiwa	10760
Ġimetokea	10761
Ġimeona	10762
Ġimepewa	10763
Ġimepiga	10764
Ġimefunga	10765
Ġimekubali	10766
Ġimefanywa	10767
Ġimefikiwa	10768
kwani	10769
Ġwamekosa	10770
Ġwamechukua	10771
Ġwameahidi	10772
Ġakilia	10773
Ġakiona	10774
Ġakiendesha	10775
Ġsalaa	10776
Ġwatakutana	10777
Ġwatalipa	10778
Ġwatalipwa	10779
Ġwatafute	10780
Ġester	10781
Ġkumsaka	10782
Ġkumzomea	10783
Ġkujipa	10784
Ġkujiko	10785
Ġkujiona	10786
nuka	10787
Ġiliyotokana	10788
Ġiliyokutana	10789
Ġiliyochunguza	10790
Ġiliyomfanya	10791
Ġiliyojengeka	10792
Ġwaliom	10793
Ġwalioingia	10794
Ġwaliokaa	10795
Ġwalioshuhudia	10796
Ġmajiji	10797
Ġmajibiza	10798
Ġwakishinda	10799
Ġwakijua	10800
Ġwakishirikiana	10801
Ġwakijiandaa	10802
Ġlewis	10803
inisha	10804
Ġutaifa	10805
Ġafter	10806
Ġunafanywa	10807
Ġunakaribia	10808
Ġterry	10809
Ġtengefu	10810
Ġitapata	10811
Ġitabainika	10812
Ġitabidi	10813
Ġsheha	10814
Ġbenard	10815
Ġkulimaliza	10816
Ġzinafanyika	10817
akithibitisha	10818
Ġnyuklia	10819
Ġsomalia	10820
Ġphile	10821
Ġpsrc	10822
Ġupana	10823
Ġupangaji	10824
Ġmwenyezi	10825
Ġfabia	10826
Ġdee	10827
Ġzilifanyika	10828
Ġhawaoni	10829
Ġkutathimini	10830
Ġumeendelea	10831
Ġaliyefahamika	10832
Ġpendekezo	10833
Ġtorre	10834
wezeshwa	10835
Ġmakutano	10836
Ġmpare	10837
Ġmpambano	10838
Ġwanaoshiriki	10839
Ġwanaokabiliwa	10840
Ġwanaosoma	10841
Ġuliiomba	10842
Ġulizinduliwa	10843
Ġuchambuzi	10844
Ġjembe	10845
Ġrungwe	10846
Ġhakupata	10847
Ġhakutakiwa	10848
Ġhakupenda	10849
Ġhakuwepo	10850
Ġwaangalie	10851
Ġdumila	10852
Ġinayowa	10853
Ġinayofanyika	10854
Ġinayodaiwa	10855
Ġinayotarajiwa	10856
Ġinayolenga	10857
Ġinayotumiwa	10858
Ġmaskani	10859
Ġmakabidhi	10860
Ġmakadirio	10861
Ġbutwaa	10862
Ġmsabaha	10863
Ġdoria	10864
Ġleodegar	10865
Ġkufilisika	10866
Ġtunadhani	10867
vaana	10868
Ġalhaji	10869
Ġkusikika	10870
kariri	10871
vez	10872
Ġmfuasi	10873
Ġatataka	10874
Ġatatumia	10875
Ġatalazimika	10876
Ġuaminifu	10877
Ġhela	10878
Ġhebu	10879
Ġchunya	10880
Ġchurch	10881
Ġalipoanza	10882
Ġalipokutana	10883
Ġalipoingia	10884
rst	10885
cie	10886
Ġzinazomkabili	10887
Ġtumeanza	10888
Ġmalimbiki	10889
punguzia	10890
Ġkuzinduliwa	10891
Ġwasije	10892
Ġludo	10893
Ġluis	10894
pelekewa	10895
Ġkiwandani	10896
fer	10897
Ġgemu	10898
Ġlote	10899
Ġkipande	10900
Ġvyoo	10901
Ġmtagwa	10902
Ġmtawanyiko	10903
Ġngasa	10904
Ġrome	10905
Ġkujadiliana	10906
Ġyussu	10907
Ġmaelewano	10908
Ġvituka	10909
Ġhayaku	10910
Ġkuchapisha	10911
Ġkuletwa	10912
Ġunaoweza	10913
Ġunaotumika	10914
Ġanayetakiwa	10915
Ġanayeshughulikia	10916
Ġkilichofanywa	10917
Ġwakatoliki	10918
Ġkitanda	10919
Ġkitalu	10920
Ġchooni	10921
Ġukawa	10922
Ġukaazi	10923
Ġdida	10924
Ġdizeli	10925
Ġatleti	10926
badilike	10927
tajadiliwa	10928
Ġkueleweka	10929
Ġisivyo	10930
Ġwatakapokuwa	10931
sterbay	10932
Ġkinachorushwa	10933
Ġhatarishi	10934
Ġngombe	10935
Ġhazikuwa	10936
Ġkununulia	10937
Ġkubomoa	10938
Ġkubomolewa	10939
Ġulevi	10940
Ġkulikoni	10941
Ġitakayoshiriki	10942
rtium	10943
Ġzitaendelea	10944
Ġtutawa	10945
rance	10946
Ġmanungu	10947
Ġlinalowezekana	10948
Ġmtaani	10949
Ġwatakaokuwa	10950
Ġkisukari	10951
Ġmwenzako	10952
Ġfrede	10953
mwendesha	10954
heshimika	10955
Ġikashindwa	10956
Ġyataendelea	10957
Ġmasanja	10958
koaji	10959
Ġkuyafanyia	10960
Ġhawakufanya	10961
sabula	10962
Ġlitajwe	10963
nggania	10964
Ġvyuma	10965
Ġyasiyofaa	10966
Ġwalizopewa	10967
Ġmsuguano	10968
Ġuzio	10969
Ġmahiza	10970
Ġwp	10971
Ġwazanzibar	10972
mwanamke	10973
Ġtakriban	10974
Ġcirkovic	10975
Ġmbuna	10976
Ġgodwin	10977
Ġaliagiza	10978
Ġchristine	10979
Ġkijiweni	10980
Ġkubakia	10981
binadamu	10982
Ġwalichofanya	10983
Ġuhalisia	10984
Ġabel	10985
Ġhaitakubali	10986
Ġikiomba	10987
Ġbenson	10988
Ġkuwasihi	10989
Ġsalewi	10990
dorora	10991
Ġnawaomba	10992
Ġurasimu	10993
Ġhiace	10994
Ġsijaona	10995
ploma	10996
Ġkichaa	10997
Ġmasheikh	10998
Ġevarist	10999
Ġkisicho	11000
fundishwa	11001
Ġfunguo	11002
Ġacp	11003
Ġkhatibu	11004
Ġvipodozi	11005
Ġlilian	11006
Ġenterpreneurship	11007
Ġuwiano	11008
Ġbluu	11009
Ġwhitecaps	11010
kinacho	11011
Ġgamaya	11012
Ġmtoano	11013
Ġphar	11014
Ġmakelemo	11015
Ġkombora	11016
Ġitaikaribisha	11017
Ġkimaandishi	11018
lfsburg	11019
thubutu	11020
ltan	11021
Ġmicheweni	11022
Ġmchujo	11023
Ġvisivyo	11024
Ġgreen	11025
Ġkuendekeza	11026
Ġbiblia	11027
Ġportsmo	11028
Ġconsortium	11029
Ġkucheleweshwa	11030
Ġmathare	11031
Ġlugalo	11032
Ġplayers	11033
Ġkukumbuka	11034
Ġngeni	11035
Ġhashim	11036
miniana	11037
Ġjacob	11038
Ġhawaridhiki	11039
Ġnkoma	11040
Ġmmliki	11041
Ġkutaifisha	11042
Ġfernando	11043
Ġzamalek	11044
Ġkuwarubuni	11045
Ġvidonge	11046
Ġmugabe	11047
Ġfarijala	11048
Ġkustawisha	11049
Ġnywele	11050
Ġneider	11051
Ġmndasha	11052
Ġuendelezaji	11053
Ġstakabadhi	11054
Ġmafuriko	11055
Ġkandokando	11056
Ġvipuri	11057
Ġmolloimet	11058
Ġrambirambi	11059
Ġraphael	11060
Ġwembley	11061
Ġmajibizano	11062
Ġphilemon	11063
Ġtorres	11064
Ġmakabidhiano	11065
Ġmalimbikizo	11066
Ġyussuf	11067
Ġatletico	11068
Ġportsmouth	11069
ata	11070
ajali	11071
ela	11072
imba	11073
ikaribisha	11074
lm	11075
lbert	11076
mvu	11077
mjadala	11078
mford	11079
ofisi	11080
sm	11081
sla	11082
spitali	11083
stus	11084
staarabu	11085
uma	11086
umiwa	11087
Ġzungu	11088
Ġngwa	11089
wata	11090
waku	11091
wawakilishi	11092
Ġmlo	11093
Ġmjenga	11094
Ġmtumiaji	11095
Ġmfereji	11096
Ġmdee	11097
limali	11098
Ġwasubiri	11099
Ġwangwe	11100
Ġwabovu	11101
Ġwaelewe	11102
Ġwachukue	11103
Ġwangapi	11104
Ġkunde	11105
Ġkunya	11106
Ġkucheze	11107
yan	11108
halo	11109
halafu	11110
kasi	11111
kagera	11112
Ġufi	11113
Ġumbo	11114
Ġuelekeo	11115
Ġnasi	11116
Ġnanyi	11117
Ġnadra	11118
Ġnasso	11119
Ġnakaaya	11120
nicha	11121
nikiwa	11122
nishwa	11123
Ġyajayo	11124
Ġyafanyike	11125
Ġyakawa	11126
Ġati	11127
maana	11128
manyema	11129
Ġmaina	11130
Ġmasumbu	11131
zawadi	11132
kiki	11133
kizu	11134
nke	11135
Ġkayo	11136
Ġkalo	11137
Ġkatherine	11138
kuhusiana	11139
Ġitu	11140
Ġicheze	11141
jitihada	11142
jishughulisha	11143
hudhuriwa	11144
siliana	11145
sidhani	11146
mbari	11147
ratus	11148
Ġhisani	11149
tuti	11150
tura	11151
tupo	11152
tupwa	11153
Ġkise	11154
Ġkibu	11155
Ġkipu	11156
Ġkidu	11157
Ġkissa	11158
Ġkisanii	11159
tozwa	11160
day	11161
lenia	11162
sawa	11163
changanyikiwa	11164
futia	11165
pangiwa	11166
Ġalijua	11167
Ġalitolewa	11168
Ġalifikia	11169
Ġalitaja	11170
Ġalizidi	11171
Ġalichangia	11172
Ġalipelekwa	11173
Ġalijikuta	11174
Ġalikosea	11175
ming	11176
Ġvua	11177
Ġkuwaruhusu	11178
Ġkuwatetea	11179
Ġkuwafungia	11180
Ġkuwakatisha	11181
Ġkuwachanganya	11182
Ġkuwanufaisha	11183
Ġkuwahudumia	11184
Ġkuwatangazia	11185
Ġkuwafungulia	11186
Ġtaswa	11187
Ġtamati	11188
sere	11189
sehemu	11190
shir	11191
shifu	11192
shindwe	11193
hehebu	11194
Ġzam	11195
tema	11196
teke	11197
ters	11198
tembea	11199
Ġnba	11200
Ġnenda	11201
Ġsioni	11202
Ġsindano	11203
Ġhuweza	11204
Ġhufanywa	11205
neta	11206
neth	11207
Ġbana	11208
Ġbashir	11209
Ġmiwa	11210
Ġmilenia	11211
kotwa	11212
pimwa	11213
Ġchambu	11214
Ġvicha	11215
Ġvitano	11216
chiwe	11217
nocent	11218
Ġilitaka	11219
Ġiliweza	11220
Ġilikata	11221
Ġilifanyika	11222
Ġilitwaa	11223
Ġililenga	11224
Ġwanalo	11225
Ġwanakula	11226
Ġwanazidi	11227
Ġwanategemea	11228
Ġwanauza	11229
Ġwanapambana	11230
moni	11231
ngondo	11232
bondia	11233
bobea	11234
wizara	11235
nguruma	11236
ndizi	11237
ndiko	11238
ndikiza	11239
nyeza	11240
juhudi	11241
Ġkutozingatia	11242
Ġmwaseba	11243
fiji	11244
fidhi	11245
Ġmoris	11246
rushi	11247
Ġeche	11248
Ġemanuel	11249
Ġwalikana	11250
Ġwalishinda	11251
Ġwalitarajia	11252
Ġwalibainika	11253
Ġwalilokuwa	11254
Ġwalipwe	11255
rer	11256
gas	11257
gata	11258
Ġsengondo	11259
beni	11260
Ġjaribio	11261
Ġlisa	11262
Ġzinge	11263
Ġzilio	11264
Ġdhehebu	11265
rojo	11266
Ġkamara	11267
Ġtuwa	11268
Ġtuliwa	11269
Ġtujue	11270
Ġjumbe	11271
Ġjudo	11272
Ġbin	11273
Ġbize	11274
Ġinapenda	11275
Ġanapewa	11276
Ġanaongoza	11277
Ġanamwachia	11278
Ġmulla	11279
Ġmuongozo	11280
gunduzi	11281
dhimu	11282
endo	11283
gemewa	11284
pur	11285
Ġclo	11286
endelezwa	11287
Ġamekwenda	11288
Ġamebaki	11289
Ġamefanikiwa	11290
Ġameuawa	11291
Ġkuathiriwa	11292
vumilia	11293
Ġkuipatia	11294
Ġkuiondoa	11295
Ġkuifundisha	11296
Ġkuilaza	11297
Ġshija	11298
Ġshimbo	11299
Ġkondoa	11300
Ġfri	11301
Ġolimpiki	11302
Ġonyesho	11303
Ġimeba	11304
Ġimetakiwa	11305
Ġimeongeza	11306
Ġimetoka	11307
Ġimeundwa	11308
Ġimekwisha	11309
Ġimezindua	11310
Ġimefuzu	11311
Ġimelda	11312
Ġimedhamiria	11313
Ġmaandiko	11314
kwaana	11315
Ġwamewasili	11316
Ġakishinda	11317
Ġakijua	11318
Ġakieleza	11319
Ġakishirikiana	11320
Ġakipinga	11321
Ġakihojiwa	11322
Ġakitolea	11323
Ġporojo	11324
Ġwatakwenda	11325
Ġwatakuja	11326
Ġkuumwa	11327
Ġkumbi	11328
Ġkumshawishi	11329
Ġkumlinda	11330
Ġkujitangaza	11331
Ġkujiondoa	11332
Ġkujiwekea	11333
Ġkujipima	11334
Ġkujificha	11335
via	11336
nunu	11337
nukuu	11338
Ġiliyocheza	11339
Ġiliyofanywa	11340
Ġiliyosomwa	11341
Ġwaliofariki	11342
Ġwaliojeruhiwa	11343
Ġwaliofukuzwa	11344
Ġwaliosimamishwa	11345
soge	11346
Ġfenicha	11347
Ġwakisha	11348
Ġwakiingia	11349
Ġwakiendesha	11350
Ġwakichangia	11351
tiama	11352
Ġmwizi	11353
Ġkilaini	11354
Ġboko	11355
Ġhoi	11356
Ġhots	11357
Ġutafu	11358
Ġutambulisho	11359
Ġkupindu	11360
Ġunazidi	11361
Ġunafuu	11362
Ġtevez	11363
Ġitaweza	11364
Ġitachezwa	11365
Ġitatajwa	11366
Ġitafikisha	11367
Ġmabanda	11368
Ġkulitaka	11369
Ġkulishughulikia	11370
Ġmarashi	11371
Ġzinatoka	11372
Ġzinatumika	11373
Ġzinatofautiana	11374
akifungua	11375
akihutubia	11376
Ġsote	11377
Ġzilitumika	11378
Ġhawapo	11379
Ġhawafanyi	11380
Ġhawakuwepo	11381
Ġhawapendi	11382
Ġkuhujumu	11383
Ġkuhutubia	11384
Ġkuhudhuriwa	11385
Ġumepata	11386
Ġumekamilika	11387
miana	11388
Ġaliyeshindwa	11389
Ġaliyefunga	11390
Ġwosia	11391
Ġwolfsburg	11392
Ġmataa	11393
Ġmakumba	11394
Ġyalidaiwa	11395
Ġwanaomba	11396
Ġwanaoshindwa	11397
Ġwanaojua	11398
Ġwanaopinga	11399
Ġwanaostahili	11400
Ġwanaopambana	11401
mbie	11402
Ġulipo	11403
Ġrufiji	11404
Ġsunder	11405
Ġsunday	11406
Ġsultan	11407
Ġikiongoza	11408
Ġikipoteza	11409
Ġbilali	11410
Ġkupatwa	11411
shule	11412
Ġduwasa	11413
Ġlilifanya	11414
Ġinayofanya	11415
Ġinayoweza	11416
Ġinayotumika	11417
Ġinayoashiria	11418
Ġbutu	11419
Ġbugu	11420
Ġbutiama	11421
yarishaji	11422
Ġdoa	11423
Ġkufikiri	11424
Ġtunapata	11425
Ġtunatarajia	11426
mwakilishi	11427
mlaumu	11428
Ġkutengenezea	11429
ssam	11430
Ġzilizopigwa	11431
Ġkinatoa	11432
shekhe	11433
Ġrihanna	11434
Ġkimazingira	11435
Ġkimarekani	11436
ves	11437
Ġatarejea	11438
Ġstamford	11439
kilicho	11440
Ġlinakuwa	11441
Ġremtu	11442
Ġfuti	11443
Ġalipofariki	11444
Ġzinazofanya	11445
Ġyaliyosababishwa	11446
Ġwasifanye	11447
Ġdhambi	11448
Ġkiusalama	11449
Ġmkato	11450
Ġlucy	11451
Ġzimeeleza	11452
Ġcon	11453
Ġcole	11454
Ġcoro	11455
Ġwizarani	11456
Ġmitazamo	11457
Ġakawataka	11458
Ġmtangazaji	11459
Ġaliwasili	11460
Ġukidai	11461
Ġngao	11462
Ġvitani	11463
Ġrover	11464
Ġrorya	11465
Ġkutungwa	11466
laziz	11467
Ġlimeendelea	11468
Ġlimetoa	11469
Ġlimetangaza	11470
Ġlimejipanga	11471
Ġkuchapishwa	11472
Ġunaonyesha	11473
Ġanayecheza	11474
Ġanayekwenda	11475
Ġanayesikiliza	11476
Ġmarsh	11477
Ġnyendo	11478
Ġitakuwaje	11479
rejeshwa	11480
Ġkilichom	11481
Ġilivyozoeleka	11482
Ġufukwe	11483
jiriwa	11484
Ġkitaendelea	11485
Ġugaidi	11486
Ġdiana	11487
Ġnemanja	11488
Ġpalepale	11489
Ġnou	11490
Ġinnocent	11491
Ġvyeo	11492
Ġaliipongeza	11493
Ġkushirikishwa	11494
Ġgoti	11495
Ġrb	11496
Ġryan	11497
Ġmajumba	11498
Ġaliyoyapata	11499
Ġmstakabali	11500
Ġkumalizana	11501
Ġkumuenzi	11502
Ġalimweleza	11503
Ġkulaumiwa	11504
Ġwilfred	11505
Ġafricans	11506
Ġnimewa	11507
Ġtulipo	11508
Ġtutashinda	11509
bweteka	11510
kumbukwe	11511
Ġuvumba	11512
hamishia	11513
gawanywa	11514
gawanyika	11515
Ġlinaloweza	11516
alba	11517
Ġwatakaounda	11518
Ġmnadhimu	11519
Ġstesheni	11520
Ġkassia	11521
Ġwachanga	11522
Ġmlandizi	11523
wasilishe	11524
Ġmasawe	11525
Ġsamatta	11526
Ġbarca	11527
nnah	11528
Ġasiwe	11529
Ġkijacho	11530
Ġmakombe	11531
Ġmahututi	11532
Ġkarakana	11533
Ġvinavyoweza	11534
Ġabdulaziz	11535
Ġutakaoanza	11536
Ġutakaochezwa	11537
Ġkitaalam	11538
Ġguru	11539
Ġmsomaji	11540
Ġwalivyofanya	11541
mwanaspoti	11542
shangiliaji	11543
Ġshort	11544
Ġwasamaria	11545
Ġitakapotajwa	11546
Ġmzaha	11547
Ġkijichi	11548
Ġtakadini	11549
Ġchenyenye	11550
safirishwa	11551
Ġnorth	11552
Ġuefa	11553
Ġkumwona	11554
Ġuozo	11555
nyangganya	11556
Ġraul	11557
Ġameagiza	11558
Ġimeandikwa	11559
Ġatakayekuwa	11560
utata	11561
Ġfitina	11562
Ġmwambao	11563
bregas	11564
Ġsamweli	11565
Ġannan	11566
Ġhawatakiwi	11567
Ġmassanja	11568
Ġndulu	11569
Ġkhalij	11570
sambaza	11571
Ġwashirika	11572
fananisha	11573
shtuko	11574
Ġmashekhe	11575
Ġkisiki	11576
patikani	11577
Ġbatilda	11578
Ġanfield	11579
Ġkuhamishia	11580
Ġkujiongezea	11581
Ġentertain	11582
Ġmwenzie	11583
Ġfulsa	11584
mwishoni	11585
Ġmarubeni	11586
Ġkuteketea	11587
Ġnsanze	11588
Ġkufurahia	11589
Ġtibaigana	11590
Ġalimuua	11591
Ġkumtukana	11592
Ġherbert	11593
Ġkinesi	11594
marekani	11595
Ġtamisemi	11596
Ġraymond	11597
Ġtenis	11598
ggs	11599
Ġsound	11600
Ġmafizi	11601
Ġkutawaliwa	11602
Ġkuokolewa	11603
Ġkukaririwa	11604
Ġmakka	11605
Ġsalome	11606
Ġleague	11607
Ġantony	11608
Ġkashililah	11609
mabadiliko	11610
Ġliberatus	11611
Ġjerson	11612
Ġapr	11613
Ġlazaro	11614
Ġkuulizwa	11615
Ġkutumbukia	11616
Ġkuboreshwa	11617
Ġiundwe	11618
Ġevent	11619
Ġplastiki	11620
Ġrecords	11621
maelezo	11622
Ġmeremeta	11623
Ġabdalah	11624
Ġuwongo	11625
Ġkundecha	11626
Ġnassor	11627
Ġmasumbuko	11628
Ġkayombo	11629
Ġkiduchu	11630
Ġchambuso	11631
Ġhotspur	11632
Ġkupindukia	11633
Ġsunderland	11634
Ġentertainment	11635
afisa	11636
agizo	11637
ble	11638
cce	11639
df	11640
dyu	11641
ew	11642
esta	11643
frida	11644
ibwa	11645
lkia	11646
mha	11647
mwezi	11648
mgonjwa	11649
msima	11650
mmy	11651
nchama	11652
ntongo	11653
puaji	11654
rsi	11655
slahi	11656
tna	11657
tche	11658
uru	11659
udha	11660
uwanja	11661
ugonjwa	11662
vji	11663
vyulu	11664
ynamo	11665
zza	11666
Ġchukua	11667
Ġgia	11668
Ġpumzi	11669
waona	11670
waomba	11671
Ġkk	11672
Ġkcc	11673
Ġmnya	11674
Ġmjo	11675
Ġmmea	11676
Ġmlipa	11677
Ġmpelelezi	11678
Ġmzoefu	11679
ling	11680
Ġwaba	11681
Ġwanya	11682
Ġwadaiwa	11683
Ġwakutane	11684
Ġkuwi	11685
Ġkumbana	11686
Ġkuchukulia	11687
Ġkugeuka	11688
Ġkurithi	11689
Ġkuvamiwa	11690
Ġkubanwa	11691
Ġkufyatua	11692
Ġkudorora	11693
Ġkunke	11694
yapo	11695
yatoa	11696
haku	11697
hangaika	11698
kawe	11699
kambi	11700
Ġudogo	11701
Ġuwakili	11702
Ġutumiaji	11703
Ġugunduzi	11704
Ġnako	11705
Ġnaho	11706
Ġnashangaa	11707
Ġnational	11708
nita	11709
nila	11710
ninga	11711
hir	11712
Ġyakini	11713
Ġyamea	11714
Ġyahaya	11715
tahe	11716
tafiti	11717
tasse	11718
takwimu	11719
Ġay	11720
Ġaza	11721
Ġamu	11722
Ġate	11723
Ġarudi	11724
Ġangani	11725
Ġamon	11726
Ġachukuliwe	11727
basi	11728
baliani	11729
nggwa	11730
ngton	11731
malumbano	11732
matatizo	11733
tika	11734
ting	11735
tile	11736
Ġsp	11737
Ġsua	11738
Ġsca	11739
Ġmawi	11740
Ġmache	11741
zana	11742
rizi	11743
riol	11744
kiwe	11745
kivu	11746
kimsingi	11747
laka	11748
zitumia	11749
zirai	11750
Ġkamo	11751
Ġkatende	11752
kumiwa	11753
Ġire	11754
Ġisu	11755
Ġicu	11756
jifanya	11757
sitisha	11758
sien	11759
Ġhaj	11760
Ġhasheem	11761
Ġhill	11762
Ġhilda	11763
tuu	11764
Ġkinda	11765
Ġkizembe	11766
Ġkionekane	11767
Ġkichocheo	11768
Ġkieleweke	11769
faki	11770
faida	11771
toweka	11772
tory	11773
len	11774
sanyika	11775
chal	11776
chafua	11777
sham	11778
Ġalienda	11779
Ġalipigwa	11780
Ġalistahili	11781
Ġalishuhudia	11782
Ġalichelewa	11783
Ġalipigiwa	11784
Ġalizitaka	11785
Ġalisikika	11786
mele	11787
meck	11788
mie	11789
misa	11790
didi	11791
Ġkuwala	11792
Ġkuwashauri	11793
Ġkuwachukua	11794
Ġkuwaonesha	11795
Ġkuwazidi	11796
Ġkuwapokea	11797
Ġkuwajeruhi	11798
Ġkuwatembelea	11799
Ġkuwatahadharisha	11800
Ġkuwakinga	11801
Ġkuwarudishia	11802
Ġtana	11803
Ġtanu	11804
Ġtamaduni	11805
Ġtairi	11806
kesha	11807
sekta	11808
shinde	11809
shitaki	11810
heza	11811
tegemee	11812
Ġnte	11813
Ġsinguluma	11814
Ġhupata	11815
Ġhutolewa	11816
Ġhuchukua	11817
Ġladha	11818
Ġlameck	11819
Ġnisi	11820
Ġnilisha	11821
ney	11822
semary	11823
Ġbad	11824
Ġbate	11825
Ġsan	11826
Ġsajini	11827
kombe	11828
pisho	11829
ndamwa	11830
Ġchanila	11831
Ġvingo	11832
Ġvingu	11833
Ġvichocheo	11834
Ġiliongoza	11835
Ġilipokea	11836
Ġilisawazisha	11837
Ġwanaongoza	11838
Ġwanaruhusiwa	11839
wiji	11840
lomba	11841
julisha	11842
Ġkutopata	11843
Ġkutotoa	11844
Ġkutogombea	11845
Ġkutoridhika	11846
Ġkutofautiana	11847
Ġmwamwa	11848
Ġmoon	11849
Ġeze	11850
Ġemira	11851
Ġwalini	11852
Ġwaliko	11853
Ġwalifikia	11854
Ġwalizidi	11855
Ġwalikuwepo	11856
Ġwaliwasilisha	11857
Ġwalihudhuria	11858
Ġwalisikika	11859
Ġwalisawazisha	11860
remka	11861
Ġserie	11862
Ġjanja	11863
Ġlie	11864
Ġlika	11865
Ġlilianza	11866
Ġzitokana	11867
Ġdynamo	11868
robi	11869
zuoni	11870
Ġtulia	11871
Ġtunu	11872
Ġtulionao	11873
jero	11874
mbow	11875
mbona	11876
pers	11877
chongwa	11878
Ġbil	11879
Ġmkukuta	11880
Ġinaingia	11881
Ġinakuja	11882
Ġinampa	11883
Ġinafuatia	11884
Ġinajivunia	11885
uardo	11886
chukia	11887
Ġanalo	11888
Ġanazungumza	11889
Ġmutaki	11890
Ġmusoma	11891
Ġmuhas	11892
Ġmunse	11893
Ġmuvyulu	11894
Ġmuheza	11895
guni	11896
guvu	11897
dhibu	11898
Ġpazuri	11899
Ġpatasse	11900
Ġpajero	11901
Ġwin	11902
puli	11903
aliyataja	11904
Ġwere	11905
Ġwekundu	11906
Ġjiko	11907
Ġtrc	11908
Ġamepanga	11909
Ġameshika	11910
Ġamemaliza	11911
Ġamepokea	11912
Ġamekataa	11913
Ġameridhika	11914
Ġkuam	11915
Ġkuandikisha	11916
Ġkuashiria	11917
Ġkuangusha	11918
shtua	11919
vuka	11920
Ġkuiko	11921
Ġkuipata	11922
Ġkuiongoza	11923
Ġkuitetea	11924
Ġshivji	11925
Ġkuombea	11926
Ġkuombwa	11927
Ġkomu	11928
Ġkonya	11929
Ġkongs	11930
Ġflu	11931
Ġomba	11932
Ġombe	11933
Ġozoni	11934
ndeu	11935
Ġimetumia	11936
Ġimesaidia	11937
Ġimerejea	11938
Ġimethibitisha	11939
Ġwametu	11940
Ġwamerudi	11941
Ġwamekwenda	11942
Ġwamebaki	11943
Ġwameshika	11944
Ġwamepokea	11945
Ġwamejipanga	11946
Ġwamevamia	11947
Ġwamejikuta	11948
Ġwameridhika	11949
Ġwamepania	11950
Ġakipewa	11951
Ġakichangia	11952
Ġakielezea	11953
Ġakimalizia	11954
Ġakihitimisha	11955
Ġwataona	11956
Ġwatapewa	11957
Ġwataondoka	11958
ishe	11959
Ġesther	11960
Ġessien	11961
Ġkuutumia	11962
Ġkuuona	11963
Ġkuukumbatia	11964
Ġkuunawa	11965
Ġkumteua	11966
Ġkujikimu	11967
Ġkujiletea	11968
Ġkujivua	11969
Ġkujichimbia	11970
vivu	11971
viungo	11972
vier	11973
vinger	11974
Ġiliyopewa	11975
Ġwalioji	11976
Ġwaliokwenda	11977
Ġwalioweka	11978
Ġwaliomaliza	11979
Ġwaliopoteza	11980
Ġwaliohamishwa	11981
solewa	11982
Ġkee	11983
Ġwakim	11984
Ġwakikosa	11985
Ġwakiunga	11986
Ġwakipewa	11987
Ġwakifika	11988
Ġwakisisitiza	11989
Ġwakihofia	11990
Ġmahala	11991
Ġwaombole	11992
Ġmwiba	11993
kwea	11994
Ġbosco	11995
Ġhossam	11996
Ġutatolewa	11997
Ġutahusu	11998
wona	11999
Ġunaonekana	12000
Ġtec	12001
Ġitatolewa	12002
Ġitatokea	12003
Ġitaleta	12004
Ġitawasaidia	12005
Ġbetwe	12006
Ġkulitumia	12007
Ġkulitekeleza	12008
Ġkulijadili	12009
Ġgambia	12010
Ġkilipo	12011
Ġhatamu	12012
Ġhataweza	12013
Ġkufutia	12014
Ġzinatolewa	12015
Ġzinaeleza	12016
akitolea	12017
Ġsok	12018
Ġsofia	12019
Ġsocie	12020
Ġpra	12021
Ġpte	12022
Ġaust	12023
Ġfahamu	12024
Ġder	12025
Ġmashati	12026
Ġziliko	12027
Ġzilidai	12028
Ġzilipatikana	12029
Ġkutabiri	12030
Ġkuhukumiwa	12031
Ġumeshindwa	12032
Ġumezidi	12033
Ġumethibitisha	12034
Ġumelenga	12035
Ġaliyedai	12036
Ġaliyesababisha	12037
Ġaliyejitokeza	12038
Ġaliyekufa	12039
Ġaliyejiunga	12040
Ġaliyetambulika	12041
Ġpeop	12042
Ġpersi	12043
ngiaji	12044
onewa	12045
ndula	12046
Ġmwembamba	12047
Ġchikawe	12048
Ġulitakiwa	12049
Ġulitokea	12050
Ġuliibuka	12051
Ġulipuaji	12052
Ġkunakuwa	12053
Ġrussia	12054
Ġsuma	12055
Ġsungu	12056
Ġsupers	12057
Ġhakufahamu	12058
Ġgrume	12059
Ġikisema	12060
Ġikidaiwa	12061
Ġikipinga	12062
Ġmwanawe	12063
Ġmwanalanga	12064
Ġkupakia	12065
Ġkupakua	12066
Ġkupasua	12067
bishaniwa	12068
Ġlilifika	12069
Ġuliokuwepo	12070
Ġyanaonekana	12071
Ġinayotaka	12072
Ġinayowafanya	12073
Ġbumbuli	12074
Ġbulembo	12075
Ġdozi	12076
Ġshangwe	12077
Ġshambani	12078
vala	12079
mlalami	12080
Ġkutesa	12081
Ġkuteremka	12082
Ġkusiko	12083
Ġusanii	12084
Ġzilizotengwa	12085
Ġjoe	12086
Ġjola	12087
Ġkimaslahi	12088
Ġmfugaji	12089
Ġataweka	12090
Ġatawasili	12091
Ġstan	12092
Ġhailingani	12093
Ġhaipaswi	12094
Ġlinamshikilia	12095
Ġresi	12096
Ġreja	12097
cen	12098
Ġalipofanya	12099
Ġnyatahe	12100
Ġzinazofanyika	12101
Ġzinazotumika	12102
Ġzinazohusika	12103
Ġmchambuzi	12104
Ġkuzifanyia	12105
Ġwasifaulu	12106
Ġkuran	12107
Ġkiutawala	12108
Ġyonna	12109
Ġyork	12110
Ġmkango	12111
Ġzimetakiwa	12112
Ġzimekuja	12113
Ġzimefungwa	12114
Ġzimefikia	12115
ckson	12116
fessa	12117
Ġlongi	12118
Ġloiti	12119
Ġlopez	12120
Ġkuporomoka	12121
Ġnguvuni	12122
Ġprodyu	12123
Ġfiorentina	12124
Ġfitna	12125
Ġyanayofanyika	12126
Ġyanayotokea	12127
Ġmtakuwa	12128
Ġmtares	12129
Ġaliwasilisha	12130
Ġndossa	12131
Ġrosemary	12132
Ġunion	12133
Ġkutuhumiwa	12134
Ġkutupilia	12135
Ġkutumbuiza	12136
Ġlimesababisha	12137
Ġkuchangisha	12138
Ġbm	12139
Ġanayekabiliwa	12140
Ġlililoanza	12141
Ġlililowasilishwa	12142
Ġmarco	12143
Ġkutilia	12144
Ġkukusanyika	12145
Ġuhasibu	12146
Ġilivyofanya	12147
Ġmaonyesho	12148
Ġwakafanya	12149
Ġwakatumia	12150
Ġukamili	12151
Ġdio	12152
Ġnuru	12153
Ġvinapaswa	12154
Ġumahiri	12155
farijika	12156
Ġinland	12157
Ġmgambo	12158
Ġkilema	12159
Ġkilevi	12160
Ġvuguvu	12161
Ġnyoso	12162
Ġnyorobi	12163
Ġkuoneshwa	12164
Ġmboga	12165
Ġjw	12166
Ġgodoro	12167
Ġisije	12168
Ġkinachoweza	12169
Ġkimera	12170
Ġkimeeleza	12171
Ġhazipo	12172
uzinduzi	12173
Ġaliyotoa	12174
Ġhatutakuwa	12175
Ġalimpiga	12176
Ġalimfuata	12177
Ġraslimali	12178
Ġnimepata	12179
Ġmsemwa	12180
Ġkalinga	12181
Ġvilipatikana	12182
Ġtulizo	12183
Ġeduardo	12184
Ġtutapata	12185
Ġtutaweza	12186
tunataka	12187
tunaomba	12188
Ġmachoni	12189
rehekea	12190
Ġkuingiwa	12191
Ġlinalohitaji	12192
Ġwalipokea	12193
Ġmtaala	12194
Ġmnatakiwa	12195
Ġmfanyabishara	12196
Ġfredy	12197
Ġmagendo	12198
Ġkukosoa	12199
Ġkukosolewa	12200
Ġfoot	12201
Ġwaliyojiwekea	12202
Ġyatawasaidia	12203
Ġkumesababisha	12204
Ġlikitokea	12205
Ġwahamiaji	12206
Ġmaira	12207
Ġmhadhiri	12208
Ġkuwaangalia	12209
Ġkuwaamuru	12210
Ġmrithi	12211
Ġmrindoko	12212
Ġlukuki	12213
Ġvinavyotakiwa	12214
kipigo	12215
Ġhawajalipwa	12216
Ġtraders	12217
Ġvyuoni	12218
kebishwa	12219
Ġpembezoni	12220
Ġmsumari	12221
furahia	12222
Ġhamid	12223
Ġmahindra	12224
Ġgire	12225
Ġgiggs	12226
Ġkurejeshewa	12227
Ġzitakazofanyika	12228
shangiliwa	12229
Ġlabriol	12230
Ġameieleza	12231
Ġameiomba	12232
Ġgodfrida	12233
Ġwanapopata	12234
Ġkuliandama	12235
Ġitakapokutana	12236
Ġtreika	12237
Ġmashuhuri	12238
Ġjeneza	12239
Ġpunda	12240
Ġkuzalishwa	12241
Ġkipentekoste	12242
Ġalichokuwa	12243
Ġanapokosea	12244
Ġkumwombea	12245
Ġkumwokoa	12246
Ġkumwondoa	12247
Ġimeandaa	12248
utaratibu	12249
Ġaweke	12250
vilevile	12251
Ġkalenda	12252
Ġitifaki	12253
brecen	12254
Ġrwehumbiza	12255
Ġmanase	12256
kaijage	12257
Ġhaujawahi	12258
Ġkuchuana	12259
Ġwashindani	12260
Ġmakene	12261
Ġsamson	12262
Ġkuwajibishwa	12263
Ġteams	12264
Ġmpigachapa	12265
Ġkwimba	12266
Ġtuangalie	12267
Ġusingizini	12268
Ġsarafu	12269
Ġmgongolwa	12270
Ġsmz	12271
Ġkiwelu	12272
Ġwaitara	12273
Ġenterpri	12274
Ġcarling	12275
Ġkuzoro	12276
Ġkihalali	12277
Ġalikokuwa	12278
Ġmakwao	12279
Ġmunishi	12280
Ġonesho	12281
Ġkumtuhumu	12282
Ġtamimu	12283
Ġkurubuni	12284
Ġchaligha	12285
mtibwa	12286
Ġxa	12287
Ġukiona	12288
Ġmaficho	12289
Ġhabib	12290
Ġabubakari	12291
Ġgerrard	12292
Ġrwambow	12293
Ġwarsha	12294
Ġulianzishwa	12295
Ġmandeu	12296
Ġmandela	12297
Ġkigundula	12298
Ġsadik	12299
Ġbrela	12300
jjah	12301
Ġelekezi	12302
Ġkusherehekea	12303
Ġkubishana	12304
Ġutotoni	12305
Ġspaso	12306
Ġkuwacharaza	12307
Ġtanzanite	12308
telekeza	12309
Ġchampion	12310
Ġkujilimbikizia	12311
Ġanaumwa	12312
Ġgeofrey	12313
Ġhitilafu	12314
someka	12315
Ġlugonzo	12316
Ġjongowe	12317
Ġmlundwa	12318
Ġpazzy	12319
Ġfabian	12320
Ġfrederick	12321
Ġpharma	12322
Ġkuchezewa	12323
msimamizi	12324
Ġmjomba	12325
Ġyakinifu	12326
Ġazania	12327
Ġscania	12328
Ġkamote	12329
Ġisunto	12330
didimia	12331
Ġvingozi	12332
Ġvingunguti	12333
Ġmwamwaja	12334
Ġemirates	12335
Ġzitokanazo	12336
Ġmunseri	12337
Ġkonyagi	12338
Ġkongsvinger	12339
Ġwaombolezaji	12340
Ġsociedad	12341
Ġpeople	12342
Ġpersie	12343
Ġsupersport	12344
Ġgrumeti	12345
mlalamikia	12346
Ġloitinggye	12347
Ġprodyuza	12348
Ġvuguvugu	12349
Ġfootball	12350
Ġlabriolle	12351
bs	12352
crati	12353
engua	12354
ffe	12355
fran	12356
hco	12357
ire	12358
ijua	12359
iland	12360
mtoa	12361
mshinda	12362
mzito	12363
nzwa	12364
ok	12365
pc	12366
tka	12367
un	12368
uje	12369
ude	12370
ushahidi	12371
ywe	12372
ysterbay	12373
Ġ1	12374
Ġfan	12375
Ġfanya	12376
wau	12377
wakuta	12378
wart	12379
wakala	12380
watanzania	12381
Ġkri	12382
navyo	12383
nashangaa	12384
Ġmru	12385
Ġmlezi	12386
Ġmswada	12387
limba	12388
litaka	12389
Ġwal	12390
Ġwas	12391
Ġwani	12392
Ġwacheza	12393
Ġwadai	12394
Ġwalewa	12395
Ġwashu	12396
Ġwabaki	12397
Ġwaseme	12398
Ġkuzungu	12399
Ġkusemwa	12400
Ġkughari	12401
Ġkushikwa	12402
Ġkudharau	12403
Ġkufadhiliwa	12404
Ġkuvaana	12405
Ġkudidimia	12406
hamisha	12407
kabi	12408
kagawa	12409
Ġusema	12410
Ġunge	12411
Ġutia	12412
Ġutumike	12413
Ġumalizia	12414
Ġurithi	12415
Ġnamanga	12416
Ġnakagawa	12417
nigeria	12418
Ġyapi	12419
Ġyassi	12420
Ġyatokee	12421
tal	12422
tamasha	12423
Ġae	12424
Ġaku	12425
Ġahu	12426
Ġafu	12427
Ġadi	12428
Ġanti	12429
Ġahiri	12430
Ġacheze	12431
Ġander	12432
Ġaonekane	12433
Ġajiandae	12434
bai	12435
badala	12436
mame	12437
magari	12438
mabomu	12439
tius	12440
Ġmame	12441
Ġmaro	12442
Ġmakata	12443
Ġmallya	12444
kile	12445
kinde	12446
ladi	12447
lando	12448
laam	12449
ndy	12450
Ġkaguo	12451
Ġkanzu	12452
yomba	12453
yosisi	12454
kufu	12455
kusema	12456
kuwemo	12457
Ġidri	12458
Ġiruhusu	12459
Ġianzi	12460
jiza	12461
jiweza	12462
huna	12463
hura	12464
simi	12465
simo	12466
sitiza	12467
sitishwa	12468
wekewa	12469
ranga	12470
raco	12471
Ġhichi	12472
tuki	12473
tuhuma	12474
Ġkiche	12475
Ġkishu	12476
Ġkimiti	12477
faidika	12478
shakamilika	12479
Ġalitua	12480
Ġalihisi	12481
Ġalipanda	12482
Ġalikufa	12483
Ġalizindua	12484
Ġalisimama	12485
Ġaliishukuru	12486
mezi	12487
miri	12488
mize	12489
mily	12490
mue	12491
muda	12492
dinga	12493
diria	12494
Ġvladi	12495
Ġkuwate	12496
Ġkuwaongoza	12497
Ġkuwaendeleza	12498
Ġkuwadhibiti	12499
Ġkuwasajili	12500
Ġkuwachagua	12501
Ġkuwarudisha	12502
Ġkuwavutia	12503
Ġkuwahamisha	12504
Ġtanki	12505
shindani	12506
hembe	12507
Ġncha	12508
Ġnju	12509
Ġsir	12510
Ġsipendi	12511
Ġsirro	12512
Ġsimoni	12513
Ġhuanza	12514
Ġhusaidia	12515
Ġniwe	12516
Ġnicho	12517
nela	12518
Ġbahi	12519
Ġbadra	12520
Ġbakora	12521
Ġbakha	12522
Ġmizi	12523
Ġmida	12524
Ġmizito	12525
Ġmille	12526
Ġmilele	12527
Ġsabi	12528
kozi	12529
pitwa	12530
ndarasi	12531
ngaa	12532
ngai	12533
ngatiwa	12534
Ġchato	12535
hospitali	12536
Ġvilio	12537
Ġvitokana	12538
now	12539
novemba	12540
Ġilizo	12541
Ġilishiriki	12542
Ġililala	12543
Ġilijibu	12544
Ġilikubaliana	12545
Ġiliondoka	12546
Ġilitajwa	12547
Ġwanatu	12548
Ġwanaanza	12549
Ġwanakutana	12550
Ġwanaweka	12551
Ġwanakuja	12552
Ġwanafahamu	12553
Ġwanadhani	12554
Ġwanachangia	12555
Ġwanajipanga	12556
Ġwanaangalia	12557
Ġwanafamilia	12558
Ġwanataaluma	12559
Ġwananchama	12560
mocrati	12561
bosi	12562
wila	12563
wizi	12564
ndiyo	12565
ndishwa	12566
nyeme	12567
lous	12568
chel	12569
chezi	12570
Ġkutoi	12571
Ġkutofauti	12572
Ġkutopewa	12573
Ġkutofuata	12574
Ġkutoruhusu	12575
fii	12576
fishwa	12577
rupuka	12578
Ġwalijua	12579
Ġwalifungwa	12580
Ġwalitarajiwa	12581
Ġwalibadili	12582
Ġwalikufa	12583
Ġwalilalamika	12584
Ġwalitembelea	12585
Ġwalipigana	12586
ngenye	12587
ren	12588
ream	12589
gan	12590
Ġseke	12591
Ġsegera	12592
Ġsemku	12593
Ġselous	12594
gongwa	12595
bendera	12596
Ġtit	12597
Ġjaphe	12598
Ġjarida	12599
Ġlilo	12600
Ġdan	12601
Ġdamas	12602
Ġdayosisi	12603
Ġzika	12604
Ġziwani	12605
Ġzitumike	12606
Ġddc	12607
Ġdream	12608
zushi	12609
Ġtunda	12610
Ġtunge	12611
Ġtutaanza	12612
Ġjusti	12613
Ġjustine	12614
perushi	12615
Ġbig	12616
Ġbimani	12617
Ġinashinda	12618
Ġinawali	12619
Ġinaibuka	12620
Ġinajitahidi	12621
Ġinatosha	12622
Ġinamilikiwa	12623
uar	12624
chumba	12625
Ġanaingia	12626
Ġanalazimika	12627
Ġanamiliki	12628
Ġanaonyesha	12629
Ġanapinga	12630
Ġanatambua	12631
Ġanaitwa	12632
Ġanatafuta	12633
Ġanakubalika	12634
liane	12635
Ġmuwe	12636
Ġmuso	12637
gumizi	12638
dhimishwa	12639
Ġpar	12640
Ġpaka	12641
Ġmer	12642
Ġmedia	12643
Ġmeela	12644
gezi	12645
gesho	12646
alimtaka	12647
alizitaja	12648
Ġrada	12649
Ġrage	12650
Ġrasirimali	12651
Ġrahco	12652
Ġcd	12653
Ġcct	12654
Ġwepesi	12655
Ġjiulize	12656
Ġpiga	12657
Ġameshinda	12658
Ġameona	12659
Ġameongeza	12660
Ġamesisitiza	12661
Ġameshangazwa	12662
Ġamejeruhiwa	12663
Ġameumia	12664
Ġamekanusha	12665
Ġamepania	12666
Ġkuamuliwa	12667
Ġkuangaliwa	12668
shtaki	12669
vuna	12670
vurugu	12671
Ġkuifuta	12672
Ġkuipeleka	12673
Ġkuigawa	12674
Ġkuiuza	12675
Ġkuidhinishwa	12676
Ġkuongezewa	12677
Ġkoto	12678
yumbi	12679
Ġoa	12680
Ġour	12681
Ġoysterbay	12682
Ġodinga	12683
riani	12684
ndenga	12685
ndengenye	12686
Ġimekwenda	12687
Ġimekaa	12688
Ġimebeba	12689
Ġimewasilisha	12690
Ġimetinga	12691
Ġimekiuka	12692
mbeli	12693
Ġwatumwa	12694
kamatwe	12695
Ġsabasaba	12696
Ġwamekiri	12697
Ġwamepanda	12698
Ġwamesikitishwa	12699
Ġwamechoka	12700
Ġmbilinyi	12701
Ġakifunga	12702
Ġakituhumiwa	12703
Ġakitajwa	12704
Ġakilalamika	12705
Ġakiichezea	12706
Ġpoda	12707
patazo	12708
dou	12709
gie	12710
Ġwatatakiwa	12711
Ġwatajitahidi	12712
zungumze	12713
Ġkuutangaza	12714
Ġkumtaja	12715
Ġkumtetea	12716
Ġkumsimamisha	12717
Ġkumnasa	12718
Ġkumdhuru	12719
Ġkumkimbiza	12720
Ġkujipe	12721
Ġkujitambulisha	12722
Ġiliyojengwa	12723
Ġwalioa	12724
Ġwaliotaka	12725
Ġwalioitwa	12726
Ġwaliotembelea	12727
Ġwaliojiandikisha	12728
Ġwakiomba	12729
Ġwakienda	12730
Ġwakihoji	12731
Ġwakiondoka	12732
Ġlebo	12733
Ġlembeli	12734
Ġmahadhi	12735
Ġmwiko	12736
Ġbohari	12737
Ġhodi	12738
Ġhodari	12739
Ġutamalizika	12740
Ġutapeli	12741
Ġutapunguza	12742
Ġkupingana	12743
Ġunam	12744
Ġunadaiwa	12745
Ġunakuja	12746
Ġunapokuwa	12747
Ġunachangia	12748
Ġunategemea	12749
Ġunamalizika	12750
Ġunasababishwa	12751
nyani	12752
Ġtendo	12753
Ġitataka	12754
Ġitaibuka	12755
Ġitaumana	12756
Ġwazidi	12757
Ġshea	12758
Ġkulimwa	12759
Ġkulieleza	12760
Ġgabon	12761
Ġkufunika	12762
bariki	12763
lisisitiza	12764
Ġnyuzi	12765
Ġsoda	12766
kiongezeka	12767
Ġdeus	12768
Ġdebrecen	12769
Ġdemocrati	12770
Ġmashairi	12771
Ġziliki	12772
kataza	12773
Ġkutafiti	12774
Ġkutambulika	12775
Ġumefanya	12776
Ġumehifadhiwa	12777
Ġaliyefanya	12778
Ġaliyepewa	12779
Ġpendo	12780
Ġtown	12781
bainishwa	12782
Ġkusabisha	12783
onekani	12784
Ġmweka	12785
Ġmwemezi	12786
Ġzola	12787
john	12788
Ġyalijitokeza	12789
Ġchingy	12790
Ġwanaoi	12791
Ġwanaopata	12792
Ġwanaodhani	12793
Ġwanaofundisha	12794
Ġwanaosadikiwa	12795
mbile	12796
Ġulingo	12797
Ġkunasa	12798
walidai	12799
Ġrudi	12800
Ġsun	12801
Ġhakubaliani	12802
Ġgwari	12803
Ġguar	12804
Ġhakija	12805
Ġikishiriki	12806
Ġikitarajiwa	12807
Ġikisubiri	12808
Ġikielezwa	12809
Ġikitumiwa	12810
Ġikijiandaa	12811
Ġwaamini	12812
Ġduru	12813
Ġdukani	12814
Ġlilisema	12815
Ġlilitoa	12816
Ġuliobaki	12817
Ġuliowekwa	12818
Ġulionekana	12819
Ġinayotakiwa	12820
Ġinayotumia	12821
Ġinayoanza	12822
Ġinayozalisha	12823
Ġinayoonesha	12824
Ġinayohusika	12825
Ġinayopatikana	12826
Ġinayoendeshwa	12827
Ġinayoshughulikia	12828
Ġmsalala	12829
Ġtunakutana	12830
Ġtunapenda	12831
Ġtunaambiwa	12832
Ġkukau	12833
mwandama	12834
Ġkutengwa	12835
Ġkutengenezwa	12836
Ġkutendeka	12837
Ġkipilimba	12838
Ġzilizoshiriki	12839
Ġkinatarajiwa	12840
Ġmaegesho	12841
rakano	12842
Ġjona	12843
Ġridhi	12844
ratiba	12845
ratisha	12846
Ġkimasai	12847
Ġmfumuko	12848
Ġatachukua	12849
ziara	12850
Ġhaiko	12851
Ġlinawa	12852
Ġlinapo	12853
Ġlinachangiwa	12854
Ġfull	12855
Ġhemed	12856
Ġalipotembelea	12857
cision	12858
Ġaron	12859
Ġzinazosababisha	12860
Ġzinazohitajika	12861
Ġzinazomwandama	12862
Ġwakunga	12863
Ġwakubali	12864
Ġtumeshuhudia	12865
Ġtumejiandaa	12866
Ġtumeambiwa	12867
Ġkuzipata	12868
Ġkuziuza	12869
Ġkuzinduka	12870
Ġkuzingatiwa	12871
Ġyaliyowasilishwa	12872
can	12873
Ġlude	12874
Ġluisi	12875
Ġzimeshindwa	12876
Ġzimetumika	12877
Ġzimesalia	12878
cky	12879
Ġcosta	12880
kaongeza	12881
Ġkuporwa	12882
Ġmreno	12883
Ġfive	12884
Ġarthu	12885
Ġakashindwa	12886
Ġakasisitiza	12887
Ġakaahidi	12888
Ġyanayotumiwa	12889
Ġmtafiti	12890
Ġmtakatifu	12891
Ġujangili	12892
Ġchembe	12893
Ġukifika	12894
Ġukienda	12895
meandikwa	12896
Ġroad	12897
maaskofu	12898
Ġkutupi	12899
Ġkutumwa	12900
Ġkutumaini	12901
kanisa	12902
Ġlimezidi	12903
story	12904
Ġunaotokana	12905
Ġbweni	12906
Ġmaboma	12907
Ġmabosi	12908
Ġanayem	12909
Ġanayesadikiwa	12910
Ġlililoko	12911
Ġkuvumilia	12912
Ġkukupa	12913
Ġkukumbana	12914
Ġkukurupuka	12915
Ġwalau	12916
Ġuhandisi	12917
rejeshwe	12918
Ġkilichoko	12919
Ġmatuta	12920
Ġwakaamua	12921
Ġkitambaa	12922
Ġyametolewa	12923
Ġmtera	12924
Ġdimba	12925
Ġdipri	12926
Ġdismas	12927
Ġkupunguziwa	12928
Ġath	12929
Ġatraco	12930
Ġpalestina	12931
Ġsawasawa	12932
Ġinve	12933
Ġcag	12934
Ġcaps	12935
Ġaliitwa	12936
Ġaliitisha	12937
Ġaliisawazishia	12938
Ġnyombi	12939
Ġkimeshindwa	12940
Ġngonyani	12941
Ġhazitoshi	12942
Ġaliyofanya	12943
Ġhatupo	12944
Ġkishawishi	12945
Ġtabianchi	12946
kezana	12947
Ġalimpa	12948
Ġalimkuta	12949
Ġthailand	12950
mwita	12951
Ġukomo	12952
Ġukoloni	12953
haribiwa	12954
Ġninayo	12955
Ġnimewahi	12956
Ġmsekela	12957
Ġzikifanya	12958
Ġtutatoa	12959
Ġtutahakikisha	12960
umeme	12961
Ġajiunge	12962
Ġuvujaji	12963
Ġuvumilivu	12964
Ġwakilipwa	12965
sante	12966
Ġkuingiliwa	12967
Ġlinaloendelea	12968
Ġwalipoteza	12969
Ġkulipatia	12970
Ġwasiojiweza	12971
Ġstendi	12972
Ġmilangoni	12973
Ġmaghembe	12974
ondokane	12975
Ġkukopeshwa	12976
rahaman	12977
Ġkufaulu	12978
Ġfounda	12979
Ġwaliyofanya	12980
Ġmasanduku	12981
Ġkuyapatia	12982
Ġkumwandikia	12983
Ġkumetokana	12984
Ġhawakutaka	12985
Ġhaijatoa	12986
Ġkuhitimisha	12987
Ġkitillya	12988
Ġmhazini	12989
ahidiwa	12990
Ġkumbuka	12991
Ġkuchota	12992
Ġkuchoshwa	12993
ifungia	12994
theo	12995
tumeona	12996
Ġnitahakikisha	12997
uds	12998
Ġinavyotakiwa	12999
Ġabdulrahaman	13000
Ġkunipa	13001
Ġwalivyonavyo	13002
Ġgiven	13003
Ġgirls	13004
Ġamewaonya	13005
mwanachama	13006
mwanafunzi	13007
Ġzitakazopatikana	13008
rouk	13009
ngalifu	13010
Ġmwaisabula	13011
Ġkususia	13012
Ġkusudio	13013
Ġwanayopata	13014
Ġwanayoipata	13015
Ġmadirisha	13016
Ġprogram	13017
Ġkiev	13018
Ġkiemba	13019
Ġwasafiri	13020
Ġzimamoto	13021
Ġitakapomalizika	13022
Ġusiokuwa	13023
Ġusiojulikana	13024
Ġmatangalu	13025
Ġhaikuweza	13026
Ġalichofanya	13027
Ġalichokifanya	13028
Ġushirikina	13029
Ġwanavyofanya	13030
Ġwanavyotaka	13031
Ġimeahirishwa	13032
danganyiki	13033
Ġwakianza	13034
gency	13035
Ġmanaibu	13036
Ġtaswira	13037
Ġndungu	13038
Ġkuchukizwa	13039
Ġmjamzito	13040
Ġnawab	13041
Ġsampuli	13042
shtuka	13043
Ġmashehe	13044
Ġaugustine	13045
Ġdiallo	13046
Ġkabambe	13047
Ġulimwenguni	13048
Ġanajipendekeza	13049
Ġninachotaka	13050
Ġisraeli	13051
Ġkupumua	13052
Ġduara	13053
Ġmauritius	13054
Ġwamisri	13055
Ġinternation	13056
Ġwaikizu	13057
Ġgloria	13058
Ġprecision	13059
Ġimejiwekea	13060
Ġzuhura	13061
Ġkibonde	13062
Ġmollel	13063
Ġmabaraza	13064
Ġkufurahisha	13065
Ġmagogoni	13066
Ġudiwani	13067
Ġtimotheo	13068
Ġkurushiana	13069
Ġkutibua	13070
Ġkabongo	13071
Ġishindwe	13072
Ġkuwaumiza	13073
Ġwakiimba	13074
Ġutakapokamilika	13075
Ġmisuli	13076
Ġburkina	13077
haiwezekani	13078
Ġkigugumizi	13079
Ġkivuko	13080
Ġkupandishwa	13081
Ġmajukwaa	13082
Ġsaimon	13083
Ġviatu	13084
Ġkuambulia	13085
ruhusiwe	13086
ruhusiwi	13087
Ġmanyanyaso	13088
Ġkwingineko	13089
lipino	13090
Ġkushtukiza	13091
Ġvipaumbele	13092
Ġquens	13093
Ġvalentino	13094
Ġmorris	13095
Ġmimosas	13096
Ġuholanzi	13097
Ġifunda	13098
Ġkizani	13099
Ġmaharage	13100
Ġrwilomba	13101
Ġmumbala	13102
Ġkujisalimisha	13103
Ġukodishaji	13104
Ġkigendi	13105
Ġbidco	13106
Ġsombetini	13107
Ġgwabi	13108
Ġproject	13109
Ġmwakyoma	13110
Ġkunyanyaswa	13111
sident	13112
Ġbakhresa	13113
Ġkalou	13114
Ġkissasi	13115
Ġzamzam	13116
fidhina	13117
Ġclouds	13118
Ġutafutaji	13119
Ġbuguruni	13120
Ġremtullah	13121
Ġcorolla	13122
Ġmnyaa	13123
misaada	13124
Ġkeenja	13125
Ġkusikojulikana	13126
Ġlongido	13127
Ġmafichoni	13128
ujenzi	13129
udence	13130
Ġwalewale	13131
Ġkugharimia	13132
kabiliana	13133
Ġusemao	13134
Ġutiaji	13135
Ġumaliziaji	13136
Ġahueni	13137
Ġafunge	13138
Ġahirisho	13139
Ġanderson	13140
Ġkishujaa	13141
Ġvladimir	13142
Ġnjuga	13143
Ġbakharesa	13144
Ġvitokanavyo	13145
Ġkutofautisha	13146
Ġjaphet	13147
Ġmusonye	13148
Ġdemocratic	13149
Ġgwaride	13150
Ġarthur	13151
Ġkutumainiwa	13152
Ġdiprivan	13153
Ġfoundation	13154
ab	13155
af	13156
atu	13157
aga	13158
ars	13159
anze	13160
athiri	13161
bli	13162
bbie	13163
cla	13164
elimu	13165
ens	13166
fda	13167
fle	13168
ira	13169
isa	13170
ice	13171
iwakilisha	13172
kna	13173
kshi	13174
lc	13175
lko	13176
lbe	13177
mna	13178
mlo	13179
mchukua	13180
mpeni	13181
mmiliki	13182
mtafuta	13183
mchagua	13184
mmeh	13185
msimamo	13186
ncha	13187
nje	13188
nson	13189
njwe	13190
oga	13191
ombea	13192
ogope	13193
onyeshwa	13194
pco	13195
ples	13196
sye	13197
trea	13198
ujumbe	13199
umiza	13200
ujio	13201
wship	13202
xon	13203
zya	13204
Ġdili	13205
Ġtokea	13206
Ġbwawa	13207
wako	13208
wakiwa	13209
wazazi	13210
watumishi	13211
washambuliaji	13212
Ġkli	13213
nachi	13214
nacho	13215
naamini	13216
Ġmnge	13217
Ġmgi	13218
Ġmshtuko	13219
Ġmnigeria	13220
lis	13221
liti	13222
Ġwambu	13223
Ġwalala	13224
Ġwabaya	13225
Ġwapelelezi	13226
Ġwajenge	13227
Ġwaingie	13228
Ġwafungaji	13229
Ġwamarekani	13230
Ġkuda	13231
Ġkundu	13232
Ġkukatika	13233
Ġkuketi	13234
Ġkuhisi	13235
Ġkusudi	13236
Ġkusumbuliwa	13237
Ġkuripotiwa	13238
Ġkuburu	13239
Ġkuzoea	13240
Ġkulalamikiwa	13241
Ġkuzuiwa	13242
Ġkudhuru	13243
Ġkudhoofisha	13244
Ġkugeuza	13245
Ġkuwezeshwa	13246
Ġkuendelezwa	13247
han	13248
hatuna	13249
kada	13250
kaduguda	13251
kampeni	13252
Ġubwa	13253
Ġuenda	13254
Ġureje	13255
Ġuwaziri	13256
Ġuuzwa	13257
Ġuswi	13258
Ġustadi	13259
Ġnaza	13260
Ġnation	13261
Ġnatumaini	13262
nifu	13263
hizi	13264
hindi	13265
Ġyawezekana	13266
Ġyangeweza	13267
Ġyataanza	13268
tatua	13269
Ġane	13270
Ġaju	13271
Ġazima	13272
Ġacheni	13273
Ġasamehe	13274
Ġayou	13275
baba	13276
bato	13277
banda	13278
bakwa	13279
mala	13280
machi	13281
maisha	13282
mazungumzo	13283
matukio	13284
tii	13285
ticho	13286
ticia	13287
Ġskimu	13288
Ġmataka	13289
Ġmabisha	13290
Ġmatinga	13291
Ġmariam	13292
Ġmabwawa	13293
riri	13294
kindwa	13295
kiel	13296
law	13297
zimia	13298
Ġkalla	13299
Ġkagoda	13300
Ġkansa	13301
yoo	13302
kuza	13303
kuzi	13304
kuto	13305
kubwa	13306
kufanya	13307
kusanywa	13308
Ġil	13309
Ġiji	13310
Ġize	13311
Ġinde	13312
Ġishe	13313
Ġitende	13314
Ġifike	13315
Ġitolewe	13316
jinia	13317
jitegemea	13318
jiuzulu	13319
sio	13320
Ġhap	13321
Ġhale	13322
Ġhahitaji	13323
Ġharry	13324
Ġhanzu	13325
ral	13326
raem	13327
Ġhimi	13328
Ġhilla	13329
Ġhijja	13330
Ġhirizi	13331
tuka	13332
tuzo	13333
Ġkinywa	13334
Ġkishiwa	13335
Ġkizinga	13336
Ġkiburi	13337
faru	13338
bida	13339
biye	13340
bibu	13341
biria	13342
lete	13343
lengi	13344
sadia	13345
safisha	13346
furika	13347
Ġaliki	13348
Ġalikata	13349
Ġalibadili	13350
Ġaligundua	13351
Ġalihojiwa	13352
Ġalikabidhi	13353
Ġalitembelea	13354
Ġaliteuliwa	13355
Ġalitamka	13356
Ġalidaka	13357
mike	13358
muua	13359
mudu	13360
muomba	13361
Ġkuwachangia	13362
Ġkuwamaliza	13363
Ġkuwatuma	13364
Ġkuwatafuta	13365
Ġkuwashambulia	13366
Ġkuwaingiza	13367
Ġkuwatendea	13368
Ġkuwatishia	13369
Ġkuwajali	13370
Ġkuwawakilisha	13371
Ġkuwasafirisha	13372
Ġkuwapunguzia	13373
Ġtafakari	13374
kes	13375
kera	13376
sendeu	13377
shimba	13378
Ġzaka	13379
Ġzaina	13380
tere	13381
teria	13382
teseka	13383
teknolojia	13384
tegemewa	13385
zowa	13386
Ġnel	13387
Ġnshamba	13388
Ġnkindwa	13389
Ġnzowa	13390
polewa	13391
potea	13392
poaji	13393
potosha	13394
pokelewa	13395
Ġsiko	13396
Ġsiamini	13397
Ġsizini	13398
Ġsilva	13399
Ġsikinde	13400
Ġhufariki	13401
Ġhukaa	13402
Ġhutengenezwa	13403
Ġlaana	13404
Ġlady	13405
Ġlamada	13406
Ġlaize	13407
Ġninge	13408
Ġningekuwa	13409
Ġnimeamua	13410
Ġnilisikia	13411
neza	13412
Ġban	13413
Ġbata	13414
Ġband	13415
Ġbalta	13416
Ġmili	13417
Ġmiro	13418
Ġminde	13419
Ġmilio	13420
Ġmigumu	13421
Ġmihayo	13422
Ġmirefu	13423
Ġmikiki	13424
koba	13425
kolewa	13426
kosekana	13427
pinda	13428
ngie	13429
ngingi	13430
ndavi	13431
Ġchambo	13432
Ġchawala	13433
Ġvivu	13434
Ġviet	13435
Ġview	13436
Ġvifaru	13437
Ġilizi	13438
Ġilitumia	13439
Ġiliomba	13440
Ġiliwasili	13441
Ġiliendeshwa	13442
Ġilizindua	13443
Ġilitinga	13444
Ġilikiuka	13445
Ġilianzia	13446
Ġilibadilika	13447
Ġwanaye	13448
Ġwanakosa	13449
Ġwanaamua	13450
Ġwanapenda	13451
Ġwanashirikiana	13452
Ġwanaibuka	13453
Ġwanakaa	13454
Ġwanahisi	13455
Ġwanasoma	13456
Ġwanahofia	13457
Ġwanasumbuliwa	13458
Ġwanapatiwa	13459
moud	13460
boni	13461
boga	13462
wishika	13463
ngukia	13464
lod	13465
cheka	13466
chembe	13467
Ġkutoza	13468
Ġkutoendelea	13469
Ġkutofungwa	13470
Ġkutochukuliwa	13471
Ġkutotekeleza	13472
Ġkutojiandikisha	13473
Ġmwali	13474
Ġmwama	13475
Ġmwasika	13476
Ġmoru	13477
Ġmoga	13478
Ġmobile	13479
rufani	13480
Ġeli	13481
Ġwalijibu	13482
Ġwalipiga	13483
Ġwalisababisha	13484
Ġwalikubali	13485
Ġwaliamini	13486
Ġwaliwataka	13487
Ġwalirejea	13488
Ġwaligoma	13489
Ġwalivamia	13490
Ġwaliifunga	13491
rekea	13492
real	13493
gai	13494
gawana	13495
Ġserika	13496
Ġsebas	13497
bendi	13498
Ġtino	13499
Ġjavier	13500
Ġjammeh	13501
Ġliweze	13502
Ġday	13503
Ġziliwa	13504
Ġzikio	13505
Ġdna	13506
Ġdho	13507
rod	13508
Ġtutaji	13509
Ġtushinde	13510
jee	13511
Ġjumba	13512
Ġjuliana	13513
dhatiti	13514
Ġinatia	13515
Ġinarudi	13516
Ġinapiga	13517
Ġinawataka	13518
Ġinamiliki	13519
Ġinatekeleza	13520
Ġinaleta	13521
Ġinashikilia	13522
Ġinafuatilia	13523
Ġinadhihirisha	13524
Ġanaunga	13525
Ġanafaa	13526
Ġanadhani	13527
Ġanatamba	13528
Ġanajali	13529
nzisha	13530
Ġmuhidi	13531
Ġmukoba	13532
Ġpawa	13533
Ġpaki	13534
Ġpanda	13535
Ġmeatu	13536
aliitaka	13537
Ġracka	13538
Ġcc	13539
Ġmwakale	13540
Ġtt	13541
Ġtch	13542
Ġtdl	13543
Ġtfda	13544
Ġpiki	13545
Ġpingu	13546
Ġametaka	13547
Ġamefika	13548
Ġameonekana	13549
Ġamefunga	13550
Ġameenda	13551
Ġamekuja	13552
Ġamefungwa	13553
Ġametoka	13554
Ġamelazimika	13555
Ġamepigwa	13556
Ġamerejea	13557
Ġamefungua	13558
Ġamechaguliwa	13559
Ġameteuliwa	13560
Ġamezitaka	13561
Ġamepachika	13562
Ġkuapa	13563
Ġkuajili	13564
Ġkuaminiana	13565
Ġkuipe	13566
Ġkuivu	13567
Ġkuizungumzia	13568
Ġkuitambua	13569
Ġkuirudisha	13570
Ġkuimarishwa	13571
Ġkuoana	13572
Ġkuotea	13573
Ġkoda	13574
Ġmbaraka	13575
Ġoda	13576
Ġobc	13577
Ġogana	13578
Ġimeweza	13579
Ġimeeleza	13580
Ġimewasili	13581
Ġimeimarisha	13582
Ġimezipata	13583
mber	13584
mbeba	13585
mbezi	13586
mbero	13587
Ġwametaka	13588
Ġwamebaini	13589
Ġwameunga	13590
Ġwameenda	13591
Ġwamelazimika	13592
Ġwametangaza	13593
Ġwamekataa	13594
Ġwameruhusiwa	13595
luteni	13596
Ġakiji	13597
Ġakihusika	13598
Ġakifafanua	13599
Ġakionyesha	13600
Ġakikataa	13601
Ġakikabidhi	13602
Ġakiitaka	13603
Ġakikanusha	13604
Ġmkoni	13605
Ġmkopi	13606
Ġmkosaji	13607
Ġwatachukua	13608
Ġwataweka	13609
Ġwatachukuliwa	13610
Ġwatapanda	13611
njaji	13612
Ġkuudhi	13613
Ġkuuzima	13614
Ġkuunganishwa	13615
Ġkumpenda	13616
Ġkumshinikiza	13617
Ġkumchukulia	13618
Ġkumsikiliza	13619
Ġkumkatisha	13620
Ġkumpisha	13621
Ġkumpitisha	13622
Ġkumtaarifu	13623
Ġkujifua	13624
Ġkujifunga	13625
Ġkujihami	13626
Ġkujisahau	13627
Ġkujijengea	13628
Ġkujinyakulia	13629
Ġkujifurahisha	13630
vick	13631
vindavi	13632
nus	13633
Ġiliyokwenda	13634
Ġiliyowafanya	13635
Ġiliyosalia	13636
Ġiliyoachwa	13637
Ġiliyochongwa	13638
mbulio	13639
mbuliwa	13640
Ġwalioshindwa	13641
Ġwalioanza	13642
Ġwalioomba	13643
Ġwalioonekana	13644
Ġwaliohojiwa	13645
Ġwaliosaini	13646
Ġwaliotangulia	13647
Ġwaliohitimu	13648
Ġwaliobobea	13649
Ġmajitaka	13650
Ġmajivu	13651
Ġmajigambo	13652
sotho	13653
Ġhaliwezekani	13654
Ġfesto	13655
Ġfello	13656
Ġwakichukua	13657
Ġwakiona	13658
Ġwakiweka	13659
Ġwakilalamika	13660
Ġwakitafuta	13661
Ġwakishangilia	13662
Ġtaabu	13663
Ġlesotho	13664
Ġmahasimu	13665
tial	13666
Ġwaongeze	13667
Ġmwinuka	13668
Ġboma	13669
Ġutahusisha	13670
Ġunasema	13671
Ġunatoa	13672
Ġunahitaji	13673
Ġunatoka	13674
Ġthelu	13675
Ġtemboni	13676
Ġitaona	13677
Ġitakuja	13678
Ġitatumika	13679
Ġitalazimika	13680
Ġitazidi	13681
Ġitaongozwa	13682
Ġitaondoka	13683
Ġitatangazwa	13684
Ġitasikilizwa	13685
Ġsheki	13686
Ġmabalozi	13687
dul	13688
Ġkulipu	13689
Ġkulifikisha	13690
Ġkulipua	13691
Ġmarando	13692
Ġmarais	13693
inaelezwa	13694
Ġkutoandikwa	13695
Ġgali	13696
Ġgalla	13697
Ġgasper	13698
Ġgaudence	13699
Ġgapco	13700
Ġkilidai	13701
Ġkufuru	13702
Ġkufutiwa	13703
Ġbarafu	13704
Ġzinaa	13705
Ġzinahitaji	13706
Ġzinafanywa	13707
Ġzinapatikana	13708
akikabidhi	13709
akisimulia	13710
Ġsolo	13711
Ġsoud	13712
Ġpct	13713
Ġfaso	13714
Ġfatma	13715
Ġfabregas	13716
Ġfamily	13717
Ġmashangingi	13718
Ġzilitawala	13719
Ġhawam	13720
Ġhawatoi	13721
Ġhawapewi	13722
Ġhawadanganyiki	13723
Ġkutanda	13724
Ġkutatanisha	13725
Ġumeisha	13726
Ġumeibuka	13727
Ġumemalizika	13728
Ġumegharimu	13729
Ġumegubikwa	13730
Ġaliyesema	13731
Ġaliyeanza	13732
Ġaliyeonekana	13733
Ġaliyekamatwa	13734
Ġaliyesajiliwa	13735
Ġpea	13736
Ġpep	13737
Ġtour	13738
Ġtossi	13739
Ġmatamasha	13740
Ġmwela	13741
deni	13742
Ġyalivyo	13743
Ġyalitolewa	13744
Ġyalifanywa	13745
Ġyalikamatwa	13746
Ġyalipelekwa	13747
Ġmpana	13748
Ġmpangaji	13749
minika	13750
Ġwanaosema	13751
Ġwanaofika	13752
Ġwanaotarajiwa	13753
Ġwanaovunja	13754
Ġwanaowania	13755
hakimu	13756
Ġulifanywa	13757
Ġulikwama	13758
Ġkunawa	13759
walidaiwa	13760
Ġruth	13761
Ġrubin	13762
Ġruninga	13763
Ġhakutoa	13764
Ġgk	13765
Ġikipata	13766
Ġikisisitiza	13767
Ġikishirikiana	13768
Ġmwanaye	13769
Ġmwanariadha	13770
Ġwaandamana	13771
Ġdully	13772
Ġnguza	13773
Ġlilipatikana	13774
Ġliliwekwa	13775
Ġuliotokea	13776
Ġuliofuata	13777
Ġulioandaliwa	13778
Ġuliokithiri	13779
Ġkuwemo	13780
Ġyanatokea	13781
Ġinayotokana	13782
Ġinayojulikana	13783
Ġmakabra	13784
Ġmakamishna	13785
Ġbunyago	13786
Ġdokezo	13787
Ġhapaswi	13788
Ġkufichua	13789
Ġtunapo	13790
Ġtunakuwa	13791
Ġtunacheza	13792
Ġshavu	13793
Ġshangazi	13794
Ġshambulio	13795
vae	13796
val	13797
Ġkutele	13798
Ġkusindikiza	13799
Ġkipingu	13800
Ġzilizotokana	13801
Ġkinafanyika	13802
Ġkinapiga	13803
Ġkinafuata	13804
sheheni	13805
ratika	13806
Ġkimashindano	13807
Ġataweza	13808
Ġatashinda	13809
Ġatafikishwa	13810
Ġatawasilisha	13811
Ġuadui	13812
Ġstaples	13813
Ġlinafanya	13814
Ġlinadaiwa	13815
Ġlinaonekana	13816
Ġmpito	13817
fikishe	13818
Ġhelko	13819
Ġchunusi	13820
Ġalipopata	13821
Ġalipokwenda	13822
Ġalipoteza	13823
Ġalipofikishwa	13824
Ġnyarugu	13825
Ġnjiapanda	13826
Ġzinazokabili	13827
Ġzinazotarajiwa	13828
Ġzinazopatikana	13829
Ġzinazoingizwa	13830
Ġwakufunzi	13831
Ġtumefanya	13832
Ġtumejipanga	13833
Ġtumechoka	13834
Ġmalick	13835
Ġkuzitoa	13836
Ġkuziona	13837
Ġkuzisaidia	13838
stal	13839
anaeleza	13840
mbiana	13841
Ġwasipate	13842
Ġsaalam	13843
cation	13844
Ġkiuta	13845
Ġyono	13846
Ġmkaa	13847
Ġmkaba	13848
peleke	13849
Ġzimetolewa	13850
Ġzimeonesha	13851
Ġzimetoka	13852
Ġget	13853
Ġkuponya	13854
Ġmadata	13855
Ġmadabida	13856
Ġfid	13857
Ġartuma	13858
Ġarboga	13859
Ġakae	13860
Ġakadai	13861
Ġakaona	13862
Ġakaomba	13863
Ġakaonekana	13864
Ġyanayotakiwa	13865
Ġyanayodaiwa	13866
Ġyanayoingia	13867
Ġyanayotarajiwa	13868
Ġyanayoikabili	13869
Ġmtama	13870
Ġaliwaomba	13871
Ġujamaa	13872
shirikiane	13873
Ġukingoni	13874
Ġvitakuwa	13875
Ġndoo	13876
Ġmtiro	13877
Ġkutusaidia	13878
mann	13879
Ġlimetolewa	13880
Ġlimechukua	13881
Ġhayato	13882
Ġhayaendani	13883
stone	13884
Ġkukinusuru	13885
ktaba	13886
Ġunaoitwa	13887
Ġunaotumiwa	13888
Ġunaobeba	13889
Ġkufuati	13890
Ġkufuatiwa	13891
Ġbrewe	13892
Ġmabovu	13893
Ġmabondeni	13894
fahamisha	13895
Ġanayependa	13896
Ġanayetambuliwa	13897
Ġmarlaw	13898
Ġmaganda	13899
Ġkutishiwa	13900
Ġkutikisa	13901
Ġkukusanywa	13902
Ġnyeupe	13903
ondolewa	13904
Ġkilichoelezwa	13905
Ġhatihati	13906
Ġmatumbo	13907
Ġllc	13908
Ġwakashindwa	13909
Ġkitafanya	13910
Ġkitanzi	13911
Ġkitamaduni	13912
Ġnilipata	13913
Ġbasilio	13914
Ġugali	13915
Ġukali	13916
Ġukaribu	13917
Ġyametokea	13918
Ġyamekuja	13919
Ġyamepangwa	13920
Ġtangawizi	13921
Ġvinatakiwa	13922
Ġnewala	13923
Ġkusimamiwa	13924
Ġkupigakura	13925
Ġnosa	13926
Ġinjinia	13927
Ġmgawe	13928
Ġmgando	13929
Ġmafupi	13930
Ġkuelekezwa	13931
ilika	13932
ilikuwa	13933
Ġkimepata	13934
ntsy	13935
Ġaliyoyafanya	13936
Ġwakorofi	13937
ingilie	13938
ridhia	13939
ngwea	13940
Ġmichakato	13941
Ġkumueleza	13942
Ġkumuoa	13943
Ġalimshambulia	13944
Ġalimwomba	13945
Ġmitamboni	13946
rican	13947
Ġitakayowasaidia	13948
Ġwilly	13949
nski	13950
Ġukomavu	13951
ndikano	13952
Ġhauku	13953
Ġninaweza	13954
Ġninaona	13955
Ġjosepha	13956
Ġedgar	13957
Ġjunior	13958
Ġmanumba	13959
Ġuvunjaji	13960
hamie	13961
Ġlinalochangia	13962
Ġwalipoanza	13963
Ġubadhili	13964
Ġubakaji	13965
Ġkutokuwashwa	13966
Ġwatakaofanya	13967
Ġmnataka	13968
laiti	13969
Ġwasiofaa	13970
Ġwafungwe	13971
Ġkandanda	13972
Ġmwenzangu	13973
Ġhuwafanya	13974
Ġkilolo	13975
Ġkilombero	13976
less	13977
Ġmlage	13978
Ġmlangoni	13979
Ġmageti	13980
Ġfoster	13981
Ġfood	13982
Ġforest	13983
Ġwaliyopewa	13984
wakil	13985
wakizungumzia	13986
Ġmasilahi	13987
Ġupembuzi	13988
Ġupekuzi	13989
ghai	13990
Ġmasaa	13991
Ġkuyaweka	13992
Ġbarcla	13993
diola	13994
Ġmawalla	13995
Ġwauza	13996
Ġwauzaji	13997
Ġmakofi	13998
Ġhawakupata	13999
Ġhawakutakiwa	14000
Ġwahafidhina	14001
Ġkikawa	14002
Ġkarashani	14003
bidhiwa	14004
Ġaliokoa	14005
Ġagombee	14006
Ġyusufu	14007
Ġilipopata	14008
wajibisha	14009
Ġtrans	14010
llen	14011
llemon	14012
Ġzitakapo	14013
alipohojiwa	14014
Ġkusambaa	14015
vyanzo	14016
kadir	14017
Ġinavyofanya	14018
Ġabdulwakil	14019
Ġabdulkadir	14020
Ġwho	14021
kilango	14022
Ġgida	14023
tendewa	14024
Ġzitakazochukuliwa	14025
Ġnku	14026
Ġdharula	14027
pendent	14028
Ġhawataweza	14029
Ġmadina	14030
Ġkigali	14031
Ġgolini	14032
jadiliwe	14033
Ġkugomea	14034
Ġangependa	14035
Ġmarudio	14036
Ġkiapo	14037
Ġkiafrika	14038
Ġnikawa	14039
Ġwanapoona	14040
Ġcenter	14041
Ġkucheka	14042
Ġalizocheza	14043
Ġalizotoa	14044
Ġpubli	14045
Ġkuzagaa	14046
Ġmshirika	14047
Ġmshituko	14048
Ġalichodai	14049
Ġwanachoki	14050
Ġwanachotakiwa	14051
dential	14052
Ġinakuwaje	14053
Ġkubakwa	14054
Ġwalichokuwa	14055
Ġuoga	14056
Ġuopoaji	14057
Ġkunyofo	14058
Ġabeneth	14059
Ġkuvitaka	14060
Ġbenz	14061
Ġlyatuu	14062
Ġflorence	14063
Ġaziza	14064
Ġhaviwezi	14065
Ġnecta	14066
Ġmathayo	14067
Ġndugai	14068
Ġinawafikia	14069
Ġnggenda	14070
samaki	14071
Ġushuhuda	14072
Ġwaliwaeleza	14073
Ġmwajiriwa	14074
Ġtunduru	14075
Ġplay	14076
Ġkikiendelea	14077
Ġkichaka	14078
Ġvipeperushi	14079
Ġberbato	14080
Ġlawrance	14081
Ġminane	14082
Ġbatili	14083
Ġndabila	14084
Ġndavindavi	14085
Ġkwisha	14086
Ġkupeana	14087
tangazo	14088
Ġtuanze	14089
Ġninachoweza	14090
Ġshooting	14091
Ġkuwatuliza	14092
Ġiliandika	14093
Ġwhich	14094
waliohukumiwa	14095
Ġmzimu	14096
Ġmziray	14097
Ġsarah	14098
Ġanamfanyia	14099
Ġkuwahimiza	14100
Ġnicolas	14101
Ġmuuzaji	14102
Ġimejidhatiti	14103
Ġwaliiambia	14104
Ġkufurahishwa	14105
Ġtpc	14106
Ġnilipopata	14107
wakera	14108
Ġkushambuliana	14109
tofautina	14110
Ġtuliyonayo	14111
Ġukiachana	14112
Ġjamal	14113
karatasi	14114
Ġyalionekana	14115
Ġhabibu	14116
Ġhafidh	14117
Ġthie	14118
Ġalilofanya	14119
Ġkuwauzia	14120
Ġephraem	14121
Ġwameapa	14122
Ġndlovu	14123
Ġatajinyakulia	14124
Ġalishawahi	14125
Ġmputu	14126
Ġmahsusi	14127
Ġmachungwa	14128
Ġtunachotaka	14129
Ġpromotion	14130
eneza	14131
Ġgizani	14132
Ġvisanduku	14133
Ġbible	14134
Ġaliyemtaja	14135
Ġkuchelewesha	14136
mchakato	14137
Ġsadiki	14138
Ġkumuingiza	14139
Ġkumwingiza	14140
Ġmgeule	14141
Ġmwombaji	14142
Ġkubenea	14143
Ġagnes	14144
Ġmionzi	14145
Ġkuiongezea	14146
Ġpolice	14147
Ġpoliticia	14148
Ġbukuku	14149
Ġqueens	14150
Ġvalentine	14151
Ġkarimjee	14152
Ġphillemon	14153
Ġafande	14154
Ġbadae	14155
Ġkumkashifu	14156
Ġjeremiah	14157
Ġlilimkariri	14158
Ġmdahalo	14159
Ġkuzuilika	14160
Ġkasuke	14161
Ġtutakapo	14162
Ġkuachiana	14163
Ġfletche	14164
Ġkumtapeli	14165
Ġuliiambia	14166
Ġassenga	14167
Ġupotoshaji	14168
Ġswiden	14169
Ġscholes	14170
Ġcranes	14171
maandamano	14172
Ġniliyonayo	14173
Ġzuberi	14174
Ġsylvester	14175
Ġmgulani	14176
Ġkujutia	14177
Ġmulticho	14178
Ġludovick	14179
ferguson	14180
Ġngwalima	14181
wakulima	14182
Ġkisesa	14183
Ġvuai	14184
Ġkkkt	14185
Ġmlipakodi	14186
Ġwanyancha	14187
Ġnahoda	14188
Ġamulike	14189
Ġhajj	14190
miembeni	14191
Ġkuwalaghai	14192
Ġezekiel	14193
Ġsumatra	14194
Ġstanley	14195
Ġresidential	14196
Ġbmt	14197
Ġyassin	14198
Ġsabinusi	14199
Ġguardiola	14200
knapp	14201
Ġmngeta	14202
Ġwambura	14203
Ġkunduchi	14204
Ġuuzwaji	14205
Ġnazareth	14206
Ġanelka	14207
Ġajuza	14208
Ġasamehewe	14209
Ġayoub	14210
Ġmabishano	14211
Ġkallaghe	14212
Ġizechukwu	14213
Ġindependent	14214
Ġishengoma	14215
Ġhanzuruni	14216
Ġhimid	14217
Ġhillary	14218
Ġnelson	14219
Ġnkindwabiye	14220
Ġlaizer	14221
Ġbaltazar	14222
Ġmirontsy	14223
Ġvietnam	14224
Ġmoruwasa	14225
Ġsebastian	14226
Ġtchc	14227
Ġfellowship	14228
Ġwaandamanaji	14229
Ġmakabrasha	14230
Ġbunyagongo	14231
Ġnyarugusu	14232
Ġartumas	14233
Ġarbogast	14234
Ġbreweries	14235
Ġjosephat	14236
Ġubadhilifu	14237
Ġbarclays	14238
Ġberbatov	14239
Ġpolitician	14240
Ġfletcher	14241
Ġmultichoice	14242
au	14243
az	14244
ache	14245
ajili	14246
ach	14247
apri	14248
agizwa	14249
bby	14250
cus	14251
dongo	14252
eeh	14253
gri	14254
gby	14255
itoa	14256
itakuwa	14257
ikumba	14258
lga	14259
mpata	14260
msaidia	14261
mtaja	14262
mkamata	14263
mshtakiwa	14264
mvua	14265
ncy	14266
odi	14267
och	14268
ongezea	14269
ppo	14270
rm	14271
rwanda	14272
sbon	14273
tti	14274
tsu	14275
tter	14276
utaka	14277
ufisadi	14278
uonesha	14279
xtile	14280
yp	14281
yt	14282
Ġqua	14283
Ġzui	14284
wal	14285
wadogo	14286
wagonjwa	14287
waita	14288
wataalamu	14289
Ġkw	14290
Ġkhadi	14291
nabas	14292
Ġmhu	14293
Ġmme	14294
Ġmcheza	14295
Ġmvi	14296
Ġmendeleo	14297
Ġmch	14298
Ġmkweli	14299
Ġmshanga	14300
Ġmsukosuko	14301
Ġmhalifu	14302
Ġmkinga	14303
lingu	14304
lingana	14305
livia	14306
Ġwan	14307
Ġwawa	14308
Ġwamu	14309
Ġwaongo	14310
Ġwatoke	14311
Ġwater	14312
Ġwaco	14313
Ġwaendesha	14314
Ġwasemaji	14315
Ġwajukuu	14316
Ġwajiandae	14317
Ġwadudu	14318
Ġwachumba	14319
Ġwakamatwe	14320
Ġkukati	14321
Ġkulio	14322
Ġkulewa	14323
Ġkubinafsi	14324
Ġkujengeka	14325
Ġkukubaliwa	14326
Ġkupelekewa	14327
Ġkubweteka	14328
Ġkukesha	14329
Ġkukwea	14330
Ġkugawana	14331
Ġkuyt	14332
yale	14333
hassa	14334
haruna	14335
kaza	14336
kayi	14337
karibu	14338
kauti	14339
Ġunye	14340
Ġufanya	14341
Ġusu	14342
Ġunya	14343
Ġuhitaji	14344
Ġuchwa	14345
Ġufike	14346
Ġubel	14347
Ġnatakiwa	14348
Ġnajaribu	14349
Ġnashukuru	14350
Ġnafta	14351
Ġnawapongeza	14352
Ġnancy	14353
nio	14354
hisha	14355
himili	14356
hispania	14357
taza	14358
tabia	14359
Ġaj	14360
Ġaua	14361
Ġash	14362
Ġaone	14363
Ġajue	14364
Ġagusti	14365
Ġachilia	14366
Ġarejee	14367
Ġashindwe	14368
Ġandengenye	14369
madi	14370
mamia	14371
mashahidi	14372
mabeki	14373
tishe	14374
Ġsg	14375
Ġswa	14376
Ġsse	14377
Ġmac	14378
Ġmaili	14379
Ġmaridhi	14380
Ġmayanga	14381
Ġmashuka	14382
kinda	14383
lari	14384
laki	14385
zike	14386
zipo	14387
zikutanisha	14388
Ġkasulu	14389
Ġkazan	14390
Ġkatura	14391
kupitia	14392
Ġinzi	14393
Ġifaha	14394
Ġikaa	14395
Ġingeweza	14396
Ġitumie	14397
Ġijadiliwe	14398
Ġkwaajili	14399
jibika	14400
jitosheleza	14401
huduma	14402
wewe	14403
wende	14404
weed	14405
mbaro	14406
ralia	14407
rald	14408
tumbu	14409
tuliwa	14410
tusaidia	14411
Ġkito	14412
Ġkibi	14413
Ġkifi	14414
Ġkiria	14415
Ġkizungu	14416
Ġkichama	14417
Ġkinyo	14418
Ġkipenzi	14419
Ġkifanyike	14420
Ġkibinadamu	14421
Ġkimbari	14422
bit	14423
binti	14424
sambamba	14425
chane	14426
chadema	14427
shafanyika	14428
shavin	14429
pato	14430
pandwa	14431
pambano	14432
Ġalitu	14433
Ġaliunga	14434
Ġalitarajiwa	14435
Ġalipeleka	14436
Ġalitajwa	14437
Ġalifungua	14438
Ġalijaribu	14439
Ġalijitahidi	14440
Ġalilazwa	14441
Ġalivunja	14442
Ġalikemea	14443
Ġaligundulika	14444
Ġaliniambia	14445
Ġalijitambulisha	14446
Ġaliyataja	14447
mizwa	14448
mijadala	14449
mume	14450
munyange	14451
dishu	14452
Ġkuwaunga	14453
Ġkuwafanyia	14454
Ġkuwachapa	14455
Ġkuwanggoa	14456
Ġkuwahifadhi	14457
Ġkuwasumbua	14458
Ġkuwahadharisha	14459
Ġkuwasimamisha	14460
Ġkuwakwamua	14461
Ġkuwatimua	14462
Ġkuwarejesha	14463
Ġkuwapuuza	14464
Ġkuwajulisha	14465
Ġkuwawajibisha	14466
Ġtara	14467
Ġtambo	14468
Ġtandika	14469
sesha	14470
semea	14471
buche	14472
shitaka	14473
teja	14474
tesa	14475
tenge	14476
teze	14477
tengewa	14478
telaiti	14479
Ġnende	14480
poa	14481
Ġsimko	14482
Ġhushindwa	14483
Ġhujitokeza	14484
Ġhujui	14485
Ġhutumiwa	14486
Ġhull	14487
Ġhulka	14488
Ġlaa	14489
Ġlala	14490
Ġlahisi	14491
Ġnipe	14492
Ġniende	14493
neti	14494
nese	14495
Ġbaka	14496
Ġmithi	14497
Ġmiwani	14498
Ġmizinga	14499
Ġmiriam	14500
Ġmining	14501
Ġmitsu	14502
Ġsar	14503
Ġsanga	14504
Ġsaru	14505
Ġsakina	14506
pick	14507
ndawili	14508
ngasa	14509
Ġchano	14510
Ġchango	14511
Ġchaneta	14512
hofii	14513
Ġviza	14514
Ġvifu	14515
Ġvinye	14516
Ġvitaka	14517
Ġvibaka	14518
Ġvibanda	14519
Ġilikosa	14520
Ġilichukua	14521
Ġilitarajia	14522
Ġilitarajiwa	14523
Ġilionyesha	14524
Ġilimaliza	14525
Ġilituma	14526
Ġilijikuta	14527
Ġilifikiwa	14528
Ġilikwama	14529
Ġiligundulika	14530
Ġwanali	14531
Ġwanashiriki	14532
Ġwanabaki	14533
Ġwanaendesha	14534
Ġwanamaji	14535
Ġwanamtaka	14536
Ġwanatekeleza	14537
Ġwanalinda	14538
Ġwanaunda	14539
Ġwanakusudia	14540
movic	14541
nguni	14542
ndins	14543
chezwe	14544
jumuiya	14545
Ġkutokwa	14546
Ġkutoshiriki	14547
Ġkutojua	14548
Ġkutofikia	14549
Ġkutopatikana	14550
Ġkutokubaliana	14551
Ġkutoridhishwa	14552
Ġkutorudia	14553
fanywe	14554
Ġmwadilifu	14555
Ġmwafrika	14556
Ġmwaminifu	14557
Ġmwarami	14558
fichwa	14559
Ġmora	14560
Ġmoven	14561
Ġmosco	14562
ruru	14563
Ġeno	14564
Ġenyi	14565
Ġelisha	14566
Ġwalirudi	14567
Ġwaliweka	14568
Ġwalifanyiwa	14569
Ġwalikua	14570
Ġwalishuhudia	14571
Ġwaligundua	14572
Ġwalijipanga	14573
Ġwalishangazwa	14574
Ġwalijeruhiwa	14575
Ġwaliuawa	14576
Ġwaliungana	14577
Ġwalikusanya	14578
Ġwalianzisha	14579
Ġwalitumwa	14580
Ġwalitibiwa	14581
reno	14582
rekebishwa	14583
Ġbwanausi	14584
Ġser	14585
Ġsemi	14586
Ġsekayi	14587
gongana	14588
kiwanda	14589
beya	14590
Ġtic	14591
Ġtitus	14592
Ġjambia	14593
Ġlindoni	14594
Ġlitaanza	14595
Ġlisbon	14596
Ġdampo	14597
Ġzito	14598
Ġzinduka	14599
rondins	14600
vyombo	14601
vyoweza	14602
Ġtumbi	14603
Ġtukubali	14604
Ġtupate	14605
Ġturuka	14606
Ġturiani	14607
Ġtushirikiane	14608
jet	14609
Ġjuisi	14610
peo	14611
chotakiwa	14612
Ġinachukua	14613
Ġinapewa	14614
Ġinahusika	14615
Ġinalazimika	14616
Ġinaruhusu	14617
Ġinajulikana	14618
Ġinamtaka	14619
Ġinaundwa	14620
Ġinauzwa	14621
Ġinasaka	14622
Ġinaongezeka	14623
Ġhuonekana	14624
Ġanatokea	14625
Ġanapiga	14626
Ġanatoka	14627
Ġanahusika	14628
Ġanasikia	14629
Ġanalalamika	14630
Ġanaelewa	14631
Ġanaelezea	14632
Ġanapambana	14633
Ġanaungana	14634
Ġanasikitishwa	14635
Ġanahusishwa	14636
Ġmuh	14637
Ġmutu	14638
Ġmufi	14639
Ġmuwasa	14640
Ġmuulize	14641
Ġmuyomba	14642
dhima	14643
Ġpad	14644
Ġwinners	14645
Ġmexi	14646
ged	14647
gesi	14648
alika	14649
Ġram	14650
Ġranchi	14651
Ġrasimu	14652
Ġrachel	14653
Ġth	14654
Ġtradi	14655
Ġpipa	14656
Ġamekana	14657
Ġamechukua	14658
Ġamezungumzia	14659
Ġamefikia	14660
Ġamezaliwa	14661
Ġameleta	14662
Ġameonya	14663
Ġameongozana	14664
Ġamechanganyikiwa	14665
Ġkuangua	14666
Ġkuamka	14667
Ġkuapishwa	14668
Ġkuainisha	14669
vuti	14670
Ġkuipenda	14671
Ġkuipokea	14672
Ġkuitekeleza	14673
Ġkuitembelea	14674
Ġkuiandaa	14675
Ġkuigharimu	14676
Ġkuilaumu	14677
Ġkuoza	14678
Ġkuosha	14679
Ġkuoga	14680
Ġkone	14681
yule	14682
Ġona	14683
Ġolu	14684
Ġobri	14685
riana	14686
Ġimeli	14687
Ġimesisitiza	14688
Ġimelazimika	14689
Ġimeshika	14690
Ġimepeleka	14691
Ġimeibuka	14692
Ġimeonyesha	14693
Ġimemaliza	14694
Ġimekabidhi	14695
Ġimetekeleza	14696
Ġimejikuta	14697
Ġimesimama	14698
Ġimepania	14699
Ġimenunua	14700
Ġimetafsiriwa	14701
Ġimetupilia	14702
Ġimetengewa	14703
ifahamu	14704
kwaa	14705
kwamba	14706
Ġwamefika	14707
Ġwamegoma	14708
Ġwamelipwa	14709
Ġwamevaa	14710
Ġwamegundua	14711
Ġwameshangazwa	14712
Ġwamejeruhiwa	14713
Ġwamekwisha	14714
Ġwamegawanyika	14715
lue	14716
Ġakiongoza	14717
Ġakisikia	14718
Ġakimtaka	14719
Ġakisoma	14720
Ġakisimama	14721
Ġakiongozana	14722
Ġakimtuhumu	14723
Ġakisaidiwa	14724
gika	14725
giji	14726
giriki	14727
Ġmkojo	14728
Ġwatataka	14729
Ġwataongeza	14730
Ġndie	14731
Ġndizi	14732
Ġkuuzika	14733
Ġkuusoma	14734
Ġkuukwamisha	14735
Ġkuuziwa	14736
Ġkuunguruma	14737
Ġkumko	14738
Ġkumzika	14739
Ġkumshika	14740
Ġkumfuata	14741
Ġkumlazimisha	14742
Ġkumtimua	14743
Ġkumdanganya	14744
Ġkumchafua	14745
Ġkujichukulia	14746
Ġkujitenga	14747
Ġkujibiza	14748
Ġkujisomea	14749
vilio	14750
ville	14751
nusha	14752
nunulia	14753
Ġiliyoa	14754
Ġiliyowahi	14755
Ġiliyopatikana	14756
Ġiliyohusisha	14757
Ġiliyopitishwa	14758
Ġwaliopita	14759
Ġwaliongeza	14760
Ġwalioshinda	14761
Ġwaliokosa	14762
Ġwaliopiga	14763
Ġwaliofanikiwa	14764
Ġwaliofikishwa	14765
Ġwaliozaliwa	14766
Ġwaliosalia	14767
Ġwaliofaulu	14768
Ġwaliokimbilia	14769
soor	14770
socia	14771
Ġkempi	14772
Ġkerne	14773
Ġkessy	14774
Ġkejeli	14775
Ġfestus	14776
Ġwakishiriki	14777
Ġwakizungumzia	14778
Ġwakilazimika	14779
Ġwakirejea	14780
Ġwakituhumiwa	14781
Ġwakimtaka	14782
Ġwakilalamikia	14783
Ġlemb	14784
Ġwaondoka	14785
Ġwaokoaji	14786
ining	14787
Ġutapata	14788
Ġutazidi	14789
Ġutapatikana	14790
Ġutasikia	14791
Ġutajadili	14792
Ġutawawezesha	14793
Ġnyigu	14794
Ġkupindisha	14795
nyaraka	14796
Ġtemba	14797
Ġtextile	14798
Ġitashindwa	14799
Ġitahakikisha	14800
Ġitaonekana	14801
Ġitatoka	14802
Ġitajadiliwa	14803
Ġbeno	14804
Ġbegi	14805
Ġkulitangaza	14806
Ġkulinganisha	14807
Ġkulitolea	14808
Ġkulitumikia	14809
Ġhatakuwa	14810
Ġzinakuwa	14811
Ġzinatumia	14812
Ġzinaanza	14813
Ġzinashiriki	14814
Ġzinakwenda	14815
Ġzinatarajia	14816
Ġzinachukuliwa	14817
Ġzinalenga	14818
akii	14819
Ġkweka	14820
Ġfabio	14821
Ġfataki	14822
Ġdebbie	14823
Ġhawaa	14824
Ġhawaji	14825
Ġkutafu	14826
Ġkutakuwepo	14827
Ġkutambuliwa	14828
Ġumewa	14829
Ġumeona	14830
Ġumefanywa	14831
Ġumepangwa	14832
Ġmchezoni	14833
ulika	14834
ulimboka	14835
Ġaliyea	14836
Ġaliyetoa	14837
Ġaliyepita	14838
Ġaliyeshinda	14839
Ġaliyefika	14840
Ġaliyeongoza	14841
Ġaliyeshika	14842
Ġaliyekuwepo	14843
Ġaliyemaliza	14844
Ġaliyejulikana	14845
Ġaliyepokea	14846
Ġpepo	14847
Ġkusame	14848
Ġkusalia	14849
Ġmwenzetu	14850
Ġzorro	14851
del	14852
det	14853
Ġyalipo	14854
Ġyalitakiwa	14855
Ġyalikwenda	14856
Ġyalisababishwa	14857
Ġyalibainishwa	14858
Ġchid	14859
Ġwanaowa	14860
Ġwanaoendelea	14861
Ġwanaopiga	14862
Ġwanaoongoza	14863
Ġwanaoendesha	14864
Ġwanaomiliki	14865
Ġwanaotajwa	14866
Ġwanaondoka	14867
Ġwanaogopa	14868
twanga	14869
Ġkitunda	14870
Ġuliendelea	14871
Ġulizuka	14872
Ġuchapaji	14873
Ġjeraha	14874
Ġjean	14875
Ġrugby	14876
Ġsur	14877
Ġsumary	14878
Ġsuzy	14879
Ġsumaye	14880
Ġmtupa	14881
Ġhakusema	14882
Ġhakujua	14883
Ġhakufahamika	14884
Ġikidai	14885
Ġikifanyika	14886
Ġikizidi	14887
Ġikishuka	14888
Ġmwanajeshi	14889
Ġdungu	14890
Ġnguba	14891
Ġlilipa	14892
Ġlilishuhudia	14893
Ġuliotumika	14894
Ġuliowakilishwa	14895
Ġyanahitaji	14896
Ġyanasababisha	14897
Ġinayokwenda	14898
Ġinayoonekana	14899
Ġinayojitokeza	14900
Ġinayofahamika	14901
Ġinayosimamia	14902
Ġinayojumuisha	14903
Ġmakamo	14904
Ġmakassy	14905
Ġbustani	14906
Ġbulls	14907
Ġmsamaria	14908
Ġdon	14909
Ġdotto	14910
Ġkufidia	14911
Ġtunatoa	14912
Ġtunaingia	14913
Ġkukawa	14914
Ġkukandamiza	14915
Ġkukanusha	14916
milikisha	14917
Ġshati	14918
Ġshaibu	14919
valia	14920
mwagiza	14921
mwamuru	14922
Ġmgongoni	14923
Ġall	14924
Ġalbert	14925
Ġallen	14926
Ġkusifia	14927
Ġusanifu	14928
Ġhamna	14929
Ġzilizofanya	14930
Ġzilizochukuliwa	14931
Ġkinaonesha	14932
sheki	14933
Ġriwa	14934
Ġatacheza	14935
Ġatakosa	14936
Ġakiwataka	14937
Ġuandaaji	14938
Ġuangalifu	14939
kilishwa	14940
Ġhaijui	14941
Ġhaihusiki	14942
Ġlinapotokea	14943
Ġrefa	14944
Ġrehani	14945
Ġrenard	14946
Ġrenald	14947
Ġredet	14948
Ġfukwe	14949
fikishia	14950
Ġheka	14951
Ġhellen	14952
Ġchui	14953
Ġalipojaribu	14954
Ġmashimo	14955
cing	14956
Ġzinazodaiwa	14957
Ġzinazostahili	14958
Ġzinazotumiwa	14959
Ġzinazouzwa	14960
Ġtumesha	14961
Ġtumekaa	14962
Ġtumepokea	14963
Ġmalindi	14964
Ġkuziweka	14965
Ġkuzichoma	14966
Ġyaliyofungwa	14967
Ġyaliyosalia	14968
Ġyaliyolipuka	14969
Ġyaliyosambaa	14970
Ġusindika	14971
barabara	14972
Ġmaanani	14973
Ġwasitumie	14974
Ġkurasa	14975
Ġkiula	14976
Ġkiuchezaji	14977
Ġmkasimo	14978
Ġluba	14979
Ġlubu	14980
Ġlundo	14981
Ġlusaka	14982
Ġlukombe	14983
Ġlundenga	14984
Ġassocia	14985
Ġzimeonyesha	14986
Ġkiwanga	14987
Ġgeti	14988
Ġgerald	14989
Ġlov	14990
Ġcoco	14991
Ġkupokezana	14992
Ġmadaftari	14993
Ġjeshini	14994
Ġmajaliwa	14995
Ġfilbert	14996
Ġarshavin	14997
Ġakakubali	14998
Ġakaibuka	14999
Ġmbennah	15000
Ġyanayozalishwa	15001
Ġmtana	15002
Ġmtasiwa	15003
Ġaliwashauri	15004
Ġaliwashangaza	15005
Ġaliwasihi	15006
Ġaliwasiliana	15007
Ġujazaji	15008
Ġchegeni	15009
Ġukitaka	15010
Ġukisoma	15011
pwaji	15012
Ġvituko	15013
Ġvituoni	15014
Ġmtibuche	15015
Ġkutukana	15016
stro	15017
Ġlimeonekana	15018
Ġlimeingia	15019
Ġlimeonesha	15020
Ġlimezipata	15021
Ġwateule	15022
ston	15023
Ġkukifanyia	15024
Ġkulea	15025
Ġkulenga	15026
Ġkulelewa	15027
Ġunaohusu	15028
Ġunaosababisha	15029
mishaji	15030
Ġkufuatwa	15031
Ġbrian	15032
Ġzee	15033
Ġanayedai	15034
Ġanayepaswa	15035
Ġanayekubalika	15036
Ġanayeichezea	15037
Ġlililopita	15038
Ġmfaume	15039
Ġkuvuliwa	15040
Ġkuvutiwa	15041
Ġmart	15042
wasihi	15043
Ġkutishwa	15044
Ġkutibiwa	15045
Ġkukusudia	15046
Ġwalanguzi	15047
Ġuhamishaji	15048
Ġkilichopita	15049
Ġkilichomfanya	15050
Ġkilichorushwa	15051
Ġilivyotokea	15052
Ġilivyopangwa	15053
Ġilivyoagizwa	15054
Ġwalimuuliza	15055
Ġufupi	15056
Ġufujaji	15057
xin	15058
wapokea	15059
Ġwakandarasi	15060
Ġmansoor	15061
Ġnilitaka	15062
Ġmapitio	15063
Ġyameonesha	15064
Ġyamefikia	15065
Ġyameibuka	15066
Ġyamekwisha	15067
Ġdimita	15068
Ġnot	15069
Ġnoel	15070
Ġmgaya	15071
Ġmganda	15072
Ġcastro	15073
Ġaliitoa	15074
Ġaliipatia	15075
Ġvuta	15076
Ġvuia	15077
Ġnyonga	15078
Ġnyororo	15079
Ġmbogo	15080
Ġgoha	15081
Ġgood	15082
Ġilemela	15083
Ġmiguuni	15084
ilipofika	15085
Ġkibabe	15086
Ġkibaguzi	15087
Ġkibaraka	15088
rtha	15089
Ġghali	15090
Ġkinachoonesha	15091
Ġkimei	15092
Ġkimetoa	15093
Ġkimepanga	15094
[...]
