{"<s>":0,"</s>":1,"<unk>":2,"<pad>":3,"!":4,"\"":5,"#":6,"$":7,"%":8,"&":9,"'":10,"(":11,")":12,"*":13,"+":14,",":15,"-":16,".":17,"/":18,"0":19,"1":20,"2":21,"3":22,"4":23,"5":24,"6":25,"7":26,"8":27,"9":28,":":29,";":30,"<":31,"=":32,">":33,"?":34,"@":35,"A":36,"B":37,"C":38,"D":39,"E":40,"F":41,"G":42,"H":43,"I":44,"J":45,"K":46,"L":47,"M":48,"N":49,"O":50,"P":51,"Q":52,"R":53,"S":54,"T":55,"U":56,"V":57,"W":58,"X":59,"Y":60,"Z":61,"[":62,"\\":63,"]":64,"^":65,"_":66,"`":67,"a":68,"b":69,"c":70,"d":71,"e":72,"f":73,"g":74,"h":75,"i":76,"j":77,"k":78,"l":79,"m":80,"n":81,"o":82,"p":83,"q":84,"r":85,"s":86,"t":87,"u":88,"v":89,"w":90,"x":91,"y":92,"z":93,"{":94,"|":95,"}":96,"~":97,"¡":98,"¢":99,"£":100,"¤":101,"¥":102,"¦":103,"§":104,"¨":105,"©":106,"ª":107,"«":108,"¬":109,"®":110,"¯":111,"°":112,"±":113,"²":114,"³":115,"´":116,"µ":117,"¶":118,"·":119,"¸":120,"¹":121,"º":122,"»":123,"¼":124,"½":125,"¾":126,"¿":127,"À":128,"Á":129,"Â":130,"Ã":131,"Ä":132,"Å":133,"Æ":134,"Ç":135,"È":136,"É":137,"Ê":138,"Ë":139,"Ì":140,"Í":141,"Î":142,"Ï":143,"Ð":144,"Ñ":145,"Ò":146,"Ó":147,"Ô":148,"Õ":149,"Ö":150,"×":151,"Ø":152,"Ù":153,"Ú":154,"Û":155,"Ü":156,"Ý":157,"Þ":158,"ß":159,"à":160,"á":161,"â":162,"ã":163,"ä":164,"å":165,"æ":166,"ç":167,"è":168,"é":169,"ê":170,"ë":171,"ì":172,"í":173,"î":174,"ï":175,"ð":176,"ñ":177,"ò":178,"ó":179,"ô":180,"õ":181,"ö":182,"÷":183,"ø":184,"ù":185,"ú":186,"û":187,"ü":188,"ý":189,"þ":190,"ÿ":191,"Ā":192,"ā":193,"Ă":194,"ă":195,"Ą":196,"ą":197,"Ć":198,"ć":199,"Ĉ":200,"ĉ":201,"Ċ":202,"ċ":203,"Č":204,"č":205,"Ď":206,"ď":207,"Đ":208,"đ":209,"Ē":210,"ē":211,"Ĕ":212,"ĕ":213,"Ė":214,"ė":215,"Ę":216,"ę":217,"Ě":218,"ě":219,"Ĝ":220,"ĝ":221,"Ğ":222,"ğ":223,"Ġ":224,"ġ":225,"Ģ":226,"ģ":227,"Ĥ":228,"ĥ":229,"Ħ":230,"ħ":231,"Ĩ":232,"ĩ":233,"Ī":234,"ī":235,"Ĭ":236,"ĭ":237,"Į":238,"į":239,"İ":240,"ı":241,"Ĳ":242,"ĳ":243,"Ĵ":244,"ĵ":245,"Ķ":246,"ķ":247,"ĸ":248,"Ĺ":249,"ĺ":250,"Ļ":251,"ļ":252,"Ľ":253,"ľ":254,"Ŀ":255,"ŀ":256,"Ł":257,"ł":258,"Ń":259,"wa":260,"Ġk":261,"na":262,"Ġm":263,"li":264,"Ġwa":265,"Ġku":266,"ha":267,"ya":268,"ka":269,"Ġna":270,"ni":271,"hi":272,"Ġa":273,"Ġya":274,"ta":275,"ba":276,"ng":277,"Ġs":278,"ma":279,"Ġma":280,"ti":281,"za":282,"ri":283,"ki":284,"NK":285,"UNK":286,"ĠUNK":287,"la":288,"ĠĊ":289,"zi":290,"Ġu":291,"Ġka":292,"nd":293,"yo":294,"Ġi":295,"Ġkwa":296,"ku":297,"Ġha":298,"ji":299,"hu":300,"si":301,"we":302,"tu":303,"Ġhi":304,"ja":305,"ra":306,"Ġki":307,"mba":308,"Ġali":309,"fa":310,"to":311,"le":312,"da":313,"bi":314,"sa":315,"cha":316,"pa":317,"sha":318,"me":319,"fu":320,"mi":321,"ye":322,"Ġv":323,"di":324,"mu":325,"se":326,"Ġkuwa":327,"Ġta":328,"ke":329,"Ġkati":330,"bu":331,"shi":332,"Ġza":333,"Ġni":334,"te":335,"he":336,"Ġsi":337,"po":338,"Ġhu":339,"Ġn":340,"zo":341,"Ġla":342,"sema":343,"Ġkatika":344,"Ġba":345,"ne":346,"Ġmi":347,"Ġsa":348,"ko":349,"pi":350,"Ġb":351,"ngi":352,"nda":353,"nga":354,"Ġvi":355,"ho":356,"Ġamba":357,"Ġcha":358,"Ġalisema":359,"chi":360,"Ġwana":361,"kuwa":362,"wana":363,"Ġili":364,"Ġhiyo":365,"no":366,"mo":367,"ngo":368,"ele":369,"lo":370,"wi":371,"mb":372,"ngu":373,"Ġkuto":374,"Ġbwana":375,"nza":376,"ndi":377,"fan":378,"ju":379,"nye":380,"fi":381,"che":382,"Ġwali":383,"ru":384,"nge":385,"Ġmo":386,"Ġe":387,"Ġse":388,"re":389,"ga":390,"Ġtu":391,"Ġmwa":392,"Ġbaa":393,"rika":394,"go":395,"Ġkama":396,"kiwa":397,"Ġja":398,"wenye":399,"Ġzi":400,"Ġli":401,"Ġd":402,"Ġda":403,"Ġti":404,"ro":405,"vyo":406,"zu":407,"kana":408,"je":409,"fanya":410,"Ġbi":411,"furi":412,"Ġsifuri":413,"Ġmoja":414,"Ġju":415,"taka":416,"Ġbaada":417,"pe":418,"mbo":419,"shiri":420,"Ġmku":421,"cho":422,"dha":423,"Ġana":424,"Ġina":425,"nia":426,"ua":427,"ze":428,"Ġhuo":429,"ongo":430,"kini":431,"chu":432,"Ġwaka":433,"rikali":434,"end":435,"Ġserikali":436,"yi":437,"nzi":438,"lia":439,"Ġhilo":440,"Ġpa":441,"gu":442,"Ġmu":443,"Ġaki":444,"dhi":445,"Ġnchi":446,"moja":447,"Ġwi":448,"ndo":449,"ngine":450,"Ġlakini":451,"Ġwe":452,"Ġme":453,"su":454,"Ġra":455,"ge":456,"pu":457,"Ġvya":458,"Ġpi":459,"Ġhivyo":460,"bwa":461,"Ġji":462,"cheza":463,"endele":464,"Ġwatu":465,"Ġc":466,"Ġyake":467,"Ġhao":468,"Ġmwaka":469,"Ġwakati":470,"idi":471,"Ġt":472,"Ġmba":473,"Ġame":474,"bili":475,"sh":476,"Ġkwenye":477,"Ġkua":478,"Ġko":479,"Ġishiri":480,"nzania":481,"Ġishirini":482,"vu":483,"Ġkui":484,"Ġkuo":485,"yu":486,"Ġmia":487,"Ġshi":488,"Ġf":489,"ongozi":490,"Ġime":491,"mia":492,"Ġhuyo":493,"Ġo":494,"Ġmaa":495,"ria":496,"bunge":497,"Ġkumi":498,"mbe":499,"Ġwake":500,"nde":501,"Ġtimu":502,"mbi":503,"sho":504,"Ġwame":505,"Ġhayo":506,"dai":507,"lio":508,"Ġkutokana":509,"Ġsaba":510,"shwa":511,"Ġpo":512,"Ġkwamba":513,"pata":514,"do":515,"lu":516,"zungu":517,"Ġhata":518,"Ġwata":519,"ifa":520,"kia":521,"Ġmbili":522,"kama":523,"Ġsasa":524,"Ġmkuu":525,"Ġndi":526,"nchi":527,"Ġmko":528,"Ġjana":529,"Ġmbali":530,"is":531,"chezaji":532,"Ġtanzania":533,"laa":534,"mbu":535,"takiwa":536,"Ġmaha":537,"zungum":538,"Ġwaki":539,"Ġtaa":540,"Ġkutoka":541,"hidi":542,"Ġkuji":543,"Ġwananchi":544,"Ġke":545,"nu":546,"Ġhali":547,"Ġwalio":548,"nja":549,"Ġkuu":550,"gi":551,"Ġambayo":552,"Ġambao":553,"zwa":554,"ngwa":555,"Ġdar":556,"Ġkum":557,"Ġes":558,"Ġkazi":559,"Ġmaji":560,"endelea":561,"Ġhizo":562,"Ġle":563,"Ġtano":564,"Ġfe":565,"Ġsalaa":566,"neo":567,"Ġiliyo":568,"Ġho":569,"Ġsalaam":570,"Ġtatu":571,"Ġpamoja":572,"so":573,"Ġuna":574,"bo":575,"Ġzaidi":576,"Ġkila":577,"Ġhatu":578,"Ġambaye":579,"tia":580,"Ġuta":581,"Ġnchini":582,"vi":583,"Ġmwi":584,"Ġkam":585,"kwe":586,"ini":587,"zuri":588,"Ġwao":589,"Ġchama":590,"mani":591,"weza":592,"Ġmahakama":593,"Ġpia":594,"Ġye":595,"Ġkufanya":596,"laya":597,"nya":598,"wo":599,"Ġambapo":600,"toa":601,"Ġwazi":602,"Ġhuku":603,"Ġga":604,"Ġbo":605,"Ġhicho":606,"thi":607,"Ġviongozi":608,"Ġrais":609,"mbali":610,"jili":611,"Ġkupi":612,"Ġwachezaji":613,"Ġyao":614,"Ġita":615,"Ġnyi":616,"kta":617,"jini":618,"Ġmka":619,"Ġthe":620,"Ġfedha":621,"Ġte":622,"sia":623,"Ġsiku":624,"Ġmkoa":625,"Ġshe":626,"toke":627,"Ġhuu":628,"Ġmbalimbali":629,"chezo":630,"sini":631,"Ġnne":632,"ndani":633,"Ġtisa":634,"Ġkuli":635,"Ġtaifa":636,"Ġbe":637,"Ġaf":638,"lisi":639,"Ġmechi":640,"Ġhadi":641,"rifa":642,"Ġmara":643,"Ġsita":644,"jia":645,"Ġkwe":646,"Ġnafa":647,"Ġmsi":648,"Ġhatua":649,"Ġp":650,"kwa":651,"Ġkwani":652,"du":653,"Ġkuhu":654,"Ġwilaya":655,"Ġtaarifa":656,"kio":657,"Ġnafasi":658,"Ġmwenye":659,"Ġupa":660,"Ġkili":661,"Ġshu":662,"Ġkutoa":663,"Ġbibi":664,"Ġpolisi":665,"Ġnyu":666,"fanyi":667,"be":668,"Ġkufu":669,"liwa":670,"lingi":671,"puni":672,"Ġbara":673,"Ġmaba":674,"Ġzina":675,"tumia":676,"zungumza":677,"Ġbaadhi":678,"Ġde":679,"Ġkampuni":680,"Ġshilingi":681,"sili":682,"uala":683,"wanja":684,"Ġau":685,"bari":686,"Ġmmoja":687,"cm":688,"kisha":689,"pita":690,"Ġyanga":691,"ngeza":692,"guzi":693,"Ġwo":694,"lewa":695,"Ġzili":696,"Ġmasha":697,"ndu":698,"Ġccm":699,"Ġhabari":700,"ndwa":701,"baini":702,"fisa":703,"Ġfa":704,"Ġso":705,"Ġkuta":706,"Ġkubwa":707,"Ġkwanza":708,"Ġje":709,"Ġume":710,"Ġkuna":711,"ina":712,"Ġndani":713,"Ġnane":714,"Ġaliye":715,"Ġzao":716,"amu":717,"Ġto":718,"Ġpe":719,"Ġmtu":720,"Ġwaziri":721,"tizo":722,"one":723,"Ġhaku":724,"Ġmuda":725,"Ġkitu":726,"Ġmashi":727,"Ġmwe":728,"yote":729,"Ġtuna":730,"ktari":731,"uli":732,"ngia":733,"lioni":734,"mini":735,"Ġligi":736,"Ġzo":737,"Ġmata":738,"Ġkusa":739,"weze":740,"Ġmambo":741,"chuku":742,"Ġeneo":743,"Ġhawa":744,"Ġupande":745,"Ġuli":746,"Ġnyumba":747,"Ġkuka":748,"Ġyali":749,"Ġajili":750,"Ġmaka":751,"Ġmpa":752,"tumi":753,"de":754,"Ġucha":755,"Ġdaktari":756,"Ġsababu":757,"twa":758,"Ġwanao":759,"Ġchi":760,"Ġmaku":761,"Ġuwanja":762,"kiti":763,"taa":764,"Ġmwana":765,"Ġsimba":766,"Ġmchezo":767,"ribu":768,"Ġj":769,"Ġhaki":770,"Ġsheria":771,"dili":772,"hemu":773,"shitakiwa":774,"Ġsana":775,"toto":776,"Ġwengine":777,"haki":778,"Ġg":779,"Ġsuala":780,"Ġbila":781,"Ġjuu":782,"shindwa":783,"Ġwenye":784,"Ġkamati":785,"Ġsu":786,"Ġkesi":787,"sisi":788,"Ġjuma":789,"Ġru":790,"Ġkupa":791,"Ġkupata":792,"Ġhii":793,"Ġuchaguzi":794,"Ġmas":795,"bisha":796,"Ġndio":797,"Ġiki":798,"anza":799,"Ġmsa":800,"Ġbunge":801,"Ġwengi":802,"Ġlili":803,"Ġdhidi":804,"limu":805,"Ġhapa":806,"jwa":807,"bia":808,"Ġbu":809,"Ġmgo":810,"Ġulio":811,"wali":812,"Ġleo":813,"fanyika":814,"Ġyana":815,"kuta":816,"fani":817,"Ġngu":818,"Ġkocha":819,"jua":820,"Ġwaa":821,"Ġsha":822,"eleza":823,"nti":824,"mali":825,"Ġwote":826,"Ġkuhusu":827,"raka":828,"Ġkla":829,"Ġdu":830,"Ġklabu":831,"Ġkuwe":832,"uri":833,"shu":834,"yari":835,"mbia":836,"nzo":837,"Ġuwe":838,"Ġakizungumza":839,"mili":840,"Ġkufi":841,"Ġhapo":842,"ghu":843,"Ġtukio":844,"thini":845,"kari":846,"bathini":847,"Ġthebathini":848,"Ġdo":849,"Ġmare":850,"Ġinayo":851,"Ġkab":852,"Ġmwenyekiti":853,"Ġhivi":854,"Ġkusi":855,"Ġalikuwa":856,"Ġtayari":857,"va":858,"Ġikiwa":859,"shiriki":860,"shara":861,"Ġzote":862,"isha":863,"tolewa":864,"mla":865,"zaji":866,"Ġkute":867,"Ġtume":868,"dini":869,"Ġnje":870,"Ġri":871,"Ġkina":872,"tibu":873,"jana":874,"Ġmiaka":875,"Ġnyingine":876,"dala":877,"wili":878,"Ġuchu":879,"Ġmae":880,"riki":881,"Ġal":882,"Ġkabla":883,"endeleo":884,"Ġambazo":885,"ghuli":886,"Ġzilizo":887,"taji":888,"Ġkipi":889,"Ġkwenda":890,"Ġham":891,"Ġafrika":892,"Ġmbunge":893,"Ġjambo":894,"Ġofi":895,"Ġkaribu":896,"Ġusa":897,"Ġbado":898,"kea":899,"Ġhili":900,"Ġjuzi":901,"Ġjo":902,"kosa":903,"idia":904,"Ġmaeneo":905,"Ġhai":906,"lala":907,"Ġute":908,"ssa":909,"Ġata":910,"Ġmaendeleo":911,"shauri":912,"uti":913,"jibu":914,"Ġalipo":915,"Ġhakuna":916,"zima":917,"pya":918,"Ġakiwa":919,"Ġvizuri":920,"Ġmfu":921,"dogo":922,"Ġanasema":923,"tano":924,"miwa":925,"Ġpili":926,"babisha":927,"Ġwiki":928,"Ġlina":929,"kosi":930,"Ġkauli":931,"Ġkikwe":932,"Ġkikwete":933,"kili":934,"ratibu":935,"Ġchini":936,"ndishi":937,"fisadi":938,"Ġhasa":939,"Ġmkubwa":940,"ia":941,"Ġhe":942,"hara":943,"chama":944,"Ġhamsini":945,"Ġmabao":946,"she":947,"Ġas":948,"daiwa":949,"tara":950,"fiki":951,"ve":952,"sika":953,"Ġkima":954,"Ġushi":955,"Ġmiko":956,"Ġnya":957,"futa":958,"Ġtatizo":959,"Ġwabunge":960,"Ġvijana":961,"wezi":962,"ende":963,"Ġmb":964,"ada":965,"Ġnaye":966,"Ġre":967,"zia":968,"amuzi":969,"tokea":970,"ona":971,"ce":972,"kazi":973,"njwa":974,"Ġwafanya":975,"mii":976,"mbea":977,"Ġuwezo":978,"Ġfu":979,"Ġmwisho":980,"nyi":981,"Ġmazi":982,"oni":983,"Ġchu":984,"omba":985,"chukua":986,"Ġkutumia":987,"duma":988,"Ġofisi":989,"Ġsta":990,"Ġaliwa":991,"Ġkatibu":992,"Ġkuanzi":993,"Ġkikosi":994,"asi":995,"Ġwatoto":996,"Ġhuduma":997,"Ġsoka":998,"hakikisha":999,"sta":1000,"Ġbora":1001,"Ġkura":1002,"Ġmcha":1003,"fauti":1004,"Ġmaisha":1005,"Ġmilioni":1006,"radi":1007,"Ġjijini":1008,"taba":1009,"Ġnjia":1010,"rudi":1011,"mika":1012,"Ġshule":1013,"bingwa":1014,"Ġwaku":1015,"piga":1016,"Ġaro":1017,"unga":1018,"Ġel":1019,"Ġmali":1020,"kele":1021,"Ġzake":1022,"Ġusi":1023,"ch":1024,"Ġelimu":1025,"Ġbao":1026,"Ġnyingi":1027,"Ġarobaini":1028,"Ġsaa":1029,"Ġzinazo":1030,"pungu":1031,"Ġtofauti":1032,"Ġhos":1033,"Ġwasi":1034,"Ġmkoani":1035,"Ġambalo":1036,"Ġkupitia":1037,"Ġmjini":1038,"Ġdunia":1039,"Ġmaana":1040,"pele":1041,"hitaji":1042,"Ġawali":1043,"Ġyaliyo":1044,"Ġuamuzi":1045,"tendo":1046,"Ġlu":1047,"kuba":1048,"ano":1049,"Ġjeshi":1050,"Ġdha":1051,"Ġkuongeza":1052,"Ġkuzi":1053,"ndaji":1054,"Ġasili":1055,"Ġmbele":1056,"shinda":1057,"Ġwanachama":1058,"ci":1059,"ezi":1060,"dhaa":1061,"Ġhospita":1062,"wemo":1063,"Ġkipindi":1064,"ibu":1065,"bara":1066,"Ġhospitali":1067,"kika":1068,"Ġuongozi":1069,"pewa":1070,"Ġelfu":1071,"Ġjamii":1072,"Ġpro":1073,"el":1074,"Ġkuhakikisha":1075,"Ġsehemu":1076,"Ġmpaka":1077,"Ġmpi":1078,"fika":1079,"Ġtena":1080,"Ġaka":1081,"Ġzime":1082,"Ġjimbo":1083,"mwa":1084,"Ġyo":1085,"tini":1086,"lisha":1087,"Ġida":1088,"Ġlo":1089,"ca":1090,"Ġkiu":1091,"Ġbadala":1092,"ywa":1093,"swa":1094,"himu":1095,"Ġgari":1096,"Ġshughuli":1097,"goro":1098,"rs":1099,"Ġge":1100,"taifa":1101,"ruge":1102,"saidia":1103,"hari":1104,"Ġkika":1105,"Ġkiasi":1106,"gonjwa":1107,"rugenzi":1108,"Ġwatanzania":1109,"funzi":1110,"Ġuhu":1111,"Ġwakiwa":1112,"Ġmchezaji":1113,"Ġbarabara":1114,"Ġlengo":1115,"Ġmada":1116,"Ġalio":1117,"Ġtangu":1118,"Ġmawa":1119,"kwenda":1120,"ida":1121,"ngaza":1122,"Ġkuondo":1123,"Ġbina":1124,"Ġwakazi":1125,"ngira":1126,"Ġwale":1127,"lama":1128,"Ġkupo":1129,"Ġwalikuwa":1130,"Ġkiwa":1131,"Ġdakika":1132,"faa":1133,"zara":1134,"Ġmengi":1135,"Ġyeye":1136,"poti":1137,"Ġkweli":1138,"tisha":1139,"Ġkipa":1140,"ter":1141,"chuano":1142,"Ġwizara":1143,"Ġro":1144,"fe":1145,"nki":1146,"fua":1147,"Ġum":1148,"biki":1149,"Ġvyo":1150,"Ġilikuwa":1151,"Ġmahakamani":1152,"Ġmichuano":1153,"nguzi":1154,"Ġmkutano":1155,"Ġco":1156,"Ġmimi":1157,"Ġyenye":1158,"Ġmbe":1159,"Ġnguvu":1160,"Ġmape":1161,"Ġjina":1162,"zungumzia":1163,"ck":1164,"ndano":1165,"ry":1166,"Ġwashitakiwa":1167,"Ġmpira":1168,"Ġmazingira":1169,"nsi":1170,"Ġndo":1171,"Ġfi":1172,"Ġche":1173,"Ġkuanza":1174,"Ġmashitaka":1175,"lamu":1176,"Ġushindi":1177,"Ġmkataba":1178,"humiwa":1179,"Ġasilimia":1180,"Ġmshitakiwa":1181,"Ġmta":1182,"Ġusha":1183,"jumbe":1184,"zeti":1185,"Ġhoja":1186,"Ġmajira":1187,"Ġuki":1188,"jiji":1189,"Ġkuona":1190,"Ġtaasisi":1191,"Ġmre":1192,"Ġar":1193,"Ġsimu":1194,"co":1195,"Ġvyama":1196,"Ġvyombo":1197,"son":1198,"Ġkituo":1199,"Ġkilimo":1200,"Ġalidai":1201,"Ġkusema":1202,"Ġwetu":1203,"Ġmwingine":1204,"Ġmkazi":1205,"Ġdeci":1206,"Ġmaja":1207,"tiza":1208,"Ġpoi":1209,"Ġhaya":1210,"Ġmaele":1211,"liana":1212,"Ġmsingi":1213,"Ġyanayo":1214,"Ġpointi":1215,"wani":1216,"Ġmatatizo":1217,"muzi":1218,"fsi":1219,"Ġmabo":1220,"Ġmashindano":1221,"Ġvitu":1222,"Ġnini":1223,"onekana":1224,"Ġkuendelea":1225,"shirikia":1226,"bar":1227,"hoji":1228,"Ġkutu":1229,"Ġkawa":1230,"sisitiza":1231,"Ġmarehemu":1232,"gwa":1233,"tokana":1234,"Ġyu":1235,"fo":1236,"Ġnga":1237,"Ġkiongozi":1238,"Ġwaandishi":1239,"mea":1240,"Ġvita":1241,"Ġbia":1242,"nzibar":1243,"Ġafya":1244,"Ġndiyo":1245,"Ġaina":1246,"amua":1247,"Ġkundi":1248,"Ġmkono":1249,"Ġamesema":1250,"Ġkuki":1251,"Ġkuja":1252,"Ġmita":1253,"uaji":1254,"ly":1255,"dia":1256,"Ġuja":1257,"Ġaskari":1258,"nzani":1259,"Ġnamba":1260,"tikana":1261,"Ġzanzibar":1262,"Ġmkurugenzi":1263,"Ġkaribuni":1264,"Ġsabi":1265,"Ġwamekuwa":1266,"nne":1267,"Ġsitini":1268,"Ġlime":1269,"amini":1270,"zazi":1271,"Ġbenki":1272,"Ġtisini":1273,"Ġuchunguzi":1274,"Ġmapa":1275,"lazi":1276,"Ġmradi":1277,"lla":1278,"kani":1279,"Ġwafanyakazi":1280,"risha":1281,"Ġufisadi":1282,"Ġlazima":1283,"Ġmashabiki":1284,"Ġkiku":1285,"mbana":1286,"fafan":1287,"ted":1288,"Ġmsimu":1289,"Ġsabini":1290,"faha":1291,"Ġkimataifa":1292,"sto":1293,"Ġyote":1294,"Ġgazeti":1295,"Ġkufua":1296,"rua":1297,"Ġmao":1298,"kula":1299,"Ġkucheza":1300,"Ġmaalu":1301,"Ġze":1302,"Ġbilioni":1303,"Ġkamanda":1304,"Ġkushindwa":1305,"kabili":1306,"enda":1307,"Ġnili":1308,"nua":1309,"Ġmatoke":1310,"Ġaliyekuwa":1311,"Ġmakubwa":1312,"Ġmatokeo":1313,"rd":1314,"Ġkucha":1315,"funga":1316,"Ġwilayani":1317,"Ġdini":1318,"Ġvile":1319,"Ġmujibu":1320,"Ġnao":1321,"Ġmoro":1322,"gumu":1323,"zalisha":1324,"kati":1325,"Ġstars":1326,"sababisha":1327,"Ġkule":1328,"mbulia":1329,"onesha":1330,"ngalia":1331,"maa":1332,"manini":1333,"Ġthemanini":1334,"Ġmama":1335,"Ġkabi":1336,"kutana":1337,"Ġmikoa":1338,"Ġyoyote":1339,"Ġmichezo":1340,"pwa":1341,"Ġuni":1342,"siasa":1343,"Ġbiashara":1344,"Ġmti":1345,"Ġwate":1346,"Ġunao":1347,"Ġkuanzia":1348,"Ġiliyopita":1349,"biashara":1350,"Ġfaina":1351,"Ġushahidi":1352,"Ġfainali":1353,"Ġhati":1354,"Ġprofe":1355,"Ġkutaka":1356,"med":1357,"Ġwanawa":1358,"Ġmaje":1359,"misha":1360,"Ġchake":1361,"nyesha":1362,"fanywa":1363,"Ġmfa":1364,"Ġkumali":1365,"Ġumeme":1366,"ndari":1367,"Ġuje":1368,"paswa":1369,"Ġlake":1370,"Ġwanafunzi":1371,"Ġnyumbani":1372,"asa":1373,"kubali":1374,"Ġprofesa":1375,"Ġwala":1376,"Ġmamla":1377,"ngeze":1378,"Ġmamlaka":1379,"lima":1380,"Ġkesho":1381,"Ġmaga":1382,"Ġkuwepo":1383,"ndaa":1384,"Ġbaadaye":1385,"Ġmpya":1386,"Ġshirika":1387,"ingia":1388,"Ġkuje":1389,"baki":1390,"fungu":1391,"Ġnzuri":1392,"Ġanaye":1393,"Ġmpango":1394,"Ġkata":1395,"kuja":1396,"nduzi":1397,"Ġunited":1398,"liano":1399,"st":1400,"Ġaja":1401,"weka":1402,"lma":1403,"Ġkuvu":1404,"Ġsiasa":1405,"Ġyetu":1406,"Ġgani":1407,"Ġbali":1408,"Ġjinsi":1409,"Ġkikao":1410,"Ġmatumi":1411,"Ġmatumizi":1412,"Ġmabingwa":1413,"mizi":1414,"Ġmengine":1415,"Ġkuku":1416,"man":1417,"geni":1418,"Ġkilicho":1419,"reje":1420,"tarajia":1421,"Ġmaelezo":1422,"teza":1423,"Ġcu":1424,"Ġuka":1425,"Ġkambi":1426,"reza":1427,"Ġwanawake":1428,"Ġwapi":1429,"Ġmakosa":1430,"Ġmauaji":1431,"Ġchade":1432,"Ġchadema":1433,"mana":1434,"Ġlililo":1435,"Ġwawili":1436,"Ġitakuwa":1437,"Ġmrefu":1438,"Ġdawa":1439,"Ġdodo":1440,"Ġmtoto":1441,"Ġkiwango":1442,"Ġmatu":1443,"Ġhalma":1444,"Ġuha":1445,"Ġidadi":1446,"Ġdodoma":1447,"wala":1448,"Ġkitendo":1449,"kweli":1450,"Ġmsaada":1451,"kezaji":1452,"zee":1453,"Ġkawaida":1454,"Ġhalmashauri":1455,"Ġndu":1456,"Ġah":1457,"Ġmisa":1458,"Ġmabomu":1459,"tokeza":1460,"endesha":1461,"Ġusiku":1462,"Ġcho":1463,"Ġinga":1464,"Ġsisi":1465,"Ġwalimu":1466,"Ġingawa":1467,"shambulia":1468,"Ġambacho":1469,"penda":1470,"husika":1471,"Ġnia":1472,"Ġilivyo":1473,"Ġwenza":1474,"Ġkujua":1475,"Ġmadai":1476,"fanikiwa":1477,"Ġbinafsi":1478,"Ġujenzi":1479,"Ġnina":1480,"Ġbasi":1481,"Ġkuweka":1482,"Ġchanzo":1483,"Ġmbi":1484,"Ġnam":1485,"Ġkwake":1486,"Ġman":1487,"Ġsekta":1488,"sisha":1489,"mbano":1490,"Ġkabisa":1491,"shia":1492,"Ġbaraza":1493,"lizi":1494,"baya":1495,"Ġamani":1496,"Ġshiriki":1497,"Ġutaratibu":1498,"Ġkuha":1499,"mbua":1500,"ruhi":1501,"Ġkodi":1502,"Ġkuchukua":1503,"fadhi":1504,"fungwa":1505,"Ġno":1506,"Ġchakula":1507,"Ġmwezi":1508,"Ġaliongeza":1509,"mui":1510,"Ġkufikia":1511,"jiwa":1512,"tumika":1513,"Ġl":1514,"Ġkijiji":1515,"toka":1516,"Ġmasuala":1517,"Ġmapi":1518,"ff":1519,"pokuwa":1520,"Ġyame":1521,"Ġukweli":1522,"Ġharaka":1523,"Ġmaanda":1524,"milia":1525,"Ġnye":1526,"biri":1527,"Ġghara":1528,"Ġshirikisho":1529,"Ġvina":1530,"taja":1531,"Ġuga":1532,"Ġuhuru":1533,"lazimika":1534,"hiri":1535,"Ġmoha":1536,"Ġca":1537,"tarajiwa":1538,"Ġgharama":1539,"Ġnde":1540,"wanda":1541,"Ġufu":1542,"Ġmuhimu":1543,"Ġmte":1544,"Ġmbo":1545,"kumu":1546,"Ġnime":1547,"sheria":1548,"ongoza":1549,"diliko":1550,"Ġkusababisha":1551,"fafanua":1552,"Ġmika":1553,"rahi":1554,"Ġmabadiliko":1555,"Ġmar":1556,"Ġkadhaa":1557,"nisha":1558,"Ġwalisema":1559,"tea":1560,"Ġkita":1561,"Ġmazo":1562,"nal":1563,"Ġab":1564,"Ġimani":1565,"wapo":1566,"zika":1567,"Ġnamna":1568,"siana":1569,"Ġpeke":1570,"jiri":1571,"Ġmadini":1572,"Ġdi":1573,"Ġhumo":1574,"Ġrushwa":1575,"Ġkupungu":1576,"sasi":1577,"dhara":1578,"xi":1579,"badili":1580,"tiwa":1581,"sani":1582,"silisha":1583,"panga":1584,"Ġtff":1585,"Ġndugu":1586,"Ġsawa":1587,"Ġmazoezi":1588,"Ġmbaya":1589,"Ġkombe":1590,"Ġwaliokuwa":1591,"ondo":1592,"Ġpale":1593,"Ġkenya":1594,"Ġuma":1595,"Ġimekuwa":1596,"Ġuchumi":1597,"Ġwako":1598,"Ġmale":1599,"dau":1600,"Ġtanga":1601,"subiri":1602,"Ġkuingia":1603,"Ġkushinda":1604,"zuia":1605,"Ġmiongo":1606,"ishi":1607,"kra":1608,"zidi":1609,"fikia":1610,"gombea":1611,"patikana":1612,"fahamu":1613,"wahi":1614,"Ġmafuta":1615,"mua":1616,"Ġhakimu":1617,"fari":1618,"Ġtaratibu":1619,"Ġitaka":1620,"Ġr":1621,"Ġkurudi":1622,"lani":1623,"Ġkusima":1624,"Ġat":1625,"biti":1626,"Ġkuele":1627,"guu":1628,"Ġkupiga":1629,"Ġbei":1630,"Ġmafani":1631,"Ġne":1632,"Ġmwanza":1633,"Ġvu":1634,"Ġcuf":1635,"Ġvye":1636,"Ġkuone":1637,"Ġmajina":1638,"moto":1639,"rusha":1640,"Ġbungeni":1641,"Ġmgombea":1642,"Ġmafanikio":1643,"Ġjoh":1644,"Ġmfano":1645,"Ġnu":1646,"zea":1647,"Ġkujenga":1648,"Ġyangu":1649,"Ġnyo":1650,"Ġpinda":1651,"Ġgha":1652,"tiba":1653,"husu":1654,"Ġkile":1655,"mishi":1656,"kofu":1657,"Ġmapinduzi":1658,"Ġjohn":1659,"wepo":1660,"Ġtuta":1661,"peni":1662,"Ġkinacho":1663,"Ġduniani":1664,"Ġwadau":1665,"Ġmaxi":1666,"zito":1667,"Ġisi":1668,"kamatwa":1669,"Ġajali":1670,"Ġmaximo":1671,"Ġin":1672,"Ġndiye":1673,"Ġmorogoro":1674,"resha":1675,"Ġalim":1676,"Ġhuko":1677,"nisa":1678,"Ġkampeni":1679,"Ġmohamed":1680,"Ġile":1681,"rufu":1682,"Ġusalama":1683,"spa":1684,"Ġumma":1685,"kiri":1686,"Ġlicha":1687,"Ġmiongoni":1688,"gua":1689,"Ġuhaki":1690,"Ġbarua":1691,"Ġkuacha":1692,"Ġmsima":1693,"Ġmga":1694,"Ġkuti":1695,"jeti":1696,"Ġmako":1697,"Ġupi":1698,"Ġbajeti":1699,"lalami":1700,"Ġkiba":1701,"Ġmafu":1702,"undo":1703,"Ġmfumo":1704,"Ġmarekani":1705,"Ġua":1706,"Ġubingwa":1707,"ran":1708,"th":1709,"Ġtuli":1710,"us":1711,"soma":1712,"Ġkupambana":1713,"Ġutekele":1714,"sea":1715,"Ġkuhusiana":1716,"Ġkushu":1717,"Ġhaja":1718,"Ġmicha":1719,"Ġdara":1720,"chukuliwa":1721,"Ġwataka":1722,"Ġmaju":1723,"Ġmade":1724,"Ġmitaa":1725,"gala":1726,"Ġardhi":1727,"Ġahly":1728,"Ġwangu":1729,"kaya":1730,"ngene":1731,"Ġwakulima":1732,"shambuliaji":1733,"Ġndege":1734,"Ġkime":1735,"Ġulinzi":1736,"Ġmapema":1737,"shirikiana":1738,"jo":1739,"Ġkunu":1740,"tezi":1741,"Ġed":1742,"hada":1743,"kuru":1744,"Ġsafari":1745,"Ġjumla":1746,"Ġai":1747,"Ġchanga":1748,"fiti":1749,"keleza":1750,"lali":1751,"pili":1752,"Ġjaji":1753,"Ġkutafuta":1754,"Ġkikubwa":1755,"Ġgo":1756,"Ġzita":1757,"Ġpekee":1758,"Ġndipo":1759,"Ġwakili":1760,"Ġsoko":1761,"in":1762,"Ġkanu":1763,"Ġhassa":1764,"dhani":1765,"Ġmagari":1766,"Ġmdogo":1767,"huma":1768,"Ġfamilia":1769,"Ġasu":1770,"Ġugonjwa":1771,"Ġjakaya":1772,"Ġmadaraka":1773,"Ġmapato":1774,"Ġkisha":1775,"Ġtabia":1776,"Ġakizungumzia":1777,"Ġamekuwa":1778,"muiya":1779,"Ġmiundo":1780,"Ġtuhuma":1781,"Ġnyuma":1782,"Ġwazazi":1783,"chwa":1784,"Ġkwao":1785,"Ġmbagala":1786,"Ġuwanjani":1787,"Ġjumuiya":1788,"Ġjumapili":1789,"peleka":1790,"Ġuhakika":1791,"nt":1792,"kuwepo":1793,"Ġhusika":1794,"nyo":1795,"Ġalii":1796,"bora":1797,"Ġmisaada":1798,"rt":1799,"Ġkanuni":1800,"Ġulaya":1801,"Ġmaamuzi":1802,"Ġwapo":1803,"Ġhazi":1804,"Ġujao":1805,"Ġasubu":1806,"Ġenda":1807,"Ġasubuhi":1808,"Ġngo":1809,"Ġhawana":1810,"Ġaliyo":1811,"ster":1812,"Ġvibaya":1813,"Ġhatari":1814,"Ġkupunguza":1815,"Ġhassan":1816,"ridhi":1817,"Ġkisiasa":1818,"Ġmwalimu":1819,"Ġkuliko":1820,"Ġkidogo":1821,"Ġalitoa":1822,"kata":1823,"changia":1824,"siano":1825,"Ġendapo":1826,"vo":1827,"Ġkosa":1828,"Ġofisa":1829,"nyu":1830,"Ġkudai":1831,"Ġkushiriki":1832,"lahi":1833,"kezo":1834,"Ġchangamoto":1835,"Ġarusha":1836,"Ġule":1837,"mbinu":1838,"Ġkumu":1839,"Ġiwapo":1840,"keza":1841,"Ġras":1842,"Ġumoja":1843,"sti":1844,"Ġadha":1845,"Ġuko":1846,"Ġkisa":1847,"Ġusajili":1848,"Ġap":1849,"Ġchuo":1850,"Ġmaalumu":1851,"sima":1852,"Ġsio":1853,"Ġwatuhumiwa":1854,"Ġkuleta":1855,"Ġkasi":1856,"mokra":1857,"Ġkukabi":1858,"haribi":1859,"dhu":1860,"Ġkubo":1861,"Ġkanisa":1862,"ngatia":1863,"Ġmakini":1864,"Ġkim":1865,"Ġbidhaa":1866,"Ġwatatu":1867,"ngwe":1868,"firi":1869,"Ġmiundombinu":1870,"Ġuku":1871,"Ġumri":1872,"ingi":1873,"Ġmiguu":1874,"Ġbusa":1875,"miliki":1876,"jitokeza":1877,"nze":1878,"land":1879,"elele":1880,"Ġmene":1881,"gera":1882,"gemea":1883,"Ġteme":1884,"Ġvitendo":1885,"Ġtha":1886,"Ġmashariki":1887,"Ġhau":1888,"Ġvituo":1889,"Ġmsimamo":1890,"Ġutekelezaji":1891,"kwi":1892,"Ġkukosa":1893,"Ġkufunga":1894,"Ġmke":1895,"Ġkifo":1896,"Ġalisisitiza":1897,"Ġrasmi":1898,"Ġkue":1899,"Ġkuwapa":1900,"Ġvifaa":1901,"Ġtemeke":1902,"Ġmafisadi":1903,"Ġambavyo":1904,"Ġkutosha":1905,"Ġmoto":1906,"Ġkuangalia":1907,"zalishaji":1908,"ph":1909,"Ġmzee":1910,"lipu":1911,"Ġkupewa":1912,"Ġnaibu":1913,"Ġumu":1914,"Ġkagera":1915,"Ġumuhimu":1916,"Ġmaslahi":1917,"Ġmbeya":1918,"Ġmafunzo":1919,"Ġmzuri":1920,"mbazi":1921,"Ġmungu":1922,"Ġdhamana":1923,"id":1924,"shika":1925,"Ġkuondoka":1926,"Ġwawe":1927,"kato":1928,"tangaza":1929,"Ġwil":1930,"wote":1931,"Ġbodi":1932,"Ġwowote":1933,"Ġwashiriki":1934,"ngaji":1935,"ndika":1936,"Ġmwili":1937,"Ġkusaidia":1938,"Ġkufika":1939,"mko":1940,"ripoti":1941,"lam":1942,"Ġipo":1943,"jijini":1944,"Ġwataa":1945,"Ġkumaliza":1946,"Ġwaweze":1947,"Ġwenyewe":1948,"Ġmji":1949,"Ġhizi":1950,"saba":1951,"dhibiti":1952,"Ġndogo":1953,"Ġapri":1954,"dri":1955,"Ġwajumbe":1956,"Ġkubaini":1957,"Ġura":1958,"mbele":1959,"reva":1960,"Ġwafanyabiashara":1961,"Ġkusini":1962,"ngana":1963,"mokrasia":1964,"Ġwagonjwa":1965,"hili":1966,"juli":1967,"Ġaliwataka":1968,"rejea":1969,"Ġadhabu":1970,"Ġkula":1971,"Ġnayo":1972,"Ġmwakani":1973,"Ġmajibu":1974,"ume":1975,"fariki":1976,"Ġzamani":1977,"pigwa":1978,"rugu":1979,"nyume":1980,"miza":1981,"Ġkinyume":1982,"Ġmifu":1983,"Ġviwanja":1984,"Ġmalipo":1985,"kaa":1986,"ongozwa":1987,"Ġjioni":1988,"Ġkuomba":1989,"Ġhaina":1990,"lote":1991,"Ġuganda":1992,"rti":1993,"hihi":1994,"Ġuju":1995,"Ġfo":1996,"Ġrisasi":1997,"ita":1998,"Ġkufanyika":1999,"Ġkisheria":2000,"shanga":2001,"milika":2002,"Ġkusikili":2003,"Ġmaandalizi":2004,"Ġkueleza":2005,"mano":2006,"Ġila":2007,"lea":2008,"Ġkatiba":2009,"Ġhofu":2010,"Ġkukaa":2011,"Ġwenzake":2012,"Ġambako":2013,"Ġmalengo":2014,"Ġmitambo":2015,"damu":2016,"Ġvili":2017,"Ġvingine":2018,"jui":2019,"Ġmuunga":2020,"Ġmchakato":2021,"Ġidara":2022,"Ġlolote":2023,"Ġupinzani":2024,"Ġmis":2025,"Ġkufungwa":2026,"Ġkubadili":2027,"hudi":2028,"Ġmanche":2029,"on":2030,"Ġuzalishaji":2031,"Ġhana":2032,"buni":2033,"Ġwalipo":2034,"wezesha":2035,"Ġmuungano":2036,"Ġmane":2037,"Ġjuni":2038,"Ġhasara":2039,"Ġaprili":2040,"Ġmanchester":2041,"Ġmaneno":2042,"staa":2043,"Ġbaba":2044,"ibuka":2045,"Ġmaofisa":2046,"hisi":2047,"ndia":2048,"ngea":2049,"Ġseko":2050,"thirika":2051,"wezekana":2052,"Ġdola":2053,"Ġmshambuliaji":2054,"Ġmani":2055,"bitisha":2056,"mond":2057,"thibitisha":2058,"Ġjose":2059,"manja":2060,"Ġhuru":2061,"Ġmakundi":2062,"Ġmbegu":2063,"Ġsekondari":2064,"uzi":2065,"Ġmna":2066,"Ġkali":2067,"endeleza":2068,"Ġamewa":2069,"hani":2070,"Ġndoa":2071,"Ġkha":2072,"tilia":2073,"Ġsila":2074,"Ġbandari":2075,"Ġvipi":2076,"Ġvurugu":2077,"Ġyata":2078,"Ġmago":2079,"Ġmaso":2080,"Ġmaoni":2081,"kto":2082,"ngele":2083,"ndic":2084,"Ġkondic":2085,"ver":2086,"Ġvika":2087,"gar":2088,"Ġjuhudi":2089,"fanyiwa":2090,"shindi":2091,"Ġraia":2092,"spaa":2093,"lipuko":2094,"Ġmanispaa":2095,"Ġsilaha":2096,"Ġsahihi":2097,"Ġshahidi":2098,"Ġutetezi":2099,"kilishi":2100,"Ġitakayo":2101,"Ġmse":2102,"Ġnani":2103,"ndua":2104,"husisha":2105,"Ġmiezi":2106,"Ġkulipwa":2107,"Ġngazi":2108,"Ġmichael":2109,"Ġkushirikiana":2110,"rica":2111,"penzi":2112,"dhamini":2113,"Ġjiji":2114,"Ġmaalum":2115,"Ġwafu":2116,"Ġmataifa":2117,"Ġikiwemo":2118,"Ġnusu":2119,"Ġkuboresha":2120,"Ġabi":2121,"Ġushirikia":2122,"Ġkilimanja":2123,"Ġutendaji":2124,"Ġushirikiano":2125,"Ġkilimanjaro":2126,"Ġkai":2127,"kufa":2128,"Ġdemokrasia":2129,"Ġmacho":2130,"Ġuvu":2131,"shati":2132,"Ġmwanzo":2133,"keti":2134,"Ġsaid":2135,"Ġmazuri":2136,"Ġziki":2137,"Ġiliyokuwa":2138,"staafu":2139,"Ġmabe":2140,"panda":2141,"Ġmipa":2142,"Ġutafiti":2143,"Ġmawili":2144,"Ġviwanda":2145,"ngezeka":2146,"wasi":2147,"singi":2148,"Ġsare":2149,"Ġyeyote":2150,"Ġafrica":2151,"fanyia":2152,"Ġmajeruhi":2153,"ast":2154,"kumbu":2155,"Ġmiradi":2156,"mbwa":2157,"Ġfulani":2158,"kri":2159,"Ġkuko":2160,"Ġmazungum":2161,"Ġnishati":2162,"Ġmgogoro":2163,"Ġaskofu":2164,"Ġmazungumzo":2165,"Ġmaza":2166,"Ġuba":2167,"rehe":2168,"Ġmwandishi":2169,"Ġokto":2170,"Ġoktoba":2171,"onyesha":2172,"lii":2173,"siwa":2174,"Ġkilo":2175,"heshi":2176,"Ġhuenda":2177,"Ġjk":2178,"kubaliana":2179,"Ġama":2180,"shahara":2181,"tegemea":2182,"pika":2183,"Ġmei":2184,"Ġkuingi":2185,"Ġmfanya":2186,"Ġivo":2187,"Ġkisu":2188,"Ġzambia":2189,"Ġrich":2190,"pungufu":2191,"ziri":2192,"jaa":2193,"chungu":2194,"Ġwatumishi":2195,"Ġkutangaza":2196,"kabiliwa":2197,"Ġaji":2198,"mosi":2199,"Ġbot":2200,"fuata":2201,"ema":2202,"lai":2203,"lojia":2204,"Ġlinalo":2205,"Ġaidha":2206,"Ġmanu":2207,"siliano":2208,"Ġrichmond":2209,"Ġmachi":2210,"dhamu":2211,"Ġpande":2212,"Ġjumamosi":2213,"Ġuhusiano":2214,"Ġzetu":2215,"elezwa":2216,"Ġwewe":2217,"Ġutawala":2218,"Ġmtendaji":2219,"Ġmawasiliano":2220,"Ġthamani":2221,"Ġspika":2222,"Ġsafi":2223,"Ġngumu":2224,"Ġkuzuia":2225,"maji":2226,"Ġmage":2227,"Ġtamko":2228,"chumi":2229,"Ġkulipa":2230,"ns":2231,"Ġwacha":2232,"mavu":2233,"Ġushauri":2234,"Ġkutekeleza":2235,"julikana":2236,"Ġmisri":2237,"Ġmazao":2238,"Ġkadi":2239,"rere":2240,"Ġmakuu":2241,"Ġkupoteza":2242,"marisha":2243,"Ġmalalami":2244,"ziki":2245,"misho":2246,"teli":2247,"mbuli":2248,"Ġsugar":2249,"Ġmalalamiko":2250,"Ġaza":2251,"Ġmawaziri":2252,"Ġbinadamu":2253,"maha":2254,"Ġmai":2255,"Ġwanaweza":2256,"nyanga":2257,"dumu":2258,"Ġkiuchumi":2259,"Ġmtaa":2260,"tajwa":2261,"Ġswali":2262,"hudia":2263,"Ġphiri":2264,"Ġcoast":2265,"Ġnyerere":2266,"Ġmag":2267,"sikia":2268,"lezi":2269,"Ġmiwili":2270,"Ġkuishi":2271,"mbuzi":2272,"Ġmwenyewe":2273,"twaa":2274,"Ġukim":2275,"ny":2276,"tua":2277,"bio":2278,"Ġsera":2279,"Ġngassa":2280,"Ġkuonesha":2281,"Ġhuwa":2282,"zoe":2283,"ndao":2284,"ngekuwa":2285,"Ġmuziki":2286,"Ġwizi":2287,"Ġkuondoa":2288,"ban":2289,"Ġmatiba":2290,"Ġkutokea":2291,"giza":2292,"Ġpesa":2293,"Ġdaraja":2294,"Ġjkt":2295,"Ġivory":2296,"Ġmatibabu":2297,"ara":2298,"Ġwaja":2299,"Ġawa":2300,"Ġkuwasilisha":2301,"Ġshinyanga":2302,"nyama":2303,"Ġdereva":2304,"Ġkiungo":2305,"Ġwatendaji":2306,"mke":2307,"Ġwau":2308,"Ġyako":2309,"tihada":2310,"san":2311,"Ġjitihada":2312,"Ġmaarufu":2313,"vemba":2314,"Ġwasio":2315,"Ġnovemba":2316,"Ġabiria":2317,"wekwa":2318,"raha":2319,"Ġalikiri":2320,"yumba":2321,"tta":2322,"Ġkuzungumza":2323,"lenga":2324,"Ġmashahidi":2325,"Ġalieleza":2326,"ngereza":2327,"Ġkujia":2328,"Ġkukabiliana":2329,"Ġwais":2330,"ribio":2331,"huri":2332,"ngua":2333,"gawa":2334,"Ġazam":2335,"Ġalihoji":2336,"Ġanaweza":2337,"chungaji":2338,"Ġkuibu":2339,"Ġmikakati":2340,"Ġmv":2341,"liki":2342,"Ġkutokuwa":2343,"Ġjukumu":2344,"Ġfaida":2345,"Ġmwenza":2346,"Ġmakamu":2347,"ct":2348,"rsa":2349,"Ġslaa":2350,"Ġmasi":2351,"Ġubora":2352,"shiki":2353,"Ġsiyo":2354,"Ġfursa":2355,"Ġmeneja":2356,"ward":2357,"Ġsifa":2358,"Ġwatakuwa":2359,"lalamika":2360,"Ġmadhara":2361,"Ġvijijini":2362,"Ġakitoa":2363,"Ġkujibu":2364,"Ġlenye":2365,"Ġwaha":2366,"Ġwapiga":2367,"idizi":2368,"Ġkupanda":2369,"maliza":2370,"fikishwa":2371,"Ġmwishoni":2372,"ingereza":2373,"Ġuweze":2374,"Ġiwe":2375,"Ġbusanda":2376,"riwa":2377,"kua":2378,"Ġmwak":2379,"Ġlita":2380,"Ġtiketi":2381,"puka":2382,"Ġkugombea":2383,"Ġkanda":2384,"ruhusu":2385,"Ġmakao":2386,"Ġkuanzisha":2387,"sanii":2388,"Ġedward":2389,"pinga":2390,"Ġwanatakiwa":2391,"Ġwatakao":2392,"Ġkufa":2393,"kizi":2394,"Ġkuwaa":2395,"pokea":2396,"ulizwa":2397,"Ġmbinu":2398,"ndele":2399,"kodi":2400,"Ġvifo":2401,"ndisha":2402,"Ġziara":2403,"Ġpri":2404,"Ġwapinzani":2405,"Ġvyema":2406,"Ġwataalamu":2407,"niki":2408,"Ġupe":2409,"Ġvema":2410,"Ġmkapa":2411,"Ġwasiwasi":2412,"lsea":2413,"wazi":2414,"Ġmahitaji":2415,"Ġhawezi":2416,"Ġalifafanua":2417,"Ġjam":2418,"Ġhoteli":2419,"ghulikia":2420,"Ġchelsea":2421,"Ġwateja":2422,"Ġmgumu":2423,"Ġkume":2424,"maini":2425,"Ġchan":2426,"Ġwanataka":2427,"Ġulikuwa":2428,"Ġhatima":2429,"Ġjoseph":2430,"Ġnidhamu":2431,"Ġhalisi":2432,"Ġmwanamke":2433,"pelekwa":2434,"Ġste":2435,"madu":2436,"Ġkiti":2437,"uliza":2438,"Ġmchana":2439,"Ġkupokea":2440,"Ġmajaribio":2441,"Ġkusimamia":2442,"maduni":2443,"Ġyale":2444,"taki":2445,"Ġsalama":2446,"Ġjulai":2447,"storia":2448,"Ġmaombi":2449,"Ġmtibwa":2450,"fungua":2451,"nywa":2452,"Ġmigo":2453,"Ġkuuza":2454,"Ġtek":2455,"Ġkas":2456,"Ġsitta":2457,"Ġiliyotolewa":2458,"Ġkukutana":2459,"Ġbar":2460,"Ġmoyo":2461,"pelelezi":2462,"Ġmtandao":2463,"Ġzenye":2464,"Ġkimya":2465,"ili":2466,"Ġmla":2467,"Ġwasanii":2468,"ringa":2469,"zigo":2470,"Ġiringa":2471,"les":2472,"fanye":2473,"Ġinaweza":2474,"Ġmchango":2475,"Ġupo":2476,"Ġmkulo":2477,"Ġkujiunga":2478,"Ġmipango":2479,"ongeza":2480,"jita":2481,"poteza":2482,"Ġkutolewa":2483,"fia":2484,"Ġakisema":2485,"Ġkiwanda":2486,"tambua":2487,"Ġhakuwa":2488,"jayo":2489,"Ġsalu":2490,"Ġchache":2491,"goma":2492,"pumba":2493,"Ġmwekezaji":2494,"Ġarse":2495,"chunguza":2496,"Ġajira":2497,"Ġkuya":2498,"Ġhiki":2499,"rani":2500,"ramu":2501,"Ġwingi":2502,"lipa":2503,"Ġmasa":2504,"mina":2505,"nes":2506,"Ġalipokuwa":2507,"Ġkufuatia":2508,"kano":2509,"Ġasi":2510,"Ġtamaa":2511,"Ġreli":2512,"Ġkumalizika":2513,"Ġmifugo":2514,"Ġujumla":2515,"rl":2516,"Ġmalu":2517,"Ġujumbe":2518,"Ġupungufu":2519,"shima":2520,"Ġsama":2521,"Ġmoshi":2522,"Ġdamu":2523,"Ġmakazi":2524,"Ġruvu":2525,"Ġheshima":2526,"Ġjamhuri":2527,"Ġmalumbano":2528,"kishwa":2529,"Ġika":2530,"Ġmila":2531,"pum":2532,"Ġfre":2533,"Ġkupinga":2534,"Ġmasharti":2535,"Ġmakuba":2536,"Ġkufuata":2537,"ngeneza":2538,"fla":2539,"wasili":2540,"lim":2541,"Ġwavu":2542,"mbani":2543,"ol":2544,"Ġkuzalisha":2545,"Ġmau":2546,"tuma":2547,"Ġmtuhumiwa":2548,"Ġnyaraka":2549,"Ġfidia":2550,"Ġkisasa":2551,"Ġkuso":2552,"Ġwaliyo":2553,"Ġkisutu":2554,"spoti":2555,"Ġwanne":2556,"endelee":2557,"ndekezo":2558,"Ġmwanaspoti":2559,"Ġwakuu":2560,"Ġluku":2561,"Ġkununua":2562,"Ġvilivyo":2563,"Ġmakubaliano":2564,"Ġkuwasaidia":2565,"Ġatakuwa":2566,"Ġushindani":2567,"Ġkujadili":2568,"Ġaha":2569,"Ġijayo":2570,"mishwa":2571,"Ġmiti":2572,"chote":2573,"Ġripoti":2574,"Ġchochote":2575,"Ġkusha":2576,"Ġkara":2577,"Ġilala":2578,"Ġmikono":2579,"Ġkira":2580,"ngani":2581,"Ġkero":2582,"Ġmajambazi":2583,"Ġmitatu":2584,"Ġnyota":2585,"Ġmha":2586,"lafu":2587,"Ġutu":2588,"Ġubunge":2589,"Ġuingereza":2590,"Ġlipumba":2591,"kamata":2592,"Ġhawaku":2593,"llah":2594,"sababi":2595,"dd":2596,"Ġkuche":2597,"Ġkifungu":2598,"nganisha":2599,"Ġwanaume":2600,"ndikisha":2601,"Ġrashi":2602,"Ġkumwa":2603,"Ġutamaduni":2604,"sheni":2605,"Ġukimwi":2606,"Ġahadi":2607,"Ġkuwataka":2608,"Ġliki":2609,"mbiwa":2610,"Ġmfupi":2611,"Ġkuzingatia":2612,"Ġkuibuka":2613,"ngland":2614,"Ġutumi":2615,"yembe":2616,"Ġhuyu":2617,"Ġengland":2618,"mbelea":2619,"Ġawamu":2620,"Ġuwezekano":2621,"Ġkuhi":2622,"Ġnita":2623,"Ġmize":2624,"Ġmishahara":2625,"endeshwa":2626,"Ġmjumbe":2627,"koa":2628,"nolojia":2629,"Ġmgosi":2630,"Ġalipoulizwa":2631,"dhuria":2632,"Ġsalum":2633,"nna":2634,"Ġkuweza":2635,"faka":2636,"Ġvo":2637,"fikisha":2638,"Ġhawaja":2639,"Ġafrican":2640,"mwe":2641,"tri":2642,"Ġis":2643,"sabu":2644,"Ġkuimarisha":2645,"Ġmsaidizi":2646,"Ġmakocha":2647,"elelezo":2648,"mpa":2649,"Ġwajibu":2650,"dio":2651,"ngiwa":2652,"Ġjanua":2653,"Ġmwinyi":2654,"nyika":2655,"Ġmajukumu":2656,"Ġlukuvi":2657,"pte":2658,"mbamba":2659,"Ġalia":2660,"Ġsiri":2661,"Ġvijiji":2662,"Ġongeze":2663,"Ġmahali":2664,"Ġunaweza":2665,"Ġpwani":2666,"Ġgeo":2667,"Ġjanuari":2668,"Ġongezeko":2669,"Ġupelelezi":2670,"kukuru":2671,"Ġkija":2672,"paji":2673,"Ġtakukuru":2674,"Ġiliyopo":2675,"Ġkuendeleza":2676,"chia":2677,"Ġakili":2678,"Ġrekodi":2679,"ondoka":2680,"Ġmvua":2681,"Ġmwakyembe":2682,"Ġarsenal":2683,"Ġmchungaji":2684,"hati":2685,"Ġiko":2686,"Ġbaina":2687,"gizo":2688,"Ġhaija":2689,"Ġyasi":2690,"Ġkadhi":2691,"Ġima":2692,"Ġviti":2693,"gaji":2694,"Ġmikopo":2695,"Ġvikao":2696,"Ġzikiwa":2697,"Ġmwanafunzi":2698,"kh":2699,"Ġmja":2700,"chana":2701,"Ġkuwania":2702,"sumbu":2703,"nuzi":2704,"beba":2705,"Ġkusikia":2706,"Ġmajengo":2707,"Ġchombo":2708,"Ġteknolojia":2709,"rge":2710,"liza":2711,"Ġkumbu":2712,"Ġvilla":2713,"Ġkulinda":2714,"Ġalba":2715,"stahili":2716,"Ġmapendekezo":2717,"Ġufundi":2718,"Ġwachache":2719,"Ġutumishi":2720,"Ġwazee":2721,"Ġlao":2722,"nganyi":2723,"Ġmadega":2724,"Ġam":2725,"razi":2726,"sanya":2727,"patia":2728,"Ġnzima":2729,"Ġviu":2730,"Ġambani":2731,"Ġlilikuwa":2732,"Ġmatukio":2733,"gha":2734,"ll":2735,"lizo":2736,"yon":2737,"Ġhusu":2738,"Ġwanasiasa":2739,"Ġmfuko":2740,"muziki":2741,"Ġwapa":2742,"Ġsele":2743,"Ġupya":2744,"Ġkato":2745,"siwani":2746,"Ġkitaifa":2747,"refu":2748,"dhimisho":2749,"Ġrahisi":2750,"Ġfc":2751,"Ġmaadhimisho":2752,"Ġofisini":2753,"Ġkuchangia":2754,"kataa":2755,"Ġva":2756,"luma":2757,"Ġupatu":2758,"Ġkukata":2759,"Ġmaswali":2760,"Ġwawekezaji":2761,"nji":2762,"tma":2763,"waji":2764,"Ġkudumu":2765,"bidhi":2766,"Ġilisema":2767,"Ġmaadili":2768,"Ġwakiwemo":2769,"Ġmfulu":2770,"Ġkaimu":2771,"undwa":2772,"Ġmahu":2773,"Ġvyote":2774,"Ġilipo":2775,"Ġzile":2776,"liam":2777,"Ġtege":2778,"ransa":2779,"sse":2780,"Ġmstaafu":2781,"Ġwahusika":2782,"nekana":2783,"Ġmaandamano":2784,"Ġmto":2785,"Ġkuzungumzia":2786,"Ġufa":2787,"Ġhadhara":2788,"Ġkite":2789,"rusi":2790,"Ġtuzo":2791,"Ġgra":2792,"fanikisha":2793,"vaa":2794,"Ġyupo":2795,"Ġmkononi":2796,"Ġabda":2797,"Ġand":2798,"Ġutaka":2799,"Ġkijana":2800,"funza":2801,"Ġtani":2802,"Ġkuamua":2803,"Ġkujitokeza":2804,"Ġkulingana":2805,"tumiwa":2806,"shuhudia":2807,"milisha":2808,"Ġmapambano":2809,"fahamika":2810,"Ġathu":2811,"ambia":2812,"Ġhalafu":2813,"Ġsambamba":2814,"Ġviwa":2815,"Ġmwakale":2816,"Ġrufaa":2817,"mbulisho":2818,"Ġrashid":2819,"iro":2820,"wt":2821,"him":2822,"Ġbakari":2823,"Ġpasi":2824,"Ġmashirika":2825,"Ġkikuu":2826,"Ġmadarakani":2827,"Ġimara":2828,"lipwa":2829,"Ġufafan":2830,"ndisi":2831,"rume":2832,"Ġsamaki":2833,"Ġkirafiki":2834,"Ġufafanuzi":2835,"itwa":2836,"uka":2837,"Ġmzima":2838,"Ġkuendesha":2839,"Ġataka":2840,"ndaliwa":2841,"Ġzingine":2842,"Ġimea":2843,"Ġgereza":2844,"Ġkipato":2845,"Ġprison":2846,"Ġmfululizo":2847,"himbili":2848,"mtaka":2849,"ur":2850,"Ġkichwa":2851,"Ġmuhimbili":2852,"ndoni":2853,"Ġakau":2854,"Ġlyon":2855,"Ġmizengo":2856,"tari":2857,"Ġhistoria":2858,"Ġbahati":2859,"ngeweza":2860,"Ġsepte":2861,"Ġkulikuwa":2862,"Ġmatumaini":2863,"Ġabdallah":2864,"Ġprisons":2865,"ani":2866,"rwa":2867,"Ġmala":2868,"Ġhatma":2869,"kebi":2870,"pool":2871,"chezwa":2872,"Ġliver":2873,"lianza":2874,"Ġkupigwa":2875,"Ġkipigo":2876,"Ġvinavyo":2877,"Ġliverpool":2878,"ikh":2879,"Ġkufanikiwa":2880,"hama":2881,"bainika":2882,"malizika":2883,"Ġseptemba":2884,"mamizi":2885,"Ġmawe":2886,"lazwa":2887,"jaribu":2888,"Ġwakubwa":2889,"ruhiwa":2890,"Ġmaiti":2891,"Ġakaunti":2892,"Ġyaki":2893,"Ġhatia":2894,"Ġhalali":2895,"tuhumiwa":2896,"Ġkino":2897,"uawa":2898,"Ġzombe":2899,"Ġkuhama":2900,"Ġgeorge":2901,"ika":2902,"mvi":2903,"tha":2904,"Ġmua":2905,"Ġmzungu":2906,"leta":2907,"Ġchai":2908,"Ġwakizungumza":2909,"ckson":2910,"Ġmikataba":2911,"Ġwagombea":2912,"Ġmate":2913,"Ġib":2914,"Ġhama":2915,"bika":2916,"Ġbeki":2917,"Ġtoka":2918,"Ġuliopita":2919,"shangaa":2920,"wongo":2921,"Ġmshindi":2922,"tatu":2923,"shaji":2924,"furahi":2925,"gundua":2926,"Ġpembe":2927,"Ġyusu":2928,"Ġkuonekana":2929,"Ġamewataka":2930,"Ġkinondoni":2931,"wakilishi":2932,"Ġkudhibiti":2933,"Ġago":2934,"ngga":2935,"Ġiku":2936,"kundu":2937,"Ġkilango":2938,"bela":2939,"Ġwaathirika":2940,"Ġkutengeneza":2941,"Ġwilliam":2942,"heshimiwa":2943,"Ġmwakalebela":2944,"lle":2945,"tafuta":2946,"pangwa":2947,"lozi":2948,"guliwa":2949,"Ġkumpa":2950,"Ġutata":2951,"Ġjengo":2952,"stawi":2953,"Ġmapenzi":2954,"Ġmfanyabiashara":2955,"Ġmagharibi":2956,"Ġhatimaye":2957,"Ġkufanikisha":2958,"Ġaliya":2959,"Ġinaendelea":2960,"Ġjirani":2961,"jiandaa":2962,"iambia":2963,"Ġyuko":2964,"Ġwenzao":2965,"Ġkuelekea":2966,"Ġyasiyo":2967,"Ġikulu":2968,"al":2969,"Ġwaraka":2970,"Ġkurejea":2971,"tetea":2972,"Ġmilipuko":2973,"Ġinavyo":2974,"ndoka":2975,"Ġfer":2976,"Ġufumbuzi":2977,"bwe":2978,"dhe":2979,"wakabili":2980,"Ġmri":2981,"Ġkucho":2982,"mes":2983,"semaji":2984,"Ġboni":2985,"Ġmabaya":2986,"Ġlilitokea":2987,"Ġkusikiliza":2988,"zoefu":2989,"uza":2990,"Ġmsu":2991,"Ġkuhoji":2992,"Ġkuchunguza":2993,"jipanga":2994,"Ġalipata":2995,"semba":2996,"Ġkuwasili":2997,"Ġsakata":2998,"pia":2999,"Ġserikalini":3000,"gia":3001,"Ġkusikilizwa":3002,"ifu":3003,"nte":3004,"rles":3005,"nii":3006,"Ġkimoja":3007,"Ġvyu":3008,"sudi":3009,"Ġtrl":3010,"Ġutakuwa":3011,"Ġnyakati":3012,"Ġkufuatilia":3013,"Ġrwanda":3014,"lwa":3015,"Ġkukubali":3016,"nggo":3017,"sajili":3018,"elewa":3019,"Ġkuonyesha":3020,"thiri":3021,"Ġwenyeji":3022,"Ġjumanne":3023,"Ġjumatatu":3024,"Ġabdu":3025,"Ġkutimiza":3026,"Ġviungo":3027,"Ġufaransa":3028,"sca":3029,"ud":3030,"kamilika":3031,"Ġuzi":3032,"siri":3033,"Ġakina":3034,"Ġombi":3035,"Ġunajua":3036,"Ġmkakati":3037,"Ġmarekebi":3038,"Ġusafiri":3039,"kazini":3040,"Ġkuanzishwa":3041,"Ġisipokuwa":3042,"Ġkaskazini":3043,"Ġmarekebisho":3044,"Ġmno":3045,"tongo":3046,"Ġmisingi":3047,"Ġmajimaji":3048,"Ġzilizopo":3049,"mfanya":3050,"ty":3051,"Ġkelele":3052,"Ġkusisitiza":3053,"hadha":3054,"Ġviku":3055,"rodha":3056,"Ġakiwemo":3057,"Ġdesemba":3058,"celo":3059,"Ġkibali":3060,"Ġviwango":3061,"sikiti":3062,"Ġwalizo":3063,"Ġtra":3064,"Ġnyimbo":3065,"Ġkufungua":3066,"Ġzilikuwa":3067,"Ġkujiandaa":3068,"Ġmzunguko":3069,"Ġkutumika":3070,"Ġindia":3071,"Ġbahari":3072,"ruhu":3073,"Ġbinti":3074,"mbulizi":3075,"Ġmkali":3076,"Ġuliofanyika":3077,"Ġkushuka":3078,"Ġmanufaa":3079,"pumzi":3080,"kabidhi":3081,"tuba":3082,"bidi":3083,"ngoni":3084,"Ġsene":3085,"gogo":3086,"Ġjackson":3087,"jenga":3088,"Ġakijibu":3089,"mbukizi":3090,"Ġkutambua":3091,"Ġally":3092,"Ġbarabarani":3093,"Ġmrema":3094,"if":3095,"Ġmsemaji":3096,"tishwa":3097,"sikini":3098,"Ġhifadhi":3099,"Ġcharles":3100,"Ġitaendelea":3101,"Ġdeni":3102,"Ġmakali":3103,"Ġuliopo":3104,"Ġkufikishwa":3105,"Ġkuvunja":3106,"Ġumasikini":3107,"lili":3108,"Ġkukamatwa":3109,"Ġkushika":3110,"Ġaibu":3111,"zingatia":3112,"kutwa":3113,"Ġvingi":3114,"Ġsemina":3115,"Ġpatri":3116,"Ġmussa":3117,"Ġhukumu":3118,"Ġyalikuwa":3119,"Ġmazishi":3120,"Ġmaelekezo":3121,"Ġghafla":3122,"nikiza":3123,"Ġmuafaka":3124,"anzi":3125,"Ġwadogo":3126,"Ġmahi":3127,"pongeza":3128,"ngazwa":3129,"Ġathari":3130,"Ġmasomo":3131,"kristo":3132,"Ġmwenzake":3133,"Ġmwongo":3134,"timu":3135,"tembelea":3136,"Ġmitano":3137,"shirikisha":3138,"zembe":3139,"suko":3140,"Ġvyao":3141,"Ġhaikuwa":3142,"Ġmawazo":3143,"Ġwaislamu":3144,"Ġbarcelo":3145,"Ġagosti":3146,"Ġbonifa":3147,"Ġbarcelona":3148,"hri":3149,"nce":3150,"lifu":3151,"Ġkuni":3152,"Ġkutwaa":3153,"rio":3154,"Ġidd":3155,"Ġnja":3156,"Ġilitolewa":3157,"resheni":3158,"Ġanaamini":3159,"Ġpau":3160,"Ġchri":3161,"Ġzoezi":3162,"hitajika":3163,"Ġilivyokuwa":3164,"Ġkumbukumbu":3165,"khe":3166,"pp":3167,"vis":3168,"wadi":3169,"Ġkuchukuliwa":3170,"Ġnaamini":3171,"tolea":3172,"jeshi":3173,"Ġmume":3174,"Ġmaambukizi":3175,"Ġpeter":3176,"Ġkupatikana":3177,"vamia":3178,"Ġzimekuwa":3179,"Ġhazina":3180,"Ġkuepuka":3181,"Ġmabeki":3182,"Ġboniface":3183,"Ġgi":3184,"liko":3185,"Ġkuongoza":3186,"Ġmacha":3187,"sikili":3188,"semwa":3189,"Ġnika":3190,"Ġvisiwani":3191,"wishi":3192,"hakiki":3193,"Ġmsanii":3194,"Ġwaza":3195,"mas":3196,"Ġseif":3197,"Ġfran":3198,"Ġhawawezi":3199,"endeshaji":3200,"thmini":3201,"Ġibrahi":3202,"Ġw":3203,"Ġwamiliki":3204,"yansi":3205,"zaliwa":3206,"kimu":3207,"Ġustawi":3208,"Ġiju":3209,"Ġkitaa":3210,"Ġmingi":3211,"Ġvime":3212,"Ġshida":3213,"Ġkukamilisha":3214,"Ġgeita":3215,"Ġyule":3216,"Ġinter":3217,"brua":3218,"phe":3219,"wafanya":3220,"Ġkureje":3221,"Ġiweze":3222,"Ġmwamuzi":3223,"Ġzitaka":3224,"Ġole":3225,"Ġfebrua":3226,"Ġkusafi":3227,"Ġkukataa":3228,"Ġjopo":3229,"fadhili":3230,"shangazwa":3231,"Ġazi":3232,"Ġuongo":3233,"Ġkarume":3234,"Ġkifu":3235,"gal":3236,"Ġwatano":3237,"Ġkusamba":3238,"Ġmwanasheria":3239,"Ġchetu":3240,"Ġkujali":3241,"Ġijumaa":3242,"Ġmheshimiwa":3243,"Ġhami":3244,"mio":3245,"Ġanaripoti":3246,"Ġpicha":3247,"Ġkuongezeka":3248,"Ġoma":3249,"kwamisha":3250,"Ġkufuta":3251,"Ġuwekezaji":3252,"Ġmwongozo":3253,"ana":3254,"sua":3255,"skofu":3256,"tto":3257,"Ġmvu":3258,"kadi":3259,"bali":3260,"lau":3261,"raba":3262,"ngamano":3263,"Ġvigumu":3264,"Ġkamwe":3265,"Ġkwanini":3266,"bainisha":3267,"Ġgesi":3268,"com":3269,"Ġvitambulisho":3270,"Ġsenegal":3271,"Ġfebruari":3272,"ad":3273,"Ġmlipuko":3274,"lius":3275,"Ġnaho":3276,"bani":3277,"Ġkase":3278,"sira":3279,"Ġtabora":3280,"Ġtakwi":3281,"Ġwanaendelea":3282,"Ġjulius":3283,"Ġkuifunga":3284,"Ġwakidai":3285,"Ġbendi":3286,"chukulia":3287,"Ġsura":3288,"Ġburu":3289,"Ġhaiwezi":3290,"Ġfuraha":3291,"Ġwakurugenzi":3292,"Ġwaumini":3293,"Ġtakwimu":3294,"Ġwawakilishi":3295,"Ġuendeshaji":3296,"chika":3297,"Ġzipo":3298,"Ġliyumba":3299,"Ġinadaiwa":3300,"Ġrafiki":3301,"soro":3302,"Ġbenchi":3303,"Ġkupanga":3304,"shughulikia":3305,"Ġchuji":3306,"Ġlowa":3307,"Ġmadeni":3308,"Ġkitengo":3309,"ahidi":3310,"Ġkufanyiwa":3311,"Ġnaomba":3312,"Ġmagumu":3313,"Ġkamili":3314,"Ġalivyo":3315,"dacom":3316,"Ġtawi":3317,"shinikiza":3318,"Ġmiili":3319,"piki":3320,"chiwa":3321,"Ġdalili":3322,"Ġkuandika":3323,"Ġmaafa":3324,"vid":3325,"Ġshaka":3326,"Ġhesabu":3327,"Ġmtihani":3328,"Ġmbio":3329,"jitahidi":3330,"Ġvodacom":3331,"Ġuzinduzi":3332,"Ġibrahim":3333,"Ġlowassa":3334,"Ġmabi":3335,"saha":3336,"Ġzangu":3337,"Ġlab":3338,"Ġmeli":3339,"Ġmaaskofu":3340,"Ġposho":3341,"Ġsulu":3342,"Ġnguo":3343,"Ġhewa":3344,"Ġukaguzi":3345,"ondoa":3346,"Ġulemavu":3347,"razil":3348,"Ġngele":3349,"Ġkupeleka":3350,"Ġuzoefu":3351,"Ġkia":3352,"Ġtakri":3353,"Ġmikuta":3354,"Ġwalivyo":3355,"gambo":3356,"Ġmwakilishi":3357,"Ġrama":3358,"Ġrasili":3359,"Ġtoto":3360,"Ġmwene":3361,"Ġmatatu":3362,"Ġchumba":3363,"Ġajabu":3364,"Ġukumbi":3365,"Ġmagereza":3366,"Ġkijamii":3367,"Ġmrisho":3368,"Ġmikutano":3369,"Ġrasilimali":3370,"cto":3371,"wataka":3372,"Ġwageni":3373,"tion":3374,"Ġalianza":3375,"ment":3376,"tende":3377,"Ġnjaa":3378,"chezea":3379,"Ġziwa":3380,"dhifa":3381,"shtaka":3382,"Ġope":3383,"Ġsheikh":3384,"Ġpenal":3385,"Ġmwananchi":3386,"Ġsule":3387,"Ġmsamaha":3388,"Ġaliwahi":3389,"cio":3390,"Ġmarcio":3391,"Ġwafuasi":3392,"Ġaliyasema":3393,"Ġpatrick":3394,"Ġpenalti":3395,"Ġgu":3396,"Ġwapenzi":3397,"Ġkubaki":3398,"Ġagizo":3399,"Ġmashtaka":3400,"Ġhusse":3401,"miaji":3402,"kwazo":3403,"Ġkupatiwa":3404,"Ġkutetea":3405,"Ġhaita":3406,"Ġisiyo":3407,"Ġmjadala":3408,"Ġamri":3409,"Ġgrace":3410,"Ġathuman":3411,"tongoji":3412,"ruhusiwa":3413,"Ġkaseja":3414,"the":3415,"Ġmbu":3416,"Ġmso":3417,"lie":3418,"Ġmadogo":3419,"jikuta":3420,"fara":3421,"elezea":3422,"pesi":3423,"Ġkuandaa":3424,"Ġkuhusika":3425,"Ġkukamilika":3426,"shuka":3427,"pta":3428,"Ġkusu":3429,"Ġhispa":3430,"ton":3431,"Ġtawala":3432,"tekeleza":3433,"Ġsiwezi":3434,"Ġwanapo":3435,"fikiwa":3436,"Ġsende":3437,"Ġtuki":3438,"Ġkujifunza":3439,"Ġmabasi":3440,"Ġbuko":3441,"fikiri":3442,"Ġprog":3443,"fuatilia":3444,"Ġmsekwa":3445,"Ġvyuo":3446,"Ġngeleja":3447,"lp":3448,"toe":3449,"bino":3450,"saini":3451,"pambana":3452,"Ġtanes":3453,"keo":3454,"ngamizi":3455,"Ġvielelezo":3456,"Ġvipaji":3457,"jumu":3458,"Ġjangwa":3459,"Ġtlp":3460,"Ġhatuwezi":3461,"Ġmisamaha":3462,"Ġdarasa":3463,"shikilia":3464,"Ġutakao":3465,"Ġzitakazo":3466,"Ġtanesco":3467,"linda":3468,"Ġwanyama":3469,"Ġmagonjwa":3470,"saji":3471,"fuku":3472,"sefu":3473,"Ġzawadi":3474,"Ġrangi":3475,"zwaji":3476,"ridhika":3477,"Ġukosefu":3478,"Ġwafugaji":3479,"Ġmigogoro":3480,"Ġhispania":3481,"Ġwaamuzi":3482,"Ġkure":3483,"Ġnazo":3484,"Ġmaho":3485,"Ġmanya":3486,"Ġhisia":3487,"Ġwanayo":3488,"Ġwanafanya":3489,"pende":3490,"Ġhotuba":3491,"Ġjene":3492,"Ġhawata":3493,"Ġmashu":3494,"Ġkufikisha":3495,"Ġlimekuwa":3496,"mka":3497,"kala":3498,"Ġale":3499,"Ġissa":3500,"Ġkigoma":3501,"kebisha":3502,"Ġmingine":3503,"Ġilianza":3504,"mon":3505,"ndikwa":3506,"Ġtiba":3507,"rou":3508,"Ġanataka":3509,"Ġpingamizi":3510,"Ġkuamini":3511,"Ġkumtaka":3512,"Ġmgonjwa":3513,"wasilishwa":3514,"Ġabdul":3515,"Ġnahodha":3516,"Ġoperesheni":3517,"ftari":3518,"ongezeka":3519,"wama":3520,"Ġmsta":3521,"Ġmgeni":3522,"Ġwahi":3523,"Ġhisa":3524,"leni":3525,"menti":3526,"fuu":3527,"mivu":3528,"heni":3529,"Ġlawama":3530,"Ġmiku":3531,"Ġmizigo":3532,"Ġwanatarajia":3533,"Ġjames":3534,"Ġwameanza":3535,"Ġletu":3536,"Ġkupita":3537,"Ġkilisema":3538,"Ġsongea":3539,"Ġmwanamuziki":3540,"Ġkuchagua":3541,"Ġkukuza":3542,"Ġlabda":3543,"Ġhussein":3544,"Ġwadhamini":3545,"hana":3546,"manu":3547,"Ġalifanya":3548,"fau":3549,"lewe":3550,"saka":3551,"Ġlikiwa":3552,"Ġdavid":3553,"Ġbihara":3554,"jiano":3555,"Ġpemba":3556,"Ġhadharani":3557,"Ġmahojiano":3558,"fre":3559,"wasilisha":3560,"hami":3561,"Ġudha":3562,"Ġalicho":3563,"mewa":3564,"fungia":3565,"din":3566,"Ġwanapaswa":3567,"Ġwalianza":3568,"runa":3569,"Ġjamaa":3570,"Ġzisi":3571,"Ġbingwa":3572,"Ġinawezekana":3573,"Ġjibu":3574,"Ġkwetu":3575,"Ġuliotolewa":3576,"Ġalbino":3577,"endera":3578,"Ġmitihani":3579,"Ġhamad":3580,"Ġsulei":3581,"manuel":3582,"itaka":3583,"nsia":3584,"Ġmra":3585,"Ġkulia":3586,"Ġmadi":3587,"Ġufani":3588,"Ġkida":3589,"Ġaliendelea":3590,"tes":3591,"Ġmwai":3592,"gopa":3593,"Ġinaonekana":3594,"Ġkova":3595,"Ġimeanza":3596,"Ġkuunda":3597,"Ġrufani":3598,"Ġshahada":3599,"Ġdusan":3600,"stani":3601,"Ġjimboni":3602,"Ġmbowe":3603,"ridhisha":3604,"ingiza":3605,"nganishwa":3606,"nry":3607,"td":3608,"unda":3609,"limisha":3610,"Ġharuna":3611,"jadili":3612,"rali":3613,"Ġkide":3614,"leza":3615,"Ġzitto":3616,"road":3617,"Ġjukwa":3618,"Ġkuifanya":3619,"luki":3620,"Ġjumatano":3621,"Ġhenry":3622,"Ġlugha":3623,"Ġnilikuwa":3624,"Ġmganga":3625,"Ġurais":3626,"rabati":3627,"iomba":3628,"Ġkugo":3629,"Ġmahe":3630,"Ġmaone":3631,"ris":3632,"Ġkash":3633,"hudhuria":3634,"Ġkigeni":3635,"Ġalizo":3636,"Ġsina":3637,"Ġsingi":3638,"Ġbendera":3639,"ndamizi":3640,"Ġwanadaiwa":3641,"Ġanatakiwa":3642,"Ġmusta":3643,"suru":3644,"shwe":3645,"Ġkuiba":3646,"Ġorodha":3647,"riadha":3648,"Ġwaliopo":3649,"Ġtunataka":3650,"Ġkusaini":3651,"Ġmwanachama":3652,"Ġgod":3653,"Ġmaumivu":3654,"Ġufanisi":3655,"Ġmaonesho":3656,"Ġkashfa":3657,"Ġpu":3658,"nard":3659,"Ġmli":3660,"Ġmpenzi":3661,"Ġkuthibitisha":3662,"Ġnadhani":3663,"chagua":3664,"Ġzima":3665,"Ġci":3666,"Ġkazini":3667,"Ġshekhe":3668,"milifu":3669,"Ġusafi":3670,"Ġdharu":3671,"Ġkuvuna":3672,"nzetu":3673,"kwisha":3674,"sababishwa":3675,"vya":3676,"liga":3677,"Ġkusoma":3678,"Ġanga":3679,"Ġukia":3680,"Ġuso":3681,"Ġumbali":3682,"Ġkiji":3683,"Ġkipe":3684,"Ġbaya":3685,"Ġpapo":3686,"Ġkumpiga":3687,"Ġkusaka":3688,"ven":3689,"Ġhospitalini":3690,"Ġvitabu":3691,"Ġltd":3692,"lalamikia":3693,"Ġbusara":3694,"Ġurafiki":3695,"shikiliwa":3696,"Ġalex":3697,"Ġmstari":3698,"Ġsingida":3699,"Ġwasa":3700,"mbaji":3701,"Ġalikwenda":3702,"dan":3703,"Ġchao":3704,"Ġwanacho":3705,"Ġpambano":3706,"Ġkutatua":3707,"Ġmgodi":3708,"Ġmadaktari":3709,"Ġrobo":3710,"rahisi":3711,"Ġitakapo":3712,"Ġuvuvi":3713,"Ġzisizo":3714,"Ġsuleiman":3715,"uliwa":3716,"Ġkusubiri":3717,"Ġugo":3718,"Ġkie":3719,"Ġbrazil":3720,"ngilia":3721,"nganya":3722,"Ġwalim":3723,"Ġziada":3724,"zua":3725,"Ġinapo":3726,"Ġratiba":3727,"geria":3728,"Ġtaaluma":3729,"bert":3730,"Ġchiliga":3731,"Ġusimamizi":3732,"Ġkukimbia":3733,"Ġkurudisha":3734,"Ġmikononi":3735,"Ġchiligati":3736,"livu":3737,"Ġwapya":3738,"mbabwe":3739,"Ġtarehe":3740,"Ġkoro":3741,"nufa":3742,"toaji":3743,"Ġshuti":3744,"Ġkutajwa":3745,"Ġumekuwa":3746,"Ġyalisemwa":3747,"Ġkidato":3748,"ld":3749,"Ġsho":3750,"jiunga":3751,"tus":3752,"mulo":3753,"Ġtathmini":3754,"Ġsauti":3755,"Ġmahakimu":3756,"nunuzi":3757,"Ġmashambulizi":3758,"Ġduni":3759,"shukuru":3760,"Ġhaiku":3761,"Ġheliko":3762,"Ġmagoli":3763,"Ġbiharamulo":3764,"Ġhelikopta":3765,"umbele":3766,"Ġukiwa":3767,"Ġkabu":3768,"Ġkibiashara":3769,"mita":3770,"Ġtict":3771,"Ġanatarajia":3772,"Ġinatarajia":3773,"ndoa":3774,"Ġwalionekana":3775,"bovu":3776,"Ġutalii":3777,"Ġmwingi":3778,"tumikia":3779,"nyiko":3780,"Ġusio":3781,"Ġdhana":3782,"Ġumakini":3783,"Ġgoli":3784,"Ġticts":3785,"aji":3786,"Ġmratibu":3787,"Ġkuke":3788,"Ġada":3789,"Ġange":3790,"Ġud":3791,"Ġugeni":3792,"Ġkatikati":3793,"Ġsayansi":3794,"Ġwanasema":3795,"Ġinakuwa":3796,"Ġakitokea":3797,"Ġwimbo":3798,"Ġsherehe":3799,"Ġmashine":3800,"Ġngozi":3801,"Ġkukabidhi":3802,"Ġmeneji":3803,"pha":3804,"Ġkye":3805,"Ġuzazi":3806,"Ġkada":3807,"Ġilani":3808,"Ġkingine":3809,"nesha":3810,"Ġsafu":3811,"hofia":3812,"Ġeti":3813,"Ġinatokana":3814,"Ġraja":3815,"Ġamea":3816,"Ġtele":3817,"Ġmsitu":3818,"Ġmsafara":3819,"Ġaliwataja":3820,"Ġmtanzania":3821,"Ġvipimo":3822,"Ġprogramu":3823,"Ġdharura":3824,"Ġkyela":3825,"Ġmzigo":3826,"Ġkuba":3827,"Ġalo":3828,"Ġushiriki":3829,"Ġutoaji":3830,"Ġkasoro":3831,"simu":3832,"Ġwalidai":3833,"Ġendele":3834,"Ġvyanzo":3835,"Ġpiki":3836,"Ġshein":3837,"Ġyaliyokuwa":3838,"Ġkambini":3839,"Ġkusimama":3840,"Ġmwanzoni":3841,"Ġmilan":3842,"Ġalbamu":3843,"Ġugomvi":3844,"skini":3845,"Ġasasi":3846,"Ġuo":3847,"Ġkizuri":3848,"Ġaliiambia":3849,"Ġzabuni":3850,"Ġzimbabwe":3851,"Ġwenzetu":3852,"Ġkuajiri":3853,"Ġwaliokufa":3854,"Ġkusajili":3855,"Ġreal":3856,"Ġshuleni":3857,"Ġkikamilifu":3858,"Ġumaskini":3859,"Ġnew":3860,"Ġmasoko":3861,"Ġwaislam":3862,"visheni":3863,"Ġkupelekwa":3864,"Ġnafuu":3865,"mai":3866,"Ġuzembe":3867,"Ġhadhi":3868,"Ġkiis":3869,"Ġkidini":3870,"busu":3871,"Ġem":3872,"Ġanadaiwa":3873,"Ġanafafanua":3874,"Ġinapaswa":3875,"Ġpanya":3876,"Ġkuokoa":3877,"Ġmahabusu":3878,"Ġwakiendelea":3879,"Ġhosea":3880,"cela":3881,"Ġchuki":3882,"Ġkuondokana":3883,"Ġkabila":3884,"Ġmalecela":3885,"Ġkuingilia":3886,"Ġmenejimenti":3887,"Ġmshi":3888,"Ġwario":3889,"Ġaweze":3890,"kimbia":3891,"chapa":3892,"shiwa":3893,"Ġvirusi":3894,"horo":3895,"Ġchaguzi":3896,"elekea":3897,"cheze":3898,"jengwa":3899,"jeruhiwa":3900,"Ġraha":3901,"Ġpindi":3902,"mbuliwa":3903,"Ġkutaja":3904,"Ġpengine":3905,"Ġkawambwa":3906,"Ġlililofungwa":3907,"Ġghasia":3908,"Ġkuachana":3909,"Ġkuhamasisha":3910,"Ġpembeni":3911,"Ġwarioba":3912,"hifadhi":3913,"Ġawe":3914,"Ġmabili":3915,"Ġhasira":3916,"biwa":3917,"Ġniki":3918,"Ġsame":3919,"Ġvigogo":3920,"Ġlindi":3921,"Ġwameamua":3922,"Ġkuunga":3923,"Ġhatuna":3924,"Ġitalia":3925,"Ġjinai":3926,"Ġkulevya":3927,"Ġkushughulikia":3928,"Ġruvuma":3929,"Ġugenini":3930,"Ġmabilioni":3931,"fya":3932,"ssi":3933,"nayo":3934,"Ġwastani":3935,"Ġnawa":3936,"Ġami":3937,"lekeo":3938,"Ġnjo":3939,"Ġtre":3940,"Ġimekuja":3941,"Ġkumwo":3942,"Ġwodi":3943,"Ġumebaini":3944,"Ġuliofanywa":3945,"shughuli":3946,"milikiwa":3947,"Ġjoto":3948,"Ġwalemavu":3949,"Ġmtambo":3950,"Ġmbona":3951,"Ġmkewe":3952,"Ġtelevisheni":3953,"ule":3954,"wakili":3955,"Ġwakia":3956,"Ġwashambuliaji":3957,"Ġst":3958,"Ġkahama":3959,"Ġipa":3960,"mela":3961,"Ġilidaiwa":3962,"Ġjadi":3963,"Ġlini":3964,"Ġlingine":3965,"Ġdada":3966,"Ġinatakiwa":3967,"gezo":3968,"Ġce":3969,"Ġof":3970,"kwama":3971,"Ġmatanga":3972,"Ġhawakuwa":3973,"Ġruma":3974,"Ġmgomo":3975,"Ġalipozungumza":3976,"Ġushirika":3977,"Ġmteja":3978,"somaji":3979,"Ġmwenendo":3980,"Ġemmanuel":3981,"mkabili":3982,"nso":3983,"rry":3984,"Ġkuza":3985,"Ġkulala":3986,"raji":3987,"Ġalishindwa":3988,"kewa":3989,"zote":3990,"Ġbalozi":3991,"Ġvicto":3992,"Ġmosi":3993,"Ġdani":3994,"Ġwakala":3995,"guson":3996,"Ġkutakuwa":3997,"Ġzozote":3998,"Ġmakala":3999,"Ġzilizopita":4000,"Ġmajaji":4001,"Ġyamekuwa":4002,"Ġmfanyakazi":4003,"Ġhususani":4004,"Ġferguson":4005,"aban":4006,"endi":4007,"mp":4008,"mkia":4009,"wazito":4010,"Ġmzazi":4011,"lika":4012,"Ġyakiwa":4013,"Ġmadri":4014,"Ġkaka":4015,"mish":4016,"moro":4017,"Ġinafanya":4018,"vunja":4019,"Ġmarafiki":4020,"Ġshaaban":4021,"Ġluca":4022,"Ġkuzidi":4023,"Ġkuharibu":4024,"Ġghana":4025,"Ġkuwapatia":4026,"Ġvinginevyo":4027,"Ġwajawazito":4028,"Ġkuhifadhi":4029,"Ġpikipiki":4030,"Ġdaniel":4031,"Ġmadrid":4032,"mishna":4033,"Ġlucas":4034,"bc":4035,"uzu":4036,"Ġkubeba":4037,"Ġubu":4038,"Ġalifunga":4039,"shangaza":4040,"Ġwanavyo":4041,"gen":4042,"Ġjingine":4043,"Ġcongo":4044,"Ġmashamba":4045,"Ġmwelekeo":4046,"ghushi":4047,"stam":4048,"Ġrostam":4049,"Ġchenye":4050,"Ġmasikini":4051,"sajiliwa":4052,"Ġtakribani":4053,"cco":4054,"uzwa":4055,"Ġkufahamu":4056,"tamba":4057,"Ġubi":4058,"Ġkisiwa":4059,"hebu":4060,"Ġsijui":4061,"zomea":4062,"Ġviwili":4063,"Ġwanazo":4064,"Ġwalicho":4065,"Ġanayo":4066,"domo":4067,"Ġiliyoundwa":4068,"Ġunaendelea":4069,"Ġmatakwa":4070,"Ġshamba":4071,"kelezwa":4072,"Ġkukusanya":4073,"Ġkilichopo":4074,"Ġahmed":4075,"Ġmabibo":4076,"Ġjangwani":4077,"lukindo":4078,"Ġcity":4079,"wapa":4080,"liwe":4081,"hirisha":4082,"Ġuji":4083,"Ġuto":4084,"Ġurefu":4085,"Ġmitaji":4086,"Ġsamu":4087,"ndamana":4088,"nguka":4089,"Ġjapo":4090,"Ġanapo":4091,"Ġtho":4092,"Ġmbadala":4093,"Ġkikundi":4094,"Ġharakati":4095,"Ġkuelewa":4096,"sababishia":4097,"Ġmahusiano":4098,"ntena":4099,"hadhari":4100,"Ġnjama":4101,"sikiliza":4102,"Ġmhi":4103,"Ġkuua":4104,"hawa":4105,"Ġkwangu":4106,"kuu":4107,"Ġharamu":4108,"Ġkiko":4109,"tosha":4110,"bila":4111,"seni":4112,"Ġtan":4113,"Ġwanam":4114,"Ġwanapata":4115,"pusha":4116,"Ġametoa":4117,"Ġkuahidi":4118,"Ġwamesema":4119,"nyanya":4120,"Ġpresha":4121,"Ġmashaka":4122,"Ġmakusudi":4123,"Ġzilizokuwa":4124,"Ġyenyewe":4125,"Ġmtiki":4126,"Ġninacho":4127,"Ġlya":4128,"Ġkubadilisha":4129,"Ġselelii":4130,"Ġmanyara":4131,"nto":4132,"Ġkro":4133,"Ġwaso":4134,"Ġmaki":4135,"Ġmarudi":4136,"Ġiti":4137,"kezwa":4138,"juma":4139,"Ġonyo":4140,"Ġmaazi":4141,"Ġbosi":4142,"Ġupatikana":4143,"Ġuliokuwa":4144,"Ġkusitisha":4145,"Ġrites":4146,"Ġkipaumbele":4147,"Ġnyekundu":4148,"Ġtulikuwa":4149,"Ġwajasi":4150,"Ġkatoliki":4151,"Ġkurejesha":4152,"Ġkurekebisha":4153,"uzulu":4154,"Ġsamuel":4155,"Ġkrosi":4156,"Ġupatikanaji":4157,"ifanya":4158,"rk":4159,"Ġz":4160,"Ġnalo":4161,"Ġusumbu":4162,"Ġingekuwa":4163,"tubia":4164,"danganyi":4165,"Ġkuwalipa":4166,"Ġwanajeshi":4167,"Ġwalifanya":4168,"Ġwalipata":4169,"Ġtuka":4170,"shoto":4171,"thibiti":4172,"Ġkuwekeza":4173,"pungua":4174,"Ġmadawa":4175,"Ġkukimbi":4176,"Ġniaba":4177,"Ġcairo":4178,"Ġkitabu":4179,"Ġvikali":4180,"wazisha":4181,"Ġkushangaza":4182,"Ġhususan":4183,"Ġvikundi":4184,"Ġmaazimio":4185,"Ġusumbufu":4186,"bya":4187,"rbia":4188,"wans":4189,"Ġmzi":4190,"linganishwa":4191,"Ġmaria":4192,"Ġkaga":4193,"Ġkinga":4194,"Ġkijijini":4195,"seme":4196,"Ġkuwawezesha":4197,"Ġilipata":4198,"Ġwalia":4199,"Ġmwaki":4200,"Ġinaonesha":4201,"Ġkondo":4202,"mbulisha":4203,"Ġiliyofanyika":4204,"Ġiliyosababisha":4205,"Ġbea":4206,"Ġmwende":4207,"Ġmassa":4208,"Ġikilinganishwa":4209,"Ġsham":4210,"Ġdowans":4211,"Ġfiti":4212,"Ġmajirani":4213,"hojiwa":4214,"Ġugawaji":4215,"Ġdiwani":4216,"Ġmitaani":4217,"haribika":4218,"haribifu":4219,"Ġfomu":4220,"sumbuliwa":4221,"Ġjenerali":4222,"Ġubungo":4223,"Ġwapata":4224,"Ġkulazimika":4225,"Ġaa":4226,"Ġaje":4227,"Ġabe":4228,"Ġmanye":4229,"Ġalionekana":4230,"fakari":4231,"chaguliwa":4232,"meta":4233,"sekana":4234,"Ġtaka":4235,"Ġhuwezi":4236,"Ġsalim":4237,"ruki":4238,"Ġakim":4239,"Ġimeamua":4240,"Ġmkopo":4241,"Ġwakifanya":4242,"Ġwakitaka":4243,"Ġleseni":4244,"Ġtete":4245,"Ġsudan":4246,"Ġroho":4247,"Ġwatetezi":4248,"Ġukarabati":4249,"Ġalimtaka":4250,"Ġzikiwemo":4251,"Ġfrank":4252,"Ġbukoba":4253,"Ġwapatao":4254,"Ġmanyema":4255,"ifunga":4256,"Ġwakristo":4257,"Ġkukubaliana":4258,"Ġalama":4259,"Ġyaani":4260,"tangazwa":4261,"Ġmapumzi":4262,"tishia":4263,"Ġuzito":4264,"Ġkilio":4265,"Ġaliamua":4266,"Ġtahadhari":4267,"Ġlile":4268,"Ġdaftari":4269,"Ġakidai":4270,"dhinisha":4271,"Ġimetoa":4272,"Ġiliyoko":4273,"Ġkuhudhuria":4274,"Ġkilikuwa":4275,"Ġwanaoji":4276,"Ġdogo":4277,"mishiwa":4278,"heshimu":4279,"Ġkumekuwa":4280,"Ġmapumziko":4281,"umia":4282,"Ġmza":4283,"Ġwafadhili":4284,"Ġkunyo":4285,"laus":4286,"Ġkingu":4287,"lendo":4288,"salia":4289,"saidi":4290,"Ġvikosi":4291,"Ġenzi":4292,"Ġpasca":4293,"Ġwatani":4294,"nusha":4295,"nyangga":4296,"Ġtunaweza":4297,"Ġaliwaambia":4298,"Ġzinazotolewa":4299,"Ġnyongeza":4300,"Ġkumuua":4301,"ripotiwa":4302,"Ġyusuf":4303,"Ġpascal":4304,"dra":4305,"tl":4306,"Ġwashi":4307,"ham":4308,"Ġnataka":4309,"Ġyapo":4310,"tasi":4311,"zindua":4312,"Ġue":4313,"ndwe":4314,"sishwa":4315,"raja":4316,"dani":4317,"mesha":4318,"diliwa":4319,"ngalie":4320,"Ġinahitaji":4321,"Ġrau":4322,"Ġimesema":4323,"liona":4324,"Ġkujipatia":4325,"Ġmwanaume":4326,"Ġfor":4327,"Ġkuingiza":4328,"Ġkujiandikisha":4329,"Ġutulivu":4330,"Ġatakaye":4331,"thamini":4332,"Ġudhaifu":4333,"Ġmwendesha":4334,"dy":4335,"wai":4336,"Ġkumbe":4337,"Ġabo":4338,"Ġanna":4339,"Ġumaa":4340,"Ġuharibifu":4341,"Ġkamishna":4342,"yota":4343,"ley":4344,"Ġkuwasha":4345,"Ġkuwafanya":4346,"res":4347,"shiria":4348,"Ġpamba":4349,"Ġkona":4350,"doro":4351,"dumia":4352,"fanyike":4353,"Ġbaraka":4354,"Ġtoyota":4355,"Ġhakutaka":4356,"Ġsumu":4357,"Ġmashe":4358,"fuatiwa":4359,"Ġkilomita":4360,"Ġwahandisi":4361,"Ġchristo":4362,"Ġkitaalamu":4363,"Ġkusambaza":4364,"Ġsuluhu":4365,"Ġendelevu":4366,"Ġkingunge":4367,"Ġumaarufu":4368,"angalia":4369,"andaliwa":4370,"ed":4371,"onya":4372,"zwe":4373,"Ġkufanyia":4374,"Ġkushinikiza":4375,"Ġhamu":4376,"Ġkike":4377,"Ġkifua":4378,"Ġtari":4379,"Ġnikiwa":4380,"Ġmijini":4381,"Ġwanajua":4382,"Ġanapaswa":4383,"Ġakiba":4384,"Ġkujiki":4385,"Ġkulipuka":4386,"dui":4387,"Ġfani":4388,"den":4389,"Ġmsajili":4390,"Ġyanaweza":4391,"Ġmachozi":4392,"Ġkusonga":4393,"Ġtegeme":4394,"hakikishia":4395,"Ġmarudiano":4396,"Ġchristophe":4397,"Ġwafungwa":4398,"habu":4399,"baka":4400,"Ġmami":4401,"Ġmapiga":4402,"Ġkadri":4403,"Ġip":4404,"jaji":4405,"Ġjamani":4406,"pukizi":4407,"Ġameamua":4408,"Ġshitaka":4409,"Ġkumiliki":4410,"shwaji":4411,"Ġben":4412,"Ġchipukizi":4413,"Ġdhahabu":4414,"mwambia":4415,"Ġkiume":4416,"Ġfilamu":4417,"kubalika":4418,"Ġuhai":4419,"Ġmbovu":4420,"Ġtangazo":4421,"Ġvyenye":4422,"Ġkushuhudia":4423,"Ġzitakuwa":4424,"Ġkubadilika":4425,"Ġkukosekana":4426,"Ġkatoro":4427,"Ġrumande":4428,"Ġmamilioni":4429,"Ġmapigano":4430,"iko":4431,"itoa":4432,"rc":4433,"wu":4434,"Ġkuruhusu":4435,"Ġkughushi":4436,"tafu":4437,"tarisha":4438,"Ġsh":4439,"Ġmana":4440,"Ġushu":4441,"Ġununuzi":4442,"Ġudanganyi":4443,"siliana":4444,"Ġtama":4445,"Ġmiha":4446,"Ġmwao":4447,"Ġziko":4448,"rome":4449,"zui":4450,"Ġwito":4451,"Ġvyake":4452,"Ġkuinua":4453,"riamali":4454,"Ġwalioko":4455,"Ġhakukuwa":4456,"Ġrukwa":4457,"Ġhapana":4458,"Ġuchungu":4459,"Ġkuondolewa":4460,"Ġkutuliza":4461,"Ġrwe":4462,"bunifu":4463,"Ġwavuni":4464,"sahau":4465,"Ġmatangazo":4466,"Ġiptl":4467,"Ġudanganyifu":4468,"niwa":4469,"tana":4470,"bada":4471,"Ġkise":4472,"Ġkigambo":4473,"mited":4474,"Ġnzito":4475,"ngazaji":4476,"Ġeto":4477,"Ġmwamba":4478,"Ġlimited":4479,"Ġanapata":4480,"niambia":4481,"shtakiwa":4482,"Ġkote":4483,"Ġpori":4484,"zunguka":4485,"mbui":4486,"Ġkuuzwa":4487,"Ġkuunganisha":4488,"Ġbenja":4489,"Ġmsichana":4490,"Ġkituoni":4491,"Ġtunaomba":4492,"Ġmakamba":4493,"taanza":4494,"dilifu":4495,"karibisha":4496,"Ġwikiendi":4497,"Ġndoto":4498,"Ġuhalifu":4499,"Ġmhandisi":4500,"wajibika":4501,"Ġchristopher":4502,"Ġkigamboni":4503,"fti":4504,"gh":4505,"mpi":4506,"plo":4507,"Ġafisa":4508,"Ġyataka":4509,"Ġit":4510,"Ġalitumia":4511,"Ġaliomba":4512,"Ġalifariki":4513,"wira":4514,"jue":4515,"nger":4516,"Ġtundu":4517,"Ġbaadae":4518,"Ġvyakula":4519,"Ġimeshindwa":4520,"Ġimeelezwa":4521,"giwa":4522,"Ġitaanza":4523,"Ġjerome":4524,"Ġpengo":4525,"Ġmakatibu":4526,"Ġredio":4527,"Ġcomoro":4528,"Ġkuelezea":4529,"Ġalbam":4530,"Ġtegete":4531,"Ġburundi":4532,"frey":4533,"Ġmramba":4534,"Ġhoseah":4535,"ulo":4536,"Ġwazuri":4537,"Ġuu":4538,"Ġundani":4539,"Ġaliko":4540,"meni":4541,"diliano":4542,"Ġhundi":4543,"Ġinatarajiwa":4544,"Ġamepata":4545,"Ġovyo":4546,"Ġmaalim":4547,"Ġbomu":4548,"Ġitatoa":4549,"Ġmwema":4550,"Ġmwendo":4551,"Ġchina":4552,"Ġbure":4553,"Ġlinaweza":4554,"chwani":4555,"swada":4556,"Ġmajadiliano":4557,"Ġkibaha":4558,"drick":4559,"Ġmlango":4560,"Ġhatiani":4561,"tendea":4562,"Ġmtwa":4563,"Ġkuvi":4564,"Ġkuhara":4565,"Ġmalia":4566,"Ġmadu":4567,"Ġun":4568,"Ġkifa":4569,"Ġkipya":4570,"Ġsija":4571,"Ġwalifika":4572,"Ġtumbo":4573,"Ġlipo":4574,"Ġpapa":4575,"dhini":4576,"Ġtea":4577,"Ġkuwekwa":4578,"Ġwasichana":4579,"Ġmbezi":4580,"Ġkujaribu":4581,"Ġmikoani":4582,"Ġlililokuwa":4583,"Ġuhalali":4584,"Ġvinara":4585,"Ġaliiomba":4586,"Ġkimsingi":4587,"Ġukubwa":4588,"Ġyatakuwa":4589,"Ġmadiwani":4590,"Ġmustafa":4591,"Ġudp":4592,"Ġtanroad":4593,"Ġwajasiriamali":4594,"Ġmtwara":4595,"Ġmaliasili":4596,"Ġq":4597,"Ġmshahara":4598,"Ġkukiwa":4599,"Ġnajua":4600,"hia":4601,"Ġuza":4602,"Ġula":4603,"Ġkielelezo":4604,"Ġalitaka":4605,"Ġaliona":4606,"letea":4607,"bira":4608,"Ġsamwe":4609,"Ġwalipa":4610,"Ġtua":4611,"Ġdpp":4612,"Ġdalali":4613,"Ġamefanya":4614,"vunia":4615,"Ġndizo":4616,"Ġkumsaidia":4617,"Ġunatokana":4618,"Ġpet":4619,"Ġmatawi":4620,"Ġwanaofanya":4621,"Ġyaliyotolewa":4622,"Ġmpinzani":4623,"Ġkukidhi":4624,"nald":4625,"Ġmgao":4626,"Ġmadereva":4627,"Ġaliitaka":4628,"Ġngoma":4629,"simama":4630,"Ġkhali":4631,"lalamikaji":4632,"Ġwapate":4633,"pendekeza":4634,"Ġmakipa":4635,"Ġtarime":4636,"en":4637,"Ġmmiliki":4638,"Ġkufafanua":4639,"Ġasha":4640,"Ġmadhe":4641,"Ġkale":4642,"Ġibada":4643,"Ġhaji":4644,"huda":4645,"Ġkizuia":4646,"Ġvyumba":4647,"Ġhujuma":4648,"ngano":4649,"ruku":4650,"Ġtumba":4651,"Ġmwanya":4652,"Ġmufti":4653,"Ġakifanya":4654,"Ġndilo":4655,"nduka":4656,"Ġbudi":4657,"Ġkuziba":4658,"Ġubaguzi":4659,"Ġmagesa":4660,"rway":4661,"Ġmikubwa":4662,"Ġrajab":4663,"Ġthomas":4664,"Ġmadhehebu":4665,"Ġkizuiani":4666,"athirika":4667,"llo":4668,"nny":4669,"rtini":4670,"Ġdia":4671,"nafsi":4672,"Ġkuchu":4673,"Ġkufariki":4674,"Ġuwazi":4675,"Ġkivu":4676,"Ġkizazi":4677,"Ġkitongoji":4678,"Ġalibainisha":4679,"min":4680,"Ġnigeria":4681,"Ġminne":4682,"Ġvikwazo":4683,"Ġilitoa":4684,"Ġwalikamatwa":4685,"ruka":4686,"Ġsere":4687,"pendi":4688,"Ġanajua":4689,"Ġpato":4690,"gundu":4691,"Ġkortini":4692,"Ġkuipa":4693,"Ġndicho":4694,"chukuliwe":4695,"Ġhawataki":4696,"kaririwa":4697,"varo":4698,"Ġkutegemea":4699,"Ġalhami":4700,"Ġdhahiri":4701,"muisho":4702,"Ġkupungua":4703,"Ġmajumuisho":4704,"irobi":4705,"nggoa":4706,"sikitishwa":4707,"Ġwasomi":4708,"bre":4709,"gwe":4710,"Ġng":4711,"Ġnda":4712,"Ġkunywa":4713,"Ġkugundua":4714,"Ġnairobi":4715,"tawala":4716,"Ġmagu":4717,"kiza":4718,"hutubia":4719,"wekea":4720,"Ġkife":4721,"Ġalikataa":4722,"changiwa":4723,"tel":4724,"Ġilia":4725,"Ġwalitoa":4726,"rumani":4727,"Ġera":4728,"pembe":4729,"Ġinawa":4730,"Ġwest":4731,"Ġraza":4732,"Ġkuisaidia":4733,"rian":4734,"Ġunatarajiwa":4735,"nduki":4736,"Ġkusafiri":4737,"Ġbunduki":4738,"Ġngumi":4739,"Ġnjema":4740,"Ġkutua":4741,"Ġunaofanywa":4742,"Ġuhaba":4743,"Ġuhamisho":4744,"Ġumati":4745,"Ġhauna":4746,"Ġchanjo":4747,"Ġfredrick":4748,"Ġmalawi":4749,"Ġmalaria":4750,"Ġpaul":4751,"Ġkifungo":4752,"Ġkifedha":4753,"er":4754,"tin":4755,"kimbi":4756,"rasa":4757,"Ġkirefu":4758,"Ġkichwani":4759,"safiri":4760,"fundisha":4761,"Ġnsaji":4762,"Ġlangoni":4763,"Ġbangi":4764,"Ġsau":4765,"Ġsale":4766,"Ġilieleza":4767,"Ġtija":4768,"Ġradhi":4769,"Ġkuamkia":4770,"Ġmkongwe":4771,"Ġshelukindo":4772,"Ġpla":4773,"kwaju":4774,"Ġfaini":4775,"Ġstans":4776,"ungana":4777,"Ġakawa":4778,"Ġcom":4779,"ngezea":4780,"Ġmagazeti":4781,"hirishwa":4782,"Ġmsimamizi":4783,"fukuza":4784,"fautia":4785,"Ġraundi":4786,"Ġnsajigwa":4787,"Ġstanslaus":4788,"rri":4789,"Ġmtaji":4790,"Ġmpenda":4791,"Ġwasomaji":4792,"Ġkufanywa":4793,"mari":4794,"ladala":4795,"Ġikio":4796,"mund":4797,"Ġzain":4798,"nea":4799,"Ġvipe":4800,"Ġdaladala":4801,"rodhe":4802,"vyokuwa":4803,"Ġmkulima":4804,"Ġpacha":4805,"dhiri":4806,"Ġmeza":4807,"Ġkongamano":4808,"Ġkujipanga":4809,"Ġzinaendelea":4810,"Ġumefika":4811,"Ġhawajui":4812,"Ġmpasuko":4813,"Ġkusikiti":4814,"Ġzilizotolewa":4815,"ford":4816,"Ġnimekuwa":4817,"Ġnec":4818,"Ġkinachotakiwa":4819,"Ġwataalam":4820,"ndikishaji":4821,"llya":4822,"furahishwa":4823,"Ġbayana":4824,"Ġkabuye":4825,"Ġitikadi":4826,"cc":4827,"ue":4828,"zy":4829,"Ġzuri":4830,"Ġmpo":4831,"lilisha":4832,"Ġwashindi":4833,"Ġwadhifa":4834,"Ġkulazi":4835,"ridi":4836,"kiuka":4837,"Ġukili":4838,"Ġkando":4839,"Ġhara":4840,"Ġhavi":4841,"safi":4842,"Ġvide":4843,"elewe":4844,"Ġwalilazimika":4845,"roka":4846,"peli":4847,"Ġanafanya":4848,"Ġinataka":4849,"gusti":4850,"shtu":4851,"Ġkuitaka":4852,"Ġflo":4853,"Ġlema":4854,"Ġkupima":4855,"Ġtunaamini":4856,"Ġkukagua":4857,"Ġwanaotaka":4858,"Ġwanaoishi":4859,"Ġjwt":4860,"Ġridhaa":4861,"Ġzilizobaki":4862,"Ġalipotakiwa":4863,"Ġkikatiba":4864,"Ġkujeruhiwa":4865,"Ġnorway":4866,"Ġmgawo":4867,"simamia":4868,"Ġbandarini":4869,"pesile":4870,"Ġmwakipesile":4871,"Ġyatakayo":4872,"Ġkuharakisha":4873,"Ġalhamisi":4874,"Ġerasto":4875,"Ġvideo":4876,"Ġjwtz":4877,"an":4878,"ambiwa":4879,"pment":4880,"Ġmapya":4881,"Ġkiwanja":4882,"Ġalitakiwa":4883,"Ġkuwatu":4884,"Ġnk":4885,"pira":4886,"pishwa":4887,"pigia":4888,"Ġwanatumia":4889,"lopment":4890,"Ġtupo":4891,"Ġakifungua":4892,"Ġkuitwa":4893,"Ġmajimbo":4894,"Ġkulipia":4895,"dugu":4896,"Ġkufundisha":4897,"Ġbarani":4898,"Ġzinaweza":4899,"Ġdeve":4900,"Ġmwenzi":4901,"Ġsungu":4902,"Ġdhati":4903,"Ġnilipo":4904,"Ġkusimamisha":4905,"Ġukuaji":4906,"Ġvocha":4907,"Ġisra":4908,"Ġandre":4909,"Ġabou":4910,"Ġmpendazoe":4911,"rodhesha":4912,"Ġdevelopment":4913,"ghari":4914,"lda":4915,"rto":4916,"wn":4917,"Ġfisadi":4918,"Ġmr":4919,"Ġkugawa":4920,"Ġkuuawa":4921,"kanusha":4922,"hiniwa":4923,"Ġamina":4924,"Ġkadugu":4925,"kumba":4926,"Ġkipo":4927,"Ġkiwira":4928,"Ġaliji":4929,"muni":4930,"teuliwa":4931,"Ġmike":4932,"koo":4933,"Ġvia":4934,"Ġwaliwa":4935,"Ġmokiwa":4936,"dhan":4937,"Ġpanga":4938,"Ġrai":4939,"Ġameshindwa":4940,"Ġosca":4941,"Ġhalina":4942,"Ġunapo":4943,"Ġzilieleza":4944,"Ġuchafu":4945,"Ġsubira":4946,"Ġyanayoendelea":4947,"Ġujanja":4948,"Ġmtindo":4949,"Ġmajeshi":4950,"Ġkushindana":4951,"Ġtutakuwa":4952,"Ġmichango":4953,"Ġwatakapo":4954,"ngenezwa":4955,"Ġhauja":4956,"pumzika":4957,"Ġpasipo":4958,"Ġramadhan":4959,"Ġalonso":4960,"Ġvictoria":4961,"fautiana":4962,"Ġkaduguda":4963,"Ġoscar":4964,"agiza":4965,"Ġasema":4966,"Ġmahiri":4967,"tio":4968,"tinga":4969,"zio":4970,"Ġudhibiti":4971,"Ġkaria":4972,"Ġhafla":4973,"husiana":4974,"rai":4975,"Ġkinye":4976,"lela":4977,"Ġkuwakamata":4978,"Ġtas":4979,"hema":4980,"Ġsinza":4981,"Ġban":4982,"Ġbasto":4983,"Ġbandia":4984,"Ġmimba":4985,"Ġmipira":4986,"Ġvipa":4987,"Ġviko":4988,"chimbaji":4989,"Ġwalinzi":4990,"zuka":4991,"Ġpombe":4992,"Ġndivyo":4993,"mbue":4994,"Ġwakiongozwa":4995,"Ġkujihusisha":4996,"Ġkujituma":4997,"Ġkumfanya":4998,"Ġhoma":4999,"Ġkupisha":5000,"Ġulitolewa":5001,"Ġuteuzi":5002,"Ġlupembe":5003,"Ġkipawa":5004,"Ġkutunza":5005,"Ġkukicha":5006,"Ġujerumani":5007,"Ġukanda":5008,"Ġmanji":5009,"Ġnur":5010,"Ġmgawa":5011,"Ġedmund":5012,"Ġmlanzi":5013,"Ġgerezani":5014,"Ġyusuph":5015,"Ġramadhani":5016,"Ġsendeka":5017,"hifadhiwa":5018,"Ġtamasha":5019,"Ġkiserikali":5020,"Ġbastola":5021,"imarisha":5022,"oo":5023,"Ġkukuta":5024,"Ġkushoto":5025,"laba":5026,"Ġumwa":5027,"Ġuwt":5028,"jage":5029,"Ġzahoro":5030,"Ġlango":5031,"Ġmie":5032,"Ġbri":5033,"Ġvigezo":5034,"elekeza":5035,"ndikishwa":5036,"Ġwalifanikiwa":5037,"ngeti":5038,"ganda":5039,"Ġmwajiri":5040,"ndon":5041,"Ġkuidhinisha":5042,"Ġwamepata":5043,"Ġwatapata":5044,"Ġkujiuzulu":5045,"vin":5046,"kwepa":5047,"Ġteule":5048,"wezekani":5049,"Ġmakanisa":5050,"Ġikiendelea":5051,"Ġkimaro":5052,"Ġnyange":5053,"Ġrehema":5054,"unganisha":5055,"Ġyaliyopo":5056,"Ġfifa":5057,"Ġkukutwa":5058,"Ġmoham":5059,"Ġinjini":5060,"Ġmakontena":5061,"Ġwalipofika":5062,"Ġmabenki":5063,"Ġyakiwemo":5064,"Ġmsongamano":5065,"Ġangalau":5066,"Ġukiangalia":5067,"ikolojia":5068,"Ġpetro":5069,"Ġserengeti":5070,"ine":5071,"rne":5072,"suaji":5073,"twe":5074,"Ġms":5075,"Ġmche":5076,"Ġmguu":5077,"Ġwaendelee":5078,"Ġkuvamia":5079,"Ġanne":5080,"Ġmanne":5081,"Ġuyo":5082,"Ġkana":5083,"Ġifika":5084,"Ġkihi":5085,"Ġalifika":5086,"Ġalitaja":5087,"sari":5088,"savyo":5089,"ser":5090,"Ġkuwafikia":5091,"Ġtara":5092,"Ġland":5093,"Ġbaga":5094,"Ġmiji":5095,"Ġwanahitaji":5096,"moyo":5097,"ngola":5098,"ngezwa":5099,"goda":5100,"Ġtri":5101,"Ġmaagizo":5102,"mbee":5103,"Ġupasuaji":5104,"Ġjezi":5105,"Ġmatajiri":5106,"Ġglo":5107,"Ġuliopigwa":5108,"Ġtumekuwa":5109,"Ġataendelea":5110,"Ġyaliyotokea":5111,"Ġmawakala":5112,"Ġujasiri":5113,"Ġkaijage":5114,"mbulika":5115,"Ġvitisho":5116,"nggombe":5117,"Ġtreni":5118,"Ġipasavyo":5119,"Ġkondomu":5120,"Ġushuru":5121,"Ġifikapo":5122,"Ġbagamoyo":5123,"njo":5124,"um":5125,"wari":5126,"lila":5127,"Ġwapanga":5128,"Ġkupe":5129,"Ġkustaafu":5130,"Ġkuhofia":5131,"Ġamo":5132,"zamo":5133,"Ġinge":5134,"jibika":5135,"sim":5136,"weleza":5137,"Ġkizi":5138,"pate":5139,"patiwa":5140,"mero":5141,"fuzu":5142,"Ġkuwapo":5143,"Ġninyi":5144,"Ġchafu":5145,"Ġwanakabiliwa":5146,"lokuwa":5147,"wino":5148,"rea":5149,"zetini":5150,"geme":5151,"Ġpopo":5152,"Ġwataweza":5153,"Ġwatahiniwa":5154,"Ġwakisema":5155,"Ġwakitumia":5156,"Ġkujifungua":5157,"Ġboban":5158,"Ġzinaonesha":5159,"Ġinayowakabili":5160,"Ġkabwe":5161,"Ġakiwasilisha":5162,"Ġnyadhifa":5163,"nyiro":5164,"Ġmchanga":5165,"Ġlondon":5166,"Ġrobert":5167,"Ġhayati":5168,"Ġkilichokuwa":5169,"ridhishwa":5170,"ndeleo":5171,"nywaji":5172,"jitambulisha":5173,"Ġmilango":5174,"kabidhiwa":5175,"Ġkusafirisha":5176,"Ġsendeu":5177,"Ġgodfrey":5178,"Ġmhina":5179,"Ġbenjamin":5180,"Ġkariakoo":5181,"Ġnurdin":5182,"qua":5183,"ss":5184,"swi":5185,"wanga":5186,"Ġwange":5187,"tani":5188,"takuwa":5189,"Ġmadhu":5190,"Ġudhamini":5191,"Ġkahawa":5192,"mbatana":5193,"fana":5194,"mis":5195,"mira":5196,"Ġkuwasiliana":5197,"Ġzahana":5198,"Ġbagen":5199,"Ġviki":5200,"Ġanaji":5201,"Ġanakuwa":5202,"Ġwatumiaji":5203,"Ġimeendelea":5204,"kamano":5205,"Ġutangazaji":5206,"Ġgava":5207,"Ġkusawazisha":5208,"Ġmakada":5209,"Ġmwanasiasa":5210,"Ġhakika":5211,"Ġkutenda":5212,"Ġnyanja":5213,"Ġalionya":5214,"Ġkuonana":5215,"Ġyanayohusu":5216,"Ġkitakuwa":5217,"Ġvyeti":5218,"Ġuandikishaji":5219,"Ġkunufa":5220,"Ġsteven":5221,"Ġkumwambia":5222,"hadharisha":5223,"Ġaziz":5224,"jumuisha":5225,"Ġmshikamano":5226,"Ġtanroads":5227,"gundulika":5228,"Ġmohammed":5229,"Ġzahanati":5230,"Ġgavana":5231,"achwa":5232,"ile":5233,"uzito":5234,"nadi":5235,"Ġkulwa":5236,"Ġala":5237,"Ġswe":5238,"kidhi":5239,"lada":5240,"kumbwa":5241,"tupa":5242,"Ġhia":5243,"jazo":5244,"rasi":5245,"Ġalilazimika":5246,"samba":5247,"sadi":5248,"michezo":5249,"Ġkuwapeleka":5250,"Ġlangu":5251,"nedi":5252,"Ġsam":5253,"Ġsaini":5254,"Ġwanaha":5255,"nguliwa":5256,"nyeji":5257,"fike":5258,"Ġwalitakiwa":5259,"Ġzijazo":5260,"Ġmojawapo":5261,"liambia":5262,"Ġmuswada":5263,"Ġmegawa":5264,"Ġjipya":5265,"Ġkuambiwa":5266,"Ġshingo":5267,"Ġwataendelea":5268,"Ġwaliohusika":5269,"Ġkuumia":5270,"Ġkuundwa":5271,"boko":5272,"vic":5273,"Ġyenu":5274,"Ġkupitisha":5275,"Ġitawa":5276,"Ġbeni":5277,"Ġkufuzu":5278,"Ġulimwe":5279,"Ġsanaa":5280,"Ġwaandamizi":5281,"Ġfungu":5282,"rudisha":5283,"punguza":5284,"Ġujauzito":5285,"Ġitakayofanyika":5286,"Ġismai":5287,"nganyiko":5288,"Ġmahita":5289,"Ġmlinzi":5290,"Ġkienyeji":5291,"Ġamir":5292,"shughulikiwa":5293,"Ġsamwel":5294,"Ġukilinganisha":5295,"Ġulimwengu":5296,"Ġkwi":5297,"lishwa":5298,"Ġwaji":5299,"Ġkuchi":5300,"Ġnafikiri":5301,"Ġac":5302,"Ġsqua":5303,"Ġmake":5304,"Ġungu":5305,"Ġugumu":5306,"Ġhajui":5307,"rati":5308,"rabu":5309,"Ġkisi":5310,"Ġalikamatwa":5311,"leo":5312,"dina":5313,"Ġkuwaeleza":5314,"Ġtafiti":5315,"kezi":5316,"ship":5317,"Ġsidhani":5318,"Ġbongo":5319,"Ġwanakuwa":5320,"Ġwalishindwa":5321,"Ġliko":5322,"Ġanatarajiwa":5323,"Ġinabidi":5324,"Ġakitumia":5325,"Ġwenger":5326,"Ġkuandamana":5327,"Ġkomp":5328,"Ġkoplo":5329,"yuta":5330,"Ġwameshindwa":5331,"gilia":5332,"Ġiliyopigwa":5333,"soa":5334,"vile":5335,"Ġgama":5336,"Ġber":5337,"Ġpc":5338,"ulize":5339,"Ġbukwi":5340,"Ġshabiki":5341,"karibia":5342,"Ġnyama":5343,"Ġwasimamizi":5344,"Ġyona":5345,"Ġmawakili":5346,"Ġmajeraha":5347,"Ġnoti":5348,"Ġmazoezini":5349,"Ġvumbi":5350,"Ġkuelimisha":5351,"Ġkuepusha":5352,"Ġhuruma":5353,"Ġkuwaachia":5354,"Ġupendo":5355,"Ġupendeleo":5356,"Ġmahenge":5357,"Ġmihale":5358,"Ġmaduka":5359,"Ġteam":5360,"Ġunguja":5361,"Ġkompyuta":5362,"Ġbukwimba":5363,"ccm":5364,"cia":5365,"nter":5366,"sya":5367,"Ġmdomo":5368,"Ġwafanye":5369,"Ġkumua":5370,"Ġnadi":5371,"Ġnauli":5372,"bana":5373,"Ġuwajibika":5374,"humu":5375,"siko":5376,"jadala":5377,"Ġalijibu":5378,"Ġkuwata":5379,"Ġnipo":5380,"Ġmijadala":5381,"ngili":5382,"Ġepa":5383,"Ġjapa":5384,"pewe":5385,"nder":5386,"Ġwametakiwa":5387,"nusuru":5388,"Ġwaliofika":5389,"vio":5390,"Ġitafanya":5391,"Ġmkaguzi":5392,"Ġkufutwa":5393,"Ġkufurahi":5394,"Ġkutangazwa":5395,"Ġtunajua":5396,"chukue":5397,"Ġmakalla":5398,"Ġwanaotumia":5399,"Ġikifanya":5400,"vamizi":5401,"Ġkutembelea":5402,"Ġricha":5403,"Ġfujo":5404,"Ġchumvi":5405,"Ġusikili":5406,"Ġwalengwa":5407,"Ġardhini":5408,"Ġaliyokuwa":5409,"Ġvipindi":5410,"shindikana":5411,"Ġlitakuwa":5412,"Ġvan":5413,"Ġhamisi":5414,"Ġomari":5415,"Ġburudani":5416,"Ġwahitimu":5417,"Ġjukwaani":5418,"wakilisha":5419,"Ġmtikisiko":5420,"Ġajenda":5421,"Ġtegemeo":5422,"Ġkihistoria":5423,"Ġwapangaji":5424,"Ġuwajibikaji":5425,"yce":5426,"Ġkutakiwa":5427,"Ġkudaiwa":5428,"kane":5429,"Ġmat":5430,"zama":5431,"Ġurahisi":5432,"Ġunyanya":5433,"Ġia":5434,"kumiwa":5435,"tuhumu":5436,"Ġkikwazo":5437,"Ġkinyangga":5438,"Ġalipewa":5439,"Ġkuwafunga":5440,"buda":5441,"shio":5442,"Ġzamu":5443,"port":5444,"Ġbro":5445,"Ġvitongoji":5446,"Ġwanashindwa":5447,"mbwe":5448,"Ġtuweze":5449,"Ġmwandamizi":5450,"Ġtishio":5451,"per":5452,"pesha":5453,"Ġmkumbo":5454,"Ġanacho":5455,"Ġanaendelea":5456,"Ġinatoa":5457,"surika":5458,"Ġkuachiwa":5459,"Ġshibuda":5460,"Ġowino":5461,"mbie":5462,"Ġwamelazwa":5463,"Ġhataki":5464,"Ġkujiamini":5465,"nunua":5466,"Ġwaliojitokeza":5467,"Ġunakuwa":5468,"Ġutaona":5469,"Ġbenedi":5470,"Ġjela":5471,"Ġmsako":5472,"Ġmsalaba":5473,"Ġinayomkabili":5474,"Ġkupona":5475,"Ġkuchaguliwa":5476,"Ġlililopo":5477,"Ġcana":5478,"ngenezo":5479,"Ġmagomeni":5480,"Ġuvumi":5481,"Ġkaratasi":5482,"Ġkuchelewa":5483,"razili":5484,"njika":5485,"Ġmatengenezo":5486,"Ġkuhojiwa":5487,"Ġmvutano":5488,"Ġutovu":5489,"Ġkukimbilia":5490,"Ġsquad":5491,"Ġusikilizwaji":5492,"Ġkinyangganyiro":5493,"mji":5494,"rn":5495,"Ġmpiga":5496,"Ġmlima":5497,"Ġkurusha":5498,"Ġnapenda":5499,"nika":5500,"Ġad":5501,"tambuliwa":5502,"Ġmase":5503,"Ġucho":5504,"Ġuelewa":5505,"Ġkaba":5506,"Ġalimu":5507,"paganda":5508,"shangilia":5509,"fundi":5510,"Ġtata":5511,"tenda":5512,"Ġbageni":5513,"Ġviba":5514,"Ġwanaamini":5515,"Ġwanaishi":5516,"Ġilielezwa":5517,"Ġwalipokuwa":5518,"ngezi":5519,"Ġtuko":5520,"mboa":5521,"Ġanaongeza":5522,"Ġpabaya":5523,"Ġpart":5524,"Ġmema":5525,"Ġkuichezea":5526,"Ġkujikuta":5527,"Ġkwenu":5528,"Ġtunaendelea":5529,"Ġmgongo":5530,"Ġuwepo":5531,"Ġmfungaji":5532,"Ġstaili":5533,"Ġpropaganda":5534,"fsiri":5535,"Ġkukiuka":5536,"Ġmapanga":5537,"Ġvilevile":5538,"Ġkilichotokea":5539,"Ġkuhatarisha":5540,"Ġupimaji":5541,"Ġaliyoitoa":5542,"ness":5543,"Ġhamis":5544,"Ġjukwaa":5545,"Ġkiislamu":5546,"Ġubinafsi":5547,"Ġumwagilia":5548,"Ġmegawati":5549,"Ġrichard":5550,"Ġumwagiliaji":5551,"ske":5552,"ys":5553,"Ġwai":5554,"Ġnakala":5555,"Ġan":5556,"Ġacha":5557,"Ġig":5558,"Ġkicha":5559,"Ġalizi":5560,"fute":5561,"Ġkuwachukulia":5562,"Ġkuwaondoa":5563,"shindo":5564,"Ġniko":5565,"Ġnmb":5566,"Ġmicho":5567,"Ġvipo":5568,"Ġilitakiwa":5569,"rema":5570,"Ġlibya":5571,"Ġdaud":5572,"Ġbima":5573,"takabali":5574,"Ġanao":5575,"Ġmus":5576,"Ġwema":5577,"Ġkuathiri":5578,"nunu":5579,"Ġwaliofanya":5580,"Ġkuungana":5581,"Ġgazetini":5582,"Ġkupigia":5583,"Ġphili":5584,"ben":5585,"Ġaugusti":5586,"Ġumeanza":5587,"Ġmakame":5588,"dea":5589,"Ġkuficha":5590,"onal":5591,"Ġnjiani":5592,"Ġromji":5593,"Ġmabomba":5594,"Ġkawawa":5595,"Ġzenu":5596,"Ġcup":5597,"Ġmatunda":5598,"Ġvinasaba":5599,"Ġwakongwe":5600,"Ġutekelezwaji":5601,"Ġsokoine":5602,"julikani":5603,"Ġmagogo":5604,"Ġkilometa":5605,"Ġiweje":5606,"Ġmasangwa":5607,"Ġfree":5608,"Ġvale":5609,"Ġmachafu":5610,"Ġwhi":5611,"Ġomar":5612,"Ġujio":5613,"Ġuyoga":5614,"Ġtarafa":5615,"sadikiwa":5616,"ac":5617,"es":5618,"frika":5619,"Ġkupenda":5620,"Ġkuvaa":5621,"Ġure":5622,"Ġidhini":5623,"pati":5624,"muru":5625,"tez":5626,"Ġsara":5627,"Ġsayi":5628,"ngizi":5629,"Ġchale":5630,"Ġilishinda":5631,"moa":5632,"chelewa":5633,"choka":5634,"Ġamefariki":5635,"Ġkuagiza":5636,"Ġkuachia":5637,"Ġfla":5638,"Ġwamekufa":5639,"Ġkujiridhisha":5640,"Ġtunawa":5641,"Ġwanaotuhumiwa":5642,"Ġkupachika":5643,"Ġmsafiri":5644,"Ġshauri":5645,"rakati":5646,"Ġfundi":5647,"Ġusingizi":5648,"swahili":5649,"Ġkikapu":5650,"Ġronal":5651,"Ġujambazi":5652,"Ġmagafu":5653,"Ġmarmo":5654,"Ġkinachoendelea":5655,"Ġkunusuru":5656,"Ġmseto":5657,"Ġkuwaacha":5658,"Ġupepo":5659,"Ġkassim":5660,"fukuzwa":5661,"Ġkipengele":5662,"Ġshoo":5663,"Ġkukabidhiwa":5664,"Ġkujikita":5665,"Ġetoile":5666,"Ġandrew":5667,"Ġkinyemela":5668,"Ġbenitez":5669,"Ġronaldo":5670,"tho":5671,"ukwa":5672,"Ġkuharibika":5673,"Ġkupumzika":5674,"hamishiwa":5675,"Ġnae":5676,"Ġnaku":5677,"Ġnaona":5678,"Ġari":5679,"Ġyati":5680,"Ġmapo":5681,"Ġmava":5682,"Ġmarufu":5683,"tional":5684,"kifanya":5685,"kizwa":5686,"Ġulianza":5687,"Ġkwako":5688,"Ġalikaririwa":5689,"faruku":5690,"Ġkuwaka":5691,"Ġkuwataja":5692,"Ġtaba":5693,"buri":5694,"hewa":5695,"Ġlaw":5696,"Ġlami":5697,"ngoro":5698,"eleze":5699,"ngunga":5700,"Ġwalitaka":5701,"Ġakitaka":5702,"Ġakihutubia":5703,"Ġrafa":5704,"Ġimewa":5705,"Ġwamea":5706,"laani":5707,"Ġiliyochezwa":5708,"Ġkilindi":5709,"Ġkutamba":5710,"amuru":5711,"Ġmtumishi":5712,"Ġmwekundu":5713,"Ġinayoendelea":5714,"Ġkuteke":5715,"Ġzinazofanywa":5716,"Ġyaliyofanyika":5717,"Ġlwa":5718,"Ġufunguzi":5719,"Ġkibao":5720,"ingilio":5721,"Ġwilb":5722,"Ġkilosa":5723,"Ġmanunuzi":5724,"Ġmwenzao":5725,"Ġmasalia":5726,"laumu":5727,"Ġzfa":5728,"Ġkunyongwa":5729,"gharimu":5730,"Ġmchele":5731,"Ġbenedict":5732,"Ġyatima":5733,"Ġmavazi":5734,"Ġriadha":5735,"Ġkuwezesha":5736,"Ġkuruhusiwa":5737,"Ġangalia":5738,"rida":5739,"Ġubunifu":5740,"Ġini":5741,"weni":5742,"lele":5743,"bishwa":5744,"sanyiko":5745,"Ġkuwaomba":5746,"Ġtajiri":5747,"Ġzana":5748,"tenga":5749,"Ġbati":5750,"Ġwanamuziki":5751,"Ġilifanya":5752,"ngusha":5753,"Ġwalifikishwa":5754,"Ġeva":5755,"Ġjane":5756,"Ġjasho":5757,"Ġlilia":5758,"jengea":5759,"Ġjua":5760,"Ġanadai":5761,"Ġinashangaza":5762,"gusa":5763,"Ġmungi":5764,"dhili":5765,"Ġamem":5766,"Ġkuongea":5767,"Ġmaarifa":5768,"mbeni":5769,"liondo":5770,"Ġiliyotokea":5771,"Ġunatakiwa":5772,"Ġtenga":5773,"Ġmsimbazi":5774,"Ġkutafakari":5775,"Ġwanaocheza":5776,"Ġruhu":5777,"Ġshadra":5778,"Ġdosari":5779,"Ġzilizopatikana":5780,"Ġhaiwezekani":5781,"fikiria":5782,"Ġzinazoendelea":5783,"Ġdhaifu":5784,"Ġzimeanza":5785,"Ġfikra":5786,"Ġkutuma":5787,"Ġcanna":5788,"Ġndefu":5789,"Ġrwa":5790,"Ġkutinga":5791,"Ġkutishia":5792,"Ġujue":5793,"Ġmadawati":5794,"Ġcommuni":5795,"Ġpopote":5796,"Ġkunufaika":5797,"Ġnadir":5798,"Ġshadrack":5799,"Ġcannavaro":5800,"gele":5801,"iri":5802,"lix":5803,"Ġwaishi":5804,"Ġwachungaji":5805,"Ġkuzo":5806,"Ġkupu":5807,"Ġkukwamisha":5808,"Ġnami":5809,"Ġant":5810,"ngwana":5811,"Ġsm":5812,"Ġmapu":5813,"Ġmary":5814,"Ġmapungufu":5815,"Ġmatha":5816,"Ġunga":5817,"Ġkari":5818,"kusudi":5819,"Ġharou":5820,"Ġalionesha":5821,"Ġaliingia":5822,"Ġalithibitisha":5823,"Ġaliliambia":5824,"Ġkuwahoji":5825,"Ġkuwajibika":5826,"tengeneza":5827,"Ġmina":5828,"kosea":5829,"pitia":5830,"pigiwa":5831,"Ġvibali":5832,"Ġwanadai":5833,"Ġilim":5834,"Ġilisababisha":5835,"fisha":5836,"reji":5837,"Ġmwake":5838,"Ġmwanga":5839,"Ġdua":5840,"pendwa":5841,"mbozi":5842,"Ġpatel":5843,"Ġakichangia":5844,"sumbua":5845,"Ġhaoni":5846,"Ġkuita":5847,"Ġshiniki":5848,"Ġimesha":5849,"Ġwamesha":5850,"Ġmahanga":5851,"Ġwaliokamatwa":5852,"Ġunapaswa":5853,"boli":5854,"Ġwaondo":5855,"Ġmabango":5856,"nduliwa":5857,"Ġtunahitaji":5858,"Ġkutembea":5859,"shauriwa":5860,"Ġkimaendeleo":5861,"Ġakasema":5862,"Ġloliondo":5863,"Ġngawai":5864,"Ġkukiri":5865,"Ġkuchambua":5866,"ndaaji":5867,"funguliwa":5868,"Ġwenzangu":5869,"Ġghala":5870,"katare":5871,"Ġkulazwa":5872,"Ġujuzi":5873,"Ġmagodoro":5874,"Ġukimya":5875,"Ġkaratu":5876,"Ġmahujaji":5877,"Ġmtoni":5878,"sikilizwa":5879,"Ġkusuku":5880,"Ġwahisani":5881,"faulu":5882,"Ġkorogwe":5883,"Ġtunduma":5884,"Ġigp":5885,"Ġmarufuku":5886,"Ġlwakatare":5887,"Ġmungiki":5888,"Ġantho":5889,"kusudiwa":5890,"Ġshinikizo":5891,"Ġngawaiya":5892,"hc":5893,"ipata":5894,"pre":5895,"sso":5896,"Ġkongo":5897,"Ġmzito":5898,"Ġangekuwa":5899,"Ġangola":5900,"tiboli":5901,"jifunza":5902,"sikika":5903,"Ġkiha":5904,"Ġkimia":5905,"Ġkirahisi":5906,"toshe":5907,"sama":5908,"mila":5909,"Ġvvu":5910,"Ġkuwao":5911,"buru":5912,"tengwa":5913,"tengenezwa":5914,"Ġvifungu":5915,"Ġvitendea":5916,"Ġilionekana":5917,"cheni":5918,"chelewe":5919,"Ġtuske":5920,"Ġlisi":5921,"Ġinasema":5922,"Ġpole":5923,"Ġwatalii":5924,"Ġwakitoa":5925,"Ġkujiendesha":5926,"Ġkujitegemea":5927,"Ġwaliondoka":5928,"Ġwaliohudhuria":5929,"Ġfeki":5930,"Ġhou":5931,"Ġhatujui":5932,"Ġmwito":5933,"Ġitasaidia":5934,"Ġkuhudumia":5935,"Ġaliyewahi":5936,"Ġkukabili":5937,"Ġnguru":5938,"Ġkusitishwa":5939,"Ġtumeona":5940,"Ġmbrazili":5941,"Ġreu":5942,"nyima":5943,"Ġyanayoweza":5944,"Ġmatusi":5945,"Ġchote":5946,"Ġabdi":5947,"Ġnetiboli":5948,"Ġmafundi":5949,"Ġuanga":5950,"Ġhauwezi":5951,"Ġmasoud":5952,"kumbuka":5953,"Ġvilivyopo":5954,"Ġkuchezea":5955,"nufaisha":5956,"nufaika":5957,"thibitishwa":5958,"Ġabeid":5959,"Ġuzalendo":5960,"rrison":5961,"Ġruhusa":5962,"Ġkimiani":5963,"Ġtusker":5964,"fta":5965,"Ġzu":5966,"Ġmkia":5967,"Ġmdhamini":5968,"Ġmlalamikaji":5969,"hile":5970,"Ġaz":5971,"Ġmato":5972,"Ġmamia":5973,"Ġmado":5974,"tive":5975,"zipata":5976,"Ġharrison":5977,"husishwa":5978,"siti":5979,"Ġkiwe":5980,"Ġkiga":5981,"Ġkibaya":5982,"dii":5983,"Ġkuwatia":5984,"Ġkuwaona":5985,"keli":5986,"buti":5987,"Ġbais":5988,"Ġbalali":5989,"kobe":5990,"pitishwa":5991,"Ġbla":5992,"Ġvichwa":5993,"Ġwanane":5994,"Ġwanariadha":5995,"Ġwaliamua":5996,"Ġdau":5997,"Ġbidii":5998,"Ġinaongoza":5999,"Ġpadri":6000,"gue":6001,"Ġpius":6002,"Ġkuiga":6003,"Ġkuoa":6004,"Ġimepata":6005,"Ġmaandishi":6006,"Ġkujio":6007,"nusurika":6008,"Ġwaliona":6009,"Ġunaonesha":6010,"Ġutajiri":6011,"viti":6012,"Ġkampa":6013,"nyakua":6014,"thimini":6015,"Ġshukuru":6016,"Ġmabaki":6017,"Ġdeo":6018,"Ġmatano":6019,"Ġwenyeviti":6020,"Ġbuti":6021,"Ġkutekelezwa":6022,"Ġatafanya":6023,"Ġmtafaruku":6024,"Ġunaotarajiwa":6025,"Ġanayedaiwa":6026,"Ġkitanzania":6027,"subiriwa":6028,"Ġkuelezwa":6029,"Ġwill":6030,"singizio":6031,"Ġmageuzi":6032,"Ġmasikio":6033,"Ġupote":6034,"Ġfred":6035,"Ġmumewe":6036,"Ġkusafisha":6037,"Ġazimio":6038,"Ġkukemea":6039,"Ġkiislam":6040,"Ġnjombe":6041,"Ġuuzaji":6042,"Ġvipengele":6043,"Ġglory":6044,"Ġmadhubuti":6045,"Ġharoub":6046,"Ġnguruwe":6047,"Ġreuben":6048,"Ġbaiskeli":6049,"andaa":6050,"ashiria":6051,"bongo":6052,"ddin":6053,"ikabili":6054,"mk":6055,"Ġkushi":6056,"Ġkulalamika":6057,"Ġmauri":6058,"tine":6059,"Ġuchezaji":6060,"Ġisa":6061,"sibu":6062,"Ġhiddin":6063,"Ġalipiga":6064,"pania":6065,"Ġkuwaua":6066,"Ġmibovu":6067,"Ġblu":6068,"Ġvikiwa":6069,"elekezwa":6070,"ficha":6071,"Ġenter":6072,"Ġtusi":6073,"Ġmwando":6074,"Ġziweze":6075,"Ġanawa":6076,"Ġmeno":6077,"geuka":6078,"Ġjinsia":6079,"Ġcpa":6080,"Ġamekiri":6081,"Ġkuiomba":6082,"Ġimezidi":6083,"Ġmaafisa":6084,"ndeni":6085,"Ġwamedai":6086,"Ġposta":6087,"laamu":6088,"Ġkujiuliza":6089,"Ġwaliozungumza":6090,"Ġkumpata":6091,"soka":6092,"Ġunaona":6093,"Ġjerry":6094,"Ġtony":6095,"Ġpepe":6096,"tumike":6097,"bishara":6098,"Ġikifuatiwa":6099,"Ġshari":6100,"Ġkipimo":6101,"Ġkuzikwa":6102,"Ġyou":6103,"Ġwakiwamo":6104,"Ġchenge":6105,"Ġmtazamo":6106,"Ġkujengwa":6107,"Ġmbiu":6108,"Ġdira":6109,"Ġkumuona":6110,"Ġkisaikolojia":6111,"Ġmserbia":6112,"Ġubalozi":6113,"Ġwavuvi":6114,"Ġseleman":6115,"Ġathumani":6116,"Ġpauni":6117,"Ġinterna":6118,"Ġkifupi":6119,"Ġkuaminika":6120,"Ġtumbaku":6121,"Ġsunguti":6122,"Ġjapan":6123,"Ġparty":6124,"Ġhiddink":6125,"Ġmwandosya":6126,"ishia":6127,"nho":6128,"rre":6129,"Ġmkwaju":6130,"Ġwatoe":6131,"hisho":6132,"tambulika":6133,"bas":6134,"mad":6135,"Ġudi":6136,"Ġumiliki":6137,"Ġkado":6138,"Ġhayu":6139,"Ġkiki":6140,"Ġkitaka":6141,"Ġkikristo":6142,"Ġkishindo":6143,"Ġalifikishwa":6144,"tofautiana":6145,"changanya":6146,"Ġkuwako":6147,"Ġzako":6148,"Ġsingo":6149,"Ġbakwa":6150,"Ġsalamu":6151,"Ġwanandoa":6152,"loni":6153,"win":6154,"Ġkutokuwepo":6155,"Ġwalidaiwa":6156,"Ġmolle":6157,"Ġeac":6158,"Ġmwafaka":6159,"Ġmwangunga":6160,"Ġdro":6161,"roni":6162,"zuku":6163,"Ġanam":6164,"Ġakisisitiza":6165,"dhihirisha":6166,"Ġmembe":6167,"Ġcwt":6168,"Ġkuonya":6169,"Ġwatafanya":6170,"Ġwakisubiri":6171,"Ġkumkamata":6172,"Ġfelix":6173,"Ġbondia":6174,"Ġpha":6175,"Ġzinasema":6176,"Ġtunatakiwa":6177,"minifu":6178,"Ġwanaodaiwa":6179,"Ġruzuku":6180,"Ġkupanua":6181,"Ġmaskini":6182,"Ġtumeamua":6183,"Ġhero":6184,"Ġnyara":6185,"ibua":6186,"Ġcheka":6187,"rishaji":6188,"Ġmfadhili":6189,"Ġkumalizia":6190,"Ġkilichofanyika":6191,"Ġneno":6192,"Ġkhamis":6193,"Ġuvunji":6194,"Ġkuingizwa":6195,"Ġlikizo":6196,"Ġsuluhisho":6197,"sainiwa":6198,"Ġkagaruki":6199,"Ġmassati":6200,"Ġmzambia":6201,"Ġanthony":6202,"Ġupotevu":6203,"Ġbakwata":6204,"Ġuvunjifu":6205,"cis":6206,"lfan":6207,"opia":6208,"ste":6209,"sco":6210,"Ġkhe":6211,"Ġkushambulia":6212,"Ġkukamata":6213,"Ġkukwepa":6214,"hamu":6215,"Ġara":6216,"Ġmabu":6217,"Ġmafua":6218,"zalishwa":6219,"rick":6220,"Ġukati":6221,"Ġubongo":6222,"Ġkavu":6223,"kusanya":6224,"hukumiwa":6225,"Ġkigogo":6226,"Ġkioo":6227,"Ġalikana":6228,"Ġalicheza":6229,"tofu":6230,"mie":6231,"miria":6232,"Ġkuwahi":6233,"kelewa":6234,"teua":6235,"Ġsimon":6236,"Ġbare":6237,"Ġbalama":6238,"pisha":6239,"Ġvisima":6240,"Ġvinywaji":6241,"Ġilitokea":6242,"noa":6243,"elewi":6244,"Ġjanga":6245,"Ġjalada":6246,"Ġzipi":6247,"dhamiria":6248,"Ġanakabiliwa":6249,"Ġmushi":6250,"Ġtb":6251,"Ġamelazwa":6252,"Ġkuanguka":6253,"Ġkuiwezesha":6254,"Ġimefanya":6255,"Ġimeweka":6256,"Ġimeongezeka":6257,"Ġwamefanya":6258,"Ġpotofu":6259,"Ġkuuliza":6260,"thiopia":6261,"Ġshehe":6262,"Ġmsisi":6263,"Ġpre":6264,"Ġkufungiwa":6265,"Ġzinatakiwa":6266,"Ġwoga":6267,"Ġtunacho":6268,"Ġlori":6269,"Ġaliondoka":6270,"Ġmartin":6271,"Ġkurudishiwa":6272,"Ġkutimua":6273,"Ġhajawahi":6274,"Ġhaziwezi":6275,"simamisha":6276,"Ġmabehewa":6277,"Ġwauguzi":6278,"Ġasiye":6279,"Ġaliahidi":6280,"anzia":6281,"Ġwazawa":6282,"Ġfrancis":6283,"Ġkizimbani":6284,"Ġismail":6285,"Ġaugustino":6286,"Ġtabata":6287,"Ġkampala":6288,"Ġbaregu":6289,"iser":6290,"rma":6291,"wji":6292,"wasaidia":6293,"Ġwaje":6294,"Ġkuru":6295,"Ġkuripoti":6296,"Ġkuridhisha":6297,"Ġaende":6298,"tamka":6299,"Ġmafi":6300,"lana":6301,"Ġukuta":6302,"Ġubovu":6303,"Ġuchimbaji":6304,"kusa":6305,"kumo":6306,"sihi":6307,"jali":6308,"Ġkibaki":6309,"Ġkisiwani":6310,"Ġkijeshi":6311,"Ġalini":6312,"fajiri":6313,"meh":6314,"Ġnhc":6315,"Ġlabo":6316,"neur":6317,"Ġmifa":6318,"Ġsalo":6319,"pingwa":6320,"Ġvidogo":6321,"Ġilishindwa":6322,"Ġilitokana":6323,"moka":6324,"widhi":6325,"ngulia":6326,"Ġwaliingia":6327,"Ġinalenga":6328,"Ġmuu":6329,"Ġmusa":6330,"sulu":6331,"Ġkuimba":6332,"Ġshimo":6333,"dole":6334,"Ġkel":6335,"Ġkumshambulia":6336,"Ġkumweleza":6337,"boresha":6338,"Ġkufanyakazi":6339,"tokeze":6340,"Ġkilieleza":6341,"Ġdewji":6342,"Ġfaraja":6343,"Ġpenzi":6344,"Ġulifanyika":6345,"tumie":6346,"Ġchigu":6347,"Ġsukari":6348,"Ġkupandisha":6349,"Ġwaache":6350,"Ġsharti":6351,"Ġinayosababisha":6352,"Ġriba":6353,"Ġalfajiri":6354,"Ġhebu":6355,"Ġmaziwa":6356,"Ġmazito":6357,"Ġkuzindua":6358,"Ġkukithiri":6359,"Ġkujadiliwa":6360,"Ġmaovu":6361,"Ġmfawidhi":6362,"Ġkuhamia":6363,"Ġmbolea":6364,"Ġmikanda":6365,"Ġedson":6366,"Ġkumudu":6367,"Ġhaukuwa":6368,"Ġkubainisha":6369,"Ġkuwaambia":6370,"Ġkuhitimu":6371,"trice":6372,"Ġatakapo":6373,"Ġkuwasilishwa":6374,"Ġmahindi":6375,"Ġnjano":6376,"Ġkorosho":6377,"Ġkukerwa":6378,"Ġbeatrice":6379,"saidie":6380,"Ġisrael":6381,"Ġmiembeni":6382,"Ġhiari":6383,"Ġfreeman":6384,"Ġchalenji":6385,"Ġwaishio":6386,"preneur":6387,"preneurship":6388,"gba":6389,"ir":6390,"ongea":6391,"ssu":6392,"ure":6393,"Ġnggombe":6394,"Ġmtoa":6395,"Ġwaga":6396,"haribu":6397,"kasa":6398,"Ġase":6399,"Ġmakwa":6400,"Ġmauli":6401,"zar":6402,"Ġuwi":6403,"Ġukio":6404,"Ġiran":6405,"kura":6406,"huo":6407,"jan":6408,"Ġkigoda":6409,"paswi":6410,"Ġkuwabana":6411,"Ġmisu":6412,"Ġwanatoa":6413,"Ġiliamua":6414,"Ġwaliendelea":6415,"Ġethiopia":6416,"Ġserbia":6417,"rence":6418,"dhalilisha":6419,"Ġinacheza":6420,"nias":6421,"Ġhuohuo":6422,"Ġakiendelea":6423,"Ġametangaza":6424,"Ġimeji":6425,"Ġkujitolea":6426,"Ġkumchagua":6427,"Ġkazimoto":6428,"Ġitafanyika":6429,"Ġmkanda":6430,"Ġkulima":6431,"Ġmaradhi":6432,"Ġaliyejitambulisha":6433,"onea":6434,"onekane":6435,"Ġgla":6436,"Ġyanaendelea":6437,"Ġshaban":6438,"Ġshambulizi":6439,"milivu":6440,"Ġrisiti":6441,"Ġchumbani":6442,"Ġdhamira":6443,"Ġyanayowakabili":6444,"Ġlimesema":6445,"Ġkuvuru":6446,"Ġcaf":6447,"badilika":6448,"Ġtanganyika":6449,"Ġwasiokuwa":6450,"Ġstephe":6451,"Ġwaliyokuwa":6452,"Ġwaliyonayo":6453,"Ġhawajawahi":6454,"Ġkiafya":6455,"Ġadam":6456,"Ġkuajiriwa":6457,"Ġshwari":6458,"Ġharambee":6459,"Ġmustakabali":6460,"Ġmachafuko":6461,"Ġcommunity":6462,"Ġdrogba":6463,"Ġlabour":6464,"Ġstephen":6465,"as":6466,"lme":6467,"nta":6468,"rro":6469,"nazo":6470,"nachama":6471,"Ġmje":6472,"Ġwazo":6473,"Ġkutisha":6474,"Ġkuzomea":6475,"Ġnacho":6476,"hisa":6477,"Ġmaya":6478,"Ġmakele":6479,"timisha":6480,"Ġubia":6481,"Ġkamba":6482,"Ġiman":6483,"Ġkibo":6484,"Ġkishiriki":6485,"ses":6486,"teni":6487,"popo":6488,"Ġnko":6489,"kosoa":6490,"pindu":6491,"Ġbre":6492,"Ġiliwa":6493,"Ġilishuhudia":6494,"chea":6495,"Ġtuwe":6496,"Ġmwalala":6497,"Ġmwanyika":6498,"Ġlitaka":6499,"Ġtimo":6500,"roho":6501,"Ġmuhusika":6502,"Ġold":6503,"Ġmaabara":6504,"mbiji":6505,"Ġwametoa":6506,"Ġpongezi":6507,"Ġwatacheza":6508,"kamanda":6509,"Ġutaa":6510,"Ġkupimwa":6511,"Ġitachukua":6512,"Ġtembo":6513,"Ġzinatarajiwa":6514,"ndupindu":6515,"Ġtosha":6516,"Ġtunayo":6517,"Ġwaajiri":6518,"shutu":6519,"Ġinayotolewa":6520,"Ġkipindupindu":6521,"Ġnyasi":6522,"Ġmadaraja":6523,"Ġfinias":6524,"Ġcheyo":6525,"Ġushambulia":6526,"Ġushawishi":6527,"Ġukiukwa":6528,"Ġhayana":6529,"fungaji":6530,"Ġkeshokutwa":6531,"Ġukame":6532,"Ġukabila":6533,"Ġlililotolewa":6534,"Ġmbinga":6535,"Ġcar":6536,"Ġufugaji":6537,"lalamikiwa":6538,"Ġuanzi":6539,"Ġuanachama":6540,"Ġkimekuwa":6541,"ntre":6542,"Ġukonga":6543,"Ġmnada":6544,"Ġkhalfan":6545,"Ġkumekuwepo":6546,"Ġgray":6547,"Ġmsumbiji":6548,"sikitika":6549,"suasua":6550,"fred":6551,"Ġusoni":6552,"Ġwanamgambo":6553,"Ġmgawanyiko":6554,"Ġtrilioni":6555,"Ġmapunda":6556,"Ġkitakacho":6557,"Ġushambuliaji":6558,"Ġukiukwaji":6559,"bri":6560,"gg":6561,"ghara":6562,"vua":6563,"Ġmbwa":6564,"Ġkudhamini":6565,"hau":6566,"kawa":6567,"Ġamana":6568,"Ġaondo":6569,"baisha":6570,"Ġsto":6571,"Ġmavu":6572,"Ġmathi":6573,"Ġupiga":6574,"Ġkaya":6575,"Ġalilalamika":6576,"Ġtaf":6577,"Ġnico":6578,"tendaji":6579,"koste":6580,"ngisha":6581,"chie":6582,"Ġwanaji":6583,"roro":6584,"jeruhi":6585,"Ġmkuchika":6586,"choma":6587,"nzia":6588,"Ġpark":6589,"Ġamei":6590,"Ġameanza":6591,"Ġkuachwa":6592,"Ġkuogopa":6593,"Ġkujitoa":6594,"Ġiliyobaki":6595,"Ġunavyo":6596,"tiative":6597,"Ġkupinduka":6598,"Ġaliyefariki":6599,"Ġtoba":6600,"Ġtoleo":6601,"Ġchifu":6602,"Ġlilitolewa":6603,"Ġmgongano":6604,"Ġnguzo":6605,"vamiwa":6606,"Ġalipofika":6607,"Ġzinazoshiriki":6608,"Ġwasira":6609,"Ġloi":6610,"Ġlos":6611,"Ġkiutendaji":6612,"Ġkupora":6613,"Ġkutupa":6614,"Ġkutunga":6615,"Ġmboma":6616,"Ġkupigana":6617,"Ġtuliyo":6618,"stina":6619,"Ġukusanya":6620,"ingizwa":6621,"Ġkulau":6622,"Ġmifuko":6623,"Ġwahanga":6624,"Ġlikiwemo":6625,"Ġmjane":6626,"Ġilipofika":6627,"Ġutakapo":6628,"Ġhamasa":6629,"Ġmsukumo":6630,"ntekoste":6631,"Ġtetesi":6632,"Ġbarakat":6633,"Ġunyanyasaji":6634,"Ġkelvin":6635,"baishaji":6636,"Ġmathias":6637,"Ġupigaji":6638,"Ġukusanyaji":6639,"ah":6640,"cra":6641,"eti":6642,"ime":6643,"lsa":6644,"mpuni":6645,"phia":6646,"rg":6647,"upata":6648,"wasa":6649,"Ġmshtakiwa":6650,"Ġkumba":6651,"hala":6652,"Ġnasema":6653,"nidhamu":6654,"Ġade":6655,"riti":6656,"kimba":6657,"Ġuke":6658,"Ġuchelewe":6659,"Ġkamu":6660,"Ġhafi":6661,"Ġhindi":6662,"Ġkinidhamu":6663,"Ġalidaiwa":6664,"Ġalimwambia":6665,"fai":6666,"lensia":6667,"mehe":6668,"tekelezwa":6669,"Ġsivyo":6670,"polo":6671,"Ġmillya":6672,"pima":6673,"Ġviji":6674,"Ġvivu":6675,"Ġchati":6676,"Ġilifungwa":6677,"Ġwalipewa":6678,"ruiser":6679,"rekani":6680,"Ġmwalu":6681,"Ġanazo":6682,"Ġanaeleza":6683,"Ġanashangazwa":6684,"Ġpapi":6685,"Ġakiishi":6686,"Ġakisoma":6687,"Ġakielezea":6688,"dhia":6689,"Ġmeja":6690,"Ġtp":6691,"Ġmbaroni":6692,"Ġamedai":6693,"Ġkuathirika":6694,"Ġobre":6695,"mbiki":6696,"Ġkujiweka":6697,"Ġholela":6698,"Ġunataka":6699,"Ġhatutaki":6700,"Ġbonde":6701,"Ġkulizungumzia":6702,"Ġsophia":6703,"Ġmwenge":6704,"Ġkusaba":6705,"Ġkukatwa":6706,"Ġyalifanyika":6707,"Ġmakabila":6708,"Ġyanatokana":6709,"Ġduka":6710,"Ġregi":6711,"Ġzinazowakabili":6712,"Ġlolensia":6713,"Ġushabiki":6714,"Ġhayawezi":6715,"Ġanayeweza":6716,"Ġcamero":6717,"dharau":6718,"Ġvyetu":6719,"Ġalimtaja":6720,"Ġmajumbani":6721,"nyonge":6722,"Ġaliifungia":6723,"Ġmipaka":6724,"Ġamatus":6725,"Ġmasilingi":6726,"Ġvikuu":6727,"Ġbaharini":6728,"Ġvimekuwa":6729,"ther":6730,"Ġmwaikimba":6731,"Ġkidemokrasia":6732,"Ġusafirishaji":6733,"Ġbeach":6734,"Ġkhalifa":6735,"Ġbernard":6736,"Ġwilbroad":6737,"Ġwaondoke":6738,"Ġmifano":6739,"Ġchigumbi":6740,"Ġmaulid":6741,"Ġcameroon":6742,"by":6743,"fford":6744,"Ġkuzima":6745,"Ġang":6746,"Ġangele":6747,"Ġsy":6748,"Ġmaua":6749,"tie":6750,"tika":6751,"Ġuone":6752,"Ġishi":6753,"wekeza":6754,"ture":6755,"mbazaji":6756,"mbawanga":6757,"Ġalichukua":6758,"letwa":6759,"semi":6760,"Ġkuwazuia":6761,"Ġnze":6762,"Ġmisi":6763,"Ġsaidi":6764,"pilia":6765,"Ġwanaki":6766,"Ġwanakwenda":6767,"Ġwanaonekana":6768,"Ġwanatarajiwa":6769,"Ġilii":6770,"Ġiliifunga":6771,"Ġkutoku":6772,"Ġkutoko":6773,"nzaji":6774,"jukuu":6775,"Ġeph":6776,"gae":6777,"Ġtukiwa":6778,"Ġdc":6779,"Ġanahitaji":6780,"Ġanapokuwa":6781,"Ġwakali":6782,"Ġmukasa":6783,"Ġakitangaza":6784,"Ġwinga":6785,"Ġcruiser":6786,"Ġimebaki":6787,"Ġone":6788,"Ġwatalaamu":6789,"Ġwakipata":6790,"somwa":6791,"Ġmkasa":6792,"Ġhakuweza":6793,"Ġmakampuni":6794,"Ġsued":6795,"Ġsumbawanga":6796,"Ġmaswa":6797,"Ġikiwezekana":6798,"Ġwaasi":6799,"Ġalipokea":6800,"Ġwasiwe":6801,"Ġuhujumu":6802,"Ġukiendelea":6803,"endana":6804,"Ġunaoendelea":6805,"Ġkuvutia":6806,"Ġkukua":6807,"Ġuhasama":6808,"Ġchoo":6809,"ongozana":6810,"Ġmark":6811,"Ġneema":6812,"Ġkileleni":6813,"Ġualimu":6814,"Ġuadilifu":6815,"ngenezaji":6816,"Ġkununu":6817,"ingilia":6818,"lipuka":6819,"Ġforodha":6820,"Ġmtaalamu":6821,"Ġteksi":6822,"Ġutunzaji":6823,"anzisha":6824,"Ġgumbo":6825,"Ġbukombe":6826,"Ġutakaofanyika":6827,"Ġkugonga":6828,"Ġmustapha":6829,"Ġwasaidizi":6830,"Ġuovu":6831,"Ġkusikitisha":6832,"Ġalasiri":6833,"Ġazma":6834,"Ġsharif":6835,"Ġukatili":6836,"Ġasec":6837,"Ġmavuno":6838,"Ġucheleweshaji":6839,"Ġangeles":6840,"Ġnzega":6841,"acha":6842,"djan":6843,"rko":6844,"spe":6845,"uye":6846,"Ġwatoa":6847,"Ġwauaji":6848,"Ġwangekuwa":6849,"Ġwangeweza":6850,"Ġwajue":6851,"Ġkudu":6852,"Ġkuthamini":6853,"hazi":6854,"hatisha":6855,"Ġangeweza":6856,"Ġyalianza":6857,"tangulia":6858,"bayo":6859,"Ġmaru":6860,"Ġmafta":6861,"Ġmakamanda":6862,"zinga":6863,"Ġup":6864,"Ġishara":6865,"Ġkigi":6866,"Ġkiroho":6867,"Ġalitangaza":6868,"Ġalijiunga":6869,"danganya":6870,"bile":6871,"chari":6872,"fuli":6873,"sei":6874,"Ġnilia":6875,"teka":6876,"Ġhutumika":6877,"Ġbaridi":6878,"Ġmidomo":6879,"ngara":6880,"Ġvisiwa":6881,"Ġwanahisa":6882,"ngewa":6883,"Ġmouri":6884,"Ġelia":6885,"Ġeliza":6886,"Ġdrc":6887,"mboka":6888,"Ġanaishi":6889,"Ġinaonyesha":6890,"Ġwigo":6891,"Ġwenu":6892,"Ġthi":6893,"Ġamewahi":6894,"Ġkuitisha":6895,"Ġimefika":6896,"Ġor":6897,"Ġoba":6898,"mbiu":6899,"Ġwameji":6900,"Ġkenne":6901,"Ġwalioshiriki":6902,"Ġwaliopanda":6903,"Ġkumsababishia":6904,"vita":6905,"Ġtheir":6906,"Ġteni":6907,"Ġbega":6908,"kwamua":6909,"Ġmataraji":6910,"Ġulimboka":6911,"Ġmwanaha":6912,"Ġmgonja":6913,"ntina":6914,"Ġkuteuliwa":6915,"Ġkaulimbiu":6916,"Ġkimapenzi":6917,"Ġchuoni":6918,"Ġstarehe":6919,"Ġkurahi":6920,"Ġluteni":6921,"Ġmadarasa":6922,"Ġkujaza":6923,"lazimu":6924,"Ġkukumbwa":6925,"Ġugani":6926,"Ġmboje":6927,"Ġkinachoonekana":6928,"Ġhazija":6929,"dhuriwa":6930,"Ġmifumo":6931,"Ġabidjan":6932,"Ġhakuwahi":6933,"Ġikawa":6934,"limpiki":6935,"Ġmauzo":6936,"Ġimeandaliwa":6937,"Ġinavyodaiwa":6938,"kadiriwa":6939,"Ġkikomo":6940,"Ġmagufuli":6941,"Ġabout":6942,"kumbatia":6943,"Ġuangalizi":6944,"Ġbutiku":6945,"Ġinternational":6946,"Ġadebayo":6947,"Ġpapic":6948,"Ġmourinho":6949,"Ġmatarajio":6950,"Ġadebayor":6951,"azi":6952,"cy":6953,"em":6954,"et":6955,"ima":6956,"mpu":6957,"stu":6958,"ywe":6959,"Ġh":6960,"Ġmshauri":6961,"Ġwachu":6962,"Ġwashtakiwa":6963,"Ġkutibu":6964,"Ġkuyumba":6965,"Ġkutumiwa":6966,"Ġnas":6967,"Ġnaweza":6968,"Ġadai":6969,"Ġafanye":6970,"Ġyalio":6971,"ngg":6972,"ziba":6973,"Ġuti":6974,"Ġikia":6975,"Ġipp":6976,"siki":6977,"sion":6978,"tulia":6979,"Ġkine":6980,"Ġalisha":6981,"Ġalikosa":6982,"Ġalishangaa":6983,"Ġalielezea":6984,"shawishi":6985,"Ġkuwapiga":6986,"Ġkuwafikisha":6987,"Ġtabu":6988,"Ġniwa":6989,"Ġnna":6990,"ndarua":6991,"Ġiliibuka":6992,"Ġsenti":6993,"Ġjaz":6994,"Ġinakabiliwa":6995,"Ġmuni":6996,"Ġcrd":6997,"Ġmbatia":6998,"Ġkongwa":6999,"Ġmianya":7000,"Ġimebainika":7001,"mbizi":7002,"Ġwakikabiliwa":7003,"Ġwaliokuwepo":7004,"Ġkuufanya":7005,"Ġkumnadi":7006,"Ġmajini":7007,"Ġbengo":7008,"beth":7009,"tumiaji":7010,"silishwa":7011,"Ġsomo":7012,"Ġkutawa":7013,"Ġtunakwenda":7014,"Ġhakina":7015,"Ġsuma":7016,"Ġsuti":7017,"Ġsuzy":7018,"Ġkupaka":7019,"Ġulioko":7020,"Ġdomini":7021,"Ġkusindika":7022,"Ġatapata":7023,"Ġrose":7024,"cou":7025,"Ġvitatu":7026,"Ġunaofanyika":7027,"Ġmanyo":7028,"ondolea":7029,"Ġtutaendelea":7030,"Ġaitwa":7031,"stine":7032,"Ġbabati":7033,"Ġkukopa":7034,"Ġmigodi":7035,"Ġasilia":7036,"ddy":7037,"nganyikiwa":7038,"Ġtibai":7039,"ristia":7040,"Ġtaslimu":7041,"Ġbrown":7042,"Ġcanada":7043,"Ġwhite":7044,"Ġflavio":7045,"Ġmapokezi":7046,"Ġinitiative":7047,"Ġmadola":7048,"Ġtbl":7049,"Ġuanzishwaji":7050,"gharamia":7051,"Ġobren":7052,"Ġmisitu":7053,"Ġelizabeth":7054,"Ġcrdb":7055,"Ġgiza":7056,"nasa":7057,"Ġwashauri":7058,"Ġwavamizi":7059,"Ġkushitakiwa":7060,"Ġkusuasua":7061,"Ġare":7062,"malia":7063,"Ġmajo":7064,"Ġufahamu":7065,"Ġkar":7066,"Ġkame":7067,"Ġharusi":7068,"Ġhandeni":7069,"hudumia":7070,"Ġkigezo":7071,"Ġalihusika":7072,"Ġaliibuka":7073,"leti":7074,"Ġkuwaso":7075,"Ġkuwabaini":7076,"Ġkuwakuta":7077,"Ġtafsiri":7078,"Ġhuna":7079,"Ġbaria":7080,"Ġmitu":7081,"Ġmisuko":7082,"Ġsanto":7083,"ndamiza":7084,"Ġchali":7085,"Ġwanamichezo":7086,"Ġiliendelea":7087,"wita":7088,"nguru":7089,"Ġkutolea":7090,"nyekiti":7091,"runi":7092,"Ġmoses":7093,"Ġeu":7094,"retari":7095,"gasira":7096,"Ġtumaini":7097,"Ġjabu":7098,"Ġdanny":7099,"Ġinaanza":7100,"Ġpara":7101,"sudia":7102,"Ġpinzani":7103,"Ġjiwe":7104,"Ġtcra":7105,"Ġameji":7106,"Ġamekufa":7107,"Ġkuigwa":7108,"Ġkuifungia":7109,"Ġimefikisha":7110,"Ġodhia":7111,"Ġndiko":7112,"mbuko":7113,"Ġwakimbizi":7114,"Ġkujivunia":7115,"Ġwalionesha":7116,"gizaji":7117,"Ġkumhoji":7118,"Ġiliyowasilishwa":7119,"Ġitai":7120,"Ġshehia":7121,"Ġmashambani":7122,"Ġulibaini":7123,"Ġulipaji":7124,"Ġwanaokwenda":7125,"Ġchimbuko":7126,"Ġmwananyama":7127,"Ġwaafrika":7128,"Ġatahakikisha":7129,"Ġnyala":7130,"Ġred":7131,"rudia":7132,"Ġkupotea":7133,"Ġukiriti":7134,"lazimisha":7135,"Ġkuvunjwa":7136,"Ġkuvunjika":7137,"Ġcuba":7138,"Ġwalimuua":7139,"Ġninaamini":7140,"Ġkuhamishiwa":7141,"Ġkusimamishwa":7142,"Ġkupigania":7143,"ingie":7144,"Ġmwilini":7145,"Ġvilikuwa":7146,"Ġnusura":7147,"Ġubavu":7148,"Ġkuibua":7149,"Ġisiyokuwa":7150,"horofa":7151,"Ġwanaojihusisha":7152,"Ġuenyekiti":7153,"tafutia":7154,"Ġrwegasira":7155,"Ġvikombe":7156,"Ġrafael":7157,"Ġkuvuruga":7158,"imet":7159,"rkovic":7160,"Ġkennedy":7161,"nggye":7162,"Ġnnauye":7163,"Ġaitwaye":7164,"Ġbariadi":7165,"Ġmisukosuko":7166,"Ġsantos":7167,"retarieti":7168,"Ġodhiambo":7169,"Ġmwananyamala":7170,"Ġukiritimba":7171,"eli":7172,"od":7173,"tt":7174,"usi":7175,"Ġmshiriki":7176,"Ġwama":7177,"Ġwazalishaji":7178,"Ġkunyi":7179,"Ġkukwama":7180,"yapata":7181,"Ġaendelee":7182,"bakia":7183,"ngwi":7184,"Ġstu":7185,"timua":7186,"zaa":7187,"zaulo":7188,"rine":7189,"ziwa":7190,"Ġufadhili":7191,"jiuliza":7192,"Ġkikazi":7193,"Ġkigumu":7194,"Ġkiswahili":7195,"Ġalilo":7196,"Ġalikanusha":7197,"sako":7198,"samehe":7199,"meza":7200,"dier":7201,"Ġkuwatambua":7202,"Ġtami":7203,"kemea":7204,"Ġnizar":7205,"pora":7206,"Ġhutumia":7207,"Ġnsa":7208,"Ġbbc":7209,"Ġvipya":7210,"Ġwanaccm":7211,"Ġiliingia":7212,"Ġilichukuliwa":7213,"ngoma":7214,"nyesho":7215,"Ġwalitumia":7216,"Ġmondu":7217,"gara":7218,"Ġjama":7219,"Ġanatoa":7220,"Ġinazidi":7221,"liani":7222,"Ġwimbi":7223,"Ġray":7224,"Ġcristia":7225,"Ġmbao":7226,"Ġkuahirishwa":7227,"Ġkuamuru":7228,"Ġimeonekana":7229,"Ġwamepanga":7230,"Ġwamefikishwa":7231,"Ġkujitetea":7232,"Ġhaliwezi":7233,"Ġwaliomba":7234,"Ġiliyofuata":7235,"Ġboti":7236,"Ġkupitishwa":7237,"Ġmkazo":7238,"Ġmkanganyiko":7239,"Ġbenard":7240,"Ġshukra":7241,"Ġmabara":7242,"Ġkutamka":7243,"Ġulivyo":7244,"Ġsuper":7245,"Ġikitoa":7246,"Ġwaandaaji":7247,"malizia":7248,"Ġzilizosalia":7249,"Ġusambazaji":7250,"Ġher":7251,"Ġkimara":7252,"Ġnyavu":7253,"pelekea":7254,"Ġkuzitumia":7255,"Ġgezaulo":7256,"hariri":7257,"Ġalionyesha":7258,"Ġmabondia":7259,"Ġkutulia":7260,"Ġkuhamisha":7261,"Ġdidier":7262,"Ġuhakiki":7263,"Ġkushughuli":7264,"Ġkimesema":7265,"Ġzitatumika":7266,"simamishwa":7267,"Ġmkemia":7268,"Ġlenyewe":7269,"Ġkucheze":7270,"Ġkijani":7271,"Ġwapambe":7272,"Ġimeandikwa":7273,"hamasisha":7274,"Ġtrafford":7275,"anzishwa":7276,"Ġhaitakuwa":7277,"fuatiliaji":7278,"Ġmashuleni":7279,"Ġmahema":7280,"Ġkusainiwa":7281,"Ġshoka":7282,"Ġaloyce":7283,"Ġmtikila":7284,"Ġkulazimishwa":7285,"Ġmrwanda":7286,"Ġkusukuma":7287,"Ġarabia":7288,"Ġmwalusako":7289,"Ġkurahisisha":7290,"Ġaboutrika":7291,"Ġmonduli":7292,"Ġshukrani":7293,"Ġgezaulole":7294,"aland":7295,"epusha":7296,"itumia":7297,"jwe":7298,"lta":7299,"pwe":7300,"ts":7301,"tte":7302,"Ġx":7303,"Ġgumu":7304,"Ġmle":7305,"Ġmchu":7306,"Ġmdo":7307,"Ġmpwa":7308,"likwa":7309,"Ġwar":7310,"Ġkube":7311,"Ġkuende":7312,"Ġkushirikisha":7313,"Ġkuridhika":7314,"Ġkufya":7315,"kaji":7316,"hishi":7317,"Ġsport":7318,"Ġmachu":7319,"kiria":7320,"Ġuv":7321,"Ġulia":7322,"Ġkashi":7323,"Ġkakobe":7324,"Ġii":7325,"Ġishu":7326,"Ġiwezekana":7327,"Ġhabi":7328,"jihusisha":7329,"Ġkiini":7330,"Ġkisima":7331,"Ġkisoka":7332,"Ġalikutana":7333,"Ġve":7334,"Ġkuwatumia":7335,"Ġkuwatisha":7336,"Ġkuwafundisha":7337,"Ġtathimini":7338,"Ġsima":7339,"Ġlaini":7340,"nezi":7341,"koko":7342,"pitisha":7343,"Ġwanatoka":7344,"Ġwanasubiri":7345,"ndikia":7346,"Ġwalikwenda":7347,"rushwa":7348,"Ġmosha":7349,"Ġsek":7350,"jenge":7351,"Ġjumu":7352,"Ġanavyo":7353,"Ġanaona":7354,"Ġanakwenda":7355,"Ġanaonekana":7356,"Ġinaeleza":7357,"nzibari":7358,"gunga":7359,"guswa":7360,"Ġakifafanua":7361,"Ġmeta":7362,"Ġmere":7363,"genda":7364,"pugi":7365,"Ġvyandarua":7366,"Ġmwakapugi":7367,"Ġamelala":7368,"Ġamefikishwa":7369,"Ġkombo":7370,"Ġkuitoa":7371,"Ġkuieleza":7372,"Ġkuichapa":7373,"Ġshindano":7374,"Ġffu":7375,"Ġimetolewa":7376,"Ġimefungwa":7377,"Ġimefikia":7378,"Ġon":7379,"Ġmaadui":7380,"Ġporto":7381,"lumbana":7382,"Ġwaliotajwa":7383,"Ġkumpeleka":7384,"Ġbomba":7385,"Ġmsiba":7386,"Ġkuhusisha":7387,"nduku":7388,"Ġkunaweza":7389,"Ġtunafanya":7390,"Ġtunasubiri":7391,"Ġwanaotakiwa":7392,"kitiko":7393,"Ġsugu":7394,"Ġikitokea":7395,"Ġlilifungwa":7396,"Ġleonard":7397,"Ġkufikiria":7398,"Ġkutengua":7399,"Ġlinaendelea":7400,"Ġnyanda":7401,"Ġyaliyoko":7402,"Ġyaliyofikiwa":7403,"Ġaliokuwa":7404,"Ġzealand":7405,"Ġkuchanga":7406,"Ġmfalme":7407,"rejesha":7408,"Ġlililotokea":7409,"Ġuhamiaji":7410,"Ġbasil":7411,"Ġmbioni":7412,"Ġnyoni":7413,"Ġkilele":7414,"Ġisiwe":7415,"rthe":7416,"Ġaliyopewa":7417,"simamiwa":7418,"mokrasi":7419,"Ġzikiendelea":7420,"Ġmachibya":7421,"Ġwachambuzi":7422,"banwa":7423,"Ġwajane":7424,"Ġmasikitiko":7425,"Ġwapigakura":7426,"ndelea":7427,"Ġkukubalika":7428,"Ġwazalendo":7429,"Ġmvuto":7430,"Ġmwenezi":7431,"Ġmashuhuda":7432,"Ġmwaipopo":7433,"Ġrajabu":7434,"simulia":7435,"Ġlyaku":7436,"Ġuenezi":7437,"zuiwa":7438,"Ġkifamilia":7439,"Ġulazima":7440,"kimbilia":7441,"Ġsaudi":7442,"Ġhaujakamilika":7443,"Ġpetroli":7444,"Ġvancou":7445,"Ġdaudi":7446,"Ġkishirikina":7447,"Ġutaalamu":7448,"Ġreginald":7449,"Ġwanakijiji":7450,"Ġmaftah":7451,"Ġobama":7452,"Ġnyalandu":7453,"Ġiwezekanavyo":7454,"Ġvancouver":7455,"dness":7456,"isi":7457,"kwu":7458,"my":7459,"mkuta":7460,"nsa":7461,"que":7462,"uis":7463,"Ġmpu":7464,"Ġmdhibiti":7465,"Ġwahu":7466,"Ġwami":7467,"Ġkubuni":7468,"Ġkugoma":7469,"yafanya":7470,"kara":7471,"katwa":7472,"Ġnape":7473,"hiki":7474,"Ġafa":7475,"Ġadui":7476,"Ġyawe":7477,"tahidi":7478,"Ġmah":7479,"Ġmanti":7480,"Ġmauti":7481,"zini":7482,"zinduliwa":7483,"Ġufanyike":7484,"Ġkwakuwa":7485,"kuzwa":7486,"kuliwa":7487,"Ġharufu":7488,"sifu":7489,"Ġkiru":7490,"Ġkiingereza":7491,"Ġaliumia":7492,"toroka":7493,"lekeza":7494,"sali":7495,"Ġkuwau":7496,"Ġkuwajengea":7497,"Ġniku":7498,"Ġniliwa":7499,"zoni":7500,"Ġbalaa":7501,"Ġsacco":7502,"Ġvisa":7503,"Ġviingilio":7504,"Ġilibainika":7505,"Ġkutowa":7506,"fisi":7507,"gana":7508,"gope":7509,"Ġjac":7510,"Ġjahazi":7511,"Ġinatumia":7512,"Ġinaelezwa":7513,"chukwu":7514,"Ġwakawa":7515,"Ġparis":7516,"guo":7517,"Ġakipata":7518,"Ġmeya":7519,"Ġclu":7520,"Ġshikoko":7521,"Ġfro":7522,"Ġimechukua":7523,"Ġimetokana":7524,"Ġoth":7525,"Ġokwi":7526,"Ġwamepoteza":7527,"Ġwamejiandaa":7528,"Ġwataanza":7529,"ishu":7530,"Ġwaliopata":7531,"Ġwaliotoa":7532,"Ġkumka":7533,"Ġkumtafuta":7534,"Ġunalenga":7535,"Ġutaendelea":7536,"Ġyesu":7537,"Ġgabri":7538,"Ġkupikia":7539,"Ġkupingwa":7540,"Ġitatajwa":7541,"Ġshuhuda":7542,"Ġdef":7543,"Ġzilisema":7544,"Ġsou":7545,"Ġaliyem":7546,"Ġkusahau":7547,"Ġmakaa":7548,"Ġwanaona":7549,"Ġgridi":7550,"Ġkupandi":7551,"Ġlilipo":7552,"Ġburian":7553,"Ġshaba":7554,"Ġikiwamo":7555,"Ġkutenga":7556,"Ġkuteua":7557,"Ġkinaweza":7558,"Ġutegeme":7559,"Ġalipohojiwa":7560,"Ġakiwamo":7561,"fikie":7562,"Ġmbwana":7563,"Ġyaliyopatikana":7564,"Ġluha":7565,"Ġkuzika":7566,"Ġzimebaki":7567,"Ġlouis":7568,"Ġkiufundi":7569,"Ġkipaji":7570,"Ġmbega":7571,"fsiriwa":7572,"tokanayo":7573,"Ġmorocco":7574,"Ġanayeishi":7575,"Ġkuvuta":7576,"Ġahmad":7577,"Ġkuhamishwa":7578,"Ġmalezi":7579,"Ġnembo":7580,"Ġkibarua":7581,"Ġmajura":7582,"Ġukurasa":7583,"Ġhaule":7584,"Ġmiss":7585,"Ġmnazi":7586,"kumbusha":7587,"Ġupeo":7588,"Ġkusomewa":7589,"Ġkushangilia":7590,"Ġuturuki":7591,"Ġkumbuka":7592,"Ġmachachari":7593,"Ġkijinsia":7594,"Ġkielimu":7595,"Ġkagame":7596,"Ġaaah":7597,"Ġitc":7598,"Ġkusikitishwa":7599,"Ġvipande":7600,"fanana":7601,"Ġkwingine":7602,"Ġkheri":7603,"Ġmabula":7604,"Ġsalome":7605,"Ġgladness":7606,"Ġkudumisha":7607,"Ġjazba":7608,"Ġmantiki":7609,"Ġsaccos":7610,"Ġclub":7611,"Ġshikokoti":7612,"Ġothman":7613,"Ġgabriel":7614,"dge":7615,"mshikilia":7616,"rya":7617,"thu":7618,"Ġnd":7619,"wawezesha":7620,"Ġmm":7621,"Ġmhusika":7622,"Ġway":7623,"Ġwadaiwa":7624,"Ġwanyonge":7625,"Ġkushauri":7626,"Ġkuzaliwa":7627,"Ġkunggoa":7628,"Ġkuzuka":7629,"kavu":7630,"kamilisha":7631,"Ġabu":7632,"Ġapate":7633,"mar":7634,"maria":7635,"tib":7636,"rithi":7637,"Ġuendelee":7638,"Ġurusi":7639,"Ġuwakilishi":7640,"Ġifanye":7641,"Ġigunga":7642,"tumwa":7643,"Ġkisasi":7644,"Ġalipa":7645,"Ġalivi":7646,"Ġaliweza":7647,"Ġalishauri":7648,"Ġalizungumzia":7649,"Ġaliweka":7650,"Ġalizaliwa":7651,"toshi":7652,"lembo":7653,"men":7654,"Ġkuwatumikia":7655,"Ġtambwe":7656,"Ġsioni":7657,"Ġlaki":7658,"Ġbarthe":7659,"Ġsahara":7660,"Ġvinne":7661,"Ġchangu":7662,"Ġchachu":7663,"Ġwanacheza":7664,"Ġwanastahili":7665,"Ġilikwenda":7666,"Ġilitoka":7667,"Ġililazimika":7668,"elewana":7669,"Ġkutoroka":7670,"Ġever":7671,"Ġerne":7672,"Ġemeh":7673,"jeo":7674,"Ġinapata":7675,"Ġwakae":7676,"Ġwerema":7677,"Ġameiambia":7678,"Ġameitaka":7679,"Ġkomba":7680,"Ġkuinoa":7681,"Ġkuoko":7682,"Ġshiri":7683,"Ġimefanikiwa":7684,"Ġimepanga":7685,"Ġimetangaza":7686,"Ġwamefanikiwa":7687,"Ġwameiomba":7688,"Ġponda":7689,"Ġport":7690,"Ġwatahakikisha":7691,"Ġmkondo":7692,"Ġwakidaiwa":7693,"Ġwakiishi":7694,"nuo":7695,"Ġwaliolazwa":7696,"Ġkumfikisha":7697,"Ġhoboko":7698,"Ġboys":7699,"Ġitacheza":7700,"jiandikisha":7701,"Ġkuhusishwa":7702,"Ġupanuzi":7703,"Ġdebe":7704,"Ġumeonesha":7705,"Ġtunaona":7706,"Ġtunapaswa":7707,"Ġkukatisha":7708,"Ġwanaodai":7709,"Ġwanaotoka":7710,"Ġgy":7711,"Ġgre":7712,"Ġikiongozwa":7713,"Ġwaanze":7714,"Ġwaaminifu":7715,"Ġlinahitaji":7716,"shehe":7717,"Ġnyayo":7718,"Ġreg":7719,"Ġstahili":7720,"Ġaliwaeleza":7721,"pigana":7722,"Ġmaligha":7723,"Ġsaad":7724,"Ġpromo":7725,"cal":7726,"fereji":7727,"fuate":7728,"Ġcompa":7729,"Ġfimbo":7730,"Ġmajangili":7731,"fungulia":7732,"Ġkuvuka":7733,"Ġlililowekwa":7734,"Ġnyeti":7735,"Ġkinachofanyika":7736,"Ġuanze":7737,"Ġsafarini":7738,"Ġsokoni":7739,"Ġngome":7740,"Ġkisayansi":7741,"Ġkhan":7742,"Ġkhatib":7743,"Ġubabaishaji":7744,"Ġmaghala":7745,"Ġwasiojulikana":7746,"Ġprince":7747,"Ġmhando":7748,"Ġkumwachia":7749,"koaji":7750,"Ġselemani":7751,"Ġyasiyokuwa":7752,"Ġwalizopanda":7753,"pumzike":7754,"hakikishe":7755,"Ġkubahatisha":7756,"chezesha":7757,"Ġkuzama":7758,"Ġujinga":7759,"Ġlyamu":7760,"Ġkubadilishana":7761,"Ġmzinga":7762,"Ġsijawahi":7763,"Ġtumboni":7764,"Ġplaye":7765,"Ġkulazimisha":7766,"Ġbanka":7767,"Ġmchanganuo":7768,"Ġlawrence":7769,"shutumu":7770,"Ġkumbaka":7771,"Ġuonevu":7772,"Ġmanyoni":7773,"Ġkunyimwa":7774,"Ġcristiano":7775,"Ġutegemezi":7776,"Ġbarthez":7777,"Ġmalighafi":7778,"ambatana":7779,"dho":7780,"elimisha":7781,"ipa":7782,"lfu":7783,"unge":7784,"ungwa":7785,"likana":7786,"Ġwadai":7787,"Ġwaende":7788,"Ġkunyesha":7789,"Ġkuzua":7790,"Ġkutumikia":7791,"Ġkulumbana":7792,"Ġnashangaa":7793,"Ġataji":7794,"Ġsc":7795,"Ġmati":7796,"kithiri":7797,"Ġudini":7798,"Ġipi":7799,"Ġibara":7800,"Ġiendelee":7801,"Ġitoe":7802,"Ġhiza":7803,"Ġkivita":7804,"Ġalili":7805,"Ġalikubali":7806,"Ġalifanikiwa":7807,"sawazisha":7808,"yern":7809,"Ġkuwalinda":7810,"Ġkuwanyima":7811,"Ġtaji":7812,"kela":7813,"teke":7814,"Ġsigara":7815,"Ġhulazimika":7816,"Ġbayern":7817,"ndae":7818,"ngapi":7819,"Ġwanapokuwa":7820,"Ġwanalazimika":7821,"Ġilikuja":7822,"nolewa":7823,"Ġkutofanya":7824,"Ġkutoweka":7825,"Ġwalikuta":7826,"Ġjapokuwa":7827,"Ġliwe":7828,"Ġinashindwa":7829,"uar":7830,"Ġakicheza":7831,"Ġakihojiwa":7832,"Ġmeru":7833,"Ġramani":7834,"Ġamepewa":7835,"Ġamekaa":7836,"Ġkuadhi":7837,"Ġkontena":7838,"Ġkuitumia":7839,"Ġkuorodhesha":7840,"Ġkuongezwa":7841,"Ġimem":7842,"Ġimepanda":7843,"Ġimelenga":7844,"riano":7845,"Ġwamekubaliana":7846,"Ġwataza":7847,"Ġwakim":7848,"Ġkujiimarisha":7849,"Ġkumtia":7850,"Ġkumkuta":7851,"Ġkumfanyia":7852,"Ġutamwa":7853,"Ġitakutana":7854,"Ġhadithi":7855,"Ġpt":7856,"Ġphi":7857,"Ġzinahitajika":7858,"Ġfaus":7859,"Ġkutathmini":7860,"Ġumetokana":7861,"Ġmpanda":7862,"Ġkupangiwa":7863,"Ġmaelfu":7864,"Ġhewani":7865,"Ġhosteli":7866,"Ġyaliyokusudiwa":7867,"Ġcheti":7868,"Ġmajani":7869,"Ġngapi":7870,"Ġukata":7871,"Ġnyenzo":7872,"Ġmarley":7873,"Ġtutawa":7874,"Ġhaziku":7875,"Ġngono":7876,"Ġkumuo":7877,"Ġukombozi":7878,"Ġurani":7879,"Ġkukopesha":7880,"ndelezo":7881,"Ġstella":7882,"rls":7883,"Ġmizengwe":7884,"Ġpembejeo":7885,"Ġkuchoma":7886,"Ġmabinti":7887,"Ġamiri":7888,"wakilishwa":7889,"Ġvictor":7890,"Ġubishi":7891,"Ġmassawe":7892,"Ġkujikinga":7893,"Ġkandoro":7894,"Ġuchafuzi":7895,"Ġvikiwemo":7896,"Ġkuchimba":7897,"Ġuchovu":7898,"Ġvalenti":7899,"Ġmaurice":7900,"Ġheroes":7901,"Ġtafrani":7902,"Ġkusababishwa":7903,"Ġdominick":7904,"Ġkushughulikiwa":7905,"Ġmeremeta":7906,"dc":7907,"ig":7908,"imba":7909,"lf":7910,"ombwa":7911,"upe":7912,"umwa":7913,"unt":7914,"Ġele":7915,"Ġmpe":7916,"Ġwamo":7917,"Ġkuendeshwa":7918,"Ġkuheshimu":7919,"Ġnafsi":7920,"Ġyatokanayo":7921,"masisha":7922,"Ġmak":7923,"Ġmame":7924,"Ġmaye":7925,"tibiwa":7926,"kita":7927,"Ġupu":7928,"Ġusulu":7929,"Ġkadha":7930,"Ġid":7931,"Ġitumike":7932,"kulia":7933,"Ġhiti":7934,"Ġhila":7935,"mbale":7936,"Ġalikuwepo":7937,"Ġalirejea":7938,"fali":7939,"dad":7940,"dali":7941,"bin":7942,"sambu":7943,"seba":7944,"Ġkuwaweka":7945,"Ġkuwapongeza":7946,"Ġtabaka":7947,"hesabu":7948,"Ġbada":7949,"Ġsadi":7950,"ngiza":7951,"Ġchacha":7952,"Ġwanatuhumiwa":7953,"Ġilifanikiwa":7954,"Ġkutokubali":7955,"ngependa":7956,"Ġewu":7957,"Ġtulio":7958,"Ġjambazi":7959,"Ġliliwa":7960,"Ġlissu":7961,"Ġbib":7962,"choshwa":7963,"Ġanatuhumiwa":7964,"nzishwa":7965,"Ġparo":7966,"Ġpampu":7967,"Ġmuga":7968,"Ġakitoka":7969,"Ġmedali":7970,"Ġradio":7971,"Ġjicho":7972,"Ġtpa":7973,"Ġameweza":7974,"Ġamethibitisha":7975,"Ġamevaa":7976,"Ġkongwe":7977,"Ġkuisha":7978,"Ġkuishauri":7979,"Ġkuisababishia":7980,"Ġimedaiwa":7981,"Ġimetenga":7982,"Ġoly":7983,"Ġwatalazimika":7984,"Ġwatambue":7985,"Ġndimbo":7986,"Ġwakipiga":7987,"Ġkujihakikishia":7988,"nusi":7989,"njari":7990,"Ġkumzuia":7991,"Ġhatuta":7992,"Ġutafanyika":7993,"Ġutasaidia":7994,"Ġmwishehe":7995,"Ġthey":7996,"Ġtendwa":7997,"Ġshel":7998,"Ġmaratho":7999,"Ġmsikiti":8000,"Ġpua":8001,"kwambia":8002,"Ġshutuma":8003,"Ġkufunguliwa":8004,"Ġkufukuzwa":8005,"Ġsomalia":8006,"Ġaliyepata":8007,"Ġaliyetajwa":8008,"oney":8009,"Ġtunao":8010,"Ġmatapeli":8011,"Ġulisema":8012,"Ġkukarabati":8013,"Ġghorofa":8014,"Ġyanakuwa":8015,"Ġyanakwenda":8016,"Ġinayofanywa":8017,"Ġinayofuata":8018,"Ġkinara":8019,"Ġalgeria":8020,"Ġzilizojitokeza":8021,"Ġzilizowekwa":8022,"Ġlinashughulikiwa":8023,"Ġkimaa":8024,"ender":8025,"Ġchupa":8026,"Ġstadi":8027,"stan":8028,"Ġzinazoweza":8029,"Ġluga":8030,"Ġrooney":8031,"Ġcoca":8032,"Ġkuchafua":8033,"Ġlililofanyika":8034,"Ġndesambu":8035,"Ġmbozi":8036,"Ġdirisha":8037,"Ġdihile":8038,"Ġmgahawa":8039,"Ġmakonde":8040,"Ġmichache":8041,"Ġaliyonayo":8042,"ingizia":8043,"Ġmkenya":8044,"Ġkuepu":8045,"Ġuraia":8046,"Ġamewaambia":8047,"Ġitakayoanza":8048,"Ġkukomesha":8049,"Ġubadhiri":8050,"zoea":8051,"Ġuporaji":8052,"Ġkushawishi":8053,"Ġkushambuliwa":8054,"Ġkuchelewe":8055,"Ġrashidi":8056,"Ġaliandika":8057,"Ġvillarre":8058,"Ġviumbe":8059,"Ġferdina":8060,"Ġkuchochea":8061,"sikitisha":8062,"Ġalivyokuwa":8063,"Ġwalivyokuwa":8064,"Ġmanyanya":8065,"Ġkidemokrasi":8066,"Ġalizokuwa":8067,"Ġkukimbizwa":8068,"Ġshtaka":8069,"Ġkivutio":8070,"Ġsaleh":8071,"eleweke":8072,"raim":8073,"Ġkanali":8074,"Ġnotisi":8075,"Ġkumuacha":8076,"Ġphilip":8077,"Ġfundisho":8078,"Ġkuteketeza":8079,"Ġkuzomewa":8080,"Ġdeog":8081,"Ġhayupo":8082,"Ġkuwakomboa":8083,"Ġwaganga":8084,"Ġlitakalo":8085,"Ġvivutio":8086,"Ġephraim":8087,"Ġmpwapwa":8088,"Ġsekretarieti":8089,"ishukuru":8090,"Ġdefender":8091,"Ġeverton":8092,"Ġshirima":8093,"masishaji":8094,"Ġusuluhishi":8095,"Ġewura":8096,"Ġndesamburo":8097,"Ġubadhirifu":8098,"Ġvillarreal":8099,"Ġferdinand":8100,"brou":8101,"eni":8102,"inua":8103,"mtafuta":8104,"rdea":8105,"ux":8106,"ulu":8107,"Ġguu":8108,"Ġmjukuu":8109,"Ġwachi":8110,"Ġwalalamikaji":8111,"Ġkumui":8112,"Ġkulaani":8113,"Ġkunyakua":8114,"Ġnagu":8115,"hitimu":8116,"hitimisha":8117,"Ġag":8118,"tamani":8119,"ngy":8120,"Ġss":8121,"Ġmande":8122,"Ġmafia":8123,"tiwe":8124,"Ġkano":8125,"Ġkapu":8126,"hukumu":8127,"sita":8128,"wer":8129,"jabu":8130,"jadiliwa":8131,"ray":8132,"Ġkiho":8133,"Ġkimila":8134,"Ġalipaswa":8135,"Ġalitamba":8136,"Ġalisikika":8137,"tolewe":8138,"biza":8139,"bikwa":8140,"chapishwa":8141,"paa":8142,"mir":8143,"Ġkuwaondolea":8144,"Ġtanzani":8145,"Ġnbc":8146,"Ġlampa":8147,"Ġmira":8148,"Ġwanasheria":8149,"lovu":8150,"Ġwalikubaliana":8151,"gani":8152,"gando":8153,"Ġdavis":8154,"rongoro":8155,"dhari":8156,"Ġinaongozwa":8157,"Ġinasikitisha":8158,"Ġpaz":8159,"gubikwa":8160,"Ġakithibitisha":8161,"Ġakizindua":8162,"ndoo":8163,"Ġameibuka":8164,"Ġkuandaliwa":8165,"Ġkuandikishwa":8166,"vutia":8167,"Ġimeonesha":8168,"Ġimepangwa":8169,"Ġmaajabu":8170,"Ġwamefikia":8171,"Ġwameonyesha":8172,"dom":8173,"dondo":8174,"Ġwatatoa":8175,"Ġmkoba":8176,"Ġmahara":8177,"Ġwakidhani":8178,"Ġkujili":8179,"Ġkujifanya":8180,"Ġkujikwamua":8181,"Ġkeko":8182,"Ġhalikuwa":8183,"Ġkuugua":8184,"Ġkumruhusu":8185,"Ġkumlipa":8186,"Ġunatarajia":8187,"Ġkilaini":8188,"Ġmwina":8189,"womba":8190,"Ġbordea":8191,"thiriwa":8192,"Ġtenda":8193,"tokee":8194,"Ġmaranda":8195,"Ġsitaki":8196,"dudu":8197,"Ġumesababisha":8198,"Ġulivyokuwa":8199,"der":8200,"Ġmwanangu":8201,"Ġikibidi":8202,"Ġbugando":8203,"kutane":8204,"Ġwaarabu":8205,"Ġkufikiwa":8206,"Ġinayoongozwa":8207,"Ġzilizoko":8208,"Ġatakwenda":8209,"Ġmfungwa":8210,"shewa":8211,"Ġwafanyabishara":8212,"Ġfupi":8213,"Ġchunya":8214,"Ġzinazotakiwa":8215,"Ġakaamua":8216,"Ġyohana":8217,"Ġger":8218,"fuatia":8219,"Ġcole":8220,"Ġchenga":8221,"Ġmrembo":8222,"Ġyanayotolewa":8223,"Ġvitanda":8224,"Ġzee":8225,"Ġnilivyo":8226,"maanisha":8227,"Ġmapigo":8228,"Ġmarsei":8229,"wapongeza":8230,"Ġkurudia":8231,"Ġghafi":8232,"Ġjohnson":8233,"Ġkinachodaiwa":8234,"Ġaingi":8235,"Ġzitatolewa":8236,"Ġzitachukuliwa":8237,"Ġngorongoro":8238,"dhuru":8239,"Ġkubainika":8240,"Ġurasimu":8241,"Ġmifupa":8242,"Ġkubadilishwa":8243,"Ġmsemwa":8244,"Ġwajanja":8245,"Ġkitita":8246,"Ġarsene":8247,"Ġkusomesha":8248,"Ġhaijawahi":8249,"Ġmatei":8250,"Ġmateso":8251,"Ġchris":8252,"Ġkidedea":8253,"Ġmlimani":8254,"Ġameacha":8255,"Ġkuzidiwa":8256,"Ġninachotaka":8257,"Ġkuwashawishi":8258,"Ġkifahari":8259,"Ġmezani":8260,"safirisha":8261,"Ġsweden":8262,"ratius":8263,"Ġmagogoni":8264,"Ġsmg":8265,"Ġkukabiliwa":8266,"Ġkujiorodhesha":8267,"lsafa":8268,"Ġelias":8269,"Ġmwanaharakati":8270,"Ġkuwasomesha":8271,"Ġeuro":8272,"Ġsimanzi":8273,"Ġkirumba":8274,"Ġwayne":8275,"Ġdeogratius":8276,"Ġwachina":8277,"Ġlampard":8278,"Ġbordeaux":8279,"Ġmarseille":8280,"andikwa":8281,"jja":8282,"lya":8283,"lka":8284,"nha":8285,"nham":8286,"os":8287,"pua":8288,"tra":8289,"umana":8290,"Ġmzo":8291,"Ġmkwe":8292,"Ġmdau":8293,"Ġwapenda":8294,"Ġwanunuzi":8295,"Ġkuhakiki":8296,"Ġkushangazwa":8297,"Ġkulalamikia":8298,"Ġkuzunguka":8299,"Ġkuruka":8300,"hali":8301,"kawe":8302,"Ġnazi":8303,"Ġaisha":8304,"Ġswai":8305,"Ġmafa":8306,"zikwa":8307,"Ġuliwa":8308,"Ġufuatiliaji":8309,"kumbana":8310,"jivunia":8311,"tukana":8312,"Ġhip":8313,"Ġkikiwa":8314,"Ġkilwa":8315,"Ġaliu":8316,"Ġalikuja":8317,"Ġalizidi":8318,"dic":8319,"diliana":8320,"Ġkuwacha":8321,"Ġkuwapata":8322,"Ġkuwashirikisha":8323,"Ġkuwafukuza":8324,"Ġtairi":8325,"Ġzama":8326,"hemba":8327,"Ġbabu":8328,"Ġbalele":8329,"Ġmiche":8330,"Ġmisima":8331,"Ġmiliki":8332,"Ġmidd":8333,"Ġmisimu":8334,"Ġsai":8335,"pingana":8336,"ngilio":8337,"ngazia":8338,"Ġambae":8339,"Ġchampi":8340,"Ġwanachi":8341,"Ġilicheza":8342,"fiwa":8343,"Ġwalii":8344,"rushi":8345,"Ġmorali":8346,"rewe":8347,"rekebisha":8348,"Ġtuone":8349,"Ġtufanye":8350,"Ġjay":8351,"Ġzilianza":8352,"Ġzichukuliwe":8353,"Ġdhara":8354,"Ġmkusanyiko":8355,"choche":8356,"Ġanafahamu":8357,"Ġanasumbuliwa":8358,"Ġinasababisha":8359,"Ġinachangia":8360,"Ġinategemea":8361,"chua":8362,"nzisha":8363,"Ġpazi":8364,"Ġmuundo":8365,"Ġmutaki":8366,"Ġakionesha":8367,"Ġwivu":8368,"gea":8369,"Ġpigo":8370,"Ġamesha":8371,"Ġameomba":8372,"Ġkuahirisha":8373,"Ġkoua":8374,"Ġkorti":8375,"vunjwa":8376,"Ġkuiweka":8377,"yusa":8378,"yulu":8379,"Ġimebaini":8380,"Ġimejipanga":8381,"Ġimewataka":8382,"Ġwakenya":8383,"Ġwamepewa":8384,"Ġwamekuja":8385,"zungumzwa":8386,"Ġwakijaribu":8387,"Ġkemika":8388,"Ġhalita":8389,"Ġhalija":8390,"Ġwaliopewa":8391,"Ġkumchukua":8392,"Ġhop":8393,"Ġunam":8394,"Ġhatuja":8395,"Ġmwilima":8396,"Ġmkata":8397,"jiandae":8398,"Ġupanga":8399,"Ġkilinda":8400,"Ġzilipo":8401,"Ġfari":8402,"Ġfatuma":8403,"Ġfaulo":8404,"Ġkutawala":8405,"Ġkutazama":8406,"Ġaliyeuawa":8407,"Ġtotte":8408,"Ġmashina":8409,"Ġtunasema":8410,"Ġchikawe":8411,"Ġkupangwa":8412,"Ġbunda":8413,"Ġbulembo":8414,"Ġwaadilifu":8415,"Ġkufilisi":8416,"Ġdoria":8417,"Ġinayoshika":8418,"Ġkuteka":8419,"Ġzilizowasilishwa":8420,"Ġutengenezaji":8421,"Ġlinatokana":8422,"Ġreja":8423,"Ġchuma":8424,"Ġmchanganyiko":8425,"Ġlushoto":8426,"cast":8427,"Ġkupotosha":8428,"Ġkutupwa":8429,"Ġlimetokea":8430,"Ġlimekuja":8431,"Ġkukumba":8432,"Ġkukumbu":8433,"Ġkitambulisho":8434,"Ġabbas":8435,"Ġrwi":8436,"Ġnever":8437,"Ġvunjo":8438,"Ġkutii":8439,"Ġtulipo":8440,"ngenezea":8441,"Ġedwin":8442,"Ġzitasaidia":8443,"nyororo":8444,"Ġfoleni":8445,"wasiliana":8446,"Ġmwakyusa":8447,"Ġsteve":8448,"Ġmigomo":8449,"Ġkusomwa":8450,"Ġkiraia":8451,"Ġnitakuwa":8452,"Ġvazi":8453,"Ġilipokuja":8454,"Ġaliyataja":8455,"Ġwazanzibari":8456,"Ġkusafiria":8457,"Ġomary":8458,"Ġudhalilisha":8459,"Ġudongo":8460,"Ġkuhifadhiwa":8461,"Ġmashekhe":8462,"tafutwa":8463,"shtuka":8464,"Ġflorian":8465,"Ġbridge":8466,"Ġwanaharakati":8467,"Ġfunguo":8468,"Ġmakengeza":8469,"dinali":8470,"Ġianze":8471,"nunuliwa":8472,"Ġureno":8473,"Ġaondoke":8474,"Ġukerewe":8475,"Ġwachunguzi":8476,"Ġkardinali":8477,"Ġstudio":8478,"Ġernest":8479,"Ġcompany":8480,"Ġwatazamaji":8481,"Ġiddi":8482,"oski":8483,"Ġmafao":8484,"Ġmisimamo":8485,"Ġdharau":8486,"Ġkemikali":8487,"Ġtottenham":8488,"Ġudhalilishaji":8489,"aini":8490,"eh":8491,"ichezea":8492,"ofisha":8493,"ps":8494,"pri":8495,"pho":8496,"smas":8497,"uku":8498,"nance":8499,"Ġmsomaji":8500,"Ġware":8501,"Ġwazungu":8502,"Ġwaume":8503,"Ġwachukuliwe":8504,"Ġkubisha":8505,"Ġkuhesabu":8506,"nica":8507,"ngs":8508,"mandoo":8509,"timiza":8510,"Ġuzuri":8511,"Ġuboresha":8512,"Ġifu":8513,"kunde":8514,"husia":8515,"Ġkibe":8516,"Ġkinyama":8517,"Ġkilianza":8518,"Ġkihemba":8519,"Ġalikufa":8520,"toi":8521,"shani":8522,"miti":8523,"kee":8524,"Ġncc":8525,"Ġlako":8526,"Ġminzi":8527,"Ġmipya":8528,"Ġmiondo":8529,"Ġmikwaju":8530,"Ġsapoti":8531,"ndawazi":8532,"Ġviboko":8533,"Ġchako":8534,"Ġilipaswa":8535,"Ġilipokuwa":8536,"Ġwaliweza":8537,"Ġwalitoka":8538,"Ġwalipanda":8539,"ngers":8540,"Ġmode":8541,"Ġmonica":8542,"Ġekari":8543,"rey":8544,"remia":8545,"resho":8546,"gama":8547,"Ġmwaliko":8548,"Ġjaco":8549,"Ġlive":8550,"Ġtimes":8551,"Ġanashindwa":8552,"Ġinadai":8553,"Ġinayote":8554,"zese":8555,"yimo":8556,"Ġpasaka":8557,"Ġmusi":8558,"Ġakieleza":8559,"Ġakikabiliwa":8560,"Ġakitolea":8561,"Ġakihitimisha":8562,"Ġwenzi":8563,"Ġrabia":8564,"Ġrangers":8565,"Ġamesikitishwa":8566,"Ġkuandikwa":8567,"Ġkoo":8568,"Ġkuivaa":8569,"Ġkuolewa":8570,"Ġmiamba":8571,"Ġimesababisha":8572,"Ġimepungua":8573,"Ġwameomba":8574,"Ġwamekamatwa":8575,"Ġpochi":8576,"Ġwatashiriki":8577,"Ġwakichangia":8578,"nukuliwa":8579,"Ġhalima":8580,"Ġwalionyesha":8581,"Ġwalioathirika":8582,"Ġkumchi":8583,"Ġkumkata":8584,"Ġkumjeruhi":8585,"Ġiliyofanya":8586,"Ġiliyowekwa":8587,"somea":8588,"Ġunafanyika":8589,"Ġwaone":8590,"Ġitaingia":8591,"Ġmabano":8592,"Ġzinafanya":8593,"Ġzinadai":8594,"Ġden":8595,"Ġfalsafa":8596,"Ġsote":8597,"Ġjeremia":8598,"Ġumesema":8599,"Ġaliyeomba":8600,"Ġmwendelezo":8601,"Ġtunategemea":8602,"Ġhawako":8603,"Ġmpangilio":8604,"Ġchingy":8605,"Ġmwanae":8606,"Ġhapakuwa":8607,"Ġbuku":8608,"Ġyanaonesha":8609,"Ġshauku":8610,"malize":8611,"Ġmarefu":8612,"Ġinayotoa":8613,"Ġinayohusu":8614,"Ġzilizoendelea":8615,"Ġhaipo":8616,"Ġaston":8617,"Ġnyarugu":8618,"Ġnyagawa":8619,"Ġnyambui":8620,"Ġyaliyotokana":8621,"Ġyaliyofanywa":8622,"Ġluis":8623,"kubaliwa":8624,"Ġyondani":8625,"Ġwalezi":8626,"Ġukiwemo":8627,"Ġhayakuwa":8628,"Ġyanayojitokeza":8629,"Ġmaboresho":8630,"Ġmanzese":8631,"Ġlyimo":8632,"fariji":8633,"Ġkuelekeza":8634,"Ġmakongoro":8635,"Ġmakomandoo":8636,"Ġuandishi":8637,"Ġgofu":8638,"Ġkishapu":8639,"Ġkumuunga":8640,"Ġthat":8641,"Ġkharto":8642,"Ġyatafanyika":8643,"Ġitakayochezwa":8644,"Ġubabe":8645,"Ġmanuel":8646,"Ġmwenzako":8647,"Ġwahalifu":8648,"Ġmoyoni":8649,"Ġwavulana":8650,"Ġvilivyokuwa":8651,"Ġmhagama":8652,"Ġkumwacha":8653,"pteni":8654,"Ġyakiendelea":8655,"bweni":8656,"Ġkitaaluma":8657,"Ġmaafande":8658,"thew":8659,"therine":8660,"Ġmikusanyiko":8661,"Ġkugongwa":8662,"Ġpugu":8663,"Ġinapotokea":8664,"Ġnawaomba":8665,"Ġkuhifadhia":8666,"Ġshamte":8667,"Ġaanze":8668,"Ġtegemezi":8669,"Ġalionao":8670,"Ġkusafirishwa":8671,"Ġplasti":8672,"marishwa":8673,"Ġflora":8674,"Ġvikongwe":8675,"Ġmsongo":8676,"Ġwajitokeze":8677,"Ġkarim":8678,"Ġlisilo":8679,"Ġblue":8680,"Ġshehena":8681,"Ġtenisi":8682,"Ġjacko":8683,"dhoofisha":8684,"Ġmarathon":8685,"Ġguus":8686,"Ġmzozo":8687,"Ġwarembo":8688,"Ġuboreshaji":8689,"husiani":8690,"Ġminziro":8691,"Ġnyarugusu":8692,"Ġkhartoum":8693,"ene":8694,"lham":8695,"nke":8696,"nzu":8697,"sy":8698,"ut":8699,"Ġngwe":8700,"wahusu":8701,"Ġmki":8702,"Ġmcho":8703,"Ġmnyika":8704,"Ġwam":8705,"Ġwaheshimiwa":8706,"Ġkutia":8707,"Ġkutiwa":8708,"haji":8709,"hamishwa":8710,"Ġnaftari":8711,"Ġatu":8712,"Ġataanza":8713,"tapa":8714,"tafsiriwa":8715,"mama":8716,"Ġmabunge":8717,"kibu":8718,"lah":8719,"laza":8720,"zitoa":8721,"Ġukama":8722,"Ġuis":8723,"Ġufungaji":8724,"Ġkalu":8725,"Ġkarne":8726,"Ġkwasaba":8727,"tupilia":8728,"jaj":8729,"jala":8730,"ramba":8731,"Ġkifisadi":8732,"Ġkisingizio":8733,"Ġalisababisha":8734,"Ġalikaa":8735,"Ġaliuliza":8736,"Ġaliuawa":8737,"Ġalikutwa":8738,"fungiwa":8739,"seka":8740,"Ġkuwasikiliza":8741,"Ġnilio":8742,"Ġlama":8743,"Ġbanda":8744,"Ġbajaj":8745,"Ġmio":8746,"Ġsanjari":8747,"ngaika":8748,"Ġvisingizio":8749,"Ġwanalipwa":8750,"Ġwanatafuta":8751,"Ġwanashikiliwa":8752,"moni":8753,"eleweka":8754,"elekeo":8755,"Ġkutotajwa":8756,"Ġwalikuja":8757,"rubuni":8758,"ngerema":8759,"Ġentre":8760,"Ġsengerema":8761,"resa":8762,"rekta":8763,"Ġtutaka":8764,"Ġtupu":8765,"Ġtuliona":8766,"Ġmwamko":8767,"Ġmwaseba":8768,"gonga":8769,"Ġziwe":8770,"Ġlibe":8771,"zuni":8772,"jeli":8773,"Ġbid":8774,"chofanya":8775,"Ġanatumia":8776,"Ġanashikiliwa":8777,"Ġinakwenda":8778,"Ġwakaguzi":8779,"Ġpana":8780,"Ġakidaiwa":8781,"Ġakijaribu":8782,"Ġameonyesha":8783,"Ġamemtaka":8784,"Ġkuanika":8785,"Ġkozi":8786,"vuta":8787,"Ġkuogele":8788,"Ġimeshinda":8789,"Ġwameweka":8790,"Ġwakitokea":8791,"Ġwakionesha":8792,"Ġwakishirikiana":8793,"Ġkujiendeleza":8794,"Ġkujionea":8795,"Ġkuuli":8796,"Ġkumta":8797,"Ġkumtambua":8798,"Ġkumpatia":8799,"Ġlea":8800,"somewa":8801,"bon":8802,"Ġutaifa":8803,"Ġutakuta":8804,"Ġyemen":8805,"Ġwazima":8806,"Ġbonny":8807,"Ġkupigiwa":8808,"Ġterry":8809,"Ġkulifanyia":8810,"Ġmwenyeji":8811,"Ġkufufua":8812,"Ġzilivyo":8813,"Ġjeuri":8814,"Ġaliyeko":8815,"Ġtunashangaa":8816,"Ġmakaburi":8817,"Ġuchache":8818,"Ġuchambuzi":8819,"Ġwanaopinga":8820,"Ġhakiwezi":8821,"Ġsumari":8822,"Ġmsasani":8823,"kutanisha":8824,"Ġwaasisi":8825,"Ġkinana":8826,"Ġusawa":8827,"fikishwe":8828,"cent":8829,"Ġfulham":8830,"Ġstahiki":8831,"Ġaliwapongeza":8832,"Ġmchafu":8833,"Ġlote":8834,"Ġcheo":8835,"Ġukizingatia":8836,"Ġyanayohusiana":8837,"Ġkukifanya":8838,"Ġmapacha":8839,"Ġunaotakiwa":8840,"Ġuhamasishaji":8841,"Ġvinaweza":8842,"Ġnimeamua":8843,"badilike":8844,"Ġkurudishwa":8845,"Ġtutafanya":8846,"Ġinspe":8847,"Ġuandikishwa":8848,"Ġzitaendelea":8849,"Ġaliieleza":8850,"Ġkukodi":8851,"Ġlinalowezekana":8852,"Ġmaige":8853,"Ġwahamiaji":8854,"Ġwahadhiri":8855,"Ġkitimu":8856,"lesbrou":8857,"Ġasingeweza":8858,"Ġwavumilivu":8859,"Ġhawakuweza":8860,"lls":8861,"Ġkiteto":8862,"nggangga":8863,"Ġkuchomwa":8864,"Ġwp":8865,"Ġkitaalam":8866,"Ġmrakibu":8867,"Ġmahesabu":8868,"Ġkijichi":8869,"Ġkusajiliwa":8870,"Ġnewcast":8871,"shughulisha":8872,"Ġkuzaa":8873,"Ġwashindwe":8874,"Ġmasheikh":8875,"Ġisraeli":8876,"Ġmgawanyo":8877,"Ġamour":8878,"Ġmatrekta":8879,"Ġadriano":8880,"Ġkupuuza":8881,"Ġkuwaombea":8882,"Ġhouse":8883,"Ġwalionao":8884,"mkhana":8885,"Ġmollel":8886,"Ġphares":8887,"Ġuwindaji":8888,"Ġmkandarasi":8889,"Ġtimoth":8890,"Ġcarlo":8891,"Ġkamukara":8892,"Ġnassoro":8893,"Ġkinemela":8894,"Ġparalimpiki":8895,"Ġkufyatua":8896,"Ġuvccm":8897,"Ġjumuia":8898,"Ġfrom":8899,"Ġgymkhana":8900,"Ġfaustine":8901,"Ġmugabe":8902,"Ġshellukindo":8903,"Ġmiddlesbrou":8904,"Ġchampion":8905,"Ġkouadio":8906,"Ġfarijala":8907,"Ġnccr":8908,"Ġukamataji":8909,"Ġkwasababu":8910,"Ġentrepreneurship":8911,"Ġkuogelea":8912,"Ġinspekta":8913,"Ġuandikishwaji":8914,"Ġnewcastle":8915,"Ġmiddlesbrough":8916,"ghe":8917,"lton":8918,"nwa":8919,"ogopa":8920,"rpora":8921,"ufanya":8922,"Ġkya":8923,"line":8924,"Ġwastaafu":8925,"Ġkuju":8926,"Ġnasaha":8927,"Ġaga":8928,"Ġadamu":8929,"Ġangani":8930,"Ġatoe":8931,"Ġanto":8932,"tahadharisha":8933,"Ġmam":8934,"Ġmatendo":8935,"Ġmathew":8936,"tili":8937,"kina":8938,"kima":8939,"Ġubaya":8940,"Ġuvamizi":8941,"kusudia":8942,"Ġhapendi":8943,"jiwekea":8944,"huna":8945,"rahimu":8946,"mbaa":8947,"Ġalijua":8948,"Ġalirudi":8949,"Ġaliongoza":8950,"Ġalisikia":8951,"Ġalijeruhiwa":8952,"Ġalilokuwa":8953,"tonyama":8954,"leba":8955,"Ġkuwaita":8956,"Ġkuwashughulikia":8957,"Ġkuwaletea":8958,"Ġniseme":8959,"Ġniliona":8960,"pona":8961,"potokea":8962,"Ġhua":8963,"Ġhumu":8964,"Ġhusababisha":8965,"Ġhuzuni":8966,"Ġmilima":8967,"Ġsabuni":8968,"Ġsangara":8969,"pishaji":8970,"ndama":8971,"ngali":8972,"Ġvisi":8973,"Ġvitano":8974,"Ġilio":8975,"Ġilifika":8976,"Ġilitangaza":8977,"Ġilihusisha":8978,"Ġiliundwa":8979,"Ġkutotaka":8980,"Ġwalishiriki":8981,"Ġwalikiri":8982,"Ġwalijitokeza":8983,"Ġwalikataa":8984,"Ġwalikutwa":8985,"Ġwalipwe":8986,"Ġmomba":8987,"Ġsebu":8988,"Ġtuni":8989,"Ġtutaa":8990,"Ġtusubiri":8991,"Ġmwan":8992,"Ġtigo":8993,"romoka":8994,"Ġbin":8995,"Ġjuven":8996,"pewi":8997,"Ġanastahili":8998,"Ġinashika":8999,"Ġinaendeshwa":9000,"Ġinahitajika":9001,"Ġmundu":9002,"Ġmuleba":9003,"Ġakienda":9004,"Ġakiendesha":9005,"Ġakikabidhi":9006,"Ġakiunganisha":9007,"Ġwezi":9008,"Ġmepesi":9009,"Ġmessi":9010,"gentina":9011,"Ġtbc":9012,"Ġameweka":9013,"Ġameahidi":9014,"Ġkuio":9015,"Ġkuiona":9016,"Ġfm":9017,"Ġimeingia":9018,"Ġimefahamika":9019,"Ġofa":9020,"Ġwamecheza":9021,"Ġwatatumia":9022,"Ġwatafiti":9023,"Ġwakija":9024,"Ġkujinufaisha":9025,"Ġkujiepusha":9026,"Ġwalioa":9027,"Ġkumtoa":9028,"Ġkumshauri":9029,"Ġkumfukuza":9030,"Ġhol":9031,"tian":9032,"Ġutandawazi":9033,"villa":9034,"fanyiwe":9035,"Ġzinaonyesha":9036,"ndugu":9037,"Ġjema":9038,"Ġaliyezaliwa":9039,"Ġpendekezo":9040,"Ġtunatarajia":9041,"Ġkusali":9042,"Ġhawaridhi":9043,"Ġhawapendi":9044,"Ġulitokea":9045,"Ġkukari":9046,"Ġkukaidi":9047,"Ġyalifungwa":9048,"dee":9049,"Ġwanaowa":9050,"Ġikicheza":9051,"Ġikishindwa":9052,"Ġikishinda":9053,"Ġbugu":9054,"Ġuliojitokeza":9055,"Ġuliopangwa":9056,"Ġshabani":9057,"Ġkutenganisha":9058,"Ġrio":9059,"Ġjola":9060,"Ġjoyce":9061,"Ġhaitaki":9062,"Ġhaijulikani":9063,"Ġatatoa":9064,"Ġataondoka":9065,"kilisha":9066,"Ġhekima":9067,"shea":9068,"nyia":9069,"Ġzinazomkabili":9070,"Ġlugo":9071,"Ġlude":9072,"Ġakaanza":9073,"Ġzimeeleza":9074,"mwachia":9075,"Ġkikatili":9076,"Ġrorya":9077,"Ġcorpora":9078,"Ġargentina":9079,"Ġhayaja":9080,"Ġyanayofanywa":9081,"Ġyupi":9082,"Ġvitani":9083,"Ġujazo":9084,"mbanaji":9085,"endayo":9086,"Ġkuchanganyikiwa":9087,"Ġkuvuja":9088,"Ġitakuwaje":9089,"Ġnimewa":9090,"Ġnyombi":9091,"guano":9092,"Ġmajukwa":9093,"nyonga":9094,"Ġkubomoa":9095,"Ġkimchezo":9096,"Ġapril":9097,"Ġamewaomba":9098,"Ġmtaalam":9099,"Ġbarrick":9100,"Ġkumwaga":9101,"Ġhaijafanya":9102,"Ġmfukoni":9103,"Ġwapambanaji":9104,"Ġtegeta":9105,"Ġviwandani":9106,"Ġibrahimu":9107,"Ġferna":9108,"ruhusi":9109,"Ġdenis":9110,"Ġgirls":9111,"Ġkurejeshwa":9112,"Ġmvungi":9113,"Ġkiasia":9114,"Ġmsondo":9115,"Ġkurekodi":9116,"Ġkidete":9117,"Ġkijitonyama":9118,"Ġwanachotaka":9119,"Ġnjovu":9120,"Ġkumwona":9121,"Ġwalichodai":9122,"Ġutofauti":9123,"Ġwaliachiwa":9124,"Ġtakataka":9125,"Ġwashirika":9126,"Ġannan":9127,"zuizi":9128,"dhinishwa":9129,"Ġtuangalie":9130,"Ġkalenge":9131,"Ġamos":9132,"Ġiangalie":9133,"Ġvalen":9134,"Ġsaratani":9135,"tosheleza":9136,"Ġmafundisho":9137,"Ġzube":9138,"Ġmsisitizo":9139,"kusanyia":9140,"Ġloiti":9141,"Ġkulaumu":9142,"Ġhafifu":9143,"Ġkutokomeza":9144,"Ġmajonzi":9145,"Ġmlemavu":9146,"Ġssp":9147,"Ġpazzy":9148,"chocheo":9149,"Ġneverland":9150,"Ġkumchinja":9151,"Ġjuventus":9152,"dl":9153,"ft":9154,"frida":9155,"ic":9156,"kna":9157,"ksa":9158,"uma":9159,"uld":9160,"Ġchukua":9161,"naji":9162,"Ġmru":9163,"Ġmnya":9164,"lipi":9165,"lingani":9166,"Ġwasema":9167,"Ġwachimbaji":9168,"Ġwahariri":9169,"Ġkuda":9170,"Ġkushikilia":9171,"Ġkushikiliwa":9172,"Ġkuvamiwa":9173,"haha":9174,"Ġnavyo":9175,"Ġnature":9176,"Ġacheni":9177,"Ġyawezekana":9178,"tage":9179,"bai":9180,"Ġsca":9181,"mamu":9182,"mark":9183,"zitaka":9184,"Ġuthamini":9185,"Ġkafu":9186,"Ġkanga":9187,"Ġiu":9188,"Ġizu":9189,"Ġifike":9190,"Ġhashi":9191,"Ġhafahamu":9192,"jiro":9193,"husiki":9194,"Ġkiza":9195,"Ġkiweze":9196,"Ġkimea":9197,"Ġkidole":9198,"toliki":9199,"chafua":9200,"chambua":9201,"pange":9202,"paresheni":9203,"minia":9204,"muunga":9205,"Ġkuwaza":9206,"Ġkuwatoa":9207,"Ġkuwasaka":9208,"Ġkuwaziba":9209,"Ġkuwanasa":9210,"Ġkuwainua":9211,"Ġsikuwa":9212,"Ġsiman":9213,"pori":9214,"Ġhuria":9215,"Ġhufanyika":9216,"Ġnenda":9217,"Ġlaza":9218,"neth":9219,"Ġmimo":9220,"Ġsaka":9221,"Ġsajini":9222,"Ġsavio":9223,"kotwa":9224,"Ġblo":9225,"Ġvidole":9226,"chiwe":9227,"Ġilidai":9228,"Ġilibaini":9229,"Ġiliongeza":9230,"eleka":9231,"juka":9232,"Ġwalifunga":9233,"Ġwalihusika":9234,"Ġwalimtaka":9235,"ngeni":9236,"Ġmor":9237,"Ġeast":9238,"Ġsem":9239,"Ġjamai":9240,"penha":9241,"mbole":9242,"Ġanasisitiza":9243,"chuana":9244,"Ġmuongo":9245,"Ġakipokea":9246,"Ġakifuatiwa":9247,"Ġwatulivu":9248,"Ġwatumie":9249,"Ġtwi":9250,"Ġameeleza":9251,"shwi":9252,"Ġkota":9253,"Ġkofia":9254,"vunjika":9255,"Ġkuiti":9256,"Ġkuikosoa":9257,"Ġimepokea":9258,"Ġimeshuka":9259,"Ġoic":9260,"Ġoparesheni":9261,"Ġwamekaa":9262,"Ġwamechoshwa":9263,"Ġsabasaba":9264,"Ġpoli":9265,"Ġwatawa":9266,"Ġwatalipa":9267,"Ġwatalipwa":9268,"mbukia":9269,"Ġwakicheza":9270,"Ġwakipinga":9271,"Ġwakijiandaa":9272,"Ġwakishinikiza":9273,"Ġkujiingiza":9274,"Ġhaliku":9275,"Ġwaliom":9276,"Ġwaliowahi":9277,"Ġwaliochaguliwa":9278,"Ġkuungwa":9279,"gile":9280,"Ġkumtetea":9281,"Ġkumchoma":9282,"Ġesther":9283,"Ġhotel":9284,"sota":9285,"Ġunafanywa":9286,"Ġmwiru":9287,"Ġmwimbaji":9288,"nyago":9289,"Ġbob":9290,"Ġboig":9291,"Ġitashinda":9292,"Ġitakua":9293,"Ġitaleta":9294,"Ġnyie":9295,"Ġsikukuu":9296,"jiamini":9297,"Ġshujaa":9298,"Ġzinavyo":9299,"Ġwould":9300,"Ġzilitolewa":9301,"Ġsonga":9302,"Ġumekuja":9303,"Ġumefikia":9304,"Ġaliyetaka":9305,"Ġaliyezungumza":9306,"Ġhakufanya":9307,"Ġhakuona":9308,"Ġhawapati":9309,"Ġulidai":9310,"Ġulifikiwa":9311,"Ġgwa":9312,"Ġruksa":9313,"Ġkuwekewa":9314,"Ġinayoshiriki":9315,"Ġinayoongoza":9316,"Ġinayomilikiwa":9317,"Ġkinaendelea":9318,"Ġzilizofanyika":9319,"Ġzilizofanywa":9320,"Ġjob":9321,"Ġhaitoshi":9322,"Ġatarudi":9323,"Ġmikocheni":9324,"Ġmaziko":9325,"Ġzinazochukuliwa":9326,"Ġdhambi":9327,"eld":9328,"Ġakaahidi":9329,"Ġuhuni":9330,"Ġkupongezwa":9331,"Ġkupokelewa":9332,"Ġrome":9333,"Ġcola":9334,"Ġconso":9335,"Ġcopenha":9336,"Ġfili":9337,"Ġukitaka":9338,"Ġukiongozwa":9339,"Ġhayaku":9340,"Ġyanayotokana":9341,"Ġmitandao":9342,"Ġkuchapa":9343,"Ġunaoendeshwa":9344,"Ġmfaransa":9345,"Ġkilichom":9346,"Ġukawa":9347,"Ġmantage":9348,"Ġyameanza":9349,"badilisha":9350,"Ġtutashinda":9351,"Ġkinachosubiriwa":9352,"Ġalimpa":9353,"Ġkushusha":9354,"ridhia":9355,"Ġmtaani":9356,"Ġwauzaji":9357,"Ġwatakaobainika":9358,"Ġkufana":9359,"Ġkusota":9360,"Ġkuchezwa":9361,"Ġlikiendelea":9362,"Ġkuhimili":9363,"Ġhawajapata":9364,"Ġkuchoka":9365,"Ġmnono":9366,"Ġvikubwa":9367,"Ġwalizonazo":9368,"Ġseminari":9369,"Ġpaulo":9370,"Ġgigg":9371,"Ġmachache":9372,"Ġkusambazwa":9373,"Ġtakrima":9374,"Ġmbuna":9375,"Ġwanyamapori":9376,"Ġwanayoishi":9377,"Ġhawatakubali":9378,"Ġkugongana":9379,"Ġgodfrida":9380,"Ġtrekta":9381,"Ġkumwomba":9382,"thibitisho":9383,"saidii":9384,"Ġkhalid":9385,"Ġtumbatu":9386,"Ġsaul":9387,"Ġikionesha":9388,"Ġmponde":9389,"Ġhavina":9390,"Ġkuwatunza":9391,"Ġwanahabari":9392,"Ġkisicho":9393,"Ġalimuua":9394,"Ġvibarua":9395,"Ġphilipo":9396,"Ġmkiani":9397,"Ġmolleimet":9398,"Ġmsisimko":9399,"mbikizia":9400,"Ġtibaijuka":9401,"Ġkamera":9402,"Ġchalinze":9403,"Ġredkna":9404,"Ġwamarekani":9405,"Ġmdoe":9406,"Ġreggae":9407,"Ġlyamuya":9408,"Ġplayers":9409,"Ġupupu":9410,"Ġhitilafu":9411,"Ġparokia":9412,"Ġkukumbatia":9413,"Ġdenmark":9414,"Ġloitinggye":9415,"Ġscania":9416,"Ġkafulila":9417,"Ġizuchukwu":9418,"Ġsimanjiro":9419,"Ġmimosa":9420,"Ġjamaica":9421,"Ġboigny":9422,"Ġcopenhagen":9423,"Ġgiggs":9424,"Ġredknapp":9425,"dda":9426,"hya":9427,"mtu":9428,"mpo":9429,"mzo":9430,"njia":9431,"rth":9432,"swana":9433,"smo":9434,"sdom":9435,"tv":9436,"Ġfika":9437,"Ġmchi":9438,"Ġmge":9439,"Ġmlu":9440,"Ġmnyororo":9441,"lina":9442,"Ġwawi":9443,"Ġwashu":9444,"Ġwacheze":9445,"Ġwabunifu":9446,"Ġkuga":9447,"Ġkushe":9448,"Ġkurugenzi":9449,"Ġkufahamika":9450,"Ġkuliona":9451,"Ġkuniambia":9452,"Ġkugharamia":9453,"Ġkuguswa":9454,"hanna":9455,"Ġnafanya":9456,"Ġnasisitiza":9457,"Ġnakaa":9458,"Ġasali":9459,"Ġyahya":9460,"bay":9461,"ngton":9462,"Ġswa":9463,"Ġspa":9464,"Ġsua":9465,"manga":9466,"Ġmachungu":9467,"titi":9468,"lanzi":9469,"Ġuho":9470,"Ġuamini":9471,"Ġkagoda":9472,"Ġkapteni":9473,"Ġiwa":9474,"Ġiitwa":9475,"Ġhas":9476,"Ġhave":9477,"Ġhadhari":9478,"siness":9479,"Ġkimo":9480,"Ġkiingilio":9481,"Ġalika":9482,"Ġalikubaliana":9483,"Ġalishangazwa":9484,"Ġalikimbia":9485,"tosa":9486,"toweka":9487,"dari":9488,"bir":9489,"dirio":9490,"muona":9491,"Ġkuwahudumia":9492,"Ġkuwahamasisha":9493,"Ġkuwaelimisha":9494,"keni":9495,"Ġnilisha":9496,"hehebu":9497,"Ġsifahamu":9498,"Ġsimoni":9499,"Ġhupenda":9500,"Ġmidogo":9501,"ndard":9502,"ngazi":9503,"Ġvite":9504,"Ġvilio":9505,"Ġvizazi":9506,"Ġchanggombe":9507,"chilia":9508,"Ġwanaa":9509,"Ġwanafa":9510,"Ġwanategemea":9511,"Ġilikutana":9512,"Ġkutofautiana":9513,"Ġwalini":9514,"Ġwalikana":9515,"Ġwalicheza":9516,"Ġwalichukua":9517,"Ġwalikutana":9518,"Ġwalijikuta":9519,"Ġwalilokuwa":9520,"Ġemanuel":9521,"Ġsekunde":9522,"reth":9523,"Ġmwambu":9524,"Ġjabir":9525,"Ġdhehebu":9526,"Ġdaima":9527,"rofi":9528,"vyojua":9529,"Ġjubile":9530,"Ġanacheza":9531,"uake":9532,"Ġpangani":9533,"Ġmuham":9534,"Ġakisumbuliwa":9535,"Ġwisdom":9536,"Ġrafu":9537,"Ġmbavu":9538,"Ġamerudi":9539,"Ġamekubali":9540,"Ġamekamatwa":9541,"Ġkuangu":9542,"Ġkoda":9543,"vumilia":9544,"Ġkuishia":9545,"Ġkuitangaza":9546,"Ġkuitumikia":9547,"Ġimei":9548,"Ġimelda":9549,"miana":9550,"Ġonyesho":9551,"mbile":9552,"Ġwamewa":9553,"Ġwamejitokeza":9554,"Ġpower":9555,"Ġmkombozi":9556,"mbukiza":9557,"Ġmahafali":9558,"Ġwakishindwa":9559,"Ġwakijua":9560,"Ġkujita":9561,"Ġkujipa":9562,"Ġkujilinda":9563,"Ġwaliowa":9564,"gizwa":9565,"Ġkumtumia":9566,"Ġkumdhibiti":9567,"Ġiliyoanza":9568,"Ġiliyoongozwa":9569,"some":9570,"Ġunaanza":9571,"Ġunakuta":9572,"nyakulia":9573,"Ġwaziwazi":9574,"Ġbocco":9575,"Ġbouake":9576,"Ġkulifanya":9577,"bea":9578,"Ġkufundishi":9579,"Ġdee":9580,"Ġworl":9581,"Ġzilitoka":9582,"Ġaliyefahamika":9583,"Ġpentekoste":9584,"Ġhakutakuwa":9585,"Ġhawaoni":9586,"Ġulipo":9587,"Ġmakasi":9588,"Ġmakadirio":9589,"ders":9590,"Ġwanaoweza":9591,"Ġwanaoshiriki":9592,"Ġjongo":9593,"Ġlilisababisha":9594,"Ġbusiness":9595,"Ġulioanza":9596,"Ġuliosababisha":9597,"Ġuliowekwa":9598,"Ġnguli":9599,"shusha":9600,"Ġtumefanya":9601,"Ġtumechoka":9602,"Ġrihanna":9603,"Ġkinatakiwa":9604,"Ġnyinginezo":9605,"Ġalfred":9606,"Ġzilizotengwa":9607,"Ġjoel":9608,"Ġalipoanza":9609,"Ġheri":9610,"Ġhela":9611,"Ġmikoba":9612,"Ġmbrazil":9613,"Ġstan":9614,"Ġstar":9615,"Ġstandard":9616,"Ġzinazofanya":9617,"Ġyaliyopita":9618,"Ġyaliyojitokeza":9619,"Ġproje":9620,"Ġakawataka":9621,"cafa":9622,"Ġkuondosha":9623,"Ġkupokewa":9624,"fuatwa":9625,"Ġcon":9626,"Ġcopa":9627,"Ġcount":9628,"Ġfinyu":9629,"Ġmtagwa":9630,"aminika":9631,"Ġniliyo":9632,"Ġnilifanya":9633,"Ġnilipokuwa":9634,"Ġmaganga":9635,"Ġkujeruhi":9636,"Ġcurkovic":9637,"Ġmatunzo":9638,"fadhiliwa":9639,"Ġyametokana":9640,"Ġcamp":9641,"Ġmartine":9642,"Ġkitanda":9643,"Ġkitalii":9644,"Ġdismas":9645,"Ġvyeo":9646,"Ġtutahakikisha":9647,"Ġdarasani":9648,"Ġair":9649,"Ġngombale":9650,"sterbay":9651,"Ġhatarini":9652,"Ġkulikoni":9653,"Ġkumuomba":9654,"Ġkubore":9655,"Ġwilfred":9656,"Ġkusaidiana":9657,"Ġmnataka":9658,"Ġkaitaba":9659,"Ġbotswana":9660,"Ġkuishiwa":9661,"sanywa":9662,"rahaman":9663,"Ġlitaendelea":9664,"Ġwatakaoshiriki":9665,"Ġhotelini":9666,"Ġkarama":9667,"Ġnitafanya":9668,"mwele":9669,"Ġkukataliwa":9670,"furahisha":9671,"Ġgumzo":9672,"Ġmsomi":9673,"pendekezwa":9674,"Ġushirikina":9675,"Ġcecafa":9676,"Ġmwakingwe":9677,"Ġshamsa":9678,"dorora":9679,"Ġmanane":9680,"Ġporini":9681,"Ġtuache":9682,"Ġkivuko":9683,"Ġsalehe":9684,"ssy":9685,"Ġgamaya":9686,"fundishwa":9687,"Ġmichoro":9688,"Ġlilian":9689,"Ġnamibia":9690,"Ġminara":9691,"Ġkihalali":9692,"Ġukiona":9693,"Ġmjema":9694,"Ġmayai":9695,"Ġbrela":9696,"Ġwaajiriwa":9697,"Ġanglikana":9698,"zingatiwa":9699,"Ġthis":9700,"Ġmunich":9701,"nguruma":9702,"Ġkashilila":9703,"Ġafande":9704,"Ġshabaan":9705,"Ġluhanjo":9706,"Ġmayemba":9707,"Ġkadhalika":9708,"Ġkuepukana":9709,"Ġkapuya":9710,"Ġkufilisika":9711,"ainishwa":9712,"Ġmombasa":9713,"Ġtunisia":9714,"Ġvalencia":9715,"Ġiitwayo":9716,"Ġjubilee":9717,"Ġkufundishia":9718,"Ġworld":9719,"ambie":9720,"df":9721,"enzi":9722,"llu":9723,"lde":9724,"mshi":9725,"nh":9726,"nka":9727,"nno":9728,"ore":9729,"ongeze":9730,"rdan":9731,"use":9732,"uth":9733,"zza":9734,"Ġzungu":9735,"Ġkmk":9736,"nam":9737,"nasua":9738,"Ġmc":9739,"Ġmlo":9740,"Ġmgu":9741,"Ġmwo":9742,"Ġmkwa":9743,"Ġmvo":9744,"Ġmpelelezi":9745,"Ġmfisi":9746,"Ġwamu":9747,"Ġwapewe":9748,"Ġwapendwa":9749,"Ġkunya":9750,"Ġkutwa":9751,"Ġkunyanya":9752,"Ġkuridhishwa":9753,"Ġkudharau":9754,"has":9755,"Ġnasi":9756,"Ġnanyi":9757,"Ġasia":9758,"Ġashu":9759,"Ġagenda":9760,"Ġyaka":9761,"tanisha":9762,"baliani":9763,"Ġspo":9764,"Ġmamba":9765,"Ġmalazi":9766,"Ġmazembe":9767,"tifu":9768,"rifu":9769,"kisa":9770,"kibali":9771,"lan":9772,"Ġuwa":9773,"Ġuwongo":9774,"Ġuthibitisho":9775,"Ġishe":9776,"Ġikumbu":9777,"Ġianzi":9778,"kuwemo":9779,"Ġhaifa":9780,"hudhuriwa":9781,"siga":9782,"Ġkihu":9783,"Ġkibi":9784,"Ġkifaa":9785,"Ġalite":9786,"Ġalizungumza":9787,"Ġalitua":9788,"Ġalitenda":9789,"sai":9790,"sanyo":9791,"salimisha":9792,"pachika":9793,"shack":9794,"futia":9795,"futwa":9796,"muliwa":9797,"Ġkuwashinda":9798,"Ġtafakari":9799,"kera":9800,"burg":9801,"shitaki":9802,"shindwe":9803,"Ġzambi":9804,"Ġsiasi":9805,"polewa":9806,"poaji":9807,"Ġhufanya":9808,"Ġnywe":9809,"Ġvioo":9810,"Ġviet":9811,"Ġvidic":9812,"Ġchande":9813,"chini":9814,"Ġwanau":9815,"Ġwanapinga":9816,"Ġilizidi":9817,"Ġilijulikana":9818,"Ġilimtaka":9819,"Ġilibidi":9820,"lomba":9821,"Ġkutoelewana":9822,"field":9823,"Ġwaliko":9824,"Ġwalilo":9825,"Ġwalibaini":9826,"Ġwalieleza":9827,"Ġmolde":9828,"Ġeli":9829,"Ġeri":9830,"reta":9831,"Ġmwako":9832,"Ġlione":9833,"perushi":9834,"chomwa":9835,"dharia":9836,"Ġanakuja":9837,"Ġanapenda":9838,"Ġanakiri":9839,"Ġanaitwa":9840,"Ġinatambua":9841,"zeli":9842,"guli":9843,"Ġmumba":9844,"Ġakiomba":9845,"Ġakionekana":9846,"Ġakiingia":9847,"Ġakisubiri":9848,"Ġakiongea":9849,"Ġmeshack":9850,"Ġamecheza":9851,"Ġameuawa":9852,"Ġamefurahishwa":9853,"Ġkondoa":9854,"Ġkuia":9855,"Ġkuigiza":9856,"Ġkuinusuru":9857,"yuni":9858,"Ġimepiga":9859,"Ġimepoteza":9860,"mbeli":9861,"Ġwameonesha":9862,"Ġwamekubali":9863,"Ġwamekua":9864,"dozi":9865,"Ġwatafute":9866,"Ġmahala":9867,"Ġwakizungumzia":9868,"Ġwakihoji":9869,"Ġkujibiwa":9870,"Ġwaliopoteza":9871,"Ġwaliojeruhiwa":9872,"Ġkumfunga":9873,"Ġkumsajili":9874,"Ġlembeli":9875,"Ġiliyomfanya":9876,"Ġunafanya":9877,"Ġunahitajika":9878,"Ġutani":9879,"Ġutaanza":9880,"inisha":9881,"Ġchamangwana":9882,"Ġwazito":9883,"Ġgau":9884,"Ġitam":9885,"Ġitaongeza":9886,"Ġsheki":9887,"lisikia":9888,"kwaana":9889,"Ġnyuki":9890,"Ġdestu":9891,"Ġkutasaidia":9892,"Ġkunatokana":9893,"Ġtoure":9894,"Ġhakufahamu":9895,"Ġmwesiga":9896,"Ġtunaanza":9897,"wezeshwa":9898,"Ġhawakuwepo":9899,"Ġulitokana":9900,"Ġuliiomba":9901,"Ġkukanusha":9902,"Ġwanaosoma":9903,"Ġchipolo":9904,"Ġmakusanyo":9905,"Ġgrume":9906,"Ġgrou":9907,"Ġrutuba":9908,"Ġikiendeshwa":9909,"Ġuliochezwa":9910,"Ġuliomalizika":9911,"Ġyanafanyika":9912,"Ġwaangalie":9913,"Ġdonald":9914,"Ġtumejiandaa":9915,"Ġjordan":9916,"Ġatatakiwa":9917,"Ġalipoingia":9918,"Ġlinamshikilia":9919,"Ġfuso":9920,"Ġmalima":9921,"Ġzinazotokana":9922,"Ġzinazohusiana":9923,"pelekewa":9924,"Ġluisi":9925,"Ġakahoji":9926,"Ġzimeendelea":9927,"Ġkiungwana":9928,"Ġgereji":9929,"Ġkipaza":9930,"Ġkipande":9931,"Ġrombo":9932,"Ġrobin":9933,"Ġvyoo":9934,"Ġmtakuwa":9935,"con":9936,"Ġlimeanza":9937,"Ġnilim":9938,"Ġkuletwa":9939,"Ġkuvumilia":9940,"Ġkilichofanywa":9941,"Ġninayo":9942,"shiana":9943,"Ġmapipa":9944,"Ġyamekamilika":9945,"Ġmtego":9946,"Ġnimewahi":9947,"jiriwa":9948,"Ġdida":9949,"Ġdizeli":9950,"Ġmiongozo":9951,"Ġitakapokuwa":9952,"Ġwatakapokuwa":9953,"Ġaliyotoa":9954,"Ġkumuuliza":9955,"haribiwa":9956,"Ġkuenea":9957,"ndikano":9958,"staarabu":9959,"ngelea":9960,"Ġkitillya":9961,"Ġmigongano":9962,"Ġupoto":9963,"Ġkuyafanyia":9964,"Ġkarakana":9965,"Ġimeahidi":9966,"bweteka":9967,"Ġtrawu":9968,"tions":9969,"Ġutakaopigwa":9970,"Ġgodwin":9971,"Ġkipentekoste":9972,"Ġkipekee":9973,"Ġwasamaria":9974,"Ġuopoaji":9975,"Ġcelina":9976,"Ġchenyenye":9977,"Ġshamsi":9978,"Ġwanaojiita":9979,"ploma":9980,"Ġqa":9981,"kimbiza":9982,"Ġsalewi":9983,"Ġikionekana":9984,"Ġvipeperushi":9985,"Ġmpoki":9986,"Ġyatakayofanyika":9987,"Ġviazi":9988,"fananisha":9989,"Ġkufurahishwa":9990,"Ġkabange":9991,"Ġvibao":9992,"Ġvipodozi":9993,"Ġurembo":9994,"Ġusingizini":9995,"Ġevans":9996,"Ġrwakibali":9997,"Ġenterpreneurship":9998,"Ġmafizi":9999,"kusanyika":10000,"Ġkibosho":10001,"Ġtobago":10002,"Ġkununuliwa":10003,"Ġkuendekeza":10004,"Ġsports":10005,"Ġmpunga":10006,"Ġmmliki":10007,"Ġkuadhimisha":10008,"Ġbiblia":10009,"Ġolympi":10010,"Ġrwilomba":10011,"Ġkibenki":10012,"Ġmiondoko":10013,"Ġbidco":10014,"Ġcarlos":10015,"Ġbuguruni":10016,"Ġcorporation":10017,"Ġsakare":10018,"Ġnakaaya":10019,"Ġkmkm":10020,"Ġmvomero":10021,"Ġashura":10022,"Ġishengoma":10023,"Ġikumbukwe":10024,"Ġnywele":10025,"Ġvietnam":10026,"Ġlionel":10027,"Ġdesturi":10028,"Ġchipolopolo":10029,"Ġgrumeti":10030,"Ġgroup":10031,"Ġrwakibalila":10032,"ack":10033,"cu":10034,"ea":10035,"lva":10036,"or":10037,"puaji":10038,"rson":10039,"ssia":10040,"slahi":10041,"tba":10042,"utoa":10043,"Ġpumzi":10044,"nadamu":10045,"Ġmt":10046,"Ġmlezi":10047,"lishi":10048,"Ġwarudi":10049,"Ġwangapi":10050,"Ġkuhitaji":10051,"Ġkujulikana":10052,"Ġkustawi":10053,"Ġkugeuka":10054,"Ġkubanwa":10055,"yasema":10056,"Ġnawapongeza":10057,"ning":10058,"hiko":10059,"Ġati":10060,"Ġaku":10061,"Ġarume":10062,"Ġamon":10063,"Ġaseme":10064,"Ġyamea":10065,"Ġyakawa":10066,"Ġsco":10067,"Ġmache":10068,"Ġmafuri":10069,"las":10070,"lami":10071,"Ġutoto":10072,"Ġudogo":10073,"Ġutumiaji":10074,"ndra":10075,"Ġil":10076,"Ġitu":10077,"Ġihe":10078,"tuti":10079,"tuko":10080,"ratasi":10081,"Ġalitarajia":10082,"Ġalipinga":10083,"tozwa":10084,"dada":10085,"bida":10086,"salama":10087,"meji":10088,"yem":10089,"Ġkuwate":10090,"Ġkuwakumbusha":10091,"Ġtai":10092,"butu":10093,"shikwa":10094,"tekele":10095,"Ġsindano":10096,"Ġsirro":10097,"Ġhusaidia":10098,"Ġhutegemea":10099,"zoeleka":10100,"Ġbayi":10101,"ney":10102,"Ġmimea":10103,"Ġsalma":10104,"kora":10105,"Ġvido":10106,"Ġviweze":10107,"Ġvikto":10108,"Ġchaguo":10109,"Ġchakavu":10110,"chimbia":10111,"Ġwanalo":10112,"Ġwanakula":10113,"Ġilipewa":10114,"Ġiliwahi":10115,"nyeshwa":10116,"chero":10117,"Ġwalihoji":10118,"Ġwalipaswa":10119,"Ġwaliibuka":10120,"Ġwalikufa":10121,"Ġwaligoma":10122,"Ġwaliwasilisha":10123,"Ġwalitenda":10124,"Ġmotisha":10125,"Ġsevilla":10126,"Ġturuka":10127,"Ġjaribio":10128,"Ġjasiri":10129,"Ġzinge":10130,"Ġzilio":10131,"Ġlishe":10132,"Ġdhu":10133,"vyote":10134,"zushi":10135,"Ġinashuka":10136,"endo":10137,"Ġmuho":10138,"Ġakiweka":10139,"Ġwith":10140,"Ġmedani":10141,"geuza":10142,"Ġjiulize":10143,"idika":10144,"Ġtv":10145,"Ġmbaga":10146,"Ġameiomba":10147,"Ġameumia":10148,"Ġkuanga":10149,"Ġkuandikisha":10150,"vuna":10151,"Ġkuifanyia":10152,"Ġkuipatia":10153,"Ġkuijenga":10154,"Ġkuishangilia":10155,"Ġimepewa":10156,"Ġimetwaa":10157,"Ġimeundwa":10158,"Ġimedhamiria":10159,"ndeka":10160,"Ġwamei":10161,"Ġwameweza":10162,"Ġwameona":10163,"Ġwamebaki":10164,"Ġwamemaliza":10165,"Ġwameunda":10166,"Ġwamepania":10167,"Ġwatashinda":10168,"Ġwakina":10169,"Ġwakionekana":10170,"Ġtaara":10171,"Ġkujiko":10172,"Ġkujipe":10173,"Ġkujieleza":10174,"Ġkujihami":10175,"Ġkujinasua":10176,"Ġwaliouawa":10177,"Ġwalioupata":10178,"Ġkumkosa":10179,"Ġkumnggoa":10180,"Ġmajibiza":10181,"Ġiliyotoa":10182,"Ġiliyofunguliwa":10183,"Ġiliyosomwa":10184,"Ġhovyo":10185,"Ġunategemea":10186,"Ġutambuzi":10187,"Ġutagundua":10188,"Ġutapeli":10189,"Ġitajulikana":10190,"Ġitashuka":10191,"Ġteve":10192,"Ġkulishughulikia":10193,"Ġafter":10194,"Ġnafaka":10195,"Ġkuhutubia":10196,"kiongezeka":10197,"Ġmwenyezi":10198,"Ġupandaji":10199,"Ġzinapo":10200,"Ġzilidai":10201,"Ġkutafsiri":10202,"Ġumeendelea":10203,"Ġumekwisha":10204,"oneshwa":10205,"Ġhakupata":10206,"Ġtunadhani":10207,"Ġmatabaka":10208,"Ġulipuaji":10209,"Ġmakabidhi":10210,"Ġmakachero":10211,"Ġwanaohitaji":10212,"taaluma":10213,"Ġhakija":10214,"Ġgtv":10215,"Ġkupamba":10216,"Ġkupatwa":10217,"Ġmastaa":10218,"Ġbunu":10219,"Ġdumila":10220,"Ġkufikiri":10221,"Ġinayodaiwa":10222,"Ġinayochangia":10223,"Ġinayoshughulikia":10224,"Ġkusiko":10225,"ishauri":10226,"Ġtumeanza":10227,"Ġtumepokea":10228,"Ġatakutana":10229,"Ġatambue":10230,"Ġlinawa":10231,"Ġlinatarajia":10232,"Ġhekta":10233,"Ġkimaisha":10234,"Ġkimaslahi":10235,"Ġmbwe":10236,"Ġreco":10237,"Ġaliwaomba":10238,"Ġmchawi":10239,"rudishia":10240,"Ġwasije":10241,"Ġyaliyowekwa":10242,"Ġluba":10243,"Ġkuzifanya":10244,"Ġkuzifanyia":10245,"Ġkuzinduliwa":10246,"can":10247,"Ġmadabida":10248,"Ġvyovyote":10249,"Ġukifika":10250,"Ġmajanga":10251,"Ġkujadiliana":10252,"rds":10253,"Ġkuchapisha":10254,"Ġunaonyesha":10255,"Ġanayeongoza":10256,"Ġanayetuhumiwa":10257,"Ġilivyotarajiwa":10258,"Ġmarwa":10259,"Ġkitandani":10260,"Ġabdala":10261,"Ġrp":10262,"Ġnei":10263,"Ġtutatoa":10264,"Ġalimweleza":10265,"Ġkimeeleza":10266,"Ġzitafanyika":10267,"Ġhazikuwa":10268,"Ġukodi":10269,"ingiwa":10270,"Ġmkeo":10271,"Ġwilson":10272,"Ġvilipatikana":10273,"Ġkalinga":10274,"Ġyataendelea":10275,"Ġitakayokuwa":10276,"Ġmsemo":10277,"Ġmipakani":10278,"Ġkuingiliwa":10279,"Ġkulipatia":10280,"sante":10281,"Ġmwakyo":10282,"Ġaliambiwa":10283,"Ġmahututi":10284,"Ġpembezoni":10285,"Ġmsuguano":10286,"sirimali":10287,"Ġwalizokuwa":10288,"Ġmahiza":10289,"Ġchristine":10290,"Ġwazanzibar":10291,"Ġkiapo":10292,"Ġmbuzi":10293,"Ġmbuga":10294,"Ġkusudio":10295,"Ġzitakazotumika":10296,"Ġlikiwamo":10297,"Ġpunda":10298,"Ġitakapotajwa":10299,"Ġwakiamini":10300,"Ġwalichofanya":10301,"Ġninachoweza":10302,"Ġfitina":10303,"ress":10304,"mbuiza":10305,"Ġque":10306,"Ġkalembo":10307,"Ġdiallo":10308,"kimbizwa":10309,"safirishwa":10310,"uet":10311,"safisha":10312,"shtuko":10313,"Ġnkya":10314,"Ġviashiria":10315,"Ġswed":10316,"sambaa":10317,"sambazwa":10318,"Ġkufurahia":10319,"Ġkichapo":10320,"Ġmathalani":10321,"Ġhoupho":10322,"Ġblack":10323,"Ġisaack":10324,"Ġbluu":10325,"Ġkurubuni":10326,"Ġuwiano":10327,"Ġmisuli":10328,"Ġkununulia":10329,"Ġmitumba":10330,"Ġherve":10331,"Ġkuchezesha":10332,"thubutu":10333,"Ġalivitaja":10334,"Ġelekezi":10335,"Ġlugalo":10336,"Ġmirathi":10337,"Ġzamale":10338,"Ġjacob":10339,"Ġplastiki":10340,"Ġmamluki":10341,"Ġsebuleni":10342,"Ġfilimbi":10343,"Ġkaramagi":10344,"tball":10345,"Ġarumeru":10346,"Ġmafuriko":10347,"Ġviktoria":10348,"Ġmajibizano":10349,"Ġtevez":10350,"Ġmakabidhiano":10351,"Ġhouphouet":10352,"andika":10353,"endani":10354,"hlovu":10355,"ila":10356,"jomba":10357,"lve":10358,"msha":10359,"nju":10360,"pl":10361,"rch":10362,"stus":10363,"ysterbay":10364,"Ġrika":10365,"Ġgoro":10366,"Ġkcc":10367,"nanza":10368,"Ġmro":10369,"Ġmdaiwa":10370,"Ġmtumiaji":10371,"Ġmnh":10372,"Ġmjomba":10373,"limali":10374,"Ġwaya":10375,"Ġwanya":10376,"Ġwaelewe":10377,"Ġwafungaji":10378,"Ġkunde":10379,"Ġkuratibu":10380,"Ġkushtu":10381,"Ġkugundulika":10382,"Ġkuburu":10383,"Ġkuthibitishwa":10384,"Ġkuendana":10385,"Ġkunke":10386,"yan":10387,"nipa":10388,"nisani":10389,"Ġachana":10390,"Ġapewe":10391,"Ġyasema":10392,"Ġyaliwa":10393,"Ġyafanyike":10394,"Ġyaendayo":10395,"tawa":10396,"tain":10397,"baha":10398,"badhi":10399,"Ġstaka":10400,"marika":10401,"Ġmawi":10402,"rist":10403,"kie":10404,"lata":10405,"langa":10406,"zingira":10407,"zirai":10408,"Ġkasu":10409,"Ġkanisani":10410,"kucha":10411,"Ġhazito":10412,"sitisha":10413,"javyo":10414,"raza":10415,"rago":10416,"rard":10417,"Ġkiju":10418,"Ġkige":10419,"Ġkiitwa":10420,"mbari":10421,"Ġalishiriki":10422,"Ġalitolewa":10423,"Ġalizeti":10424,"Ġalitoka":10425,"Ġalishuhudia":10426,"Ġalijikuta":10427,"Ġalisimama":10428,"Ġalikabidhiwa":10429,"Ġalinukuliwa":10430,"dawi":10431,"sanyika":10432,"pamba":10433,"pangiwa":10434,"mele":10435,"furika":10436,"yeye":10437,"diria":10438,"muko":10439,"Ġkuwanufaisha":10440,"Ġkuwarubuni":10441,"Ġtanki":10442,"kete":10443,"shinde":10444,"Ġnino":10445,"tengewa":10446,"Ġsine":10447,"Ġsikio":10448,"Ġsipendi":10449,"Ġhuweza":10450,"Ġhujui":10451,"neja":10452,"Ġmizi":10453,"Ġmitini":10454,"Ġsala":10455,"Ġsalala":10456,"Ġsaikolojia":10457,"Ġby":10458,"Ġbwa":10459,"ngiliwa":10460,"nday":10461,"Ġvijavyo":10462,"Ġvirago":10463,"Ġchambo":10464,"Ġwanakuja":10465,"Ġwanadhani":10466,"Ġilitaka":10467,"Ġilifikia":10468,"Ġililenga":10469,"logile":10470,"wis":10471,"nguyeye":10472,"Ġkutoi":10473,"Ġkutojihusisha":10474,"Ġwalikosa":10475,"Ġwalikaa":10476,"Ġwalisikia":10477,"Ġex":10478,"Ġeze":10479,"Ġeve":10480,"gaa":10481,"gan":10482,"gas":10483,"gari":10484,"Ġtulia":10485,"Ġmwajuma":10486,"Ġjanja":10487,"Ġdansi":10488,"rojo":10489,"Ġjusti":10490,"mbow":10491,"Ġanaomba":10492,"Ġanashangaa":10493,"Ġanaumwa":10494,"Ġinapatikana":10495,"Ġinajiandaa":10496,"Ġinakadiriwa":10497,"Ġwakaanza":10498,"liamali":10499,"Ġmusoma":10500,"Ġakionyesha":10501,"dhibu":10502,"Ġmerre":10503,"Ġram":10504,"Ġrapha":10505,"Ġjiko":10506,"Ġcli":10507,"Ġamejiunga":10508,"Ġamehamishiwa":10509,"Ġkomu":10510,"Ġkombani":10511,"Ġkorea":10512,"vutiwa":10513,"Ġkuiunga":10514,"Ġkuimarika":10515,"Ġshimbo":10516,"Ġshilogile":10517,"Ġimetakiwa":10518,"Ġimeeleza":10519,"Ġimetokea":10520,"Ġimeombwa":10521,"Ġombe":10522,"Ġoysterbay":10523,"Ġwamelala":10524,"Ġwamechukua":10525,"Ġwamekwenda":10526,"Ġwamefariki":10527,"Ġpop":10528,"Ġporojo":10529,"Ġnditi":10530,"Ġwakikosa":10531,"Ġwakishinda":10532,"Ġwakiendesha":10533,"Ġwakifuatilia":10534,"Ġkujiona":10535,"Ġkujiletea":10536,"Ġkujiwekea":10537,"nuka":10538,"Ġwalioingia":10539,"Ġwaliokaa":10540,"Ġwaliohukumiwa":10541,"Ġkuudhi":10542,"Ġkumfungia":10543,"Ġkumsimamisha":10544,"Ġkumkosoa":10545,"Ġlewis":10546,"Ġiliyotokana":10547,"songa":10548,"Ġunasema":10549,"Ġutashi":10550,"Ġutatolewa":10551,"Ġbonanza":10552,"Ġkupika":10553,"Ġkupingana":10554,"Ġitapata":10555,"Ġtesha":10556,"Ġtendo":10557,"Ġshea":10558,"Ġsheha":10559,"Ġmarando":10560,"Ġmarais":10561,"Ġphile":10562,"Ġkuhudhuriwa":10563,"Ġupangaji":10564,"beza":10565,"Ġzinapaswa":10566,"bainishwa":10567,"Ġfabre":10568,"Ġfahamu":10569,"Ġsombe":10570,"Ġkutambulika":10571,"Ġumeona":10572,"Ġumekamilika":10573,"Ġaliyeingia":10574,"Ġhakuwepo":10575,"Ġmatamshi":10576,"Ġhawapo":10577,"Ġulipinga":10578,"Ġwanaohusika":10579,"Ġwanaopambana":10580,"Ġwanaogopa":10581,"Ġmakumba":10582,"taarifu":10583,"Ġmwanariadha":10584,"Ġsufia":10585,"Ġsunder":10586,"Ġrua":10587,"Ġikitaka":10588,"Ġikifungwa":10589,"Ġikiongoza":10590,"Ġmsabaha":10591,"Ġlilisema":10592,"Ġbush":10593,"Ġuliotokana":10594,"Ġyanazidi":10595,"Ġdos":10596,"Ġinayowa":10597,"Ġinayofanya":10598,"Ġtumeshindwa":10599,"Ġtumejipanga":10600,"Ġkinatarajia":10601,"Ġalhaji":10602,"Ġzilizopigwa":10603,"Ġusahihi":10604,"Ġusaili":10605,"Ġutekete":10606,"Ġalipoteza":10607,"Ġlinatakiwa":10608,"Ġlinapaswa":10609,"Ġhemed":10610,"Ġasse":10611,"Ġasgari":10612,"Ġredondo":10613,"Ġaliwashauri":10614,"Ġmalimbiki":10615,"Ġzinazozalishwa":10616,"punguzia":10617,"Ġmpakanjia":10618,"Ġmpito":10619,"Ġlongi":10620,"Ġaliowa":10621,"Ġmawalla":10622,"Ġcheche":10623,"Ġmtares":10624,"Ġukidai":10625,"Ġhayahusiani":10626,"Ġyanayopatikana":10627,"Ġkutumbukia":10628,"Ġngasa":10629,"Ġnambari":10630,"Ġsabinusi":10631,"Ġlimetoa":10632,"Ġlimezipata":10633,"Ġnilipata":10634,"Ġunaoweza":10635,"Ġunaotumika":10636,"Ġanayetaka":10637,"Ġkukusanyika":10638,"Ġkilichomo":10639,"rejee":10640,"Ġmatumla":10641,"Ġnondo":10642,"Ġnorth":10643,"Ġugaidi":10644,"Ġpalestina":10645,"Ġryan":10646,"Ġatleti":10647,"Ġnungwi":10648,"Ġnyosso":10649,"Ġkinachorushwa":10650,"Ġinjili":10651,"Ġalimshambulia":10652,"Ġuadui":10653,"Ġmitaala":10654,"Ġhazipo":10655,"Ġraslimali":10656,"Ġukomo":10657,"Ġapr":10658,"Ġthabiti":10659,"Ġkulaza":10660,"Ġwalipokwenda":10661,"Ġitakayopigwa":10662,"Ġkukosoa":10663,"heshimika":10664,"Ġmaira":10665,"Ġstepha":10666,"Ġzenyewe":10667,"Ġkuhimiza":10668,"Ġzikiwamo":10669,"furahia":10670,"Ġvyuma":10671,"Ġwalivyofanya":10672,"Ġmbulu":10673,"Ġwanapoona":10674,"Ġutakaoanza":10675,"Ġmashuti":10676,"Ġalichofanya":10677,"Ġukiachana":10678,"Ġzisizokuwa":10679,"Ġusiozidi":10680,"Ġameagiza":10681,"Ġmshituko":10682,"Ġaweke":10683,"Ġipate":10684,"Ġrumanyika":10685,"Ġwanavyofanya":10686,"Ġmziray":10687,"Ġabeneth":10688,"saidiwa":10689,"nyangganya":10690,"Ġwashington":10691,"Ġbenson":10692,"Ġmanase":10693,"Ġbenjamini":10694,"ght":10695,"Ġiliahirishwa":10696,"Ġkuwatuliza":10697,"Ġvipaumbele":10698,"Ġmsd":10699,"gemee":10700,"Ġacp":10701,"Ġteams":10702,"Ġmdomoni":10703,"Ġcanavaro":10704,"Ġubinafsishaji":10705,"Ġalizitaja":10706,"Ġkuwakatisha":10707,"Ġrwambow":10708,"Ġungamo":10709,"Ġudiwani":10710,"Ġhayuko":10711,"Ġpharma":10712,"Ġtunachotaka":10713,"Ġmakelemo":10714,"Ġkulaumiwa":10715,"Ġvijibweni":10716,"Ġsylve":10717,"Ġiliichapa":10718,"Ġtamisemi":10719,"Ġndhlovu":10720,"Ġportsmo":10721,"Ġgreen":10722,"Ġmameneja":10723,"Ġhilary":10724,"Ġkanoni":10725,"Ġkiholela":10726,"Ġtanzanite":10727,"Ġmaharage":10728,"Ġaingie":10729,"Ġkukumbuka":10730,"Ġkubishana":10731,"Ġkalunguyeye":10732,"Ġkuulizwa":10733,"ngganggania":10734,"Ġholdi":10735,"Ġfernando":10736,"Ġmnyaa":10737,"Ġiundwe":10738,"Ġlazaro":10739,"Ġtwiga":10740,"Ġsongas":10741,"Ġgwabi":10742,"Ġuaminifu":10743,"Ġolympique":10744,"Ġkusikojulikana":10745,"Ġrpc":10746,"Ġkundecha":10747,"Ġstakabadhi":10748,"Ġkijuso":10749,"Ġkiitwacho":10750,"Ġsinema":10751,"Ġmerreikh":10752,"Ġraphael":10753,"Ġphilemon":10754,"Ġfabregas":10755,"Ġsufiani":10756,"Ġsunderland":10757,"Ġuteketezaji":10758,"Ġmalimbikizo":10759,"Ġatletico":10760,"Ġstephano":10761,"Ġportsmouth":10762,"anze":10763,"athiri":10764,"gbo":10765,"imani":10766,"lko":10767,"mford":10768,"nhu":10769,"op":10770,"rm":10771,"umu":10772,"Ġfanya":10773,"Ġngwa":10774,"wano":10775,"wanyiko":10776,"Ġwaba":10777,"Ġwabaya":10778,"Ġwasubiri":10779,"Ġwazoefu":10780,"Ġwafuate":10781,"Ġkuzu":10782,"Ġkuongozwa":10783,"Ġkupendekeza":10784,"Ġkugusa":10785,"Ġkudhalilisha":10786,"Ġkudorora":10787,"hatarisha":10788,"yal":10789,"Ġnanga":10790,"Ġnassi":10791,"nidad":10792,"Ġapi":10793,"Ġamini":10794,"Ġarudi":10795,"Ġapumzike":10796,"Ġyadai":10797,"Ġyaweze":10798,"bagbo":10799,"Ġscho":10800,"Ġmango":10801,"Ġmaina":10802,"tii":10803,"zan":10804,"zana":10805,"zitumia":10806,"Ġufi":10807,"Ġuelekeo":10808,"Ġkaa":10809,"Ġkatu":10810,"Ġkabo":10811,"Ġkansa":10812,"yonga":10813,"Ġire":10814,"Ġhashe":10815,"hura":10816,"sila":10817,"wende":10818,"wekewa":10819,"tunza":10820,"tuliwa":10821,"tumaini":10822,"tupia":10823,"rami":10824,"rambi":10825,"Ġkidu":10826,"Ġkissa":10827,"Ġkiburi":10828,"Ġkieleweke":10829,"Ġalishinda":10830,"Ġalienda":10831,"Ġalipigwa":10832,"Ġalipelekwa":10833,"Ġalitembelea":10834,"Ġalikemea":10835,"meck":10836,"Ġvua":10837,"dinga":10838,"muua":10839,"muomba":10840,"Ġkuwashwa":10841,"Ġkuwachunguza":10842,"Ġkuwafungia":10843,"Ġkuwapigia":10844,"Ġkuwaunganisha":10845,"kerwa":10846,"Ġzaina":10847,"Ġninge":10848,"tete":10849,"teseka":10850,"Ġlai":10851,"Ġlaure":10852,"Ġlameck":10853,"Ġbakh":10854,"Ġmiu":10855,"Ġmida":10856,"Ġminja":10857,"Ġmifereji":10858,"ndamwa":10859,"Ġvicha":10860,"Ġvibaka":10861,"Ġwanapewa":10862,"Ġwanaongoza":10863,"Ġwanasoma":10864,"Ġwanapambana":10865,"Ġwanaangalia":10866,"molewa":10867,"longo":10868,"mbwi":10869,"Ġkutozwa":10870,"Ġkutoridhishwa":10871,"ndikiza":10872,"nyeza":10873,"fii":10874,"Ġwalijua":10875,"Ġwalipiga":10876,"Ġwalikuwepo":10877,"Ġwalivamia":10878,"Ġwalijeruhiwa":10879,"Ġmoga":10880,"Ġemira":10881,"ren":10882,"Ġtuji":10883,"Ġtunge":10884,"Ġzitaanza":10885,"jero":10886,"Ġanalo":10887,"Ġinapokuwa":10888,"Ġinafahamu":10889,"zer":10890,"chukia":10891,"Ġwakatoliki":10892,"liane":10893,"Ġpaki":10894,"Ġpango":10895,"Ġpajero":10896,"Ġakio":10897,"Ġakishindwa":10898,"Ġakijua":10899,"Ġakifunga":10900,"Ġakifanyiwa":10901,"Ġakipinga":10902,"ndogo":10903,"Ġrambi":10904,"gezwa":10905,"Ġpick":10906,"Ġtwanga":10907,"Ġameonesha":10908,"Ġamefanikiwa":10909,"Ġkuagwa":10910,"Ġkuibwa":10911,"Ġkuifuta":10912,"Ġkuipeleka":10913,"Ġkuongelea":10914,"Ġshingoni":10915,"Ġfle":10916,"Ġimeona":10917,"Ġimesaidia":10918,"Ġimefanywa":10919,"Ġimetoka":10920,"Ġimerejea":10921,"Ġimefikiwa":10922,"Ġoce":10923,"Ġoman":10924,"Ġour":10925,"Ġocto":10926,"Ġout":10927,"Ġodinga":10928,"Ġwamekosa":10929,"Ġwameonekana":10930,"Ġwameingia":10931,"Ġwametoka":10932,"Ġwamekata":10933,"Ġwamemtaka":10934,"Ġwatapewa":10935,"Ġwatakwenda":10936,"Ġwataingia":10937,"Ġwakiji":10938,"Ġkujikusanyia":10939,"nukuu":10940,"Ġwalioji":10941,"Ġwaliobaki":10942,"Ġwalioshuhudia":10943,"Ġwaliosajiliwa":10944,"Ġkuumana":10945,"Ġkuungua":10946,"Ġkuukumbatia":10947,"Ġkumchukulia":10948,"Ġkumzomea":10949,"Ġkumteua":10950,"Ġester":10951,"Ġiliyomalizika":10952,"Ġiliyosainiwa":10953,"Ġhodi":10954,"Ġunaonekana":10955,"Ġunapokuwa":10956,"Ġunakaribia":10957,"Ġhatukuwa":10958,"Ġutafu":10959,"Ġutambulisho":10960,"Ġwaombole":10961,"nyani":10962,"Ġbosco":10963,"Ġbolton":10964,"Ġkupindu":10965,"Ġitaweza":10966,"Ġitatumia":10967,"Ġitatolewa":10968,"Ġitabainika":10969,"Ġitabidi":10970,"Ġitasikilizwa":10971,"Ġnyika":10972,"Ġshemeji":10973,"Ġkulipu":10974,"Ġkulimaliza":10975,"Ġkulipua":10976,"Ġkuhujumu":10977,"bel":10978,"Ġzilitumika":10979,"Ġfabia":10980,"Ġkutai":10981,"Ġjembe":10982,"Ġjeraha":10983,"Ġumewa":10984,"Ġumeshindwa":10985,"Ġumehifadhiwa":10986,"Ġpenye":10987,"onekani":10988,"Ġhakutakiwa":10989,"Ġhakupatikana":10990,"Ġtunapo":10991,"Ġtunapata":10992,"Ġtunakutana":10993,"Ġulizinduliwa":10994,"Ġuchapishaji":10995,"Ġwanaoshindwa":10996,"Ġwanaostahili":10997,"Ġgbagbo":10998,"Ġbilali":10999,"Ġrudi":11000,"Ġkupakia":11001,"Ġikizingatiwa":11002,"Ġuliomba":11003,"Ġdoa":11004,"Ġinayoweza":11005,"Ġinayofanyika":11006,"Ġinayotumika":11007,"Ġinayonolewa":11008,"Ġkutengenezea":11009,"Ġtumeshuhudia":11010,"Ġkinatoa":11011,"Ġhaiko":11012,"Ġataweza":11013,"Ġlinakuwa":11014,"Ġhekari":11015,"Ġhelko":11016,"ves":11017,"Ġrehani":11018,"Ġstamford":11019,"Ġaliwashukuru":11020,"Ġmalisho":11021,"Ġzinazosababisha":11022,"Ġzinazotumika":11023,"Ġzinazoikabili":11024,"Ġlucy":11025,"ibuliwa":11026,"Ġzimekuja":11027,"Ġyombo":11028,"Ġkiusalama":11029,"Ġrover":11030,"Ġroyal":11031,"Ġmtawanyiko":11032,"Ġmaelewano":11033,"Ġyanayotokea":11034,"Ġkujaa":11035,"nners":11036,"Ġnilitaka":11037,"Ġnilikwenda":11038,"Ġkuchapwa":11039,"Ġkuchanganya":11040,"Ġmaganda":11041,"Ġanayekwenda":11042,"Ġninataka":11043,"Ġninaona":11044,"Ġkuhami":11045,"Ġnyendo":11046,"Ġnyeupe":11047,"Ġmtera":11048,"Ġnimeona":11049,"Ġkitalu":11050,"Ġrb":11051,"Ġkueleweka":11052,"Ġtutapata":11053,"Ġisivyo":11054,"Ġkibasila":11055,"Ġtabianchi":11056,"Ġaliipongeza":11057,"Ġngombe":11058,"Ġngonyani":11059,"Ġhatarishi":11060,"Ġkumuweka":11061,"Ġndogondogo":11062,"Ġwalipoteza":11063,"kumbukwa":11064,"Ġkilolo":11065,"Ġkuingiwa":11066,"Ġmfanyabishara":11067,"Ġkisukari":11068,"Ġmagendo":11069,"Ġmwenzangu":11070,"Ġasiwe":11071,"Ġhawakutaka":11072,"nnah":11073,"mweleza":11074,"Ġwalizopewa":11075,"Ġkunipa":11076,"Ġwanayopata":11077,"Ġhawatakuwa":11078,"Ġinakuwaje":11079,"Ġendelea":11080,"Ġnjoro":11081,"Ġcentre":11082,"Ġmariam":11083,"Ġabel":11084,"Ġmzaha":11085,"Ġalikokwenda":11086,"Ġalikosea":11087,"Ġdiamond":11088,"Ġtrinidad":11089,"Ġhiace":11090,"Ġulimwenguni":11091,"Ġkisiki":11092,"Ġkufurahisha":11093,"Ġmatch":11094,"Ġunyanyapaa":11095,"Ġkichaa":11096,"patikani":11097,"Ġtunawaomba":11098,"Ġbatilda":11099,"Ġmathare":11100,"Ġilimradi":11101,"Ġkihansi":11102,"Ġmakwao":11103,"Ġmisungwi":11104,"Ġkibonde":11105,"Ġnkongo":11106,"Ġutakapokamilika":11107,"Ġkutibua":11108,"Ġvenance":11109,"jengeka":11110,"Ġwahudumu":11111,"teketea":11112,"Ġvalentino":11113,"Ġjeremiah":11114,"Ġvisivyo":11115,"Ġkuitikia":11116,"Ġkugawana":11117,"Ġmwambusi":11118,"Ġproject":11119,"Ġneider":11120,"Ġmrope":11121,"Ġnassib":11122,"Ġkaboyonga":11123,"Ġhasheem":11124,"Ġkiduchu":11125,"Ġlaurent":11126,"Ġemirates":11127,"Ġrambirambi":11128,"Ġoctoba":11129,"Ġwaombolezaji":11130,"Ġkupindukia":11131,"bra":11132,"cka":11133,"crati":11134,"etu":11135,"engua":11136,"ghani":11137,"klia":11138,"lly":11139,"mriwa":11140,"nse":11141,"och":11142,"rdo":11143,"rgi":11144,"sye":11145,"sburg":11146,"umiza":11147,"Ġgia":11148,"wanya":11149,"Ġkli":11150,"namo":11151,"Ġmda":11152,"Ġmnda":11153,"Ġmtaka":11154,"Ġmkweli":11155,"Ġmnyama":11156,"Ġmlipa":11157,"like":11158,"lingu":11159,"Ġwahakikishe":11160,"Ġkuzungu":11161,"Ġkufadhili":11162,"Ġkudhihirisha":11163,"Ġkuvua":11164,"hamia":11165,"yatoa":11166,"Ġnahisi":11167,"Ġnational":11168,"Ġnamanga":11169,"Ġnadharia":11170,"Ġay":11171,"Ġate":11172,"Ġadaiwa":11173,"Ġander":11174,"Ġyange":11175,"Ġyassi":11176,"tafakari":11177,"bakari":11178,"mania":11179,"tih":11180,"tishe":11181,"tius":11182,"rie":11183,"laka":11184,"Ġumbo":11185,"Ġuzushi":11186,"Ġkayo":11187,"Ġkandoka":11188,"Ġkatende":11189,"Ġkatherine":11190,"Ġhasi":11191,"jibisha":11192,"humbi":11193,"tupwa":11194,"Ġhilda":11195,"ratus":11196,"Ġking":11197,"Ġkipu":11198,"Ġkiria":11199,"Ġkimuziki":11200,"Ġkifanyike":11201,"Ġalipanda":11202,"Ġalistahili":11203,"Ġalijitahidi":11204,"Ġalipigiwa":11205,"lenia":11206,"daka":11207,"mezi":11208,"mily":11209,"diriki":11210,"Ġkuwashambulia":11211,"Ġkuwazidi":11212,"Ġkuwadhibiti":11213,"Ġkuwaendeleza":11214,"Ġkuwaruhusu":11215,"Ġkuwauza":11216,"Ġkuwarudishia":11217,"Ġtana":11218,"Ġtanu":11219,"Ġnisi":11220,"Ġniwe":11221,"Ġnikia":11222,"Ġningekuwa":11223,"tezwa":11224,"Ġsingu":11225,"poa":11226,"Ġhutoa":11227,"Ġladha":11228,"semary":11229,"Ġbak":11230,"Ġmizito":11231,"Ġmilele":11232,"Ġmilenia":11233,"Ġsaru":11234,"Ġsalam":11235,"kombe":11236,"ngaa":11237,"ngatiwa":11238,"Ġvipu":11239,"Ġvioski":11240,"Ġwanakosa":11241,"Ġwanashinda":11242,"Ġwanapenda":11243,"Ġwanazidi":11244,"Ġwanamaji":11245,"Ġwanatambua":11246,"Ġwanaelewa":11247,"Ġilizo":11248,"Ġiliona":11249,"Ġilikubaliana":11250,"Ġilipokea":11251,"Ġilipingwa":11252,"mocrati":11253,"ngumi":11254,"Ġkutocheza":11255,"Ġkutoridhika":11256,"fiji":11257,"Ġwaliji":11258,"Ġwalirudi":11259,"Ġwalikula":11260,"Ġwalitarajia":11261,"Ġwalifikia":11262,"Ġwaliwahi":11263,"Ġwalipinga":11264,"Ġwaliwataka":11265,"Ġwalisikika":11266,"Ġmoon":11267,"Ġsert":11268,"remka":11269,"Ġtuwa":11270,"Ġtuliwa":11271,"Ġtutaanza":11272,"Ġmwange":11273,"Ġmwadilifu":11274,"Ġmwaminifu":11275,"gongwa":11276,"Ġkamara":11277,"Ġlingekuwa":11278,"Ġlilianza":11279,"Ġdadi":11280,"rod":11281,"Ġbimani":11282,"Ġjumbe":11283,"Ġjulio":11284,"takata":11285,"Ġmkufunzi":11286,"Ġinakutana":11287,"Ġinasubiri":11288,"nzilishi":11289,"Ġpaka":11290,"Ġpazuri":11291,"Ġmulla":11292,"Ġakiri":11293,"Ġakilalamika":11294,"dhimu":11295,"susi":11296,"gemewa":11297,"puuza":11298,"Ġjidawi":11299,"endelezwa":11300,"Ġcct":11301,"Ġtrc":11302,"Ġameu":11303,"Ġamerika":11304,"Ġamefika":11305,"Ġamekwenda":11306,"Ġameingia":11307,"Ġamepanga":11308,"Ġamepokea":11309,"Ġamejikuta":11310,"Ġametamba":11311,"Ġkuashiria":11312,"Ġkuathiriwa":11313,"Ġkosta":11314,"vuti":11315,"Ġkuipata":11316,"Ġkuishinda":11317,"Ġkuiondoa":11318,"Ġshija":11319,"Ġimeba":11320,"Ġimekubali":11321,"Ġimeongeza":11322,"Ġimehifadhiwa":11323,"Ġobi":11324,"Ġolu":11325,"Ġwameshinda":11326,"Ġwametangaza":11327,"Ġwamepanda":11328,"Ġwameondoka":11329,"Ġwameridhika":11330,"Ġpoda":11331,"Ġwatai":11332,"Ġwatataka":11333,"Ġwataondoka":11334,"Ġmkoni":11335,"ishe":11336,"Ġwakiunga":11337,"Ġwakifika":11338,"Ġwakilalamika":11339,"Ġtaabu":11340,"Ġkutokamilika":11341,"Ġkujikimu":11342,"Ġkujificha":11343,"Ġkujisalimisha":11344,"Ġkee":11345,"Ġwaliofariki":11346,"Ġwaliosaini":11347,"Ġkuutumia":11348,"Ġkuunguruma":11349,"Ġkumwi":11350,"Ġkumpenda":11351,"Ġkumsaka":11352,"Ġkumpigia":11353,"Ġiliyoa":11354,"Ġiliyoandaliwa":11355,"Ġiliyojengeka":11356,"Ġunahitaji":11357,"Ġunamalizika":11358,"Ġunafuu":11359,"bobea":11360,"Ġhatutakuwa":11361,"Ġmwin":11362,"Ġwaokoaji":11363,"wona":11364,"Ġitatokea":11365,"Ġitahakikisha":11366,"Ġitamar":11367,"Ġsikuona":11368,"Ġafc":11369,"Ġafghani":11370,"Ġkweka":11371,"Ġnafahamu":11372,"Ġps":11373,"Ġupana":11374,"Ġnyuklia":11375,"Ġkufuru":11376,"Ġkufutia":11377,"Ġbarasa":11378,"Ġzinafanyika":11379,"Ġdemocrati":11380,"Ġaust":11381,"Ġzilifanyika":11382,"Ġmashati":11383,"Ġfatih":11384,"Ġsoda":11385,"Ġsoud":11386,"Ġkutabiri":11387,"Ġkutathimini":11388,"Ġjeetu":11389,"Ġumezidi":11390,"Ġaliyesema":11391,"Ġaliyedai":11392,"Ġaliyetumia":11393,"Ġaliyefika":11394,"Ġaliyefunga":11395,"Ġaliyetambulika":11396,"Ġtop":11397,"Ġtour":11398,"Ġtovuti":11399,"onewa":11400,"Ġhakupenda":11401,"Ġmwembamba":11402,"Ġmwemezi":11403,"Ġtunacheza":11404,"Ġtunatoa":11405,"Ġtunaambiwa":11406,"ngiaji":11407,"Ġhawafanyi":11408,"Ġulisababisha":11409,"Ġulifanikiwa":11410,"Ġulisainiwa":11411,"Ġyalipo":11412,"Ġmpare":11413,"Ġmpambano":11414,"Ġwanaom":11415,"Ġwanaopata":11416,"Ġwanaofika":11417,"Ġwanaopenda":11418,"Ġwanaokabiliwa":11419,"Ġmakutano":11420,"Ġmwanamichezo":11421,"Ġgidi":11422,"Ġsun":11423,"Ġrufiji":11424,"Ġkupakua":11425,"Ġkupasua":11426,"Ġikipoteza":11427,"Ġbur":11428,"Ġbutu":11429,"Ġbutwaa":11430,"Ġburma":11431,"Ġuliotokea":11432,"Ġuliokuwepo":11433,"Ġuliokithiri":11434,"walipa":11435,"Ġnguoni":11436,"Ġdungu":11437,"milikisha":11438,"Ġkusikika":11439,"van":11440,"Ġkutengwa":11441,"Ġtumekuja":11442,"dalali":11443,"Ġzilizoharibika":11444,"Ġusanii":11445,"Ġjoe":11446,"Ġhaipaswi":11447,"Ġatatumia":11448,"Ġatalazimika":11449,"Ġatarejea":11450,"Ġatafikishwa":11451,"Ġalipokutana":11452,"Ġmfuasi":11453,"Ġnyangumi":11454,"Ġresi":11455,"Ġfuti":11456,"Ġaliwasili":11457,"Ġaliwasilisha":11458,"tabaki":11459,"Ġmalindi":11460,"Ġludo":11461,"Ġlukombe":11462,"Ġkuzingatiwa":11463,"Ġakaongeza":11464,"Ġzimefungwa":11465,"Ġzimepanda":11466,"Ġyork":11467,"rst":11468,"Ġkuporomoka":11469,"Ġwizarani":11470,"Ġrosemary":11471,"Ġcoro":11472,"Ġcosta":11473,"Ġnguvuni":11474,"Ġndossa":11475,"Ġmtafiti":11476,"Ġukienda":11477,"Ġmajalada":11478,"Ġvituko":11479,"shirikiane":11480,"Ġmitazamo":11481,"Ġlimeendelea":11482,"Ġlimetangaza":11483,"ston":11484,"story":11485,"Ġunaotarajia":11486,"Ġwalau":11487,"Ġanayecheza":11488,"Ġanayekabiliwa":11489,"Ġanayeshughulikia":11490,"Ġanayesikiliza":11491,"Ġkilichodaiwa":11492,"Ġkilichobaki":11493,"rejeshwa":11494,"Ġwapime":11495,"Ġlililoko":11496,"Ġlililowasilishwa":11497,"Ġchooni":11498,"Ġilivyotokea":11499,"Ġninajua":11500,"Ġyamepangwa":11501,"Ġnyepesi":11502,"Ġnimefanya":11503,"Ġnimepata":11504,"Ġkitambaa":11505,"Ġdio":11506,"Ġdimbani":11507,"Ġwakoloni":11508,"Ġath":11509,"Ġtutaweza":11510,"Ġisitoshe":11511,"Ġilemela":11512,"Ġkutilia":11513,"Ġwatakaa":11514,"Ġgoti":11515,"Ġwakilipwa":11516,"Ġaliitwa":11517,"Ġngoja":11518,"Ġulevi":11519,"Ġukoo":11520,"Ġukoloni":11521,"dhulu":11522,"Ġwilly":11523,"Ġmitamboni":11524,"Ġmnamo":11525,"Ġmnadhimu":11526,"Ġuvujaji":11527,"kumbuke":11528,"chunguzwa":11529,"Ġkuishinikiza":11530,"Ġhuwafanya":11531,"gawanyika":11532,"Ġmvyulu":11533,"Ġkandarasi":11534,"Ġkassia":11535,"Ġbarca":11536,"less":11537,"Ġfrede":11538,"Ġfredy":11539,"Ġkumwajibisha":11540,"Ġhawajalipwa":11541,"Ġaliagiza":11542,"Ġgeofrey":11543,"Ġhaijafahamika":11544,"Ġimeahirishwa":11545,"Ġyusufu":11546,"Ġyasiyofaa":11547,"Ġmahindra":11548,"Ġkurejeshewa":11549,"Ġaziza":11550,"Ġkusambaa":11551,"Ġmagerezani":11552,"tendewa":11553,"Ġguru":11554,"Ġzitakazochukuliwa":11555,"Ġjeneza":11556,"Ġjenereta":11557,"Ġabdulrahaman":11558,"Ġpush":11559,"Ġpuruku":11560,"Ġkijiweni":11561,"Ġkabuzi":11562,"Ġusiojulikana":11563,"Ġkubakia":11564,"Ġuozo":11565,"Ġuokoaji":11566,"Ġwajasiliamali":11567,"Ġtakadini":11568,"Ġakimkaribisha":11569,"Ġwashindani":11570,"Ġmashehe":11571,"Ġtamati":11572,"Ġrwehumbi":11573,"Ġalikokuwa":11574,"Ġsijaona":11575,"Ġuzamili":11576,"Ġsamweli":11577,"Ġtuanze":11578,"Ġkuchuana":11579,"Ġikiomba":11580,"Ġbankobe":11581,"Ġkizinga":11582,"Ġsamson":11583,"Ġitawasaidia":11584,"Ġismailia":11585,"Ġkuchilingu":11586,"Ġkuwatawanya":11587,"Ġmasese":11588,"Ġmasebu":11589,"Ġkuteketea":11590,"Ġevarist":11591,"Ġsmz":11592,"Ġmathayo":11593,"Ġzuhura":11594,"Ġkigali":11595,"Ġmauritius":11596,"Ġentertain":11597,"Ġmaficho":11598,"Ġmjemas":11599,"Ġnkoma":11600,"Ġstore":11601,"Ġameieleza":11602,"Ġkutawaliwa":11603,"Ġsumatra":11604,"Ġitaikaribisha":11605,"ltan":11606,"Ġwarsha":11607,"Ġkubenea":11608,"Ġhabib":11609,"Ġkombora":11610,"Ġkupandishwa":11611,"Ġkwingineko":11612,"Ġkimaandishi":11613,"Ġkucheleweshwa":11614,"Ġkujilimbikizia":11615,"Ġuislamu":11616,"Ġtutakapo":11617,"Ġtulionao":11618,"Ġliberatus":11619,"Ġhawaridhiki":11620,"Ġludete":11621,"Ġmrundikano":11622,"Ġhashim":11623,"miniana":11624,"Ġmlundwa":11625,"someka":11626,"Ġstanley":11627,"Ġkuboreshwa":11628,"Ġvidonge":11629,"Ġlubambe":11630,"Ġabdalah":11631,"diriaji":11632,"Ġlongido":11633,"Ġkaturamu":11634,"Ġnjoroge":11635,"Ġmndasha":11636,"Ġmtakatifu":11637,"Ġanderson":11638,"Ġkayombo":11639,"Ġkandokando":11640,"Ġsinguluma":11641,"Ġsaruji":11642,"Ġvipuri":11643,"Ġoluoch":11644,"Ġafghanistan":11645,"Ġdemocratic":11646,"Ġpurukushani":11647,"Ġrwehumbiza":11648,"Ġbankobeza":11649,"Ġkuchilingulo":11650,"Ġentertainment":11651,"ache":11652,"bele":11653,"dh":11654,"ela":11655,"esta":11656,"ire":11657,"ibwa":11658,"imarishwa":11659,"lbert":11660,"mzito":11661,"nchama":11662,"ombe":11663,"rres":11664,"sla":11665,"sper":11666,"tna":11667,"tka":11668,"ub":11669,"Ġdili":11670,"Ġngeni":11671,"waona":11672,"Ġmh":11673,"Ġmme":11674,"Ġmswada":11675,"Ġmfereji":11676,"limba":11677,"lisia":11678,"Ġwas":11679,"Ġwani":11680,"Ġwaongo":11681,"Ġwaseme":11682,"Ġkuripotiwa":11683,"Ġkughari":11684,"Ġkuchunguzwa":11685,"hamisha":11686,"kaidi":11687,"Ġnako":11688,"Ġnation":11689,"Ġnadra":11690,"Ġnasikitika":11691,"Ġnajiuliza":11692,"nicha":11693,"ninga":11694,"Ġaone":11695,"Ġataa":11696,"Ġachukuliwe":11697,"Ġagusti":11698,"Ġaonekane":11699,"Ġyadi":11700,"Ġyapi":11701,"Ġyakini":11702,"Ġswi":11703,"riri":11704,"rizi":11705,"ries":11706,"kiki":11707,"Ġusema":11708,"Ġuendele":11709,"Ġuhitaji":11710,"Ġkalo":11711,"Ġkaunda":11712,"Ġkanzu":11713,"Ġkatakata":11714,"Ġidri":11715,"Ġitende":11716,"kuma":11717,"side":11718,"jamii":11719,"Ġkibu":11720,"Ġkigu":11721,"Ġkinyo":11722,"Ġkisanii":11723,"Ġkizuizi":11724,"Ġalifikia":11725,"Ġalikata":11726,"Ġalihisi":11727,"Ġalifungua":11728,"Ġalijaribu":11729,"Ġalitolea":11730,"bibu":11731,"binafsi":11732,"sawa":11733,"sadia":11734,"sawazi":11735,"shahada":11736,"funge":11737,"ming":11738,"mizwa":11739,"dishu":11740,"Ġkuwagawa":11741,"Ġkuwatafuta":11742,"Ġkuwatetea":11743,"Ġkuwasihi":11744,"Ġkuwafungulia":11745,"Ġtaswa":11746,"Ġnile":11747,"telai":11748,"heza":11749,"Ġsiamini":11750,"Ġhupata":11751,"Ġhuchukua":11752,"Ġhufanywa":11753,"Ġnba":11754,"Ġncha":11755,"Ġbawa":11756,"Ġbango":11757,"Ġmilio":11758,"Ġmille":11759,"Ġsan":11760,"kola":11761,"pio":11762,"pimwa":11763,"Ġvip":11764,"Ġvitaka":11765,"Ġchato":11766,"Ġchanika":11767,"chishwa":11768,"Ġwanana":11769,"Ġwanapeleka":11770,"Ġwanataaluma":11771,"Ġiliweza":11772,"Ġiliongoza":11773,"Ġilipigwa":11774,"Ġilitwaa":11775,"Ġiliwafanya":11776,"Ġilibadilika":11777,"Ġilianzishwa":11778,"Ġilisawazisha":11779,"now":11780,"Ġkutojua":11781,"Ġkutopewa":11782,"Ġkutogombea":11783,"Ġkutokubaliana":11784,"Ġkutozingatia":11785,"ndizi":11786,"ndishwa":11787,"fanywe":11788,"nyeme":11789,"fichwa":11790,"chel":11791,"Ġwalienda":11792,"Ġwalifanyiwa":11793,"Ġwalishuhudia":11794,"Ġwalibainika":11795,"rupu":11796,"rest":11797,"gai":11798,"Ġtujue":11799,"Ġtupate":11800,"Ġtushinde":11801,"Ġjack":11802,"Ġzitumike":11803,"Ġliweze":11804,"Ġddc":11805,"vyoweza":11806,"peshwa":11807,"Ġanasubiri":11808,"Ġanamiliki":11809,"Ġanakubalika":11810,"Ġinatia":11811,"Ġinapiga":11812,"Ġinakuja":11813,"Ġinapenda":11814,"Ġinampa":11815,"Ġwakafanya":11816,"guvu":11817,"Ġmuh":11818,"Ġmuwe":11819,"Ġmuhidi":11820,"Ġmuheza":11821,"Ġakilia":11822,"Ġakiona":11823,"Ġakishirikiana":11824,"Ġakiongozwa":11825,"Ġakisimulia":11826,"Ġwin":11827,"ndoko":11828,"Ġwere":11829,"Ġmegh":11830,"suka":11831,"ger":11832,"purupu":11833,"Ġpingu":11834,"Ġcra":11835,"Ġcda":11836,"Ġtran":11837,"Ġtwende":11838,"Ġmbasa":11839,"Ġametaka":11840,"Ġamesisitiza":11841,"Ġamefunga":11842,"Ġamepania":11843,"Ġkonya":11844,"vute":11845,"Ġkuikabili":11846,"Ġkuiwakilisha":11847,"Ġkuidhinishwa":11848,"Ġimepatikana":11849,"Ġimekwisha":11850,"Ġimetengewa":11851,"Ġwamerudi":11852,"Ġwamekiri":11853,"Ġwamepokea":11854,"Ġwamejikuta":11855,"Ġwamejeruhiwa":11856,"Ġwamehifadhiwa":11857,"Ġwamechoka":11858,"Ġpoa":11859,"dou":11860,"Ġhatamu":11861,"Ġwatakutana":11862,"Ġwatachukuliwa":11863,"Ġmkosaji":11864,"mbuliana":11865,"zungumze":11866,"Ġwakiomba":11867,"Ġwakiingia":11868,"Ġwakiweka":11869,"Ġwakihaha":11870,"Ġkejeli":11871,"Ġwaliotaka":11872,"Ġwaliofukuzwa":11873,"Ġkuuona":11874,"Ġkuumwa":11875,"Ġkumfuata":11876,"Ġkumchafua":11877,"Ġmajiji":11878,"Ġfenicha":11879,"Ġiliyofanywa":11880,"Ġiliyopatikana":11881,"Ġhoi":11882,"Ġhatuku":11883,"Ġhatuelewi":11884,"Ġutamalizika":11885,"Ġmwiba":11886,"Ġmwizi":11887,"Ġwaogele":11888,"Ġkupitiwa":11889,"Ġmkato":11890,"Ġsikuweza":11891,"Ġkulinganisha":11892,"Ġkulijadili":11893,"Ġbenze":11894,"Ġkilipo":11895,"Ġshungu":11896,"Ġkufukua":11897,"Ġzinaeleza":11898,"Ġzinatolewa":11899,"bariki":11900,"Ġzilipatikana":11901,"Ġfamily":11902,"Ġjeni":11903,"Ġumefanya":11904,"Ġumetolewa":11905,"Ġumelenga":11906,"Ġkunasa":11907,"Ġaliyekufa":11908,"amuliwa":11909,"Ġtorres":11910,"Ġpeop":11911,"Ġmtupu":11912,"Ġhakusema":11913,"Ġhakubaliani":11914,"Ġmweka":11915,"ulika":11916,"Ġulifanywa":11917,"degar":11918,"Ġwanaomba":11919,"Ġwanaosema":11920,"Ġwanaopiga":11921,"Ġmwanawe":11922,"Ġguar":11923,"Ġsunday":11924,"Ġsultan":11925,"Ġrungwe":11926,"Ġmaskani":11927,"Ġikisema":11928,"Ġikipinga":11929,"Ġlilifanya":11930,"Ġlilikuja":11931,"Ġbunju":11932,"Ġleodegar":11933,"Ġyanatokea":11934,"Ġyanaonekana":11935,"Ġshangwe":11936,"Ġshambani":11937,"yarishaji":11938,"Ġkufichua":11939,"kariri":11940,"Ġdozi":11941,"Ġinayotarajia":11942,"Ġinayolenga":11943,"Ġinayotumiwa":11944,"Ġinayoashiria":11945,"Ġkuteremka":11946,"Ġtumegundua":11947,"Ġzilizotokana":11948,"Ġkipilimba":11949,"Ġhamna":11950,"Ġjona":11951,"Ġhaihitaji":11952,"Ġhailingani":11953,"Ġatataka":11954,"Ġalipokwenda":11955,"Ġalipofikishwa":11956,"Ġlinadaiwa":11957,"kilishwa":11958,"Ġkimarekani":11959,"ziana":11960,"Ġchurch":11961,"Ġstashahada":11962,"Ġwakufunzi":11963,"Ġzinazoonesha":11964,"Ġwasifanye":11965,"Ġlubele":11966,"Ġkuzinduka":11967,"cie":11968,"mwamuru":11969,"caps":11970,"Ġkuporwa":11971,"Ġkiwandani":11972,"Ġfiore":11973,"Ġfitna":11974,"Ġmtasiwa":11975,"Ġukisoma":11976,"Ġyanayofanyika":11977,"Ġmabovu":11978,"Ġvituka":11979,"Ġkutungwa":11980,"Ġkutupilia":11981,"Ġkutumbuiza":11982,"Ġyussu":11983,"Ġngao":11984,"Ġmaongezi":11985,"Ġkuchangisha":11986,"Ġunaoonesha":11987,"Ġanayem":11988,"Ġanayetakiwa":11989,"Ġkukupa":11990,"Ġmatuta":11991,"Ġuhalisia":11992,"Ġndugai":11993,"tajadiliwa":11994,"Ġugavi":11995,"Ġufukwe":11996,"Ġmtetezi":11997,"Ġnimezungumza":11998,"Ġmarco":11999,"Ġmazoea":12000,"Ġabraha":12001,"Ġsawasawa":12002,"Ġrba":12003,"Ġkuelekezwa":12004,"Ġvuguvu":12005,"Ġkuoneshwa":12006,"Ġnyororo":12007,"Ġkinachoweza":12008,"Ġalimfuata":12009,"Ġmgawe":12010,"Ġmgambo":12011,"Ġmakombe":12012,"rance":12013,"Ġtulifanya":12014,"Ġtulicheza":12015,"Ġkimepata":12016,"Ġkimeshindwa":12017,"dhaniwa":12018,"Ġaliitoa":12019,"kataliwa":12020,"Ġkumuenzi":12021,"Ġkubomolewa":12022,"Ġhauku":12023,"Ġkufungana":12024,"Ġwalipokea":12025,"Ġamewaonya":12026,"Ġkhatibu":12027,"Ġitakayoshiriki":12028,"Ġmachoni":12029,"Ġuvumba":12030,"Ġuvumilivu":12031,"Ġafricans":12032,"Ġkukoso":12033,"Ġlinaloongozwa":12034,"Ġmanungu":12035,"Ġmachinji":12036,"Ġwachanga":12037,"Ġlitajwe":12038,"Ġwatakaokuwa":12039,"Ġstesheni":12040,"Ġmlandizi":12041,"Ġmasawe":12042,"Ġsamahani":12043,"Ġmhadhiri":12044,"Ġutumike":12045,"Ġkuhitimisha":12046,"sabula":12047,"Ġkijacho":12048,"Ġmjamzito":12049,"Ġvinavyoshiriki":12050,"Ġinavyotakiwa":12051,"Ġkuchota":12052,"Ġvyuoni":12053,"Ġuzio":12054,"Ġnikawa":12055,"ahidiwa":12056,"Ġtakriban":12057,"Ġhaitakubali":12058,"Ġkususia":12059,"Ġwanayoipata":12060,"Ġwahindi":12061,"Ġalichokuwa":12062,"Ġalichodai":12063,"Ġalichokifanya":12064,"Ġmwaisabula":12065,"Ġzimamoto":12066,"Ġcirkovic":12067,"Ġkipenka":12068,"Ġkukesha":12069,"Ġmshirika":12070,"Ġkumwombea":12071,"nyanyasa":12072,"semekana":12073,"Ġmassanja":12074,"Ġshamhuna":12075,"Ġakimtuhumu":12076,"Ġraul":12077,"Ġkhalij":12078,"Ġkalenda":12079,"Ġdiana":12080,"Ġmwenzie":12081,"Ġsungura":12082,"Ġraisi":12083,"Ġalan":12084,"Ġkabambe":12085,"Ġvibanda":12086,"Ġkaripio":12087,"Ġminazi":12088,"Ġkuwaokoa":12089,"Ġkujiongezea":12090,"Ġpepeta":12091,"Ġyoung":12092,"Ġmuuguzi":12093,"Ġishindwe":12094,"Ġmarupurupu":12095,"Ġtibaigana":12096,"Ġwhitecaps":12097,"Ġnsanze":12098,"Ġraymond":12099,"Ġxa":12100,"Ġmchujo":12101,"Ġaliyemtaja":12102,"Ġkumuoa":12103,"Ġbadae":12104,"Ġsadiki":12105,"Ġliliwasilishwa":12106,"Ġmanyanyaso":12107,"Ġlitakalofanyika":12108,"Ġagnes":12109,"Ġmandela":12110,"Ġunamfahamu":12111,"Ġifunda":12112,"Ġkusalimia":12113,"Ġmuongozo":12114,"Ġkilichomsibu":12115,"Ġmimosas":12116,"Ġwanafamilia":12117,"Ġkujitambulisha":12118,"Ġkashililah":12119,"Ġmgulani":12120,"Ġgaude":12121,"Ġtaarab":12122,"Ġrecords":12123,"Ġzamalek":12124,"Ġevent":12125,"Ġmogadishu":12126,"Ġyassin":12127,"Ġkugharimia":12128,"Ġyakinifu":12129,"Ġusemao":12130,"Ġuendelezaji":12131,"Ġkinyongo":12132,"sawazishia":12133,"telaiti":12134,"Ġvitakavyo":12135,"Ġmeghji":12136,"Ġtrans":12137,"Ġkonyagi":12138,"Ġwaogeleaji":12139,"Ġbenzema":12140,"Ġpeople":12141,"Ġlubeleje":12142,"Ġfiorentina":12143,"Ġyussuf":12144,"Ġabraham":12145,"Ġvuguvugu":12146,"Ġmachinjio":12147,"ach":12148,"ew":12149,"gri":12150,"lm":12151,"mza":12152,"msumbua":12153,"mkariri":12154,"ncha":12155,"odi":12156,"otball":12157,"tche":12158,"vji":12159,"yp":12160,"waomba":12161,"wart":12162,"Ġkk":12163,"Ġkdf":12164,"Ġmze":12165,"Ġmvi":12166,"Ġmzoefu":12167,"ling":12168,"Ġwabaki":12169,"Ġwabovu":12170,"Ġwachukue":12171,"Ġwadudu":12172,"Ġkumb":12173,"Ġkumbi":12174,"Ġkuketi":12175,"Ġkusemwa":12176,"Ġkuchukulia":12177,"Ġkubweteka":12178,"halo":12179,"hangaika":12180,"katisha":12181,"kagua":12182,"Ġnatoa":12183,"Ġnashukuru":12184,"Ġnasso":12185,"nishwa":12186,"Ġande":12187,"Ġanti":12188,"Ġafikishwe":12189,"Ġyangeweza":12190,"tatua":12191,"Ġsp":12192,"masha":12193,"Ġmab":12194,"Ġmasumbu":12195,"ting":12196,"tican":12197,"kiwe":12198,"kinga":12199,"kiel":12200,"zimia":12201,"Ġunge":12202,"Ġuvi":12203,"Ġureje":12204,"Ġkago":12205,"Ġkaguo":12206,"yoba":12207,"yomba":12208,"Ġisu":12209,"Ġict":12210,"Ġicc":12211,"Ġichukue":12212,"Ġicu":12213,"kuza":12214,"kuzi":12215,"Ġhakwenda":12216,"Ġharry":12217,"Ġhafai":12218,"jiweza":12219,"jisikia":12220,"weed":12221,"tuu":12222,"Ġhiv":12223,"Ġhill":12224,"Ġhijja":12225,"ral":12226,"raco":12227,"Ġkinda":12228,"Ġkiche":12229,"Ġkipenzi":12230,"Ġkiara":12231,"Ġkizembe":12232,"Ġkishiwa":12233,"Ġalivunja":12234,"Ġalichaguliwa":12235,"Ġaliteuliwa":12236,"Ġaligae":12237,"Ġalisimulia":12238,"faki":12239,"len":12240,"chal":12241,"changanyikiwa":12242,"pale":12243,"shapata":12244,"miri":12245,"mikwa":12246,"didi":12247,"diploma":12248,"mudu":12249,"sere":12250,"semea":12251,"Ġkuwachangia":12252,"Ġkuwajenga":12253,"Ġkuwatembelea":12254,"Ġkuwaingiza":12255,"Ġkuwanggoa":12256,"Ġkuwaamuru":12257,"Ġkuwavutia":12258,"Ġkuwasafirisha":12259,"Ġkuwapunguzia":12260,"Ġkuwakinga":12261,"Ġtao":12262,"shimba":12263,"Ġzaka":12264,"Ġniweze":12265,"Ġnimea":12266,"tema":12267,"ters":12268,"Ġsiko":12269,"Ġsimenti":12270,"Ġsielewi":12271,"poka":12272,"potosha":12273,"Ġhuanza":12274,"Ġhutaki":12275,"Ġnte":12276,"Ġnju":12277,"Ġlaana":12278,"Ġlazio":12279,"Ġbana":12280,"Ġbashi":12281,"Ġbadra":12282,"Ġmizuri":12283,"Ġmithi":12284,"Ġsatelaiti":12285,"kolewa":12286,"komoa":12287,"piku":12288,"pisho":12289,"pitwa":12290,"Ġbm":12291,"Ġbweni":12292,"ndavi":12293,"Ġviza":12294,"Ġvingu":12295,"hofii":12296,"Ġwanakutana":12297,"Ġwanahisi":12298,"Ġwanajipanga":12299,"Ġwanaruhusiwa":12300,"Ġwanasumbuliwa":12301,"Ġwananchama":12302,"Ġilicha":12303,"Ġilitumia":12304,"Ġilifanyika":12305,"Ġilifafanua":12306,"Ġilionyesha":12307,"nocent":12308,"moko":12309,"ngondo":12310,"mbley":12311,"nguti":12312,"Ġkutoza":12313,"Ġkutotoa":12314,"Ġkutoshiriki":12315,"Ġbwanausi":12316,"ndiko":12317,"julisha":12318,"filisi":12319,"Ġwalishinda":12320,"Ġwalifungwa":12321,"Ġwalirejea":12322,"Ġwalilalamika":12323,"Ġwaliuawa":12324,"Ġwalisawazisha":12325,"Ġwalitibiwa":12326,"ngefu":12327,"ngenye":12328,"Ġmoris":12329,"Ġmollo":12330,"Ġeno":12331,"Ġsea":12332,"Ġsengondo":12333,"rer":12334,"resi":12335,"gata":12336,"gast":12337,"Ġmwamwa":12338,"Ġmwathirika":12339,"gosi":12340,"Ġjambia":12341,"Ġjarida":12342,"Ġzika":12343,"Ġzitokana":12344,"Ġlie":12345,"Ġlika":12346,"Ġlisa":12347,"Ġtit":12348,"zuoni":12349,"Ġbil":12350,"Ġjumba":12351,"Ġjustine":12352,"pez":12353,"dhatiti":12354,"Ġanazungumza":12355,"Ġanaanza":12356,"Ġanapewa":12357,"Ġanaongoza":12358,"Ġanahisi":12359,"Ġanasikia":12360,"Ġanatafuta":12361,"Ġinaleta":12362,"Ġinajitahidi":12363,"Ġinamilikiwa":12364,"Ġinajivunia":12365,"Ġwakama":12366,"Ġpar":12367,"gumizi":12368,"Ġmul":12369,"Ġmuhas":12370,"Ġakishinda":12371,"Ġakirejea":12372,"Ġakikanusha":12373,"dhimishwa":12374,"dhilifu":12375,"Ġwekundu":12376,"Ġwembley":12377,"Ġrah":12378,"geu":12379,"geza":12380,"gedia":12381,"Ġpipa":12382,"Ġcc":12383,"Ġclo":12384,"Ġcpl":12385,"Ġamekana":12386,"Ġamebaki":12387,"Ġamelazimika":12388,"Ġamekataa":12389,"Ġameridhika":12390,"Ġkuamuliwa":12391,"Ġkuachishwa":12392,"Ġkuiongoza":12393,"Ġkuitetea":12394,"Ġkuitembelea":12395,"Ġkuifundisha":12396,"Ġkuombea":12397,"Ġkuombwa":12398,"Ġshivji":12399,"Ġflu":12400,"Ġimecheza":12401,"Ġimesisitiza":12402,"Ġimefunga":12403,"Ġimethibitisha":12404,"Ġimemaliza":12405,"Ġimebeba":12406,"Ġimezindua":12407,"Ġimefuzu":12408,"Ġona":12409,"Ġolimpiki":12410,"Ġozoni":12411,"Ġmaandiko":12412,"Ġwameshika":12413,"Ġwamejipanga":12414,"Ġwamevamia":12415,"Ġwameahidi":12416,"Ġwameitaka":12417,"Ġwameniambia":12418,"Ġwamesikitishwa":12419,"Ġsabas":12420,"patazo":12421,"Ġwatatakiwa":12422,"Ġwatakuja":12423,"mbukizwa":12424,"Ġwakisisitiza":12425,"Ġwakihofia":12426,"Ġwakiimba":12427,"Ġkujivua":12428,"Ġkujirekebisha":12429,"Ġkujifurahisha":12430,"Ġkujichimbia":12431,"Ġwalioshindwa":12432,"Ġwalioanza":12433,"Ġwaliokimbia":12434,"Ġwaliofaulu":12435,"Ġwalionusurika":12436,"Ġkumtaja":12437,"Ġkumpokea":12438,"Ġkumlinda":12439,"Ġkumtuhumu":12440,"Ġkumshawishi":12441,"Ġkumnasa":12442,"Ġkumtukana":12443,"Ġmajitaka":12444,"Ġfestus":12445,"Ġiliyocho":12446,"Ġiliyopewa":12447,"Ġiliyokutana":12448,"Ġiliyochunguza":12449,"Ġhossa":12450,"bogast":12451,"tiama":12452,"Ġutahusisha":12453,"Ġutasikia":12454,"Ġutapunguza":12455,"via":12456,"vindavi":12457,"Ġmwiko":12458,"Ġwaongeze":12459,"Ġgambia":12460,"Ġgabon":12461,"Ġboko":12462,"Ġitachezwa":12463,"Ġnyigu":12464,"Ġmkasi":12465,"Ġtec":12466,"Ġtengefu":12467,"Ġkulitaka":12468,"Ġkulindwa":12469,"Ġkulieleza":12470,"Ġkulimwa":12471,"Ġmarashi":12472,"Ġpra":12473,"Ġpct":12474,"beni":12475,"Ġmabanda":12476,"Ġzinatumika":12477,"Ġzinatoka":12478,"Ġzinatofautiana":12479,"Ġder":12480,"Ġwolf":12481,"Ġsok":12482,"Ġsofia":12483,"Ġkutatanisha":12484,"Ġumesha":12485,"Ġumethibitisha":12486,"Ġaliyeshindwa":12487,"Ġpep":12488,"Ġhakutoa":12489,"Ġhakutaja":12490,"Ġtunaingia":12491,"Ġmatamasha":12492,"Ġhawapaswi":12493,"Ġulikwama":12494,"Ġyalijitokeza":12495,"Ġyalibainishwa":12496,"Ġmakamishna":12497,"Ġmpana":12498,"Ġwanaojua":12499,"Ġwanaosadikiwa":12500,"Ġjw":12501,"Ġsuu":12502,"Ġikidai":12503,"Ġikifika":12504,"Ġikitumiwa":12505,"Ġlilitoa":12506,"Ġlilieleza":12507,"Ġlilifika":12508,"Ġbutiama":12509,"Ġyanatoa":12510,"Ġyanahitaji":12511,"Ġwaandamana":12512,"Ġwaachiwe":12513,"Ġshaidi":12514,"Ġshaibu":12515,"Ġshangazi":12516,"rakano":12517,"Ġduwasa":12518,"Ġinayotakiwa":12519,"Ġinayotarajiwa":12520,"Ġinayoendeshwa":12521,"Ġinayowafanya":12522,"valia":12523,"mlaumu":12524,"Ġkutelekeza":12525,"Ġtumekaa":12526,"Ġtumeambiwa":12527,"Ġatachukua":12528,"Ġataweka":12529,"Ġalipofanya":12530,"Ġalipofariki":12531,"Ġmfugaji":12532,"Ġmfumuko":12533,"Ġlinapo":12534,"sheheni":12535,"Ġkimaya":12536,"Ġkimazingira":12537,"Ġrefa":12538,"Ġkuran":12539,"Ġmchambuzi":12540,"Ġwakubali":12541,"Ġaron":12542,"Ġmalick":12543,"Ġusiwe":12544,"Ġzinazodaiwa":12545,"Ġzinazohusika":12546,"Ġwasitumie":12547,"Ġyaliyosababisha":12548,"Ġyaliyosababishwa":12549,"Ġyaliyolipuka":12550,"Ġlusa":12551,"Ġkuzipata":12552,"shindano":12553,"cision":12554,"Ġakashindwa":12555,"Ġzimeshindwa":12556,"Ġzimetumika":12557,"Ġzimefikia":12558,"Ġzimesalia":12559,"mwagwa":12560,"mwachie":12561,"Ġyono":12562,"Ġyonna":12563,"Ġlopez":12564,"cate":12565,"Ġgemu":12566,"Ġkuponya":12567,"Ġroad":12568,"cky":12569,"Ġmtama":12570,"Ġmtangazaji":12571,"Ġukingoni":12572,"Ġarbogast":12573,"Ġyanayoikabili":12574,"Ġkutuhumiwa":12575,"Ġngano":12576,"Ġngalo":12577,"Ġlimesababisha":12578,"Ġlimejipanga":12579,"laziz":12580,"Ġmaole":12581,"Ġmaonyesho":12582,"Ġkuchapishwa":12583,"Ġunion":12584,"Ġwateule":12585,"mishaji":12586,"ngezewa":12587,"Ġanayependa":12588,"Ġkilichoelezwa":12589,"Ġkilichomfanya":12590,"Ġukaazi":12591,"Ġlililoanza":12592,"Ġuhamishaji":12593,"Ġndulu":12594,"Ġilivyofanya":12595,"Ġilivyopangwa":12596,"Ġilivyozoeleka":12597,"Ġninaweza":12598,"Ġbasilio":12599,"Ġnou":12600,"Ġyamekwisha":12601,"Ġvinapaswa":12602,"Ġcag":12603,"Ġufupi":12604,"Ġmtei":12605,"Ġmboga":12606,"Ġnimekuja":12607,"Ġmarsh":12608,"Ġkitanzi":12609,"Ġkitaendelea":12610,"Ġpalepale":12611,"Ġumahiri":12612,"Ġatraco":12613,"Ġnemanja":12614,"Ġnuru":12615,"Ġkilevi":12616,"Ġinve":12617,"Ġinland":12618,"Ġinnocent":12619,"Ġalimpiga":12620,"Ġkutibiwa":12621,"Ġmakofi":12622,"Ġkibaraka":12623,"Ġuagizaji":12624,"Ġaliyoi":12625,"Ġaliyofanya":12626,"Ġaliyoyapata":12627,"vocate":12628,"Ġkushirikishwa":12629,"kezana":12630,"Ġkumalizana":12631,"rtium":12632,"Ġfootball":12633,"Ġjosepha":12634,"Ġmnaweza":12635,"Ġmsekela":12636,"Ġubakaji":12637,"Ġubadhilifu":12638,"Ġlinaloendelea":12639,"Ġlinaloweza":12640,"Ġazania":12641,"Ġmtaala":12642,"nyamaza":12643,"Ġwasiojiweza":12644,"gawanywa":12645,"Ġkufaulu":12646,"Ġkuwaangalia":12647,"Ġupekuzi":12648,"Ġjammeh":12649,"Ġkumesababisha":12650,"Ġmlawa":12651,"Ġmasaa":12652,"Ġmasanja":12653,"Ġsamatta":12654,"Ġikashindwa":12655,"Ġlukuki":12656,"Ġhawakufanya":12657,"Ġhawakutakiwa":12658,"Ġlikitokea":12659,"diola":12660,"hatika":12661,"Ġhaijatoa":12662,"Ġvatican":12663,"Ġimeandaa":12664,"kebishwa":12665,"Ġvinavyoweza":12666,"Ġmrithi":12667,"Ġabdulaziz":12668,"wadiwa":12669,"Ġhamid":12670,"Ġalivyofanya":12671,"theo":12672,"Ġwanapopata":12673,"Ġtukiendelea":12674,"Ġzitakazopatikana":12675,"Ġmashuhuri":12676,"rouk":12677,"hamishia":12678,"Ġalichoeleza":12679,"Ġmadirisha":12680,"Ġalizonazo":12681,"Ġwanachotakiwa":12682,"Ġwalimpiga":12683,"nufai":12684,"Ġkumwokoa":12685,"Ġstre":12686,"Ġlyatuu":12687,"Ġitifaki":12688,"Ġmzimu":12689,"Ġmarian":12690,"Ġkifuani":12691,"Ġmihayo":12692,"Ġuuzwaji":12693,"Ġulazaji":12694,"Ġdialo":12695,"Ġkuchukizwa":12696,"Ġhawatakiwi":12697,"Ġndalah":12698,"Ġndavindavi":12699,"Ġviatu":12700,"Ġwaliwaua":12701,"Ġhaujawahi":12702,"Ġbrigedia":12703,"Ġkupendelea":12704,"Ġmadhumuni":12705,"sambaza":12706,"Ġkwisha":12707,"Ġmakelle":12708,"Ġkuwatahadharisha":12709,"Ġkuwatangazia":12710,"Ġadvocate":12711,"Ġmasengi":12712,"Ġmgongolwa":12713,"Ġwaitara":12714,"Ġanfield":12715,"Ġalizitaka":12716,"Ġanaogopa":12717,"Ġwhich":12718,"Ġsarah":12719,"Ġwameapa":12720,"Ġwilbrod":12721,"Ġkuzoro":12722,"Ġkushikwa":12723,"Ġanawafahamu":12724,"Ġprecision":12725,"Ġkurushiana":12726,"Ġmtoano":12727,"Ġimejidhatiti":12728,"Ġtimotheo":12729,"Ġcarling":12730,"Ġchifupa":12731,"Ġmarubeni":12732,"azimia":12733,"Ġalishawahi":12734,"Ġsentimita":12735,"Ġchaligha":12736,"Ġalilofanya":12737,"Ġkuchezewa":12738,"Ġwaryoba":12739,"Ġkuchangamkia":12740,"Ġkuwaumiza":12741,"Ġkuokolewa":12742,"Ġvalentine":12743,"Ġmakka":12744,"Ġsadik":12745,"Ġkuchelewesha":12746,"Ġmandeu":12747,"Ġgerrard":12748,"jjah":12749,"Ġkuwacharaza":12750,"Ġmicheweni":12751,"Ġsaimon":12752,"Ġmusiba":12753,"Ġlamadi":12754,"Ġleague":12755,"Ġantony":12756,"Ġtutaangalia":12757,"Ġkukaririwa":12758,"Ġsemkucha":12759,"Ġconsortium":12760,"Ġwashukiwa":12761,"Ġnilishangaa":12762,"Ġjongowe":12763,"Ġkustawisha":12764,"Ġhakijafahamika":12765,"Ġlinawashikilia":12766,"Ġmwakyoma":12767,"Ġgorogosi":12768,"Ġwanyancha":12769,"Ġhazitoshi":12770,"Ġkigendi":12771,"Ġbwawa":12772,"Ġezekiel":12773,"Ġjanjaweed":12774,"Ġshearer":12775,"Ġgwabisaba":12776,"Ġnangale":12777,"Ġvuai":12778,"Ġbakhresa":12779,"Ġutafutaji":12780,"Ġfabian":12781,"Ġkutaifisha":12782,"Ġkeenja":12783,"Ġpsrc":12784,"dhulumiwa":12785,"Ġfrederick":12786,"Ġmafichoni":12787,"Ġkigugumizi":12788,"Ġwananachi":12789,"Ġguardiola":12790,"Ġgaudence":12791,"Ġnassor":12792,"Ġandengenye":12793,"Ġmasumbuko":12794,"Ġkagonji":12795,"Ġisunto":12796,"Ġkiarabu":12797,"Ġaligaesha":12798,"diplomasia":12799,"Ġnjuga":12800,"Ġmithili":12801,"Ġvingunguti":12802,"Ġmolloimet":12803,"Ġmwamwaja":12804,"Ġzitokanazo":12805,"Ġhossam":12806,"Ġwolfsburg":12807,"Ġwaandamanaji":12808,"Ġjosephat":12809,"Ġndalahwa":12810,"atu":12811,"bli":12812,"cce":12813,"cus":12814,"dyu":12815,"eeh":12816,"ffari":12817,"ijua":12818,"iongoza":12819,"lbe":12820,"mmy":12821,"nje":12822,"nzwa":12823,"ntongo":12824,"ogope":12825,"sm":12826,"sna":12827,"ynamo":12828,"Ġtokea":12829,"Ġzui":12830,"Ġfikiria":12831,"wan":12832,"nada":12833,"Ġmhu":12834,"Ġmjenga":12835,"Ġmhariri":12836,"Ġmdee":12837,"Ġmshtuko":12838,"liti":12839,"lida":12840,"licha":12841,"Ġwawa":12842,"Ġwakweli":12843,"Ġwangwe":12844,"Ġwamis":12845,"Ġwabadilike":12846,"Ġkus":12847,"Ġkuwi":12848,"Ġkuro":12849,"Ġkumbana":12850,"Ġkuhisi":12851,"Ġkungga":12852,"Ġkusumbuliwa":12853,"Ġkuzuiwa":12854,"Ġkurithi":12855,"Ġkuwezeshwa":12856,"Ġkuendelezwa":12857,"Ġkudhulumiwa":12858,"kaza":12859,"kabi":12860,"kauti":12861,"Ġnaa":12862,"Ġnaka":12863,"Ġname":12864,"Ġnaanza":12865,"Ġnawasi":12866,"Ġnasikia":12867,"nifu":12868,"Ġahu":12869,"Ġaua":12870,"Ġafunge":12871,"Ġyaha":12872,"Ġyajayo":12873,"tambui":12874,"tasari":12875,"tile":12876,"kizu":12877,"zimwa":12878,"Ġugu":12879,"Ġugi":12880,"Ġukwe":12881,"Ġkami":12882,"Ġkalenga":12883,"ndy":12884,"yosisi":12885,"Ġione":12886,"Ġifuata":12887,"Ġicheze":12888,"kuli":12889,"kufu":12890,"kurani":12891,"kusanywa":12892,"Ġhaj":12893,"jiza":12894,"jikita":12895,"hula":12896,"hunga":12897,"sirika":12898,"sien":12899,"wezo":12900,"tuka":12901,"tusaidia":12902,"Ġhilla":12903,"Ġhisani":12904,"ram":12905,"ralia":12906,"Ġkichocheo":12907,"Ġkidiplomasia":12908,"Ġalikuta":12909,"Ġalichangia":12910,"Ġalijitokeza":12911,"Ġalilalamikia":12912,"Ġalizindua":12913,"Ġalihukumiwa":12914,"Ġalitamka":12915,"Ġalikimbizwa":12916,"toza":12917,"tory":12918,"lete":12919,"day":12920,"bie":12921,"shavin":12922,"shangiliwa":12923,"sesha":12924,"Ġkuwachukua":12925,"Ġkuwaonesha":12926,"Ġkuwafanyia":12927,"Ġkuwachagua":12928,"Ġkuwaonya":12929,"Ġkuwarudisha":12930,"Ġkuwawakilisha":12931,"Ġkuwachanganya":12932,"Ġkuwahamisha":12933,"shifu":12934,"Ġnilianza":12935,"Ġnilisikia":12936,"teze":12937,"tembea":12938,"tegemee":12939,"hembe":12940,"Ġsir":12941,"Ġsilva":12942,"Ġhulka":12943,"Ġhusna":12944,"Ġlala":12945,"Ġbad":12946,"Ġbahi":12947,"Ġbakora":12948,"Ġmiwa":12949,"Ġmili":12950,"Ġmirefu":12951,"kotoka":12952,"ngingi":12953,"ngai":12954,"Ġvifu":12955,"Ġvingo":12956,"hofu":12957,"Ġchambu":12958,"Ġwanaanza":12959,"Ġwanabaki":12960,"Ġwanachangia":12961,"Ġwanauza":12962,"Ġilishiriki":12963,"Ġiliomba":12964,"Ġilitajwa":12965,"Ġiliendeshwa":12966,"Ġiliondoka":12967,"Ġilifikiwa":12968,"wila":12969,"wiji":12970,"Ġkutopata":12971,"Ġkutotumia":12972,"nzana":12973,"chembe":12974,"Ġwaliamini":12975,"Ġwalikubali":12976,"Ġwalipanga":12977,"Ġwalizidi":12978,"Ġwalithibitisha":12979,"Ġwaliiambia":12980,"Ġwalihudhuria":12981,"Ġeche":12982,"Ġeeeh":12983,"Ġtunda":12984,"Ġtukia":12985,"Ġtuendelee":12986,"gombana":12987,"Ġjaphe":12988,"Ġlipi":12989,"Ġlilo":12990,"Ġdynamo":12991,"Ġdanada":12992,"Ġdayosisi":12993,"Ġtino":12994,"roba":12995,"Ġbize":12996,"Ġjudo":12997,"Ġjuliana":12998,"Ġjuisi":12999,"Ġanafaa":13000,"Ġanapinga":13001,"Ġanamwachia":13002,"Ġinatu":13003,"Ġinashinda":13004,"Ġinaingia":13005,"Ġinalazimika":13006,"Ġinafuatilia":13007,"Ġinaelekea":13008,"Ġinatosha":13009,"Ġinadhihirisha":13010,"Ġinafuatia":13011,"Ġwakatumia":13012,"Ġpanda":13013,"guni":13014,"Ġmuulize":13015,"Ġakii":13016,"Ġakipewa":13017,"Ġmeatu":13018,"Ġrada":13019,"Ġrasirimali":13020,"Ġrachel":13021,"pur":13022,"Ġtt":13023,"Ġtradi":13024,"Ġameo":13025,"Ġamekuja":13026,"Ġametoka":13027,"Ġameongeza":13028,"Ġameshangazwa":13029,"Ġameongozana":13030,"shtua":13031,"Ġkuapa":13032,"Ġkuambulia":13033,"Ġkuamka":13034,"Ġkuangusha":13035,"vuka":13036,"Ġkuipe":13037,"Ġkuihusisha":13038,"Ġkuigawa":13039,"Ġkuitambua":13040,"Ġkuiuza":13041,"Ġkuilaza":13042,"Ġkuongezea":13043,"yumbi":13044,"Ġfri":13045,"Ġimepo":13046,"Ġimeweza":13047,"Ġimekwenda":13048,"Ġimekamilika":13049,"Ġimewasilisha":13050,"Ġimeripotiwa":13051,"Ġimeimarisha":13052,"Ġimetupilia":13053,"Ġoa":13054,"Ġomba":13055,"riana":13056,"mber":13057,"mbeba":13058,"mbezi":13059,"Ġwametaka":13060,"Ġwamewasili":13061,"Ġwamegundua":13062,"Ġwamekwisha":13063,"Ġwamegombana":13064,"Ġhataweza":13065,"Ġwataona":13066,"Ġwatafikishwa":13067,"Ġmbilinyi":13068,"Ġwakiona":13069,"Ġwakipewa":13070,"Ġwakiondoka":13071,"Ġwakitafuta":13072,"Ġwakijadili":13073,"Ġwakikimbia":13074,"Ġwakishangilia":13075,"Ġkujitangaza":13076,"Ġkujichukulia":13077,"Ġkujiondoa":13078,"Ġkujisahau":13079,"Ġkujipima":13080,"Ġhalipo":13081,"Ġwaliokwenda":13082,"Ġwaliomaliza":13083,"Ġwalioitwa":13084,"Ġwaliosimamishwa":13085,"Ġwaliobobea":13086,"Ġkuunganishwa":13087,"gie":13088,"gika":13089,"Ġkumshinikiza":13090,"Ġkumshukuru":13091,"Ġkumwita":13092,"Ġkumdhuru":13093,"Ġkumkimbiza":13094,"Ġessien":13095,"Ġiliyocheza":13096,"Ġiliyoachwa":13097,"Ġhong":13098,"Ġhots":13099,"Ġunawa":13100,"Ġunadaiwa":13101,"Ġunakuja":13102,"Ġunazidi":13103,"vier":13104,"Ġwazidi":13105,"Ġgali":13106,"Ġgadda":13107,"Ġbomani":13108,"Ġbohari":13109,"Ġitakuja":13110,"Ġitaibuka":13111,"Ġitafikisha":13112,"Ġitakwaana":13113,"Ġmkaa":13114,"Ġtheone":13115,"Ġbegi":13116,"kwaa":13117,"Ġkuhukumiwa":13118,"Ġkiliendelea":13119,"Ġkilimfanya":13120,"Ġshukurani":13121,"Ġnyuzi":13122,"Ġkufutiwa":13123,"Ġkufunika":13124,"Ġzinakuwa":13125,"Ġzinahitaji":13126,"Ġzinakwenda":13127,"Ġzinazidi":13128,"Ġdeus":13129,"Ġwosia":13130,"Ġfatma":13131,"Ġsocie":13132,"Ġjerson":13133,"Ġumepata":13134,"Ġumepangwa":13135,"Ġumegharimu":13136,"Ġaliyepewa":13137,"Ġaliyeonekana":13138,"Ġaliyesababisha":13139,"Ġaliyejitokeza":13140,"Ġaliyejiunga":13141,"Ġtoulo":13142,"Ġpepo":13143,"Ġpendo":13144,"Ġhakujua":13145,"Ġmwela":13146,"Ġtunazo":13147,"Ġtunapenda":13148,"Ġtunapoteza":13149,"Ġmataa":13150,"Ġkusabisha":13151,"Ġhawaa":13152,"Ġulitakiwa":13153,"Ġuliibuka":13154,"Ġulizuka":13155,"Ġkukawa":13156,"Ġkukatika":13157,"Ġyalivyo":13158,"Ġyalitakiwa":13159,"Ġyalitolewa":13160,"Ġyalidaiwa":13161,"Ġyalifanywa":13162,"Ġuchakavu":13163,"Ġwanaotoa":13164,"Ġwanaoongoza":13165,"Ġwanaofanyiwa":13166,"Ġgk":13167,"Ġrussia":13168,"Ġkupasuka":13169,"Ġikipata":13170,"Ġikidaiwa":13171,"Ġikitarajiwa":13172,"Ġlilitokana":13173,"Ġbustani":13174,"Ġulionekana":13175,"Ġwaamini":13176,"yarisha":13177,"Ġkufidia":13178,"Ġkufichwa":13179,"Ġinayotaka":13180,"Ġinayotumia":13181,"Ġinayohusika":13182,"Ġinayopatikana":13183,"val":13184,"Ġkutesa":13185,"Ġkutengewa":13186,"Ġtumepata":13187,"Ġtumepanga":13188,"Ġridhi":13189,"Ġhaile":13190,"Ġatashinda":13191,"Ġatafute":13192,"Ġalipopata":13193,"Ġalipojaribu":13194,"Ġlinawezekana":13195,"sheki":13196,"Ġkimasai":13197,"Ġremtu":13198,"Ġfulsa":13199,"Ġchui":13200,"stal":13201,"Ġmchaka":13202,"Ġwakunga":13203,"Ġzinazofanyika":13204,"Ġzinazoingizwa":13205,"peleke":13206,"Ġyaliyowasilishwa":13207,"Ġkuzitoa":13208,"Ġprodyu":13209,"Ġakaona":13210,"Ġakaomba":13211,"Ġakasisitiza":13212,"mwandama":13213,"Ġkiuta":13214,"Ġkiutawala":13215,"Ġget":13216,"Ġaliokoa":13217,"Ġmbennah":13218,"Ġfistu":13219,"Ġarshavin":13220,"Ġyanayodaiwa":13221,"Ġyanayotoka":13222,"Ġyanayomkabili":13223,"Ġmabosi":13224,"Ġkutumwa":13225,"Ġujangili":13226,"Ġlimetolewa":13227,"Ġkulenga":13228,"Ġunaotokana":13229,"Ġunaotumiwa":13230,"Ġanayejua":13231,"Ġkukusudia":13232,"Ġukaribu":13233,"Ġmatumbo":13234,"Ġuhandisi":13235,"Ġuhasibu":13236,"Ġndunguru":13237,"Ġnampongeza":13238,"Ġnot":13239,"Ġyametolewa":13240,"Ġvinatakiwa":13241,"Ġnimefurahi":13242,"Ġdickson":13243,"Ġwakorofi":13244,"Ġisije":13245,"Ġalimwomba":13246,"Ġmgaya":13247,"Ġkutikisa":13248,"Ġmafupi":13249,"Ġuandaaji":13250,"Ġtulizo":13251,"Ġtulipokuwa":13252,"Ġmajumba":13253,"Ġmajungu":13254,"Ġgodoro":13255,"Ġaliyofikia":13256,"Ġfounda":13257,"Ġfood":13258,"Ġvilipo":13259,"Ġwalipoanza":13260,
[...]
