{"<s>":0,"</s>":1,"<unk>":2,"<pad>":3,"<mask>":4,"<sw>":5,"!":6,"\"":7,"#":8,"$":9,"%":10,"&":11,"'":12,"(":13,")":14,"*":15,"+":16,",":17,"-":18,".":19,"/":20,"0":21,"1":22,"2":23,"3":24,"4":25,"5":26,"6":27,"7":28,"8":29,"9":30,":":31,";":32,"<":33,"=":34,">":35,"?":36,"@":37,"A":38,"B":39,"C":40,"D":41,"E":42,"F":43,"G":44,"H":45,"I":46,"J":47,"K":48,"L":49,"M":50,"N":51,"O":52,"P":53,"Q":54,"R":55,"S":56,"T":57,"U":58,"V":59,"W":60,"X":61,"Y":62,"Z":63,"[":64,"\\":65,"]":66,"^":67,"_":68,"`":69,"a":70,"b":71,"c":72,"d":73,"e":74,"f":75,"g":76,"h":77,"i":78,"j":79,"k":80,"l":81,"m":82,"n":83,"o":84,"p":85,"q":86,"r":87,"s":88,"t":89,"u":90,"v":91,"w":92,"x":93,"y":94,"z":95,"{":96,"|":97,"}":98,"~":99,"¡":100,"¢":101,"£":102,"¤":103,"¥":104,"¦":105,"§":106,"¨":107,"©":108,"ª":109,"«":110,"¬":111,"®":112,"¯":113,"°":114,"±":115,"²":116,"³":117,"´":118,"µ":119,"¶":120,"·":121,"¸":122,"¹":123,"º":124,"»":125,"¼":126,"½":127,"¾":128,"¿":129,"À":130,"Á":131,"Â":132,"Ã":133,"Ä":134,"Å":135,"Æ":136,"Ç":137,"È":138,"É":139,"Ê":140,"Ë":141,"Ì":142,"Í":143,"Î":144,"Ï":145,"Ð":146,"Ñ":147,"Ò":148,"Ó":149,"Ô":150,"Õ":151,"Ö":152,"×":153,"Ø":154,"Ù":155,"Ú":156,"Û":157,"Ü":158,"Ý":159,"Þ":160,"ß":161,"à":162,"á":163,"â":164,"ã":165,"ä":166,"å":167,"æ":168,"ç":169,"è":170,"é":171,"ê":172,"ë":173,"ì":174,"í":175,"î":176,"ï":177,"ð":178,"ñ":179,"ò":180,"ó":181,"ô":182,"õ":183,"ö":184,"÷":185,"ø":186,"ù":187,"ú":188,"û":189,"ü":190,"ý":191,"þ":192,"ÿ":193,"Ā":194,"ā":195,"Ă":196,"ă":197,"Ą":198,"ą":199,"Ć":200,"ć":201,"Ĉ":202,"ĉ":203,"Ċ":204,"ċ":205,"Č":206,"č":207,"Ď":208,"ď":209,"Đ":210,"đ":211,"Ē":212,"ē":213,"Ĕ":214,"ĕ":215,"Ė":216,"ė":217,"Ę":218,"ę":219,"Ě":220,"ě":221,"Ĝ":222,"ĝ":223,"Ğ":224,"ğ":225,"Ġ":226,"ġ":227,"Ģ":228,"ģ":229,"Ĥ":230,"ĥ":231,"Ħ":232,"ħ":233,"Ĩ":234,"ĩ":235,"Ī":236,"ī":237,"Ĭ":238,"ĭ":239,"Į":240,"į":241,"İ":242,"ı":243,"Ĳ":244,"ĳ":245,"Ĵ":246,"ĵ":247,"Ķ":248,"ķ":249,"ĸ":250,"Ĺ":251,"ĺ":252,"Ļ":253,"ļ":254,"Ľ":255,"ľ":256,"Ŀ":257,"ŀ":258,"Ł":259,"ł":260,"Ń":261,"wa":262,"Ġk":263,"na":264,"Ġm":265,"li":266,"Ġwa":267,"Ġku":268,"ha":269,"ya":270,"ka":271,"Ġna":272,"ni":273,"hi":274,"Ġa":275,"Ġya":276,"ta":277,"ba":278,"ng":279,"Ġs":280,"ma":281,"Ġma":282,"ti":283,"za":284,"ri":285,"ki":286,"NK":287,"UNK":288,"ĠUNK":289,"la":290,"ĠĊ":291,"zi":292,"Ġu":293,"Ġka":294,"nd":295,"yo":296,"Ġi":297,"Ġkwa":298,"ku":299,"Ġha":300,"ji":301,"hu":302,"si":303,"we":304,"tu":305,"Ġhi":306,"ja":307,"ra":308,"Ġki":309,"mba":310,"Ġali":311,"fa":312,"to":313,"le":314,"da":315,"bi":316,"sa":317,"cha":318,"pa":319,"sha":320,"me":321,"fu":322,"mi":323,"ye":324,"Ġv":325,"di":326,"mu":327,"se":328,"Ġkuwa":329,"Ġta":330,"ke":331,"Ġkati":332,"bu":333,"shi":334,"Ġza":335,"Ġni":336,"te":337,"he":338,"Ġsi":339,"po":340,"Ġhu":341,"Ġn":342,"zo":343,"Ġla":344,"sema":345,"Ġkatika":346,"Ġba":347,"ne":348,"Ġmi":349,"Ġsa":350,"ko":351,"pi":352,"Ġb":353,"ngi":354,"nda":355,"nga":356,"Ġvi":357,"ho":358,"Ġamba":359,"Ġcha":360,"Ġalisema":361,"chi":362,"Ġwana":363,"kuwa":364,"wana":365,"Ġili":366,"Ġhiyo":367,"no":368,"mo":369,"ngo":370,"ele":371,"lo":372,"wi":373,"mb":374,"ngu":375,"Ġkuto":376,"Ġbwana":377,"nza":378,"ndi":379,"fan":380,"ju":381,"nye":382,"fi":383,"che":384,"Ġwali":385,"ru":386,"nge":387,"Ġmo":388,"Ġe":389,"Ġse":390,"re":391,"ga":392,"Ġtu":393,"Ġmwa":394,"Ġbaa":395,"rika":396,"go":397,"Ġkama":398,"kiwa":399,"Ġja":400,"wenye":401,"Ġzi":402,"Ġli":403,"Ġd":404,"Ġda":405,"Ġti":406,"ro":407,"vyo":408,"zu":409,"kana":410,"je":411,"fanya":412,"Ġbi":413,"furi":414,"Ġsifuri":415,"Ġmoja":416,"Ġju":417,"taka":418,"Ġbaada":419,"pe":420,"mbo":421,"shiri":422,"Ġmku":423,"cho":424,"dha":425,"Ġana":426,"Ġina":427,"nia":428,"ua":429,"ze":430,"Ġhuo":431,"ongo":432,"kini":433,"chu":434,"Ġwaka":435,"rikali":436,"end":437,"Ġserikali":438,"yi":439,"nzi":440,"lia":441,"Ġhilo":442,"Ġpa":443,"gu":444,"Ġmu":445,"Ġaki":446,"dhi":447,"Ġnchi":448,"moja":449,"Ġwi":450,"ndo":451,"ngine":452,"Ġlakini":453,"Ġwe":454,"Ġme":455,"su":456,"Ġra":457,"ge":458,"pu":459,"Ġvya":460,"Ġpi":461,"Ġhivyo":462,"bwa":463,"Ġji":464,"cheza":465,"endele":466,"Ġwatu":467,"Ġc":468,"Ġyake":469,"Ġhao":470,"Ġmwaka":471,"Ġwakati":472,"idi":473,"Ġt":474,"Ġmba":475,"Ġame":476,"bili":477,"sh":478,"Ġkwenye":479,"Ġkua":480,"Ġko":481,"Ġishiri":482,"nzania":483,"Ġishirini":484,"vu":485,"Ġkui":486,"Ġkuo":487,"yu":488,"Ġmia":489,"Ġshi":490,"Ġf":491,"ongozi":492,"Ġime":493,"mia":494,"Ġhuyo":495,"Ġo":496,"Ġmaa":497,"ria":498,"bunge":499,"Ġkumi":500,"mbe":501,"Ġwake":502,"nde":503,"Ġtimu":504,"mbi":505,"sho":506,"Ġwame":507,"Ġhayo":508,"dai":509,"lio":510,"Ġkutokana":511,"Ġsaba":512,"shwa":513,"Ġpo":514,"Ġkwamba":515,"pata":516,"do":517,"lu":518,"zungu":519,"Ġhata":520,"Ġwata":521,"ifa":522,"kia":523,"Ġmbili":524,"kama":525,"Ġsasa":526,"Ġmkuu":527,"Ġndi":528,"nchi":529,"Ġmko":530,"Ġjana":531,"Ġmbali":532,"is":533,"chezaji":534,"Ġtanzania":535,"laa":536,"mbu":537,"takiwa":538,"Ġmaha":539,"zungum":540,"Ġwaki":541,"Ġtaa":542,"Ġkutoka":543,"hidi":544,"Ġkuji":545,"Ġwananchi":546,"Ġke":547,"nu":548,"Ġhali":549,"Ġwalio":550,"nja":551,"Ġkuu":552,"gi":553,"Ġambayo":554,"Ġambao":555,"zwa":556,"ngwa":557,"Ġdar":558,"Ġkum":559,"Ġes":560,"Ġkazi":561,"Ġmaji":562,"endelea":563,"Ġhizo":564,"Ġle":565,"Ġtano":566,"Ġfe":567,"Ġsalaa":568,"neo":569,"Ġiliyo":570,"Ġho":571,"Ġsalaam":572,"Ġtatu":573,"Ġpamoja":574,"so":575,"Ġuna":576,"bo":577,"Ġzaidi":578,"Ġkila":579,"Ġhatu":580,"Ġambaye":581,"tia":582,"Ġuta":583,"Ġnchini":584,"vi":585,"Ġmwi":586,"Ġkam":587,"kwe":588,"ini":589,"zuri":590,"Ġwao":591,"Ġchama":592,"mani":593,"weza":594,"Ġmahakama":595,"Ġpia":596,"Ġye":597,"Ġkufanya":598,"laya":599,"nya":600,"wo":601,"Ġambapo":602,"toa":603,"Ġwazi":604,"Ġhuku":605,"Ġga":606,"Ġbo":607,"Ġhicho":608,"thi":609,"Ġviongozi":610,"Ġrais":611,"mbali":612,"jili":613,"Ġkupi":614,"Ġwachezaji":615,"Ġyao":616,"Ġita":617,"Ġnyi":618,"kta":619,"jini":620,"Ġmka":621,"Ġthe":622,"Ġfedha":623,"Ġte":624,"sia":625,"Ġsiku":626,"Ġmkoa":627,"Ġshe":628,"toke":629,"Ġhuu":630,"Ġmbalimbali":631,"chezo":632,"sini":633,"Ġnne":634,"ndani":635,"Ġtisa":636,"Ġkuli":637,"Ġtaifa":638,"Ġbe":639,"Ġaf":640,"lisi":641,"Ġmechi":642,"Ġhadi":643,"rifa":644,"Ġmara":645,"Ġsita":646,"jia":647,"Ġkwe":648,"Ġnafa":649,"Ġmsi":650,"Ġhatua":651,"Ġp":652,"kwa":653,"Ġkwani":654,"du":655,"Ġkuhu":656,"Ġwilaya":657,"Ġtaarifa":658,"kio":659,"Ġnafasi":660,"Ġmwenye":661,"Ġupa":662,"Ġkili":663,"Ġshu":664,"Ġkutoa":665,"Ġbibi":666,"Ġpolisi":667,"Ġnyu":668,"fanyi":669,"be":670,"Ġkufu":671,"liwa":672,"lingi":673,"puni":674,"Ġbara":675,"Ġmaba":676,"Ġzina":677,"tumia":678,"zungumza":679,"Ġbaadhi":680,"Ġde":681,"Ġkampuni":682,"Ġshilingi":683,"sili":684,"uala":685,"wanja":686,"Ġau":687,"bari":688,"Ġmmoja":689,"cm":690,"kisha":691,"pita":692,"Ġyanga":693,"ngeza":694,"guzi":695,"Ġwo":696,"lewa":697,"Ġzili":698,"Ġmasha":699,"ndu":700,"Ġccm":701,"Ġhabari":702,"ndwa":703,"baini":704,"fisa":705,"Ġfa":706,"Ġso":707,"Ġkuta":708,"Ġkubwa":709,"Ġkwanza":710,"Ġje":711,"Ġume":712,"Ġkuna":713,"ina":714,"Ġndani":715,"Ġnane":716,"Ġaliye":717,"Ġzao":718,"amu":719,"Ġto":720,"Ġpe":721,"Ġmtu":722,"Ġwaziri":723,"tizo":724,"one":725,"Ġhaku":726,"Ġmuda":727,"Ġkitu":728,"Ġmashi":729,"Ġmwe":730,"yote":731,"Ġtuna":732,"ktari":733,"uli":734,"ngia":735,"lioni":736,"mini":737,"Ġligi":738,"Ġzo":739,"Ġmata":740,"Ġkusa":741,"weze":742,"Ġmambo":743,"chuku":744,"Ġeneo":745,"Ġhawa":746,"Ġupande":747,"Ġuli":748,"Ġnyumba":749,"Ġkuka":750,"Ġyali":751,"Ġajili":752,"Ġmaka":753,"Ġmpa":754,"tumi":755,"de":756,"Ġucha":757,"Ġdaktari":758,"Ġsababu":759,"twa":760,"Ġwanao":761,"Ġchi":762,"Ġmaku":763,"Ġuwanja":764,"kiti":765,"taa":766,"Ġmwana":767,"Ġsimba":768,"Ġmchezo":769,"ribu":770,"Ġj":771,"Ġhaki":772,"Ġsheria":773,"dili":774,"hemu":775,"shitakiwa":776,"Ġsana":777,"toto":778,"Ġwengine":779,"haki":780,"Ġg":781,"Ġsuala":782,"Ġbila":783,"Ġjuu":784,"shindwa":785,"Ġwenye":786,"Ġkamati":787,"Ġsu":788,"Ġkesi":789,"sisi":790,"Ġjuma":791,"Ġru":792,"Ġkupa":793,"Ġkupata":794,"Ġhii":795,"Ġuchaguzi":796,"Ġmas":797,"bisha":798,"Ġndio":799,"Ġiki":800,"anza":801,"Ġmsa":802,"Ġbunge":803,"Ġwengi":804,"Ġlili":805,"Ġdhidi":806,"limu":807,"Ġhapa":808,"jwa":809,"bia":810,"Ġbu":811,"Ġmgo":812,"Ġulio":813,"wali":814,"Ġleo":815,"fanyika":816,"Ġyana":817,"kuta":818,"fani":819,"Ġngu":820,"Ġkocha":821,"jua":822,"Ġwaa":823,"Ġsha":824,"eleza":825,"nti":826,"mali":827,"Ġwote":828,"Ġkuhusu":829,"raka":830,"Ġkla":831,"Ġdu":832,"Ġklabu":833,"Ġkuwe":834,"uri":835,"shu":836,"yari":837,"mbia":838,"nzo":839,"Ġuwe":840,"Ġakizungumza":841,"mili":842,"Ġkufi":843,"Ġhapo":844,"ghu":845,"Ġtukio":846,"thini":847,"kari":848,"bathini":849,"Ġthebathini":850,"Ġdo":851,"Ġmare":852,"Ġinayo":853,"Ġkab":854,"Ġmwenyekiti":855,"Ġhivi":856,"Ġkusi":857,"Ġalikuwa":858,"Ġtayari":859,"va":860,"Ġikiwa":861,"shiriki":862,"shara":863,"Ġzote":864,"isha":865,"tolewa":866,"mla":867,"zaji":868,"Ġkute":869,"Ġtume":870,"dini":871,"Ġnje":872,"Ġri":873,"Ġkina":874,"tibu":875,"jana":876,"Ġmiaka":877,"Ġnyingine":878,"dala":879,"wili":880,"Ġuchu":881,"Ġmae":882,"riki":883,"Ġal":884,"Ġkabla":885,"endeleo":886,"Ġambazo":887,"ghuli":888,"Ġzilizo":889,"taji":890,"Ġkipi":891,"Ġkwenda":892,"Ġham":893,"Ġafrika":894,"Ġmbunge":895,"Ġjambo":896,"Ġofi":897,"Ġkaribu":898,"Ġusa":899,"Ġbado":900,"kea":901,"Ġhili":902,"Ġjuzi":903,"Ġjo":904,"kosa":905,"idia":906,"Ġmaeneo":907,"Ġhai":908,"lala":909,"Ġute":910,"ssa":911,"Ġata":912,"Ġmaendeleo":913,"shauri":914,"uti":915,"jibu":916,"Ġalipo":917,"Ġhakuna":918,"zima":919,"pya":920,"Ġakiwa":921,"Ġvizuri":922,"Ġmfu":923,"dogo":924,"Ġanasema":925,"tano":926,"miwa":927,"Ġpili":928,"babisha":929,"Ġwiki":930,"Ġlina":931,"kosi":932,"Ġkauli":933,"Ġkikwe":934,"Ġkikwete":935,"kili":936,"ratibu":937,"Ġchini":938,"ndishi":939,"fisadi":940,"Ġhasa":941,"Ġmkubwa":942,"ia":943,"Ġhe":944,"hara":945,"chama":946,"Ġhamsini":947,"Ġmabao":948,"she":949,"Ġas":950,"daiwa":951,"tara":952,"fiki":953,"ve":954,"sika":955,"Ġkima":956,"Ġushi":957,"Ġmiko":958,"Ġnya":959,"futa":960,"Ġtatizo":961,"Ġwabunge":962,"Ġvijana":963,"wezi":964,"ende":965,"Ġmb":966,"ada":967,"Ġnaye":968,"Ġre":969,"zia":970,"amuzi":971,"tokea":972,"ona":973,"ce":974,"kazi":975,"njwa":976,"Ġwafanya":977,"mii":978,"mbea":979,"Ġuwezo":980,"Ġfu":981,"Ġmwisho":982,"nyi":983,"Ġmazi":984,"oni":985,"Ġchu":986,"omba":987,"chukua":988,"Ġkutumia":989,"duma":990,"Ġofisi":991,"Ġsta":992,"Ġaliwa":993,"Ġkatibu":994,"Ġkuanzi":995,"Ġkikosi":996,"asi":997,"Ġwatoto":998,"Ġhuduma":999,"Ġsoka":1000,"hakikisha":1001,"sta":1002,"Ġbora":1003,"Ġkura":1004,"Ġmcha":1005,"fauti":1006,"Ġmaisha":1007,"Ġmilioni":1008,"radi":1009,"Ġjijini":1010,"taba":1011,"Ġnjia":1012,"rudi":1013,"mika":1014,"Ġshule":1015,"bingwa":1016,"Ġwaku":1017,"piga":1018,"Ġaro":1019,"unga":1020,"Ġel":1021,"Ġmali":1022,"kele":1023,"Ġzake":1024,"Ġusi":1025,"ch":1026,"Ġelimu":1027,"Ġbao":1028,"Ġnyingi":1029,"Ġarobaini":1030,"Ġsaa":1031,"Ġzinazo":1032,"pungu":1033,"Ġtofauti":1034,"Ġhos":1035,"Ġwasi":1036,"Ġmkoani":1037,"Ġambalo":1038,"Ġkupitia":1039,"Ġmjini":1040,"Ġdunia":1041,"Ġmaana":1042,"pele":1043,"hitaji":1044,"Ġawali":1045,"Ġyaliyo":1046,"Ġuamuzi":1047,"tendo":1048,"Ġlu":1049,"kuba":1050,"ano":1051,"Ġjeshi":1052,"Ġdha":1053,"Ġkuongeza":1054,"Ġkuzi":1055,"ndaji":1056,"Ġasili":1057,"Ġmbele":1058,"shinda":1059,"Ġwanachama":1060,"ci":1061,"ezi":1062,"dhaa":1063,"Ġhospita":1064,"wemo":1065,"Ġkipindi":1066,"ibu":1067,"bara":1068,"Ġhospitali":1069,"kika":1070,"Ġuongozi":1071,"pewa":1072,"Ġelfu":1073,"Ġjamii":1074,"Ġpro":1075,"el":1076,"Ġkuhakikisha":1077,"Ġsehemu":1078,"Ġmpaka":1079,"Ġmpi":1080,"fika":1081,"Ġtena":1082,"Ġaka":1083,"Ġzime":1084,"Ġjimbo":1085,"mwa":1086,"Ġyo":1087,"tini":1088,"lisha":1089,"Ġida":1090,"Ġlo":1091,"ca":1092,"Ġkiu":1093,"Ġbadala":1094,"ywa":1095,"swa":1096,"himu":1097,"Ġgari":1098,"Ġshughuli":1099,"goro":1100,"rs":1101,"Ġge":1102,"taifa":1103,"ruge":1104,"saidia":1105,"hari":1106,"Ġkika":1107,"Ġkiasi":1108,"gonjwa":1109,"rugenzi":1110,"Ġwatanzania":1111,"funzi":1112,"Ġuhu":1113,"Ġwakiwa":1114,"Ġmchezaji":1115,"Ġbarabara":1116,"Ġlengo":1117,"Ġmada":1118,"Ġalio":1119,"Ġtangu":1120,"Ġmawa":1121,"kwenda":1122,"ida":1123,"ngaza":1124,"Ġkuondo":1125,"Ġbina":1126,"Ġwakazi":1127,"ngira":1128,"Ġwale":1129,"lama":1130,"Ġkupo":1131,"Ġwalikuwa":1132,"Ġkiwa":1133,"Ġdakika":1134,"faa":1135,"zara":1136,"Ġmengi":1137,"Ġyeye":1138,"poti":1139,"Ġkweli":1140,"tisha":1141,"Ġkipa":1142,"ter":1143,"chuano":1144,"Ġwizara":1145,"Ġro":1146,"fe":1147,"nki":1148,"fua":1149,"Ġum":1150,"biki":1151,"Ġvyo":1152,"Ġilikuwa":1153,"Ġmahakamani":1154,"Ġmichuano":1155,"nguzi":1156,"Ġmkutano":1157,"Ġco":1158,"Ġmimi":1159,"Ġyenye":1160,"Ġmbe":1161,"Ġnguvu":1162,"Ġmape":1163,"Ġjina":1164,"zungumzia":1165,"ck":1166,"ndano":1167,"ry":1168,"Ġwashitakiwa":1169,"Ġmpira":1170,"Ġmazingira":1171,"nsi":1172,"Ġndo":1173,"Ġfi":1174,"Ġche":1175,"Ġkuanza":1176,"Ġmashitaka":1177,"lamu":1178,"Ġushindi":1179,"Ġmkataba":1180,"humiwa":1181,"Ġasilimia":1182,"Ġmshitakiwa":1183,"Ġmta":1184,"Ġusha":1185,"jumbe":1186,"zeti":1187,"Ġhoja":1188,"Ġmajira":1189,"Ġuki":1190,"jiji":1191,"Ġkuona":1192,"Ġtaasisi":1193,"Ġmre":1194,"Ġar":1195,"Ġsimu":1196,"co":1197,"Ġvyama":1198,"Ġvyombo":1199,"son":1200,"Ġkituo":1201,"Ġkilimo":1202,"Ġalidai":1203,"Ġkusema":1204,"Ġwetu":1205,"Ġmwingine":1206,"Ġmkazi":1207,"Ġdeci":1208,"Ġmaja":1209,"tiza":1210,"Ġpoi":1211,"Ġhaya":1212,"Ġmaele":1213,"liana":1214,"Ġmsingi":1215,"Ġyanayo":1216,"Ġpointi":1217,"wani":1218,"Ġmatatizo":1219,"muzi":1220,"fsi":1221,"Ġmabo":1222,"Ġmashindano":1223,"Ġvitu":1224,"Ġnini":1225,"onekana":1226,"Ġkuendelea":1227,"shirikia":1228,"bar":1229,"hoji":1230,"Ġkutu":1231,"Ġkawa":1232,"sisitiza":1233,"Ġmarehemu":1234,"gwa":1235,"tokana":1236,"Ġyu":1237,"fo":1238,"Ġnga":1239,"Ġkiongozi":1240,"Ġwaandishi":1241,"mea":1242,"Ġvita":1243,"Ġbia":1244,"nzibar":1245,"Ġafya":1246,"Ġndiyo":1247,"Ġaina":1248,"amua":1249,"Ġkundi":1250,"Ġmkono":1251,"Ġamesema":1252,"Ġkuki":1253,"Ġkuja":1254,"Ġmita":1255,"uaji":1256,"ly":1257,"dia":1258,"Ġuja":1259,"Ġaskari":1260,"nzani":1261,"Ġnamba":1262,"tikana":1263,"Ġzanzibar":1264,"Ġmkurugenzi":1265,"Ġkaribuni":1266,"Ġsabi":1267,"Ġwamekuwa":1268,"nne":1269,"Ġsitini":1270,"Ġlime":1271,"amini":1272,"zazi":1273,"Ġbenki":1274,"Ġtisini":1275,"Ġuchunguzi":1276,"Ġmapa":1277,"lazi":1278,"Ġmradi":1279,"lla":1280,"kani":1281,"Ġwafanyakazi":1282,"risha":1283,"Ġufisadi":1284,"Ġlazima":1285,"Ġmashabiki":1286,"Ġkiku":1287,"mbana":1288,"fafan":1289,"ted":1290,"Ġmsimu":1291,"Ġsabini":1292,"faha":1293,"Ġkimataifa":1294,"sto":1295,"Ġyote":1296,"Ġgazeti":1297,"Ġkufua":1298,"rua":1299,"Ġmao":1300,"kula":1301,"Ġkucheza":1302,"Ġmaalu":1303,"Ġze":1304,"Ġbilioni":1305,"Ġkamanda":1306,"Ġkushindwa":1307,"kabili":1308,"enda":1309,"Ġnili":1310,"nua":1311,"Ġmatoke":1312,"Ġaliyekuwa":1313,"Ġmakubwa":1314,"Ġmatokeo":1315,"rd":1316,"Ġkucha":1317,"funga":1318,"Ġwilayani":1319,"Ġdini":1320,"Ġvile":1321,"Ġmujibu":1322,"Ġnao":1323,"Ġmoro":1324,"gumu":1325,"zalisha":1326,"kati":1327,"Ġstars":1328,"sababisha":1329,"Ġkule":1330,"mbulia":1331,"onesha":1332,"ngalia":1333,"maa":1334,"manini":1335,"Ġthemanini":1336,"Ġmama":1337,"Ġkabi":1338,"kutana":1339,"Ġmikoa":1340,"Ġyoyote":1341,"Ġmichezo":1342,"pwa":1343,"Ġuni":1344,"siasa":1345,"Ġbiashara":1346,"Ġmti":1347,"Ġwate":1348,"Ġunao":1349,"Ġkuanzia":1350,"Ġiliyopita":1351,"biashara":1352,"Ġfaina":1353,"Ġushahidi":1354,"Ġfainali":1355,"Ġhati":1356,"Ġprofe":1357,"Ġkutaka":1358,"med":1359,"Ġwanawa":1360,"Ġmaje":1361,"misha":1362,"Ġchake":1363,"nyesha":1364,"fanywa":1365,"Ġmfa":1366,"Ġkumali":1367,"Ġumeme":1368,"ndari":1369,"Ġuje":1370,"paswa":1371,"Ġlake":1372,"Ġwanafunzi":1373,"Ġnyumbani":1374,"asa":1375,"kubali":1376,"Ġprofesa":1377,"Ġwala":1378,"Ġmamla":1379,"ngeze":1380,"Ġmamlaka":1381,"lima":1382,"Ġkesho":1383,"Ġmaga":1384,"Ġkuwepo":1385,"ndaa":1386,"Ġbaadaye":1387,"Ġmpya":1388,"Ġshirika":1389,"ingia":1390,"Ġkuje":1391,"baki":1392,"fungu":1393,"Ġnzuri":1394,"Ġanaye":1395,"Ġmpango":1396,"Ġkata":1397,"kuja":1398,"nduzi":1399,"Ġunited":1400,"liano":1401,"st":1402,"Ġaja":1403,"weka":1404,"lma":1405,"Ġkuvu":1406,"Ġsiasa":1407,"Ġyetu":1408,"Ġgani":1409,"Ġbali":1410,"Ġjinsi":1411,"Ġkikao":1412,"Ġmatumi":1413,"Ġmatumizi":1414,"Ġmabingwa":1415,"mizi":1416,"Ġmengine":1417,"Ġkuku":1418,"man":1419,"geni":1420,"Ġkilicho":1421,"reje":1422,"tarajia":1423,"Ġmaelezo":1424,"teza":1425,"Ġcu":1426,"Ġuka":1427,"Ġkambi":1428,"reza":1429,"Ġwanawake":1430,"Ġwapi":1431,"Ġmakosa":1432,"Ġmauaji":1433,"Ġchade":1434,"Ġchadema":1435,"mana":1436,"Ġlililo":1437,"Ġwawili":1438,"Ġitakuwa":1439,"Ġmrefu":1440,"Ġdawa":1441,"Ġdodo":1442,"Ġmtoto":1443,"Ġkiwango":1444,"Ġmatu":1445,"Ġhalma":1446,"Ġuha":1447,"Ġidadi":1448,"Ġdodoma":1449,"wala":1450,"Ġkitendo":1451,"kweli":1452,"Ġmsaada":1453,"kezaji":1454,"zee":1455,"Ġkawaida":1456,"Ġhalmashauri":1457,"Ġndu":1458,"Ġah":1459,"Ġmisa":1460,"Ġmabomu":1461,"tokeza":1462,"endesha":1463,"Ġusiku":1464,"Ġcho":1465,"Ġinga":1466,"Ġsisi":1467,"Ġwalimu":1468,"Ġingawa":1469,"shambulia":1470,"Ġambacho":1471,"penda":1472,"husika":1473,"Ġnia":1474,"Ġilivyo":1475,"Ġwenza":1476,"Ġkujua":1477,"Ġmadai":1478,"fanikiwa":1479,"Ġbinafsi":1480,"Ġujenzi":1481,"Ġnina":1482,"Ġbasi":1483,"Ġkuweka":1484,"Ġchanzo":1485,"Ġmbi":1486,"Ġnam":1487,"Ġkwake":1488,"Ġman":1489,"Ġsekta":1490,"sisha":1491,"mbano":1492,"Ġkabisa":1493,"shia":1494,"Ġbaraza":1495,"lizi":1496,"baya":1497,"Ġamani":1498,"Ġshiriki":1499,"Ġutaratibu":1500,"Ġkuha":1501,"mbua":1502,"ruhi":1503,"Ġkodi":1504,"Ġkuchukua":1505,"fadhi":1506,"fungwa":1507,"Ġno":1508,"Ġchakula":1509,"Ġmwezi":1510,"Ġaliongeza":1511,"mui":1512,"Ġkufikia":1513,"jiwa":1514,"tumika":1515,"Ġl":1516,"Ġkijiji":1517,"toka":1518,"Ġmasuala":1519,"Ġmapi":1520,"ff":1521,"pokuwa":1522,"Ġyame":1523,"Ġukweli":1524,"Ġharaka":1525,"Ġmaanda":1526,"milia":1527,"Ġnye":1528,"biri":1529,"Ġghara":1530,"Ġshirikisho":1531,"Ġvina":1532,"taja":1533,"Ġuga":1534,"Ġuhuru":1535,"lazimika":1536,"hiri":1537,"Ġmoha":1538,"Ġca":1539,"tarajiwa":1540,"Ġgharama":1541,"Ġnde":1542,"wanda":1543,"Ġufu":1544,"Ġmuhimu":1545,"Ġmte":1546,"Ġmbo":1547,"kumu":1548,"Ġnime":1549,"sheria":1550,"ongoza":1551,"diliko":1552,"Ġkusababisha":1553,"fafanua":1554,"Ġmika":1555,"rahi":1556,"Ġmabadiliko":1557,"Ġmar":1558,"Ġkadhaa":1559,"nisha":1560,"Ġwalisema":1561,"tea":1562,"Ġkita":1563,"Ġmazo":1564,"nal":1565,"Ġab":1566,"Ġimani":1567,"wapo":1568,"zika":1569,"Ġnamna":1570,"siana":1571,"Ġpeke":1572,"jiri":1573,"Ġmadini":1574,"Ġdi":1575,"Ġhumo":1576,"Ġrushwa":1577,"Ġkupungu":1578,"sasi":1579,"dhara":1580,"xi":1581,"badili":1582,"tiwa":1583,"sani":1584,"silisha":1585,"panga":1586,"Ġtff":1587,"Ġndugu":1588,"Ġsawa":1589,"Ġmazoezi":1590,"Ġmbaya":1591,"Ġkombe":1592,"Ġwaliokuwa":1593,"ondo":1594,"Ġpale":1595,"Ġkenya":1596,"Ġuma":1597,"Ġimekuwa":1598,"Ġuchumi":1599,"Ġwako":1600,"Ġmale":1601,"dau":1602,"Ġtanga":1603,"subiri":1604,"Ġkuingia":1605,"Ġkushinda":1606,"zuia":1607,"Ġmiongo":1608,"ishi":1609,"kra":1610,"zidi":1611,"fikia":1612,"gombea":1613,"patikana":1614,"fahamu":1615,"wahi":1616,"Ġmafuta":1617,"mua":1618,"Ġhakimu":1619,"fari":1620,"Ġtaratibu":1621,"Ġitaka":1622,"Ġr":1623,"Ġkurudi":1624,"lani":1625,"Ġkusima":1626,"Ġat":1627,"biti":1628,"Ġkuele":1629,"guu":1630,"Ġkupiga":1631,"Ġbei":1632,"Ġmafani":1633,"Ġne":1634,"Ġmwanza":1635,"Ġvu":1636,"Ġcuf":1637,"Ġvye":1638,"Ġkuone":1639,"Ġmajina":1640,"moto":1641,"rusha":1642,"Ġbungeni":1643,"Ġmgombea":1644,"Ġmafanikio":1645,"Ġjoh":1646,"Ġmfano":1647,"Ġnu":1648,"zea":1649,"Ġkujenga":1650,"Ġyangu":1651,"Ġnyo":1652,"Ġpinda":1653,"Ġgha":1654,"tiba":1655,"husu":1656,"Ġkile":1657,"mishi":1658,"kofu":1659,"Ġmapinduzi":1660,"Ġjohn":1661,"wepo":1662,"Ġtuta":1663,"peni":1664,"Ġkinacho":1665,"Ġduniani":1666,"Ġwadau":1667,"Ġmaxi":1668,"zito":1669,"Ġisi":1670,"kamatwa":1671,"Ġajali":1672,"Ġmaximo":1673,"Ġin":1674,"Ġndiye":1675,"Ġmorogoro":1676,"resha":1677,"Ġalim":1678,"Ġhuko":1679,"nisa":1680,"Ġkampeni":1681,"Ġmohamed":1682,"Ġile":1683,"rufu":1684,"Ġusalama":1685,"spa":1686,"Ġumma":1687,"kiri":1688,"Ġlicha":1689,"Ġmiongoni":1690,"gua":1691,"Ġuhaki":1692,"Ġbarua":1693,"Ġkuacha":1694,"Ġmsima":1695,"Ġmga":1696,"Ġkuti":1697,"jeti":1698,"Ġmako":1699,"Ġupi":1700,"Ġbajeti":1701,"lalami":1702,"Ġkiba":1703,"Ġmafu":1704,"undo":1705,"Ġmfumo":1706,"Ġmarekani":1707,"Ġua":1708,"Ġubingwa":1709,"ran":1710,"th":1711,"Ġtuli":1712,"us":1713,"soma":1714,"Ġkupambana":1715,"Ġutekele":1716,"sea":1717,"Ġkuhusiana":1718,"Ġkushu":1719,"Ġhaja":1720,"Ġmicha":1721,"Ġdara":1722,"chukuliwa":1723,"Ġwataka":1724,"Ġmaju":1725,"Ġmade":1726,"Ġmitaa":1727,"gala":1728,"Ġardhi":1729,"Ġahly":1730,"Ġwangu":1731,"kaya":1732,"ngene":1733,"Ġwakulima":1734,"shambuliaji":1735,"Ġndege":1736,"Ġkime":1737,"Ġulinzi":1738,"Ġmapema":1739,"shirikiana":1740,"jo":1741,"Ġkunu":1742,"tezi":1743,"Ġed":1744,"hada":1745,"kuru":1746,"Ġsafari":1747,"Ġjumla":1748,"Ġai":1749,"Ġchanga":1750,"fiti":1751,"keleza":1752,"lali":1753,"pili":1754,"Ġjaji":1755,"Ġkutafuta":1756,"Ġkikubwa":1757,"Ġgo":1758,"Ġzita":1759,"Ġpekee":1760,"Ġndipo":1761,"Ġwakili":1762,"Ġsoko":1763,"in":1764,"Ġkanu":1765,"Ġhassa":1766,"dhani":1767,"Ġmagari":1768,"Ġmdogo":1769,"huma":1770,"Ġfamilia":1771,"Ġasu":1772,"Ġugonjwa":1773,"Ġjakaya":1774,"Ġmadaraka":1775,"Ġmapato":1776,"Ġkisha":1777,"Ġtabia":1778,"Ġakizungumzia":1779,"Ġamekuwa":1780,"muiya":1781,"Ġmiundo":1782,"Ġtuhuma":1783,"Ġnyuma":1784,"Ġwazazi":1785,"chwa":1786,"Ġkwao":1787,"Ġmbagala":1788,"Ġuwanjani":1789,"Ġjumuiya":1790,"Ġjumapili":1791,"peleka":1792,"Ġuhakika":1793,"nt":1794,"kuwepo":1795,"Ġhusika":1796,"nyo":1797,"Ġalii":1798,"bora":1799,"Ġmisaada":1800,"rt":1801,"Ġkanuni":1802,"Ġulaya":1803,"Ġmaamuzi":1804,"Ġwapo":1805,"Ġhazi":1806,"Ġujao":1807,"Ġasubu":1808,"Ġenda":1809,"Ġasubuhi":1810,"Ġngo":1811,"Ġhawana":1812,"Ġaliyo":1813,"ster":1814,"Ġvibaya":1815,"Ġhatari":1816,"Ġkupunguza":1817,"Ġhassan":1818,"ridhi":1819,"Ġkisiasa":1820,"Ġmwalimu":1821,"Ġkuliko":1822,"Ġkidogo":1823,"Ġalitoa":1824,"kata":1825,"changia":1826,"siano":1827,"Ġendapo":1828,"vo":1829,"Ġkosa":1830,"Ġofisa":1831,"nyu":1832,"Ġkudai":1833,"Ġkushiriki":1834,"lahi":1835,"kezo":1836,"Ġchangamoto":1837,"Ġarusha":1838,"Ġule":1839,"mbinu":1840,"Ġkumu":1841,"Ġiwapo":1842,"keza":1843,"Ġras":1844,"Ġumoja":1845,"sti":1846,"Ġadha":1847,"Ġuko":1848,"Ġkisa":1849,"Ġusajili":1850,"Ġap":1851,"Ġchuo":1852,"Ġmaalumu":1853,"sima":1854,"Ġsio":1855,"Ġwatuhumiwa":1856,"Ġkuleta":1857,"Ġkasi":1858,"mokra":1859,"Ġkukabi":1860,"haribi":1861,"dhu":1862,"Ġkubo":1863,"Ġkanisa":1864,"ngatia":1865,"Ġmakini":1866,"Ġkim":1867,"Ġbidhaa":1868,"Ġwatatu":1869,"ngwe":1870,"firi":1871,"Ġmiundombinu":1872,"Ġuku":1873,"Ġumri":1874,"ingi":1875,"Ġmiguu":1876,"Ġbusa":1877,"miliki":1878,"jitokeza":1879,"nze":1880,"land":1881,"elele":1882,"Ġmene":1883,"gera":1884,"gemea":1885,"Ġteme":1886,"Ġvitendo":1887,"Ġtha":1888,"Ġmashariki":1889,"Ġhau":1890,"Ġvituo":1891,"Ġmsimamo":1892,"Ġutekelezaji":1893,"kwi":1894,"Ġkukosa":1895,"Ġkufunga":1896,"Ġmke":1897,"Ġkifo":1898,"Ġalisisitiza":1899,"Ġrasmi":1900,"Ġkue":1901,"Ġkuwapa":1902,"Ġvifaa":1903,"Ġtemeke":1904,"Ġmafisadi":1905,"Ġambavyo":1906,"Ġkutosha":1907,"Ġmoto":1908,"Ġkuangalia":1909,"zalishaji":1910,"ph":1911,"Ġmzee":1912,"lipu":1913,"Ġkupewa":1914,"Ġnaibu":1915,"Ġumu":1916,"Ġkagera":1917,"Ġumuhimu":1918,"Ġmaslahi":1919,"Ġmbeya":1920,"Ġmafunzo":1921,"Ġmzuri":1922,"mbazi":1923,"Ġmungu":1924,"Ġdhamana":1925,"id":1926,"shika":1927,"Ġkuondoka":1928,"Ġwawe":1929,"kato":1930,"tangaza":1931,"Ġwil":1932,"wote":1933,"Ġbodi":1934,"Ġwowote":1935,"Ġwashiriki":1936,"ngaji":1937,"ndika":1938,"Ġmwili":1939,"Ġkusaidia":1940,"Ġkufika":1941,"mko":1942,"ripoti":1943,"lam":1944,"Ġipo":1945,"jijini":1946,"Ġwataa":1947,"Ġkumaliza":1948,"Ġwaweze":1949,"Ġwenyewe":1950,"Ġmji":1951,"Ġhizi":1952,"saba":1953,"dhibiti":1954,"Ġndogo":1955,"Ġapri":1956,"dri":1957,"Ġwajumbe":1958,"Ġkubaini":1959,"Ġura":1960,"mbele":1961,"reva":1962,"Ġwafanyabiashara":1963,"Ġkusini":1964,"ngana":1965,"mokrasia":1966,"Ġwagonjwa":1967,"hili":1968,"juli":1969,"Ġaliwataka":1970,"rejea":1971,"Ġadhabu":1972,"Ġkula":1973,"Ġnayo":1974,"Ġmwakani":1975,"Ġmajibu":1976,"ume":1977,"fariki":1978,"Ġzamani":1979,"pigwa":1980,"rugu":1981,"nyume":1982,"miza":1983,"Ġkinyume":1984,"Ġmifu":1985,"Ġviwanja":1986,"Ġmalipo":1987,"kaa":1988,"ongozwa":1989,"Ġjioni":1990,"Ġkuomba":1991,"Ġhaina":1992,"lote":1993,"Ġuganda":1994,"rti":1995,"hihi":1996,"Ġuju":1997,"Ġfo":1998,"Ġrisasi":1999,"ita":2000,"Ġkufanyika":2001,"Ġkisheria":2002,"shanga":2003,"milika":2004,"Ġkusikili":2005,"Ġmaandalizi":2006,"Ġkueleza":2007,"mano":2008,"Ġila":2009,"lea":2010,"Ġkatiba":2011,"Ġhofu":2012,"Ġkukaa":2013,"Ġwenzake":2014,"Ġambako":2015,"Ġmalengo":2016,"Ġmitambo":2017,"damu":2018,"Ġvili":2019,"Ġvingine":2020,"jui":2021,"Ġmuunga":2022,"Ġmchakato":2023,"Ġidara":2024,"Ġlolote":2025,"Ġupinzani":2026,"Ġmis":2027,"Ġkufungwa":2028,"Ġkubadili":2029,"hudi":2030,"Ġmanche":2031,"on":2032,"Ġuzalishaji":2033,"Ġhana":2034,"buni":2035,"Ġwalipo":2036,"wezesha":2037,"Ġmuungano":2038,"Ġmane":2039,"Ġjuni":2040,"Ġhasara":2041,"Ġaprili":2042,"Ġmanchester":2043,"Ġmaneno":2044,"staa":2045,"Ġbaba":2046,"ibuka":2047,"Ġmaofisa":2048,"hisi":2049,"ndia":2050,"ngea":2051,"Ġseko":2052,"thirika":2053,"wezekana":2054,"Ġdola":2055,"Ġmshambuliaji":2056,"Ġmani":2057,"bitisha":2058,"mond":2059,"thibitisha":2060,"Ġjose":2061,"manja":2062,"Ġhuru":2063,"Ġmakundi":2064,"Ġmbegu":2065,"Ġsekondari":2066,"uzi":2067,"Ġmna":2068,"Ġkali":2069,"endeleza":2070,"Ġamewa":2071,"hani":2072,"Ġndoa":2073,"Ġkha":2074,"tilia":2075,"Ġsila":2076,"Ġbandari":2077,"Ġvipi":2078,"Ġvurugu":2079,"Ġyata":2080,"Ġmago":2081,"Ġmaso":2082,"Ġmaoni":2083,"kto":2084,"ngele":2085,"ndic":2086,"Ġkondic":2087,"ver":2088,"Ġvika":2089,"gar":2090,"Ġjuhudi":2091,"fanyiwa":2092,"shindi":2093,"Ġraia":2094,"spaa":2095,"lipuko":2096,"Ġmanispaa":2097,"Ġsilaha":2098,"Ġsahihi":2099,"Ġshahidi":2100,"Ġutetezi":2101,"kilishi":2102,"Ġitakayo":2103,"Ġmse":2104,"Ġnani":2105,"ndua":2106,"husisha":2107,"Ġmiezi":2108,"Ġkulipwa":2109,"Ġngazi":2110,"Ġmichael":2111,"Ġkushirikiana":2112,"rica":2113,"penzi":2114,"dhamini":2115,"Ġjiji":2116,"Ġmaalum":2117,"Ġwafu":2118,"Ġmataifa":2119,"Ġikiwemo":2120,"Ġnusu":2121,"Ġkuboresha":2122,"Ġabi":2123,"Ġushirikia":2124,"Ġkilimanja":2125,"Ġutendaji":2126,"Ġushirikiano":2127,"Ġkilimanjaro":2128,"Ġkai":2129,"kufa":2130,"Ġdemokrasia":2131,"Ġmacho":2132,"Ġuvu":2133,"shati":2134,"Ġmwanzo":2135,"keti":2136,"Ġsaid":2137,"Ġmazuri":2138,"Ġziki":2139,"Ġiliyokuwa":2140,"staafu":2141,"Ġmabe":2142,"panda":2143,"Ġmipa":2144,"Ġutafiti":2145,"Ġmawili":2146,"Ġviwanda":2147,"ngezeka":2148,"wasi":2149,"singi":2150,"Ġsare":2151,"Ġyeyote":2152,"Ġafrica":2153,"fanyia":2154,"Ġmajeruhi":2155,"ast":2156,"kumbu":2157,"Ġmiradi":2158,"mbwa":2159,"Ġfulani":2160,"kri":2161,"Ġkuko":2162,"Ġmazungum":2163,"Ġnishati":2164,"Ġmgogoro":2165,"Ġaskofu":2166,"Ġmazungumzo":2167,"Ġmaza":2168,"Ġuba":2169,"rehe":2170,"Ġmwandishi":2171,"Ġokto":2172,"Ġoktoba":2173,"onyesha":2174,"lii":2175,"siwa":2176,"Ġkilo":2177,"heshi":2178,"Ġhuenda":2179,"Ġjk":2180,"kubaliana":2181,"Ġama":2182,"shahara":2183,"tegemea":2184,"pika":2185,"Ġmei":2186,"Ġkuingi":2187,"Ġmfanya":2188,"Ġivo":2189,"Ġkisu":2190,"Ġzambia":2191,"Ġrich":2192,"pungufu":2193,"ziri":2194,"jaa":2195,"chungu":2196,"Ġwatumishi":2197,"Ġkutangaza":2198,"kabiliwa":2199,"Ġaji":2200,"mosi":2201,"Ġbot":2202,"fuata":2203,"ema":2204,"lai":2205,"lojia":2206,"Ġlinalo":2207,"Ġaidha":2208,"Ġmanu":2209,"siliano":2210,"Ġrichmond":2211,"Ġmachi":2212,"dhamu":2213,"Ġpande":2214,"Ġjumamosi":2215,"Ġuhusiano":2216,"Ġzetu":2217,"elezwa":2218,"Ġwewe":2219,"Ġutawala":2220,"Ġmtendaji":2221,"Ġmawasiliano":2222,"Ġthamani":2223,"Ġspika":2224,"Ġsafi":2225,"Ġngumu":2226,"Ġkuzuia":2227,"maji":2228,"Ġmage":2229,"Ġtamko":2230,"chumi":2231,"Ġkulipa":2232,"ns":2233,"Ġwacha":2234,"mavu":2235,"Ġushauri":2236,"Ġkutekeleza":2237,"julikana":2238,"Ġmisri":2239,"Ġmazao":2240,"Ġkadi":2241,"rere":2242,"Ġmakuu":2243,"Ġkupoteza":2244,"marisha":2245,"Ġmalalami":2246,"ziki":2247,"misho":2248,"teli":2249,"mbuli":2250,"Ġsugar":2251,"Ġmalalamiko":2252,"Ġaza":2253,"Ġmawaziri":2254,"Ġbinadamu":2255,"maha":2256,"Ġmai":2257,"Ġwanaweza":2258,"nyanga":2259,"dumu":2260,"Ġkiuchumi":2261,"Ġmtaa":2262,"tajwa":2263,"Ġswali":2264,"hudia":2265,"Ġphiri":2266,"Ġcoast":2267,"Ġnyerere":2268,"Ġmag":2269,"sikia":2270,"lezi":2271,"Ġmiwili":2272,"Ġkuishi":2273,"mbuzi":2274,"Ġmwenyewe":2275,"twaa":2276,"Ġukim":2277,"ny":2278,"tua":2279,"bio":2280,"Ġsera":2281,"Ġngassa":2282,"Ġkuonesha":2283,"Ġhuwa":2284,"zoe":2285,"ndao":2286,"ngekuwa":2287,"Ġmuziki":2288,"Ġwizi":2289,"Ġkuondoa":2290,"ban":2291,"Ġmatiba":2292,"Ġkutokea":2293,"giza":2294,"Ġpesa":2295,"Ġdaraja":2296,"Ġjkt":2297,"Ġivory":2298,"Ġmatibabu":2299,"ara":2300,"Ġwaja":2301,"Ġawa":2302,"Ġkuwasilisha":2303,"Ġshinyanga":2304,"nyama":2305,"Ġdereva":2306,"Ġkiungo":2307,"Ġwatendaji":2308,"mke":2309,"Ġwau":2310,"Ġyako":2311,"tihada":2312,"san":2313,"Ġjitihada":2314,"Ġmaarufu":2315,"vemba":2316,"Ġwasio":2317,"Ġnovemba":2318,"Ġabiria":2319,"wekwa":2320,"raha":2321,"Ġalikiri":2322,"yumba":2323,"tta":2324,"Ġkuzungumza":2325,"lenga":2326,"Ġmashahidi":2327,"Ġalieleza":2328,"ngereza":2329,"Ġkujia":2330,"Ġkukabiliana":2331,"Ġwais":2332,"ribio":2333,"huri":2334,"ngua":2335,"gawa":2336,"Ġazam":2337,"Ġalihoji":2338,"Ġanaweza":2339,"chungaji":2340,"Ġkuibu":2341,"Ġmikakati":2342,"Ġmv":2343,"liki":2344,"Ġkutokuwa":2345,"Ġjukumu":2346,"Ġfaida":2347,"Ġmwenza":2348,"Ġmakamu":2349,"ct":2350,"rsa":2351,"Ġslaa":2352,"Ġmasi":2353,"Ġubora":2354,"shiki":2355,"Ġsiyo":2356,"Ġfursa":2357,"Ġmeneja":2358,"ward":2359,"Ġsifa":2360,"Ġwatakuwa":2361,"lalamika":2362,"Ġmadhara":2363,"Ġvijijini":2364,"Ġakitoa":2365,"Ġkujibu":2366,"Ġlenye":2367,"Ġwaha":2368,"Ġwapiga":2369,"idizi":2370,"Ġkupanda":2371,"maliza":2372,"fikishwa":2373,"Ġmwishoni":2374,"ingereza":2375,"Ġuweze":2376,"Ġiwe":2377,"Ġbusanda":2378,"riwa":2379,"kua":2380,"Ġmwak":2381,"Ġlita":2382,"Ġtiketi":2383,"puka":2384,"Ġkugombea":2385,"Ġkanda":2386,"ruhusu":2387,"Ġmakao":2388,"Ġkuanzisha":2389,"sanii":2390,"Ġedward":2391,"pinga":2392,"Ġwanatakiwa":2393,"Ġwatakao":2394,"Ġkufa":2395,"kizi":2396,"Ġkuwaa":2397,"pokea":2398,"ulizwa":2399,"Ġmbinu":2400,"ndele":2401,"kodi":2402,"Ġvifo":2403,"ndisha":2404,"Ġziara":2405,"Ġpri":2406,"Ġwapinzani":2407,"Ġvyema":2408,"Ġwataalamu":2409,"niki":2410,"Ġupe":2411,"Ġvema":2412,"Ġmkapa":2413,"Ġwasiwasi":2414,"lsea":2415,"wazi":2416,"Ġmahitaji":2417,"Ġhawezi":2418,"Ġalifafanua":2419,"Ġjam":2420,"Ġhoteli":2421,"ghulikia":2422,"Ġchelsea":2423,"Ġwateja":2424,"Ġmgumu":2425,"Ġkume":2426,"maini":2427,"Ġchan":2428,"Ġwanataka":2429,"Ġulikuwa":2430,"Ġhatima":2431,"Ġjoseph":2432,"Ġnidhamu":2433,"Ġhalisi":2434,"Ġmwanamke":2435,"pelekwa":2436,"Ġste":2437,"madu":2438,"Ġkiti":2439,"uliza":2440,"Ġmchana":2441,"Ġkupokea":2442,"Ġmajaribio":2443,"Ġkusimamia":2444,"maduni":2445,"Ġyale":2446,"taki":2447,"Ġsalama":2448,"Ġjulai":2449,"storia":2450,"Ġmaombi":2451,"Ġmtibwa":2452,"fungua":2453,"nywa":2454,"Ġmigo":2455,"Ġkuuza":2456,"Ġtek":2457,"Ġkas":2458,"Ġsitta":2459,"Ġiliyotolewa":2460,"Ġkukutana":2461,"Ġbar":2462,"Ġmoyo":2463,"pelelezi":2464,"Ġmtandao":2465,"Ġzenye":2466,"Ġkimya":2467,"ili":2468,"Ġmla":2469,"Ġwasanii":2470,"ringa":2471,"zigo":2472,"Ġiringa":2473,"les":2474,"fanye":2475,"Ġinaweza":2476,"Ġmchango":2477,"Ġupo":2478,"Ġmkulo":2479,"Ġkujiunga":2480,"Ġmipango":2481,"ongeza":2482,"jita":2483,"poteza":2484,"Ġkutolewa":2485,"fia":2486,"Ġakisema":2487,"Ġkiwanda":2488,"tambua":2489,"Ġhakuwa":2490,"jayo":2491,"Ġsalu":2492,"Ġchache":2493,"goma":2494,"pumba":2495,"Ġmwekezaji":2496,"Ġarse":2497,"chunguza":2498,"Ġajira":2499,"Ġkuya":2500,"Ġhiki":2501,"rani":2502,"ramu":2503,"Ġwingi":2504,"lipa":2505,"Ġmasa":2506,"mina":2507,"nes":2508,"Ġalipokuwa":2509,"Ġkufuatia":2510,"kano":2511,"Ġasi":2512,"Ġtamaa":2513,"Ġreli":2514,"Ġkumalizika":2515,"Ġmifugo":2516,"Ġujumla":2517,"rl":2518,"Ġmalu":2519,"Ġujumbe":2520,"Ġupungufu":2521,"shima":2522,"Ġsama":2523,"Ġmoshi":2524,"Ġdamu":2525,"Ġmakazi":2526,"Ġruvu":2527,"Ġheshima":2528,"Ġjamhuri":2529,"Ġmalumbano":2530,"kishwa":2531,"Ġika":2532,"Ġmila":2533,"pum":2534,"Ġfre":2535,"Ġkupinga":2536,"Ġmasharti":2537,"Ġmakuba":2538,"Ġkufuata":2539,"ngeneza":2540,"fla":2541,"wasili":2542,"lim":2543,"Ġwavu":2544,"mbani":2545,"ol":2546,"Ġkuzalisha":2547,"Ġmau":2548,"tuma":2549,"Ġmtuhumiwa":2550,"Ġnyaraka":2551,"Ġfidia":2552,"Ġkisasa":2553,"Ġkuso":2554,"Ġwaliyo":2555,"Ġkisutu":2556,"spoti":2557,"Ġwanne":2558,"endelee":2559,"ndekezo":2560,"Ġmwanaspoti":2561,"Ġwakuu":2562,"Ġluku":2563,"Ġkununua":2564,"Ġvilivyo":2565,"Ġmakubaliano":2566,"Ġkuwasaidia":2567,"Ġatakuwa":2568,"Ġushindani":2569,"Ġkujadili":2570,"Ġaha":2571,"Ġijayo":2572,"mishwa":2573,"Ġmiti":2574,"chote":2575,"Ġripoti":2576,"Ġchochote":2577,"Ġkusha":2578,"Ġkara":2579,"Ġilala":2580,"Ġmikono":2581,"Ġkira":2582,"ngani":2583,"Ġkero":2584,"Ġmajambazi":2585,"Ġmitatu":2586,"Ġnyota":2587,"Ġmha":2588,"lafu":2589,"Ġutu":2590,"Ġubunge":2591,"Ġuingereza":2592,"Ġlipumba":2593,"kamata":2594,"Ġhawaku":2595,"llah":2596,"sababi":2597,"dd":2598,"Ġkuche":2599,"Ġkifungu":2600,"nganisha":2601,"Ġwanaume":2602,"ndikisha":2603,"Ġrashi":2604,"Ġkumwa":2605,"Ġutamaduni":2606,"sheni":2607,"Ġukimwi":2608,"Ġahadi":2609,"Ġkuwataka":2610,"Ġliki":2611,"mbiwa":2612,"Ġmfupi":2613,"Ġkuzingatia":2614,"Ġkuibuka":2615,"ngland":2616,"Ġutumi":2617,"yembe":2618,"Ġhuyu":2619,"Ġengland":2620,"mbelea":2621,"Ġawamu":2622,"Ġuwezekano":2623,"Ġkuhi":2624,"Ġnita":2625,"Ġmize":2626,"Ġmishahara":2627,"endeshwa":2628,"Ġmjumbe":2629,"koa":2630,"nolojia":2631,"Ġmgosi":2632,"Ġalipoulizwa":2633,"dhuria":2634,"Ġsalum":2635,"nna":2636,"Ġkuweza":2637,"faka":2638,"Ġvo":2639,"fikisha":2640,"Ġhawaja":2641,"Ġafrican":2642,"mwe":2643,"tri":2644,"Ġis":2645,"sabu":2646,"Ġkuimarisha":2647,"Ġmsaidizi":2648,"Ġmakocha":2649,"elelezo":2650,"mpa":2651,"Ġwajibu":2652,"dio":2653,"ngiwa":2654,"Ġjanua":2655,"Ġmwinyi":2656,"nyika":2657,"Ġmajukumu":2658,"Ġlukuvi":2659,"pte":2660,"mbamba":2661,"Ġalia":2662,"Ġsiri":2663,"Ġvijiji":2664,"Ġongeze":2665,"Ġmahali":2666,"Ġunaweza":2667,"Ġpwani":2668,"Ġgeo":2669,"Ġjanuari":2670,"Ġongezeko":2671,"Ġupelelezi":2672,"kukuru":2673,"Ġkija":2674,"paji":2675,"Ġtakukuru":2676,"Ġiliyopo":2677,"Ġkuendeleza":2678,"chia":2679,"Ġakili":2680,"Ġrekodi":2681,"ondoka":2682,"Ġmvua":2683,"Ġmwakyembe":2684,"Ġarsenal":2685,"Ġmchungaji":2686,"hati":2687,"Ġiko":2688,"Ġbaina":2689,"gizo":2690,"Ġhaija":2691,"Ġyasi":2692,"Ġkadhi":2693,"Ġima":2694,"Ġviti":2695,"gaji":2696,"Ġmikopo":2697,"Ġvikao":2698,"Ġzikiwa":2699,"Ġmwanafunzi":2700,"kh":2701,"Ġmja":2702,"chana":2703,"Ġkuwania":2704,"sumbu":2705,"nuzi":2706,"beba":2707,"Ġkusikia":2708,"Ġmajengo":2709,"Ġchombo":2710,"Ġteknolojia":2711,"rge":2712,"liza":2713,"Ġkumbu":2714,"Ġvilla":2715,"Ġkulinda":2716,"Ġalba":2717,"stahili":2718,"Ġmapendekezo":2719,"Ġufundi":2720,"Ġwachache":2721,"Ġutumishi":2722,"Ġwazee":2723,"Ġlao":2724,"nganyi":2725,"Ġmadega":2726,"Ġam":2727,"razi":2728,"sanya":2729,"patia":2730,"Ġnzima":2731,"Ġviu":2732,"Ġambani":2733,"Ġlilikuwa":2734,"Ġmatukio":2735,"gha":2736,"ll":2737,"lizo":2738,"yon":2739,"Ġhusu":2740,"Ġwanasiasa":2741,"Ġmfuko":2742,"muziki":2743,"Ġwapa":2744,"Ġsele":2745,"Ġupya":2746,"Ġkato":2747,"siwani":2748,"Ġkitaifa":2749,"refu":2750,"dhimisho":2751,"Ġrahisi":2752,"Ġfc":2753,"Ġmaadhimisho":2754,"Ġofisini":2755,"Ġkuchangia":2756,"kataa":2757,"Ġva":2758,"luma":2759,"Ġupatu":2760,"Ġkukata":2761,"Ġmaswali":2762,"Ġwawekezaji":2763,"nji":2764,"tma":2765,"waji":2766,"Ġkudumu":2767,"bidhi":2768,"Ġilisema":2769,"Ġmaadili":2770,"Ġwakiwemo":2771,"Ġmfulu":2772,"Ġkaimu":2773,"undwa":2774,"Ġmahu":2775,"Ġvyote":2776,"Ġilipo":2777,"Ġzile":2778,"liam":2779,"Ġtege":2780,"ransa":2781,"sse":2782,"Ġmstaafu":2783,"Ġwahusika":2784,"nekana":2785,"Ġmaandamano":2786,"Ġmto":2787,"Ġkuzungumzia":2788,"Ġufa":2789,"Ġhadhara":2790,"Ġkite":2791,"rusi":2792,"Ġtuzo":2793,"Ġgra":2794,"fanikisha":2795,"vaa":2796,"Ġyupo":2797,"Ġmkononi":2798,"Ġabda":2799,"Ġand":2800,"Ġutaka":2801,"Ġkijana":2802,"funza":2803,"Ġtani":2804,"Ġkuamua":2805,"Ġkujitokeza":2806,"Ġkulingana":2807,"tumiwa":2808,"shuhudia":2809,"milisha":2810,"Ġmapambano":2811,"fahamika":2812,"Ġathu":2813,"ambia":2814,"Ġhalafu":2815,"Ġsambamba":2816,"Ġviwa":2817,"Ġmwakale":2818,"Ġrufaa":2819,"mbulisho":2820,"Ġrashid":2821,"iro":2822,"wt":2823,"him":2824,"Ġbakari":2825,"Ġpasi":2826,"Ġmashirika":2827,"Ġkikuu":2828,"Ġmadarakani":2829,"Ġimara":2830,"lipwa":2831,"Ġufafan":2832,"ndisi":2833,"rume":2834,"Ġsamaki":2835,"Ġkirafiki":2836,"Ġufafanuzi":2837,"itwa":2838,"uka":2839,"Ġmzima":2840,"Ġkuendesha":2841,"Ġataka":2842,"ndaliwa":2843,"Ġzingine":2844,"Ġimea":2845,"Ġgereza":2846,"Ġkipato":2847,"Ġprison":2848,"Ġmfululizo":2849,"himbili":2850,"mtaka":2851,"ur":2852,"Ġkichwa":2853,"Ġmuhimbili":2854,"ndoni":2855,"Ġakau":2856,"Ġlyon":2857,"Ġmizengo":2858,"tari":2859,"Ġhistoria":2860,"Ġbahati":2861,"ngeweza":2862,"Ġsepte":2863,"Ġkulikuwa":2864,"Ġmatumaini":2865,"Ġabdallah":2866,"Ġprisons":2867,"ani":2868,"rwa":2869,"Ġmala":2870,"Ġhatma":2871,"kebi":2872,"pool":2873,"chezwa":2874,"Ġliver":2875,"lianza":2876,"Ġkupigwa":2877,"Ġkipigo":2878,"Ġvinavyo":2879,"Ġliverpool":2880,"ikh":2881,"Ġkufanikiwa":2882,"hama":2883,"bainika":2884,"malizika":2885,"Ġseptemba":2886,"mamizi":2887,"Ġmawe":2888,"lazwa":2889,"jaribu":2890,"Ġwakubwa":2891,"ruhiwa":2892,"Ġmaiti":2893,"Ġakaunti":2894,"Ġyaki":2895,"Ġhatia":2896,"Ġhalali":2897,"tuhumiwa":2898,"Ġkino":2899,"uawa":2900,"Ġzombe":2901,"Ġkuhama":2902,"Ġgeorge":2903,"ika":2904,"mvi":2905,"tha":2906,"Ġmua":2907,"Ġmzungu":2908,"leta":2909,"Ġchai":2910,"Ġwakizungumza":2911,"ckson":2912,"Ġmikataba":2913,"Ġwagombea":2914,"Ġmate":2915,"Ġib":2916,"Ġhama":2917,"bika":2918,"Ġbeki":2919,"Ġtoka":2920,"Ġuliopita":2921,"shangaa":2922,"wongo":2923,"Ġmshindi":2924,"tatu":2925,"shaji":2926,"furahi":2927,"gundua":2928,"Ġpembe":2929,"Ġyusu":2930,"Ġkuonekana":2931,"Ġamewataka":2932,"Ġkinondoni":2933,"wakilishi":2934,"Ġkudhibiti":2935,"Ġago":2936,"ngga":2937,"Ġiku":2938,"kundu":2939,"Ġkilango":2940,"bela":2941,"Ġwaathirika":2942,"Ġkutengeneza":2943,"Ġwilliam":2944,"heshimiwa":2945,"Ġmwakalebela":2946,"lle":2947,"tafuta":2948,"pangwa":2949,"lozi":2950,"guliwa":2951,"Ġkumpa":2952,"Ġutata":2953,"Ġjengo":2954,"stawi":2955,"Ġmapenzi":2956,"Ġmfanyabiashara":2957,"Ġmagharibi":2958,"Ġhatimaye":2959,"Ġkufanikisha":2960,"Ġaliya":2961,"Ġinaendelea":2962,"Ġjirani":2963,"jiandaa":2964,"iambia":2965,"Ġyuko":2966,"Ġwenzao":2967,"Ġkuelekea":2968,"Ġyasiyo":2969,"Ġikulu":2970,"al":2971,"Ġwaraka":2972,"Ġkurejea":2973,"tetea":2974,"Ġmilipuko":2975,"Ġinavyo":2976,"ndoka":2977,"Ġfer":2978,"Ġufumbuzi":2979,"bwe":2980,"dhe":2981,"wakabili":2982,"Ġmri":2983,"Ġkucho":2984,"mes":2985,"semaji":2986,"Ġboni":2987,"Ġmabaya":2988,"Ġlilitokea":2989,"Ġkusikiliza":2990,"zoefu":2991,"uza":2992,"Ġmsu":2993,"Ġkuhoji":2994,"Ġkuchunguza":2995,"jipanga":2996,"Ġalipata":2997,"semba":2998,"Ġkuwasili":2999,"Ġsakata":3000,"pia":3001,"Ġserikalini":3002,"gia":3003,"Ġkusikilizwa":3004,"ifu":3005,"nte":3006,"rles":3007,"nii":3008,"Ġkimoja":3009,"Ġvyu":3010,"sudi":3011,"Ġtrl":3012,"Ġutakuwa":3013,"Ġnyakati":3014,"Ġkufuatilia":3015,"Ġrwanda":3016,"lwa":3017,"Ġkukubali":3018,"nggo":3019,"sajili":3020,"elewa":3021,"Ġkuonyesha":3022,"thiri":3023,"Ġwenyeji":3024,"Ġjumanne":3025,"Ġjumatatu":3026,"Ġabdu":3027,"Ġkutimiza":3028,"Ġviungo":3029,"Ġufaransa":3030,"sca":3031,"ud":3032,"kamilika":3033,"Ġuzi":3034,"siri":3035,"Ġakina":3036,"Ġombi":3037,"Ġunajua":3038,"Ġmkakati":3039,"Ġmarekebi":3040,"Ġusafiri":3041,"kazini":3042,"Ġkuanzishwa":3043,"Ġisipokuwa":3044,"Ġkaskazini":3045,"Ġmarekebisho":3046,"Ġmno":3047,"tongo":3048,"Ġmisingi":3049,"Ġmajimaji":3050,"Ġzilizopo":3051,"mfanya":3052,"ty":3053,"Ġkelele":3054,"Ġkusisitiza":3055,"hadha":3056,"Ġviku":3057,"rodha":3058,"Ġakiwemo":3059,"Ġdesemba":3060,"celo":3061,"Ġkibali":3062,"Ġviwango":3063,"sikiti":3064,"Ġwalizo":3065,"Ġtra":3066,"Ġnyimbo":3067,"Ġkufungua":3068,"Ġzilikuwa":3069,"Ġkujiandaa":3070,"Ġmzunguko":3071,"Ġkutumika":3072,"Ġindia":3073,"Ġbahari":3074,"ruhu":3075,"Ġbinti":3076,"mbulizi":3077,"Ġmkali":3078,"Ġuliofanyika":3079,"Ġkushuka":3080,"Ġmanufaa":3081,"pumzi":3082,"kabidhi":3083,"tuba":3084,"bidi":3085,"ngoni":3086,"Ġsene":3087,"gogo":3088,"Ġjackson":3089,"jenga":3090,"Ġakijibu":3091,"mbukizi":3092,"Ġkutambua":3093,"Ġally":3094,"Ġbarabarani":3095,"Ġmrema":3096,"if":3097,"Ġmsemaji":3098,"tishwa":3099,"sikini":3100,"Ġhifadhi":3101,"Ġcharles":3102,"Ġitaendelea":3103,"Ġdeni":3104,"Ġmakali":3105,"Ġuliopo":3106,"Ġkufikishwa":3107,"Ġkuvunja":3108,"Ġumasikini":3109,"lili":3110,"Ġkukamatwa":3111,"Ġkushika":3112,"Ġaibu":3113,"zingatia":3114,"kutwa":3115,"Ġvingi":3116,"Ġsemina":3117,"Ġpatri":3118,"Ġmussa":3119,"Ġhukumu":3120,"Ġyalikuwa":3121,"Ġmazishi":3122,"Ġmaelekezo":3123,"Ġghafla":3124,"nikiza":3125,"Ġmuafaka":3126,"anzi":3127,"Ġwadogo":3128,"Ġmahi":3129,"pongeza":3130,"ngazwa":3131,"Ġathari":3132,"Ġmasomo":3133,"kristo":3134,"Ġmwenzake":3135,"Ġmwongo":3136,"timu":3137,"tembelea":3138,"Ġmitano":3139,"shirikisha":3140,"zembe":3141,"suko":3142,"Ġvyao":3143,"Ġhaikuwa":3144,"Ġmawazo":3145,"Ġwaislamu":3146,"Ġbarcelo":3147,"Ġagosti":3148,"Ġbonifa":3149,"Ġbarcelona":3150,"hri":3151,"nce":3152,"lifu":3153,"Ġkuni":3154,"Ġkutwaa":3155,"rio":3156,"Ġidd":3157,"Ġnja":3158,"Ġilitolewa":3159,"resheni":3160,"Ġanaamini":3161,"Ġpau":3162,"Ġchri":3163,"Ġzoezi":3164,"hitajika":3165,"Ġilivyokuwa":3166,"Ġkumbukumbu":3167,"khe":3168,"pp":3169,"vis":3170,"wadi":3171,"Ġkuchukuliwa":3172,"Ġnaamini":3173,"tolea":3174,"jeshi":3175,"Ġmume":3176,"Ġmaambukizi":3177,"Ġpeter":3178,"Ġkupatikana":3179,"vamia":3180,"Ġzimekuwa":3181,"Ġhazina":3182,"Ġkuepuka":3183,"Ġmabeki":3184,"Ġboniface":3185,"Ġgi":3186,"liko":3187,"Ġkuongoza":3188,"Ġmacha":3189,"sikili":3190,"semwa":3191,"Ġnika":3192,"Ġvisiwani":3193,"wishi":3194,"hakiki":3195,"Ġmsanii":3196,"Ġwaza":3197,"mas":3198,"Ġseif":3199,"Ġfran":3200,"Ġhawawezi":3201,"endeshaji":3202,"thmini":3203,"Ġibrahi":3204,"Ġw":3205,"Ġwamiliki":3206,"yansi":3207,"zaliwa":3208,"kimu":3209,"Ġustawi":3210,"Ġiju":3211,"Ġkitaa":3212,"Ġmingi":3213,"Ġvime":3214,"Ġshida":3215,"Ġkukamilisha":3216,"Ġgeita":3217,"Ġyule":3218,"Ġinter":3219,"brua":3220,"phe":3221,"wafanya":3222,"Ġkureje":3223,"Ġiweze":3224,"Ġmwamuzi":3225,"Ġzitaka":3226,"Ġole":3227,"Ġfebrua":3228,"Ġkusafi":3229,"Ġkukataa":3230,"Ġjopo":3231,"fadhili":3232,"shangazwa":3233,"Ġazi":3234,"Ġuongo":3235,"Ġkarume":3236,"Ġkifu":3237,"gal":3238,"Ġwatano":3239,"Ġkusamba":3240,"Ġmwanasheria":3241,"Ġchetu":3242,"Ġkujali":3243,"Ġijumaa":3244,"Ġmheshimiwa":3245,"Ġhami":3246,"mio":3247,"Ġanaripoti":3248,"Ġpicha":3249,"Ġkuongezeka":3250,"Ġoma":3251,"kwamisha":3252,"Ġkufuta":3253,"Ġuwekezaji":3254,"Ġmwongozo":3255,"ana":3256,"sua":3257,"skofu":3258,"tto":3259,"Ġmvu":3260,"kadi":3261,"bali":3262,"lau":3263,"raba":3264,"ngamano":3265,"Ġvigumu":3266,"Ġkamwe":3267,"Ġkwanini":3268,"bainisha":3269,"Ġgesi":3270,"com":3271,"Ġvitambulisho":3272,"Ġsenegal":3273,"Ġfebruari":3274,"ad":3275,"Ġmlipuko":3276,"lius":3277,"Ġnaho":3278,"bani":3279,"Ġkase":3280,"sira":3281,"Ġtabora":3282,"Ġtakwi":3283,"Ġwanaendelea":3284,"Ġjulius":3285,"Ġkuifunga":3286,"Ġwakidai":3287,"Ġbendi":3288,"chukulia":3289,"Ġsura":3290,"Ġburu":3291,"Ġhaiwezi":3292,"Ġfuraha":3293,"Ġwakurugenzi":3294,"Ġwaumini":3295,"Ġtakwimu":3296,"Ġwawakilishi":3297,"Ġuendeshaji":3298,"chika":3299,"Ġzipo":3300,"Ġliyumba":3301,"Ġinadaiwa":3302,"Ġrafiki":3303,"soro":3304,"Ġbenchi":3305,"Ġkupanga":3306,"shughulikia":3307,"Ġchuji":3308,"Ġlowa":3309,"Ġmadeni":3310,"Ġkitengo":3311,"ahidi":3312,"Ġkufanyiwa":3313,"Ġnaomba":3314,"Ġmagumu":3315,"Ġkamili":3316,"Ġalivyo":3317,"dacom":3318,"Ġtawi":3319,"shinikiza":3320,"Ġmiili":3321,"piki":3322,"chiwa":3323,"Ġdalili":3324,"Ġkuandika":3325,"Ġmaafa":3326,"vid":3327,"Ġshaka":3328,"Ġhesabu":3329,"Ġmtihani":3330,"Ġmbio":3331,"jitahidi":3332,"Ġvodacom":3333,"Ġuzinduzi":3334,"Ġibrahim":3335,"Ġlowassa":3336,"Ġmabi":3337,"saha":3338,"Ġzangu":3339,"Ġlab":3340,"Ġmeli":3341,"Ġmaaskofu":3342,"Ġposho":3343,"Ġsulu":3344,"Ġnguo":3345,"Ġhewa":3346,"Ġukaguzi":3347,"ondoa":3348,"Ġulemavu":3349,"razil":3350,"Ġngele":3351,"Ġkupeleka":3352,"Ġuzoefu":3353,"Ġkia":3354,"Ġtakri":3355,"Ġmikuta":3356,"Ġwalivyo":3357,"gambo":3358,"Ġmwakilishi":3359,"Ġrama":3360,"Ġrasili":3361,"Ġtoto":3362,"Ġmwene":3363,"Ġmatatu":3364,"Ġchumba":3365,"Ġajabu":3366,"Ġukumbi":3367,"Ġmagereza":3368,"Ġkijamii":3369,"Ġmrisho":3370,"Ġmikutano":3371,"Ġrasilimali":3372,"cto":3373,"wataka":3374,"Ġwageni":3375,"tion":3376,"Ġalianza":3377,"ment":3378,"tende":3379,"Ġnjaa":3380,"chezea":3381,"Ġziwa":3382,"dhifa":3383,"shtaka":3384,"Ġope":3385,"Ġsheikh":3386,"Ġpenal":3387,"Ġmwananchi":3388,"Ġsule":3389,"Ġmsamaha":3390,"Ġaliwahi":3391,"cio":3392,"Ġmarcio":3393,"Ġwafuasi":3394,"Ġaliyasema":3395,"Ġpatrick":3396,"Ġpenalti":3397,"Ġgu":3398,"Ġwapenzi":3399,"Ġkubaki":3400,"Ġagizo":3401,"Ġmashtaka":3402,"Ġhusse":3403,"miaji":3404,"kwazo":3405,"Ġkupatiwa":3406,"Ġkutetea":3407,"Ġhaita":3408,"Ġisiyo":3409,"Ġmjadala":3410,"Ġamri":3411,"Ġgrace":3412,"Ġathuman":3413,"tongoji":3414,"ruhusiwa":3415,"Ġkaseja":3416,"the":3417,"Ġmbu":3418,"Ġmso":3419,"lie":3420,"Ġmadogo":3421,"jikuta":3422,"fara":3423,"elezea":3424,"pesi":3425,"Ġkuandaa":3426,"Ġkuhusika":3427,"Ġkukamilika":3428,"shuka":3429,"pta":3430,"Ġkusu":3431,"Ġhispa":3432,"ton":3433,"Ġtawala":3434,"tekeleza":3435,"Ġsiwezi":3436,"Ġwanapo":3437,"fikiwa":3438,"Ġsende":3439,"Ġtuki":3440,"Ġkujifunza":3441,"Ġmabasi":3442,"Ġbuko":3443,"fikiri":3444,"Ġprog":3445,"fuatilia":3446,"Ġmsekwa":3447,"Ġvyuo":3448,"Ġngeleja":3449,"lp":3450,"toe":3451,"bino":3452,"saini":3453,"pambana":3454,"Ġtanes":3455,"keo":3456,"ngamizi":3457,"Ġvielelezo":3458,"Ġvipaji":3459,"jumu":3460,"Ġjangwa":3461,"Ġtlp":3462,"Ġhatuwezi":3463,"Ġmisamaha":3464,"Ġdarasa":3465,"shikilia":3466,"Ġutakao":3467,"Ġzitakazo":3468,"Ġtanesco":3469,"linda":3470,"Ġwanyama":3471,"Ġmagonjwa":3472,"saji":3473,"fuku":3474,"sefu":3475,"Ġzawadi":3476,"Ġrangi":3477,"zwaji":3478,"ridhika":3479,"Ġukosefu":3480,"Ġwafugaji":3481,"Ġmigogoro":3482,"Ġhispania":3483,"Ġwaamuzi":3484,"Ġkure":3485,"Ġnazo":3486,"Ġmaho":3487,"Ġmanya":3488,"Ġhisia":3489,"Ġwanayo":3490,"Ġwanafanya":3491,"pende":3492,"Ġhotuba":3493,"Ġjene":3494,"Ġhawata":3495,"Ġmashu":3496,"Ġkufikisha":3497,"Ġlimekuwa":3498,"mka":3499,"kala":3500,"Ġale":3501,"Ġissa":3502,"Ġkigoma":3503,"kebisha":3504,"Ġmingine":3505,"Ġilianza":3506,"mon":3507,"ndikwa":3508,"Ġtiba":3509,"rou":3510,"Ġanataka":3511,"Ġpingamizi":3512,"Ġkuamini":3513,"Ġkumtaka":3514,"Ġmgonjwa":3515,"wasilishwa":3516,"Ġabdul":3517,"Ġnahodha":3518,"Ġoperesheni":3519,"ftari":3520,"ongezeka":3521,"wama":3522,"Ġmsta":3523,"Ġmgeni":3524,"Ġwahi":3525,"Ġhisa":3526,"leni":3527,"menti":3528,"fuu":3529,"mivu":3530,"heni":3531,"Ġlawama":3532,"Ġmiku":3533,"Ġmizigo":3534,"Ġwanatarajia":3535,"Ġjames":3536,"Ġwameanza":3537,"Ġletu":3538,"Ġkupita":3539,"Ġkilisema":3540,"Ġsongea":3541,"Ġmwanamuziki":3542,"Ġkuchagua":3543,"Ġkukuza":3544,"Ġlabda":3545,"Ġhussein":3546,"Ġwadhamini":3547,"hana":3548,"manu":3549,"Ġalifanya":3550,"fau":3551,"lewe":3552,"saka":3553,"Ġlikiwa":3554,"Ġdavid":3555,"Ġbihara":3556,"jiano":3557,"Ġpemba":3558,"Ġhadharani":3559,"Ġmahojiano":3560,"fre":3561,"wasilisha":3562,"hami":3563,"Ġudha":3564,"Ġalicho":3565,"mewa":3566,"fungia":3567,"din":3568,"Ġwanapaswa":3569,"Ġwalianza":3570,"runa":3571,"Ġjamaa":3572,"Ġzisi":3573,"Ġbingwa":3574,"Ġinawezekana":3575,"Ġjibu":3576,"Ġkwetu":3577,"Ġuliotolewa":3578,"Ġalbino":3579,"endera":3580,"Ġmitihani":3581,"Ġhamad":3582,"Ġsulei":3583,"manuel":3584,"itaka":3585,"nsia":3586,"Ġmra":3587,"Ġkulia":3588,"Ġmadi":3589,"Ġufani":3590,"Ġkida":3591,"Ġaliendelea":3592,"tes":3593,"Ġmwai":3594,"gopa":3595,"Ġinaonekana":3596,"Ġkova":3597,"Ġimeanza":3598,"Ġkuunda":3599,"Ġrufani":3600,"Ġshahada":3601,"Ġdusan":3602,"stani":3603,"Ġjimboni":3604,"Ġmbowe":3605,"ridhisha":3606,"ingiza":3607,"nganishwa":3608,"nry":3609,"td":3610,"unda":3611,"limisha":3612,"Ġharuna":3613,"jadili":3614,"rali":3615,"Ġkide":3616,"leza":3617,"Ġzitto":3618,"road":3619,"Ġjukwa":3620,"Ġkuifanya":3621,"luki":3622,"Ġjumatano":3623,"Ġhenry":3624,"Ġlugha":3625,"Ġnilikuwa":3626,"Ġmganga":3627,"Ġurais":3628,"rabati":3629,"iomba":3630,"Ġkugo":3631,"Ġmahe":3632,"Ġmaone":3633,"ris":3634,"Ġkash":3635,"hudhuria":3636,"Ġkigeni":3637,"Ġalizo":3638,"Ġsina":3639,"Ġsingi":3640,"Ġbendera":3641,"ndamizi":3642,"Ġwanadaiwa":3643,"Ġanatakiwa":3644,"Ġmusta":3645,"suru":3646,"shwe":3647,"Ġkuiba":3648,"Ġorodha":3649,"riadha":3650,"Ġwaliopo":3651,"Ġtunataka":3652,"Ġkusaini":3653,"Ġmwanachama":3654,"Ġgod":3655,"Ġmaumivu":3656,"Ġufanisi":3657,"Ġmaonesho":3658,"Ġkashfa":3659,"Ġpu":3660,"nard":3661,"Ġmli":3662,"Ġmpenzi":3663,"Ġkuthibitisha":3664,"Ġnadhani":3665,"chagua":3666,"Ġzima":3667,"Ġci":3668,"Ġkazini":3669,"Ġshekhe":3670,"milifu":3671,"Ġusafi":3672,"Ġdharu":3673,"Ġkuvuna":3674,"nzetu":3675,"kwisha":3676,"sababishwa":3677,"vya":3678,"liga":3679,"Ġkusoma":3680,"Ġanga":3681,"Ġukia":3682,"Ġuso":3683,"Ġumbali":3684,"Ġkiji":3685,"Ġkipe":3686,"Ġbaya":3687,"Ġpapo":3688,"Ġkumpiga":3689,"Ġkusaka":3690,"ven":3691,"Ġhospitalini":3692,"Ġvitabu":3693,"Ġltd":3694,"lalamikia":3695,"Ġbusara":3696,"Ġurafiki":3697,"shikiliwa":3698,"Ġalex":3699,"Ġmstari":3700,"Ġsingida":3701,"Ġwasa":3702,"mbaji":3703,"Ġalikwenda":3704,"dan":3705,"Ġchao":3706,"Ġwanacho":3707,"Ġpambano":3708,"Ġkutatua":3709,"Ġmgodi":3710,"Ġmadaktari":3711,"Ġrobo":3712,"rahisi":3713,"Ġitakapo":3714,"Ġuvuvi":3715,"Ġzisizo":3716,"Ġsuleiman":3717,"uliwa":3718,"Ġkusubiri":3719,"Ġugo":3720,"Ġkie":3721,"Ġbrazil":3722,"ngilia":3723,"nganya":3724,"Ġwalim":3725,"Ġziada":3726,"zua":3727,"Ġinapo":3728,"Ġratiba":3729,"geria":3730,"Ġtaaluma":3731,"bert":3732,"Ġchiliga":3733,"Ġusimamizi":3734,"Ġkukimbia":3735,"Ġkurudisha":3736,"Ġmikononi":3737,"Ġchiligati":3738,"livu":3739,"Ġwapya":3740,"mbabwe":3741,"Ġtarehe":3742,"Ġkoro":3743,"nufa":3744,"toaji":3745,"Ġshuti":3746,"Ġkutajwa":3747,"Ġumekuwa":3748,"Ġyalisemwa":3749,"Ġkidato":3750,"ld":3751,"Ġsho":3752,"jiunga":3753,"tus":3754,"mulo":3755,"Ġtathmini":3756,"Ġsauti":3757,"Ġmahakimu":3758,"nunuzi":3759,"Ġmashambulizi":3760,"Ġduni":3761,"shukuru":3762,"Ġhaiku":3763,"Ġheliko":3764,"Ġmagoli":3765,"Ġbiharamulo":3766,"Ġhelikopta":3767,"umbele":3768,"Ġukiwa":3769,"Ġkabu":3770,"Ġkibiashara":3771,"mita":3772,"Ġtict":3773,"Ġanatarajia":3774,"Ġinatarajia":3775,"ndoa":3776,"Ġwalionekana":3777,"bovu":3778,"Ġutalii":3779,"Ġmwingi":3780,"tumikia":3781,"nyiko":3782,"Ġusio":3783,"Ġdhana":3784,"Ġumakini":3785,"Ġgoli":3786,"Ġticts":3787,"aji":3788,"Ġmratibu":3789,"Ġkuke":3790,"Ġada":3791,"Ġange":3792,"Ġud":3793,"Ġugeni":3794,"Ġkatikati":3795,"Ġsayansi":3796,"Ġwanasema":3797,"Ġinakuwa":3798,"Ġakitokea":3799,"Ġwimbo":3800,"Ġsherehe":3801,"Ġmashine":3802,"Ġngozi":3803,"Ġkukabidhi":3804,"Ġmeneji":3805,"pha":3806,"Ġkye":3807,"Ġuzazi":3808,"Ġkada":3809,"Ġilani":3810,"Ġkingine":3811,"nesha":3812,"Ġsafu":3813,"hofia":3814,"Ġeti":3815,"Ġinatokana":3816,"Ġraja":3817,"Ġamea":3818,"Ġtele":3819,"Ġmsitu":3820,"Ġmsafara":3821,"Ġaliwataja":3822,"Ġmtanzania":3823,"Ġvipimo":3824,"Ġprogramu":3825,"Ġdharura":3826,"Ġkyela":3827,"Ġmzigo":3828,"Ġkuba":3829,"Ġalo":3830,"Ġushiriki":3831,"Ġutoaji":3832,"Ġkasoro":3833,"simu":3834,"Ġwalidai":3835,"Ġendele":3836,"Ġvyanzo":3837,"Ġpiki":3838,"Ġshein":3839,"Ġyaliyokuwa":3840,"Ġkambini":3841,"Ġkusimama":3842,"Ġmwanzoni":3843,"Ġmilan":3844,"Ġalbamu":3845,"Ġugomvi":3846,"skini":3847,"Ġasasi":3848,"Ġuo":3849,"Ġkizuri":3850,"Ġaliiambia":3851,"Ġzabuni":3852,"Ġzimbabwe":3853,"Ġwenzetu":3854,"Ġkuajiri":3855,"Ġwaliokufa":3856,"Ġkusajili":3857,"Ġreal":3858,"Ġshuleni":3859,"Ġkikamilifu":3860,"Ġumaskini":3861,"Ġnew":3862,"Ġmasoko":3863,"Ġwaislam":3864,"visheni":3865,"Ġkupelekwa":3866,"Ġnafuu":3867,"mai":3868,"Ġuzembe":3869,"Ġhadhi":3870,"Ġkiis":3871,"Ġkidini":3872,"busu":3873,"Ġem":3874,"Ġanadaiwa":3875,"Ġanafafanua":3876,"Ġinapaswa":3877,"Ġpanya":3878,"Ġkuokoa":3879,"Ġmahabusu":3880,"Ġwakiendelea":3881,"Ġhosea":3882,"cela":3883,"Ġchuki":3884,"Ġkuondokana":3885,"Ġkabila":3886,"Ġmalecela":3887,"Ġkuingilia":3888,"Ġmenejimenti":3889,"Ġmshi":3890,"Ġwario":3891,"Ġaweze":3892,"kimbia":3893,"chapa":3894,"shiwa":3895,"Ġvirusi":3896,"horo":3897,"Ġchaguzi":3898,"elekea":3899,"cheze":3900,"jengwa":3901,"jeruhiwa":3902,"Ġraha":3903,"Ġpindi":3904,"mbuliwa":3905,"Ġkutaja":3906,"Ġpengine":3907,"Ġkawambwa":3908,"Ġlililofungwa":3909,"Ġghasia":3910,"Ġkuachana":3911,"Ġkuhamasisha":3912,"Ġpembeni":3913,"Ġwarioba":3914,"hifadhi":3915,"Ġawe":3916,"Ġmabili":3917,"Ġhasira":3918,"biwa":3919,"Ġniki":3920,"Ġsame":3921,"Ġvigogo":3922,"Ġlindi":3923,"Ġwameamua":3924,"Ġkuunga":3925,"Ġhatuna":3926,"Ġitalia":3927,"Ġjinai":3928,"Ġkulevya":3929,"Ġkushughulikia":3930,"Ġruvuma":3931,"Ġugenini":3932,"Ġmabilioni":3933,"fya":3934,"ssi":3935,"nayo":3936,"Ġwastani":3937,"Ġnawa":3938,"Ġami":3939,"lekeo":3940,"Ġnjo":3941,"Ġtre":3942,"Ġimekuja":3943,"Ġkumwo":3944,"Ġwodi":3945,"Ġumebaini":3946,"Ġuliofanywa":3947,"shughuli":3948,"milikiwa":3949,"Ġjoto":3950,"Ġwalemavu":3951,"Ġmtambo":3952,"Ġmbona":3953,"Ġmkewe":3954,"Ġtelevisheni":3955,"ule":3956,"wakili":3957,"Ġwakia":3958,"Ġwashambuliaji":3959,"Ġst":3960,"Ġkahama":3961,"Ġipa":3962,"mela":3963,"Ġilidaiwa":3964,"Ġjadi":3965,"Ġlini":3966,"Ġlingine":3967,"Ġdada":3968,"Ġinatakiwa":3969,"gezo":3970,"Ġce":3971,"Ġof":3972,"kwama":3973,"Ġmatanga":3974,"Ġhawakuwa":3975,"Ġruma":3976,"Ġmgomo":3977,"Ġalipozungumza":3978,"Ġushirika":3979,"Ġmteja":3980,"somaji":3981,"Ġmwenendo":3982,"Ġemmanuel":3983,"mkabili":3984,"nso":3985,"rry":3986,"Ġkuza":3987,"Ġkulala":3988,"raji":3989,"Ġalishindwa":3990,"kewa":3991,"zote":3992,"Ġbalozi":3993,"Ġvicto":3994,"Ġmosi":3995,"Ġdani":3996,"Ġwakala":3997,"guson":3998,"Ġkutakuwa":3999,"Ġzozote":4000,"Ġmakala":4001,"Ġzilizopita":4002,"Ġmajaji":4003,"Ġyamekuwa":4004,"Ġmfanyakazi":4005,"Ġhususani":4006,"Ġferguson":4007,"aban":4008,"endi":4009,"mp":4010,"mkia":4011,"wazito":4012,"Ġmzazi":4013,"lika":4014,"Ġyakiwa":4015,"Ġmadri":4016,"Ġkaka":4017,"mish":4018,"moro":4019,"Ġinafanya":4020,"vunja":4021,"Ġmarafiki":4022,"Ġshaaban":4023,"Ġluca":4024,"Ġkuzidi":4025,"Ġkuharibu":4026,"Ġghana":4027,"Ġkuwapatia":4028,"Ġvinginevyo":4029,"Ġwajawazito":4030,"Ġkuhifadhi":4031,"Ġpikipiki":4032,"Ġdaniel":4033,"Ġmadrid":4034,"mishna":4035,"Ġlucas":4036,"bc":4037,"uzu":4038,"Ġkubeba":4039,"Ġubu":4040,"Ġalifunga":4041,"shangaza":4042,"Ġwanavyo":4043,"gen":4044,"Ġjingine":4045,"Ġcongo":4046,"Ġmashamba":4047,"Ġmwelekeo":4048,"ghushi":4049,"stam":4050,"Ġrostam":4051,"Ġchenye":4052,"Ġmasikini":4053,"sajiliwa":4054,"Ġtakribani":4055,"cco":4056,"uzwa":4057,"Ġkufahamu":4058,"tamba":4059,"Ġubi":4060,"Ġkisiwa":4061,"hebu":4062,"Ġsijui":4063,"zomea":4064,"Ġviwili":4065,"Ġwanazo":4066,"Ġwalicho":4067,"Ġanayo":4068,"domo":4069,"Ġiliyoundwa":4070,"Ġunaendelea":4071,"Ġmatakwa":4072,"Ġshamba":4073,"kelezwa":4074,"Ġkukusanya":4075,"Ġkilichopo":4076,"Ġahmed":4077,"Ġmabibo":4078,"Ġjangwani":4079,"lukindo":4080,"Ġcity":4081,"wapa":4082,"liwe":4083,"hirisha":4084,"Ġuji":4085,"Ġuto":4086,"Ġurefu":4087,"Ġmitaji":4088,"Ġsamu":4089,"ndamana":4090,"nguka":4091,"Ġjapo":4092,"Ġanapo":4093,"Ġtho":4094,"Ġmbadala":4095,"Ġkikundi":4096,"Ġharakati":4097,"Ġkuelewa":4098,"sababishia":4099,"Ġmahusiano":4100,"ntena":4101,"hadhari":4102,"Ġnjama":4103,"sikiliza":4104,"Ġmhi":4105,"Ġkuua":4106,"hawa":4107,"Ġkwangu":4108,"kuu":4109,"Ġharamu":4110,"Ġkiko":4111,"tosha":4112,"bila":4113,"seni":4114,"Ġtan":4115,"Ġwanam":4116,"Ġwanapata":4117,"pusha":4118,"Ġametoa":4119,"Ġkuahidi":4120,"Ġwamesema":4121,"nyanya":4122,"Ġpresha":4123,"Ġmashaka":4124,"Ġmakusudi":4125,"Ġzilizokuwa":4126,"Ġyenyewe":4127,"Ġmtiki":4128,"Ġninacho":4129,"Ġlya":4130,"Ġkubadilisha":4131,"Ġselelii":4132,"Ġmanyara":4133,"nto":4134,"Ġkro":4135,"Ġwaso":4136,"Ġmaki":4137,"Ġmarudi":4138,"Ġiti":4139,"kezwa":4140,"juma":4141,"Ġonyo":4142,"Ġmaazi":4143,"Ġbosi":4144,"Ġupatikana":4145,"Ġuliokuwa":4146,"Ġkusitisha":4147,"Ġrites":4148,"Ġkipaumbele":4149,"Ġnyekundu":4150,"Ġtulikuwa":4151,"Ġwajasi":4152,"Ġkatoliki":4153,"Ġkurejesha":4154,"Ġkurekebisha":4155,"uzulu":4156,"Ġsamuel":4157,"Ġkrosi":4158,"Ġupatikanaji":4159,"ifanya":4160,"rk":4161,"Ġz":4162,"Ġnalo":4163,"Ġusumbu":4164,"Ġingekuwa":4165,"tubia":4166,"danganyi":4167,"Ġkuwalipa":4168,"Ġwanajeshi":4169,"Ġwalifanya":4170,"Ġwalipata":4171,"Ġtuka":4172,"shoto":4173,"thibiti":4174,"Ġkuwekeza":4175,"pungua":4176,"Ġmadawa":4177,"Ġkukimbi":4178,"Ġniaba":4179,"Ġcairo":4180,"Ġkitabu":4181,"Ġvikali":4182,"wazisha":4183,"Ġkushangaza":4184,"Ġhususan":4185,"Ġvikundi":4186,"Ġmaazimio":4187,"Ġusumbufu":4188,"bya":4189,"rbia":4190,"wans":4191,"Ġmzi":4192,"linganishwa":4193,"Ġmaria":4194,"Ġkaga":4195,"Ġkinga":4196,"Ġkijijini":4197,"seme":4198,"Ġkuwawezesha":4199,"Ġilipata":4200,"Ġwalia":4201,"Ġmwaki":4202,"Ġinaonesha":4203,"Ġkondo":4204,"mbulisha":4205,"Ġiliyofanyika":4206,"Ġiliyosababisha":4207,"Ġbea":4208,"Ġmwende":4209,"Ġmassa":4210,"Ġikilinganishwa":4211,"Ġsham":4212,"Ġdowans":4213,"Ġfiti":4214,"Ġmajirani":4215,"hojiwa":4216,"Ġugawaji":4217,"Ġdiwani":4218,"Ġmitaani":4219,"haribika":4220,"haribifu":4221,"Ġfomu":4222,"sumbuliwa":4223,"Ġjenerali":4224,"Ġubungo":4225,"Ġwapata":4226,"Ġkulazimika":4227,"Ġaa":4228,"Ġaje":4229,"Ġabe":4230,"Ġmanye":4231,"Ġalionekana":4232,"fakari":4233,"chaguliwa":4234,"meta":4235,"sekana":4236,"Ġtaka":4237,"Ġhuwezi":4238,"Ġsalim":4239,"ruki":4240,"Ġakim":4241,"Ġimeamua":4242,"Ġmkopo":4243,"Ġwakifanya":4244,"Ġwakitaka":4245,"Ġleseni":4246,"Ġtete":4247,"Ġsudan":4248,"Ġroho":4249,"Ġwatetezi":4250,"Ġukarabati":4251,"Ġalimtaka":4252,"Ġzikiwemo":4253,"Ġfrank":4254,"Ġbukoba":4255,"Ġwapatao":4256,"Ġmanyema":4257,"ifunga":4258,"Ġwakristo":4259,"Ġkukubaliana":4260,"Ġalama":4261,"Ġyaani":4262,"tangazwa":4263,"Ġmapumzi":4264,"tishia":4265,"Ġuzito":4266,"Ġkilio":4267,"Ġaliamua":4268,"Ġtahadhari":4269,"Ġlile":4270,"Ġdaftari":4271,"Ġakidai":4272,"dhinisha":4273,"Ġimetoa":4274,"Ġiliyoko":4275,"Ġkuhudhuria":4276,"Ġkilikuwa":4277,"Ġwanaoji":4278,"Ġdogo":4279,"mishiwa":4280,"heshimu":4281,"Ġkumekuwa":4282,"Ġmapumziko":4283,"umia":4284,"Ġmza":4285,"Ġwafadhili":4286,"Ġkunyo":4287,"laus":4288,"Ġkingu":4289,"lendo":4290,"salia":4291,"saidi":4292,"Ġvikosi":4293,"Ġenzi":4294,"Ġpasca":4295,"Ġwatani":4296,"nusha":4297,"nyangga":4298,"Ġtunaweza":4299,"Ġaliwaambia":4300,"Ġzinazotolewa":4301,"Ġnyongeza":4302,"Ġkumuua":4303,"ripotiwa":4304,"Ġyusuf":4305,"Ġpascal":4306,"dra":4307,"tl":4308,"Ġwashi":4309,"ham":4310,"Ġnataka":4311,"Ġyapo":4312,"tasi":4313,"zindua":4314,"Ġue":4315,"ndwe":4316,"sishwa":4317,"raja":4318,"dani":4319,"mesha":4320,"diliwa":4321,"ngalie":4322,"Ġinahitaji":4323,"Ġrau":4324,"Ġimesema":4325,"liona":4326,"Ġkujipatia":4327,"Ġmwanaume":4328,"Ġfor":4329,"Ġkuingiza":4330,"Ġkujiandikisha":4331,"Ġutulivu":4332,"Ġatakaye":4333,"thamini":4334,"Ġudhaifu":4335,"Ġmwendesha":4336,"dy":4337,"wai":4338,"Ġkumbe":4339,"Ġabo":4340,"Ġanna":4341,"Ġumaa":4342,"Ġuharibifu":4343,"Ġkamishna":4344,"yota":4345,"ley":4346,"Ġkuwasha":4347,"Ġkuwafanya":4348,"res":4349,"shiria":4350,"Ġpamba":4351,"Ġkona":4352,"doro":4353,"dumia":4354,"fanyike":4355,"Ġbaraka":4356,"Ġtoyota":4357,"Ġhakutaka":4358,"Ġsumu":4359,"Ġmashe":4360,"fuatiwa":4361,"Ġkilomita":4362,"Ġwahandisi":4363,"Ġchristo":4364,"Ġkitaalamu":4365,"Ġkusambaza":4366,"Ġsuluhu":4367,"Ġendelevu":4368,"Ġkingunge":4369,"Ġumaarufu":4370,"angalia":4371,"andaliwa":4372,"ed":4373,"onya":4374,"zwe":4375,"Ġkufanyia":4376,"Ġkushinikiza":4377,"Ġhamu":4378,"Ġkike":4379,"Ġkifua":4380,"Ġtari":4381,"Ġnikiwa":4382,"Ġmijini":4383,"Ġwanajua":4384,"Ġanapaswa":4385,"Ġakiba":4386,"Ġkujiki":4387,"Ġkulipuka":4388,"dui":4389,"Ġfani":4390,"den":4391,"Ġmsajili":4392,"Ġyanaweza":4393,"Ġmachozi":4394,"Ġkusonga":4395,"Ġtegeme":4396,"hakikishia":4397,"Ġmarudiano":4398,"Ġchristophe":4399,"Ġwafungwa":4400,"habu":4401,"baka":4402,"Ġmami":4403,"Ġmapiga":4404,"Ġkadri":4405,"Ġip":4406,"jaji":4407,"Ġjamani":4408,"pukizi":4409,"Ġameamua":4410,"Ġshitaka":4411,"Ġkumiliki":4412,"shwaji":4413,"Ġben":4414,"Ġchipukizi":4415,"Ġdhahabu":4416,"mwambia":4417,"Ġkiume":4418,"Ġfilamu":4419,"kubalika":4420,"Ġuhai":4421,"Ġmbovu":4422,"Ġtangazo":4423,"Ġvyenye":4424,"Ġkushuhudia":4425,"Ġzitakuwa":4426,"Ġkubadilika":4427,"Ġkukosekana":4428,"Ġkatoro":4429,"Ġrumande":4430,"Ġmamilioni":4431,"Ġmapigano":4432,"iko":4433,"itoa":4434,"rc":4435,"wu":4436,"Ġkuruhusu":4437,"Ġkughushi":4438,"tafu":4439,"tarisha":4440,"Ġsh":4441,"Ġmana":4442,"Ġushu":4443,"Ġununuzi":4444,"Ġudanganyi":4445,"siliana":4446,"Ġtama":4447,"Ġmiha":4448,"Ġmwao":4449,"Ġziko":4450,"rome":4451,"zui":4452,"Ġwito":4453,"Ġvyake":4454,"Ġkuinua":4455,"riamali":4456,"Ġwalioko":4457,"Ġhakukuwa":4458,"Ġrukwa":4459,"Ġhapana":4460,"Ġuchungu":4461,"Ġkuondolewa":4462,"Ġkutuliza":4463,"Ġrwe":4464,"bunifu":4465,"Ġwavuni":4466,"sahau":4467,"Ġmatangazo":4468,"Ġiptl":4469,"Ġudanganyifu":4470,"niwa":4471,"tana":4472,"bada":4473,"Ġkise":4474,"Ġkigambo":4475,"mited":4476,"Ġnzito":4477,"ngazaji":4478,"Ġeto":4479,"Ġmwamba":4480,"Ġlimited":4481,"Ġanapata":4482,"niambia":4483,"shtakiwa":4484,"Ġkote":4485,"Ġpori":4486,"zunguka":4487,"mbui":4488,"Ġkuuzwa":4489,"Ġkuunganisha":4490,"Ġbenja":4491,"Ġmsichana":4492,"Ġkituoni":4493,"Ġtunaomba":4494,"Ġmakamba":4495,"taanza":4496,"dilifu":4497,"karibisha":4498,"Ġwikiendi":4499,"Ġndoto":4500,"Ġuhalifu":4501,"Ġmhandisi":4502,"wajibika":4503,"Ġchristopher":4504,"Ġkigamboni":4505,"fti":4506,"gh":4507,"mpi":4508,"plo":4509,"Ġafisa":4510,"Ġyataka":4511,"Ġit":4512,"Ġalitumia":4513,"Ġaliomba":4514,"Ġalifariki":4515,"wira":4516,"jue":4517,"nger":4518,"Ġtundu":4519,"Ġbaadae":4520,"Ġvyakula":4521,"Ġimeshindwa":4522,"Ġimeelezwa":4523,"giwa":4524,"Ġitaanza":4525,"Ġjerome":4526,"Ġpengo":4527,"Ġmakatibu":4528,"Ġredio":4529,"Ġcomoro":4530,"Ġkuelezea":4531,"Ġalbam":4532,"Ġtegete":4533,"Ġburundi":4534,"frey":4535,"Ġmramba":4536,"Ġhoseah":4537,"ulo":4538,"Ġwazuri":4539,"Ġuu":4540,"Ġundani":4541,"Ġaliko":4542,"meni":4543,"diliano":4544,"Ġhundi":4545,"Ġinatarajiwa":4546,"Ġamepata":4547,"Ġovyo":4548,"Ġmaalim":4549,"Ġbomu":4550,"Ġitatoa":4551,"Ġmwema":4552,"Ġmwendo":4553,"Ġchina":4554,"Ġbure":4555,"Ġlinaweza":4556,"chwani":4557,"swada":4558,"Ġmajadiliano":4559,"Ġkibaha":4560,"drick":4561,"Ġmlango":4562,"Ġhatiani":4563,"tendea":4564,"Ġmtwa":4565,"Ġkuvi":4566,"Ġkuhara":4567,"Ġmalia":4568,"Ġmadu":4569,"Ġun":4570,"Ġkifa":4571,"Ġkipya":4572,"Ġsija":4573,"Ġwalifika":4574,"Ġtumbo":4575,"Ġlipo":4576,"Ġpapa":4577,"dhini":4578,"Ġtea":4579,"Ġkuwekwa":4580,"Ġwasichana":4581,"Ġmbezi":4582,"Ġkujaribu":4583,"Ġmikoani":4584,"Ġlililokuwa":4585,"Ġuhalali":4586,"Ġvinara":4587,"Ġaliiomba":4588,"Ġkimsingi":4589,"Ġukubwa":4590,"Ġyatakuwa":4591,"Ġmadiwani":4592,"Ġmustafa":4593,"Ġudp":4594,"Ġtanroad":4595,"Ġwajasiriamali":4596,"Ġmtwara":4597,"Ġmaliasili":4598,"Ġq":4599,"Ġmshahara":4600,"Ġkukiwa":4601,"Ġnajua":4602,"hia":4603,"Ġuza":4604,"Ġula":4605,"Ġkielelezo":4606,"Ġalitaka":4607,"Ġaliona":4608,"letea":4609,"bira":4610,"Ġsamwe":4611,"Ġwalipa":4612,"Ġtua":4613,"Ġdpp":4614,"Ġdalali":4615,"Ġamefanya":4616,"vunia":4617,"Ġndizo":4618,"Ġkumsaidia":4619,"Ġunatokana":4620,"Ġpet":4621,"Ġmatawi":4622,"Ġwanaofanya":4623,"Ġyaliyotolewa":4624,"Ġmpinzani":4625,"Ġkukidhi":4626,"nald":4627,"Ġmgao":4628,"Ġmadereva":4629,"Ġaliitaka":4630,"Ġngoma":4631,"simama":4632,"Ġkhali":4633,"lalamikaji":4634,"Ġwapate":4635,"pendekeza":4636,"Ġmakipa":4637,"Ġtarime":4638,"en":4639,"Ġmmiliki":4640,"Ġkufafanua":4641,"Ġasha":4642,"Ġmadhe":4643,"Ġkale":4644,"Ġibada":4645,"Ġhaji":4646,"huda":4647,"Ġkizuia":4648,"Ġvyumba":4649,"Ġhujuma":4650,"ngano":4651,"ruku":4652,"Ġtumba":4653,"Ġmwanya":4654,"Ġmufti":4655,"Ġakifanya":4656,"Ġndilo":4657,"nduka":4658,"Ġbudi":4659,"Ġkuziba":4660,"Ġubaguzi":4661,"Ġmagesa":4662,"rway":4663,"Ġmikubwa":4664,"Ġrajab":4665,"Ġthomas":4666,"Ġmadhehebu":4667,"Ġkizuiani":4668,"athirika":4669,"llo":4670,"nny":4671,"rtini":4672,"Ġdia":4673,"nafsi":4674,"Ġkuchu":4675,"Ġkufariki":4676,"Ġuwazi":4677,"Ġkivu":4678,"Ġkizazi":4679,"Ġkitongoji":4680,"Ġalibainisha":4681,"min":4682,"Ġnigeria":4683,"Ġminne":4684,"Ġvikwazo":4685,"Ġilitoa":4686,"Ġwalikamatwa":4687,"ruka":4688,"Ġsere":4689,"pendi":4690,"Ġanajua":4691,"Ġpato":4692,"gundu":4693,"Ġkortini":4694,"Ġkuipa":4695,"Ġndicho":4696,"chukuliwe":4697,"Ġhawataki":4698,"kaririwa":4699,"varo":4700,"Ġkutegemea":4701,"Ġalhami":4702,"Ġdhahiri":4703,"muisho":4704,"Ġkupungua":4705,"Ġmajumuisho":4706,"irobi":4707,"nggoa":4708,"sikitishwa":4709,"Ġwasomi":4710,"bre":4711,"gwe":4712,"Ġng":4713,"Ġnda":4714,"Ġkunywa":4715,"Ġkugundua":4716,"Ġnairobi":4717,"tawala":4718,"Ġmagu":4719,"kiza":4720,"hutubia":4721,"wekea":4722,"Ġkife":4723,"Ġalikataa":4724,"changiwa":4725,"tel":4726,"Ġilia":4727,"Ġwalitoa":4728,"rumani":4729,"Ġera":4730,"pembe":4731,"Ġinawa":4732,"Ġwest":4733,"Ġraza":4734,"Ġkuisaidia":4735,"rian":4736,"Ġunatarajiwa":4737,"nduki":4738,"Ġkusafiri":4739,"Ġbunduki":4740,"Ġngumi":4741,"Ġnjema":4742,"Ġkutua":4743,"Ġunaofanywa":4744,"Ġuhaba":4745,"Ġuhamisho":4746,"Ġumati":4747,"Ġhauna":4748,"Ġchanjo":4749,"Ġfredrick":4750,"Ġmalawi":4751,"Ġmalaria":4752,"Ġpaul":4753,"Ġkifungo":4754,"Ġkifedha":4755,"er":4756,"tin":4757,"kimbi":4758,"rasa":4759,"Ġkirefu":4760,"Ġkichwani":4761,"safiri":4762,"fundisha":4763,"Ġnsaji":4764,"Ġlangoni":4765,"Ġbangi":4766,"Ġsau":4767,"Ġsale":4768,"Ġilieleza":4769,"Ġtija":4770,"Ġradhi":4771,"Ġkuamkia":4772,"Ġmkongwe":4773,"Ġshelukindo":4774,"Ġpla":4775,"kwaju":4776,"Ġfaini":4777,"Ġstans":4778,"ungana":4779,"Ġakawa":4780,"Ġcom":4781,"ngezea":4782,"Ġmagazeti":4783,"hirishwa":4784,"Ġmsimamizi":4785,"fukuza":4786,"fautia":4787,"Ġraundi":4788,"Ġnsajigwa":4789,"Ġstanslaus":4790,"rri":4791,"Ġmtaji":4792,"Ġmpenda":4793,"Ġwasomaji":4794,"Ġkufanywa":4795,"mari":4796,"ladala":4797,"Ġikio":4798,"mund":4799,"Ġzain":4800,"nea":4801,"Ġvipe":4802,"Ġdaladala":4803,"rodhe":4804,"vyokuwa":4805,"Ġmkulima":4806,"Ġpacha":4807,"dhiri":4808,"Ġmeza":4809,"Ġkongamano":4810,"Ġkujipanga":4811,"Ġzinaendelea":4812,"Ġumefika":4813,"Ġhawajui":4814,"Ġmpasuko":4815,"Ġkusikiti":4816,"Ġzilizotolewa":4817,"ford":4818,"Ġnimekuwa":4819,"Ġnec":4820,"Ġkinachotakiwa":4821,"Ġwataalam":4822,"ndikishaji":4823,"llya":4824,"furahishwa":4825,"Ġbayana":4826,"Ġkabuye":4827,"Ġitikadi":4828,"cc":4829,"ue":4830,"zy":4831,"Ġzuri":4832,"Ġmpo":4833,"lilisha":4834,"Ġwashindi":4835,"Ġwadhifa":4836,"Ġkulazi":4837,"ridi":4838,"kiuka":4839,"Ġukili":4840,"Ġkando":4841,"Ġhara":4842,"Ġhavi":4843,"safi":4844,"Ġvide":4845,"elewe":4846,"Ġwalilazimika":4847,"roka":4848,"peli":4849,"Ġanafanya":4850,"Ġinataka":4851,"gusti":4852,"shtu":4853,"Ġkuitaka":4854,"Ġflo":4855,"Ġlema":4856,"Ġkupima":4857,"Ġtunaamini":4858,"Ġkukagua":4859,"Ġwanaotaka":4860,"Ġwanaoishi":4861,"Ġjwt":4862,"Ġridhaa":4863,"Ġzilizobaki":4864,"Ġalipotakiwa":4865,"Ġkikatiba":4866,"Ġkujeruhiwa":4867,"Ġnorway":4868,"Ġmgawo":4869,"simamia":4870,"Ġbandarini":4871,"pesile":4872,"Ġmwakipesile":4873,"Ġyatakayo":4874,"Ġkuharakisha":4875,"Ġalhamisi":4876,"Ġerasto":4877,"Ġvideo":4878,"Ġjwtz":4879,"an":4880,"ambiwa":4881,"pment":4882,"Ġmapya":4883,"Ġkiwanja":4884,"Ġalitakiwa":4885,"Ġkuwatu":4886,"Ġnk":4887,"pira":4888,"pishwa":4889,"pigia":4890,"Ġwanatumia":4891,"lopment":4892,"Ġtupo":4893,"Ġakifungua":4894,"Ġkuitwa":4895,"Ġmajimbo":4896,"Ġkulipia":4897,"dugu":4898,"Ġkufundisha":4899,"Ġbarani":4900,"Ġzinaweza":4901,"Ġdeve":4902,"Ġmwenzi":4903,"Ġsungu":4904,"Ġdhati":4905,"Ġnilipo":4906,"Ġkusimamisha":4907,"Ġukuaji":4908,"Ġvocha":4909,"Ġisra":4910,"Ġandre":4911,"Ġabou":4912,"Ġmpendazoe":4913,"rodhesha":4914,"Ġdevelopment":4915,"ghari":4916,"lda":4917,"rto":4918,"wn":4919,"Ġfisadi":4920,"Ġmr":4921,"Ġkugawa":4922,"Ġkuuawa":4923,"kanusha":4924,"hiniwa":4925,"Ġamina":4926,"Ġkadugu":4927,"kumba":4928,"Ġkipo":4929,"Ġkiwira":4930,"Ġaliji":4931,"muni":4932,"teuliwa":4933,"Ġmike":4934,"koo":4935,"Ġvia":4936,"Ġwaliwa":4937,"Ġmokiwa":4938,"dhan":4939,"Ġpanga":4940,"Ġrai":4941,"Ġameshindwa":4942,"Ġosca":4943,"Ġhalina":4944,"Ġunapo":4945,"Ġzilieleza":4946,"Ġuchafu":4947,"Ġsubira":4948,"Ġyanayoendelea":4949,"Ġujanja":4950,"Ġmtindo":4951,"Ġmajeshi":4952,"Ġkushindana":4953,"Ġtutakuwa":4954,"Ġmichango":4955,"Ġwatakapo":4956,"ngenezwa":4957,"Ġhauja":4958,"pumzika":4959,"Ġpasipo":4960,"Ġramadhan":4961,"Ġalonso":4962,"Ġvictoria":4963,"fautiana":4964,"Ġkaduguda":4965,"Ġoscar":4966,"agiza":4967,"Ġasema":4968,"Ġmahiri":4969,"tio":4970,"tinga":4971,"zio":4972,"Ġudhibiti":4973,"Ġkaria":4974,"Ġhafla":4975,"husiana":4976,"rai":4977,"Ġkinye":4978,"lela":4979,"Ġkuwakamata":4980,"Ġtas":4981,"hema":4982,"Ġsinza":4983,"Ġban":4984,"Ġbasto":4985,"Ġbandia":4986,"Ġmimba":4987,"Ġmipira":4988,"Ġvipa":4989,"Ġviko":4990,"chimbaji":4991,"Ġwalinzi":4992,"zuka":4993,"Ġpombe":4994,"Ġndivyo":4995,"mbue":4996,"Ġwakiongozwa":4997,"Ġkujihusisha":4998,"Ġkujituma":4999,"Ġkumfanya":5000,"Ġhoma":5001,"Ġkupisha":5002,"Ġulitolewa":5003,"Ġuteuzi":5004,"Ġlupembe":5005,"Ġkipawa":5006,"Ġkutunza":5007,"Ġkukicha":5008,"Ġujerumani":5009,"Ġukanda":5010,"Ġmanji":5011,"Ġnur":5012,"Ġmgawa":5013,"Ġedmund":5014,"Ġmlanzi":5015,"Ġgerezani":5016,"Ġyusuph":5017,"Ġramadhani":5018,"Ġsendeka":5019,"hifadhiwa":5020,"Ġtamasha":5021,"Ġkiserikali":5022,"Ġbastola":5023,"imarisha":5024,"oo":5025,"Ġkukuta":5026,"Ġkushoto":5027,"laba":5028,"Ġumwa":5029,"Ġuwt":5030,"jage":5031,"Ġzahoro":5032,"Ġlango":5033,"Ġmie":5034,"Ġbri":5035,"Ġvigezo":5036,"elekeza":5037,"ndikishwa":5038,"Ġwalifanikiwa":5039,"ngeti":5040,"ganda":5041,"Ġmwajiri":5042,"ndon":5043,"Ġkuidhinisha":5044,"Ġwamepata":5045,"Ġwatapata":5046,"Ġkujiuzulu":5047,"vin":5048,"kwepa":5049,"Ġteule":5050,"wezekani":5051,"Ġmakanisa":5052,"Ġikiendelea":5053,"Ġkimaro":5054,"Ġnyange":5055,"Ġrehema":5056,"unganisha":5057,"Ġyaliyopo":5058,"Ġfifa":5059,"Ġkukutwa":5060,"Ġmoham":5061,"Ġinjini":5062,"Ġmakontena":5063,"Ġwalipofika":5064,"Ġmabenki":5065,"Ġyakiwemo":5066,"Ġmsongamano":5067,"Ġangalau":5068,"Ġukiangalia":5069,"ikolojia":5070,"Ġpetro":5071,"Ġserengeti":5072,"ine":5073,"rne":5074,"suaji":5075,"twe":5076,"Ġms":5077,"Ġmche":5078,"Ġmguu":5079,"Ġwaendelee":5080,"Ġkuvamia":5081,"Ġanne":5082,"Ġmanne":5083,"Ġuyo":5084,"Ġkana":5085,"Ġifika":5086,"Ġkihi":5087,"Ġalifika":5088,"Ġalitaja":5089,"sari":5090,"savyo":5091,"ser":5092,"Ġkuwafikia":5093,"Ġtara":5094,"Ġland":5095,"Ġbaga":5096,"Ġmiji":5097,"Ġwanahitaji":5098,"moyo":5099,"ngola":5100,"ngezwa":5101,"goda":5102,"Ġtri":5103,"Ġmaagizo":5104,"mbee":5105,"Ġupasuaji":5106,"Ġjezi":5107,"Ġmatajiri":5108,"Ġglo":5109,"Ġuliopigwa":5110,"Ġtumekuwa":5111,"Ġataendelea":5112,"Ġyaliyotokea":5113,"Ġmawakala":5114,"Ġujasiri":5115,"Ġkaijage":5116,"mbulika":5117,"Ġvitisho":5118,"nggombe":5119,"Ġtreni":5120,"Ġipasavyo":5121,"Ġkondomu":5122,"Ġushuru":5123,"Ġifikapo":5124,"Ġbagamoyo":5125,"njo":5126,"um":5127,"wari":5128,"lila":5129,"Ġwapanga":5130,"Ġkupe":5131,"Ġkustaafu":5132,"Ġkuhofia":5133,"Ġamo":5134,"zamo":5135,"Ġinge":5136,"jibika":5137,"sim":5138,"weleza":5139,"Ġkizi":5140,"pate":5141,"patiwa":5142,"mero":5143,"fuzu":5144,"Ġkuwapo":5145,"Ġninyi":5146,"Ġchafu":5147,"Ġwanakabiliwa":5148,"lokuwa":5149,"wino":5150,"rea":5151,"zetini":5152,"geme":5153,"Ġpopo":5154,"Ġwataweza":5155,"Ġwatahiniwa":5156,"Ġwakisema":5157,"Ġwakitumia":5158,"Ġkujifungua":5159,"Ġboban":5160,"Ġzinaonesha":5161,"Ġinayowakabili":5162,"Ġkabwe":5163,"Ġakiwasilisha":5164,"Ġnyadhifa":5165,"nyiro":5166,"Ġmchanga":5167,"Ġlondon":5168,"Ġrobert":5169,"Ġhayati":5170,"Ġkilichokuwa":5171,"ridhishwa":5172,"ndeleo":5173,"nywaji":5174,"jitambulisha":5175,"Ġmilango":5176,"kabidhiwa":5177,"Ġkusafirisha":5178,"Ġsendeu":5179,"Ġgodfrey":5180,"Ġmhina":5181,"Ġbenjamin":5182,"Ġkariakoo":5183,"Ġnurdin":5184,"qua":5185,"ss":5186,"swi":5187,"wanga":5188,"Ġwange":5189,"tani":5190,"takuwa":5191,"Ġmadhu":5192,"Ġudhamini":5193,"Ġkahawa":5194,"mbatana":5195,"fana":5196,"mis":5197,"mira":5198,"Ġkuwasiliana":5199,"Ġzahana":5200,"Ġbagen":5201,"Ġviki":5202,"Ġanaji":5203,"Ġanakuwa":5204,"Ġwatumiaji":5205,"Ġimeendelea":5206,"kamano":5207,"Ġutangazaji":5208,"Ġgava":5209,"Ġkusawazisha":5210,"Ġmakada":5211,"Ġmwanasiasa":5212,"Ġhakika":5213,"Ġkutenda":5214,"Ġnyanja":5215,"Ġalionya":5216,"Ġkuonana":5217,"Ġyanayohusu":5218,"Ġkitakuwa":5219,"Ġvyeti":5220,"Ġuandikishaji":5221,"Ġkunufa":5222,"Ġsteven":5223,"Ġkumwambia":5224,"hadharisha":5225,"Ġaziz":5226,"jumuisha":5227,"Ġmshikamano":5228,"Ġtanroads":5229,"gundulika":5230,"Ġmohammed":5231,"Ġzahanati":5232,"Ġgavana":5233,"achwa":5234,"ile":5235,"uzito":5236,"nadi":5237,"Ġkulwa":5238,"Ġala":5239,"Ġswe":5240,"kidhi":5241,"lada":5242,"kumbwa":5243,"tupa":5244,"Ġhia":5245,"jazo":5246,"rasi":5247,"Ġalilazimika":5248,"samba":5249,"sadi":5250,"michezo":5251,"Ġkuwapeleka":5252,"Ġlangu":5253,"nedi":5254,"Ġsam":5255,"Ġsaini":5256,"Ġwanaha":5257,"nguliwa":5258,"nyeji":5259,"fike":5260,"Ġwalitakiwa":5261,"Ġzijazo":5262,"Ġmojawapo":5263,"liambia":5264,"Ġmuswada":5265,"Ġmegawa":5266,"Ġjipya":5267,"Ġkuambiwa":5268,"Ġshingo":5269,"Ġwataendelea":5270,"Ġwaliohusika":5271,"Ġkuumia":5272,"Ġkuundwa":5273,"boko":5274,"vic":5275,"Ġyenu":5276,"Ġkupitisha":5277,"Ġitawa":5278,"Ġbeni":5279,"Ġkufuzu":5280,"Ġulimwe":5281,"Ġsanaa":5282,"Ġwaandamizi":5283,"Ġfungu":5284,"rudisha":5285,"punguza":5286,"Ġujauzito":5287,"Ġitakayofanyika":5288,"Ġismai":5289,"nganyiko":5290,"Ġmahita":5291,"Ġmlinzi":5292,"Ġkienyeji":5293,"Ġamir":5294,"shughulikiwa":5295,"Ġsamwel":5296,"Ġukilinganisha":5297,"Ġulimwengu":5298,"Ġkwi":5299,"lishwa":5300,"Ġwaji":5301,"Ġkuchi":5302,"Ġnafikiri":5303,"Ġac":5304,"Ġsqua":5305,"Ġmake":5306,"Ġungu":5307,"Ġugumu":5308,"Ġhajui":5309,"rati":5310,"rabu":5311,"Ġkisi":5312,"Ġalikamatwa":5313,"leo":5314,"dina":5315,"Ġkuwaeleza":5316,"Ġtafiti":5317,"kezi":5318,"ship":5319,"Ġsidhani":5320,"Ġbongo":5321,"Ġwanakuwa":5322,"Ġwalishindwa":5323,"Ġliko":5324,"Ġanatarajiwa":5325,"Ġinabidi":5326,"Ġakitumia":5327,"Ġwenger":5328,"Ġkuandamana":5329,"Ġkomp":5330,"Ġkoplo":5331,"yuta":5332,"Ġwameshindwa":5333,"gilia":5334,"Ġiliyopigwa":5335,"soa":5336,"vile":5337,"Ġgama":5338,"Ġber":5339,"Ġpc":5340,"ulize":5341,"Ġbukwi":5342,"Ġshabiki":5343,"karibia":5344,"Ġnyama":5345,"Ġwasimamizi":5346,"Ġyona":5347,"Ġmawakili":5348,"Ġmajeraha":5349,"Ġnoti":5350,"Ġmazoezini":5351,"Ġvumbi":5352,"Ġkuelimisha":5353,"Ġkuepusha":5354,"Ġhuruma":5355,"Ġkuwaachia":5356,"Ġupendo":5357,"Ġupendeleo":5358,"Ġmahenge":5359,"Ġmihale":5360,"Ġmaduka":5361,"Ġteam":5362,"Ġunguja":5363,"Ġkompyuta":5364,"Ġbukwimba":5365,"ccm":5366,"cia":5367,"nter":5368,"sya":5369,"Ġmdomo":5370,"Ġwafanye":5371,"Ġkumua":5372,"Ġnadi":5373,"Ġnauli":5374,"bana":5375,"Ġuwajibika":5376,"humu":5377,"siko":5378,"jadala":5379,"Ġalijibu":5380,"Ġkuwata":5381,"Ġnipo":5382,"Ġmijadala":5383,"ngili":5384,"Ġepa":5385,"Ġjapa":5386,"pewe":5387,"nder":5388,"Ġwametakiwa":5389,"nusuru":5390,"Ġwaliofika":5391,"vio":5392,"Ġitafanya":5393,"Ġmkaguzi":5394,"Ġkufutwa":5395,"Ġkufurahi":5396,"Ġkutangazwa":5397,"Ġtunajua":5398,"chukue":5399,"Ġmakalla":5400,"Ġwanaotumia":5401,"Ġikifanya":5402,"vamizi":5403,"Ġkutembelea":5404,"Ġricha":5405,"Ġfujo":5406,"Ġchumvi":5407,"Ġusikili":5408,"Ġwalengwa":5409,"Ġardhini":5410,"Ġaliyokuwa":5411,"Ġvipindi":5412,"shindikana":5413,"Ġlitakuwa":5414,"Ġvan":5415,"Ġhamisi":5416,"Ġomari":5417,"Ġburudani":5418,"Ġwahitimu":5419,"Ġjukwaani":5420,"wakilisha":5421,"Ġmtikisiko":5422,"Ġajenda":5423,"Ġtegemeo":5424,"Ġkihistoria":5425,"Ġwapangaji":5426,"Ġuwajibikaji":5427,"yce":5428,"Ġkutakiwa":5429,"Ġkudaiwa":5430,"kane":5431,"Ġmat":5432,"zama":5433,"Ġurahisi":5434,"Ġunyanya":5435,"Ġia":5436,"kumiwa":5437,"tuhumu":5438,"Ġkikwazo":5439,"Ġkinyangga":5440,"Ġalipewa":5441,"Ġkuwafunga":5442,"buda":5443,"shio":5444,"Ġzamu":5445,"port":5446,"Ġbro":5447,"Ġvitongoji":5448,"Ġwanashindwa":5449,"mbwe":5450,"Ġtuweze":5451,"Ġmwandamizi":5452,"Ġtishio":5453,"per":5454,"pesha":5455,"Ġmkumbo":5456,"Ġanacho":5457,"Ġanaendelea":5458,"Ġinatoa":5459,"surika":5460,"Ġkuachiwa":5461,"Ġshibuda":5462,"Ġowino":5463,"mbie":5464,"Ġwamelazwa":5465,"Ġhataki":5466,"Ġkujiamini":5467,"nunua":5468,"Ġwaliojitokeza":5469,"Ġunakuwa":5470,"Ġutaona":5471,"Ġbenedi":5472,"Ġjela":5473,"Ġmsako":5474,"Ġmsalaba":5475,"Ġinayomkabili":5476,"Ġkupona":5477,"Ġkuchaguliwa":5478,"Ġlililopo":5479,"Ġcana":5480,"ngenezo":5481,"Ġmagomeni":5482,"Ġuvumi":5483,"Ġkaratasi":5484,"Ġkuchelewa":5485,"razili":5486,"njika":5487,"Ġmatengenezo":5488,"Ġkuhojiwa":5489,"Ġmvutano":5490,"Ġutovu":5491,"Ġkukimbilia":5492,"Ġsquad":5493,"Ġusikilizwaji":5494,"Ġkinyangganyiro":5495,"mji":5496,"rn":5497,"Ġmpiga":5498,"Ġmlima":5499,"Ġkurusha":5500,"Ġnapenda":5501,"nika":5502,"Ġad":5503,"tambuliwa":5504,"Ġmase":5505,"Ġucho":5506,"Ġuelewa":5507,"Ġkaba":5508,"Ġalimu":5509,"paganda":5510,"shangilia":5511,"fundi":5512,"Ġtata":5513,"tenda":5514,"Ġbageni":5515,"Ġviba":5516,"Ġwanaamini":5517,"Ġwanaishi":5518,"Ġilielezwa":5519,"Ġwalipokuwa":5520,"ngezi":5521,"Ġtuko":5522,"mboa":5523,"Ġanaongeza":5524,"Ġpabaya":5525,"Ġpart":5526,"Ġmema":5527,"Ġkuichezea":5528,"Ġkujikuta":5529,"Ġkwenu":5530,"Ġtunaendelea":5531,"Ġmgongo":5532,"Ġuwepo":5533,"Ġmfungaji":5534,"Ġstaili":5535,"Ġpropaganda":5536,"fsiri":5537,"Ġkukiuka":5538,"Ġmapanga":5539,"Ġvilevile":5540,"Ġkilichotokea":5541,"Ġkuhatarisha":5542,"Ġupimaji":5543,"Ġaliyoitoa":5544,"ness":5545,"Ġhamis":5546,"Ġjukwaa":5547,"Ġkiislamu":5548,"Ġubinafsi":5549,"Ġumwagilia":5550,"Ġmegawati":5551,"Ġrichard":5552,"Ġumwagiliaji":5553,"ske":5554,"ys":5555,"Ġwai":5556,"Ġnakala":5557,"Ġan":5558,"Ġacha":5559,"Ġig":5560,"Ġkicha":5561,"Ġalizi":5562,"fute":5563,"Ġkuwachukulia":5564,"Ġkuwaondoa":5565,"shindo":5566,"Ġniko":5567,"Ġnmb":5568,"Ġmicho":5569,"Ġvipo":5570,"Ġilitakiwa":5571,"rema":5572,"Ġlibya":5573,"Ġdaud":5574,"Ġbima":5575,"takabali":5576,"Ġanao":5577,"Ġmus":5578,"Ġwema":5579,"Ġkuathiri":5580,"nunu":5581,"Ġwaliofanya":5582,"Ġkuungana":5583,"Ġgazetini":5584,"Ġkupigia":5585,"Ġphili":5586,"ben":5587,"Ġaugusti":5588,"Ġumeanza":5589,"Ġmakame":5590,"dea":5591,"Ġkuficha":5592,"onal":5593,"Ġnjiani":5594,"Ġromji":5595,"Ġmabomba":5596,"Ġkawawa":5597,"Ġzenu":5598,"Ġcup":5599,"Ġmatunda":5600,"Ġvinasaba":5601,"Ġwakongwe":5602,"Ġutekelezwaji":5603,"Ġsokoine":5604,"julikani":5605,"Ġmagogo":5606,"Ġkilometa":5607,"Ġiweje":5608,"Ġmasangwa":5609,"Ġfree":5610,"Ġvale":5611,"Ġmachafu":5612,"Ġwhi":5613,"Ġomar":5614,"Ġujio":5615,"Ġuyoga":5616,"Ġtarafa":5617,"sadikiwa":5618,"ac":5619,"es":5620,"frika":5621,"Ġkupenda":5622,"Ġkuvaa":5623,"Ġure":5624,"Ġidhini":5625,"pati":5626,"muru":5627,"tez":5628,"Ġsara":5629,"Ġsayi":5630,"ngizi":5631,"Ġchale":5632,"Ġilishinda":5633,"moa":5634,"chelewa":5635,"choka":5636,"Ġamefariki":5637,"Ġkuagiza":5638,"Ġkuachia":5639,"Ġfla":5640,"Ġwamekufa":5641,"Ġkujiridhisha":5642,"Ġtunawa":5643,"Ġwanaotuhumiwa":5644,"Ġkupachika":5645,"Ġmsafiri":5646,"Ġshauri":5647,"rakati":5648,"Ġfundi":5649,"Ġusingizi":5650,"swahili":5651,"Ġkikapu":5652,"Ġronal":5653,"Ġujambazi":5654,"Ġmagafu":5655,"Ġmarmo":5656,"Ġkinachoendelea":5657,"Ġkunusuru":5658,"Ġmseto":5659,"Ġkuwaacha":5660,"Ġupepo":5661,"Ġkassim":5662,"fukuzwa":5663,"Ġkipengele":5664,"Ġshoo":5665,"Ġkukabidhiwa":5666,"Ġkujikita":5667,"Ġetoile":5668,"Ġandrew":5669,"Ġkinyemela":5670,"Ġbenitez":5671,"Ġronaldo":5672,"tho":5673,"ukwa":5674,"Ġkuharibika":5675,"Ġkupumzika":5676,"hamishiwa":5677,"Ġnae":5678,"Ġnaku":5679,"Ġnaona":5680,"Ġari":5681,"Ġyati":5682,"Ġmapo":5683,"Ġmava":5684,"Ġmarufu":5685,"tional":5686,"kifanya":5687,"kizwa":5688,"Ġulianza":5689,"Ġkwako":5690,"Ġalikaririwa":5691,"faruku":5692,"Ġkuwaka":5693,"Ġkuwataja":5694,"Ġtaba":5695,"buri":5696,"hewa":5697,"Ġlaw":5698,"Ġlami":5699,"ngoro":5700,"eleze":5701,"ngunga":5702,"Ġwalitaka":5703,"Ġakitaka":5704,"Ġakihutubia":5705,"Ġrafa":5706,"Ġimewa":5707,"Ġwamea":5708,"laani":5709,"Ġiliyochezwa":5710,"Ġkilindi":5711,"Ġkutamba":5712,"amuru":5713,"Ġmtumishi":5714,"Ġmwekundu":5715,"Ġinayoendelea":5716,"Ġkuteke":5717,"Ġzinazofanywa":5718,"Ġyaliyofanyika":5719,"Ġlwa":5720,"Ġufunguzi":5721,"Ġkibao":5722,"ingilio":5723,"Ġwilb":5724,"Ġkilosa":5725,"Ġmanunuzi":5726,"Ġmwenzao":5727,"Ġmasalia":5728,"laumu":5729,"Ġzfa":5730,"Ġkunyongwa":5731,"gharimu":5732,"Ġmchele":5733,"Ġbenedict":5734,"Ġyatima":5735,"Ġmavazi":5736,"Ġriadha":5737,"Ġkuwezesha":5738,"Ġkuruhusiwa":5739,"Ġangalia":5740,"rida":5741,"Ġubunifu":5742,"Ġini":5743,"weni":5744,"lele":5745,"bishwa":5746,"sanyiko":5747,"Ġkuwaomba":5748,"Ġtajiri":5749,"Ġzana":5750,"tenga":5751,"Ġbati":5752,"Ġwanamuziki":5753,"Ġilifanya":5754,"ngusha":5755,"Ġwalifikishwa":5756,"Ġeva":5757,"Ġjane":5758,"Ġjasho":5759,"Ġlilia":5760,"jengea":5761,"Ġjua":5762,"Ġanadai":5763,"Ġinashangaza":5764,"gusa":5765,"Ġmungi":5766,"dhili":5767,"Ġamem":5768,"Ġkuongea":5769,"Ġmaarifa":5770,"mbeni":5771,"liondo":5772,"Ġiliyotokea":5773,"Ġunatakiwa":5774,"Ġtenga":5775,"Ġmsimbazi":5776,"Ġkutafakari":5777,"Ġwanaocheza":5778,"Ġruhu":5779,"Ġshadra":5780,"Ġdosari":5781,"Ġzilizopatikana":5782,"Ġhaiwezekani":5783,"fikiria":5784,"Ġzinazoendelea":5785,"Ġdhaifu":5786,"Ġzimeanza":5787,"Ġfikra":5788,"Ġkutuma":5789,"Ġcanna":5790,"Ġndefu":5791,"Ġrwa":5792,"Ġkutinga":5793,"Ġkutishia":5794,"Ġujue":5795,"Ġmadawati":5796,"Ġcommuni":5797,"Ġpopote":5798,"Ġkunufaika":5799,"Ġnadir":5800,"Ġshadrack":5801,"Ġcannavaro":5802,"gele":5803,"iri":5804,"lix":5805,"Ġwaishi":5806,"Ġwachungaji":5807,"Ġkuzo":5808,"Ġkupu":5809,"Ġkukwamisha":5810,"Ġnami":5811,"Ġant":5812,"ngwana":5813,"Ġsm":5814,"Ġmapu":5815,"Ġmary":5816,"Ġmapungufu":5817,"Ġmatha":5818,"Ġunga":5819,"Ġkari":5820,"kusudi":5821,"Ġharou":5822,"Ġalionesha":5823,"Ġaliingia":5824,"Ġalithibitisha":5825,"Ġaliliambia":5826,"Ġkuwahoji":5827,"Ġkuwajibika":5828,"tengeneza":5829,"Ġmina":5830,"kosea":5831,"pitia":5832,"pigiwa":5833,"Ġvibali":5834,"Ġwanadai":5835,"Ġilim":5836,"Ġilisababisha":5837,"fisha":5838,"reji":5839,"Ġmwake":5840,"Ġmwanga":5841,"Ġdua":5842,"pendwa":5843,"mbozi":5844,"Ġpatel":5845,"Ġakichangia":5846,"sumbua":5847,"Ġhaoni":5848,"Ġkuita":5849,"Ġshiniki":5850,"Ġimesha":5851,"Ġwamesha":5852,"Ġmahanga":5853,"Ġwaliokamatwa":5854,"Ġunapaswa":5855,"boli":5856,"Ġwaondo":5857,"Ġmabango":5858,"nduliwa":5859,"Ġtunahitaji":5860,"Ġkutembea":5861,"shauriwa":5862,"Ġkimaendeleo":5863,"Ġakasema":5864,"Ġloliondo":5865,"Ġngawai":5866,"Ġkukiri":5867,"Ġkuchambua":5868,"ndaaji":5869,"funguliwa":5870,"Ġwenzangu":5871,"Ġghala":5872,"katare":5873,"Ġkulazwa":5874,"Ġujuzi":5875,"Ġmagodoro":5876,"Ġukimya":5877,"Ġkaratu":5878,"Ġmahujaji":5879,"Ġmtoni":5880,"sikilizwa":5881,"Ġkusuku":5882,"Ġwahisani":5883,"faulu":5884,"Ġkorogwe":5885,"Ġtunduma":5886,"Ġigp":5887,"Ġmarufuku":5888,"Ġlwakatare":5889,"Ġmungiki":5890,"Ġantho":5891,"kusudiwa":5892,"Ġshinikizo":5893,"Ġngawaiya":5894,"hc":5895,"ipata":5896,"pre":5897,"sso":5898,"Ġkongo":5899,"Ġmzito":5900,"Ġangekuwa":5901,"Ġangola":5902,"tiboli":5903,"jifunza":5904,"sikika":5905,"Ġkiha":5906,"Ġkimia":5907,"Ġkirahisi":5908,"toshe":5909,"sama":5910,"mila":5911,"Ġvvu":5912,"Ġkuwao":5913,"buru":5914,"tengwa":5915,"tengenezwa":5916,"Ġvifungu":5917,"Ġvitendea":5918,"Ġilionekana":5919,"cheni":5920,"chelewe":5921,"Ġtuske":5922,"Ġlisi":5923,"Ġinasema":5924,"Ġpole":5925,"Ġwatalii":5926,"Ġwakitoa":5927,"Ġkujiendesha":5928,"Ġkujitegemea":5929,"Ġwaliondoka":5930,"Ġwaliohudhuria":5931,"Ġfeki":5932,"Ġhou":5933,"Ġhatujui":5934,"Ġmwito":5935,"Ġitasaidia":5936,"Ġkuhudumia":5937,"Ġaliyewahi":5938,"Ġkukabili":5939,"Ġnguru":5940,"Ġkusitishwa":5941,"Ġtumeona":5942,"Ġmbrazili":5943,"Ġreu":5944,"nyima":5945,"Ġyanayoweza":5946,"Ġmatusi":5947,"Ġchote":5948,"Ġabdi":5949,"Ġnetiboli":5950,"Ġmafundi":5951,"Ġuanga":5952,"Ġhauwezi":5953,"Ġmasoud":5954,"kumbuka":5955,"Ġvilivyopo":5956,"Ġkuchezea":5957,"nufaisha":5958,"nufaika":5959,"thibitishwa":5960,"Ġabeid":5961,"Ġuzalendo":5962,"rrison":5963,"Ġruhusa":5964,"Ġkimiani":5965,"Ġtusker":5966,"fta":5967,"Ġzu":5968,"Ġmkia":5969,"Ġmdhamini":5970,"Ġmlalamikaji":5971,"hile":5972,"Ġaz":5973,"Ġmato":5974,"Ġmamia":5975,"Ġmado":5976,"tive":5977,"zipata":5978,"Ġharrison":5979,"husishwa":5980,"siti":5981,"Ġkiwe":5982,"Ġkiga":5983,"Ġkibaya":5984,"dii":5985,"Ġkuwatia":5986,"Ġkuwaona":5987,"keli":5988,"buti":5989,"Ġbais":5990,"Ġbalali":5991,"kobe":5992,"pitishwa":5993,"Ġbla":5994,"Ġvichwa":5995,"Ġwanane":5996,"Ġwanariadha":5997,"Ġwaliamua":5998,"Ġdau":5999,"Ġbidii":6000,"Ġinaongoza":6001,"Ġpadri":6002,"gue":6003,"Ġpius":6004,"Ġkuiga":6005,"Ġkuoa":6006,"Ġimepata":6007,"Ġmaandishi":6008,"Ġkujio":6009,"nusurika":6010,"Ġwaliona":6011,"Ġunaonesha":6012,"Ġutajiri":6013,"viti":6014,"Ġkampa":6015,"nyakua":6016,"thimini":6017,"Ġshukuru":6018,"Ġmabaki":6019,"Ġdeo":6020,"Ġmatano":6021,"Ġwenyeviti":6022,"Ġbuti":6023,"Ġkutekelezwa":6024,"Ġatafanya":6025,"Ġmtafaruku":6026,"Ġunaotarajiwa":6027,"Ġanayedaiwa":6028,"Ġkitanzania":6029,"subiriwa":6030,"Ġkuelezwa":6031,"Ġwill":6032,"singizio":6033,"Ġmageuzi":6034,"Ġmasikio":6035,"Ġupote":6036,"Ġfred":6037,"Ġmumewe":6038,"Ġkusafisha":6039,"Ġazimio":6040,"Ġkukemea":6041,"Ġkiislam":6042,"Ġnjombe":6043,"Ġuuzaji":6044,"Ġvipengele":6045,"Ġglory":6046,"Ġmadhubuti":6047,"Ġharoub":6048,"Ġnguruwe":6049,"Ġreuben":6050,"Ġbaiskeli":6051,"andaa":6052,"ashiria":6053,"bongo":6054,"ddin":6055,"ikabili":6056,"mk":6057,"Ġkushi":6058,"Ġkulalamika":6059,"Ġmauri":6060,"tine":6061,"Ġuchezaji":6062,"Ġisa":6063,"sibu":6064,"Ġhiddin":6065,"Ġalipiga":6066,"pania":6067,"Ġkuwaua":6068,"Ġmibovu":6069,"Ġblu":6070,"Ġvikiwa":6071,"elekezwa":6072,"ficha":6073,"Ġenter":6074,"Ġtusi":6075,"Ġmwando":6076,"Ġziweze":6077,"Ġanawa":6078,"Ġmeno":6079,"geuka":6080,"Ġjinsia":6081,"Ġcpa":6082,"Ġamekiri":6083,"Ġkuiomba":6084,"Ġimezidi":6085,"Ġmaafisa":6086,"ndeni":6087,"Ġwamedai":6088,"Ġposta":6089,"laamu":6090,"Ġkujiuliza":6091,"Ġwaliozungumza":6092,"Ġkumpata":6093,"soka":6094,"Ġunaona":6095,"Ġjerry":6096,"Ġtony":6097,"Ġpepe":6098,"tumike":6099,"bishara":6100,"Ġikifuatiwa":6101,"Ġshari":6102,"Ġkipimo":6103,"Ġkuzikwa":6104,"Ġyou":6105,"Ġwakiwamo":6106,"Ġchenge":6107,"Ġmtazamo":6108,"Ġkujengwa":6109,"Ġmbiu":6110,"Ġdira":6111,"Ġkumuona":6112,"Ġkisaikolojia":6113,"Ġmserbia":6114,"Ġubalozi":6115,"Ġwavuvi":6116,"Ġseleman":6117,"Ġathumani":6118,"Ġpauni":6119,"Ġinterna":6120,"Ġkifupi":6121,"Ġkuaminika":6122,"Ġtumbaku":6123,"Ġsunguti":6124,"Ġjapan":6125,"Ġparty":6126,"Ġhiddink":6127,"Ġmwandosya":6128,"ishia":6129,"nho":6130,"rre":6131,"Ġmkwaju":6132,"Ġwatoe":6133,"hisho":6134,"tambulika":6135,"bas":6136,"mad":6137,"Ġudi":6138,"Ġumiliki":6139,"Ġkado":6140,"Ġhayu":6141,"Ġkiki":6142,"Ġkitaka":6143,"Ġkikristo":6144,"Ġkishindo":6145,"Ġalifikishwa":6146,"tofautiana":6147,"changanya":6148,"Ġkuwako":6149,"Ġzako":6150,"Ġsingo":6151,"Ġbakwa":6152,"Ġsalamu":6153,"Ġwanandoa":6154,"loni":6155,"win":6156,"Ġkutokuwepo":6157,"Ġwalidaiwa":6158,"Ġmolle":6159,"Ġeac":6160,"Ġmwafaka":6161,"Ġmwangunga":6162,"Ġdro":6163,"roni":6164,"zuku":6165,"Ġanam":6166,"Ġakisisitiza":6167,"dhihirisha":6168,"Ġmembe":6169,"Ġcwt":6170,"Ġkuonya":6171,"Ġwatafanya":6172,"Ġwakisubiri":6173,"Ġkumkamata":6174,"Ġfelix":6175,"Ġbondia":6176,"Ġpha":6177,"Ġzinasema":6178,"Ġtunatakiwa":6179,"minifu":6180,"Ġwanaodaiwa":6181,"Ġruzuku":6182,"Ġkupanua":6183,"Ġmaskini":6184,"Ġtumeamua":6185,"Ġhero":6186,"Ġnyara":6187,"ibua":6188,"Ġcheka":6189,"rishaji":6190,"Ġmfadhili":6191,"Ġkumalizia":6192,"Ġkilichofanyika":6193,"Ġneno":6194,"Ġkhamis":6195,"Ġuvunji":6196,"Ġkuingizwa":6197,"Ġlikizo":6198,"Ġsuluhisho":6199,"sainiwa":6200,"Ġkagaruki":6201,"Ġmassati":6202,"Ġmzambia":6203,"Ġanthony":6204,"Ġupotevu":6205,"Ġbakwata":6206,"Ġuvunjifu":6207,"cis":6208,"lfan":6209,"opia":6210,"ste":6211,"sco":6212,"Ġkhe":6213,"Ġkushambulia":6214,"Ġkukamata":6215,"Ġkukwepa":6216,"hamu":6217,"Ġara":6218,"Ġmabu":6219,"Ġmafua":6220,"zalishwa":6221,"rick":6222,"Ġukati":6223,"Ġubongo":6224,"Ġkavu":6225,"kusanya":6226,"hukumiwa":6227,"Ġkigogo":6228,"Ġkioo":6229,"Ġalikana":6230,"Ġalicheza":6231,"tofu":6232,"mie":6233,"miria":6234,"Ġkuwahi":6235,"kelewa":6236,"teua":6237,"Ġsimon":6238,"Ġbare":6239,"Ġbalama":6240,"pisha":6241,"Ġvisima":6242,"Ġvinywaji":6243,"Ġilitokea":6244,"noa":6245,"elewi":6246,"Ġjanga":6247,"Ġjalada":6248,"Ġzipi":6249,"dhamiria":6250,"Ġanakabiliwa":6251,"Ġmushi":6252,"Ġtb":6253,"Ġamelazwa":6254,"Ġkuanguka":6255,"Ġkuiwezesha":6256,"Ġimefanya":6257,"Ġimeweka":6258,"Ġimeongezeka":6259,"Ġwamefanya":6260,"Ġpotofu":6261,"Ġkuuliza":6262,"thiopia":6263,"Ġshehe":6264,"Ġmsisi":6265,"Ġpre":6266,"Ġkufungiwa":6267,"Ġzinatakiwa":6268,"Ġwoga":6269,"Ġtunacho":6270,"Ġlori":6271,"Ġaliondoka":6272,"Ġmartin":6273,"Ġkurudishiwa":6274,"Ġkutimua":6275,"Ġhajawahi":6276,"Ġhaziwezi":6277,"simamisha":6278,"Ġmabehewa":6279,"Ġwauguzi":6280,"Ġasiye":6281,"Ġaliahidi":6282,"anzia":6283,"Ġwazawa":6284,"Ġfrancis":6285,"Ġkizimbani":6286,"Ġismail":6287,"Ġaugustino":6288,"Ġtabata":6289,"Ġkampala":6290,"Ġbaregu":6291,"iser":6292,"rma":6293,"wji":6294,"wasaidia":6295,"Ġwaje":6296,"Ġkuru":6297,"Ġkuripoti":6298,"Ġkuridhisha":6299,"Ġaende":6300,"tamka":6301,"Ġmafi":6302,"lana":6303,"Ġukuta":6304,"Ġubovu":6305,"Ġuchimbaji":6306,"kusa":6307,"kumo":6308,"sihi":6309,"jali":6310,"Ġkibaki":6311,"Ġkisiwani":6312,"Ġkijeshi":6313,"Ġalini":6314,"fajiri":6315,"meh":6316,"Ġnhc":6317,"Ġlabo":6318,"neur":6319,"Ġmifa":6320,"Ġsalo":6321,"pingwa":6322,"Ġvidogo":6323,"Ġilishindwa":6324,"Ġilitokana":6325,"moka":6326,"widhi":6327,"ngulia":6328,"Ġwaliingia":6329,"Ġinalenga":6330,"Ġmuu":6331,"Ġmusa":6332,"sulu":6333,"Ġkuimba":6334,"Ġshimo":6335,"dole":6336,"Ġkel":6337,"Ġkumshambulia":6338,"Ġkumweleza":6339,"boresha":6340,"Ġkufanyakazi":6341,"tokeze":6342,"Ġkilieleza":6343,"Ġdewji":6344,"Ġfaraja":6345,"Ġpenzi":6346,"Ġulifanyika":6347,"tumie":6348,"Ġchigu":6349,"Ġsukari":6350,"Ġkupandisha":6351,"Ġwaache":6352,"Ġsharti":6353,"Ġinayosababisha":6354,"Ġriba":6355,"Ġalfajiri":6356,"Ġhebu":6357,"Ġmaziwa":6358,"Ġmazito":6359,"Ġkuzindua":6360,"Ġkukithiri":6361,"Ġkujadiliwa":6362,"Ġmaovu":6363,"Ġmfawidhi":6364,"Ġkuhamia":6365,"Ġmbolea":6366,"Ġmikanda":6367,"Ġedson":6368,"Ġkumudu":6369,"Ġhaukuwa":6370,"Ġkubainisha":6371,"Ġkuwaambia":6372,"Ġkuhitimu":6373,"trice":6374,"Ġatakapo":6375,"Ġkuwasilishwa":6376,"Ġmahindi":6377,"Ġnjano":6378,"Ġkorosho":6379,"Ġkukerwa":6380,"Ġbeatrice":6381,"saidie":6382,"Ġisrael":6383,"Ġmiembeni":6384,"Ġhiari":6385,"Ġfreeman":6386,"Ġchalenji":6387,"Ġwaishio":6388,"preneur":6389,"preneurship":6390,"gba":6391,"ir":6392,"ongea":6393,"ssu":6394,"ure":6395,"Ġnggombe":6396,"Ġmtoa":6397,"Ġwaga":6398,"haribu":6399,"kasa":6400,"Ġase":6401,"Ġmakwa":6402,"Ġmauli":6403,"zar":6404,"Ġuwi":6405,"Ġukio":6406,"Ġiran":6407,"kura":6408,"huo":6409,"jan":6410,"Ġkigoda":6411,"paswi":6412,"Ġkuwabana":6413,"Ġmisu":6414,"Ġwanatoa":6415,"Ġiliamua":6416,"Ġwaliendelea":6417,"Ġethiopia":6418,"Ġserbia":6419,"rence":6420,"dhalilisha":6421,"Ġinacheza":6422,"nias":6423,"Ġhuohuo":6424,"Ġakiendelea":6425,"Ġametangaza":6426,"Ġimeji":6427,"Ġkujitolea":6428,"Ġkumchagua":6429,"Ġkazimoto":6430,"Ġitafanyika":6431,"Ġmkanda":6432,"Ġkulima":6433,"Ġmaradhi":6434,"Ġaliyejitambulisha":6435,"onea":6436,"onekane":6437,"Ġgla":6438,"Ġyanaendelea":6439,"Ġshaban":6440,"Ġshambulizi":6441,"milivu":6442,"Ġrisiti":6443,"Ġchumbani":6444,"Ġdhamira":6445,"Ġyanayowakabili":6446,"Ġlimesema":6447,"Ġkuvuru":6448,"Ġcaf":6449,"badilika":6450,"Ġtanganyika":6451,"Ġwasiokuwa":6452,"Ġstephe":6453,"Ġwaliyokuwa":6454,"Ġwaliyonayo":6455,"Ġhawajawahi":6456,"Ġkiafya":6457,"Ġadam":6458,"Ġkuajiriwa":6459,"Ġshwari":6460,"Ġharambee":6461,"Ġmustakabali":6462,"Ġmachafuko":6463,"Ġcommunity":6464,"Ġdrogba":6465,"Ġlabour":6466,"Ġstephen":6467,"as":6468,"lme":6469,"nta":6470,"rro":6471,"nazo":6472,"nachama":6473,"Ġmje":6474,"Ġwazo":6475,"Ġkutisha":6476,"Ġkuzomea":6477,"Ġnacho":6478,"hisa":6479,"Ġmaya":6480,"Ġmakele":6481,"timisha":6482,"Ġubia":6483,"Ġkamba":6484,"Ġiman":6485,"Ġkibo":6486,"Ġkishiriki":6487,"ses":6488,"teni":6489,"popo":6490,"Ġnko":6491,"kosoa":6492,"pindu":6493,"Ġbre":6494,"Ġiliwa":6495,"Ġilishuhudia":6496,"chea":6497,"Ġtuwe":6498,"Ġmwalala":6499,"Ġmwanyika":6500,"Ġlitaka":6501,"Ġtimo":6502,"roho":6503,"Ġmuhusika":6504,"Ġold":6505,"Ġmaabara":6506,"mbiji":6507,"Ġwametoa":6508,"Ġpongezi":6509,"Ġwatacheza":6510,"kamanda":6511,"Ġutaa":6512,"Ġkupimwa":6513,"Ġitachukua":6514,"Ġtembo":6515,"Ġzinatarajiwa":6516,"ndupindu":6517,"Ġtosha":6518,"Ġtunayo":6519,"Ġwaajiri":6520,"shutu":6521,"Ġinayotolewa":6522,"Ġkipindupindu":6523,"Ġnyasi":6524,"Ġmadaraja":6525,"Ġfinias":6526,"Ġcheyo":6527,"Ġushambulia":6528,"Ġushawishi":6529,"Ġukiukwa":6530,"Ġhayana":6531,"fungaji":6532,"Ġkeshokutwa":6533,"Ġukame":6534,"Ġukabila":6535,"Ġlililotolewa":6536,"Ġmbinga":6537,"Ġcar":6538,"Ġufugaji":6539,"lalamikiwa":6540,"Ġuanzi":6541,"Ġuanachama":6542,"Ġkimekuwa":6543,"ntre":6544,"Ġukonga":6545,"Ġmnada":6546,"Ġkhalfan":6547,"Ġkumekuwepo":6548,"Ġgray":6549,"Ġmsumbiji":6550,"sikitika":6551,"suasua":6552,"fred":6553,"Ġusoni":6554,"Ġwanamgambo":6555,"Ġmgawanyiko":6556,"Ġtrilioni":6557,"Ġmapunda":6558,"Ġkitakacho":6559,"Ġushambuliaji":6560,"Ġukiukwaji":6561,"bri":6562,"gg":6563,"ghara":6564,"vua":6565,"Ġmbwa":6566,"Ġkudhamini":6567,"hau":6568,"kawa":6569,"Ġamana":6570,"Ġaondo":6571,"baisha":6572,"Ġsto":6573,"Ġmavu":6574,"Ġmathi":6575,"Ġupiga":6576,"Ġkaya":6577,"Ġalilalamika":6578,"Ġtaf":6579,"Ġnico":6580,"tendaji":6581,"koste":6582,"ngisha":6583,"chie":6584,"Ġwanaji":6585,"roro":6586,"jeruhi":6587,"Ġmkuchika":6588,"choma":6589,"nzia":6590,"Ġpark":6591,"Ġamei":6592,"Ġameanza":6593,"Ġkuachwa":6594,"Ġkuogopa":6595,"Ġkujitoa":6596,"Ġiliyobaki":6597,"Ġunavyo":6598,"tiative":6599,"Ġkupinduka":6600,"Ġaliyefariki":6601,"Ġtoba":6602,"Ġtoleo":6603,"Ġchifu":6604,"Ġlilitolewa":6605,"Ġmgongano":6606,"Ġnguzo":6607,"vamiwa":6608,"Ġalipofika":6609,"Ġzinazoshiriki":6610,"Ġwasira":6611,"Ġloi":6612,"Ġlos":6613,"Ġkiutendaji":6614,"Ġkupora":6615,"Ġkutupa":6616,"Ġkutunga":6617,"Ġmboma":6618,"Ġkupigana":6619,"Ġtuliyo":6620,"stina":6621,"Ġukusanya":6622,"ingizwa":6623,"Ġkulau":6624,"Ġmifuko":6625,"Ġwahanga":6626,"Ġlikiwemo":6627,"Ġmjane":6628,"Ġilipofika":6629,"Ġutakapo":6630,"Ġhamasa":6631,"Ġmsukumo":6632,"ntekoste":6633,"Ġtetesi":6634,"Ġbarakat":6635,"Ġunyanyasaji":6636,"Ġkelvin":6637,"baishaji":6638,"Ġmathias":6639,"Ġupigaji":6640,"Ġukusanyaji":6641,"ah":6642,"cra":6643,"eti":6644,"ime":6645,"lsa":6646,"mpuni":6647,"phia":6648,"rg":6649,"upata":6650,"wasa":6651,"Ġmshtakiwa":6652,"Ġkumba":6653,"hala":6654,"Ġnasema":6655,"nidhamu":6656,"Ġade":6657,"riti":6658,"kimba":6659,"Ġuke":6660,"Ġuchelewe":6661,"Ġkamu":6662,"Ġhafi":6663,"Ġhindi":6664,"Ġkinidhamu":6665,"Ġalidaiwa":6666,"Ġalimwambia":6667,"fai":6668,"lensia":6669,"mehe":6670,"tekelezwa":6671,"Ġsivyo":6672,"polo":6673,"Ġmillya":6674,"pima":6675,"Ġviji":6676,"Ġvivu":6677,"Ġchati":6678,"Ġilifungwa":6679,"Ġwalipewa":6680,"ruiser":6681,"rekani":6682,"Ġmwalu":6683,"Ġanazo":6684,"Ġanaeleza":6685,"Ġanashangazwa":6686,"Ġpapi":6687,"Ġakiishi":6688,"Ġakisoma":6689,"Ġakielezea":6690,"dhia":6691,"Ġmeja":6692,"Ġtp":6693,"Ġmbaroni":6694,"Ġamedai":6695,"Ġkuathirika":6696,"Ġobre":6697,"mbiki":6698,"Ġkujiweka":6699,"Ġholela":6700,"Ġunataka":6701,"Ġhatutaki":6702,"Ġbonde":6703,"Ġkulizungumzia":6704,"Ġsophia":6705,"Ġmwenge":6706,"Ġkusaba":6707,"Ġkukatwa":6708,"Ġyalifanyika":6709,"Ġmakabila":6710,"Ġyanatokana":6711,"Ġduka":6712,"Ġregi":6713,"Ġzinazowakabili":6714,"Ġlolensia":6715,"Ġushabiki":6716,"Ġhayawezi":6717,"Ġanayeweza":6718,"Ġcamero":6719,"dharau":6720,"Ġvyetu":6721,"Ġalimtaja":6722,"Ġmajumbani":6723,"nyonge":6724,"Ġaliifungia":6725,"Ġmipaka":6726,"Ġamatus":6727,"Ġmasilingi":6728,"Ġvikuu":6729,"Ġbaharini":6730,"Ġvimekuwa":6731,"ther":6732,"Ġmwaikimba":6733,"Ġkidemokrasia":6734,"Ġusafirishaji":6735,"Ġbeach":6736,"Ġkhalifa":6737,"Ġbernard":6738,"Ġwilbroad":6739,"Ġwaondoke":6740,"Ġmifano":6741,"Ġchigumbi":6742,"Ġmaulid":6743,"Ġcameroon":6744,"by":6745,"fford":6746,"Ġkuzima":6747,"Ġang":6748,"Ġangele":6749,"Ġsy":6750,"Ġmaua":6751,"tie":6752,"tika":6753,"Ġuone":6754,"Ġishi":6755,"wekeza":6756,"ture":6757,"mbazaji":6758,"mbawanga":6759,"Ġalichukua":6760,"letwa":6761,"semi":6762,"Ġkuwazuia":6763,"Ġnze":6764,"Ġmisi":6765,"Ġsaidi":6766,"pilia":6767,"Ġwanaki":6768,"Ġwanakwenda":6769,"Ġwanaonekana":6770,"Ġwanatarajiwa":6771,"Ġilii":6772,"Ġiliifunga":6773,"Ġkutoku":6774,"Ġkutoko":6775,"nzaji":6776,"jukuu":6777,"Ġeph":6778,"gae":6779,"Ġtukiwa":6780,"Ġdc":6781,"Ġanahitaji":6782,"Ġanapokuwa":6783,"Ġwakali":6784,"Ġmukasa":6785,"Ġakitangaza":6786,"Ġwinga":6787,"Ġcruiser":6788,"Ġimebaki":6789,"Ġone":6790,"Ġwatalaamu":6791,"Ġwakipata":6792,"somwa":6793,"Ġmkasa":6794,"Ġhakuweza":6795,"Ġmakampuni":6796,"Ġsued":6797,"Ġsumbawanga":6798,"Ġmaswa":6799,"Ġikiwezekana":6800,"Ġwaasi":6801,"Ġalipokea":6802,"Ġwasiwe":6803,"Ġuhujumu":6804,"Ġukiendelea":6805,"endana":6806,"Ġunaoendelea":6807,"Ġkuvutia":6808,"Ġkukua":6809,"Ġuhasama":6810,"Ġchoo":6811,"ongozana":6812,"Ġmark":6813,"Ġneema":6814,"Ġkileleni":6815,"Ġualimu":6816,"Ġuadilifu":6817,"ngenezaji":6818,"Ġkununu":6819,"ingilia":6820,"lipuka":6821,"Ġforodha":6822,"Ġmtaalamu":6823,"Ġteksi":6824,"Ġutunzaji":6825,"anzisha":6826,"Ġgumbo":6827,"Ġbukombe":6828,"Ġutakaofanyika":6829,"Ġkugonga":6830,"Ġmustapha":6831,"Ġwasaidizi":6832,"Ġuovu":6833,"Ġkusikitisha":6834,"Ġalasiri":6835,"Ġazma":6836,"Ġsharif":6837,"Ġukatili":6838,"Ġasec":6839,"Ġmavuno":6840,"Ġucheleweshaji":6841,"Ġangeles":6842,"Ġnzega":6843,"acha":6844,"djan":6845,"rko":6846,"spe":6847,"uye":6848,"Ġwatoa":6849,"Ġwauaji":6850,"Ġwangekuwa":6851,"Ġwangeweza":6852,"Ġwajue":6853,"Ġkudu":6854,"Ġkuthamini":6855,"hazi":6856,"hatisha":6857,"Ġangeweza":6858,"Ġyalianza":6859,"tangulia":6860,"bayo":6861,"Ġmaru":6862,"Ġmafta":6863,"Ġmakamanda":6864,"zinga":6865,"Ġup":6866,"Ġishara":6867,"Ġkigi":6868,"Ġkiroho":6869,"Ġalitangaza":6870,"Ġalijiunga":6871,"danganya":6872,"bile":6873,"chari":6874,"fuli":6875,"sei":6876,"Ġnilia":6877,"teka":6878,"Ġhutumika":6879,"Ġbaridi":6880,"Ġmidomo":6881,"ngara":6882,"Ġvisiwa":6883,"Ġwanahisa":6884,"ngewa":6885,"Ġmouri":6886,"Ġelia":6887,"Ġeliza":6888,"Ġdrc":6889,"mboka":6890,"Ġanaishi":6891,"Ġinaonyesha":6892,"Ġwigo":6893,"Ġwenu":6894,"Ġthi":6895,"Ġamewahi":6896,"Ġkuitisha":6897,"Ġimefika":6898,"Ġor":6899,"Ġoba":6900,"mbiu":6901,"Ġwameji":6902,"Ġkenne":6903,"Ġwalioshiriki":6904,"Ġwaliopanda":6905,"Ġkumsababishia":6906,"vita":6907,"Ġtheir":6908,"Ġteni":6909,"Ġbega":6910,"kwamua":6911,"Ġmataraji":6912,"Ġulimboka":6913,"Ġmwanaha":6914,"Ġmgonja":6915,"ntina":6916,"Ġkuteuliwa":6917,"Ġkaulimbiu":6918,"Ġkimapenzi":6919,"Ġchuoni":6920,"Ġstarehe":6921,"Ġkurahi":6922,"Ġluteni":6923,"Ġmadarasa":6924,"Ġkujaza":6925,"lazimu":6926,"Ġkukumbwa":6927,"Ġugani":6928,"Ġmboje":6929,"Ġkinachoonekana":6930,"Ġhazija":6931,"dhuriwa":6932,"Ġmifumo":6933,"Ġabidjan":6934,"Ġhakuwahi":6935,"Ġikawa":6936,"limpiki":6937,"Ġmauzo":6938,"Ġimeandaliwa":6939,"Ġinavyodaiwa":6940,"kadiriwa":6941,"Ġkikomo":6942,"Ġmagufuli":6943,"Ġabout":6944,"kumbatia":6945,"Ġuangalizi":6946,"Ġbutiku":6947,"Ġinternational":6948,"Ġadebayo":6949,"Ġpapic":6950,"Ġmourinho":6951,"Ġmatarajio":6952,"Ġadebayor":6953,"azi":6954,"cy":6955,"em":6956,"et":6957,"ima":6958,"mpu":6959,"stu":6960,"ywe":6961,"Ġh":6962,"Ġmshauri":6963,"Ġwachu":6964,"Ġwashtakiwa":6965,"Ġkutibu":6966,"Ġkuyumba":6967,"Ġkutumiwa":6968,"Ġnas":6969,"Ġnaweza":6970,"Ġadai":6971,"Ġafanye":6972,"Ġyalio":6973,"ngg":6974,"ziba":6975,"Ġuti":6976,"Ġikia":6977,"Ġipp":6978,"siki":6979,"sion":6980,"tulia":6981,"Ġkine":6982,"Ġalisha":6983,"Ġalikosa":6984,"Ġalishangaa":6985,"Ġalielezea":6986,"shawishi":6987,"Ġkuwapiga":6988,"Ġkuwafikisha":6989,"Ġtabu":6990,"Ġniwa":6991,"Ġnna":6992,"ndarua":6993,"Ġiliibuka":6994,"Ġsenti":6995,"Ġjaz":6996,"Ġinakabiliwa":6997,"Ġmuni":6998,"Ġcrd":6999,"Ġmbatia":7000,"Ġkongwa":7001,"Ġmianya":7002,"Ġimebainika":7003,"mbizi":7004,"Ġwakikabiliwa":7005,"Ġwaliokuwepo":7006,"Ġkuufanya":7007,"Ġkumnadi":7008,"Ġmajini":7009,"Ġbengo":7010,"beth":7011,"tumiaji":7012,"silishwa":7013,"Ġsomo":7014,"Ġkutawa":7015,"Ġtunakwenda":7016,"Ġhakina":7017,"Ġsuma":7018,"Ġsuti":7019,"Ġsuzy":7020,"Ġkupaka":7021,"Ġulioko":7022,"Ġdomini":7023,"Ġkusindika":7024,"Ġatapata":7025,"Ġrose":7026,"cou":7027,"Ġvitatu":7028,"Ġunaofanyika":7029,"Ġmanyo":7030,"ondolea":7031,"Ġtutaendelea":7032,"Ġaitwa":7033,"stine":7034,"Ġbabati":7035,"Ġkukopa":7036,"Ġmigodi":7037,"Ġasilia":7038,"ddy":7039,"nganyikiwa":7040,"Ġtibai":7041,"ristia":7042,"Ġtaslimu":7043,"Ġbrown":7044,"Ġcanada":7045,"Ġwhite":7046,"Ġflavio":7047,"Ġmapokezi":7048,"Ġinitiative":7049,"Ġmadola":7050,"Ġtbl":7051,"Ġuanzishwaji":7052,"gharamia":7053,"Ġobren":7054,"Ġmisitu":7055,"Ġelizabeth":7056,"Ġcrdb":7057,"Ġgiza":7058,"nasa":7059,"Ġwashauri":7060,"Ġwavamizi":7061,"Ġkushitakiwa":7062,"Ġkusuasua":7063,"Ġare":7064,"malia":7065,"Ġmajo":7066,"Ġufahamu":7067,"Ġkar":7068,"Ġkame":7069,"Ġharusi":7070,"Ġhandeni":7071,"hudumia":7072,"Ġkigezo":7073,"Ġalihusika":7074,"Ġaliibuka":7075,"leti":7076,"Ġkuwaso":7077,"Ġkuwabaini":7078,"Ġkuwakuta":7079,"Ġtafsiri":7080,"Ġhuna":7081,"Ġbaria":7082,"Ġmitu":7083,"Ġmisuko":7084,"Ġsanto":7085,"ndamiza":7086,"Ġchali":7087,"Ġwanamichezo":7088,"Ġiliendelea":7089,"wita":7090,"nguru":7091,"Ġkutolea":7092,"nyekiti":7093,"runi":7094,"Ġmoses":7095,"Ġeu":7096,"retari":7097,"gasira":7098,"Ġtumaini":7099,"Ġjabu":7100,"Ġdanny":7101,"Ġinaanza":7102,"Ġpara":7103,"sudia":7104,"Ġpinzani":7105,"Ġjiwe":7106,"Ġtcra":7107,"Ġameji":7108,"Ġamekufa":7109,"Ġkuigwa":7110,"Ġkuifungia":7111,"Ġimefikisha":7112,"Ġodhia":7113,"Ġndiko":7114,"mbuko":7115,"Ġwakimbizi":7116,"Ġkujivunia":7117,"Ġwalionesha":7118,"gizaji":7119,"Ġkumhoji":7120,"Ġiliyowasilishwa":7121,"Ġitai":7122,"Ġshehia":7123,"Ġmashambani":7124,"Ġulibaini":7125,"Ġulipaji":7126,"Ġwanaokwenda":7127,"Ġchimbuko":7128,"Ġmwananyama":7129,"Ġwaafrika":7130,"Ġatahakikisha":7131,"Ġnyala":7132,"Ġred":7133,"rudia":7134,"Ġkupotea":7135,"Ġukiriti":7136,"lazimisha":7137,"Ġkuvunjwa":7138,"Ġkuvunjika":7139,"Ġcuba":7140,"Ġwalimuua":7141,"Ġninaamini":7142,"Ġkuhamishiwa":7143,"Ġkusimamishwa":7144,"Ġkupigania":7145,"ingie":7146,"Ġmwilini":7147,"Ġvilikuwa":7148,"Ġnusura":7149,"Ġubavu":7150,"Ġkuibua":7151,"Ġisiyokuwa":7152,"horofa":7153,"Ġwanaojihusisha":7154,"Ġuenyekiti":7155,"tafutia":7156,"Ġrwegasira":7157,"Ġvikombe":7158,"Ġrafael":7159,"Ġkuvuruga":7160,"imet":7161,"rkovic":7162,"Ġkennedy":7163,"nggye":7164,"Ġnnauye":7165,"Ġaitwaye":7166,"Ġbariadi":7167,"Ġmisukosuko":7168,"Ġsantos":7169,"retarieti":7170,"Ġodhiambo":7171,"Ġmwananyamala":7172,"Ġukiritimba":7173,"eli":7174,"od":7175,"tt":7176,"usi":7177,"Ġmshiriki":7178,"Ġwama":7179,"Ġwazalishaji":7180,"Ġkunyi":7181,"Ġkukwama":7182,"yapata":7183,"Ġaendelee":7184,"bakia":7185,"ngwi":7186,"Ġstu":7187,"timua":7188,"zaa":7189,"zaulo":7190,"rine":7191,"ziwa":7192,"Ġufadhili":7193,"jiuliza":7194,"Ġkikazi":7195,"Ġkigumu":7196,"Ġkiswahili":7197,"Ġalilo":7198,"Ġalikanusha":7199,"sako":7200,"samehe":7201,"meza":7202,"dier":7203,"Ġkuwatambua":7204,"Ġtami":7205,"kemea":7206,"Ġnizar":7207,"pora":7208,"Ġhutumia":7209,"Ġnsa":7210,"Ġbbc":7211,"Ġvipya":7212,"Ġwanaccm":7213,"Ġiliingia":7214,"Ġilichukuliwa":7215,"ngoma":7216,"nyesho":7217,"Ġwalitumia":7218,"Ġmondu":7219,"gara":7220,"Ġjama":7221,"Ġanatoa":7222,"Ġinazidi":7223,"liani":7224,"Ġwimbi":7225,"Ġray":7226,"Ġcristia":7227,"Ġmbao":7228,"Ġkuahirishwa":7229,"Ġkuamuru":7230,"Ġimeonekana":7231,"Ġwamepanga":7232,"Ġwamefikishwa":7233,"Ġkujitetea":7234,"Ġhaliwezi":7235,"Ġwaliomba":7236,"Ġiliyofuata":7237,"Ġboti":7238,"Ġkupitishwa":7239,"Ġmkazo":7240,"Ġmkanganyiko":7241,"Ġbenard":7242,"Ġshukra":7243,"Ġmabara":7244,"Ġkutamka":7245,"Ġulivyo":7246,"Ġsuper":7247,"Ġikitoa":7248,"Ġwaandaaji":7249,"malizia":7250,"Ġzilizosalia":7251,"Ġusambazaji":7252,"Ġher":7253,"Ġkimara":7254,"Ġnyavu":7255,"pelekea":7256,"Ġkuzitumia":7257,"Ġgezaulo":7258,"hariri":7259,"Ġalionyesha":7260,"Ġmabondia":7261,"Ġkutulia":7262,"Ġkuhamisha":7263,"Ġdidier":7264,"Ġuhakiki":7265,"Ġkushughuli":7266,"Ġkimesema":7267,"Ġzitatumika":7268,"simamishwa":7269,"Ġmkemia":7270,"Ġlenyewe":7271,"Ġkucheze":7272,"Ġkijani":7273,"Ġwapambe":7274,"Ġimeandikwa":7275,"hamasisha":7276,"Ġtrafford":7277,"anzishwa":7278,"Ġhaitakuwa":7279,"fuatiliaji":7280,"Ġmashuleni":7281,"Ġmahema":7282,"Ġkusainiwa":7283,"Ġshoka":7284,"Ġaloyce":7285,"Ġmtikila":7286,"Ġkulazimishwa":7287,"Ġmrwanda":7288,"Ġkusukuma":7289,"Ġarabia":7290,"Ġmwalusako":7291,"Ġkurahisisha":7292,"Ġaboutrika":7293,"Ġmonduli":7294,"Ġshukrani":7295,"Ġgezaulole":7296,"aland":7297,"epusha":7298,"itumia":7299,"jwe":7300,"lta":7301,"pwe":7302,"ts":7303,"tte":7304,"Ġx":7305,"Ġgumu":7306,"Ġmle":7307,"Ġmchu":7308,"Ġmdo":7309,"Ġmpwa":7310,"likwa":7311,"Ġwar":7312,"Ġkube":7313,"Ġkuende":7314,"Ġkushirikisha":7315,"Ġkuridhika":7316,"Ġkufya":7317,"kaji":7318,"hishi":7319,"Ġsport":7320,"Ġmachu":7321,"kiria":7322,"Ġuv":7323,"Ġulia":7324,"Ġkashi":7325,"Ġkakobe":7326,"Ġii":7327,"Ġishu":7328,"Ġiwezekana":7329,"Ġhabi":7330,"jihusisha":7331,"Ġkiini":7332,"Ġkisima":7333,"Ġkisoka":7334,"Ġalikutana":7335,"Ġve":7336,"Ġkuwatumia":7337,"Ġkuwatisha":7338,"Ġkuwafundisha":7339,"Ġtathimini":7340,"Ġsima":7341,"Ġlaini":7342,"nezi":7343,"koko":7344,"pitisha":7345,"Ġwanatoka":7346,"Ġwanasubiri":7347,"ndikia":7348,"Ġwalikwenda":7349,"rushwa":7350,"Ġmosha":7351,"Ġsek":7352,"jenge":7353,"Ġjumu":7354,"Ġanavyo":7355,"Ġanaona":7356,"Ġanakwenda":7357,"Ġanaonekana":7358,"Ġinaeleza":7359,"nzibari":7360,"gunga":7361,"guswa":7362,"Ġakifafanua":7363,"Ġmeta":7364,"Ġmere":7365,"genda":7366,"pugi":7367,"Ġvyandarua":7368,"Ġmwakapugi":7369,"Ġamelala":7370,"Ġamefikishwa":7371,"Ġkombo":7372,"Ġkuitoa":7373,"Ġkuieleza":7374,"Ġkuichapa":7375,"Ġshindano":7376,"Ġffu":7377,"Ġimetolewa":7378,"Ġimefungwa":7379,"Ġimefikia":7380,"Ġon":7381,"Ġmaadui":7382,"Ġporto":7383,"lumbana":7384,"Ġwaliotajwa":7385,"Ġkumpeleka":7386,"Ġbomba":7387,"Ġmsiba":7388,"Ġkuhusisha":7389,"nduku":7390,"Ġkunaweza":7391,"Ġtunafanya":7392,"Ġtunasubiri":7393,"Ġwanaotakiwa":7394,"kitiko":7395,"Ġsugu":7396,"Ġikitokea":7397,"Ġlilifungwa":7398,"Ġleonard":7399,"Ġkufikiria":7400,"Ġkutengua":7401,"Ġlinaendelea":7402,"Ġnyanda":7403,"Ġyaliyoko":7404,"Ġyaliyofikiwa":7405,"Ġaliokuwa":7406,"Ġzealand":7407,"Ġkuchanga":7408,"Ġmfalme":7409,"rejesha":7410,"Ġlililotokea":7411,"Ġuhamiaji":7412,"Ġbasil":7413,"Ġmbioni":7414,"Ġnyoni":7415,"Ġkilele":7416,"Ġisiwe":7417,"rthe":7418,"Ġaliyopewa":7419,"simamiwa":7420,"mokrasi":7421,"Ġzikiendelea":7422,"Ġmachibya":7423,"Ġwachambuzi":7424,"banwa":7425,"Ġwajane":7426,"Ġmasikitiko":7427,"Ġwapigakura":7428,"ndelea":7429,"Ġkukubalika":7430,"Ġwazalendo":7431,"Ġmvuto":7432,"Ġmwenezi":7433,"Ġmashuhuda":7434,"Ġmwaipopo":7435,"Ġrajabu":7436,"simulia":7437,"Ġlyaku":7438,"Ġuenezi":7439,"zuiwa":7440,"Ġkifamilia":7441,"Ġulazima":7442,"kimbilia":7443,"Ġsaudi":7444,"Ġhaujakamilika":7445,"Ġpetroli":7446,"Ġvancou":7447,"Ġdaudi":7448,"Ġkishirikina":7449,"Ġutaalamu":7450,"Ġreginald":7451,"Ġwanakijiji":7452,"Ġmaftah":7453,"Ġobama":7454,"Ġnyalandu":7455,"Ġiwezekanavyo":7456,"Ġvancouver":7457,"dness":7458,"isi":7459,"kwu":7460,"my":7461,"mkuta":7462,"nsa":7463,"que":7464,"uis":7465,"Ġmpu":7466,"Ġmdhibiti":7467,"Ġwahu":7468,"Ġwami":7469,"Ġkubuni":7470,"Ġkugoma":7471,"yafanya":7472,"kara":7473,"katwa":7474,"Ġnape":7475,"hiki":7476,"Ġafa":7477,"Ġadui":7478,"Ġyawe":7479,"tahidi":7480,"Ġmah":7481,"Ġmanti":7482,"Ġmauti":7483,"zini":7484,"zinduliwa":7485,"Ġufanyike":7486,"Ġkwakuwa":7487,"kuzwa":7488,"kuliwa":7489,"Ġharufu":7490,"sifu":7491,"Ġkiru":7492,"Ġkiingereza":7493,"Ġaliumia":7494,"toroka":7495,"lekeza":7496,"sali":7497,"Ġkuwau":7498,"Ġkuwajengea":7499,"Ġniku":7500,"Ġniliwa":7501,"zoni":7502,"Ġbalaa":7503,"Ġsacco":7504,"Ġvisa":7505,"Ġviingilio":7506,"Ġilibainika":7507,"Ġkutowa":7508,"fisi":7509,"gana":7510,"gope":7511,"Ġjac":7512,"Ġjahazi":7513,"Ġinatumia":7514,"Ġinaelezwa":7515,"chukwu":7516,"Ġwakawa":7517,"Ġparis":7518,"guo":7519,"Ġakipata":7520,"Ġmeya":7521,"Ġclu":7522,"Ġshikoko":7523,"Ġfro":7524,"Ġimechukua":7525,"Ġimetokana":7526,"Ġoth":7527,"Ġokwi":7528,"Ġwamepoteza":7529,"Ġwamejiandaa":7530,"Ġwataanza":7531,"ishu":7532,"Ġwaliopata":7533,"Ġwaliotoa":7534,"Ġkumka":7535,"Ġkumtafuta":7536,"Ġunalenga":7537,"Ġutaendelea":7538,"Ġyesu":7539,"Ġgabri":7540,"Ġkupikia":7541,"Ġkupingwa":7542,"Ġitatajwa":7543,"Ġshuhuda":7544,"Ġdef":7545,"Ġzilisema":7546,"Ġsou":7547,"Ġaliyem":7548,"Ġkusahau":7549,"Ġmakaa":7550,"Ġwanaona":7551,"Ġgridi":7552,"Ġkupandi":7553,"Ġlilipo":7554,"Ġburian":7555,"Ġshaba":7556,"Ġikiwamo":7557,"Ġkutenga":7558,"Ġkuteua":7559,"Ġkinaweza":7560,"Ġutegeme":7561,"Ġalipohojiwa":7562,"Ġakiwamo":7563,"fikie":7564,"Ġmbwana":7565,"Ġyaliyopatikana":7566,"Ġluha":7567,"Ġkuzika":7568,"Ġzimebaki":7569,"Ġlouis":7570,"Ġkiufundi":7571,"Ġkipaji":7572,"Ġmbega":7573,"fsiriwa":7574,"tokanayo":7575,"Ġmorocco":7576,"Ġanayeishi":7577,"Ġkuvuta":7578,"Ġahmad":7579,"Ġkuhamishwa":7580,"Ġmalezi":7581,"Ġnembo":7582,"Ġkibarua":7583,"Ġmajura":7584,"Ġukurasa":7585,"Ġhaule":7586,"Ġmiss":7587,"Ġmnazi":7588,"kumbusha":7589,"Ġupeo":7590,"Ġkusomewa":7591,"Ġkushangilia":7592,"Ġuturuki":7593,"Ġkumbuka":7594,"Ġmachachari":7595,"Ġkijinsia":7596,"Ġkielimu":7597,"Ġkagame":7598,"Ġaaah":7599,"Ġitc":7600,"Ġkusikitishwa":7601,"Ġvipande":7602,"fanana":7603,"Ġkwingine":7604,"Ġkheri":7605,"Ġmabula":7606,"Ġsalome":7607,"Ġgladness":7608,"Ġkudumisha":7609,"Ġjazba":7610,"Ġmantiki":7611,"Ġsaccos":7612,"Ġclub":7613,"Ġshikokoti":7614,"Ġothman":7615,"Ġgabriel":7616,"dge":7617,"mshikilia":7618,"rya":7619,"thu":7620,"Ġnd":7621,"wawezesha":7622,"Ġmm":7623,"Ġmhusika":7624,"Ġway":7625,"Ġwadaiwa":7626,"Ġwanyonge":7627,"Ġkushauri":7628,"Ġkuzaliwa":7629,"Ġkunggoa":7630,"Ġkuzuka":7631,"kavu":7632,"kamilisha":7633,"Ġabu":7634,"Ġapate":7635,"mar":7636,"maria":7637,"tib":7638,"rithi":7639,"Ġuendelee":7640,"Ġurusi":7641,"Ġuwakilishi":7642,"Ġifanye":7643,"Ġigunga":7644,"tumwa":7645,"Ġkisasi":7646,"Ġalipa":7647,"Ġalivi":7648,"Ġaliweza":7649,"Ġalishauri":7650,"Ġalizungumzia":7651,"Ġaliweka":7652,"Ġalizaliwa":7653,"toshi":7654,"lembo":7655,"men":7656,"Ġkuwatumikia":7657,"Ġtambwe":7658,"Ġsioni":7659,"Ġlaki":7660,"Ġbarthe":7661,"Ġsahara":7662,"Ġvinne":7663,"Ġchangu":7664,"Ġchachu":7665,"Ġwanacheza":7666,"Ġwanastahili":7667,"Ġilikwenda":7668,"Ġilitoka":7669,"Ġililazimika":7670,"elewana":7671,"Ġkutoroka":7672,"Ġever":7673,"Ġerne":7674,"Ġemeh":7675,"jeo":7676,"Ġinapata":7677,"Ġwakae":7678,"Ġwerema":7679,"Ġameiambia":7680,"Ġameitaka":7681,"Ġkomba":7682,"Ġkuinoa":7683,"Ġkuoko":7684,"Ġshiri":7685,"Ġimefanikiwa":7686,"Ġimepanga":7687,"Ġimetangaza":7688,"Ġwamefanikiwa":7689,"Ġwameiomba":7690,"Ġponda":7691,"Ġport":7692,"Ġwatahakikisha":7693,"Ġmkondo":7694,"Ġwakidaiwa":7695,"Ġwakiishi":7696,"nuo":7697,"Ġwaliolazwa":7698,"Ġkumfikisha":7699,"Ġhoboko":7700,"Ġboys":7701,"Ġitacheza":7702,"jiandikisha":7703,"Ġkuhusishwa":7704,"Ġupanuzi":7705,"Ġdebe":7706,"Ġumeonesha":7707,"Ġtunaona":7708,"Ġtunapaswa":7709,"Ġkukatisha":7710,"Ġwanaodai":7711,"Ġwanaotoka":7712,"Ġgy":7713,"Ġgre":7714,"Ġikiongozwa":7715,"Ġwaanze":7716,"Ġwaaminifu":7717,"Ġlinahitaji":7718,"shehe":7719,"Ġnyayo":7720,"Ġreg":7721,"Ġstahili":7722,"Ġaliwaeleza":7723,"pigana":7724,"Ġmaligha":7725,"Ġsaad":7726,"Ġpromo":7727,"cal":7728,"fereji":7729,"fuate":7730,"Ġcompa":7731,"Ġfimbo":7732,"Ġmajangili":7733,"fungulia":7734,"Ġkuvuka":7735,"Ġlililowekwa":7736,"Ġnyeti":7737,"Ġkinachofanyika":7738,"Ġuanze":7739,"Ġsafarini":7740,"Ġsokoni":7741,"Ġngome":7742,"Ġkisayansi":7743,"Ġkhan":7744,"Ġkhatib":7745,"Ġubabaishaji":7746,"Ġmaghala":7747,"Ġwasiojulikana":7748,"Ġprince":7749,"Ġmhando":7750,"Ġkumwachia":7751,"koaji":7752,"Ġselemani":7753,"Ġyasiyokuwa":7754,"Ġwalizopanda":7755,"pumzike":7756,"hakikishe":7757,"Ġkubahatisha":7758,"chezesha":7759,"Ġkuzama":7760,"Ġujinga":7761,"Ġlyamu":7762,"Ġkubadilishana":7763,"Ġmzinga":7764,"Ġsijawahi":7765,"Ġtumboni":7766,"Ġplaye":7767,"Ġkulazimisha":7768,"Ġbanka":7769,"Ġmchanganuo":7770,"Ġlawrence":7771,"shutumu":7772,"Ġkumbaka":7773,"Ġuonevu":7774,"Ġmanyoni":7775,"Ġkunyimwa":7776,"Ġcristiano":7777,"Ġutegemezi":7778,"Ġbarthez":7779,"Ġmalighafi":7780,"ambatana":7781,"dho":7782,"elimisha":7783,"ipa":7784,"lfu":7785,"unge":7786,"ungwa":7787,"likana":7788,"Ġwadai":7789,"Ġwaende":7790,"Ġkunyesha":7791,"Ġkuzua":7792,"Ġkutumikia":7793,"Ġkulumbana":7794,"Ġnashangaa":7795,"Ġataji":7796,"Ġsc":7797,"Ġmati":7798,"kithiri":7799,"Ġudini":7800,"Ġipi":7801,"Ġibara":7802,"Ġiendelee":7803,"Ġitoe":7804,"Ġhiza":7805,"Ġkivita":7806,"Ġalili":7807,"Ġalikubali":7808,"Ġalifanikiwa":7809,"sawazisha":7810,"yern":7811,"Ġkuwalinda":7812,"Ġkuwanyima":7813,"Ġtaji":7814,"kela":7815,"teke":7816,"Ġsigara":7817,"Ġhulazimika":7818,"Ġbayern":7819,"ndae":7820,"ngapi":7821,"Ġwanapokuwa":7822,"Ġwanalazimika":7823,"Ġilikuja":7824,"nolewa":7825,"Ġkutofanya":7826,"Ġkutoweka":7827,"Ġwalikuta":7828,"Ġjapokuwa":7829,"Ġliwe":7830,"Ġinashindwa":7831,"uar":7832,"Ġakicheza":7833,"Ġakihojiwa":7834,"Ġmeru":7835,"Ġramani":7836,"Ġamepewa":7837,"Ġamekaa":7838,"Ġkuadhi":7839,"Ġkontena":7840,"Ġkuitumia":7841,"Ġkuorodhesha":7842,"Ġkuongezwa":7843,"Ġimem":7844,"Ġimepanda":7845,"Ġimelenga":7846,"riano":7847,"Ġwamekubaliana":7848,"Ġwataza":7849,"Ġwakim":7850,"Ġkujiimarisha":7851,"Ġkumtia":7852,"Ġkumkuta":7853,"Ġkumfanyia":7854,"Ġutamwa":7855,"Ġitakutana":7856,"Ġhadithi":7857,"Ġpt":7858,"Ġphi":7859,"Ġzinahitajika":7860,"Ġfaus":7861,"Ġkutathmini":7862,"Ġumetokana":7863,"Ġmpanda":7864,"Ġkupangiwa":7865,"Ġmaelfu":7866,"Ġhewani":7867,"Ġhosteli":7868,"Ġyaliyokusudiwa":7869,"Ġcheti":7870,"Ġmajani":7871,"Ġngapi":7872,"Ġukata":7873,"Ġnyenzo":7874,"Ġmarley":7875,"Ġtutawa":7876,"Ġhaziku":7877,"Ġngono":7878,"Ġkumuo":7879,"Ġukombozi":7880,"Ġurani":7881,"Ġkukopesha":7882,"ndelezo":7883,"Ġstella":7884,"rls":7885,"Ġmizengwe":7886,"Ġpembejeo":7887,"Ġkuchoma":7888,"Ġmabinti":7889,"Ġamiri":7890,"wakilishwa":7891,"Ġvictor":7892,"Ġubishi":7893,"Ġmassawe":7894,"Ġkujikinga":7895,"Ġkandoro":7896,"Ġuchafuzi":7897,"Ġvikiwemo":7898,"Ġkuchimba":7899,"Ġuchovu":7900,"Ġvalenti":7901,"Ġmaurice":7902,"Ġheroes":7903,"Ġtafrani":7904,"Ġkusababishwa":7905,"Ġdominick":7906,"Ġkushughulikiwa":7907,"Ġmeremeta":7908,"dc":7909,"ig":7910,"imba":7911,"lf":7912,"ombwa":7913,"upe":7914,"umwa":7915,"unt":7916,"Ġele":7917,"Ġmpe":7918,"Ġwamo":7919,"Ġkuendeshwa":7920,"Ġkuheshimu":7921,"Ġnafsi":7922,"Ġyatokanayo":7923,"masisha":7924,"Ġmak":7925,"Ġmame":7926,"Ġmaye":7927,"tibiwa":7928,"kita":7929,"Ġupu":7930,"Ġusulu":7931,"Ġkadha":7932,"Ġid":7933,"Ġitumike":7934,"kulia":7935,"Ġhiti":7936,"Ġhila":7937,"mbale":7938,"Ġalikuwepo":7939,"Ġalirejea":7940,"fali":7941,"dad":7942,"dali":7943,"bin":7944,"sambu":7945,"seba":7946,"Ġkuwaweka":7947,"Ġkuwapongeza":7948,"Ġtabaka":7949,"hesabu":7950,"Ġbada":7951,"Ġsadi":7952,"ngiza":7953,"Ġchacha":7954,"Ġwanatuhumiwa":7955,"Ġilifanikiwa":7956,"Ġkutokubali":7957,"ngependa":7958,"Ġewu":7959,"Ġtulio":7960,"Ġjambazi":7961,"Ġliliwa":7962,"Ġlissu":7963,"Ġbib":7964,"choshwa":7965,"Ġanatuhumiwa":7966,"nzishwa":7967,"Ġparo":7968,"Ġpampu":7969,"Ġmuga":7970,"Ġakitoka":7971,"Ġmedali":7972,"Ġradio":7973,"Ġjicho":7974,"Ġtpa":7975,"Ġameweza":7976,"Ġamethibitisha":7977,"Ġamevaa":7978,"Ġkongwe":7979,"Ġkuisha":7980,"Ġkuishauri":7981,"Ġkuisababishia":7982,"Ġimedaiwa":7983,"Ġimetenga":7984,"Ġoly":7985,"Ġwatalazimika":7986,"Ġwatambue":7987,"Ġndimbo":7988,"Ġwakipiga":7989,"Ġkujihakikishia":7990,"nusi":7991,"njari":7992,"Ġkumzuia":7993,"Ġhatuta":7994,"Ġutafanyika":7995,"Ġutasaidia":7996,"Ġmwishehe":7997,"Ġthey":7998,"Ġtendwa":7999,"Ġshel":8000,"Ġmaratho":8001,"Ġmsikiti":8002,"Ġpua":8003,"kwambia":8004,"Ġshutuma":8005,"Ġkufunguliwa":8006,"Ġkufukuzwa":8007,"Ġsomalia":8008,"Ġaliyepata":8009,"Ġaliyetajwa":8010,"oney":8011,"Ġtunao":8012,"Ġmatapeli":8013,"Ġulisema":8014,"Ġkukarabati":8015,"Ġghorofa":8016,"Ġyanakuwa":8017,"Ġyanakwenda":8018,"Ġinayofanywa":8019,"Ġinayofuata":8020,"Ġkinara":8021,"Ġalgeria":8022,"Ġzilizojitokeza":8023,"Ġzilizowekwa":8024,"Ġlinashughulikiwa":8025,"Ġkimaa":8026,"ender":8027,"Ġchupa":8028,"Ġstadi":8029,"stan":8030,"Ġzinazoweza":8031,"Ġluga":8032,"Ġrooney":8033,"Ġcoca":8034,"Ġkuchafua":8035,"Ġlililofanyika":8036,"Ġndesambu":8037,"Ġmbozi":8038,"Ġdirisha":8039,"Ġdihile":8040,"Ġmgahawa":8041,"Ġmakonde":8042,"Ġmichache":8043,"Ġaliyonayo":8044,"ingizia":8045,"Ġmkenya":8046,"Ġkuepu":8047,"Ġuraia":8048,"Ġamewaambia":8049,"Ġitakayoanza":8050,"Ġkukomesha":8051,"Ġubadhiri":8052,"zoea":8053,"Ġuporaji":8054,"Ġkushawishi":8055,"Ġkushambuliwa":8056,"Ġkuchelewe":8057,"Ġrashidi":8058,"Ġaliandika":8059,"Ġvillarre":8060,"Ġviumbe":8061,"Ġferdina":8062,"Ġkuchochea":8063,"sikitisha":8064,"Ġalivyokuwa":8065,"Ġwalivyokuwa":8066,"Ġmanyanya":8067,"Ġkidemokrasi":8068,"Ġalizokuwa":8069,"Ġkukimbizwa":8070,"Ġshtaka":8071,"Ġkivutio":8072,"Ġsaleh":8073,"eleweke":8074,"raim":8075,"Ġkanali":8076,"Ġnotisi":8077,"Ġkumuacha":8078,"Ġphilip":8079,"Ġfundisho":8080,"Ġkuteketeza":8081,"Ġkuzomewa":8082,"Ġdeog":8083,"Ġhayupo":8084,"Ġkuwakomboa":8085,"Ġwaganga":8086,"Ġlitakalo":8087,"Ġvivutio":8088,"Ġephraim":8089,"Ġmpwapwa":8090,"Ġsekretarieti":8091,"ishukuru":8092,"Ġdefender":8093,"Ġeverton":8094,"Ġshirima":8095,"masishaji":8096,"Ġusuluhishi":8097,"Ġewura":8098,"Ġndesamburo":8099,"Ġubadhirifu":8100,"Ġvillarreal":8101,"Ġferdinand":8102,"brou":8103,"eni":8104,"inua":8105,"mtafuta":8106,"rdea":8107,"ux":8108,"ulu":8109,"Ġguu":8110,"Ġmjukuu":8111,"Ġwachi":8112,"Ġwalalamikaji":8113,"Ġkumui":8114,"Ġkulaani":8115,"Ġkunyakua":8116,"Ġnagu":8117,"hitimu":8118,"hitimisha":8119,"Ġag":8120,"tamani":8121,"ngy":8122,"Ġss":8123,"Ġmande":8124,"Ġmafia":8125,"tiwe":8126,"Ġkano":8127,"Ġkapu":8128,"hukumu":8129,"sita":8130,"wer":8131,"jabu":8132,"jadiliwa":8133,"ray":8134,"Ġkiho":8135,"Ġkimila":8136,"Ġalipaswa":8137,"Ġalitamba":8138,"Ġalisikika":8139,"tolewe":8140,"biza":8141,"bikwa":8142,"chapishwa":8143,"paa":8144,"mir":8145,"Ġkuwaondolea":8146,"Ġtanzani":8147,"Ġnbc":8148,"Ġlampa":8149,"Ġmira":8150,"Ġwanasheria":8151,"lovu":8152,"Ġwalikubaliana":8153,"gani":8154,"gando":8155,"Ġdavis":8156,"rongoro":8157,"dhari":8158,"Ġinaongozwa":8159,"Ġinasikitisha":8160,"Ġpaz":8161,"gubikwa":8162,"Ġakithibitisha":8163,"Ġakizindua":8164,"ndoo":8165,"Ġameibuka":8166,"Ġkuandaliwa":8167,"Ġkuandikishwa":8168,"vutia":8169,"Ġimeonesha":8170,"Ġimepangwa":8171,"Ġmaajabu":8172,"Ġwamefikia":8173,"Ġwameonyesha":8174,"dom":8175,"dondo":8176,"Ġwatatoa":8177,"Ġmkoba":8178,"Ġmahara":8179,"Ġwakidhani":8180,"Ġkujili":8181,"Ġkujifanya":8182,"Ġkujikwamua":8183,"Ġkeko":8184,"Ġhalikuwa":8185,"Ġkuugua":8186,"Ġkumruhusu":8187,"Ġkumlipa":8188,"Ġunatarajia":8189,"Ġkilaini":8190,"Ġmwina":8191,"womba":8192,"Ġbordea":8193,"thiriwa":8194,"Ġtenda":8195,"tokee":8196,"Ġmaranda":8197,"Ġsitaki":8198,"dudu":8199,"Ġumesababisha":8200,"Ġulivyokuwa":8201,"der":8202,"Ġmwanangu":8203,"Ġikibidi":8204,"Ġbugando":8205,"kutane":8206,"Ġwaarabu":8207,"Ġkufikiwa":8208,"Ġinayoongozwa":8209,"Ġzilizoko":8210,"Ġatakwenda":8211,"Ġmfungwa":8212,"shewa":8213,"Ġwafanyabishara":8214,"Ġfupi":8215,"Ġchunya":8216,"Ġzinazotakiwa":8217,"Ġakaamua":8218,"Ġyohana":8219,"Ġger":8220,"fuatia":8221,"Ġcole":8222,"Ġchenga":8223,"Ġmrembo":8224,"Ġyanayotolewa":8225,"Ġvitanda":8226,"Ġzee":8227,"Ġnilivyo":8228,"maanisha":8229,"Ġmapigo":8230,"Ġmarsei":8231,"wapongeza":8232,"Ġkurudia":8233,"Ġghafi":8234,"Ġjohnson":8235,"Ġkinachodaiwa":8236,"Ġaingi":8237,"Ġzitatolewa":8238,"Ġzitachukuliwa":8239,"Ġngorongoro":8240,"dhuru":8241,"Ġkubainika":8242,"Ġurasimu":8243,"Ġmifupa":8244,"Ġkubadilishwa":8245,"Ġmsemwa":8246,"Ġwajanja":8247,"Ġkitita":8248,"Ġarsene":8249,"Ġkusomesha":8250,"Ġhaijawahi":8251,"Ġmatei":8252,"Ġmateso":8253,"Ġchris":8254,"Ġkidedea":8255,"Ġmlimani":8256,"Ġameacha":8257,"Ġkuzidiwa":8258,"Ġninachotaka":8259,"Ġkuwashawishi":8260,"Ġkifahari":8261,"Ġmezani":8262,"safirisha":8263,"Ġsweden":8264,"ratius":8265,"Ġmagogoni":8266,"Ġsmg":8267,"Ġkukabiliwa":8268,"Ġkujiorodhesha":8269,"lsafa":8270,"Ġelias":8271,"Ġmwanaharakati":8272,"Ġkuwasomesha":8273,"Ġeuro":8274,"Ġsimanzi":8275,"Ġkirumba":8276,"Ġwayne":8277,"Ġdeogratius":8278,"Ġwachina":8279,"Ġlampard":8280,"Ġbordeaux":8281,"Ġmarseille":8282,"andikwa":8283,"jja":8284,"lya":8285,"lka":8286,"nha":8287,"nham":8288,"os":8289,"pua":8290,"tra":8291,"umana":8292,"Ġmzo":8293,"Ġmkwe":8294,"Ġmdau":8295,"Ġwapenda":8296,"Ġwanunuzi":8297,"Ġkuhakiki":8298,"Ġkushangazwa":8299,"Ġkulalamikia":8300,"Ġkuzunguka":8301,"Ġkuruka":8302,"hali":8303,"kawe":8304,"Ġnazi":8305,"Ġaisha":8306,"Ġswai":8307,"Ġmafa":8308,"zikwa":8309,"Ġuliwa":8310,"Ġufuatiliaji":8311,"kumbana":8312,"jivunia":8313,"tukana":8314,"Ġhip":8315,"Ġkikiwa":8316,"Ġkilwa":8317,"Ġaliu":8318,"Ġalikuja":8319,"Ġalizidi":8320,"dic":8321,"diliana":8322,"Ġkuwacha":8323,"Ġkuwapata":8324,"Ġkuwashirikisha":8325,"Ġkuwafukuza":8326,"Ġtairi":8327,"Ġzama":8328,"hemba":8329,"Ġbabu":8330,"Ġbalele":8331,"Ġmiche":8332,"Ġmisima":8333,"Ġmiliki":8334,"Ġmidd":8335,"Ġmisimu":8336,"Ġsai":8337,"pingana":8338,"ngilio":8339,"ngazia":8340,"Ġambae":8341,"Ġchampi":8342,"Ġwanachi":8343,"Ġilicheza":8344,"fiwa":8345,"Ġwalii":8346,"rushi":8347,"Ġmorali":8348,"rewe":8349,"rekebisha":8350,"Ġtuone":8351,"Ġtufanye":8352,"Ġjay":8353,"Ġzilianza":8354,"Ġzichukuliwe":8355,"Ġdhara":8356,"Ġmkusanyiko":8357,"choche":8358,"Ġanafahamu":8359,"Ġanasumbuliwa":8360,"Ġinasababisha":8361,"Ġinachangia":8362,"Ġinategemea":8363,"chua":8364,"nzisha":8365,"Ġpazi":8366,"Ġmuundo":8367,"Ġmutaki":8368,"Ġakionesha":8369,"Ġwivu":8370,"gea":8371,"Ġpigo":8372,"Ġamesha":8373,"Ġameomba":8374,"Ġkuahirisha":8375,"Ġkoua":8376,"Ġkorti":8377,"vunjwa":8378,"Ġkuiweka":8379,"yusa":8380,"yulu":8381,"Ġimebaini":8382,"Ġimejipanga":8383,"Ġimewataka":8384,"Ġwakenya":8385,"Ġwamepewa":8386,"Ġwamekuja":8387,"zungumzwa":8388,"Ġwakijaribu":8389,"Ġkemika":8390,"Ġhalita":8391,"Ġhalija":8392,"Ġwaliopewa":8393,"Ġkumchukua":8394,"Ġhop":8395,"Ġunam":8396,"Ġhatuja":8397,"Ġmwilima":8398,"Ġmkata":8399,"jiandae":8400,"Ġupanga":8401,"Ġkilinda":8402,"Ġzilipo":8403,"Ġfari":8404,"Ġfatuma":8405,"Ġfaulo":8406,"Ġkutawala":8407,"Ġkutazama":8408,"Ġaliyeuawa":8409,"Ġtotte":8410,"Ġmashina":8411,"Ġtunasema":8412,"Ġchikawe":8413,"Ġkupangwa":8414,"Ġbunda":8415,"Ġbulembo":8416,"Ġwaadilifu":8417,"Ġkufilisi":8418,"Ġdoria":8419,"Ġinayoshika":8420,"Ġkuteka":8421,"Ġzilizowasilishwa":8422,"Ġutengenezaji":8423,"Ġlinatokana":8424,"Ġreja":8425,"Ġchuma":8426,"Ġmchanganyiko":8427,"Ġlushoto":8428,"cast":8429,"Ġkupotosha":8430,"Ġkutupwa":8431,"Ġlimetokea":8432,"Ġlimekuja":8433,"Ġkukumba":8434,"Ġkukumbu":8435,"Ġkitambulisho":8436,"Ġabbas":8437,"Ġrwi":8438,"Ġnever":8439,"Ġvunjo":8440,"Ġkutii":8441,"Ġtulipo":8442,"ngenezea":8443,"Ġedwin":8444,"Ġzitasaidia":8445,"nyororo":8446,"Ġfoleni":8447,"wasiliana":8448,"Ġmwakyusa":8449,"Ġsteve":8450,"Ġmigomo":8451,"Ġkusomwa":8452,"Ġkiraia":8453,"Ġnitakuwa":8454,"Ġvazi":8455,"Ġilipokuja":8456,"Ġaliyataja":8457,"Ġwazanzibari":8458,"Ġkusafiria":8459,"Ġomary":8460,"Ġudhalilisha":8461,"Ġudongo":8462,"Ġkuhifadhiwa":8463,"Ġmashekhe":8464,"tafutwa":8465,"shtuka":8466,"Ġflorian":8467,"Ġbridge":8468,"Ġwanaharakati":8469,"Ġfunguo":8470,"Ġmakengeza":8471,"dinali":8472,"Ġianze":8473,"nunuliwa":8474,"Ġureno":8475,"Ġaondoke":8476,"Ġukerewe":8477,"Ġwachunguzi":8478,"Ġkardinali":8479,"Ġstudio":8480,"Ġernest":8481,"Ġcompany":8482,"Ġwatazamaji":8483,"Ġiddi":8484,"oski":8485,"Ġmafao":8486,"Ġmisimamo":8487,"Ġdharau":8488,"Ġkemikali":8489,"Ġtottenham":8490,"Ġudhalilishaji":8491,"aini":8492,"eh":8493,"ichezea":8494,"ofisha":8495,"ps":8496,"pri":8497,"pho":8498,"smas":8499,"uku":8500,"nance":8501,"Ġmsomaji":8502,"Ġware":8503,"Ġwazungu":8504,"Ġwaume":8505,"Ġwachukuliwe":8506,"Ġkubisha":8507,"Ġkuhesabu":8508,"nica":8509,"ngs":8510,"mandoo":8511,"timiza":8512,"Ġuzuri":8513,"Ġuboresha":8514,"Ġifu":8515,"kunde":8516,"husia":8517,"Ġkibe":8518,"Ġkinyama":8519,"Ġkilianza":8520,"Ġkihemba":8521,"Ġalikufa":8522,"toi":8523,"shani":8524,"miti":8525,"kee":8526,"Ġncc":8527,"Ġlako":8528,"Ġminzi":8529,"Ġmipya":8530,"Ġmiondo":8531,"Ġmikwaju":8532,"Ġsapoti":8533,"ndawazi":8534,"Ġviboko":8535,"Ġchako":8536,"Ġilipaswa":8537,"Ġilipokuwa":8538,"Ġwaliweza":8539,"Ġwalitoka":8540,"Ġwalipanda":8541,"ngers":8542,"Ġmode":8543,"Ġmonica":8544,"Ġekari":8545,"rey":8546,"remia":8547,"resho":8548,"gama":8549,"Ġmwaliko":8550,"Ġjaco":8551,"Ġlive":8552,"Ġtimes":8553,"Ġanashindwa":8554,"Ġinadai":8555,"Ġinayote":8556,"zese":8557,"yimo":8558,"Ġpasaka":8559,"Ġmusi":8560,"Ġakieleza":8561,"Ġakikabiliwa":8562,"Ġakitolea":8563,"Ġakihitimisha":8564,"Ġwenzi":8565,"Ġrabia":8566,"Ġrangers":8567,"Ġamesikitishwa":8568,"Ġkuandikwa":8569,"Ġkoo":8570,"Ġkuivaa":8571,"Ġkuolewa":8572,"Ġmiamba":8573,"Ġimesababisha":8574,"Ġimepungua":8575,"Ġwameomba":8576,"Ġwamekamatwa":8577,"Ġpochi":8578,"Ġwatashiriki":8579,"Ġwakichangia":8580,"nukuliwa":8581,"Ġhalima":8582,"Ġwalionyesha":8583,"Ġwalioathirika":8584,"Ġkumchi":8585,"Ġkumkata":8586,"Ġkumjeruhi":8587,"Ġiliyofanya":8588,"Ġiliyowekwa":8589,"somea":8590,"Ġunafanyika":8591,"Ġwaone":8592,"Ġitaingia":8593,"Ġmabano":8594,"Ġzinafanya":8595,"Ġzinadai":8596,"Ġden":8597,"Ġfalsafa":8598,"Ġsote":8599,"Ġjeremia":8600,"Ġumesema":8601,"Ġaliyeomba":8602,"Ġmwendelezo":8603,"Ġtunategemea":8604,"Ġhawako":8605,"Ġmpangilio":8606,"Ġchingy":8607,"Ġmwanae":8608,"Ġhapakuwa":8609,"Ġbuku":8610,"Ġyanaonesha":8611,"Ġshauku":8612,"malize":8613,"Ġmarefu":8614,"Ġinayotoa":8615,"Ġinayohusu":8616,"Ġzilizoendelea":8617,"Ġhaipo":8618,"Ġaston":8619,"Ġnyarugu":8620,"Ġnyagawa":8621,"Ġnyambui":8622,"Ġyaliyotokana":8623,"Ġyaliyofanywa":8624,"Ġluis":8625,"kubaliwa":8626,"Ġyondani":8627,"Ġwalezi":8628,"Ġukiwemo":8629,"Ġhayakuwa":8630,"Ġyanayojitokeza":8631,"Ġmaboresho":8632,"Ġmanzese":8633,"Ġlyimo":8634,"fariji":8635,"Ġkuelekeza":8636,"Ġmakongoro":8637,"Ġmakomandoo":8638,"Ġuandishi":8639,"Ġgofu":8640,"Ġkishapu":8641,"Ġkumuunga":8642,"Ġthat":8643,"Ġkharto":8644,"Ġyatafanyika":8645,"Ġitakayochezwa":8646,"Ġubabe":8647,"Ġmanuel":8648,"Ġmwenzako":8649,"Ġwahalifu":8650,"Ġmoyoni":8651,"Ġwavulana":8652,"Ġvilivyokuwa":8653,"Ġmhagama":8654,"Ġkumwacha":8655,"pteni":8656,"Ġyakiendelea":8657,"bweni":8658,"Ġkitaaluma":8659,"Ġmaafande":8660,"thew":8661,"therine":8662,"Ġmikusanyiko":8663,"Ġkugongwa":8664,"Ġpugu":8665,"Ġinapotokea":8666,"Ġnawaomba":8667,"Ġkuhifadhia":8668,"Ġshamte":8669,"Ġaanze":8670,"Ġtegemezi":8671,"Ġalionao":8672,"Ġkusafirishwa":8673,"Ġplasti":8674,"marishwa":8675,"Ġflora":8676,"Ġvikongwe":8677,"Ġmsongo":8678,"Ġwajitokeze":8679,"Ġkarim":8680,"Ġlisilo":8681,"Ġblue":8682,"Ġshehena":8683,"Ġtenisi":8684,"Ġjacko":8685,"dhoofisha":8686,"Ġmarathon":8687,"Ġguus":8688,"Ġmzozo":8689,"Ġwarembo":8690,"Ġuboreshaji":8691,"husiani":8692,"Ġminziro":8693,"Ġnyarugusu":8694,"Ġkhartoum":8695,"ene":8696,"lham":8697,"nke":8698,"nzu":8699,"sy":8700,"ut":8701,"Ġngwe":8702,"wahusu":8703,"Ġmki":8704,"Ġmcho":8705,"Ġmnyika":8706,"Ġwam":8707,"Ġwaheshimiwa":8708,"Ġkutia":8709,"Ġkutiwa":8710,"haji":8711,"hamishwa":8712,"Ġnaftari":8713,"Ġatu":8714,"Ġataanza":8715,"tapa":8716,"tafsiriwa":8717,"mama":8718,"Ġmabunge":8719,"kibu":8720,"lah":8721,"laza":8722,"zitoa":8723,"Ġukama":8724,"Ġuis":8725,"Ġufungaji":8726,"Ġkalu":8727,"Ġkarne":8728,"Ġkwasaba":8729,"tupilia":8730,"jaj":8731,"jala":8732,"ramba":8733,"Ġkifisadi":8734,"Ġkisingizio":8735,"Ġalisababisha":8736,"Ġalikaa":8737,"Ġaliuliza":8738,"Ġaliuawa":8739,"Ġalikutwa":8740,"fungiwa":8741,"seka":8742,"Ġkuwasikiliza":8743,"Ġnilio":8744,"Ġlama":8745,"Ġbanda":8746,"Ġbajaj":8747,"Ġmio":8748,"Ġsanjari":8749,"ngaika":8750,"Ġvisingizio":8751,"Ġwanalipwa":8752,"Ġwanatafuta":8753,"Ġwanashikiliwa":8754,"moni":8755,"eleweka":8756,"elekeo":8757,"Ġkutotajwa":8758,"Ġwalikuja":8759,"rubuni":8760,"ngerema":8761,"Ġentre":8762,"Ġsengerema":8763,"resa":8764,"rekta":8765,"Ġtutaka":8766,"Ġtupu":8767,"Ġtuliona":8768,"Ġmwamko":8769,"Ġmwaseba":8770,"gonga":8771,"Ġziwe":8772,"Ġlibe":8773,"zuni":8774,"jeli":8775,"Ġbid":8776,"chofanya":8777,"Ġanatumia":8778,"Ġanashikiliwa":8779,"Ġinakwenda":8780,"Ġwakaguzi":8781,"Ġpana":8782,"Ġakidaiwa":8783,"Ġakijaribu":8784,"Ġameonyesha":8785,"Ġamemtaka":8786,"Ġkuanika":8787,"Ġkozi":8788,"vuta":8789,"Ġkuogele":8790,"Ġimeshinda":8791,"Ġwameweka":8792,"Ġwakitokea":8793,"Ġwakionesha":8794,"Ġwakishirikiana":8795,"Ġkujiendeleza":8796,"Ġkujionea":8797,"Ġkuuli":8798,"Ġkumta":8799,"Ġkumtambua":8800,"Ġkumpatia":8801,"Ġlea":8802,"somewa":8803,"bon":8804,"Ġutaifa":8805,"Ġutakuta":8806,"Ġyemen":8807,"Ġwazima":8808,"Ġbonny":8809,"Ġkupigiwa":8810,"Ġterry":8811,"Ġkulifanyia":8812,"Ġmwenyeji":8813,"Ġkufufua":8814,"Ġzilivyo":8815,"Ġjeuri":8816,"Ġaliyeko":8817,"Ġtunashangaa":8818,"Ġmakaburi":8819,"Ġuchache":8820,"Ġuchambuzi":8821,"Ġwanaopinga":8822,"Ġhakiwezi":8823,"Ġsumari":8824,"Ġmsasani":8825,"kutanisha":8826,"Ġwaasisi":8827,"Ġkinana":8828,"Ġusawa":8829,"fikishwe":8830,"cent":8831,"Ġfulham":8832,"Ġstahiki":8833,"Ġaliwapongeza":8834,"Ġmchafu":8835,"Ġlote":8836,"Ġcheo":8837,"Ġukizingatia":8838,"Ġyanayohusiana":8839,"Ġkukifanya":8840,"Ġmapacha":8841,"Ġunaotakiwa":8842,"Ġuhamasishaji":8843,"Ġvinaweza":8844,"Ġnimeamua":8845,"badilike":8846,"Ġkurudishwa":8847,"Ġtutafanya":8848,"Ġinspe":8849,"Ġuandikishwa":8850,"Ġzitaendelea":8851,"Ġaliieleza":8852,"Ġkukodi":8853,"Ġlinalowezekana":8854,"Ġmaige":8855,"Ġwahamiaji":8856,"Ġwahadhiri":8857,"Ġkitimu":8858,"lesbrou":8859,"Ġasingeweza":8860,"Ġwavumilivu":8861,"Ġhawakuweza":8862,"lls":8863,"Ġkiteto":8864,"nggangga":8865,"Ġkuchomwa":8866,"Ġwp":8867,"Ġkitaalam":8868,"Ġmrakibu":8869,"Ġmahesabu":8870,"Ġkijichi":8871,"Ġkusajiliwa":8872,"Ġnewcast":8873,"shughulisha":8874,"Ġkuzaa":8875,"Ġwashindwe":8876,"Ġmasheikh":8877,"Ġisraeli":8878,"Ġmgawanyo":8879,"Ġamour":8880,"Ġmatrekta":8881,"Ġadriano":8882,"Ġkupuuza":8883,"Ġkuwaombea":8884,"Ġhouse":8885,"Ġwalionao":8886,"mkhana":8887,"Ġmollel":8888,"Ġphares":8889,"Ġuwindaji":8890,"Ġmkandarasi":8891,"Ġtimoth":8892,"Ġcarlo":8893,"Ġkamukara":8894,"Ġnassoro":8895,"Ġkinemela":8896,"Ġparalimpiki":8897,"Ġkufyatua":8898,"Ġuvccm":8899,"Ġjumuia":8900,"Ġfrom":8901,"Ġgymkhana":8902,"Ġfaustine":8903,"Ġmugabe":8904,"Ġshellukindo":8905,"Ġmiddlesbrou":8906,"Ġchampion":8907,"Ġkouadio":8908,"Ġfarijala":8909,"Ġnccr":8910,"Ġukamataji":8911,"Ġkwasababu":8912,"Ġentrepreneurship":8913,"Ġkuogelea":8914,"Ġinspekta":8915,"Ġuandikishwaji":8916,"Ġnewcastle":8917,"Ġmiddlesbrough":8918,"ghe":8919,"lton":8920,"nwa":8921,"ogopa":8922,"rpora":8923,"ufanya":8924,"Ġkya":8925,"line":8926,"Ġwastaafu":8927,"Ġkuju":8928,"Ġnasaha":8929,"Ġaga":8930,"Ġadamu":8931,"Ġangani":8932,"Ġatoe":8933,"Ġanto":8934,"tahadharisha":8935,"Ġmam":8936,"Ġmatendo":8937,"Ġmathew":8938,"tili":8939,"kina":8940,"kima":8941,"Ġubaya":8942,"Ġuvamizi":8943,"kusudia":8944,"Ġhapendi":8945,"jiwekea":8946,"huna":8947,"rahimu":8948,"mbaa":8949,"Ġalijua":8950,"Ġalirudi":8951,"Ġaliongoza":8952,"Ġalisikia":8953,"Ġalijeruhiwa":8954,"Ġalilokuwa":8955,"tonyama":8956,"leba":8957,"Ġkuwaita":8958,"Ġkuwashughulikia":8959,"Ġkuwaletea":8960,"Ġniseme":8961,"Ġniliona":8962,"pona":8963,"potokea":8964,"Ġhua":8965,"Ġhumu":8966,"Ġhusababisha":8967,"Ġhuzuni":8968,"Ġmilima":8969,"Ġsabuni":8970,"Ġsangara":8971,"pishaji":8972,"ndama":8973,"ngali":8974,"Ġvisi":8975,"Ġvitano":8976,"Ġilio":8977,"Ġilifika":8978,"Ġilitangaza":8979,"Ġilihusisha":8980,"Ġiliundwa":8981,"Ġkutotaka":8982,"Ġwalishiriki":8983,"Ġwalikiri":8984,"Ġwalijitokeza":8985,"Ġwalikataa":8986,"Ġwalikutwa":8987,"Ġwalipwe":8988,"Ġmomba":8989,"Ġsebu":8990,"Ġtuni":8991,"Ġtutaa":8992,"Ġtusubiri":8993,"Ġmwan":8994,"Ġtigo":8995,"romoka":8996,"Ġbin":8997,"Ġjuven":8998,"pewi":8999,"Ġanastahili":9000,"Ġinashika":9001,"Ġinaendeshwa":9002,"Ġinahitajika":9003,"Ġmundu":9004,"Ġmuleba":9005,"Ġakienda":9006,"Ġakiendesha":9007,"Ġakikabidhi":9008,"Ġakiunganisha":9009,"Ġwezi":9010,"Ġmepesi":9011,"Ġmessi":9012,"gentina":9013,"Ġtbc":9014,"Ġameweka":9015,"Ġameahidi":9016,"Ġkuio":9017,"Ġkuiona":9018,"Ġfm":9019,"Ġimeingia":9020,"Ġimefahamika":9021,"Ġofa":9022,"Ġwamecheza":9023,"Ġwatatumia":9024,"Ġwatafiti":9025,"Ġwakija":9026,"Ġkujinufaisha":9027,"Ġkujiepusha":9028,"Ġwalioa":9029,"Ġkumtoa":9030,"Ġkumshauri":9031,"Ġkumfukuza":9032,"Ġhol":9033,"tian":9034,"Ġutandawazi":9035,"villa":9036,"fanyiwe":9037,"Ġzinaonyesha":9038,"ndugu":9039,"Ġjema":9040,"Ġaliyezaliwa":9041,"Ġpendekezo":9042,"Ġtunatarajia":9043,"Ġkusali":9044,"Ġhawaridhi":9045,"Ġhawapendi":9046,"Ġulitokea":9047,"Ġkukari":9048,"Ġkukaidi":9049,"Ġyalifungwa":9050,"dee":9051,"Ġwanaowa":9052,"Ġikicheza":9053,"Ġikishindwa":9054,"Ġikishinda":9055,"Ġbugu":9056,"Ġuliojitokeza":9057,"Ġuliopangwa":9058,"Ġshabani":9059,"Ġkutenganisha":9060,"Ġrio":9061,"Ġjola":9062,"Ġjoyce":9063,"Ġhaitaki":9064,"Ġhaijulikani":9065,"Ġatatoa":9066,"Ġataondoka":9067,"kilisha":9068,"Ġhekima":9069,"shea":9070,"nyia":9071,"Ġzinazomkabili":9072,"Ġlugo":9073,"Ġlude":9074,"Ġakaanza":9075,"Ġzimeeleza":9076,"mwachia":9077,"Ġkikatili":9078,"Ġrorya":9079,"Ġcorpora":9080,"Ġargentina":9081,"Ġhayaja":9082,"Ġyanayofanywa":9083,"Ġyupi":9084,"Ġvitani":9085,"Ġujazo":9086,"mbanaji":9087,"endayo":9088,"Ġkuchanganyikiwa":9089,"Ġkuvuja":9090,"Ġitakuwaje":9091,"Ġnimewa":9092,"Ġnyombi":9093,"guano":9094,"Ġmajukwa":9095,"nyonga":9096,"Ġkubomoa":9097,"Ġkimchezo":9098,"Ġapril":9099,"Ġamewaomba":9100,"Ġmtaalam":9101,"Ġbarrick":9102,"Ġkumwaga":9103,"Ġhaijafanya":9104,"Ġmfukoni":9105,"Ġwapambanaji":9106,"Ġtegeta":9107,"Ġviwandani":9108,"Ġibrahimu":9109,"Ġferna":9110,"ruhusi":9111,"Ġdenis":9112,"Ġgirls":9113,"Ġkurejeshwa":9114,"Ġmvungi":9115,"Ġkiasia":9116,"Ġmsondo":9117,"Ġkurekodi":9118,"Ġkidete":9119,"Ġkijitonyama":9120,"Ġwanachotaka":9121,"Ġnjovu":9122,"Ġkumwona":9123,"Ġwalichodai":9124,"Ġutofauti":9125,"Ġwaliachiwa":9126,"Ġtakataka":9127,"Ġwashirika":9128,"Ġannan":9129,"zuizi":9130,"dhinishwa":9131,"Ġtuangalie":9132,"Ġkalenge":9133,"Ġamos":9134,"Ġiangalie":9135,"Ġvalen":9136,"Ġsaratani":9137,"tosheleza":9138,"Ġmafundisho":9139,"Ġzube":9140,"Ġmsisitizo":9141,"kusanyia":9142,"Ġloiti":9143,"Ġkulaumu":9144,"Ġhafifu":9145,"Ġkutokomeza":9146,"Ġmajonzi":9147,"Ġmlemavu":9148,"Ġssp":9149,"Ġpazzy":9150,"chocheo":9151,"Ġneverland":9152,"Ġkumchinja":9153,"Ġjuventus":9154,"dl":9155,"ft":9156,"frida":9157,"ic":9158,"kna":9159,"ksa":9160,"uma":9161,"uld":9162,"Ġchukua":9163,"naji":9164,"Ġmru":9165,"Ġmnya":9166,"lipi":9167,"lingani":9168,"Ġwasema":9169,"Ġwachimbaji":9170,"Ġwahariri":9171,"Ġkuda":9172,"Ġkushikilia":9173,"Ġkushikiliwa":9174,"Ġkuvamiwa":9175,"haha":9176,"Ġnavyo":9177,"Ġnature":9178,"Ġacheni":9179,"Ġyawezekana":9180,"tage":9181,"bai":9182,"Ġsca":9183,"mamu":9184,"mark":9185,"zitaka":9186,"Ġuthamini":9187,"Ġkafu":9188,"Ġkanga":9189,"Ġiu":9190,"Ġizu":9191,"Ġifike":9192,"Ġhashi":9193,"Ġhafahamu":9194,"jiro":9195,"husiki":9196,"Ġkiza":9197,"Ġkiweze":9198,"Ġkimea":9199,"Ġkidole":9200,"toliki":9201,"chafua":9202,"chambua":9203,"pange":9204,"paresheni":9205,"minia":9206,"muunga":9207,"Ġkuwaza":9208,"Ġkuwatoa":9209,"Ġkuwasaka":9210,"Ġkuwaziba":9211,"Ġkuwanasa":9212,"Ġkuwainua":9213,"Ġsikuwa":9214,"Ġsiman":9215,"pori":9216,"Ġhuria":9217,"Ġhufanyika":9218,"Ġnenda":9219,"Ġlaza":9220,"neth":9221,"Ġmimo":9222,"Ġsaka":9223,"Ġsajini":9224,"Ġsavio":9225,"kotwa":9226,"Ġblo":9227,"Ġvidole":9228,"chiwe":9229,"Ġilidai":9230,"Ġilibaini":9231,"Ġiliongeza":9232,"eleka":9233,"juka":9234,"Ġwalifunga":9235,"Ġwalihusika":9236,"Ġwalimtaka":9237,"ngeni":9238,"Ġmor":9239,"Ġeast":9240,"Ġsem":9241,"Ġjamai":9242,"penha":9243,"mbole":9244,"Ġanasisitiza":9245,"chuana":9246,"Ġmuongo":9247,"Ġakipokea":9248,"Ġakifuatiwa":9249,"Ġwatulivu":9250,"Ġwatumie":9251,"Ġtwi":9252,"Ġameeleza":9253,"shwi":9254,"Ġkota":9255,"Ġkofia":9256,"vunjika":9257,"Ġkuiti":9258,"Ġkuikosoa":9259,"Ġimepokea":9260,"Ġimeshuka":9261,"Ġoic":9262,"Ġoparesheni":9263,"Ġwamekaa":9264,"Ġwamechoshwa":9265,"Ġsabasaba":9266,"Ġpoli":9267,"Ġwatawa":9268,"Ġwatalipa":9269,"Ġwatalipwa":9270,"mbukia":9271,"Ġwakicheza":9272,"Ġwakipinga":9273,"Ġwakijiandaa":9274,"Ġwakishinikiza":9275,"Ġkujiingiza":9276,"Ġhaliku":9277,"Ġwaliom":9278,"Ġwaliowahi":9279,"Ġwaliochaguliwa":9280,"Ġkuungwa":9281,"gile":9282,"Ġkumtetea":9283,"Ġkumchoma":9284,"Ġesther":9285,"Ġhotel":9286,"sota":9287,"Ġunafanywa":9288,"Ġmwiru":9289,"Ġmwimbaji":9290,"nyago":9291,"Ġbob":9292,"Ġboig":9293,"Ġitashinda":9294,"Ġitakua":9295,"Ġitaleta":9296,"Ġnyie":9297,"Ġsikukuu":9298,"jiamini":9299,"Ġshujaa":9300,"Ġzinavyo":9301,"Ġwould":9302,"Ġzilitolewa":9303,"Ġsonga":9304,"Ġumekuja":9305,"Ġumefikia":9306,"Ġaliyetaka":9307,"Ġaliyezungumza":9308,"Ġhakufanya":9309,"Ġhakuona":9310,"Ġhawapati":9311,"Ġulidai":9312,"Ġulifikiwa":9313,"Ġgwa":9314,"Ġruksa":9315,"Ġkuwekewa":9316,"Ġinayoshiriki":9317,"Ġinayoongoza":9318,"Ġinayomilikiwa":9319,"Ġkinaendelea":9320,"Ġzilizofanyika":9321,"Ġzilizofanywa":9322,"Ġjob":9323,"Ġhaitoshi":9324,"Ġatarudi":9325,"Ġmikocheni":9326,"Ġmaziko":9327,"Ġzinazochukuliwa":9328,"Ġdhambi":9329,"eld":9330,"Ġakaahidi":9331,"Ġuhuni":9332,"Ġkupongezwa":9333,"Ġkupokelewa":9334,"Ġrome":9335,"Ġcola":9336,"Ġconso":9337,"Ġcopenha":9338,"Ġfili":9339,"Ġukitaka":9340,"Ġukiongozwa":9341,"Ġhayaku":9342,"Ġyanayotokana":9343,"Ġmitandao":9344,"Ġkuchapa":9345,"Ġunaoendeshwa":9346,"Ġmfaransa":9347,"Ġkilichom":9348,"Ġukawa":9349,"Ġmantage":9350,"Ġyameanza":9351,"badilisha":9352,"Ġtutashinda":9353,"Ġkinachosubiriwa":9354,"Ġalimpa":9355,"Ġkushusha":9356,"ridhia":9357,"Ġmtaani":9358,"Ġwauzaji":9359,"Ġwatakaobainika":9360,"Ġkufana":9361,"Ġkusota":9362,"Ġkuchezwa":9363,"Ġlikiendelea":9364,"Ġkuhimili":9365,"Ġhawajapata":9366,"Ġkuchoka":9367,"Ġmnono":9368,"Ġvikubwa":9369,"Ġwalizonazo":9370,"Ġseminari":9371,"Ġpaulo":9372,"Ġgigg":9373,"Ġmachache":9374,"Ġkusambazwa":9375,"Ġtakrima":9376,"Ġmbuna":9377,"Ġwanyamapori":9378,"Ġwanayoishi":9379,"Ġhawatakubali":9380,"Ġkugongana":9381,"Ġgodfrida":9382,"Ġtrekta":9383,"Ġkumwomba":9384,"thibitisho":9385,"saidii":9386,"Ġkhalid":9387,"Ġtumbatu":9388,"Ġsaul":9389,"Ġikionesha":9390,"Ġmponde":9391,"Ġhavina":9392,"Ġkuwatunza":9393,"Ġwanahabari":9394,"Ġkisicho":9395,"Ġalimuua":9396,"Ġvibarua":9397,"Ġphilipo":9398,"Ġmkiani":9399,"Ġmolleimet":9400,"Ġmsisimko":9401,"mbikizia":9402,"Ġtibaijuka":9403,"Ġkamera":9404,"Ġchalinze":9405,"Ġredkna":9406,"Ġwamarekani":9407,"Ġmdoe":9408,"Ġreggae":9409,"Ġlyamuya":9410,"Ġplayers":9411,"Ġupupu":9412,"Ġhitilafu":9413,"Ġparokia":9414,"Ġkukumbatia":9415,"Ġdenmark":9416,"Ġloitinggye":9417,"Ġscania":9418,"Ġkafulila":9419,"Ġizuchukwu":9420,"Ġsimanjiro":9421,"Ġmimosa":9422,"Ġjamaica":9423,"Ġboigny":9424,"Ġcopenhagen":9425,"Ġgiggs":9426,"Ġredknapp":9427,"dda":9428,"hya":9429,"mtu":9430,"mpo":9431,"mzo":9432,"njia":9433,"rth":9434,"swana":9435,"smo":9436,"sdom":9437,"tv":9438,"Ġfika":9439,"Ġmchi":9440,"Ġmge":9441,"Ġmlu":9442,"Ġmnyororo":9443,"lina":9444,"Ġwawi":9445,"Ġwashu":9446,"Ġwacheze":9447,"Ġwabunifu":9448,"Ġkuga":9449,"Ġkushe":9450,"Ġkurugenzi":9451,"Ġkufahamika":9452,"Ġkuliona":9453,"Ġkuniambia":9454,"Ġkugharamia":9455,"Ġkuguswa":9456,"hanna":9457,"Ġnafanya":9458,"Ġnasisitiza":9459,"Ġnakaa":9460,"Ġasali":9461,"Ġyahya":9462,"bay":9463,"ngton":9464,"Ġswa":9465,"Ġspa":9466,"Ġsua":9467,"manga":9468,"Ġmachungu":9469,"titi":9470,"lanzi":9471,"Ġuho":9472,"Ġuamini":9473,"Ġkagoda":9474,"Ġkapteni":9475,"Ġiwa":9476,"Ġiitwa":9477,"Ġhas":9478,"Ġhave":9479,"Ġhadhari":9480,"siness":9481,"Ġkimo":9482,"Ġkiingilio":9483,"Ġalika":9484,"Ġalikubaliana":9485,"Ġalishangazwa":9486,"Ġalikimbia":9487,"tosa":9488,"toweka":9489,"dari":9490,"bir":9491,"dirio":9492,"muona":9493,"Ġkuwahudumia":9494,"Ġkuwahamasisha":9495,"Ġkuwaelimisha":9496,"keni":9497,"Ġnilisha":9498,"hehebu":9499,"Ġsifahamu":9500,"Ġsimoni":9501,"Ġhupenda":9502,"Ġmidogo":9503,"ndard":9504,"ngazi":9505,"Ġvite":9506,"Ġvilio":9507,"Ġvizazi":9508,"Ġchanggombe":9509,"chilia":9510,"Ġwanaa":9511,"Ġwanafa":9512,"Ġwanategemea":9513,"Ġilikutana":9514,"Ġkutofautiana":9515,"Ġwalini":9516,"Ġwalikana":9517,"Ġwalicheza":9518,"Ġwalichukua":9519,"Ġwalikutana":9520,"Ġwalijikuta":9521,"Ġwalilokuwa":9522,"Ġemanuel":9523,"Ġsekunde":9524,"reth":9525,"Ġmwambu":9526,"Ġjabir":9527,"Ġdhehebu":9528,"Ġdaima":9529,"rofi":9530,"vyojua":9531,"Ġjubile":9532,"Ġanacheza":9533,"uake":9534,"Ġpangani":9535,"Ġmuham":9536,"Ġakisumbuliwa":9537,"Ġwisdom":9538,"Ġrafu":9539,"Ġmbavu":9540,"Ġamerudi":9541,"Ġamekubali":9542,"Ġamekamatwa":9543,"Ġkuangu":9544,"Ġkoda":9545,"vumilia":9546,"Ġkuishia":9547,"Ġkuitangaza":9548,"Ġkuitumikia":9549,"Ġimei":9550,"Ġimelda":9551,"miana":9552,"Ġonyesho":9553,"mbile":9554,"Ġwamewa":9555,"Ġwamejitokeza":9556,"Ġpower":9557,"Ġmkombozi":9558,"mbukiza":9559,"Ġmahafali":9560,"Ġwakishindwa":9561,"Ġwakijua":9562,"Ġkujita":9563,"Ġkujipa":9564,"Ġkujilinda":9565,"Ġwaliowa":9566,"gizwa":9567,"Ġkumtumia":9568,"Ġkumdhibiti":9569,"Ġiliyoanza":9570,"Ġiliyoongozwa":9571,"some":9572,"Ġunaanza":9573,"Ġunakuta":9574,"nyakulia":9575,"Ġwaziwazi":9576,"Ġbocco":9577,"Ġbouake":9578,"Ġkulifanya":9579,"bea":9580,"Ġkufundishi":9581,"Ġdee":9582,"Ġworl":9583,"Ġzilitoka":9584,"Ġaliyefahamika":9585,"Ġpentekoste":9586,"Ġhakutakuwa":9587,"Ġhawaoni":9588,"Ġulipo":9589,"Ġmakasi":9590,"Ġmakadirio":9591,"ders":9592,"Ġwanaoweza":9593,"Ġwanaoshiriki":9594,"Ġjongo":9595,"Ġlilisababisha":9596,"Ġbusiness":9597,"Ġulioanza":9598,"Ġuliosababisha":9599,"Ġuliowekwa":9600,"Ġnguli":9601,"shusha":9602,"Ġtumefanya":9603,"Ġtumechoka":9604,"Ġrihanna":9605,"Ġkinatakiwa":9606,"Ġnyinginezo":9607,"Ġalfred":9608,"Ġzilizotengwa":9609,"Ġjoel":9610,"Ġalipoanza":9611,"Ġheri":9612,"Ġhela":9613,"Ġmikoba":9614,"Ġmbrazil":9615,"Ġstan":9616,"Ġstar":9617,"Ġstandard":9618,"Ġzinazofanya":9619,"Ġyaliyopita":9620,"Ġyaliyojitokeza":9621,"Ġproje":9622,"Ġakawataka":9623,"cafa":9624,"Ġkuondosha":9625,"Ġkupokewa":9626,"fuatwa":9627,"Ġcon":9628,"Ġcopa":9629,"Ġcount":9630,"Ġfinyu":9631,"Ġmtagwa":9632,"aminika":9633,"Ġniliyo":9634,"Ġnilifanya":9635,"Ġnilipokuwa":9636,"Ġmaganga":9637,"Ġkujeruhi":9638,"Ġcurkovic":9639,"Ġmatunzo":9640,"fadhiliwa":9641,"Ġyametokana":9642,"Ġcamp":9643,"Ġmartine":9644,"Ġkitanda":9645,"Ġkitalii":9646,"Ġdismas":9647,"Ġvyeo":9648,"Ġtutahakikisha":9649,"Ġdarasani":9650,"Ġair":9651,"Ġngombale":9652,"sterbay":9653,"Ġhatarini":9654,"Ġkulikoni":9655,"Ġkumuomba":9656,"Ġkubore":9657,"Ġwilfred":9658,"Ġkusaidiana":9659,"Ġmnataka":9660,"Ġkaitaba":9661,"Ġbotswana":9662,"Ġkuishiwa":9663,"sanywa":9664,"rahaman":9665,"Ġlitaendelea":9666,"Ġwatakaoshiriki":9667,"Ġhotelini":9668,"Ġkarama":9669,"Ġnitafanya":9670,"mwele":9671,"Ġkukataliwa":9672,"furahisha":9673,"Ġgumzo":9674,"Ġmsomi":9675,"pendekezwa":9676,"Ġushirikina":9677,"Ġcecafa":9678,"Ġmwakingwe":9679,"Ġshamsa":9680,"dorora":9681,"Ġmanane":9682,"Ġporini":9683,"Ġtuache":9684,"Ġkivuko":9685,"Ġsalehe":9686,"ssy":9687,"Ġgamaya":9688,"fundishwa":9689,"Ġmichoro":9690,"Ġlilian":9691,"Ġnamibia":9692,"Ġminara":9693,"Ġkihalali":9694,"Ġukiona":9695,"Ġmjema":9696,"Ġmayai":9697,"Ġbrela":9698,"Ġwaajiriwa":9699,"Ġanglikana":9700,"zingatiwa":9701,"Ġthis":9702,"Ġmunich":9703,"nguruma":9704,"Ġkashilila":9705,"Ġafande":9706,"Ġshabaan":9707,"Ġluhanjo":9708,"Ġmayemba":9709,"Ġkadhalika":9710,"Ġkuepukana":9711,"Ġkapuya":9712,"Ġkufilisika":9713,"ainishwa":9714,"Ġmombasa":9715,"Ġtunisia":9716,"Ġvalencia":9717,"Ġiitwayo":9718,"Ġjubilee":9719,"Ġkufundishia":9720,"Ġworld":9721,"ambie":9722,"df":9723,"enzi":9724,"llu":9725,"lde":9726,"mshi":9727,"nh":9728,"nka":9729,"nno":9730,"ore":9731,"ongeze":9732,"rdan":9733,"use":9734,"uth":9735,"zza":9736,"Ġzungu":9737,"Ġkmk":9738,"nam":9739,"nasua":9740,"Ġmc":9741,"Ġmlo":9742,"Ġmgu":9743,"Ġmwo":9744,"Ġmkwa":9745,"Ġmvo":9746,"Ġmpelelezi":9747,"Ġmfisi":9748,"Ġwamu":9749,"Ġwapewe":9750,"Ġwapendwa":9751,"Ġkunya":9752,"Ġkutwa":9753,"Ġkunyanya":9754,"Ġkuridhishwa":9755,"Ġkudharau":9756,"has":9757,"Ġnasi":9758,"Ġnanyi":9759,"Ġasia":9760,"Ġashu":9761,"Ġagenda":9762,"Ġyaka":9763,"tanisha":9764,"baliani":9765,"Ġspo":9766,"Ġmamba":9767,"Ġmalazi":9768,"Ġmazembe":9769,"tifu":9770,"rifu":9771,"kisa":9772,"kibali":9773,"lan":9774,"Ġuwa":9775,"Ġuwongo":9776,"Ġuthibitisho":9777,"Ġishe":9778,"Ġikumbu":9779,"Ġianzi":9780,"kuwemo":9781,"Ġhaifa":9782,"hudhuriwa":9783,"siga":9784,"Ġkihu":9785,"Ġkibi":9786,"Ġkifaa":9787,"Ġalite":9788,"Ġalizungumza":9789,"Ġalitua":9790,"Ġalitenda":9791,"sai":9792,"sanyo":9793,"salimisha":9794,"pachika":9795,"shack":9796,"futia":9797,"futwa":9798,"muliwa":9799,"Ġkuwashinda":9800,"Ġtafakari":9801,"kera":9802,"burg":9803,"shitaki":9804,"shindwe":9805,"Ġzambi":9806,"Ġsiasi":9807,"polewa":9808,"poaji":9809,"Ġhufanya":9810,"Ġnywe":9811,"Ġvioo":9812,"Ġviet":9813,"Ġvidic":9814,"Ġchande":9815,"chini":9816,"Ġwanau":9817,"Ġwanapinga":9818,"Ġilizidi":9819,"Ġilijulikana":9820,"Ġilimtaka":9821,"Ġilibidi":9822,"lomba":9823,"Ġkutoelewana":9824,"field":9825,"Ġwaliko":9826,"Ġwalilo":9827,"Ġwalibaini":9828,"Ġwalieleza":9829,"Ġmolde":9830,"Ġeli":9831,"Ġeri":9832,"reta":9833,"Ġmwako":9834,"Ġlione":9835,"perushi":9836,"chomwa":9837,"dharia":9838,"Ġanakuja":9839,"Ġanapenda":9840,"Ġanakiri":9841,"Ġanaitwa":9842,"Ġinatambua":9843,"zeli":9844,"guli":9845,"Ġmumba":9846,"Ġakiomba":9847,"Ġakionekana":9848,"Ġakiingia":9849,"Ġakisubiri":9850,"Ġakiongea":9851,"Ġmeshack":9852,"Ġamecheza":9853,"Ġameuawa":9854,"Ġamefurahishwa":9855,"Ġkondoa":9856,"Ġkuia":9857,"Ġkuigiza":9858,"Ġkuinusuru":9859,"yuni":9860,"Ġimepiga":9861,"Ġimepoteza":9862,"mbeli":9863,"Ġwameonesha":9864,"Ġwamekubali":9865,"Ġwamekua":9866,"dozi":9867,"Ġwatafute":9868,"Ġmahala":9869,"Ġwakizungumzia":9870,"Ġwakihoji":9871,"Ġkujibiwa":9872,"Ġwaliopoteza":9873,"Ġwaliojeruhiwa":9874,"Ġkumfunga":9875,"Ġkumsajili":9876,"Ġlembeli":9877,"Ġiliyomfanya":9878,"Ġunafanya":9879,"Ġunahitajika":9880,"Ġutani":9881,"Ġutaanza":9882,"inisha":9883,"Ġchamangwana":9884,"Ġwazito":9885,"Ġgau":9886,"Ġitam":9887,"Ġitaongeza":9888,"Ġsheki":9889,"lisikia":9890,"kwaana":9891,"Ġnyuki":9892,"Ġdestu":9893,"Ġkutasaidia":9894,"Ġkunatokana":9895,"Ġtoure":9896,"Ġhakufahamu":9897,"Ġmwesiga":9898,"Ġtunaanza":9899,"wezeshwa":9900,"Ġhawakuwepo":9901,"Ġulitokana":9902,"Ġuliiomba":9903,"Ġkukanusha":9904,"Ġwanaosoma":9905,"Ġchipolo":9906,"Ġmakusanyo":9907,"Ġgrume":9908,"Ġgrou":9909,"Ġrutuba":9910,"Ġikiendeshwa":9911,"Ġuliochezwa":9912,"Ġuliomalizika":9913,"Ġyanafanyika":9914,"Ġwaangalie":9915,"Ġdonald":9916,"Ġtumejiandaa":9917,"Ġjordan":9918,"Ġatatakiwa":9919,"Ġalipoingia":9920,"Ġlinamshikilia":9921,"Ġfuso":9922,"Ġmalima":9923,"Ġzinazotokana":9924,"Ġzinazohusiana":9925,"pelekewa":9926,"Ġluisi":9927,"Ġakahoji":9928,"Ġzimeendelea":9929,"Ġkiungwana":9930,"Ġgereji":9931,"Ġkipaza":9932,"Ġkipande":9933,"Ġrombo":9934,"Ġrobin":9935,"Ġvyoo":9936,"Ġmtakuwa":9937,"con":9938,"Ġlimeanza":9939,"Ġnilim":9940,"Ġkuletwa":9941,"Ġkuvumilia":9942,"Ġkilichofanywa":9943,"Ġninayo":9944,"shiana":9945,"Ġmapipa":9946,"Ġyamekamilika":9947,"Ġmtego":9948,"Ġnimewahi":9949,"jiriwa":9950,"Ġdida":9951,"Ġdizeli":9952,"Ġmiongozo":9953,"Ġitakapokuwa":9954,"Ġwatakapokuwa":9955,"Ġaliyotoa":9956,"Ġkumuuliza":9957,"haribiwa":9958,"Ġkuenea":9959,"ndikano":9960,"staarabu":9961,"ngelea":9962,"Ġkitillya":9963,"Ġmigongano":9964,"Ġupoto":9965,"Ġkuyafanyia":9966,"Ġkarakana":9967,"Ġimeahidi":9968,"bweteka":9969,"Ġtrawu":9970,"tions":9971,"Ġutakaopigwa":9972,"Ġgodwin":9973,"Ġkipentekoste":9974,"Ġkipekee":9975,"Ġwasamaria":9976,"Ġuopoaji":9977,"Ġcelina":9978,"Ġchenyenye":9979,"Ġshamsi":9980,"Ġwanaojiita":9981,"ploma":9982,"Ġqa":9983,"kimbiza":9984,"Ġsalewi":9985,"Ġikionekana":9986,"Ġvipeperushi":9987,"Ġmpoki":9988,"Ġyatakayofanyika":9989,"Ġviazi":9990,"fananisha":9991,"Ġkufurahishwa":9992,"Ġkabange":9993,"Ġvibao":9994,"Ġvipodozi":9995,"Ġurembo":9996,"Ġusingizini":9997,"Ġevans":9998,"Ġrwakibali":9999,"Ġenterpreneurship":10000,"Ġmafizi":10001,"kusanyika":10002,"Ġkibosho":10003,"Ġtobago":10004,"Ġkununuliwa":10005,"Ġkuendekeza":10006,"Ġsports":10007,"Ġmpunga":10008,"Ġmmliki":10009,"Ġkuadhimisha":10010,"Ġbiblia":10011,"Ġolympi":10012,"Ġrwilomba":10013,"Ġkibenki":10014,"Ġmiondoko":10015,"Ġbidco":10016,"Ġcarlos":10017,"Ġbuguruni":10018,"Ġcorporation":10019,"Ġsakare":10020,"Ġnakaaya":10021,"Ġkmkm":10022,"Ġmvomero":10023,"Ġashura":10024,"Ġishengoma":10025,"Ġikumbukwe":10026,"Ġnywele":10027,"Ġvietnam":10028,"Ġlionel":10029,"Ġdesturi":10030,"Ġchipolopolo":10031,"Ġgrumeti":10032,"Ġgroup":10033,"Ġrwakibalila":10034,"ack":10035,"cu":10036,"ea":10037,"lva":10038,"or":10039,"puaji":10040,"rson":10041,"ssia":10042,"slahi":10043,"tba":10044,"utoa":10045,"Ġpumzi":10046,"nadamu":10047,"Ġmt":10048,"Ġmlezi":10049,"lishi":10050,"Ġwarudi":10051,"Ġwangapi":10052,"Ġkuhitaji":10053,"Ġkujulikana":10054,"Ġkustawi":10055,"Ġkugeuka":10056,"Ġkubanwa":10057,"yasema":10058,"Ġnawapongeza":10059,"ning":10060,"hiko":10061,"Ġati":10062,"Ġaku":10063,"Ġarume":10064,"Ġamon":10065,"Ġaseme":10066,"Ġyamea":10067,"Ġyakawa":10068,"Ġsco":10069,"Ġmache":10070,"Ġmafuri":10071,"las":10072,"lami":10073,"Ġutoto":10074,"Ġudogo":10075,"Ġutumiaji":10076,"ndra":10077,"Ġil":10078,"Ġitu":10079,"Ġihe":10080,"tuti":10081,"tuko":10082,"ratasi":10083,"Ġalitarajia":10084,"Ġalipinga":10085,"tozwa":10086,"dada":10087,"bida":10088,"salama":10089,"meji":10090,"yem":10091,"Ġkuwate":10092,"Ġkuwakumbusha":10093,"Ġtai":10094,"butu":10095,"shikwa":10096,"tekele":10097,"Ġsindano":10098,"Ġsirro":10099,"Ġhusaidia":10100,"Ġhutegemea":10101,"zoeleka":10102,"Ġbayi":10103,"ney":10104,"Ġmimea":10105,"Ġsalma":10106,"kora":10107,"Ġvido":10108,"Ġviweze":10109,"Ġvikto":10110,"Ġchaguo":10111,"Ġchakavu":10112,"chimbia":10113,"Ġwanalo":10114,"Ġwanakula":10115,"Ġilipewa":10116,"Ġiliwahi":10117,"nyeshwa":10118,"chero":10119,"Ġwalihoji":10120,"Ġwalipaswa":10121,"Ġwaliibuka":10122,"Ġwalikufa":10123,"Ġwaligoma":10124,"Ġwaliwasilisha":10125,"Ġwalitenda":10126,"Ġmotisha":10127,"Ġsevilla":10128,"Ġturuka":10129,"Ġjaribio":10130,"Ġjasiri":10131,"Ġzinge":10132,"Ġzilio":10133,"Ġlishe":10134,"Ġdhu":10135,"vyote":10136,"zushi":10137,"Ġinashuka":10138,"endo":10139,"Ġmuho":10140,"Ġakiweka":10141,"Ġwith":10142,"Ġmedani":10143,"geuza":10144,"Ġjiulize":10145,"idika":10146,"Ġtv":10147,"Ġmbaga":10148,"Ġameiomba":10149,"Ġameumia":10150,"Ġkuanga":10151,"Ġkuandikisha":10152,"vuna":10153,"Ġkuifanyia":10154,"Ġkuipatia":10155,"Ġkuijenga":10156,"Ġkuishangilia":10157,"Ġimepewa":10158,"Ġimetwaa":10159,"Ġimeundwa":10160,"Ġimedhamiria":10161,"ndeka":10162,"Ġwamei":10163,"Ġwameweza":10164,"Ġwameona":10165,"Ġwamebaki":10166,"Ġwamemaliza":10167,"Ġwameunda":10168,"Ġwamepania":10169,"Ġwatashinda":10170,"Ġwakina":10171,"Ġwakionekana":10172,"Ġtaara":10173,"Ġkujiko":10174,"Ġkujipe":10175,"Ġkujieleza":10176,"Ġkujihami":10177,"Ġkujinasua":10178,"Ġwaliouawa":10179,"Ġwalioupata":10180,"Ġkumkosa":10181,"Ġkumnggoa":10182,"Ġmajibiza":10183,"Ġiliyotoa":10184,"Ġiliyofunguliwa":10185,"Ġiliyosomwa":10186,"Ġhovyo":10187,"Ġunategemea":10188,"Ġutambuzi":10189,"Ġutagundua":10190,"Ġutapeli":10191,"Ġitajulikana":10192,"Ġitashuka":10193,"Ġteve":10194,"Ġkulishughulikia":10195,"Ġafter":10196,"Ġnafaka":10197,"Ġkuhutubia":10198,"kiongezeka":10199,"Ġmwenyezi":10200,"Ġupandaji":10201,"Ġzinapo":10202,"Ġzilidai":10203,"Ġkutafsiri":10204,"Ġumeendelea":10205,"Ġumekwisha":10206,"oneshwa":10207,"Ġhakupata":10208,"Ġtunadhani":10209,"Ġmatabaka":10210,"Ġulipuaji":10211,"Ġmakabidhi":10212,"Ġmakachero":10213,"Ġwanaohitaji":10214,"taaluma":10215,"Ġhakija":10216,"Ġgtv":10217,"Ġkupamba":10218,"Ġkupatwa":10219,"Ġmastaa":10220,"Ġbunu":10221,"Ġdumila":10222,"Ġkufikiri":10223,"Ġinayodaiwa":10224,"Ġinayochangia":10225,"Ġinayoshughulikia":10226,"Ġkusiko":10227,"ishauri":10228,"Ġtumeanza":10229,"Ġtumepokea":10230,"Ġatakutana":10231,"Ġatambue":10232,"Ġlinawa":10233,"Ġlinatarajia":10234,"Ġhekta":10235,"Ġkimaisha":10236,"Ġkimaslahi":10237,"Ġmbwe":10238,"Ġreco":10239,"Ġaliwaomba":10240,"Ġmchawi":10241,"rudishia":10242,"Ġwasije":10243,"Ġyaliyowekwa":10244,"Ġluba":10245,"Ġkuzifanya":10246,"Ġkuzifanyia":10247,"Ġkuzinduliwa":10248,"can":10249,"Ġmadabida":10250,"Ġvyovyote":10251,"Ġukifika":10252,"Ġmajanga":10253,"Ġkujadiliana":10254,"rds":10255,"Ġkuchapisha":10256,"Ġunaonyesha":10257,"Ġanayeongoza":10258,"Ġanayetuhumiwa":10259,"Ġilivyotarajiwa":10260,"Ġmarwa":10261,"Ġkitandani":10262,"Ġabdala":10263,"Ġrp":10264,"Ġnei":10265,"Ġtutatoa":10266,"Ġalimweleza":10267,"Ġkimeeleza":10268,"Ġzitafanyika":10269,"Ġhazikuwa":10270,"Ġukodi":10271,"ingiwa":10272,"Ġmkeo":10273,"Ġwilson":10274,"Ġvilipatikana":10275,"Ġkalinga":10276,"Ġyataendelea":10277,"Ġitakayokuwa":10278,"Ġmsemo":10279,"Ġmipakani":10280,"Ġkuingiliwa":10281,"Ġkulipatia":10282,"sante":10283,"Ġmwakyo":10284,"Ġaliambiwa":10285,"Ġmahututi":10286,"Ġpembezoni":10287,"Ġmsuguano":10288,"sirimali":10289,"Ġwalizokuwa":10290,"Ġmahiza":10291,"Ġchristine":10292,"Ġwazanzibar":10293,"Ġkiapo":10294,"Ġmbuzi":10295,"Ġmbuga":10296,"Ġkusudio":10297,"Ġzitakazotumika":10298,"Ġlikiwamo":10299,"Ġpunda":10300,"Ġitakapotajwa":10301,"Ġwakiamini":10302,"Ġwalichofanya":10303,"Ġninachoweza":10304,"Ġfitina":10305,"ress":10306,"mbuiza":10307,"Ġque":10308,"Ġkalembo":10309,"Ġdiallo":10310,"kimbizwa":10311,"safirishwa":10312,"uet":10313,"safisha":10314,"shtuko":10315,"Ġnkya":10316,"Ġviashiria":10317,"Ġswed":10318,"sambaa":10319,"sambazwa":10320,"Ġkufurahia":10321,"Ġkichapo":10322,"Ġmathalani":10323,"Ġhoupho":10324,"Ġblack":10325,"Ġisaack":10326,"Ġbluu":10327,"Ġkurubuni":10328,"Ġuwiano":10329,"Ġmisuli":10330,"Ġkununulia":10331,"Ġmitumba":10332,"Ġherve":10333,"Ġkuchezesha":10334,"thubutu":10335,"Ġalivitaja":10336,"Ġelekezi":10337,"Ġlugalo":10338,"Ġmirathi":10339,"Ġzamale":10340,"Ġjacob":10341,"Ġplastiki":10342,"Ġmamluki":10343,"Ġsebuleni":10344,"Ġfilimbi":10345,"Ġkaramagi":10346,"tball":10347,"Ġarumeru":10348,"Ġmafuriko":10349,"Ġviktoria":10350,"Ġmajibizano":10351,"Ġtevez":10352,"Ġmakabidhiano":10353,"Ġhouphouet":10354,"andika":10355,"endani":10356,"hlovu":10357,"ila":10358,"jomba":10359,"lve":10360,"msha":10361,"nju":10362,"pl":10363,"rch":10364,"stus":10365,"ysterbay":10366,"Ġrika":10367,"Ġgoro":10368,"Ġkcc":10369,"nanza":10370,"Ġmro":10371,"Ġmdaiwa":10372,"Ġmtumiaji":10373,"Ġmnh":10374,"Ġmjomba":10375,"limali":10376,"Ġwaya":10377,"Ġwanya":10378,"Ġwaelewe":10379,"Ġwafungaji":10380,"Ġkunde":10381,"Ġkuratibu":10382,"Ġkushtu":10383,"Ġkugundulika":10384,"Ġkuburu":10385,"Ġkuthibitishwa":10386,"Ġkuendana":10387,"Ġkunke":10388,"yan":10389,"nipa":10390,"nisani":10391,"Ġachana":10392,"Ġapewe":10393,"Ġyasema":10394,"Ġyaliwa":10395,"Ġyafanyike":10396,"Ġyaendayo":10397,"tawa":10398,"tain":10399,"baha":10400,"badhi":10401,"Ġstaka":10402,"marika":10403,"Ġmawi":10404,"rist":10405,"kie":10406,"lata":10407,"langa":10408,"zingira":10409,"zirai":10410,"Ġkasu":10411,"Ġkanisani":10412,"kucha":10413,"Ġhazito":10414,"sitisha":10415,"javyo":10416,"raza":10417,"rago":10418,"rard":10419,"Ġkiju":10420,"Ġkige":10421,"Ġkiitwa":10422,"mbari":10423,"Ġalishiriki":10424,"Ġalitolewa":10425,"Ġalizeti":10426,"Ġalitoka":10427,"Ġalishuhudia":10428,"Ġalijikuta":10429,"Ġalisimama":10430,"Ġalikabidhiwa":10431,"Ġalinukuliwa":10432,"dawi":10433,"sanyika":10434,"pamba":10435,"pangiwa":10436,"mele":10437,"furika":10438,"yeye":10439,"diria":10440,"muko":10441,"Ġkuwanufaisha":10442,"Ġkuwarubuni":10443,"Ġtanki":10444,"kete":10445,"shinde":10446,"Ġnino":10447,"tengewa":10448,"Ġsine":10449,"Ġsikio":10450,"Ġsipendi":10451,"Ġhuweza":10452,"Ġhujui":10453,"neja":10454,"Ġmizi":10455,"Ġmitini":10456,"Ġsala":10457,"Ġsalala":10458,"Ġsaikolojia":10459,"Ġby":10460,"Ġbwa":10461,"ngiliwa":10462,"nday":10463,"Ġvijavyo":10464,"Ġvirago":10465,"Ġchambo":10466,"Ġwanakuja":10467,"Ġwanadhani":10468,"Ġilitaka":10469,"Ġilifikia":10470,"Ġililenga":10471,"logile":10472,"wis":10473,"nguyeye":10474,"Ġkutoi":10475,"Ġkutojihusisha":10476,"Ġwalikosa":10477,"Ġwalikaa":10478,"Ġwalisikia":10479,"Ġex":10480,"Ġeze":10481,"Ġeve":10482,"gaa":10483,"gan":10484,"gas":10485,"gari":10486,"Ġtulia":10487,"Ġmwajuma":10488,"Ġjanja":10489,"Ġdansi":10490,"rojo":10491,"Ġjusti":10492,"mbow":10493,"Ġanaomba":10494,"Ġanashangaa":10495,"Ġanaumwa":10496,"Ġinapatikana":10497,"Ġinajiandaa":10498,"Ġinakadiriwa":10499,"Ġwakaanza":10500,"liamali":10501,"Ġmusoma":10502,"Ġakionyesha":10503,"dhibu":10504,"Ġmerre":10505,"Ġram":10506,"Ġrapha":10507,"Ġjiko":10508,"Ġcli":10509,"Ġamejiunga":10510,"Ġamehamishiwa":10511,"Ġkomu":10512,"Ġkombani":10513,"Ġkorea":10514,"vutiwa":10515,"Ġkuiunga":10516,"Ġkuimarika":10517,"Ġshimbo":10518,"Ġshilogile":10519,"Ġimetakiwa":10520,"Ġimeeleza":10521,"Ġimetokea":10522,"Ġimeombwa":10523,"Ġombe":10524,"Ġoysterbay":10525,"Ġwamelala":10526,"Ġwamechukua":10527,"Ġwamekwenda":10528,"Ġwamefariki":10529,"Ġpop":10530,"Ġporojo":10531,"Ġnditi":10532,"Ġwakikosa":10533,"Ġwakishinda":10534,"Ġwakiendesha":10535,"Ġwakifuatilia":10536,"Ġkujiona":10537,"Ġkujiletea":10538,"Ġkujiwekea":10539,"nuka":10540,"Ġwalioingia":10541,"Ġwaliokaa":10542,"Ġwaliohukumiwa":10543,"Ġkuudhi":10544,"Ġkumfungia":10545,"Ġkumsimamisha":10546,"Ġkumkosoa":10547,"Ġlewis":10548,"Ġiliyotokana":10549,"songa":10550,"Ġunasema":10551,"Ġutashi":10552,"Ġutatolewa":10553,"Ġbonanza":10554,"Ġkupika":10555,"Ġkupingana":10556,"Ġitapata":10557,"Ġtesha":10558,"Ġtendo":10559,"Ġshea":10560,"Ġsheha":10561,"Ġmarando":10562,"Ġmarais":10563,"Ġphile":10564,"Ġkuhudhuriwa":10565,"Ġupangaji":10566,"beza":10567,"Ġzinapaswa":10568,"bainishwa":10569,"Ġfabre":10570,"Ġfahamu":10571,"Ġsombe":10572,"Ġkutambulika":10573,"Ġumeona":10574,"Ġumekamilika":10575,"Ġaliyeingia":10576,"Ġhakuwepo":10577,"Ġmatamshi":10578,"Ġhawapo":10579,"Ġulipinga":10580,"Ġwanaohusika":10581,"Ġwanaopambana":10582,"Ġwanaogopa":10583,"Ġmakumba":10584,"taarifu":10585,"Ġmwanariadha":10586,"Ġsufia":10587,"Ġsunder":10588,"Ġrua":10589,"Ġikitaka":10590,"Ġikifungwa":10591,"Ġikiongoza":10592,"Ġmsabaha":10593,"Ġlilisema":10594,"Ġbush":10595,"Ġuliotokana":10596,"Ġyanazidi":10597,"Ġdos":10598,"Ġinayowa":10599,"Ġinayofanya":10600,"Ġtumeshindwa":10601,"Ġtumejipanga":10602,"Ġkinatarajia":10603,"Ġalhaji":10604,"Ġzilizopigwa":10605,"Ġusahihi":10606,"Ġusaili":10607,"Ġutekete":10608,"Ġalipoteza":10609,"Ġlinatakiwa":10610,"Ġlinapaswa":10611,"Ġhemed":10612,"Ġasse":10613,"Ġasgari":10614,"Ġredondo":10615,"Ġaliwashauri":10616,"Ġmalimbiki":10617,"Ġzinazozalishwa":10618,"punguzia":10619,"Ġmpakanjia":10620,"Ġmpito":10621,"Ġlongi":10622,"Ġaliowa":10623,"Ġmawalla":10624,"Ġcheche":10625,"Ġmtares":10626,"Ġukidai":10627,"Ġhayahusiani":10628,"Ġyanayopatikana":10629,"Ġkutumbukia":10630,"Ġngasa":10631,"Ġnambari":10632,"Ġsabinusi":10633,"Ġlimetoa":10634,"Ġlimezipata":10635,"Ġnilipata":10636,"Ġunaoweza":10637,"Ġunaotumika":10638,"Ġanayetaka":10639,"Ġkukusanyika":10640,"Ġkilichomo":10641,"rejee":10642,"Ġmatumla":10643,"Ġnondo":10644,"Ġnorth":10645,"Ġugaidi":10646,"Ġpalestina":10647,"Ġryan":10648,"Ġatleti":10649,"Ġnungwi":10650,"Ġnyosso":10651,"Ġkinachorushwa":10652,"Ġinjili":10653,"Ġalimshambulia":10654,"Ġuadui":10655,"Ġmitaala":10656,"Ġhazipo":10657,"Ġraslimali":10658,"Ġukomo":10659,"Ġapr":10660,"Ġthabiti":10661,"Ġkulaza":10662,"Ġwalipokwenda":10663,"Ġitakayopigwa":10664,"Ġkukosoa":10665,"heshimika":10666,"Ġmaira":10667,"Ġstepha":10668,"Ġzenyewe":10669,"Ġkuhimiza":10670,"Ġzikiwamo":10671,"furahia":10672,"Ġvyuma":10673,"Ġwalivyofanya":10674,"Ġmbulu":10675,"Ġwanapoona":10676,"Ġutakaoanza":10677,"Ġmashuti":10678,"Ġalichofanya":10679,"Ġukiachana":10680,"Ġzisizokuwa":10681,"Ġusiozidi":10682,"Ġameagiza":10683,"Ġmshituko":10684,"Ġaweke":10685,"Ġipate":10686,"Ġrumanyika":10687,"Ġwanavyofanya":10688,"Ġmziray":10689,"Ġabeneth":10690,"saidiwa":10691,"nyangganya":10692,"Ġwashington":10693,"Ġbenson":10694,"Ġmanase":10695,"Ġbenjamini":10696,"ght":10697,"Ġiliahirishwa":10698,"Ġkuwatuliza":10699,"Ġvipaumbele":10700,"Ġmsd":10701,"gemee":10702,"Ġacp":10703,"Ġteams":10704,"Ġmdomoni":10705,"Ġcanavaro":10706,"Ġubinafsishaji":10707,"Ġalizitaja":10708,"Ġkuwakatisha":10709,"Ġrwambow":10710,"Ġungamo":10711,"Ġudiwani":10712,"Ġhayuko":10713,"Ġpharma":10714,"Ġtunachotaka":10715,"Ġmakelemo":10716,"Ġkulaumiwa":10717,"Ġvijibweni":10718,"Ġsylve":10719,"Ġiliichapa":10720,"Ġtamisemi":10721,"Ġndhlovu":10722,"Ġportsmo":10723,"Ġgreen":10724,"Ġmameneja":10725,"Ġhilary":10726,"Ġkanoni":10727,"Ġkiholela":10728,"Ġtanzanite":10729,"Ġmaharage":10730,"Ġaingie":10731,"Ġkukumbuka":10732,"Ġkubishana":10733,"Ġkalunguyeye":10734,"Ġkuulizwa":10735,"ngganggania":10736,"Ġholdi":10737,"Ġfernando":10738,"Ġmnyaa":10739,"Ġiundwe":10740,"Ġlazaro":10741,"Ġtwiga":10742,"Ġsongas":10743,"Ġgwabi":10744,"Ġuaminifu":10745,"Ġolympique":10746,"Ġkusikojulikana":10747,"Ġrpc":10748,"Ġkundecha":10749,"Ġstakabadhi":10750,"Ġkijuso":10751,"Ġkiitwacho":10752,"Ġsinema":10753,"Ġmerreikh":10754,"Ġraphael":10755,"Ġphilemon":10756,"Ġfabregas":10757,"Ġsufiani":10758,"Ġsunderland":10759,"Ġuteketezaji":10760,"Ġmalimbikizo":10761,"Ġatletico":10762,"Ġstephano":10763,"Ġportsmouth":10764,"anze":10765,"athiri":10766,"gbo":10767,"imani":10768,"lko":10769,"mford":10770,"nhu":10771,"op":10772,"rm":10773,"umu":10774,"Ġfanya":10775,"Ġngwa":10776,"wano":10777,"wanyiko":10778,"Ġwaba":10779,"Ġwabaya":10780,"Ġwasubiri":10781,"Ġwazoefu":10782,"Ġwafuate":10783,"Ġkuzu":10784,"Ġkuongozwa":10785,"Ġkupendekeza":10786,"Ġkugusa":10787,"Ġkudhalilisha":10788,"Ġkudorora":10789,"hatarisha":10790,"yal":10791,"Ġnanga":10792,"Ġnassi":10793,"nidad":10794,"Ġapi":10795,"Ġamini":10796,"Ġarudi":10797,"Ġapumzike":10798,"Ġyadai":10799,"Ġyaweze":10800,"bagbo":10801,"Ġscho":10802,"Ġmango":10803,"Ġmaina":10804,"tii":10805,"zan":10806,"zana":10807,"zitumia":10808,"Ġufi":10809,"Ġuelekeo":10810,"Ġkaa":10811,"Ġkatu":10812,"Ġkabo":10813,"Ġkansa":10814,"yonga":10815,"Ġire":10816,"Ġhashe":10817,"hura":10818,"sila":10819,"wende":10820,"wekewa":10821,"tunza":10822,"tuliwa":10823,"tumaini":10824,"tupia":10825,"rami":10826,"rambi":10827,"Ġkidu":10828,"Ġkissa":10829,"Ġkiburi":10830,"Ġkieleweke":10831,"Ġalishinda":10832,"Ġalienda":10833,"Ġalipigwa":10834,"Ġalipelekwa":10835,"Ġalitembelea":10836,"Ġalikemea":10837,"meck":10838,"Ġvua":10839,"dinga":10840,"muua":10841,"muomba":10842,"Ġkuwashwa":10843,"Ġkuwachunguza":10844,"Ġkuwafungia":10845,"Ġkuwapigia":10846,"Ġkuwaunganisha":10847,"kerwa":10848,"Ġzaina":10849,"Ġninge":10850,"tete":10851,"teseka":10852,"Ġlai":10853,"Ġlaure":10854,"Ġlameck":10855,"Ġbakh":10856,"Ġmiu":10857,"Ġmida":10858,"Ġminja":10859,"Ġmifereji":10860,"ndamwa":10861,"Ġvicha":10862,"Ġvibaka":10863,"Ġwanapewa":10864,"Ġwanaongoza":10865,"Ġwanasoma":10866,"Ġwanapambana":10867,"Ġwanaangalia":10868,"molewa":10869,"longo":10870,"mbwi":10871,"Ġkutozwa":10872,"Ġkutoridhishwa":10873,"ndikiza":10874,"nyeza":10875,"fii":10876,"Ġwalijua":10877,"Ġwalipiga":10878,"Ġwalikuwepo":10879,"Ġwalivamia":10880,"Ġwalijeruhiwa":10881,"Ġmoga":10882,"Ġemira":10883,"ren":10884,"Ġtuji":10885,"Ġtunge":10886,"Ġzitaanza":10887,"jero":10888,"Ġanalo":10889,"Ġinapokuwa":10890,"Ġinafahamu":10891,"zer":10892,"chukia":10893,"Ġwakatoliki":10894,"liane":10895,"Ġpaki":10896,"Ġpango":10897,"Ġpajero":10898,"Ġakio":10899,"Ġakishindwa":10900,"Ġakijua":10901,"Ġakifunga":10902,"Ġakifanyiwa":10903,"Ġakipinga":10904,"ndogo":10905,"Ġrambi":10906,"gezwa":10907,"Ġpick":10908,"Ġtwanga":10909,"Ġameonesha":10910,"Ġamefanikiwa":10911,"Ġkuagwa":10912,"Ġkuibwa":10913,"Ġkuifuta":10914,"Ġkuipeleka":10915,"Ġkuongelea":10916,"Ġshingoni":10917,"Ġfle":10918,"Ġimeona":10919,"Ġimesaidia":10920,"Ġimefanywa":10921,"Ġimetoka":10922,"Ġimerejea":10923,"Ġimefikiwa":10924,"Ġoce":10925,"Ġoman":10926,"Ġour":10927,"Ġocto":10928,"Ġout":10929,"Ġodinga":10930,"Ġwamekosa":10931,"Ġwameonekana":10932,"Ġwameingia":10933,"Ġwametoka":10934,"Ġwamekata":10935,"Ġwamemtaka":10936,"Ġwatapewa":10937,"Ġwatakwenda":10938,"Ġwataingia":10939,"Ġwakiji":10940,"Ġkujikusanyia":10941,"nukuu":10942,"Ġwalioji":10943,"Ġwaliobaki":10944,"Ġwalioshuhudia":10945,"Ġwaliosajiliwa":10946,"Ġkuumana":10947,"Ġkuungua":10948,"Ġkuukumbatia":10949,"Ġkumchukulia":10950,"Ġkumzomea":10951,"Ġkumteua":10952,"Ġester":10953,"Ġiliyomalizika":10954,"Ġiliyosainiwa":10955,"Ġhodi":10956,"Ġunaonekana":10957,"Ġunapokuwa":10958,"Ġunakaribia":10959,"Ġhatukuwa":10960,"Ġutafu":10961,"Ġutambulisho":10962,"Ġwaombole":10963,"nyani":10964,"Ġbosco":10965,"Ġbolton":10966,"Ġkupindu":10967,"Ġitaweza":10968,"Ġitatumia":10969,"Ġitatolewa":10970,"Ġitabainika":10971,"Ġitabidi":10972,"Ġitasikilizwa":10973,"Ġnyika":10974,"Ġshemeji":10975,"Ġkulipu":10976,"Ġkulimaliza":10977,"Ġkulipua":10978,"Ġkuhujumu":10979,"bel":10980,"Ġzilitumika":10981,"Ġfabia":10982,"Ġkutai":10983,"Ġjembe":10984,"Ġjeraha":10985,"Ġumewa":10986,"Ġumeshindwa":10987,"Ġumehifadhiwa":10988,"Ġpenye":10989,"onekani":10990,"Ġhakutakiwa":10991,"Ġhakupatikana":10992,"Ġtunapo":10993,"Ġtunapata":10994,"Ġtunakutana":10995,"Ġulizinduliwa":10996,"Ġuchapishaji":10997,"Ġwanaoshindwa":10998,"Ġwanaostahili":10999,"Ġgbagbo":11000,"Ġbilali":11001,"Ġrudi":11002,"Ġkupakia":11003,"Ġikizingatiwa":11004,"Ġuliomba":11005,"Ġdoa":11006,"Ġinayoweza":11007,"Ġinayofanyika":11008,"Ġinayotumika":11009,"Ġinayonolewa":11010,"Ġkutengenezea":11011,"Ġtumeshuhudia":11012,"Ġkinatoa":11013,"Ġhaiko":11014,"Ġataweza":11015,"Ġlinakuwa":11016,"Ġhekari":11017,"Ġhelko":11018,"ves":11019,"Ġrehani":11020,"Ġstamford":11021,"Ġaliwashukuru":11022,"Ġmalisho":11023,"Ġzinazosababisha":11024,"Ġzinazotumika":11025,"Ġzinazoikabili":11026,"Ġlucy":11027,"ibuliwa":11028,"Ġzimekuja":11029,"Ġyombo":11030,"Ġkiusalama":11031,"Ġrover":11032,"Ġroyal":11033,"Ġmtawanyiko":11034,"Ġmaelewano":11035,"Ġyanayotokea":11036,"Ġkujaa":11037,"nners":11038,"Ġnilitaka":11039,"Ġnilikwenda":11040,"Ġkuchapwa":11041,"Ġkuchanganya":11042,"Ġmaganda":11043,"Ġanayekwenda":11044,"Ġninataka":11045,"Ġninaona":11046,"Ġkuhami":11047,"Ġnyendo":11048,"Ġnyeupe":11049,"Ġmtera":11050,"Ġnimeona":11051,"Ġkitalu":11052,"Ġrb":11053,"Ġkueleweka":11054,"Ġtutapata":11055,"Ġisivyo":11056,"Ġkibasila":11057,"Ġtabianchi":11058,"Ġaliipongeza":11059,"Ġngombe":11060,"Ġngonyani":11061,"Ġhatarishi":11062,"Ġkumuweka":11063,"Ġndogondogo":11064,"Ġwalipoteza":11065,"kumbukwa":11066,"Ġkilolo":11067,"Ġkuingiwa":11068,"Ġmfanyabishara":11069,"Ġkisukari":11070,"Ġmagendo":11071,"Ġmwenzangu":11072,"Ġasiwe":11073,"Ġhawakutaka":11074,"nnah":11075,"mweleza":11076,"Ġwalizopewa":11077,"Ġkunipa":11078,"Ġwanayopata":11079,"Ġhawatakuwa":11080,"Ġinakuwaje":11081,"Ġendelea":11082,"Ġnjoro":11083,"Ġcentre":11084,"Ġmariam":11085,"Ġabel":11086,"Ġmzaha":11087,"Ġalikokwenda":11088,"Ġalikosea":11089,"Ġdiamond":11090,"Ġtrinidad":11091,"Ġhiace":11092,"Ġulimwenguni":11093,"Ġkisiki":11094,"Ġkufurahisha":11095,"Ġmatch":11096,"Ġunyanyapaa":11097,"Ġkichaa":11098,"patikani":11099,"Ġtunawaomba":11100,"Ġbatilda":11101,"Ġmathare":11102,"Ġilimradi":11103,"Ġkihansi":11104,"Ġmakwao":11105,"Ġmisungwi":11106,"Ġkibonde":11107,"Ġnkongo":11108,"Ġutakapokamilika":11109,"Ġkutibua":11110,"Ġvenance":11111,"jengeka":11112,"Ġwahudumu":11113,"teketea":11114,"Ġvalentino":11115,"Ġjeremiah":11116,"Ġvisivyo":11117,"Ġkuitikia":11118,"Ġkugawana":11119,"Ġmwambusi":11120,"Ġproject":11121,"Ġneider":11122,"Ġmrope":11123,"Ġnassib":11124,"Ġkaboyonga":11125,"Ġhasheem":11126,"Ġkiduchu":11127,"Ġlaurent":11128,"Ġemirates":11129,"Ġrambirambi":11130,"Ġoctoba":11131,"Ġwaombolezaji":11132,"Ġkupindukia":11133,"bra":11134,"cka":11135,"crati":11136,"etu":11137,"engua":11138,"ghani":11139,"klia":11140,"lly":11141,"mriwa":11142,"nse":11143,"och":11144,"rdo":11145,"rgi":11146,"sye":11147,"sburg":11148,"umiza":11149,"Ġgia":11150,"wanya":11151,"Ġkli":11152,"namo":11153,"Ġmda":11154,"Ġmnda":11155,"Ġmtaka":11156,"Ġmkweli":11157,"Ġmnyama":11158,"Ġmlipa":11159,"like":11160,"lingu":11161,"Ġwahakikishe":11162,"Ġkuzungu":11163,"Ġkufadhili":11164,"Ġkudhihirisha":11165,"Ġkuvua":11166,"hamia":11167,"yatoa":11168,"Ġnahisi":11169,"Ġnational":11170,"Ġnamanga":11171,"Ġnadharia":11172,"Ġay":11173,"Ġate":11174,"Ġadaiwa":11175,"Ġander":11176,"Ġyange":11177,"Ġyassi":11178,"tafakari":11179,"bakari":11180,"mania":11181,"tih":11182,"tishe":11183,"tius":11184,"rie":11185,"laka":11186,"Ġumbo":11187,"Ġuzushi":11188,"Ġkayo":11189,"Ġkandoka":11190,"Ġkatende":11191,"Ġkatherine":11192,"Ġhasi":11193,"jibisha":11194,"humbi":11195,"tupwa":11196,"Ġhilda":11197,"ratus":11198,"Ġking":11199,"Ġkipu":11200,"Ġkiria":11201,"Ġkimuziki":11202,"Ġkifanyike":11203,"Ġalipanda":11204,"Ġalistahili":11205,"Ġalijitahidi":11206,"Ġalipigiwa":11207,"lenia":11208,"daka":11209,"mezi":11210,"mily":11211,"diriki":11212,"Ġkuwashambulia":11213,"Ġkuwazidi":11214,"Ġkuwadhibiti":11215,"Ġkuwaendeleza":11216,"Ġkuwaruhusu":11217,"Ġkuwauza":11218,"Ġkuwarudishia":11219,"Ġtana":11220,"Ġtanu":11221,"Ġnisi":11222,"Ġniwe":11223,"Ġnikia":11224,"Ġningekuwa":11225,"tezwa":11226,"Ġsingu":11227,"poa":11228,"Ġhutoa":11229,"Ġladha":11230,"semary":11231,"Ġbak":11232,"Ġmizito":11233,"Ġmilele":11234,"Ġmilenia":11235,"Ġsaru":11236,"Ġsalam":11237,"kombe":11238,"ngaa":11239,"ngatiwa":11240,"Ġvipu":11241,"Ġvioski":11242,"Ġwanakosa":11243,"Ġwanashinda":11244,"Ġwanapenda":11245,"Ġwanazidi":11246,"Ġwanamaji":11247,"Ġwanatambua":11248,"Ġwanaelewa":11249,"Ġilizo":11250,"Ġiliona":11251,"Ġilikubaliana":11252,"Ġilipokea":11253,"Ġilipingwa":11254,"mocrati":11255,"ngumi":11256,"Ġkutocheza":11257,"Ġkutoridhika":11258,"fiji":11259,"Ġwaliji":11260,"Ġwalirudi":11261,"Ġwalikula":11262,"Ġwalitarajia":11263,"Ġwalifikia":11264,"Ġwaliwahi":11265,"Ġwalipinga":11266,"Ġwaliwataka":11267,"Ġwalisikika":11268,"Ġmoon":11269,"Ġsert":11270,"remka":11271,"Ġtuwa":11272,"Ġtuliwa":11273,"Ġtutaanza":11274,"Ġmwange":11275,"Ġmwadilifu":11276,"Ġmwaminifu":11277,"gongwa":11278,"Ġkamara":11279,"Ġlingekuwa":11280,"Ġlilianza":11281,"Ġdadi":11282,"rod":11283,"Ġbimani":11284,"Ġjumbe":11285,"Ġjulio":11286,"takata":11287,"Ġmkufunzi":11288,"Ġinakutana":11289,"Ġinasubiri":11290,"nzilishi":11291,"Ġpaka":11292,"Ġpazuri":11293,"Ġmulla":11294,"Ġakiri":11295,"Ġakilalamika":11296,"dhimu":11297,"susi":11298,"gemewa":11299,"puuza":11300,"Ġjidawi":11301,"endelezwa":11302,"Ġcct":11303,"Ġtrc":11304,"Ġameu":11305,"Ġamerika":11306,"Ġamefika":11307,"Ġamekwenda":11308,"Ġameingia":11309,"Ġamepanga":11310,"Ġamepokea":11311,"Ġamejikuta":11312,"Ġametamba":11313,"Ġkuashiria":11314,"Ġkuathiriwa":11315,"Ġkosta":11316,"vuti":11317,"Ġkuipata":11318,"Ġkuishinda":11319,"Ġkuiondoa":11320,"Ġshija":11321,"Ġimeba":11322,"Ġimekubali":11323,"Ġimeongeza":11324,"Ġimehifadhiwa":11325,"Ġobi":11326,"Ġolu":11327,"Ġwameshinda":11328,"Ġwametangaza":11329,"Ġwamepanda":11330,"Ġwameondoka":11331,"Ġwameridhika":11332,"Ġpoda":11333,"Ġwatai":11334,"Ġwatataka":11335,"Ġwataondoka":11336,"Ġmkoni":11337,"ishe":11338,"Ġwakiunga":11339,"Ġwakifika":11340,"Ġwakilalamika":11341,"Ġtaabu":11342,"Ġkutokamilika":11343,"Ġkujikimu":11344,"Ġkujificha":11345,"Ġkujisalimisha":11346,"Ġkee":11347,"Ġwaliofariki":11348,"Ġwaliosaini":11349,"Ġkuutumia":11350,"Ġkuunguruma":11351,"Ġkumwi":11352,"Ġkumpenda":11353,"Ġkumsaka":11354,"Ġkumpigia":11355,"Ġiliyoa":11356,"Ġiliyoandaliwa":11357,"Ġiliyojengeka":11358,"Ġunahitaji":11359,"Ġunamalizika":11360,"Ġunafuu":11361,"bobea":11362,"Ġhatutakuwa":11363,"Ġmwin":11364,"Ġwaokoaji":11365,"wona":11366,"Ġitatokea":11367,"Ġitahakikisha":11368,"Ġitamar":11369,"Ġsikuona":11370,"Ġafc":11371,"Ġafghani":11372,"Ġkweka":11373,"Ġnafahamu":11374,"Ġps":11375,"Ġupana":11376,"Ġnyuklia":11377,"Ġkufuru":11378,"Ġkufutia":11379,"Ġbarasa":11380,"Ġzinafanyika":11381,"Ġdemocrati":11382,"Ġaust":11383,"Ġzilifanyika":11384,"Ġmashati":11385,"Ġfatih":11386,"Ġsoda":11387,"Ġsoud":11388,"Ġkutabiri":11389,"Ġkutathimini":11390,"Ġjeetu":11391,"Ġumezidi":11392,"Ġaliyesema":11393,"Ġaliyedai":11394,"Ġaliyetumia":11395,"Ġaliyefika":11396,"Ġaliyefunga":11397,"Ġaliyetambulika":11398,"Ġtop":11399,"Ġtour":11400,"Ġtovuti":11401,"onewa":11402,"Ġhakupenda":11403,"Ġmwembamba":11404,"Ġmwemezi":11405,"Ġtunacheza":11406,"Ġtunatoa":11407,"Ġtunaambiwa":11408,"ngiaji":11409,"Ġhawafanyi":11410,"Ġulisababisha":11411,"Ġulifanikiwa":11412,"Ġulisainiwa":11413,"Ġyalipo":11414,"Ġmpare":11415,"Ġmpambano":11416,"Ġwanaom":11417,"Ġwanaopata":11418,"Ġwanaofika":11419,"Ġwanaopenda":11420,"Ġwanaokabiliwa":11421,"Ġmakutano":11422,"Ġmwanamichezo":11423,"Ġgidi":11424,"Ġsun":11425,"Ġrufiji":11426,"Ġkupakua":11427,"Ġkupasua":11428,"Ġikipoteza":11429,"Ġbur":11430,"Ġbutu":11431,"Ġbutwaa":11432,"Ġburma":11433,"Ġuliotokea":11434,"Ġuliokuwepo":11435,"Ġuliokithiri":11436,"walipa":11437,"Ġnguoni":11438,"Ġdungu":11439,"milikisha":11440,"Ġkusikika":11441,"van":11442,"Ġkutengwa":11443,"Ġtumekuja":11444,"dalali":11445,"Ġzilizoharibika":11446,"Ġusanii":11447,"Ġjoe":11448,"Ġhaipaswi":11449,"Ġatatumia":11450,"Ġatalazimika":11451,"Ġatarejea":11452,"Ġatafikishwa":11453,"Ġalipokutana":11454,"Ġmfuasi":11455,"Ġnyangumi":11456,"Ġresi":11457,"Ġfuti":11458,"Ġaliwasili":11459,"Ġaliwasilisha":11460,"tabaki":11461,"Ġmalindi":11462,"Ġludo":11463,"Ġlukombe":11464,"Ġkuzingatiwa":11465,"Ġakaongeza":11466,"Ġzimefungwa":11467,"Ġzimepanda":11468,"Ġyork":11469,"rst":11470,"Ġkuporomoka":11471,"Ġwizarani":11472,"Ġrosemary":11473,"Ġcoro":11474,"Ġcosta":11475,"Ġnguvuni":11476,"Ġndossa":11477,"Ġmtafiti":11478,"Ġukienda":11479,"Ġmajalada":11480,"Ġvituko":11481,"shirikiane":11482,"Ġmitazamo":11483,"Ġlimeendelea":11484,"Ġlimetangaza":11485,"ston":11486,"story":11487,"Ġunaotarajia":11488,"Ġwalau":11489,"Ġanayecheza":11490,"Ġanayekabiliwa":11491,"Ġanayeshughulikia":11492,"Ġanayesikiliza":11493,"Ġkilichodaiwa":11494,"Ġkilichobaki":11495,"rejeshwa":11496,"Ġwapime":11497,"Ġlililoko":11498,"Ġlililowasilishwa":11499,"Ġchooni":11500,"Ġilivyotokea":11501,"Ġninajua":11502,"Ġyamepangwa":11503,"Ġnyepesi":11504,"Ġnimefanya":11505,"Ġnimepata":11506,"Ġkitambaa":11507,"Ġdio":11508,"Ġdimbani":11509,"Ġwakoloni":11510,"Ġath":11511,"Ġtutaweza":11512,"Ġisitoshe":11513,"Ġilemela":11514,"Ġkutilia":11515,"Ġwatakaa":11516,"Ġgoti":11517,"Ġwakilipwa":11518,"Ġaliitwa":11519,"Ġngoja":11520,"Ġulevi":11521,"Ġukoo":11522,"Ġukoloni":11523,"dhulu":11524,"Ġwilly":11525,"Ġmitamboni":11526,"Ġmnamo":11527,"Ġmnadhimu":11528,"Ġuvujaji":11529,"kumbuke":11530,"chunguzwa":11531,"Ġkuishinikiza":11532,"Ġhuwafanya":11533,"gawanyika":11534,"Ġmvyulu":11535,"Ġkandarasi":11536,"Ġkassia":11537,"Ġbarca":11538,"less":11539,"Ġfrede":11540,"Ġfredy":11541,"Ġkumwajibisha":11542,"Ġhawajalipwa":11543,"Ġaliagiza":11544,"Ġgeofrey":11545,"Ġhaijafahamika":11546,"Ġimeahirishwa":11547,"Ġyusufu":11548,"Ġyasiyofaa":11549,"Ġmahindra":11550,"Ġkurejeshewa":11551,"Ġaziza":11552,"Ġkusambaa":11553,"Ġmagerezani":11554,"tendewa":11555,"Ġguru":11556,"Ġzitakazochukuliwa":11557,"Ġjeneza":11558,"Ġjenereta":11559,"Ġabdulrahaman":11560,"Ġpush":11561,"Ġpuruku":11562,"Ġkijiweni":11563,"Ġkabuzi":11564,"Ġusiojulikana":11565,"Ġkubakia":11566,"Ġuozo":11567,"Ġuokoaji":11568,"Ġwajasiliamali":11569,"Ġtakadini":11570,"Ġakimkaribisha":11571,"Ġwashindani":11572,"Ġmashehe":11573,"Ġtamati":11574,"Ġrwehumbi":11575,"Ġalikokuwa":11576,"Ġsijaona":11577,"Ġuzamili":11578,"Ġsamweli":11579,"Ġtuanze":11580,"Ġkuchuana":11581,"Ġikiomba":11582,"Ġbankobe":11583,"Ġkizinga":11584,"Ġsamson":11585,"Ġitawasaidia":11586,"Ġismailia":11587,"Ġkuchilingu":11588,"Ġkuwatawanya":11589,"Ġmasese":11590,"Ġmasebu":11591,"Ġkuteketea":11592,"Ġevarist":11593,"Ġsmz":11594,"Ġmathayo":11595,"Ġzuhura":11596,"Ġkigali":11597,"Ġmauritius":11598,"Ġentertain":11599,"Ġmaficho":11600,"Ġmjemas":11601,"Ġnkoma":11602,"Ġstore":11603,"Ġameieleza":11604,"Ġkutawaliwa":11605,"Ġsumatra":11606,"Ġitaikaribisha":11607,"ltan":11608,"Ġwarsha":11609,"Ġkubenea":11610,"Ġhabib":11611,"Ġkombora":11612,"Ġkupandishwa":11613,"Ġkwingineko":11614,"Ġkimaandishi":11615,"Ġkucheleweshwa":11616,"Ġkujilimbikizia":11617,"Ġuislamu":11618,"Ġtutakapo":11619,"Ġtulionao":11620,"Ġliberatus":11621,"Ġhawaridhiki":11622,"Ġludete":11623,"Ġmrundikano":11624,"Ġhashim":11625,"miniana":11626,"Ġmlundwa":11627,"someka":11628,"Ġstanley":11629,"Ġkuboreshwa":11630,"Ġvidonge":11631,"Ġlubambe":11632,"Ġabdalah":11633,"diriaji":11634,"Ġlongido":11635,"Ġkaturamu":11636,"Ġnjoroge":11637,"Ġmndasha":11638,"Ġmtakatifu":11639,"Ġanderson":11640,"Ġkayombo":11641,"Ġkandokando":11642,"Ġsinguluma":11643,"Ġsaruji":11644,"Ġvipuri":11645,"Ġoluoch":11646,"Ġafghanistan":11647,"Ġdemocratic":11648,"Ġpurukushani":11649,"Ġrwehumbiza":11650,"Ġbankobeza":11651,"Ġkuchilingulo":11652,"Ġentertainment":11653,"ache":11654,"bele":11655,"dh":11656,"ela":11657,"esta":11658,"ire":11659,"ibwa":11660,"imarishwa":11661,"lbert":11662,"mzito":11663,"nchama":11664,"ombe":11665,"rres":11666,"sla":11667,"sper":11668,"tna":11669,"tka":11670,"ub":11671,"Ġdili":11672,"Ġngeni":11673,"waona":11674,"Ġmh":11675,"Ġmme":11676,"Ġmswada":11677,"Ġmfereji":11678,"limba":11679,"lisia":11680,"Ġwas":11681,"Ġwani":11682,"Ġwaongo":11683,"Ġwaseme":11684,"Ġkuripotiwa":11685,"Ġkughari":11686,"Ġkuchunguzwa":11687,"hamisha":11688,"kaidi":11689,"Ġnako":11690,"Ġnation":11691,"Ġnadra":11692,"Ġnasikitika":11693,"Ġnajiuliza":11694,"nicha":11695,"ninga":11696,"Ġaone":11697,"Ġataa":11698,"Ġachukuliwe":11699,"Ġagusti":11700,"Ġaonekane":11701,"Ġyadi":11702,"Ġyapi":11703,"Ġyakini":11704,"Ġswi":11705,"riri":11706,"rizi":11707,"ries":11708,"kiki":11709,"Ġusema":11710,"Ġuendele":11711,"Ġuhitaji":11712,"Ġkalo":11713,"Ġkaunda":11714,"Ġkanzu":11715,"Ġkatakata":11716,"Ġidri":11717,"Ġitende":11718,"kuma":11719,"side":11720,"jamii":11721,"Ġkibu":11722,"Ġkigu":11723,"Ġkinyo":11724,"Ġkisanii":11725,"Ġkizuizi":11726,"Ġalifikia":11727,"Ġalikata":11728,"Ġalihisi":11729,"Ġalifungua":11730,"Ġalijaribu":11731,"Ġalitolea":11732,"bibu":11733,"binafsi":11734,"sawa":11735,"sadia":11736,"sawazi":11737,"shahada":11738,"funge":11739,"ming":11740,"mizwa":11741,"dishu":11742,"Ġkuwagawa":11743,"Ġkuwatafuta":11744,"Ġkuwatetea":11745,"Ġkuwasihi":11746,"Ġkuwafungulia":11747,"Ġtaswa":11748,"Ġnile":11749,"telai":11750,"heza":11751,"Ġsiamini":11752,"Ġhupata":11753,"Ġhuchukua":11754,"Ġhufanywa":11755,"Ġnba":11756,"Ġncha":11757,"Ġbawa":11758,"Ġbango":11759,"Ġmilio":11760,"Ġmille":11761,"Ġsan":11762,"kola":11763,"pio":11764,"pimwa":11765,"Ġvip":11766,"Ġvitaka":11767,"Ġchato":11768,"Ġchanika":11769,"chishwa":11770,"Ġwanana":11771,"Ġwanapeleka":11772,"Ġwanataaluma":11773,"Ġiliweza":11774,"Ġiliongoza":11775,"Ġilipigwa":11776,"Ġilitwaa":11777,"Ġiliwafanya":11778,"Ġilibadilika":11779,"Ġilianzishwa":11780,"Ġilisawazisha":11781,"now":11782,"Ġkutojua":11783,"Ġkutopewa":11784,"Ġkutogombea":11785,"Ġkutokubaliana":11786,"Ġkutozingatia":11787,"ndizi":11788,"ndishwa":11789,"fanywe":11790,"nyeme":11791,"fichwa":11792,"chel":11793,"Ġwalienda":11794,"Ġwalifanyiwa":11795,"Ġwalishuhudia":11796,"Ġwalibainika":11797,"rupu":11798,"rest":11799,"gai":11800,"Ġtujue":11801,"Ġtupate":11802,"Ġtushinde":11803,"Ġjack":11804,"Ġzitumike":11805,"Ġliweze":11806,"Ġddc":11807,"vyoweza":11808,"peshwa":11809,"Ġanasubiri":11810,"Ġanamiliki":11811,"Ġanakubalika":11812,"Ġinatia":11813,"Ġinapiga":11814,"Ġinakuja":11815,"Ġinapenda":11816,"Ġinampa":11817,"Ġwakafanya":11818,"guvu":11819,"Ġmuh":11820,"Ġmuwe":11821,"Ġmuhidi":11822,"Ġmuheza":11823,"Ġakilia":11824,"Ġakiona":11825,"Ġakishirikiana":11826,"Ġakiongozwa":11827,"Ġakisimulia":11828,"Ġwin":11829,"ndoko":11830,"Ġwere":11831,"Ġmegh":11832,"suka":11833,"ger":11834,"purupu":11835,"Ġpingu":11836,"Ġcra":11837,"Ġcda":11838,"Ġtran":11839,"Ġtwende":11840,"Ġmbasa":11841,"Ġametaka":11842,"Ġamesisitiza":11843,"Ġamefunga":11844,"Ġamepania":11845,"Ġkonya":11846,"vute":11847,"Ġkuikabili":11848,"Ġkuiwakilisha":11849,"Ġkuidhinishwa":11850,"Ġimepatikana":11851,"Ġimekwisha":11852,"Ġimetengewa":11853,"Ġwamerudi":11854,"Ġwamekiri":11855,"Ġwamepokea":11856,"Ġwamejikuta":11857,"Ġwamejeruhiwa":11858,"Ġwamehifadhiwa":11859,"Ġwamechoka":11860,"Ġpoa":11861,"dou":11862,"Ġhatamu":11863,"Ġwatakutana":11864,"Ġwatachukuliwa":11865,"Ġmkosaji":11866,"mbuliana":11867,"zungumze":11868,"Ġwakiomba":11869,"Ġwakiingia":11870,"Ġwakiweka":11871,"Ġwakihaha":11872,"Ġkejeli":11873,"Ġwaliotaka":11874,"Ġwaliofukuzwa":11875,"Ġkuuona":11876,"Ġkuumwa":11877,"Ġkumfuata":11878,"Ġkumchafua":11879,"Ġmajiji":11880,"Ġfenicha":11881,"Ġiliyofanywa":11882,"Ġiliyopatikana":11883,"Ġhoi":11884,"Ġhatuku":11885,"Ġhatuelewi":11886,"Ġutamalizika":11887,"Ġmwiba":11888,"Ġmwizi":11889,"Ġwaogele":11890,"Ġkupitiwa":11891,"Ġmkato":11892,"Ġsikuweza":11893,"Ġkulinganisha":11894,"Ġkulijadili":11895,"Ġbenze":11896,"Ġkilipo":11897,"Ġshungu":11898,"Ġkufukua":11899,"Ġzinaeleza":11900,"Ġzinatolewa":11901,"bariki":11902,"Ġzilipatikana":11903,"Ġfamily":11904,"Ġjeni":11905,"Ġumefanya":11906,"Ġumetolewa":11907,"Ġumelenga":11908,"Ġkunasa":11909,"Ġaliyekufa":11910,"amuliwa":11911,"Ġtorres":11912,"Ġpeop":11913,"Ġmtupu":11914,"Ġhakusema":11915,"Ġhakubaliani":11916,"Ġmweka":11917,"ulika":11918,"Ġulifanywa":11919,"degar":11920,"Ġwanaomba":11921,"Ġwanaosema":11922,"Ġwanaopiga":11923,"Ġmwanawe":11924,"Ġguar":11925,"Ġsunday":11926,"Ġsultan":11927,"Ġrungwe":11928,"Ġmaskani":11929,"Ġikisema":11930,"Ġikipinga":11931,"Ġlilifanya":11932,"Ġlilikuja":11933,"Ġbunju":11934,"Ġleodegar":11935,"Ġyanatokea":11936,"Ġyanaonekana":11937,"Ġshangwe":11938,"Ġshambani":11939,"yarishaji":11940,"Ġkufichua":11941,"kariri":11942,"Ġdozi":11943,"Ġinayotarajia":11944,"Ġinayolenga":11945,"Ġinayotumiwa":11946,"Ġinayoashiria":11947,"Ġkuteremka":11948,"Ġtumegundua":11949,"Ġzilizotokana":11950,"Ġkipilimba":11951,"Ġhamna":11952,"Ġjona":11953,"Ġhaihitaji":11954,"Ġhailingani":11955,"Ġatataka":11956,"Ġalipokwenda":11957,"Ġalipofikishwa":11958,"Ġlinadaiwa":11959,"kilishwa":11960,"Ġkimarekani":11961,"ziana":11962,"Ġchurch":11963,"Ġstashahada":11964,"Ġwakufunzi":11965,"Ġzinazoonesha":11966,"Ġwasifanye":11967,"Ġlubele":11968,"Ġkuzinduka":11969,"cie":11970,"mwamuru":11971,"caps":11972,"Ġkuporwa":11973,"Ġkiwandani":11974,"Ġfiore":11975,"Ġfitna":11976,"Ġmtasiwa":11977,"Ġukisoma":11978,"Ġyanayofanyika":11979,"Ġmabovu":11980,"Ġvituka":11981,"Ġkutungwa":11982,"Ġkutupilia":11983,"Ġkutumbuiza":11984,"Ġyussu":11985,"Ġngao":11986,"Ġmaongezi":11987,"Ġkuchangisha":11988,"Ġunaoonesha":11989,"Ġanayem":11990,"Ġanayetakiwa":11991,"Ġkukupa":11992,"Ġmatuta":11993,"Ġuhalisia":11994,"Ġndugai":11995,"tajadiliwa":11996,"Ġugavi":11997,"Ġufukwe":11998,"Ġmtetezi":11999,"Ġnimezungumza":12000,"Ġmarco":12001,"Ġmazoea":12002,"Ġabraha":12003,"Ġsawasawa":12004,"Ġrba":12005,"Ġkuelekezwa":12006,"Ġvuguvu":12007,"Ġkuoneshwa":12008,"Ġnyororo":12009,"Ġkinachoweza":12010,"Ġalimfuata":12011,"Ġmgawe":12012,"Ġmgambo":12013,"Ġmakombe":12014,"rance":12015,"Ġtulifanya":12016,"Ġtulicheza":12017,"Ġkimepata":12018,"Ġkimeshindwa":12019,"dhaniwa":12020,"Ġaliitoa":12021,"kataliwa":12022,"Ġkumuenzi":12023,"Ġkubomolewa":12024,"Ġhauku":12025,"Ġkufungana":12026,"Ġwalipokea":12027,"Ġamewaonya":12028,"Ġkhatibu":12029,"Ġitakayoshiriki":12030,"Ġmachoni":12031,"Ġuvumba":12032,"Ġuvumilivu":12033,"Ġafricans":12034,"Ġkukoso":12035,"Ġlinaloongozwa":12036,"Ġmanungu":12037,"Ġmachinji":12038,"Ġwachanga":12039,"Ġlitajwe":12040,"Ġwatakaokuwa":12041,"Ġstesheni":12042,"Ġmlandizi":12043,"Ġmasawe":12044,"Ġsamahani":12045,"Ġmhadhiri":12046,"Ġutumike":12047,"Ġkuhitimisha":12048,"sabula":12049,"Ġkijacho":12050,"Ġmjamzito":12051,"Ġvinavyoshiriki":12052,"Ġinavyotakiwa":12053,"Ġkuchota":12054,"Ġvyuoni":12055,"Ġuzio":12056,"Ġnikawa":12057,"ahidiwa":12058,"Ġtakriban":12059,"Ġhaitakubali":12060,"Ġkususia":12061,"Ġwanayoipata":12062,"Ġwahindi":12063,"Ġalichokuwa":12064,"Ġalichodai":12065,"Ġalichokifanya":12066,"Ġmwaisabula":12067,"Ġzimamoto":12068,"Ġcirkovic":12069,"Ġkipenka":12070,"Ġkukesha":12071,"Ġmshirika":12072,"Ġkumwombea":12073,"nyanyasa":12074,"semekana":12075,"Ġmassanja":12076,"Ġshamhuna":12077,"Ġakimtuhumu":12078,"Ġraul":12079,"Ġkhalij":12080,"Ġkalenda":12081,"Ġdiana":12082,"Ġmwenzie":12083,"Ġsungura":12084,"Ġraisi":12085,"Ġalan":12086,"Ġkabambe":12087,"Ġvibanda":12088,"Ġkaripio":12089,"Ġminazi":12090,"Ġkuwaokoa":12091,"Ġkujiongezea":12092,"Ġpepeta":12093,"Ġyoung":12094,"Ġmuuguzi":12095,"Ġishindwe":12096,"Ġmarupurupu":12097,"Ġtibaigana":12098,"Ġwhitecaps":12099,"Ġnsanze":12100,"Ġraymond":12101,"Ġxa":12102,"Ġmchujo":12103,"Ġaliyemtaja":12104,"Ġkumuoa":12105,"Ġbadae":12106,"Ġsadiki":12107,"Ġliliwasilishwa":12108,"Ġmanyanyaso":12109,"Ġlitakalofanyika":12110,"Ġagnes":12111,"Ġmandela":12112,"Ġunamfahamu":12113,"Ġifunda":12114,"Ġkusalimia":12115,"Ġmuongozo":12116,"Ġkilichomsibu":12117,"Ġmimosas":12118,"Ġwanafamilia":12119,"Ġkujitambulisha":12120,"Ġkashililah":12121,"Ġmgulani":12122,"Ġgaude":12123,"Ġtaarab":12124,"Ġrecords":12125,"Ġzamalek":12126,"Ġevent":12127,"Ġmogadishu":12128,"Ġyassin":12129,"Ġkugharimia":12130,"Ġyakinifu":12131,"Ġusemao":12132,"Ġuendelezaji":12133,"Ġkinyongo":12134,"sawazishia":12135,"telaiti":12136,"Ġvitakavyo":12137,"Ġmeghji":12138,"Ġtrans":12139,"Ġkonyagi":12140,"Ġwaogeleaji":12141,"Ġbenzema":12142,"Ġpeople":12143,"Ġlubeleje":12144,"Ġfiorentina":12145,"Ġyussuf":12146,"Ġabraham":12147,"Ġvuguvugu":12148,"Ġmachinjio":12149,"ach":12150,"ew":12151,"gri":12152,"lm":12153,"mza":12154,"msumbua":12155,"mkariri":12156,"ncha":12157,"odi":12158,"otball":12159,"tche":12160,"vji":12161,"yp":12162,"waomba":12163,"wart":12164,"Ġkk":12165,"Ġkdf":12166,"Ġmze":12167,"Ġmvi":12168,"Ġmzoefu":12169,"ling":12170,"Ġwabaki":12171,"Ġwabovu":12172,"Ġwachukue":12173,"Ġwadudu":12174,"Ġkumb":12175,"Ġkumbi":12176,"Ġkuketi":12177,"Ġkusemwa":12178,"Ġkuchukulia":12179,"Ġkubweteka":12180,"halo":12181,"hangaika":12182,"katisha":12183,"kagua":12184,"Ġnatoa":12185,"Ġnashukuru":12186,"Ġnasso":12187,"nishwa":12188,"Ġande":12189,"Ġanti":12190,"Ġafikishwe":12191,"Ġyangeweza":12192,"tatua":12193,"Ġsp":12194,"masha":12195,"Ġmab":12196,"Ġmasumbu":12197,"ting":12198,"tican":12199,"kiwe":12200,"kinga":12201,"kiel":12202,"zimia":12203,"Ġunge":12204,"Ġuvi":12205,"Ġureje":12206,"Ġkago":12207,"Ġkaguo":12208,"yoba":12209,"yomba":12210,"Ġisu":12211,"Ġict":12212,"Ġicc":12213,"Ġichukue":12214,"Ġicu":12215,"kuza":12216,"kuzi":12217,"Ġhakwenda":12218,"Ġharry":12219,"Ġhafai":12220,"jiweza":12221,"jisikia":12222,"weed":12223,"tuu":12224,"Ġhiv":12225,"Ġhill":12226,"Ġhijja":12227,"ral":12228,"raco":12229,"Ġkinda":12230,"Ġkiche":12231,"Ġkipenzi":12232,"Ġkiara":12233,"Ġkizembe":12234,"Ġkishiwa":12235,"Ġalivunja":12236,"Ġalichaguliwa":12237,"Ġaliteuliwa":12238,"Ġaligae":12239,"Ġalisimulia":12240,"faki":12241,"len":12242,"chal":12243,"changanyikiwa":12244,"pale":12245,"shapata":12246,"miri":12247,"mikwa":12248,"didi":12249,"diploma":12250,"mudu":12251,"sere":12252,"semea":12253,"Ġkuwachangia":12254,"Ġkuwajenga":12255,"Ġkuwatembelea":12256,"Ġkuwaingiza":12257,"Ġkuwanggoa":12258,"Ġkuwaamuru":12259,"Ġkuwavutia":12260,"Ġkuwasafirisha":12261,"Ġkuwapunguzia":12262,"Ġkuwakinga":12263,"Ġtao":12264,"shimba":12265,"Ġzaka":12266,"Ġniweze":12267,"Ġnimea":12268,"tema":12269,"ters":12270,"Ġsiko":12271,"Ġsimenti":12272,"Ġsielewi":12273,"poka":12274,"potosha":12275,"Ġhuanza":12276,"Ġhutaki":12277,"Ġnte":12278,"Ġnju":12279,"Ġlaana":12280,"Ġlazio":12281,"Ġbana":12282,"Ġbashi":12283,"Ġbadra":12284,"Ġmizuri":12285,"Ġmithi":12286,"Ġsatelaiti":12287,"kolewa":12288,"komoa":12289,"piku":12290,"pisho":12291,"pitwa":12292,"Ġbm":12293,"Ġbweni":12294,"ndavi":12295,"Ġviza":12296,"Ġvingu":12297,"hofii":12298,"Ġwanakutana":12299,"Ġwanahisi":12300,"Ġwanajipanga":12301,"Ġwanaruhusiwa":12302,"Ġwanasumbuliwa":12303,"Ġwananchama":12304,"Ġilicha":12305,"Ġilitumia":12306,"Ġilifanyika":12307,"Ġilifafanua":12308,"Ġilionyesha":12309,"nocent":12310,"moko":12311,"ngondo":12312,"mbley":12313,"nguti":12314,"Ġkutoza":12315,"Ġkutotoa":12316,"Ġkutoshiriki":12317,"Ġbwanausi":12318,"ndiko":12319,"julisha":12320,"filisi":12321,"Ġwalishinda":12322,"Ġwalifungwa":12323,"Ġwalirejea":12324,"Ġwalilalamika":12325,"Ġwaliuawa":12326,"Ġwalisawazisha":12327,"Ġwalitibiwa":12328,"ngefu":12329,"ngenye":12330,"Ġmoris":12331,"Ġmollo":12332,"Ġeno":12333,"Ġsea":12334,"Ġsengondo":12335,"rer":12336,"resi":12337,"gata":12338,"gast":12339,"Ġmwamwa":12340,"Ġmwathirika":12341,"gosi":12342,"Ġjambia":12343,"Ġjarida":12344,"Ġzika":12345,"Ġzitokana":12346,"Ġlie":12347,"Ġlika":12348,"Ġlisa":12349,"Ġtit":12350,"zuoni":12351,"Ġbil":12352,"Ġjumba":12353,"Ġjustine":12354,"pez":12355,"dhatiti":12356,"Ġanazungumza":12357,"Ġanaanza":12358,"Ġanapewa":12359,"Ġanaongoza":12360,"Ġanahisi":12361,"Ġanasikia":12362,"Ġanatafuta":12363,"Ġinaleta":12364,"Ġinajitahidi":12365,"Ġinamilikiwa":12366,"Ġinajivunia":12367,"Ġwakama":12368,"Ġpar":12369,"gumizi":12370,"Ġmul":12371,"Ġmuhas":12372,"Ġakishinda":12373,"Ġakirejea":12374,"Ġakikanusha":12375,"dhimishwa":12376,"dhilifu":12377,"Ġwekundu":12378,"Ġwembley":12379,"Ġrah":12380,"geu":12381,"geza":12382,"gedia":12383,"Ġpipa":12384,"Ġcc":12385,"Ġclo":12386,"Ġcpl":12387,"Ġamekana":12388,"Ġamebaki":12389,"Ġamelazimika":12390,"Ġamekataa":12391,"Ġameridhika":12392,"Ġkuamuliwa":12393,"Ġkuachishwa":12394,"Ġkuiongoza":12395,"Ġkuitetea":12396,"Ġkuitembelea":12397,"Ġkuifundisha":12398,"Ġkuombea":12399,"Ġkuombwa":12400,"Ġshivji":12401,"Ġflu":12402,"Ġimecheza":12403,"Ġimesisitiza":12404,"Ġimefunga":12405,"Ġimethibitisha":12406,"Ġimemaliza":12407,"Ġimebeba":12408,"Ġimezindua":12409,"Ġimefuzu":12410,"Ġona":12411,"Ġolimpiki":12412,"Ġozoni":12413,"Ġmaandiko":12414,"Ġwameshika":12415,"Ġwamejipanga":12416,"Ġwamevamia":12417,"Ġwameahidi":12418,"Ġwameitaka":12419,"Ġwameniambia":12420,"Ġwamesikitishwa":12421,"Ġsabas":12422,"patazo":12423,"Ġwatatakiwa":12424,"Ġwatakuja":12425,"mbukizwa":12426,"Ġwakisisitiza":12427,"Ġwakihofia":12428,"Ġwakiimba":12429,"Ġkujivua":12430,"Ġkujirekebisha":12431,"Ġkujifurahisha":12432,"Ġkujichimbia":12433,"Ġwalioshindwa":12434,"Ġwalioanza":12435,"Ġwaliokimbia":12436,"Ġwaliofaulu":12437,"Ġwalionusurika":12438,"Ġkumtaja":12439,"Ġkumpokea":12440,"Ġkumlinda":12441,"Ġkumtuhumu":12442,"Ġkumshawishi":12443,"Ġkumnasa":12444,"Ġkumtukana":12445,"Ġmajitaka":12446,"Ġfestus":12447,"Ġiliyocho":12448,"Ġiliyopewa":12449,"Ġiliyokutana":12450,"Ġiliyochunguza":12451,"Ġhossa":12452,"bogast":12453,"tiama":12454,"Ġutahusisha":12455,"Ġutasikia":12456,"Ġutapunguza":12457,"via":12458,"vindavi":12459,"Ġmwiko":12460,"Ġwaongeze":12461,"Ġgambia":12462,"Ġgabon":12463,"Ġboko":12464,"Ġitachezwa":12465,"Ġnyigu":12466,"Ġmkasi":12467,"Ġtec":12468,"Ġtengefu":12469,"Ġkulitaka":12470,"Ġkulindwa":12471,"Ġkulieleza":12472,"Ġkulimwa":12473,"Ġmarashi":12474,"Ġpra":12475,"Ġpct":12476,"beni":12477,"Ġmabanda":12478,"Ġzinatumika":12479,"Ġzinatoka":12480,"Ġzinatofautiana":12481,"Ġder":12482,"Ġwolf":12483,"Ġsok":12484,"Ġsofia":12485,"Ġkutatanisha":12486,"Ġumesha":12487,"Ġumethibitisha":12488,"Ġaliyeshindwa":12489,"Ġpep":12490,"Ġhakutoa":12491,"Ġhakutaja":12492,"Ġtunaingia":12493,"Ġmatamasha":12494,"Ġhawapaswi":12495,"Ġulikwama":12496,"Ġyalijitokeza":12497,"Ġyalibainishwa":12498,"Ġmakamishna":12499,"Ġmpana":12500,"Ġwanaojua":12501,"Ġwanaosadikiwa":12502,"Ġjw":12503,"Ġsuu":12504,"Ġikidai":12505,"Ġikifika":12506,"Ġikitumiwa":12507,"Ġlilitoa":12508,"Ġlilieleza":12509,"Ġlilifika":12510,"Ġbutiama":12511,"Ġyanatoa":12512,"Ġyanahitaji":12513,"Ġwaandamana":12514,"Ġwaachiwe":12515,"Ġshaidi":12516,"Ġshaibu":12517,"Ġshangazi":12518,"rakano":12519,"Ġduwasa":12520,"Ġinayotakiwa":12521,"Ġinayotarajiwa":12522,"Ġinayoendeshwa":12523,"Ġinayowafanya":12524,"valia":12525,"mlaumu":12526,"Ġkutelekeza":12527,"Ġtumekaa":12528,"Ġtumeambiwa":12529,"Ġatachukua":12530,"Ġataweka":12531,"Ġalipofanya":12532,"Ġalipofariki":12533,"Ġmfugaji":12534,"Ġmfumuko":12535,"Ġlinapo":12536,"sheheni":12537,"Ġkimaya":12538,"Ġkimazingira":12539,"Ġrefa":12540,"Ġkuran":12541,"Ġmchambuzi":12542,"Ġwakubali":12543,"Ġaron":12544,"Ġmalick":12545,"Ġusiwe":12546,"Ġzinazodaiwa":12547,"Ġzinazohusika":12548,"Ġwasitumie":12549,"Ġyaliyosababisha":12550,"Ġyaliyosababishwa":12551,"Ġyaliyolipuka":12552,"Ġlusa":12553,"Ġkuzipata":12554,"shindano":12555,"cision":12556,"Ġakashindwa":12557,"Ġzimeshindwa":12558,"Ġzimetumika":12559,"Ġzimefikia":12560,"Ġzimesalia":12561,"mwagwa":12562,"mwachie":12563,"Ġyono":12564,"Ġyonna":12565,"Ġlopez":12566,"cate":12567,"Ġgemu":12568,"Ġkuponya":12569,"Ġroad":12570,"cky":12571,"Ġmtama":12572,"Ġmtangazaji":12573,"Ġukingoni":12574,"Ġarbogast":12575,"Ġyanayoikabili":12576,"Ġkutuhumiwa":12577,"Ġngano":12578,"Ġngalo":12579,"Ġlimesababisha":12580,"Ġlimejipanga":12581,"laziz":12582,"Ġmaole":12583,"Ġmaonyesho":12584,"Ġkuchapishwa":12585,"Ġunion":12586,"Ġwateule":12587,"mishaji":12588,"ngezewa":12589,"Ġanayependa":12590,"Ġkilichoelezwa":12591,"Ġkilichomfanya":12592,"Ġukaazi":12593,"Ġlililoanza":12594,"Ġuhamishaji":12595,"Ġndulu":12596,"Ġilivyofanya":12597,"Ġilivyopangwa":12598,"Ġilivyozoeleka":12599,"Ġninaweza":12600,"Ġbasilio":12601,"Ġnou":12602,"Ġyamekwisha":12603,"Ġvinapaswa":12604,"Ġcag":12605,"Ġufupi":12606,"Ġmtei":12607,"Ġmboga":12608,"Ġnimekuja":12609,"Ġmarsh":12610,"Ġkitanzi":12611,"Ġkitaendelea":12612,"Ġpalepale":12613,"Ġumahiri":12614,"Ġatraco":12615,"Ġnemanja":12616,"Ġnuru":12617,"Ġkilevi":12618,"Ġinve":12619,"Ġinland":12620,"Ġinnocent":12621,"Ġalimpiga":12622,"Ġkutibiwa":12623,"Ġmakofi":12624,"Ġkibaraka":12625,"Ġuagizaji":12626,"Ġaliyoi":12627,"Ġaliyofanya":12628,"Ġaliyoyapata":12629,"vocate":12630,"Ġkushirikishwa":12631,"kezana":12632,"Ġkumalizana":12633,"rtium":12634,"Ġfootball":12635,"Ġjosepha":12636,"Ġmnaweza":12637,"Ġmsekela":12638,"Ġubakaji":12639,"Ġubadhilifu":12640,"Ġlinaloendelea":12641,"Ġlinaloweza":12642,"Ġazania":12643,"Ġmtaala":12644,"nyamaza":12645,"Ġwasiojiweza":12646,"gawanywa":12647,"Ġkufaulu":12648,"Ġkuwaangalia":12649,"Ġupekuzi":12650,"Ġjammeh":12651,"Ġkumesababisha":12652,"Ġmlawa":12653,"Ġmasaa":12654,"Ġmasanja":12655,"Ġsamatta":12656,"Ġikashindwa":12657,"Ġlukuki":12658,"Ġhawakufanya":12659,"Ġhawakutakiwa":12660,"Ġlikitokea":12661,"diola":12662,"hatika":12663,"Ġhaijatoa":12664,"Ġvatican":12665,"Ġimeandaa":12666,"kebishwa":12667,"Ġvinavyoweza":12668,"Ġmrithi":12669,"Ġabdulaziz":12670,"wadiwa":12671,"Ġhamid":12672,"Ġalivyofanya":12673,"theo":12674,"Ġwanapopata":12675,"Ġtukiendelea":12676,"Ġzitakazopatikana":12677,"Ġmashuhuri":12678,"rouk":12679,"hamishia":12680,"Ġalichoeleza":12681,"Ġmadirisha":12682,"Ġalizonazo":12683,"Ġwanachotakiwa":12684,"Ġwalimpiga":12685,"nufai":12686,"Ġkumwokoa":12687,"Ġstre":12688,"Ġlyatuu":12689,"Ġitifaki":12690,"Ġmzimu":12691,"Ġmarian":12692,"Ġkifuani":12693,"Ġmihayo":12694,"Ġuuzwaji":12695,"Ġulazaji":12696,"Ġdialo":12697,"Ġkuchukizwa":12698,"Ġhawatakiwi":12699,"Ġndalah":12700,"Ġndavindavi":12701,"Ġviatu":12702,"Ġwaliwaua":12703,"Ġhaujawahi":12704,"Ġbrigedia":12705,"Ġkupendelea":12706,"Ġmadhumuni":12707,"sambaza":12708,"Ġkwisha":12709,"Ġmakelle":12710,"Ġkuwatahadharisha":12711,"Ġkuwatangazia":12712,"Ġadvocate":12713,"Ġmasengi":12714,"Ġmgongolwa":12715,"Ġwaitara":12716,"Ġanfield":12717,"Ġalizitaka":12718,"Ġanaogopa":12719,"Ġwhich":12720,"Ġsarah":12721,"Ġwameapa":12722,"Ġwilbrod":12723,"Ġkuzoro":12724,"Ġkushikwa":12725,"Ġanawafahamu":12726,"Ġprecision":12727,"Ġkurushiana":12728,"Ġmtoano":12729,"Ġimejidhatiti":12730,"Ġtimotheo":12731,"Ġcarling":12732,"Ġchifupa":12733,"Ġmarubeni":12734,"azimia":12735,"Ġalishawahi":12736,"Ġsentimita":12737,"Ġchaligha":12738,"Ġalilofanya":12739,"Ġkuchezewa":12740,"Ġwaryoba":12741,"Ġkuchangamkia":12742,"Ġkuwaumiza":12743,"Ġkuokolewa":12744,"Ġvalentine":12745,"Ġmakka":12746,"Ġsadik":12747,"Ġkuchelewesha":12748,"Ġmandeu":12749,"Ġgerrard":12750,"jjah":12751,"Ġkuwacharaza":12752,"Ġmicheweni":12753,"Ġsaimon":12754,"Ġmusiba":12755,"Ġlamadi":12756,"Ġleague":12757,"Ġantony":12758,"Ġtutaangalia":12759,"Ġkukaririwa":12760,"Ġsemkucha":12761,"Ġconsortium":12762,"Ġwashukiwa":12763,"Ġnilishangaa":12764,"Ġjongowe":12765,"Ġkustawisha":12766,"Ġhakijafahamika":12767,"Ġlinawashikilia":12768,"Ġmwakyoma":12769,"Ġgorogosi":12770,"Ġwanyancha":12771,"Ġhazitoshi":12772,"Ġkigendi":12773,"Ġbwawa":12774,"Ġezekiel":12775,"Ġjanjaweed":12776,"Ġshearer":12777,"Ġgwabisaba":12778,"Ġnangale":12779,"Ġvuai":12780,"Ġbakhresa":12781,"Ġutafutaji":12782,"Ġfabian":12783,"Ġkutaifisha":12784,"Ġkeenja":12785,"Ġpsrc":12786,"dhulumiwa":12787,"Ġfrederick":12788,"Ġmafichoni":12789,"Ġkigugumizi":12790,"Ġwananachi":12791,"Ġguardiola":12792,"Ġgaudence":12793,"Ġnassor":12794,"Ġandengenye":12795,"Ġmasumbuko":12796,"Ġkagonji":12797,"Ġisunto":12798,"Ġkiarabu":12799,"Ġaligaesha":12800,"diplomasia":12801,"Ġnjuga":12802,"Ġmithili":12803,"Ġvingunguti":12804,"Ġmolloimet":12805,"Ġmwamwaja":12806,"Ġzitokanazo":12807,"Ġhossam":12808,"Ġwolfsburg":12809,"Ġwaandamanaji":12810,"Ġjosephat":12811,"Ġndalahwa":12812,"atu":12813,"bli":12814,"cce":12815,"cus":12816,"dyu":12817,"eeh":12818,"ffari":12819,"ijua":12820,"iongoza":12821,"lbe":12822,"mmy":12823,"nje":12824,"nzwa":12825,"ntongo":12826,"ogope":12827,"sm":12828,"sna":12829,"ynamo":12830,"Ġtokea":12831,"Ġzui":12832,"Ġfikiria":12833,"wan":12834,"nada":12835,"Ġmhu":12836,"Ġmjenga":12837,"Ġmhariri":12838,"Ġmdee":12839,"Ġmshtuko":12840,"liti":12841,"lida":12842,"licha":12843,"Ġwawa":12844,"Ġwakweli":12845,"Ġwangwe":12846,"Ġwamis":12847,"Ġwabadilike":12848,"Ġkus":12849,"Ġkuwi":12850,"Ġkuro":12851,"Ġkumbana":12852,"Ġkuhisi":12853,"Ġkungga":12854,"Ġkusumbuliwa":12855,"Ġkuzuiwa":12856,"Ġkurithi":12857,"Ġkuwezeshwa":12858,"Ġkuendelezwa":12859,"Ġkudhulumiwa":12860,"kaza":12861,"kabi":12862,"kauti":12863,"Ġnaa":12864,"Ġnaka":12865,"Ġname":12866,"Ġnaanza":12867,"Ġnawasi":12868,"Ġnasikia":12869,"nifu":12870,"Ġahu":12871,"Ġaua":12872,"Ġafunge":12873,"Ġyaha":12874,"Ġyajayo":12875,"tambui":12876,"tasari":12877,"tile":12878,"kizu":12879,"zimwa":12880,"Ġugu":12881,"Ġugi":12882,"Ġukwe":12883,"Ġkami":12884,"Ġkalenga":12885,"ndy":12886,"yosisi":12887,"Ġione":12888,"Ġifuata":12889,"Ġicheze":12890,"kuli":12891,"kufu":12892,"kurani":12893,"kusanywa":12894,"Ġhaj":12895,"jiza":12896,"jikita":12897,"hula":12898,"hunga":12899,"sirika":12900,"sien":12901,"wezo":12902,"tuka":12903,"tusaidia":12904,"Ġhilla":12905,"Ġhisani":12906,"ram":12907,"ralia":12908,"Ġkichocheo":12909,"Ġkidiplomasia":12910,"Ġalikuta":12911,"Ġalichangia":12912,"Ġalijitokeza":12913,"Ġalilalamikia":12914,"Ġalizindua":12915,"Ġalihukumiwa":12916,"Ġalitamka":12917,"Ġalikimbizwa":12918,"toza":12919,"tory":12920,"lete":12921,"day":12922,"bie":12923,"shavin":12924,"shangiliwa":12925,"sesha":12926,"Ġkuwachukua":12927,"Ġkuwaonesha":12928,"Ġkuwafanyia":12929,"Ġkuwachagua":12930,"Ġkuwaonya":12931,"Ġkuwarudisha":12932,"Ġkuwawakilisha":12933,"Ġkuwachanganya":12934,"Ġkuwahamisha":12935,"shifu":12936,"Ġnilianza":12937,"Ġnilisikia":12938,"teze":12939,"tembea":12940,"tegemee":12941,"hembe":12942,"Ġsir":12943,"Ġsilva":12944,"Ġhulka":12945,"Ġhusna":12946,"Ġlala":12947,"Ġbad":12948,"Ġbahi":12949,"Ġbakora":12950,"Ġmiwa":12951,"Ġmili":12952,"Ġmirefu":12953,"kotoka":12954,"ngingi":12955,"ngai":12956,"Ġvifu":12957,"Ġvingo":12958,"hofu":12959,"Ġchambu":12960,"Ġwanaanza":12961,"Ġwanabaki":12962,"Ġwanachangia":12963,"Ġwanauza":12964,"Ġilishiriki":12965,"Ġiliomba":12966,"Ġilitajwa":12967,"Ġiliendeshwa":12968,"Ġiliondoka":12969,"Ġilifikiwa":12970,"wila":12971,"wiji":12972,"Ġkutopata":12973,"Ġkutotumia":12974,"nzana":12975,"chembe":12976,"Ġwaliamini":12977,"Ġwalikubali":12978,"Ġwalipanga":12979,"Ġwalizidi":12980,"Ġwalithibitisha":12981,"Ġwaliiambia":12982,"Ġwalihudhuria":12983,"Ġeche":12984,"Ġeeeh":12985,"Ġtunda":12986,"Ġtukia":12987,"Ġtuendelee":12988,"gombana":12989,"Ġjaphe":12990,"Ġlipi":12991,"Ġlilo":12992,"Ġdynamo":12993,"Ġdanada":12994,"Ġdayosisi":12995,"Ġtino":12996,"roba":12997,"Ġbize":12998,"Ġjudo":12999,"Ġjuliana":13000,"Ġjuisi":13001,"Ġanafaa":13002,"Ġanapinga":13003,"Ġanamwachia":13004,"Ġinatu":13005,"Ġinashinda":13006,"Ġinaingia":13007,"Ġinalazimika":13008,"Ġinafuatilia":13009,"Ġinaelekea":13010,"Ġinatosha":13011,"Ġinadhihirisha":13012,"Ġinafuatia":13013,"Ġwakatumia":13014,"Ġpanda":13015,"guni":13016,"Ġmuulize":13017,"Ġakii":13018,"Ġakipewa":13019,"Ġmeatu":13020,"Ġrada":13021,"Ġrasirimali":13022,"Ġrachel":13023,"pur":13024,"Ġtt":13025,"Ġtradi":13026,"Ġameo":13027,"Ġamekuja":13028,"Ġametoka":13029,"Ġameongeza":13030,"Ġameshangazwa":13031,"Ġameongozana":13032,"shtua":13033,"Ġkuapa":13034,"Ġkuambulia":13035,"Ġkuamka":13036,"Ġkuangusha":13037,"vuka":13038,"Ġkuipe":13039,"Ġkuihusisha":13040,"Ġkuigawa":13041,"Ġkuitambua":13042,"Ġkuiuza":13043,"Ġkuilaza":13044,"Ġkuongezea":13045,"yumbi":13046,"Ġfri":13047,"Ġimepo":13048,"Ġimeweza":13049,"Ġimekwenda":13050,"Ġimekamilika":13051,"Ġimewasilisha":13052,"Ġimeripotiwa":13053,"Ġimeimarisha":13054,"Ġimetupilia":13055,"Ġoa":13056,"Ġomba":13057,"riana":13058,"mber":13059,"mbeba":13060,"mbezi":13061,"Ġwametaka":13062,"Ġwamewasili":13063,"Ġwamegundua":13064,"Ġwamekwisha":13065,"Ġwamegombana":13066,"Ġhataweza":13067,"Ġwataona":13068,"Ġwatafikishwa":13069,"Ġmbilinyi":13070,"Ġwakiona":13071,"Ġwakipewa":13072,"Ġwakiondoka":13073,"Ġwakitafuta":13074,"Ġwakijadili":13075,"Ġwakikimbia":13076,"Ġwakishangilia":13077,"Ġkujitangaza":13078,"Ġkujichukulia":13079,"Ġkujiondoa":13080,"Ġkujisahau":13081,"Ġkujipima":13082,"Ġhalipo":13083,"Ġwaliokwenda":13084,"Ġwaliomaliza":13085,"Ġwalioitwa":13086,"Ġwaliosimamishwa":13087,"Ġwaliobobea":13088,"Ġkuunganishwa":13089,"gie":13090,"gika":13091,"Ġkumshinikiza":13092,"Ġkumshukuru":13093,"Ġkumwita":13094,"Ġkumdhuru":13095,"Ġkumkimbiza":13096,"Ġessien":13097,"Ġiliyocheza":13098,"Ġiliyoachwa":13099,"Ġhong":13100,"Ġhots":13101,"Ġunawa":13102,"Ġunadaiwa":13103,"Ġunakuja":13104,"Ġunazidi":13105,"vier":13106,"Ġwazidi":13107,"Ġgali":13108,"Ġgadda":13109,"Ġbomani":13110,"Ġbohari":13111,"Ġitakuja":13112,"Ġitaibuka":13113,"Ġitafikisha":13114,"Ġitakwaana":13115,"Ġmkaa":13116,"Ġtheone":13117,"Ġbegi":13118,"kwaa":13119,"Ġkuhukumiwa":13120,"Ġkiliendelea":13121,"Ġkilimfanya":13122,"Ġshukurani":13123,"Ġnyuzi":13124,"Ġkufutiwa":13125,"Ġkufunika":13126,"Ġzinakuwa":13127,"Ġzinahitaji":13128,"Ġzinakwenda":13129,"Ġzinazidi":13130,"Ġdeus":13131,"Ġwosia":13132,"Ġfatma":13133,"Ġsocie":13134,"Ġjerson":13135,"Ġumepata":13136,"Ġumepangwa":13137,"Ġumegharimu":13138,"Ġaliyepewa":13139,"Ġaliyeonekana":13140,"Ġaliyesababisha":13141,"Ġaliyejitokeza":13142,"Ġaliyejiunga":13143,"Ġtoulo":13144,"Ġpepo":13145,"Ġpendo":13146,"Ġhakujua":13147,"Ġmwela":13148,"Ġtunazo":13149,"Ġtunapenda":13150,"Ġtunapoteza":13151,"Ġmataa":13152,"Ġkusabisha":13153,"Ġhawaa":13154,"Ġulitakiwa":13155,"Ġuliibuka":13156,"Ġulizuka":13157,"Ġkukawa":13158,"Ġkukatika":13159,"Ġyalivyo":13160,"Ġyalitakiwa":13161,"Ġyalitolewa":13162,"Ġyalidaiwa":13163,"Ġyalifanywa":13164,"Ġuchakavu":13165,"Ġwanaotoa":13166,"Ġwanaoongoza":13167,"Ġwanaofanyiwa":13168,"Ġgk":13169,"Ġrussia":13170,"Ġkupasuka":13171,"Ġikipata":13172,"Ġikidaiwa":13173,"Ġikitarajiwa":13174,"Ġlilitokana":13175,"Ġbustani":13176,"Ġulionekana":13177,"Ġwaamini":13178,"yarisha":13179,"Ġkufidia":13180,"Ġkufichwa":13181,"Ġinayotaka":13182,"Ġinayotumia":13183,"Ġinayohusika":13184,"Ġinayopatikana":13185,"val":13186,"Ġkutesa":13187,"Ġkutengewa":13188,"Ġtumepata":13189,"Ġtumepanga":13190,"Ġridhi":13191,"Ġhaile":13192,"Ġatashinda":13193,"Ġatafute":13194,"Ġalipopata":13195,"Ġalipojaribu":13196,"Ġlinawezekana":13197,"sheki":13198,"Ġkimasai":13199,"Ġremtu":13200,"Ġfulsa":13201,"Ġchui":13202,"stal":13203,"Ġmchaka":13204,"Ġwakunga":13205,"Ġzinazofanyika":13206,"Ġzinazoingizwa":13207,"peleke":13208,"Ġyaliyowasilishwa":13209,"Ġkuzitoa":13210,"Ġprodyu":13211,"Ġakaona":13212,"Ġakaomba":13213,"Ġakasisitiza":13214,"mwandama":13215,"Ġkiuta":13216,"Ġkiutawala":13217,"Ġget":13218,"Ġaliokoa":13219,"Ġmbennah":13220,"Ġfistu":13221,"Ġarshavin":13222,"Ġyanayodaiwa":13223,"Ġyanayotoka":13224,"Ġyanayomkabili":13225,"Ġmabosi":13226,"Ġkutumwa":13227,"Ġujangili":13228,"Ġlimetolewa":13229,"Ġkulenga":13230,"Ġunaotokana":13231,"Ġunaotumiwa":13232,"Ġanayejua":13233,"Ġkukusudia":13234,"Ġukaribu":13235,"Ġmatumbo":13236,"Ġuhandisi":13237,"Ġuhasibu":13238,"Ġndunguru":13239,"Ġnampongeza":13240,"Ġnot":13241,"Ġyametolewa":13242,"Ġvinatakiwa":13243,"Ġnimefurahi":13244,"Ġdickson":13245,"Ġwakorofi":13246,"Ġisije":13247,"Ġalimwomba":13248,"Ġmgaya":13249,"Ġkutikisa":13250,"Ġmafupi":13251,"Ġuandaaji":13252,"Ġtulizo":13253,"Ġtulipokuwa":13254,"Ġmajumba":13255,"Ġmajungu":13256,"Ġgodoro":13257,"Ġaliyofikia":13258,"Ġfounda":13259,"Ġfood":13260,"Ġvilipo":13261,
[...]
