{
  "version": "1.0",
  "truncation": null,
  "padding": null,
  "added_tokens": [
    {
      "id": 0,
      "content": "<s>",
      "single_word": false,
      "lstrip": false,
      "rstrip": false,
      "normalized": false,
      "special": true
    },
    {
      "id": 1,
      "content": "</s>",
      "single_word": false,
      "lstrip": false,
      "rstrip": false,
      "normalized": false,
      "special": true
    },
    {
      "id": 2,
      "content": "<unk>",
      "single_word": false,
      "lstrip": false,
      "rstrip": false,
      "normalized": false,
      "special": true
    },
    {
      "id": 3,
      "content": "<pad>",
      "single_word": false,
      "lstrip": false,
      "rstrip": false,
      "normalized": false,
      "special": true
    }
  ],
  "normalizer": {
    "type": "Lowercase"
  },
  "pre_tokenizer": {
    "type": "ByteLevel",
    "add_prefix_space": false,
    "trim_offsets": true,
    "use_regex": true
  },
  "post_processor": {
    "type": "ByteLevel",
    "add_prefix_space": true,
    "trim_offsets": false,
    "use_regex": true
  },
  "decoder": {
    "type": "ByteLevel",
    "add_prefix_space": true,
    "trim_offsets": true,
    "use_regex": true
  },
  "model": {
    "type": "BPE",
    "dropout": null,
    "unk_token": null,
    "continuing_subword_prefix": null,
    "end_of_word_suffix": null,
    "fuse_unk": false,
    "byte_fallback": false,
    "ignore_merges": false,
    "vocab": {
      "<s>": 0,
      "</s>": 1,
      "<unk>": 2,
      "<pad>": 3,
      "!": 4,
      "\"": 5,
      "#": 6,
      "$": 7,
      "%": 8,
      "&": 9,
      "'": 10,
      "(": 11,
      ")": 12,
      "*": 13,
      "+": 14,
      ",": 15,
      "-": 16,
      ".": 17,
      "/": 18,
      "0": 19,
      "1": 20,
      "2": 21,
      "3": 22,
      "4": 23,
      "5": 24,
      "6": 25,
      "7": 26,
      "8": 27,
      "9": 28,
      ":": 29,
      ";": 30,
      "<": 31,
      "=": 32,
      ">": 33,
      "?": 34,
      "@": 35,
      "A": 36,
      "B": 37,
      "C": 38,
      "D": 39,
      "E": 40,
      "F": 41,
      "G": 42,
      "H": 43,
      "I": 44,
      "J": 45,
      "K": 46,
      "L": 47,
      "M": 48,
      "N": 49,
      "O": 50,
      "P": 51,
      "Q": 52,
      "R": 53,
      "S": 54,
      "T": 55,
      "U": 56,
      "V": 57,
      "W": 58,
      "X": 59,
      "Y": 60,
      "Z": 61,
      "[": 62,
      "\\": 63,
      "]": 64,
      "^": 65,
      "_": 66,
      "`": 67,
      "a": 68,
      "b": 69,
      "c": 70,
      "d": 71,
      "e": 72,
      "f": 73,
      "g": 74,
      "h": 75,
      "i": 76,
      "j": 77,
      "k": 78,
      "l": 79,
      "m": 80,
      "n": 81,
      "o": 82,
      "p": 83,
      "q": 84,
      "r": 85,
      "s": 86,
      "t": 87,
      "u": 88,
      "v": 89,
      "w": 90,
      "x": 91,
      "y": 92,
      "z": 93,
      "{": 94,
      "|": 95,
      "}": 96,
      "~": 97,
      "¡": 98,
      "¢": 99,
      "£": 100,
      "¤": 101,
      "¥": 102,
      "¦": 103,
      "§": 104,
      "¨": 105,
      "©": 106,
      "ª": 107,
      "«": 108,
      "¬": 109,
      "®": 110,
      "¯": 111,
      "°": 112,
      "±": 113,
      "²": 114,
      "³": 115,
      "´": 116,
      "µ": 117,
      "¶": 118,
      "·": 119,
      "¸": 120,
      "¹": 121,
      "º": 122,
      "»": 123,
      "¼": 124,
      "½": 125,
      "¾": 126,
      "¿": 127,
      "À": 128,
      "Á": 129,
      "Â": 130,
      "Ã": 131,
      "Ä": 132,
      "Å": 133,
      "Æ": 134,
      "Ç": 135,
      "È": 136,
      "É": 137,
      "Ê": 138,
      "Ë": 139,
      "Ì": 140,
      "Í": 141,
      "Î": 142,
      "Ï": 143,
      "Ð": 144,
      "Ñ": 145,
      "Ò": 146,
      "Ó": 147,
      "Ô": 148,
      "Õ": 149,
      "Ö": 150,
      "×": 151,
      "Ø": 152,
      "Ù": 153,
      "Ú": 154,
      "Û": 155,
      "Ü": 156,
      "Ý": 157,
      "Þ": 158,
      "ß": 159,
      "à": 160,
      "á": 161,
      "â": 162,
      "ã": 163,
      "ä": 164,
      "å": 165,
      "æ": 166,
      "ç": 167,
      "è": 168,
      "é": 169,
      "ê": 170,
      "ë": 171,
      "ì": 172,
      "í": 173,
      "î": 174,
      "ï": 175,
      "ð": 176,
      "ñ": 177,
      "ò": 178,
      "ó": 179,
      "ô": 180,
      "õ": 181,
      "ö": 182,
      "÷": 183,
      "ø": 184,
      "ù": 185,
      "ú": 186,
      "û": 187,
      "ü": 188,
      "ý": 189,
      "þ": 190,
      "ÿ": 191,
      "Ā": 192,
      "ā": 193,
      "Ă": 194,
      "ă": 195,
      "Ą": 196,
      "ą": 197,
      "Ć": 198,
      "ć": 199,
      "Ĉ": 200,
      "ĉ": 201,
      "Ċ": 202,
      "ċ": 203,
      "Č": 204,
      "č": 205,
      "Ď": 206,
      "ď": 207,
      "Đ": 208,
      "đ": 209,
      "Ē": 210,
      "ē": 211,
      "Ĕ": 212,
      "ĕ": 213,
      "Ė": 214,
      "ė": 215,
      "Ę": 216,
      "ę": 217,
      "Ě": 218,
      "ě": 219,
      "Ĝ": 220,
      "ĝ": 221,
      "Ğ": 222,
      "ğ": 223,
      "Ġ": 224,
      "ġ": 225,
      "Ģ": 226,
      "ģ": 227,
      "Ĥ": 228,
      "ĥ": 229,
      "Ħ": 230,
      "ħ": 231,
      "Ĩ": 232,
      "ĩ": 233,
      "Ī": 234,
      "ī": 235,
      "Ĭ": 236,
      "ĭ": 237,
      "Į": 238,
      "į": 239,
      "İ": 240,
      "ı": 241,
      "Ĳ": 242,
      "ĳ": 243,
      "Ĵ": 244,
      "ĵ": 245,
      "Ķ": 246,
      "ķ": 247,
      "ĸ": 248,
      "Ĺ": 249,
      "ĺ": 250,
      "Ļ": 251,
      "ļ": 252,
      "Ľ": 253,
      "ľ": 254,
      "Ŀ": 255,
      "ŀ": 256,
      "Ł": 257,
      "ł": 258,
      "Ń": 259,
      "wa": 260,
      "Ġk": 261,
      "na": 262,
      "Ġm": 263,
      "li": 264,
      "Ġwa": 265,
      "Ġku": 266,
      "ha": 267,
      "ya": 268,
      "Ġu": 269,
      "ka": 270,
      "Ġna": 271,
      "ni": 272,
      "hi": 273,
      "Ġa": 274,
      "Ġya": 275,
      "ta": 276,
      "ba": 277,
      "ng": 278,
      "Ġs": 279,
      "ma": 280,
      "Ġma": 281,
      "ti": 282,
      "za": 283,
      "ri": 284,
      "nk": 285,
      "Ġunk": 286,
      "ki": 287,
      "la": 288,
      "ĠĊ": 289,
      "zi": 290,
      "Ġka": 291,
      "nd": 292,
      "yo": 293,
      "Ġi": 294,
      "Ġkwa": 295,
      "ku": 296,
      "Ġha": 297,
      "ji": 298,
      "hu": 299,
      "si": 300,
      "we": 301,
      "tu": 302,
      "Ġhi": 303,
      "ja": 304,
      "ra": 305,
      "Ġki": 306,
      "mba": 307,
      "Ġali": 308,
      "fa": 309,
      "to": 310,
      "le": 311,
      "da": 312,
      "bi": 313,
      "sa": 314,
      "cha": 315,
      "pa": 316,
      "sha": 317,
      "me": 318,
      "fu": 319,
      "mi": 320,
      "ye": 321,
      "Ġv": 322,
      "di": 323,
      "mu": 324,
      "se": 325,
      "Ġkuwa": 326,
      "Ġta": 327,
      "Ġkati": 328,
      "ke": 329,
      "bu": 330,
      "shi": 331,
      "Ġza": 332,
      "Ġni": 333,
      "te": 334,
      "he": 335,
      "Ġsi": 336,
      "po": 337,
      "Ġhu": 338,
      "zo": 339,
      "Ġla": 340,
      "Ġn": 341,
      "sema": 342,
      "Ġkatika": 343,
      "Ġba": 344,
      "ne": 345,
      "Ġmi": 346,
      "Ġsa": 347,
      "ko": 348,
      "pi": 349,
      "Ġb": 350,
      "ngi": 351,
      "nda": 352,
      "nga": 353,
      "Ġvi": 354,
      "ho": 355,
      "Ġamba": 356,
      "Ġcha": 357,
      "Ġalisema": 358,
      "chi": 359,
      "Ġwana": 360,
      "kuwa": 361,
      "wana": 362,
      "Ġili": 363,
      "Ġhiyo": 364,
      "no": 365,
      "mo": 366,
      "ngo": 367,
      "ele": 368,
      "lo": 369,
      "wi": 370,
      "mb": 371,
      "ngu": 372,
      "Ġkuto": 373,
      "Ġbwana": 374,
      "nza": 375,
      "ndi": 376,
      "fan": 377,
      "ju": 378,
      "nye": 379,
      "fi": 380,
      "che": 381,
      "Ġwali": 382,
      "ru": 383,
      "nge": 384,
      "Ġmo": 385,
      "Ġe": 386,
      "Ġse": 387,
      "re": 388,
      "ga": 389,
      "Ġtu": 390,
      "Ġmwa": 391,
      "Ġbaa": 392,
      "rika": 393,
      "go": 394,
      "Ġkama": 395,
      "kiwa": 396,
      "Ġja": 397,
      "wenye": 398,
      "Ġzi": 399,
      "Ġli": 400,
      "Ġd": 401,
      "Ġda": 402,
      "Ġti": 403,
      "ro": 404,
      "vyo": 405,
      "zu": 406,
      "kana": 407,
      "je": 408,
      "fanya": 409,
      "Ġbi": 410,
      "furi": 411,
      "Ġsifuri": 412,
      "Ġmoja": 413,
      "Ġju": 414,
      "taka": 415,
      "Ġbaada": 416,
      "pe": 417,
      "mbo": 418,
      "shiri": 419,
      "Ġmku": 420,
      "cho": 421,
      "dha": 422,
      "Ġana": 423,
      "Ġina": 424,
      "nia": 425,
      "ua": 426,
      "ze": 427,
      "ongo": 428,
      "Ġhuo": 429,
      "kini": 430,
      "chu": 431,
      "Ġwaka": 432,
      "rikali": 433,
      "end": 434,
      "Ġserikali": 435,
      "yi": 436,
      "nzi": 437,
      "lia": 438,
      "Ġhilo": 439,
      "Ġpa": 440,
      "gu": 441,
      "Ġmu": 442,
      "Ġaki": 443,
      "dhi": 444,
      "Ġnchi": 445,
      "moja": 446,
      "Ġwi": 447,
      "ndo": 448,
      "ngine": 449,
      "Ġlakini": 450,
      "Ġwe": 451,
      "Ġme": 452,
      "su": 453,
      "Ġra": 454,
      "ge": 455,
      "pu": 456,
      "Ġvya": 457,
      "Ġpi": 458,
      "Ġhivyo": 459,
      "bwa": 460,
      "Ġji": 461,
      "cheza": 462,
      "endele": 463,
      "Ġwatu": 464,
      "Ġc": 465,
      "Ġyake": 466,
      "Ġhao": 467,
      "Ġmwaka": 468,
      "Ġwakati": 469,
      "idi": 470,
      "Ġt": 471,
      "Ġmba": 472,
      "Ġame": 473,
      "bili": 474,
      "sh": 475,
      "Ġkwenye": 476,
      "Ġkua": 477,
      "Ġko": 478,
      "Ġishiri": 479,
      "nzania": 480,
      "Ġishirini": 481,
      "vu": 482,
      "Ġkui": 483,
      "Ġkuo": 484,
      "yu": 485,
      "Ġmia": 486,
      "Ġshi": 487,
      "Ġf": 488,
      "ongozi": 489,
      "Ġime": 490,
      "mia": 491,
      "Ġhuyo": 492,
      "Ġo": 493,
      "Ġmaa": 494,
      "ria": 495,
      "bunge": 496,
      "Ġkumi": 497,
      "mbe": 498,
      "Ġwake": 499,
      "nde": 500,
      "Ġtimu": 501,
      "mbi": 502,
      "sho": 503,
      "Ġwame": 504,
      "Ġhayo": 505,
      "dai": 506,
      "lio": 507,
      "Ġkutokana": 508,
      "Ġsaba": 509,
      "shwa": 510,
      "Ġpo": 511,
      "Ġkwamba": 512,
      "pata": 513,
      "do": 514,
      "lu": 515,
      "zungu": 516,
      "Ġhata": 517,
      "Ġwata": 518,
      "ifa": 519,
      "kia": 520,
      "Ġmbili": 521,
      "kama": 522,
      "Ġsasa": 523,
      "Ġmkuu": 524,
      "Ġndi": 525,
      "nchi": 526,
      "Ġmko": 527,
      "Ġjana": 528,
      "Ġmbali": 529,
      "is": 530,
      "chezaji": 531,
      "Ġtanzania": 532,
      "laa": 533,
      "mbu": 534,
      "takiwa": 535,
      "Ġmaha": 536,
      "zungum": 537,
      "Ġwaki": 538,
      "Ġtaa": 539,
      "Ġkutoka": 540,
      "hidi": 541,
      "Ġkuji": 542,
      "Ġwananchi": 543,
      "Ġke": 544,
      "nu": 545,
      "Ġhali": 546,
      "Ġwalio": 547,
      "nja": 548,
      "Ġkuu": 549,
      "gi": 550,
      "Ġambayo": 551,
      "Ġambao": 552,
      "zwa": 553,
      "ngwa": 554,
      "Ġdar": 555,
      "Ġkum": 556,
      "Ġes": 557,
      "Ġkazi": 558,
      "Ġmaji": 559,
      "endelea": 560,
      "Ġhizo": 561,
      "Ġle": 562,
      "Ġtano": 563,
      "Ġfe": 564,
      "Ġsalaa": 565,
      "neo": 566,
      "Ġiliyo": 567,
      "Ġho": 568,
      "Ġsalaam": 569,
      "Ġtatu": 570,
      "Ġpamoja": 571,
      "so": 572,
      "Ġuna": 573,
      "bo": 574,
      "Ġzaidi": 575,
      "Ġkila": 576,
      "Ġhatu": 577,
      "Ġambaye": 578,
      "tia": 579,
      "Ġuta": 580,
      "Ġnchini": 581,
      "vi": 582,
      "Ġmwi": 583,
      "Ġkam": 584,
      "kwe": 585,
      "ini": 586,
      "zuri": 587,
      "Ġwao": 588,
      "Ġchama": 589,
      "mani": 590,
      "weza": 591,
      "Ġmahakama": 592,
      "Ġpia": 593,
      "Ġye": 594,
      "Ġkufanya": 595,
      "laya": 596,
      "nya": 597,
      "wo": 598,
      "Ġambapo": 599,
      "toa": 600,
      "Ġwazi": 601,
      "Ġhuku": 602,
      "Ġga": 603,
      "Ġbo": 604,
      "Ġhicho": 605,
      "thi": 606,
      "Ġviongozi": 607,
      "Ġrais": 608,
      "mbali": 609,
      "jili": 610,
      "Ġkupi": 611,
      "Ġwachezaji": 612,
      "Ġyao": 613,
      "Ġita": 614,
      "Ġnyi": 615,
      "kta": 616,
      "jini": 617,
      "Ġmka": 618,
      "Ġthe": 619,
      "Ġfedha": 620,
      "Ġte": 621,
      "sia": 622,
      "Ġsiku": 623,
      "Ġmkoa": 624,
      "Ġshe": 625,
      "toke": 626,
      "Ġhuu": 627,
      "Ġmbalimbali": 628,
      "chezo": 629,
      "sini": 630,
      "Ġnne": 631,
      "ndani": 632,
      "Ġtisa": 633,
      "Ġkuli": 634,
      "Ġtaifa": 635,
      "Ġbe": 636,
      "Ġaf": 637,
      "lisi": 638,
      "Ġmechi": 639,
      "Ġhadi": 640,
      "rifa": 641,
      "Ġmara": 642,
      "Ġsita": 643,
      "jia": 644,
      "Ġkwe": 645,
      "Ġnafa": 646,
      "Ġmsi": 647,
      "Ġhatua": 648,
      "Ġp": 649,
      "kwa": 650,
      "Ġkwani": 651,
      "du": 652,
      "Ġkuhu": 653,
      "Ġwilaya": 654,
      "Ġtaarifa": 655,
      "kio": 656,
      "Ġnafasi": 657,
      "Ġmwenye": 658,
      "Ġupa": 659,
      "Ġkili": 660,
      "Ġshu": 661,
      "Ġkutoa": 662,
      "Ġbibi": 663,
      "Ġpolisi": 664,
      "Ġnyu": 665,
      "fanyi": 666,
      "be": 667,
      "Ġkufu": 668,
      "liwa": 669,
      "lingi": 670,
      "puni": 671,
      "Ġbara": 672,
      "Ġmaba": 673,
      "Ġzina": 674,
      "tumia": 675,
      "zungumza": 676,
      "Ġbaadhi": 677,
      "Ġde": 678,
      "Ġkampuni": 679,
      "Ġshilingi": 680,
      "sili": 681,
      "uala": 682,
      "wanja": 683,
      "Ġau": 684,
      "bari": 685,
      "Ġmmoja": 686,
      "cm": 687,
      "kisha": 688,
      "pita": 689,
      "Ġyanga": 690,
      "ngeza": 691,
      "guzi": 692,
      "Ġwo": 693,
      "lewa": 694,
      "Ġzili": 695,
      "Ġmasha": 696,
      "ndu": 697,
      "Ġccm": 698,
      "Ġhabari": 699,
      "ndwa": 700,
      "baini": 701,
      "fisa": 702,
      "Ġfa": 703,
      "Ġso": 704,
      "Ġkuta": 705,
      "Ġkubwa": 706,
      "Ġkwanza": 707,
      "Ġje": 708,
      "Ġume": 709,
      "Ġkuna": 710,
      "ina": 711,
      "Ġndani": 712,
      "Ġnane": 713,
      "Ġaliye": 714,
      "Ġzao": 715,
      "amu": 716,
      "Ġto": 717,
      "Ġpe": 718,
      "Ġmtu": 719,
      "Ġwaziri": 720,
      "tizo": 721,
      "one": 722,
      "Ġhaku": 723,
      "Ġmuda": 724,
      "Ġkitu": 725,
      "Ġmashi": 726,
      "Ġmwe": 727,
      "yote": 728,
      "Ġtuna": 729,
      "ktari": 730,
      "uli": 731,
      "ngia": 732,
      "lioni": 733,
      "mini": 734,
      "Ġligi": 735,
      "Ġzo": 736,
      "Ġmata": 737,
      "Ġkusa": 738,
      "weze": 739,
      "Ġmambo": 740,
      "chuku": 741,
      "Ġeneo": 742,
      "Ġhawa": 743,
      "Ġupande": 744,
      "Ġuli": 745,
      "Ġnyumba": 746,
      "Ġkuka": 747,
      "Ġyali": 748,
      "Ġajili": 749,
      "Ġmaka": 750,
      "Ġmpa": 751,
      "tumi": 752,
      "de": 753,
      "Ġucha": 754,
      "Ġdaktari": 755,
      "Ġsababu": 756,
      "twa": 757,
      "Ġwanao": 758,
      "Ġchi": 759,
      "Ġmaku": 760,
      "Ġuwanja": 761,
      "kiti": 762,
      "taa": 763,
      "Ġmwana": 764,
      "Ġsimba": 765,
      "Ġmchezo": 766,
      "ribu": 767,
      "Ġj": 768,
      "Ġhaki": 769,
      "Ġsheria": 770,
      "dili": 771,
      "hemu": 772,
      "shitakiwa": 773,
      "Ġsana": 774,
      "toto": 775,
      "Ġwengine": 776,
      "haki": 777,
      "Ġg": 778,
      "Ġsuala": 779,
      "Ġbila": 780,
      "Ġjuu": 781,
      "shindwa": 782,
      "Ġwenye": 783,
      "Ġkamati": 784,
      "Ġsu": 785,
      "Ġkesi": 786,
      "sisi": 787,
      "Ġjuma": 788,
      "Ġru": 789,
      "Ġkupa": 790,
      "Ġkupata": 791,
      "Ġhii": 792,
      "Ġuchaguzi": 793,
      "Ġmas": 794,
      "bisha": 795,
      "Ġndio": 796,
      "Ġiki": 797,
      "anza": 798,
      "Ġmsa": 799,
      "Ġbunge": 800,
      "Ġwengi": 801,
      "Ġlili": 802,
      "Ġdhidi": 803,
      "limu": 804,
      "Ġhapa": 805,
      "jwa": 806,
      "bia": 807,
      "Ġbu": 808,
      "Ġmgo": 809,
      "Ġulio": 810,
      "wali": 811,
      "Ġleo": 812,
      "fanyika": 813,
      "Ġyana": 814,
      "kuta": 815,
      "fani": 816,
      "Ġngu": 817,
      "Ġkocha": 818,
      "jua": 819,
      "Ġwaa": 820,
      "Ġsha": 821,
      "eleza": 822,
      "nti": 823,
      "mali": 824,
      "Ġwote": 825,
      "Ġkuhusu": 826,
      "raka": 827,
      "Ġkla": 828,
      "Ġdu": 829,
      "Ġklabu": 830,
      "Ġkuwe": 831,
      "uri": 832,
      "shu": 833,
      "yari": 834,
      "mbia": 835,
      "nzo": 836,
      "Ġuwe": 837,
      "Ġakizungumza": 838,
      "mili": 839,
      "Ġkufi": 840,
      "Ġhapo": 841,
      "ghu": 842,
      "Ġtukio": 843,
      "thini": 844,
      "kari": 845,
      "bathini": 846,
      "Ġthebathini": 847,
      "Ġdo": 848,
      "Ġmare": 849,
      "Ġinayo": 850,
      "Ġkab": 851,
      "Ġmwenyekiti": 852,
      "Ġhivi": 853,
      "Ġkusi": 854,
      "Ġalikuwa": 855,
      "Ġtayari": 856,
      "va": 857,
      "Ġikiwa": 858,
      "shiriki": 859,
      "shara": 860,
      "Ġzote": 861,
      "isha": 862,
      "tolewa": 863,
      "mla": 864,
      "zaji": 865,
      "Ġkute": 866,
      "Ġtume": 867,
      "dini": 868,
      "Ġnje": 869,
      "Ġri": 870,
      "Ġkina": 871,
      "tibu": 872,
      "jana": 873,
      "Ġmiaka": 874,
      "Ġnyingine": 875,
      "dala": 876,
      "wili": 877,
      "Ġuchu": 878,
      "Ġmae": 879,
      "riki": 880,
      "Ġal": 881,
      "Ġkabla": 882,
      "endeleo": 883,
      "Ġambazo": 884,
      "ghuli": 885,
      "Ġzilizo": 886,
      "taji": 887,
      "Ġkipi": 888,
      "Ġkwenda": 889,
      "Ġham": 890,
      "Ġafrika": 891,
      "Ġmbunge": 892,
      "Ġjambo": 893,
      "Ġofi": 894,
      "Ġkaribu": 895,
      "Ġusa": 896,
      "Ġbado": 897,
      "kea": 898,
      "Ġhili": 899,
      "Ġjuzi": 900,
      "Ġjo": 901,
      "kosa": 902,
      "idia": 903,
      "Ġmaeneo": 904,
      "Ġhai": 905,
      "lala": 906,
      "Ġute": 907,
      "ssa": 908,
      "Ġata": 909,
      "Ġmaendeleo": 910,
      "shauri": 911,
      "uti": 912,
      "jibu": 913,
      "Ġalipo": 914,
      "Ġhakuna": 915,
      "zima": 916,
      "pya": 917,
      "Ġakiwa": 918,
      "Ġvizuri": 919,
      "Ġmfu": 920,
      "dogo": 921,
      "Ġanasema": 922,
      "tano": 923,
      "miwa": 924,
      "Ġpili": 925,
      "babisha": 926,
      "Ġwiki": 927,
      "Ġlina": 928,
      "kosi": 929,
      "Ġkauli": 930,
      "Ġkikwe": 931,
      "Ġkikwete": 932,
      "kili": 933,
      "ratibu": 934,
      "Ġchini": 935,
      "ndishi": 936,
      "fisadi": 937,
      "Ġhasa": 938,
      "Ġmkubwa": 939,
      "ia": 940,
      "Ġhe": 941,
      "hara": 942,
      "chama": 943,
      "Ġhamsini": 944,
      "Ġmabao": 945,
      "she": 946,
      "Ġas": 947,
      "daiwa": 948,
      "tara": 949,
      "fiki": 950,
      "ve": 951,
      "sika": 952,
      "Ġkima": 953,
      "Ġushi": 954,
      "Ġmiko": 955,
      "Ġnya": 956,
      "futa": 957,
      "Ġtatizo": 958,
      "Ġwabunge": 959,
      "Ġvijana": 960,
      "wezi": 961,
      "ende": 962,
      "Ġmb": 963,
      "ada": 964,
      "Ġnaye": 965,
      "Ġre": 966,
      "zia": 967,
      "amuzi": 968,
      "tokea": 969,
      "ona": 970,
      "ce": 971,
      "kazi": 972,
      "njwa": 973,
      "Ġwafanya": 974,
      "mii": 975,
      "mbea": 976,
      "Ġuwezo": 977,
      "Ġfu": 978,
      "Ġmwisho": 979,
      "nyi": 980,
      "Ġmazi": 981,
      "oni": 982,
      "Ġchu": 983,
      "omba": 984,
      "chukua": 985,
      "Ġkutumia": 986,
      "duma": 987,
      "Ġofisi": 988,
      "Ġsta": 989,
      "Ġaliwa": 990,
      "Ġkatibu": 991,
      "Ġkuanzi": 992,
      "Ġkikosi": 993,
      "asi": 994,
      "Ġwatoto": 995,
      "Ġhuduma": 996,
      "Ġsoka": 997,
      "hakikisha": 998,
      "sta": 999,
      "Ġbora": 1000,
      "Ġkura": 1001,
      "Ġmcha": 1002,
      "fauti": 1003,
      "Ġmaisha": 1004,
      "Ġmilioni": 1005,
      "radi": 1006,
      "Ġjijini": 1007,
      "taba": 1008,
      "Ġnjia": 1009,
      "rudi": 1010,
      "mika": 1011,
      "Ġshule": 1012,
      "bingwa": 1013,
      "Ġwaku": 1014,
      "piga": 1015,
      "Ġaro": 1016,
      "unga": 1017,
      "Ġel": 1018,
      "Ġmali": 1019,
      "kele": 1020,
      "Ġzake": 1021,
      "Ġusi": 1022,
      "ch": 1023,
      "Ġelimu": 1024,
      "Ġbao": 1025,
      "Ġnyingi": 1026,
      "Ġarobaini": 1027,
      "Ġsaa": 1028,
      "Ġzinazo": 1029,
      "pungu": 1030,
      "Ġtofauti": 1031,
      "Ġhos": 1032,
      "Ġwasi": 1033,
      "Ġmkoani": 1034,
      "Ġambalo": 1035,
      "Ġkupitia": 1036,
      "Ġmjini": 1037,
      "Ġdunia": 1038,
      "Ġmaana": 1039,
      "pele": 1040,
      "hitaji": 1041,
      "Ġawali": 1042,
      "Ġyaliyo": 1043,
      "Ġuamuzi": 1044,
      "tendo": 1045,
      "Ġlu": 1046,
      "kuba": 1047,
      "ano": 1048,
      "Ġjeshi": 1049,
      "Ġdha": 1050,
      "Ġkuongeza": 1051,
      "Ġkuzi": 1052,
      "ndaji": 1053,
      "Ġasili": 1054,
      "Ġmbele": 1055,
      "shinda": 1056,
      "Ġwanachama": 1057,
      "ci": 1058,
      "ezi": 1059,
      "dhaa": 1060,
      "Ġhospita": 1061,
      "wemo": 1062,
      "Ġkipindi": 1063,
      "ibu": 1064,
      "bara": 1065,
      "Ġhospitali": 1066,
      "kika": 1067,
      "Ġuongozi": 1068,
      "pewa": 1069,
      "Ġelfu": 1070,
      "Ġjamii": 1071,
      "Ġpro": 1072,
      "el": 1073,
      "Ġkuhakikisha": 1074,
      "Ġsehemu": 1075,
      "Ġmpaka": 1076,
      "Ġmpi": 1077,
      "fika": 1078,
      "Ġtena": 1079,
      "Ġaka": 1080,
      "Ġzime": 1081,
      "Ġjimbo": 1082,
      "mwa": 1083,
      "Ġyo": 1084,
      "tini": 1085,
      "lisha": 1086,
      "Ġida": 1087,
      "Ġlo": 1088,
      "ca": 1089,
      "Ġkiu": 1090,
      "Ġbadala": 1091,
      "ywa": 1092,
      "swa": 1093,
      "himu": 1094,
      "Ġgari": 1095,
      "Ġshughuli": 1096,
      "goro": 1097,
      "rs": 1098,
      "Ġge": 1099,
      "taifa": 1100,
      "ruge": 1101,
      "saidia": 1102,
      "hari": 1103,
      "Ġkika": 1104,
      "Ġkiasi": 1105,
      "gonjwa": 1106,
      "rugenzi": 1107,
      "Ġwatanzania": 1108,
      "funzi": 1109,
      "Ġuhu": 1110,
      "Ġwakiwa": 1111,
      "Ġmchezaji": 1112,
      "Ġbarabara": 1113,
      "Ġlengo": 1114,
      "Ġmada": 1115,
      "Ġalio": 1116,
      "Ġtangu": 1117,
      "Ġmawa": 1118,
      "kwenda": 1119,
      "ida": 1120,
      "ngaza": 1121,
      "Ġkuondo": 1122,
      "Ġbina": 1123,
      "Ġwakazi": 1124,
      "ngira": 1125,
      "Ġwale": 1126,
      "lama": 1127,
      "Ġkupo": 1128,
      "Ġwalikuwa": 1129,
      "Ġkiwa": 1130,
      "Ġdakika": 1131,
      "faa": 1132,
      "zara": 1133,
      "Ġmengi": 1134,
      "Ġyeye": 1135,
      "poti": 1136,
      "Ġkweli": 1137,
      "nki": 1138,
      "tisha": 1139,
      "Ġkipa": 1140,
      "ter": 1141,
      "chuano": 1142,
      "Ġwizara": 1143,
      "Ġro": 1144,
      "fe": 1145,
      "fua": 1146,
      "Ġum": 1147,
      "biki": 1148,
      "Ġvyo": 1149,
      "Ġilikuwa": 1150,
      "Ġmahakamani": 1151,
      "Ġmichuano": 1152,
      "nguzi": 1153,
      "Ġmkutano": 1154,
      "Ġco": 1155,
      "Ġmimi": 1156,
      "Ġyenye": 1157,
      "Ġmbe": 1158,
      "Ġnguvu": 1159,
      "Ġmape": 1160,
      "Ġjina": 1161,
      "zungumzia": 1162,
      "ck": 1163,
      "ndano": 1164,
      "ry": 1165,
      "Ġwashitakiwa": 1166,
      "Ġmpira": 1167,
      "Ġmazingira": 1168,
      "nsi": 1169,
      "Ġndo": 1170,
      "Ġfi": 1171,
      "Ġche": 1172,
      "Ġkuanza": 1173,
      "Ġmashitaka": 1174,
      "lamu": 1175,
      "Ġushindi": 1176,
      "Ġmkataba": 1177,
      "humiwa": 1178,
      "Ġasilimia": 1179,
      "Ġmshitakiwa": 1180,
      "Ġmta": 1181,
      "Ġusha": 1182,
      "jumbe": 1183,
      "zeti": 1184,
      "Ġhoja": 1185,
      "Ġmajira": 1186,
      "Ġuki": 1187,
      "jiji": 1188,
      "Ġkuona": 1189,
      "Ġtaasisi": 1190,
      "Ġmre": 1191,
      "Ġar": 1192,
      "Ġsimu": 1193,
      "co": 1194,
      "Ġvyama": 1195,
      "Ġvyombo": 1196,
      "son": 1197,
      "Ġkituo": 1198,
      "Ġkilimo": 1199,
      "Ġalidai": 1200,
      "Ġkusema": 1201,
      "Ġwetu": 1202,
      "Ġmwingine": 1203,
      "Ġmkazi": 1204,
      "Ġdeci": 1205,
      "Ġmaja": 1206,
      "tiza": 1207,
      "Ġpoi": 1208,
      "Ġhaya": 1209,
      "Ġmaele": 1210,
      "liana": 1211,
      "Ġmsingi": 1212,
      "Ġyanayo": 1213,
      "Ġpointi": 1214,
      "wani": 1215,
      "Ġmatatizo": 1216,
      "muzi": 1217,
      "fsi": 1218,
      "Ġmabo": 1219,
      "Ġmashindano": 1220,
      "Ġvitu": 1221,
      "Ġnini": 1222,
      "onekana": 1223,
      "Ġkuendelea": 1224,
      "shirikia": 1225,
      "bar": 1226,
      "hoji": 1227,
      "Ġkutu": 1228,
      "Ġkawa": 1229,
      "sisitiza": 1230,
      "Ġmarehemu": 1231,
      "gwa": 1232,
      "tokana": 1233,
      "Ġyu": 1234,
      "fo": 1235,
      "Ġnga": 1236,
      "Ġkiongozi": 1237,
      "Ġwaandishi": 1238,
      "mea": 1239,
      "Ġvita": 1240,
      "Ġbia": 1241,
      "nzibar": 1242,
      "Ġafya": 1243,
      "Ġndiyo": 1244,
      "Ġaina": 1245,
      "amua": 1246,
      "Ġkundi": 1247,
      "Ġmkono": 1248,
      "Ġamesema": 1249,
      "Ġkuki": 1250,
      "Ġkuja": 1251,
      "Ġmita": 1252,
      "uaji": 1253,
      "ly": 1254,
      "dia": 1255,
      "Ġuja": 1256,
      "Ġaskari": 1257,
      "nzani": 1258,
      "Ġnamba": 1259,
      "tikana": 1260,
      "Ġzanzibar": 1261,
      "Ġmkurugenzi": 1262,
      "Ġkaribuni": 1263,
      "Ġsabi": 1264,
      "Ġwamekuwa": 1265,
      "nne": 1266,
      "Ġsitini": 1267,
      "Ġlime": 1268,
      "amini": 1269,
      "zazi": 1270,
      "Ġbenki": 1271,
      "Ġtisini": 1272,
      "Ġuchunguzi": 1273,
      "Ġmapa": 1274,
      "lazi": 1275,
      "Ġmradi": 1276,
      "lla": 1277,
      "kani": 1278,
      "Ġwafanyakazi": 1279,
      "risha": 1280,
      "Ġufisadi": 1281,
      "Ġlazima": 1282,
      "Ġmashabiki": 1283,
      "Ġkiku": 1284,
      "mbana": 1285,
      "fafan": 1286,
      "ted": 1287,
      "Ġmsimu": 1288,
      "Ġsabini": 1289,
      "faha": 1290,
      "Ġkimataifa": 1291,
      "sto": 1292,
      "Ġyote": 1293,
      "Ġgazeti": 1294,
      "Ġkufua": 1295,
      "rua": 1296,
      "Ġmao": 1297,
      "kula": 1298,
      "Ġkucheza": 1299,
      "Ġmaalu": 1300,
      "Ġze": 1301,
      "Ġbilioni": 1302,
      "Ġkamanda": 1303,
      "Ġkushindwa": 1304,
      "kabili": 1305,
      "enda": 1306,
      "Ġnili": 1307,
      "nua": 1308,
      "Ġmatoke": 1309,
      "Ġaliyekuwa": 1310,
      "Ġmakubwa": 1311,
      "Ġmatokeo": 1312,
      "rd": 1313,
      "Ġkucha": 1314,
      "funga": 1315,
      "Ġwilayani": 1316,
      "Ġdini": 1317,
      "Ġvile": 1318,
      "Ġmujibu": 1319,
      "Ġnao": 1320,
      "Ġmoro": 1321,
      "gumu": 1322,
      "zalisha": 1323,
      "kati": 1324,
      "Ġstars": 1325,
      "sababisha": 1326,
      "Ġkule": 1327,
      "mbulia": 1328,
      "onesha": 1329,
      "ngalia": 1330,
      "maa": 1331,
      "manini": 1332,
      "Ġthemanini": 1333,
      "Ġmama": 1334,
      "Ġkabi": 1335,
      "kutana": 1336,
      "Ġmikoa": 1337,
      "Ġyoyote": 1338,
      "Ġmichezo": 1339,
      "pwa": 1340,
      "Ġuni": 1341,
      "siasa": 1342,
      "Ġbiashara": 1343,
      "Ġmti": 1344,
      "Ġwate": 1345,
      "Ġunao": 1346,
      "Ġkuanzia": 1347,
      "Ġiliyopita": 1348,
      "biashara": 1349,
      "Ġfaina": 1350,
      "Ġushahidi": 1351,
      "Ġfainali": 1352,
      "Ġhati": 1353,
      "Ġprofe": 1354,
      "Ġkutaka": 1355,
      "med": 1356,
      "Ġwanawa": 1357,
      "Ġmaje": 1358,
      "misha": 1359,
      "Ġchake": 1360,
      "nyesha": 1361,
      "fanywa": 1362,
      "Ġmfa": 1363,
      "Ġkumali": 1364,
      "Ġumeme": 1365,
      "ndari": 1366,
      "Ġuje": 1367,
      "paswa": 1368,
      "Ġlake": 1369,
      "Ġwanafunzi": 1370,
      "Ġnyumbani": 1371,
      "asa": 1372,
      "kubali": 1373,
      "Ġprofesa": 1374,
      "Ġwala": 1375,
      "Ġmamla": 1376,
      "ngeze": 1377,
      "Ġmamlaka": 1378,
      "lima": 1379,
      "Ġkesho": 1380,
      "Ġmaga": 1381,
      "Ġkuwepo": 1382,
      "ndaa": 1383,
      "Ġbaadaye": 1384,
      "Ġmpya": 1385,
      "Ġshirika": 1386,
      "ingia": 1387,
      "Ġkuje": 1388,
      "baki": 1389,
      "fungu": 1390,
      "Ġnzuri": 1391,
      "Ġanaye": 1392,
      "Ġmpango": 1393,
      "Ġkata": 1394,
      "kuja": 1395,
      "nduzi": 1396,
      "Ġunited": 1397,
      "liano": 1398,
      "st": 1399,
      "Ġaja": 1400,
      "weka": 1401,
      "lma": 1402,
      "Ġkuvu": 1403,
      "Ġsiasa": 1404,
      "Ġyetu": 1405,
      "Ġgani": 1406,
      "Ġbali": 1407,
      "Ġjinsi": 1408,
      "Ġkikao": 1409,
      "Ġmatumi": 1410,
      "Ġmatumizi": 1411,
      "Ġmabingwa": 1412,
      "mizi": 1413,
      "Ġmengine": 1414,
      "Ġkuku": 1415,
      "man": 1416,
      "geni": 1417,
      "Ġkilicho": 1418,
      "reje": 1419,
      "tarajia": 1420,
      "Ġmaelezo": 1421,
      "teza": 1422,
      "Ġcu": 1423,
      "Ġuka": 1424,
      "Ġkambi": 1425,
      "reza": 1426,
      "Ġwanawake": 1427,
      "Ġwapi": 1428,
      "Ġmakosa": 1429,
      "Ġmauaji": 1430,
      "Ġchade": 1431,
      "Ġchadema": 1432,
      "mana": 1433,
      "Ġlililo": 1434,
      "Ġwawili": 1435,
      "Ġitakuwa": 1436,
      "Ġmrefu": 1437,
      "Ġdawa": 1438,
      "Ġdodo": 1439,
      "Ġmtoto": 1440,
      "Ġkiwango": 1441,
      "Ġmatu": 1442,
      "Ġhalma": 1443,
      "Ġuha": 1444,
      "Ġidadi": 1445,
      "Ġdodoma": 1446,
      "wala": 1447,
      "Ġkitendo": 1448,
      "kweli": 1449,
      "Ġmsaada": 1450,
      "kezaji": 1451,
      "zee": 1452,
      "Ġkawaida": 1453,
      "Ġhalmashauri": 1454,
      "Ġndu": 1455,
      "Ġah": 1456,
      "Ġmisa": 1457,
      "Ġmabomu": 1458,
      "tokeza": 1459,
      "endesha": 1460,
      "Ġusiku": 1461,
      "Ġcho": 1462,
      "Ġinga": 1463,
      "Ġsisi": 1464,
      "Ġwalimu": 1465,
      "Ġingawa": 1466,
      "shambulia": 1467,
      "Ġambacho": 1468,
      "penda": 1469,
      "husika": 1470,
      "Ġnia": 1471,
      "Ġilivyo": 1472,
      "Ġwenza": 1473,
      "Ġkujua": 1474,
      "Ġmadai": 1475,
      "fanikiwa": 1476,
      "Ġbinafsi": 1477,
      "Ġujenzi": 1478,
      "Ġnina": 1479,
      "Ġbasi": 1480,
      "Ġkuweka": 1481,
      "Ġchanzo": 1482,
      "Ġmbi": 1483,
      "Ġnam": 1484,
      "Ġkwake": 1485,
      "Ġman": 1486,
      "Ġsekta": 1487,
      "sisha": 1488,
      "mbano": 1489,
      "Ġkabisa": 1490,
      "shia": 1491,
      "Ġbaraza": 1492,
      "lizi": 1493,
      "baya": 1494,
      "Ġamani": 1495,
      "Ġshiriki": 1496,
      "Ġutaratibu": 1497,
      "Ġkuha": 1498,
      "mbua": 1499,
      "ruhi": 1500,
      "Ġkodi": 1501,
      "Ġkuchukua": 1502,
      "fadhi": 1503,
      "fungwa": 1504,
      "Ġno": 1505,
      "Ġchakula": 1506,
      "Ġmwezi": 1507,
      "Ġaliongeza": 1508,
      "mui": 1509,
      "Ġkufikia": 1510,
      "jiwa": 1511,
      "tumika": 1512,
      "Ġl": 1513,
      "Ġkijiji": 1514,
      "toka": 1515,
      "Ġmasuala": 1516,
      "Ġmapi": 1517,
      "ff": 1518,
      "pokuwa": 1519,
      "Ġukweli": 1520,
      "Ġyame": 1521,
      "Ġharaka": 1522,
      "Ġmaanda": 1523,
      "milia": 1524,
      "Ġnye": 1525,
      "biri": 1526,
      "Ġghara": 1527,
      "Ġshirikisho": 1528,
      "Ġvina": 1529,
      "taja": 1530,
      "Ġuga": 1531,
      "Ġuhuru": 1532,
      "lazimika": 1533,
      "hiri": 1534,
      "Ġmoha": 1535,
      "Ġca": 1536,
      "tarajiwa": 1537,
      "Ġgharama": 1538,
      "Ġnde": 1539,
      "wanda": 1540,
      "Ġufu": 1541,
      "Ġmuhimu": 1542,
      "Ġmte": 1543,
      "Ġmbo": 1544,
      "kumu": 1545,
      "Ġnime": 1546,
      "sheria": 1547,
      "ongoza": 1548,
      "diliko": 1549,
      "Ġkusababisha": 1550,
      "fafanua": 1551,
      "Ġmika": 1552,
      "rahi": 1553,
      "Ġmabadiliko": 1554,
      "Ġmar": 1555,
      "Ġkadhaa": 1556,
      "nisha": 1557,
      "Ġwalisema": 1558,
      "tea": 1559,
      "Ġkita": 1560,
      "Ġmazo": 1561,
      "nal": 1562,
      "Ġab": 1563,
      "Ġimani": 1564,
      "wapo": 1565,
      "zika": 1566,
      "Ġnamna": 1567,
      "siana": 1568,
      "Ġpeke": 1569,
      "jiri": 1570,
      "Ġmadini": 1571,
      "Ġdi": 1572,
      "Ġhumo": 1573,
      "Ġrushwa": 1574,
      "Ġkupungu": 1575,
      "sasi": 1576,
      "dhara": 1577,
      "xi": 1578,
      "badili": 1579,
      "tiwa": 1580,
      "sani": 1581,
      "silisha": 1582,
      "panga": 1583,
      "Ġtff": 1584,
      "Ġndugu": 1585,
      "Ġsawa": 1586,
      "Ġmazoezi": 1587,
      "Ġmbaya": 1588,
      "Ġkombe": 1589,
      "Ġwaliokuwa": 1590,
      "ondo": 1591,
      "Ġpale": 1592,
      "Ġkenya": 1593,
      "Ġuma": 1594,
      "Ġimekuwa": 1595,
      "Ġuchumi": 1596,
      "Ġwako": 1597,
      "Ġmale": 1598,
      "dau": 1599,
      "Ġtanga": 1600,
      "subiri": 1601,
      "Ġkuingia": 1602,
      "Ġkushinda": 1603,
      "zuia": 1604,
      "Ġmiongo": 1605,
      "ishi": 1606,
      "kra": 1607,
      "zidi": 1608,
      "fikia": 1609,
      "gombea": 1610,
      "patikana": 1611,
      "fahamu": 1612,
      "wahi": 1613,
      "Ġmafuta": 1614,
      "mua": 1615,
      "Ġhakimu": 1616,
      "fari": 1617,
      "Ġtaratibu": 1618,
      "Ġitaka": 1619,
      "Ġr": 1620,
      "Ġkurudi": 1621,
      "lani": 1622,
      "Ġkusima": 1623,
      "Ġat": 1624,
      "biti": 1625,
      "Ġkuele": 1626,
      "guu": 1627,
      "Ġkupiga": 1628,
      "Ġbei": 1629,
      "Ġmafani": 1630,
      "Ġne": 1631,
      "Ġmwanza": 1632,
      "Ġvu": 1633,
      "Ġcuf": 1634,
      "Ġvye": 1635,
      "Ġkuone": 1636,
      "Ġmajina": 1637,
      "moto": 1638,
      "rusha": 1639,
      "Ġbungeni": 1640,
      "Ġmgombea": 1641,
      "Ġmafanikio": 1642,
      "Ġjoh": 1643,
      "Ġmfano": 1644,
      "Ġnu": 1645,
      "zea": 1646,
      "Ġkujenga": 1647,
      "Ġyangu": 1648,
      "Ġnyo": 1649,
      "Ġpinda": 1650,
      "Ġgha": 1651,
      "tiba": 1652,
      "husu": 1653,
      "Ġkile": 1654,
      "mishi": 1655,
      "kofu": 1656,
      "Ġmapinduzi": 1657,
      "Ġjohn": 1658,
      "wepo": 1659,
      "Ġtuta": 1660,
      "peni": 1661,
      "Ġkinacho": 1662,
      "Ġduniani": 1663,
      "Ġwadau": 1664,
      "Ġmaxi": 1665,
      "zito": 1666,
      "Ġisi": 1667,
      "kamatwa": 1668,
      "Ġajali": 1669,
      "Ġmaximo": 1670,
      "Ġin": 1671,
      "Ġndiye": 1672,
      "Ġmorogoro": 1673,
      "resha": 1674,
      "Ġalim": 1675,
      "Ġhuko": 1676,
      "nisa": 1677,
      "Ġkampeni": 1678,
      "Ġmohamed": 1679,
      "Ġile": 1680,
      "rufu": 1681,
      "Ġusalama": 1682,
      "spa": 1683,
      "Ġumma": 1684,
      "kiri": 1685,
      "Ġlicha": 1686,
      "Ġmiongoni": 1687,
      "gua": 1688,
      "Ġuhaki": 1689,
      "Ġbarua": 1690,
      "Ġkuacha": 1691,
      "Ġmsima": 1692,
      "Ġmga": 1693,
      "Ġkuti": 1694,
      "jeti": 1695,
      "Ġupi": 1696,
      "Ġmako": 1697,
      "Ġbajeti": 1698,
      "lalami": 1699,
      "Ġkiba": 1700,
      "Ġmafu": 1701,
      "undo": 1702,
      "Ġmfumo": 1703,
      "Ġmarekani": 1704,
      "Ġua": 1705,
      "Ġubingwa": 1706,
      "th": 1707,
      "Ġtuli": 1708,
      "us": 1709,
      "soma": 1710,
      "Ġkupambana": 1711,
      "Ġutekele": 1712,
      "sea": 1713,
      "Ġkuhusiana": 1714,
      "Ġkushu": 1715,
      "Ġhaja": 1716,
      "Ġmicha": 1717,
      "Ġdara": 1718,
      "chukuliwa": 1719,
      "Ġwataka": 1720,
      "Ġmaju": 1721,
      "Ġmade": 1722,
      "Ġmitaa": 1723,
      "gala": 1724,
      "Ġardhi": 1725,
      "Ġahly": 1726,
      "Ġwangu": 1727,
      "kaya": 1728,
      "ngene": 1729,
      "Ġwakulima": 1730,
      "shambuliaji": 1731,
      "Ġndege": 1732,
      "Ġkime": 1733,
      "Ġulinzi": 1734,
      "Ġmapema": 1735,
      "shirikiana": 1736,
      "jo": 1737,
      "Ġkunu": 1738,
      "tezi": 1739,
      "Ġed": 1740,
      "hada": 1741,
      "Ġsafari": 1742,
      "Ġjumla": 1743,
      "Ġai": 1744,
      "Ġchanga": 1745,
      "fiti": 1746,
      "keleza": 1747,
      "lali": 1748,
      "pili": 1749,
      "Ġjaji": 1750,
      "Ġkutafuta": 1751,
      "Ġkikubwa": 1752,
      "Ġgo": 1753,
      "Ġzita": 1754,
      "Ġpekee": 1755,
      "Ġndipo": 1756,
      "Ġwakili": 1757,
      "Ġsoko": 1758,
      "in": 1759,
      "Ġkanu": 1760,
      "Ġhassa": 1761,
      "dhani": 1762,
      "Ġmagari": 1763,
      "Ġmdogo": 1764,
      "huma": 1765,
      "Ġfamilia": 1766,
      "Ġugonjwa": 1767,
      "Ġasu": 1768,
      "Ġjakaya": 1769,
      "Ġmadaraka": 1770,
      "Ġmapato": 1771,
      "Ġkisha": 1772,
      "Ġtabia": 1773,
      "Ġakizungumzia": 1774,
      "Ġamekuwa": 1775,
      "muiya": 1776,
      "Ġmiundo": 1777,
      "Ġtuhuma": 1778,
      "Ġnyuma": 1779,
      "Ġwazazi": 1780,
      "kuru": 1781,
      "chwa": 1782,
      "Ġkwao": 1783,
      "Ġmbagala": 1784,
      "Ġuwanjani": 1785,
      "Ġjumuiya": 1786,
      "Ġjumapili": 1787,
      "peleka": 1788,
      "Ġuhakika": 1789,
      "nt": 1790,
      "kuwepo": 1791,
      "Ġhusika": 1792,
      "nyo": 1793,
      "Ġalii": 1794,
      "bora": 1795,
      "Ġmisaada": 1796,
      "rt": 1797,
      "Ġkanuni": 1798,
      "Ġulaya": 1799,
      "Ġmaamuzi": 1800,
      "Ġwapo": 1801,
      "Ġhazi": 1802,
      "Ġujao": 1803,
      "Ġasubu": 1804,
      "Ġenda": 1805,
      "Ġasubuhi": 1806,
      "Ġngo": 1807,
      "Ġhawana": 1808,
      "Ġaliyo": 1809,
      "ster": 1810,
      "Ġvibaya": 1811,
      "Ġhatari": 1812,
      "Ġkupunguza": 1813,
      "Ġhassan": 1814,
      "ridhi": 1815,
      "Ġkisiasa": 1816,
      "Ġmwalimu": 1817,
      "Ġkuliko": 1818,
      "Ġkidogo": 1819,
      "Ġalitoa": 1820,
      "kata": 1821,
      "changia": 1822,
      "siano": 1823,
      "Ġendapo": 1824,
      "vo": 1825,
      "Ġkosa": 1826,
      "Ġofisa": 1827,
      "nyu": 1828,
      "Ġkudai": 1829,
      "Ġkushiriki": 1830,
      "lahi": 1831,
      "kezo": 1832,
      "Ġchangamoto": 1833,
      "Ġule": 1834,
      "Ġarusha": 1835,
      "mbinu": 1836,
      "Ġkumu": 1837,
      "Ġiwapo": 1838,
      "keza": 1839,
      "Ġras": 1840,
      "Ġumoja": 1841,
      "sti": 1842,
      "Ġuko": 1843,
      "Ġadha": 1844,
      "Ġkisa": 1845,
      "Ġusajili": 1846,
      "Ġap": 1847,
      "Ġchuo": 1848,
      "Ġmaalumu": 1849,
      "sima": 1850,
      "Ġsio": 1851,
      "Ġwatuhumiwa": 1852,
      "Ġkuleta": 1853,
      "Ġkasi": 1854,
      "mokra": 1855,
      "Ġkukabi": 1856,
      "haribi": 1857,
      "dhu": 1858,
      "Ġkubo": 1859,
      "Ġkanisa": 1860,
      "ngatia": 1861,
      "Ġmakini": 1862,
      "Ġkim": 1863,
      "Ġbidhaa": 1864,
      "Ġwatatu": 1865,
      "ngwe": 1866,
      "firi": 1867,
      "Ġmiundombinu": 1868,
      "Ġuku": 1869,
      "Ġumri": 1870,
      "ingi": 1871,
      "Ġmiguu": 1872,
      "Ġbusa": 1873,
      "miliki": 1874,
      "jitokeza": 1875,
      "nze": 1876,
      "land": 1877,
      "elele": 1878,
      "Ġmene": 1879,
      "gera": 1880,
      "gemea": 1881,
      "Ġteme": 1882,
      "Ġvitendo": 1883,
      "Ġtha": 1884,
      "Ġmashariki": 1885,
      "Ġhau": 1886,
      "Ġvituo": 1887,
      "Ġmsimamo": 1888,
      "Ġutekelezaji": 1889,
      "Ġkukosa": 1890,
      "Ġkufunga": 1891,
      "kwi": 1892,
      "Ġmke": 1893,
      "Ġkifo": 1894,
      "Ġalisisitiza": 1895,
      "Ġrasmi": 1896,
      "Ġkue": 1897,
      "Ġkuwapa": 1898,
      "Ġvifaa": 1899,
      "Ġtemeke": 1900,
      "Ġmafisadi": 1901,
      "Ġambavyo": 1902,
      "Ġkutosha": 1903,
      "Ġmoto": 1904,
      "Ġkuangalia": 1905,
      "zalishaji": 1906,
      "ph": 1907,
      "Ġmzee": 1908,
      "lipu": 1909,
      "Ġkupewa": 1910,
      "Ġumu": 1911,
      "Ġnaibu": 1912,
      "Ġkagera": 1913,
      "Ġumuhimu": 1914,
      "Ġmaslahi": 1915,
      "Ġmbeya": 1916,
      "Ġmafunzo": 1917,
      "Ġmzuri": 1918,
      "mbazi": 1919,
      "Ġmungu": 1920,
      "Ġdhamana": 1921,
      "id": 1922,
      "shika": 1923,
      "Ġkuondoka": 1924,
      "Ġwawe": 1925,
      "kato": 1926,
      "tangaza": 1927,
      "Ġwil": 1928,
      "wote": 1929,
      "Ġbodi": 1930,
      "Ġwowote": 1931,
      "Ġwashiriki": 1932,
      "ngaji": 1933,
      "ndika": 1934,
      "Ġmwili": 1935,
      "Ġkusaidia": 1936,
      "Ġkufika": 1937,
      "mko": 1938,
      "ripoti": 1939,
      "lam": 1940,
      "Ġipo": 1941,
      "jijini": 1942,
      "Ġwataa": 1943,
      "Ġkumaliza": 1944,
      "Ġwaweze": 1945,
      "Ġwenyewe": 1946,
      "Ġmji": 1947,
      "Ġhizi": 1948,
      "saba": 1949,
      "dhibiti": 1950,
      "Ġndogo": 1951,
      "Ġapri": 1952,
      "dri": 1953,
      "Ġwajumbe": 1954,
      "Ġkubaini": 1955,
      "Ġura": 1956,
      "mbele": 1957,
      "reva": 1958,
      "Ġwafanyabiashara": 1959,
      "Ġkusini": 1960,
      "ngana": 1961,
      "mokrasia": 1962,
      "Ġwagonjwa": 1963,
      "hili": 1964,
      "juli": 1965,
      "Ġaliwataka": 1966,
      "rejea": 1967,
      "Ġadhabu": 1968,
      "Ġkula": 1969,
      "Ġnayo": 1970,
      "Ġmwakani": 1971,
      "Ġmajibu": 1972,
      "ume": 1973,
      "fariki": 1974,
      "Ġzamani": 1975,
      "pigwa": 1976,
      "rugu": 1977,
      "nyume": 1978,
      "miza": 1979,
      "ran": 1980,
      "Ġkinyume": 1981,
      "Ġmifu": 1982,
      "Ġviwanja": 1983,
      "Ġmalipo": 1984,
      "kaa": 1985,
      "ongozwa": 1986,
      "Ġjioni": 1987,
      "Ġkuomba": 1988,
      "Ġhaina": 1989,
      "lote": 1990,
      "Ġuganda": 1991,
      "rti": 1992,
      "Ġuju": 1993,
      "hihi": 1994,
      "Ġfo": 1995,
      "Ġrisasi": 1996,
      "ita": 1997,
      "Ġkufanyika": 1998,
      "Ġkisheria": 1999,
      "shanga": 2000,
      "milika": 2001,
      "Ġkusikili": 2002,
      "Ġmaandalizi": 2003,
      "Ġkueleza": 2004,
      "mano": 2005,
      "Ġila": 2006,
      "lea": 2007,
      "Ġkatiba": 2008,
      "Ġhofu": 2009,
      "Ġkukaa": 2010,
      "Ġwenzake": 2011,
      "Ġambako": 2012,
      "Ġmalengo": 2013,
      "Ġmitambo": 2014,
      "damu": 2015,
      "Ġvili": 2016,
      "Ġvingine": 2017,
      "jui": 2018,
      "Ġmuunga": 2019,
      "Ġmchakato": 2020,
      "Ġidara": 2021,
      "Ġlolote": 2022,
      "Ġupinzani": 2023,
      "Ġmis": 2024,
      "Ġkufungwa": 2025,
      "Ġkubadili": 2026,
      "hudi": 2027,
      "Ġmanche": 2028,
      "on": 2029,
      "Ġuzalishaji": 2030,
      "Ġhana": 2031,
      "buni": 2032,
      "Ġwalipo": 2033,
      "wezesha": 2034,
      "Ġmuungano": 2035,
      "Ġmane": 2036,
      "Ġjuni": 2037,
      "Ġhasara": 2038,
      "Ġaprili": 2039,
      "Ġmanchester": 2040,
      "Ġmaneno": 2041,
      "staa": 2042,
      "Ġbaba": 2043,
      "ibuka": 2044,
      "Ġmaofisa": 2045,
      "hisi": 2046,
      "ndia": 2047,
      "ngea": 2048,
      "Ġseko": 2049,
      "thirika": 2050,
      "wezekana": 2051,
      "Ġdola": 2052,
      "Ġmshambuliaji": 2053,
      "Ġmani": 2054,
      "bitisha": 2055,
      "mond": 2056,
      "thibitisha": 2057,
      "Ġjose": 2058,
      "manja": 2059,
      "Ġhuru": 2060,
      "Ġmakundi": 2061,
      "Ġmbegu": 2062,
      "Ġsekondari": 2063,
      "uzi": 2064,
      "Ġmna": 2065,
      "Ġkali": 2066,
      "endeleza": 2067,
      "Ġamewa": 2068,
      "hani": 2069,
      "Ġndoa": 2070,
      "Ġkha": 2071,
      "tilia": 2072,
      "Ġsila": 2073,
      "Ġbandari": 2074,
      "Ġvipi": 2075,
      "Ġvurugu": 2076,
      "Ġyata": 2077,
      "Ġmago": 2078,
      "Ġmaso": 2079,
      "Ġmaoni": 2080,
      "kto": 2081,
      "ngele": 2082,
      "ndic": 2083,
      "Ġkondic": 2084,
      "ver": 2085,
      "Ġvika": 2086,
      "gar": 2087,
      "Ġjuhudi": 2088,
      "fanyiwa": 2089,
      "shindi": 2090,
      "Ġraia": 2091,
      "spaa": 2092,
      "lipuko": 2093,
      "Ġmanispaa": 2094,
      "Ġsilaha": 2095,
      "Ġsahihi": 2096,
      "Ġshahidi": 2097,
      "Ġutetezi": 2098,
      "kilishi": 2099,
      "Ġitakayo": 2100,
      "Ġmse": 2101,
      "Ġnani": 2102,
      "ndua": 2103,
      "husisha": 2104,
      "Ġmiezi": 2105,
      "Ġkulipwa": 2106,
      "Ġngazi": 2107,
      "Ġmichael": 2108,
      "Ġkushirikiana": 2109,
      "rica": 2110,
      "penzi": 2111,
      "dhamini": 2112,
      "Ġjiji": 2113,
      "Ġmaalum": 2114,
      "Ġwafu": 2115,
      "Ġmataifa": 2116,
      "Ġikiwemo": 2117,
      "Ġnusu": 2118,
      "Ġkuboresha": 2119,
      "Ġushirikia": 2120,
      "Ġabi": 2121,
      "Ġkilimanja": 2122,
      "Ġutendaji": 2123,
      "Ġushirikiano": 2124,
      "Ġkilimanjaro": 2125,
      "Ġkai": 2126,
      "kufa": 2127,
      "Ġdemokrasia": 2128,
      "Ġuvu": 2129,
      "Ġmacho": 2130,
      "shati": 2131,
      "Ġmwanzo": 2132,
      "Ġsaid": 2133,
      "Ġmazuri": 2134,
      "Ġziki": 2135,
      "Ġiliyokuwa": 2136,
      "staafu": 2137,
      "Ġmabe": 2138,
      "panda": 2139,
      "Ġmipa": 2140,
      "Ġutafiti": 2141,
      "Ġmawili": 2142,
      "Ġviwanda": 2143,
      "ngezeka": 2144,
      "wasi": 2145,
      "singi": 2146,
      "Ġsare": 2147,
      "Ġyeyote": 2148,
      "Ġafrica": 2149,
      "fanyia": 2150,
      "Ġmajeruhi": 2151,
      "ast": 2152,
      "kumbu": 2153,
      "Ġmiradi": 2154,
      "mbwa": 2155,
      "Ġfulani": 2156,
      "kri": 2157,
      "Ġkuko": 2158,
      "Ġmazungum": 2159,
      "Ġnishati": 2160,
      "Ġmgogoro": 2161,
      "Ġaskofu": 2162,
      "Ġmazungumzo": 2163,
      "Ġuba": 2164,
      "Ġmaza": 2165,
      "rehe": 2166,
      "Ġmwandishi": 2167,
      "Ġokto": 2168,
      "Ġoktoba": 2169,
      "onyesha": 2170,
      "lii": 2171,
      "siwa": 2172,
      "Ġkilo": 2173,
      "heshi": 2174,
      "Ġhuenda": 2175,
      "Ġjk": 2176,
      "kubaliana": 2177,
      "Ġama": 2178,
      "shahara": 2179,
      "tegemea": 2180,
      "pika": 2181,
      "Ġmei": 2182,
      "Ġkuingi": 2183,
      "Ġmfanya": 2184,
      "Ġivo": 2185,
      "Ġkisu": 2186,
      "Ġzambia": 2187,
      "Ġrich": 2188,
      "pungufu": 2189,
      "ziri": 2190,
      "jaa": 2191,
      "chungu": 2192,
      "Ġwatumishi": 2193,
      "Ġkutangaza": 2194,
      "kabiliwa": 2195,
      "Ġaji": 2196,
      "mosi": 2197,
      "Ġbot": 2198,
      "fuata": 2199,
      "ema": 2200,
      "lai": 2201,
      "lojia": 2202,
      "Ġlinalo": 2203,
      "Ġaidha": 2204,
      "Ġmanu": 2205,
      "siliano": 2206,
      "keti": 2207,
      "Ġrichmond": 2208,
      "Ġmachi": 2209,
      "dhamu": 2210,
      "Ġpande": 2211,
      "Ġjumamosi": 2212,
      "Ġuhusiano": 2213,
      "Ġzetu": 2214,
      "elezwa": 2215,
      "Ġwewe": 2216,
      "Ġutawala": 2217,
      "Ġmtendaji": 2218,
      "Ġmawasiliano": 2219,
      "Ġthamani": 2220,
      "Ġspika": 2221,
      "Ġsafi": 2222,
      "Ġngumu": 2223,
      "Ġkuzuia": 2224,
      "maji": 2225,
      "Ġmage": 2226,
      "Ġtamko": 2227,
      "chumi": 2228,
      "Ġkulipa": 2229,
      "ns": 2230,
      "Ġwacha": 2231,
      "Ġushauri": 2232,
      "mavu": 2233,
      "Ġkutekeleza": 2234,
      "julikana": 2235,
      "Ġmisri": 2236,
      "Ġmazao": 2237,
      "Ġkadi": 2238,
      "rere": 2239,
      "Ġmakuu": 2240,
      "Ġkupoteza": 2241,
      "marisha": 2242,
      "Ġmalalami": 2243,
      "ziki": 2244,
      "misho": 2245,
      "teli": 2246,
      "mbuli": 2247,
      "Ġsugar": 2248,
      "Ġmalalamiko": 2249,
      "Ġaza": 2250,
      "Ġmawaziri": 2251,
      "Ġbinadamu": 2252,
      "maha": 2253,
      "Ġmai": 2254,
      "Ġwanaweza": 2255,
      "nyanga": 2256,
      "dumu": 2257,
      "Ġkiuchumi": 2258,
      "Ġmtaa": 2259,
      "tajwa": 2260,
      "Ġswali": 2261,
      "hudia": 2262,
      "Ġphiri": 2263,
      "Ġcoast": 2264,
      "Ġnyerere": 2265,
      "Ġmag": 2266,
      "sikia": 2267,
      "lezi": 2268,
      "Ġmiwili": 2269,
      "Ġkuishi": 2270,
      "mbuzi": 2271,
      "Ġmwenyewe": 2272,
      "twaa": 2273,
      "Ġukim": 2274,
      "ny": 2275,
      "tua": 2276,
      "bio": 2277,
      "Ġsera": 2278,
      "Ġngassa": 2279,
      "Ġkuonesha": 2280,
      "Ġhuwa": 2281,
      "zoe": 2282,
      "ndao": 2283,
      "ngekuwa": 2284,
      "Ġmuziki": 2285,
      "Ġwizi": 2286,
      "Ġkuondoa": 2287,
      "ban": 2288,
      "Ġmatiba": 2289,
      "Ġkutokea": 2290,
      "giza": 2291,
      "Ġpesa": 2292,
      "Ġdaraja": 2293,
      "Ġjkt": 2294,
      "Ġivory": 2295,
      "Ġmatibabu": 2296,
      "ara": 2297,
      "Ġwaja": 2298,
      "Ġawa": 2299,
      "Ġkuwasilisha": 2300,
      "Ġshinyanga": 2301,
      "nyama": 2302,
      "Ġdereva": 2303,
      "Ġkiungo": 2304,
      "Ġwatendaji": 2305,
      "mke": 2306,
      "Ġwau": 2307,
      "Ġyako": 2308,
      "tihada": 2309,
      "san": 2310,
      "Ġjitihada": 2311,
      "Ġmaarufu": 2312,
      "vemba": 2313,
      "Ġwasio": 2314,
      "Ġnovemba": 2315,
      "Ġabiria": 2316,
      "wekwa": 2317,
      "raha": 2318,
      "Ġalikiri": 2319,
      "yumba": 2320,
      "tta": 2321,
      "Ġkuzungumza": 2322,
      "lenga": 2323,
      "Ġmashahidi": 2324,
      "Ġalieleza": 2325,
      "ngereza": 2326,
      "Ġkujia": 2327,
      "Ġkukabiliana": 2328,
      "Ġwais": 2329,
      "ribio": 2330,
      "huri": 2331,
      "ngua": 2332,
      "gawa": 2333,
      "Ġazam": 2334,
      "Ġalihoji": 2335,
      "Ġanaweza": 2336,
      "chungaji": 2337,
      "Ġkuibu": 2338,
      "Ġmikakati": 2339,
      "Ġmv": 2340,
      "liki": 2341,
      "Ġkutokuwa": 2342,
      "Ġjukumu": 2343,
      "Ġfaida": 2344,
      "Ġmwenza": 2345,
      "Ġmakamu": 2346,
      "ct": 2347,
      "rsa": 2348,
      "Ġubora": 2349,
      "Ġslaa": 2350,
      "Ġmasi": 2351,
      "shiki": 2352,
      "Ġsiyo": 2353,
      "Ġfursa": 2354,
      "Ġmeneja": 2355,
      "ward": 2356,
      "Ġsifa": 2357,
      "Ġwatakuwa": 2358,
      "lalamika": 2359,
      "Ġmadhara": 2360,
      "Ġvijijini": 2361,
      "Ġakitoa": 2362,
      "Ġkujibu": 2363,
      "Ġlenye": 2364,
      "Ġwaha": 2365,
      "Ġwapiga": 2366,
      "idizi": 2367,
      "Ġkupanda": 2368,
      "maliza": 2369,
      "fikishwa": 2370,
      "Ġmwishoni": 2371,
      "ingereza": 2372,
      "Ġuweze": 2373,
      "Ġiwe": 2374,
      "Ġbusanda": 2375,
      "riwa": 2376,
      "kua": 2377,
      "Ġmwak": 2378,
      "Ġlita": 2379,
      "Ġtiketi": 2380,
      "puka": 2381,
      "Ġkugombea": 2382,
      "Ġkanda": 2383,
      "ruhusu": 2384,
      "Ġmakao": 2385,
      "Ġkuanzisha": 2386,
      "sanii": 2387,
      "Ġedward": 2388,
      "pinga": 2389,
      "Ġwanatakiwa": 2390,
      "Ġwatakao": 2391,
      "Ġkufa": 2392,
      "kizi": 2393,
      "Ġkuwaa": 2394,
      "pokea": 2395,
      "ulizwa": 2396,
      "Ġmbinu": 2397,
      "ndele": 2398,
      "kodi": 2399,
      "Ġvifo": 2400,
      "ndisha": 2401,
      "Ġziara": 2402,
      "Ġpri": 2403,
      "Ġwapinzani": 2404,
      "Ġvyema": 2405,
      "Ġwataalamu": 2406,
      "Ġupe": 2407,
      "niki": 2408,
      "Ġvema": 2409,
      "Ġmkapa": 2410,
      "Ġwasiwasi": 2411,
      "lsea": 2412,
      "wazi": 2413,
      "Ġmahitaji": 2414,
      "Ġhawezi": 2415,
      "Ġalifafanua": 2416,
      "Ġjam": 2417,
      "Ġhoteli": 2418,
      "ghulikia": 2419,
      "Ġchelsea": 2420,
      "Ġwateja": 2421,
      "Ġmgumu": 2422,
      "Ġkume": 2423,
      "maini": 2424,
      "Ġchan": 2425,
      "Ġwanataka": 2426,
      "Ġulikuwa": 2427,
      "Ġhatima": 2428,
      "Ġjoseph": 2429,
      "Ġnidhamu": 2430,
      "Ġhalisi": 2431,
      "Ġmwanamke": 2432,
      "pelekwa": 2433,
      "Ġste": 2434,
      "madu": 2435,
      "Ġkiti": 2436,
      "uliza": 2437,
      "Ġmchana": 2438,
      "Ġkupokea": 2439,
      "Ġmajaribio": 2440,
      "Ġkusimamia": 2441,
      "maduni": 2442,
      "Ġyale": 2443,
      "taki": 2444,
      "Ġsalama": 2445,
      "Ġjulai": 2446,
      "storia": 2447,
      "Ġmaombi": 2448,
      "Ġmtibwa": 2449,
      "fungua": 2450,
      "nywa": 2451,
      "Ġmigo": 2452,
      "Ġkuuza": 2453,
      "Ġtek": 2454,
      "Ġkas": 2455,
      "Ġsitta": 2456,
      "Ġiliyotolewa": 2457,
      "Ġkukutana": 2458,
      "Ġbar": 2459,
      "Ġmoyo": 2460,
      "pelelezi": 2461,
      "Ġmtandao": 2462,
      "Ġzenye": 2463,
      "Ġkimya": 2464,
      "ili": 2465,
      "Ġmla": 2466,
      "Ġwasanii": 2467,
      "ringa": 2468,
      "zigo": 2469,
      "Ġiringa": 2470,
      "les": 2471,
      "fanye": 2472,
      "Ġinaweza": 2473,
      "Ġmchango": 2474,
      "Ġupo": 2475,
      "Ġmkulo": 2476,
      "Ġkujiunga": 2477,
      "Ġmipango": 2478,
      "ongeza": 2479,
      "jita": 2480,
      "poteza": 2481,
      "Ġkutolewa": 2482,
      "fia": 2483,
      "Ġakisema": 2484,
      "Ġkiwanda": 2485,
      "tambua": 2486,
      "Ġhakuwa": 2487,
      "jayo": 2488,
      "Ġsalu": 2489,
      "Ġchache": 2490,
      "goma": 2491,
      "pumba": 2492,
      "Ġmwekezaji": 2493,
      "Ġarse": 2494,
      "chunguza": 2495,
      "Ġajira": 2496,
      "Ġkuya": 2497,
      "Ġhiki": 2498,
      "rani": 2499,
      "ramu": 2500,
      "Ġwingi": 2501,
      "lipa": 2502,
      "Ġmasa": 2503,
      "mina": 2504,
      "nes": 2505,
      "Ġalipokuwa": 2506,
      "Ġkufuatia": 2507,
      "kano": 2508,
      "Ġasi": 2509,
      "Ġtamaa": 2510,
      "Ġreli": 2511,
      "Ġkumalizika": 2512,
      "Ġmifugo": 2513,
      "Ġujumla": 2514,
      "rl": 2515,
      "Ġujumbe": 2516,
      "Ġupungufu": 2517,
      "Ġmalu": 2518,
      "shima": 2519,
      "Ġsama": 2520,
      "Ġmoshi": 2521,
      "Ġdamu": 2522,
      "Ġmakazi": 2523,
      "Ġruvu": 2524,
      "Ġheshima": 2525,
      "Ġjamhuri": 2526,
      "Ġmalumbano": 2527,
      "kishwa": 2528,
      "Ġika": 2529,
      "Ġmila": 2530,
      "pum": 2531,
      "Ġfre": 2532,
      "Ġkupinga": 2533,
      "Ġmasharti": 2534,
      "Ġmakuba": 2535,
      "Ġkufuata": 2536,
      "ngeneza": 2537,
      "fla": 2538,
      "wasili": 2539,
      "lim": 2540,
      "Ġwavu": 2541,
      "mbani": 2542,
      "ol": 2543,
      "Ġkuzalisha": 2544,
      "Ġmau": 2545,
      "tuma": 2546,
      "Ġmtuhumiwa": 2547,
      "Ġnyaraka": 2548,
      "Ġfidia": 2549,
      "Ġkisasa": 2550,
      "Ġkuso": 2551,
      "Ġwaliyo": 2552,
      "Ġkisutu": 2553,
      "spoti": 2554,
      "Ġwanne": 2555,
      "endelee": 2556,
      "ndekezo": 2557,
      "Ġmwanaspoti": 2558,
      "Ġwakuu": 2559,
      "Ġluku": 2560,
      "Ġkununua": 2561,
      "Ġvilivyo": 2562,
      "Ġmakubaliano": 2563,
      "Ġkuwasaidia": 2564,
      "Ġatakuwa": 2565,
      "Ġushindani": 2566,
      "Ġkujadili": 2567,
      "Ġaha": 2568,
      "Ġijayo": 2569,
      "mishwa": 2570,
      "Ġmiti": 2571,
      "chote": 2572,
      "Ġripoti": 2573,
      "Ġchochote": 2574,
      "Ġkusha": 2575,
      "Ġkara": 2576,
      "Ġilala": 2577,
      "Ġmikono": 2578,
      "Ġkira": 2579,
      "ngani": 2580,
      "Ġkero": 2581,
      "Ġmajambazi": 2582,
      "Ġmitatu": 2583,
      "Ġnyota": 2584,
      "Ġmha": 2585,
      "Ġutu": 2586,
      "Ġubunge": 2587,
      "Ġuingereza": 2588,
      "lafu": 2589,
      "Ġlipumba": 2590,
      "kamata": 2591,
      "Ġhawaku": 2592,
      "llah": 2593,
      "sababi": 2594,
      "dd": 2595,
      "Ġkuche": 2596,
      "Ġkifungu": 2597,
      "nganisha": 2598,
      "Ġwanaume": 2599,
      "ndikisha": 2600,
      "Ġrashi": 2601,
      "Ġkumwa": 2602,
      "Ġutamaduni": 2603,
      "sheni": 2604,
      "Ġukimwi": 2605,
      "Ġahadi": 2606,
      "Ġkuwataka": 2607,
      "Ġliki": 2608,
      "mbiwa": 2609,
      "Ġmfupi": 2610,
      "Ġkuzingatia": 2611,
      "Ġkuibuka": 2612,
      "Ġutumi": 2613,
      "ngland": 2614,
      "yembe": 2615,
      "Ġhuyu": 2616,
      "Ġengland": 2617,
      "mbelea": 2618,
      "Ġawamu": 2619,
      "Ġuwezekano": 2620,
      "Ġkuhi": 2621,
      "Ġnita": 2622,
      "Ġmize": 2623,
      "Ġmishahara": 2624,
      "endeshwa": 2625,
      "Ġmjumbe": 2626,
      "koa": 2627,
      "nolojia": 2628,
      "Ġmgosi": 2629,
      "Ġalipoulizwa": 2630,
      "dhuria": 2631,
      "Ġsalum": 2632,
      "nna": 2633,
      "Ġkuweza": 2634,
      "faka": 2635,
      "Ġvo": 2636,
      "fikisha": 2637,
      "Ġhawaja": 2638,
      "Ġafrican": 2639,
      "mwe": 2640,
      "tri": 2641,
      "Ġis": 2642,
      "sabu": 2643,
      "Ġkuimarisha": 2644,
      "Ġmsaidizi": 2645,
      "Ġmakocha": 2646,
      "elelezo": 2647,
      "mpa": 2648,
      "Ġwajibu": 2649,
      "dio": 2650,
      "ngiwa": 2651,
      "Ġjanua": 2652,
      "Ġmwinyi": 2653,
      "nyika": 2654,
      "Ġmajukumu": 2655,
      "Ġlukuvi": 2656,
      "pte": 2657,
      "mbamba": 2658,
      "Ġalia": 2659,
      "Ġsiri": 2660,
      "Ġvijiji": 2661,
      "Ġongeze": 2662,
      "Ġmahali": 2663,
      "Ġunaweza": 2664,
      "Ġpwani": 2665,
      "Ġgeo": 2666,
      "Ġjanuari": 2667,
      "Ġongezeko": 2668,
      "Ġupelelezi": 2669,
      "kukuru": 2670,
      "Ġkija": 2671,
      "paji": 2672,
      "Ġtakukuru": 2673,
      "Ġiliyopo": 2674,
      "Ġkuendeleza": 2675,
      "chia": 2676,
      "Ġakili": 2677,
      "Ġrekodi": 2678,
      "ondoka": 2679,
      "Ġmvua": 2680,
      "Ġmwakyembe": 2681,
      "Ġarsenal": 2682,
      "Ġmchungaji": 2683,
      "hati": 2684,
      "Ġiko": 2685,
      "Ġbaina": 2686,
      "gizo": 2687,
      "Ġhaija": 2688,
      "Ġyasi": 2689,
      "Ġkadhi": 2690,
      "Ġima": 2691,
      "Ġviti": 2692,
      "gaji": 2693,
      "Ġmikopo": 2694,
      "Ġvikao": 2695,
      "Ġzikiwa": 2696,
      "Ġmwanafunzi": 2697,
      "kh": 2698,
      "Ġmja": 2699,
      "chana": 2700,
      "Ġkuwania": 2701,
      "sumbu": 2702,
      "nuzi": 2703,
      "beba": 2704,
      "Ġkusikia": 2705,
      "Ġmajengo": 2706,
      "Ġchombo": 2707,
      "Ġteknolojia": 2708,
      "rge": 2709,
      "liza": 2710,
      "Ġkumbu": 2711,
      "Ġvilla": 2712,
      "Ġkulinda": 2713,
      "Ġalba": 2714,
      "stahili": 2715,
      "Ġmapendekezo": 2716,
      "Ġufundi": 2717,
      "Ġwachache": 2718,
      "Ġutumishi": 2719,
      "Ġwazee": 2720,
      "Ġlao": 2721,
      "nganyi": 2722,
      "Ġmadega": 2723,
      "Ġam": 2724,
      "razi": 2725,
      "sanya": 2726,
      "patia": 2727,
      "Ġnzima": 2728,
      "Ġviu": 2729,
      "Ġambani": 2730,
      "Ġlilikuwa": 2731,
      "Ġmatukio": 2732,
      "gha": 2733,
      "ll": 2734,
      "lizo": 2735,
      "Ġhusu": 2736,
      "Ġwanasiasa": 2737,
      "Ġmfuko": 2738,
      "muziki": 2739,
      "Ġwapa": 2740,
      "Ġupya": 2741,
      "Ġsele": 2742,
      "Ġkato": 2743,
      "siwani": 2744,
      "Ġkitaifa": 2745,
      "refu": 2746,
      "dhimisho": 2747,
      "Ġrahisi": 2748,
      "Ġfc": 2749,
      "Ġmaadhimisho": 2750,
      "Ġofisini": 2751,
      "Ġkuchangia": 2752,
      "kataa": 2753,
      "Ġva": 2754,
      "luma": 2755,
      "Ġupatu": 2756,
      "Ġkukata": 2757,
      "Ġmaswali": 2758,
      "Ġwawekezaji": 2759,
      "nji": 2760,
      "tma": 2761,
      "waji": 2762,
      "Ġkudumu": 2763,
      "bidhi": 2764,
      "Ġilisema": 2765,
      "Ġmaadili": 2766,
      "Ġwakiwemo": 2767,
      "Ġmfulu": 2768,
      "Ġkaimu": 2769,
      "undwa": 2770,
      "Ġmahu": 2771,
      "Ġvyote": 2772,
      "Ġilipo": 2773,
      "Ġzile": 2774,
      "liam": 2775,
      "Ġtege": 2776,
      "ransa": 2777,
      "sse": 2778,
      "Ġmstaafu": 2779,
      "Ġwahusika": 2780,
      "yon": 2781,
      "nekana": 2782,
      "Ġmaandamano": 2783,
      "Ġmto": 2784,
      "Ġkuzungumzia": 2785,
      "Ġufa": 2786,
      "Ġhadhara": 2787,
      "Ġkite": 2788,
      "rusi": 2789,
      "Ġtuzo": 2790,
      "Ġgra": 2791,
      "fanikisha": 2792,
      "vaa": 2793,
      "Ġyupo": 2794,
      "Ġmkononi": 2795,
      "Ġabda": 2796,
      "Ġutaka": 2797,
      "Ġand": 2798,
      "Ġkijana": 2799,
      "funza": 2800,
      "Ġtani": 2801,
      "Ġkuamua": 2802,
      "Ġkujitokeza": 2803,
      "Ġkulingana": 2804,
      "tumiwa": 2805,
      "shuhudia": 2806,
      "milisha": 2807,
      "Ġmapambano": 2808,
      "fahamika": 2809,
      "Ġathu": 2810,
      "ambia": 2811,
      "Ġhalafu": 2812,
      "Ġsambamba": 2813,
      "Ġviwa": 2814,
      "Ġmwakale": 2815,
      "Ġrufaa": 2816,
      "mbulisho": 2817,
      "Ġrashid": 2818,
      "iro": 2819,
      "wt": 2820,
      "him": 2821,
      "Ġbakari": 2822,
      "Ġpasi": 2823,
      "Ġmashirika": 2824,
      "Ġkikuu": 2825,
      "Ġmadarakani": 2826,
      "Ġimara": 2827,
      "lipwa": 2828,
      "Ġufafan": 2829,
      "ndisi": 2830,
      "rume": 2831,
      "Ġsamaki": 2832,
      "Ġkirafiki": 2833,
      "Ġufafanuzi": 2834,
      "itwa": 2835,
      "uka": 2836,
      "Ġmzima": 2837,
      "Ġkuendesha": 2838,
      "Ġataka": 2839,
      "ndaliwa": 2840,
      "Ġzingine": 2841,
      "Ġimea": 2842,
      "Ġgereza": 2843,
      "Ġkipato": 2844,
      "Ġprison": 2845,
      "Ġmfululizo": 2846,
      "himbili": 2847,
      "mtaka": 2848,
      "ur": 2849,
      "Ġkichwa": 2850,
      "Ġmuhimbili": 2851,
      "ndoni": 2852,
      "Ġakau": 2853,
      "Ġlyon": 2854,
      "Ġmizengo": 2855,
      "tari": 2856,
      "Ġhistoria": 2857,
      "Ġbahati": 2858,
      "ngeweza": 2859,
      "Ġsepte": 2860,
      "Ġkulikuwa": 2861,
      "Ġmatumaini": 2862,
      "Ġabdallah": 2863,
      "Ġprisons": 2864,
      "ani": 2865,
      "rwa": 2866,
      "Ġmala": 2867,
      "Ġhatma": 2868,
      "kebi": 2869,
      "pool": 2870,
      "chezwa": 2871,
      "Ġliver": 2872,
      "lianza": 2873,
      "Ġkupigwa": 2874,
      "Ġkipigo": 2875,
      "Ġvinavyo": 2876,
      "Ġliverpool": 2877,
      "ikh": 2878,
      "Ġkufanikiwa": 2879,
      "hama": 2880,
      "bainika": 2881,
      "malizika": 2882,
      "Ġseptemba": 2883,
      "mamizi": 2884,
      "Ġmawe": 2885,
      "lazwa": 2886,
      "jaribu": 2887,
      "Ġwakubwa": 2888,
      "ruhiwa": 2889,
      "Ġmaiti": 2890,
      "Ġakaunti": 2891,
      "Ġyaki": 2892,
      "Ġhatia": 2893,
      "Ġhalali": 2894,
      "tuhumiwa": 2895,
      "Ġkino": 2896,
      "uawa": 2897,
      "Ġzombe": 2898,
      "Ġkuhama": 2899,
      "Ġgeorge": 2900,
      "ika": 2901,
      "mvi": 2902,
      "tha": 2903,
      "Ġmua": 2904,
      "Ġmzungu": 2905,
      "leta": 2906,
      "Ġchai": 2907,
      "Ġwakizungumza": 2908,
      "ckson": 2909,
      "Ġmikataba": 2910,
      "Ġwagombea": 2911,
      "Ġmate": 2912,
      "Ġib": 2913,
      "Ġhama": 2914,
      "bika": 2915,
      "Ġbeki": 2916,
      "Ġtoka": 2917,
      "Ġuliopita": 2918,
      "shangaa": 2919,
      "wongo": 2920,
      "Ġmshindi": 2921,
      "tatu": 2922,
      "shaji": 2923,
      "furahi": 2924,
      "gundua": 2925,
      "Ġpembe": 2926,
      "Ġyusu": 2927,
      "Ġkuonekana": 2928,
      "Ġamewataka": 2929,
      "Ġkinondoni": 2930,
      "wakilishi": 2931,
      "Ġkudhibiti": 2932,
      "Ġago": 2933,
      "ngga": 2934,
      "Ġiku": 2935,
      "kundu": 2936,
      "Ġkilango": 2937,
      "bela": 2938,
      "Ġwaathirika": 2939,
      "Ġkutengeneza": 2940,
      "Ġwilliam": 2941,
      "heshimiwa": 2942,
      "Ġmwakalebela": 2943,
      "lle": 2944,
      "tafuta": 2945,
      "pangwa": 2946,
      "lozi": 2947,
      "guliwa": 2948,
      "Ġkumpa": 2949,
      "Ġutata": 2950,
      "Ġjengo": 2951,
      "stawi": 2952,
      "Ġmapenzi": 2953,
      "Ġmfanyabiashara": 2954,
      "Ġmagharibi": 2955,
      "Ġhatimaye": 2956,
      "Ġkufanikisha": 2957,
      "Ġaliya": 2958,
      "Ġinaendelea": 2959,
      "Ġjirani": 2960,
      "jiandaa": 2961,
      "iambia": 2962,
      "Ġyuko": 2963,
      "Ġwenzao": 2964,
      "Ġkuelekea": 2965,
      "Ġyasiyo": 2966,
      "Ġikulu": 2967,
      "al": 2968,
      "Ġwaraka": 2969,
      "Ġkurejea": 2970,
      "tetea": 2971,
      "Ġmilipuko": 2972,
      "Ġinavyo": 2973,
      "ndoka": 2974,
      "Ġfer": 2975,
      "Ġufumbuzi": 2976,
      "bwe": 2977,
      "dhe": 2978,
      "wakabili": 2979,
      "Ġmri": 2980,
      "Ġkucho": 2981,
      "mes": 2982,
      "semaji": 2983,
      "Ġboni": 2984,
      "Ġmabaya": 2985,
      "Ġlilitokea": 2986,
      "Ġkusikiliza": 2987,
      "zoefu": 2988,
      "uza": 2989,
      "Ġmsu": 2990,
      "Ġkuhoji": 2991,
      "Ġkuchunguza": 2992,
      "jipanga": 2993,
      "Ġalipata": 2994,
      "semba": 2995,
      "Ġkuwasili": 2996,
      "Ġsakata": 2997,
      "pia": 2998,
      "Ġserikalini": 2999,
      "gia": 3000,
      "Ġkusikilizwa": 3001,
      "ifu": 3002,
      "nte": 3003,
      "rles": 3004,
      "nii": 3005,
      "Ġkimoja": 3006,
      "Ġvyu": 3007,
      "sudi": 3008,
      "Ġtrl": 3009,
      "Ġutakuwa": 3010,
      "Ġnyakati": 3011,
      "Ġkufuatilia": 3012,
      "Ġrwanda": 3013,
      "lwa": 3014,
      "Ġkukubali": 3015,
      "nggo": 3016,
      "sajili": 3017,
      "elewa": 3018,
      "Ġkuonyesha": 3019,
      "thiri": 3020,
      "Ġwenyeji": 3021,
      "Ġjumanne": 3022,
      "Ġjumatatu": 3023,
      "Ġabdu": 3024,
      "Ġkutimiza": 3025,
      "Ġviungo": 3026,
      "Ġufaransa": 3027,
      "sca": 3028,
      "ud": 3029,
      "Ġuzi": 3030,
      "kamilika": 3031,
      "siri": 3032,
      "Ġakina": 3033,
      "Ġombi": 3034,
      "Ġunajua": 3035,
      "Ġmkakati": 3036,
      "Ġmarekebi": 3037,
      "Ġusafiri": 3038,
      "kazini": 3039,
      "Ġkuanzishwa": 3040,
      "Ġisipokuwa": 3041,
      "Ġkaskazini": 3042,
      "Ġmarekebisho": 3043,
      "Ġmno": 3044,
      "tongo": 3045,
      "Ġmisingi": 3046,
      "Ġmajimaji": 3047,
      "Ġzilizopo": 3048,
      "mfanya": 3049,
      "ty": 3050,
      "Ġkelele": 3051,
      "Ġkusisitiza": 3052,
      "hadha": 3053,
      "Ġviku": 3054,
      "rodha": 3055,
      "Ġakiwemo": 3056,
      "Ġdesemba": 3057,
      "celo": 3058,
      "Ġkibali": 3059,
      "Ġviwango": 3060,
      "sikiti": 3061,
      "Ġwalizo": 3062,
      "Ġtra": 3063,
      "Ġnyimbo": 3064,
      "Ġkufungua": 3065,
      "Ġzilikuwa": 3066,
      "Ġkujiandaa": 3067,
      "Ġmzunguko": 3068,
      "Ġkutumika": 3069,
      "Ġindia": 3070,
      "Ġbahari": 3071,
      "ruhu": 3072,
      "Ġbinti": 3073,
      "mbulizi": 3074,
      "Ġmkali": 3075,
      "Ġuliofanyika": 3076,
      "Ġkushuka": 3077,
      "Ġmanufaa": 3078,
      "pumzi": 3079,
      "kabidhi": 3080,
      "tuba": 3081,
      "bidi": 3082,
      "ngoni": 3083,
      "Ġsene": 3084,
      "gogo": 3085,
      "Ġjackson": 3086,
      "jenga": 3087,
      "Ġakijibu": 3088,
      "mbukizi": 3089,
      "Ġkutambua": 3090,
      "Ġally": 3091,
      "Ġbarabarani": 3092,
      "Ġmrema": 3093,
      "if": 3094,
      "Ġmsemaji": 3095,
      "tishwa": 3096,
      "sikini": 3097,
      "Ġhifadhi": 3098,
      "Ġcharles": 3099,
      "Ġitaendelea": 3100,
      "Ġdeni": 3101,
      "Ġmakali": 3102,
      "Ġuliopo": 3103,
      "Ġkufikishwa": 3104,
      "Ġkuvunja": 3105,
      "Ġumasikini": 3106,
      "lili": 3107,
      "Ġkukamatwa": 3108,
      "Ġkushika": 3109,
      "Ġaibu": 3110,
      "zingatia": 3111,
      "kutwa": 3112,
      "Ġvingi": 3113,
      "Ġsemina": 3114,
      "Ġpatri": 3115,
      "Ġmussa": 3116,
      "Ġhukumu": 3117,
      "Ġyalikuwa": 3118,
      "Ġmazishi": 3119,
      "Ġmaelekezo": 3120,
      "Ġghafla": 3121,
      "nikiza": 3122,
      "Ġmuafaka": 3123,
      "anzi": 3124,
      "Ġwadogo": 3125,
      "Ġmahi": 3126,
      "pongeza": 3127,
      "ngazwa": 3128,
      "Ġathari": 3129,
      "Ġmasomo": 3130,
      "kristo": 3131,
      "Ġmwenzake": 3132,
      "Ġmwongo": 3133,
      "timu": 3134,
      "tembelea": 3135,
      "Ġmitano": 3136,
      "shirikisha": 3137,
      "zembe": 3138,
      "suko": 3139,
      "Ġvyao": 3140,
      "Ġhaikuwa": 3141,
      "Ġmawazo": 3142,
      "Ġwaislamu": 3143,
      "Ġbarcelo": 3144,
      "Ġagosti": 3145,
      "Ġbonifa": 3146,
      "Ġbarcelona": 3147,
      "hri": 3148,
      "nce": 3149,
      "lifu": 3150,
      "Ġkuni": 3151,
      "Ġkutwaa": 3152,
      "rio": 3153,
      "Ġidd": 3154,
      "Ġnja": 3155,
      "Ġilitolewa": 3156,
      "resheni": 3157,
      "Ġanaamini": 3158,
      "Ġpau": 3159,
      "Ġchri": 3160,
      "Ġzoezi": 3161,
      "hitajika": 3162,
      "Ġilivyokuwa": 3163,
      "Ġkumbukumbu": 3164,
      "khe": 3165,
      "pp": 3166,
      "vis": 3167,
      "wadi": 3168,
      "Ġkuchukuliwa": 3169,
      "Ġnaamini": 3170,
      "tolea": 3171,
      "jeshi": 3172,
      "Ġmume": 3173,
      "Ġmaambukizi": 3174,
      "Ġpeter": 3175,
      "Ġkupatikana": 3176,
      "vamia": 3177,
      "Ġzimekuwa": 3178,
      "Ġhazina": 3179,
      "Ġkuepuka": 3180,
      "Ġmabeki": 3181,
      "Ġboniface": 3182,
      "Ġgi": 3183,
      "liko": 3184,
      "Ġkuongoza": 3185,
      "Ġmacha": 3186,
      "sikili": 3187,
      "semwa": 3188,
      "Ġnika": 3189,
      "Ġvisiwani": 3190,
      "wishi": 3191,
      "hakiki": 3192,
      "Ġmsanii": 3193,
      "Ġwaza": 3194,
      "mas": 3195,
      "Ġseif": 3196,
      "Ġhawawezi": 3197,
      "endeshaji": 3198,
      "thmini": 3199,
      "Ġibrahi": 3200,
      "Ġw": 3201,
      "Ġwamiliki": 3202,
      "yansi": 3203,
      "Ġustawi": 3204,
      "zaliwa": 3205,
      "kimu": 3206,
      "Ġiju": 3207,
      "Ġkitaa": 3208,
      "Ġmingi": 3209,
      "Ġvime": 3210,
      "Ġshida": 3211,
      "Ġkukamilisha": 3212,
      "Ġgeita": 3213,
      "Ġyule": 3214,
      "Ġinter": 3215,
      "brua": 3216,
      "phe": 3217,
      "wafanya": 3218,
      "Ġkureje": 3219,
      "Ġiweze": 3220,
      "Ġmwamuzi": 3221,
      "Ġzitaka": 3222,
      "Ġole": 3223,
      "Ġfebrua": 3224,
      "Ġkusafi": 3225,
      "Ġkukataa": 3226,
      "Ġjopo": 3227,
      "fadhili": 3228,
      "shangazwa": 3229,
      "Ġuongo": 3230,
      "Ġazi": 3231,
      "Ġkarume": 3232,
      "Ġkifu": 3233,
      "gal": 3234,
      "Ġwatano": 3235,
      "Ġkusamba": 3236,
      "Ġmwanasheria": 3237,
      "Ġchetu": 3238,
      "Ġkujali": 3239,
      "Ġijumaa": 3240,
      "Ġmheshimiwa": 3241,
      "Ġhami": 3242,
      "mio": 3243,
      "Ġanaripoti": 3244,
      "Ġpicha": 3245,
      "Ġkuongezeka": 3246,
      "Ġoma": 3247,
      "kwamisha": 3248,
      "Ġkufuta": 3249,
      "Ġuwekezaji": 3250,
      "Ġmwongozo": 3251,
      "ana": 3252,
      "sua": 3253,
      "skofu": 3254,
      "tto": 3255,
      "Ġmvu": 3256,
      "kadi": 3257,
      "bali": 3258,
      "lau": 3259,
      "raba": 3260,
      "ngamano": 3261,
      "Ġvigumu": 3262,
      "Ġkamwe": 3263,
      "Ġkwanini": 3264,
      "bainisha": 3265,
      "Ġgesi": 3266,
      "com": 3267,
      "Ġvitambulisho": 3268,
      "Ġsenegal": 3269,
      "Ġfebruari": 3270,
      "ad": 3271,
      "Ġmlipuko": 3272,
      "lius": 3273,
      "Ġnaho": 3274,
      "bani": 3275,
      "Ġkase": 3276,
      "sira": 3277,
      "Ġtabora": 3278,
      "Ġtakwi": 3279,
      "Ġwanaendelea": 3280,
      "Ġjulius": 3281,
      "Ġkuifunga": 3282,
      "Ġwakidai": 3283,
      "Ġbendi": 3284,
      "chukulia": 3285,
      "Ġsura": 3286,
      "Ġburu": 3287,
      "Ġhaiwezi": 3288,
      "Ġfuraha": 3289,
      "Ġwakurugenzi": 3290,
      "Ġwaumini": 3291,
      "Ġtakwimu": 3292,
      "Ġwawakilishi": 3293,
      "Ġuendeshaji": 3294,
      "chika": 3295,
      "Ġzipo": 3296,
      "Ġliyumba": 3297,
      "Ġinadaiwa": 3298,
      "Ġrafiki": 3299,
      "soro": 3300,
      "Ġbenchi": 3301,
      "Ġkupanga": 3302,
      "shughulikia": 3303,
      "Ġchuji": 3304,
      "Ġlowa": 3305,
      "Ġmadeni": 3306,
      "Ġkitengo": 3307,
      "ahidi": 3308,
      "Ġkufanyiwa": 3309,
      "Ġnaomba": 3310,
      "Ġmagumu": 3311,
      "Ġkamili": 3312,
      "Ġalivyo": 3313,
      "dacom": 3314,
      "Ġtawi": 3315,
      "shinikiza": 3316,
      "Ġmiili": 3317,
      "piki": 3318,
      "chiwa": 3319,
      "Ġdalili": 3320,
      "Ġkuandika": 3321,
      "Ġmaafa": 3322,
      "vid": 3323,
      "Ġshaka": 3324,
      "Ġhesabu": 3325,
      "Ġmtihani": 3326,
      "Ġmbio": 3327,
      "jitahidi": 3328,
      "Ġvodacom": 3329,
      "Ġuzinduzi": 3330,
      "Ġibrahim": 3331,
      "Ġlowassa": 3332,
      "Ġmabi": 3333,
      "saha": 3334,
      "Ġzangu": 3335,
      "Ġlab": 3336,
      "Ġmeli": 3337,
      "Ġmaaskofu": 3338,
      "Ġposho": 3339,
      "Ġsulu": 3340,
      "Ġnguo": 3341,
      "Ġhewa": 3342,
      "Ġukaguzi": 3343,
      "ondoa": 3344,
      "Ġulemavu": 3345,
      "razil": 3346,
      "Ġngele": 3347,
      "Ġkupeleka": 3348,
      "Ġuzoefu": 3349,
      "Ġkia": 3350,
      "Ġtakri": 3351,
      "Ġmikuta": 3352,
      "Ġwalivyo": 3353,
      "gambo": 3354,
      "Ġmwakilishi": 3355,
      "Ġrama": 3356,
      "Ġrasili": 3357,
      "Ġtoto": 3358,
      "Ġmwene": 3359,
      "Ġmatatu": 3360,
      "Ġchumba": 3361,
      "Ġajabu": 3362,
      "Ġukumbi": 3363,
      "Ġmagereza": 3364,
      "Ġkijamii": 3365,
      "Ġmrisho": 3366,
      "Ġmikutano": 3367,
      "Ġrasilimali": 3368,
      "cto": 3369,
      "wataka": 3370,
      "Ġwageni": 3371,
      "tion": 3372,
      "Ġalianza": 3373,
      "ment": 3374,
      "tende": 3375,
      "Ġnjaa": 3376,
      "chezea": 3377,
      "Ġziwa": 3378,
      "dhifa": 3379,
      "shtaka": 3380,
      "Ġope": 3381,
      "Ġsheikh": 3382,
      "Ġpenal": 3383,
      "Ġmwananchi": 3384,
      "Ġsule": 3385,
      "Ġmsamaha": 3386,
      "Ġaliwahi": 3387,
      "cio": 3388,
      "Ġmarcio": 3389,
      "Ġwafuasi": 3390,
      "Ġaliyasema": 3391,
      "Ġpatrick": 3392,
      "Ġpenalti": 3393,
      "Ġgu": 3394,
      "Ġwapenzi": 3395,
      "Ġkubaki": 3396,
      "Ġagizo": 3397,
      "Ġmashtaka": 3398,
      "Ġhusse": 3399,
      "miaji": 3400,
      "kwazo": 3401,
      "Ġkupatiwa": 3402,
      "Ġkutetea": 3403,
      "Ġhaita": 3404,
      "Ġisiyo": 3405,
      "Ġmjadala": 3406,
      "Ġamri": 3407,
      "Ġgrace": 3408,
      "Ġathuman": 3409,
      "tongoji": 3410,
      "ruhusiwa": 3411,
      "Ġkaseja": 3412,
      "the": 3413,
      "Ġmbu": 3414,
      "Ġmso": 3415,
      "lie": 3416,
      "Ġmadogo": 3417,
      "jikuta": 3418,
      "fara": 3419,
      "elezea": 3420,
      "pesi": 3421,
      "Ġkuandaa": 3422,
      "Ġkuhusika": 3423,
      "Ġkukamilika": 3424,
      "shuka": 3425,
      "pta": 3426,
      "Ġkusu": 3427,
      "Ġhispa": 3428,
      "ton": 3429,
      "Ġtawala": 3430,
      "tekeleza": 3431,
      "Ġsiwezi": 3432,
      "Ġwanapo": 3433,
      "fikiwa": 3434,
      "Ġsende": 3435,
      "Ġtuki": 3436,
      "Ġkujifunza": 3437,
      "Ġmabasi": 3438,
      "Ġbuko": 3439,
      "fikiri": 3440,
      "Ġprog": 3441,
      "fuatilia": 3442,
      "Ġmsekwa": 3443,
      "Ġvyuo": 3444,
      "Ġngeleja": 3445,
      "lp": 3446,
      "Ġnk": 3447,
      "toe": 3448,
      "bino": 3449,
      "saini": 3450,
      "pambana": 3451,
      "Ġtanes": 3452,
      "keo": 3453,
      "ngamizi": 3454,
      "Ġvielelezo": 3455,
      "Ġvipaji": 3456,
      "jumu": 3457,
      "Ġjangwa": 3458,
      "Ġtlp": 3459,
      "Ġhatuwezi": 3460,
      "Ġmisamaha": 3461,
      "Ġdarasa": 3462,
      "shikilia": 3463,
      "Ġutakao": 3464,
      "Ġzitakazo": 3465,
      "Ġtanesco": 3466,
      "linda": 3467,
      "Ġwanyama": 3468,
      "Ġmagonjwa": 3469,
      "saji": 3470,
      "fuku": 3471,
      "sefu": 3472,
      "Ġzawadi": 3473,
      "Ġrangi": 3474,
      "zwaji": 3475,
      "ridhika": 3476,
      "Ġukosefu": 3477,
      "Ġwafugaji": 3478,
      "Ġmigogoro": 3479,
      "Ġhispania": 3480,
      "Ġwaamuzi": 3481,
      "Ġkure": 3482,
      "Ġnazo": 3483,
      "Ġmaho": 3484,
      "Ġmanya": 3485,
      "Ġhisia": 3486,
      "Ġwanayo": 3487,
      "Ġwanafanya": 3488,
      "pende": 3489,
      "Ġhotuba": 3490,
      "Ġjene": 3491,
      "Ġhawata": 3492,
      "Ġmashu": 3493,
      "Ġkufikisha": 3494,
      "Ġlimekuwa": 3495,
      "mka": 3496,
      "kala": 3497,
      "Ġale": 3498,
      "Ġissa": 3499,
      "Ġkigoma": 3500,
      "kebisha": 3501,
      "Ġmingine": 3502,
      "Ġilianza": 3503,
      "mon": 3504,
      "ndikwa": 3505,
      "Ġtiba": 3506,
      "rou": 3507,
      "Ġanataka": 3508,
      "Ġpingamizi": 3509,
      "Ġkuamini": 3510,
      "Ġkumtaka": 3511,
      "Ġmgonjwa": 3512,
      "wasilishwa": 3513,
      "Ġabdul": 3514,
      "Ġnahodha": 3515,
      "Ġoperesheni": 3516,
      "ftari": 3517,
      "ongezeka": 3518,
      "wama": 3519,
      "Ġmsta": 3520,
      "Ġmgeni": 3521,
      "Ġwahi": 3522,
      "Ġhisa": 3523,
      "leni": 3524,
      "menti": 3525,
      "fuu": 3526,
      "mivu": 3527,
      "heni": 3528,
      "Ġlawama": 3529,
      "Ġmiku": 3530,
      "Ġmizigo": 3531,
      "Ġwanatarajia": 3532,
      "Ġjames": 3533,
      "Ġwameanza": 3534,
      "Ġletu": 3535,
      "Ġkupita": 3536,
      "Ġkilisema": 3537,
      "Ġsongea": 3538,
      "Ġmwanamuziki": 3539,
      "Ġkuchagua": 3540,
      "Ġkukuza": 3541,
      "Ġlabda": 3542,
      "Ġhussein": 3543,
      "Ġwadhamini": 3544,
      "hana": 3545,
      "manu": 3546,
      "Ġalifanya": 3547,
      "fau": 3548,
      "lewe": 3549,
      "saka": 3550,
      "Ġlikiwa": 3551,
      "Ġdavid": 3552,
      "Ġbihara": 3553,
      "jiano": 3554,
      "Ġpemba": 3555,
      "Ġhadharani": 3556,
      "Ġmahojiano": 3557,
      "fre": 3558,
      "wasilisha": 3559,
      "hami": 3560,
      "Ġudha": 3561,
      "Ġalicho": 3562,
      "mewa": 3563,
      "fungia": 3564,
      "Ġwanapaswa": 3565,
      "Ġwalianza": 3566,
      "runa": 3567,
      "Ġjamaa": 3568,
      "Ġzisi": 3569,
      "Ġbingwa": 3570,
      "Ġinawezekana": 3571,
      "Ġjibu": 3572,
      "Ġkwetu": 3573,
      "Ġuliotolewa": 3574,
      "Ġalbino": 3575,
      "endera": 3576,
      "Ġmitihani": 3577,
      "Ġhamad": 3578,
      "Ġsulei": 3579,
      "manuel": 3580,
      "itaka": 3581,
      "nsia": 3582,
      "Ġmra": 3583,
      "Ġkulia": 3584,
      "Ġufani": 3585,
      "Ġmadi": 3586,
      "Ġkida": 3587,
      "Ġaliendelea": 3588,
      "tes": 3589,
      "Ġmwai": 3590,
      "gopa": 3591,
      "Ġinaonekana": 3592,
      "Ġkova": 3593,
      "Ġimeanza": 3594,
      "Ġkuunda": 3595,
      "Ġrufani": 3596,
      "Ġshahada": 3597,
      "Ġdusan": 3598,
      "stani": 3599,
      "Ġjimboni": 3600,
      "Ġmbowe": 3601,
      "ridhisha": 3602,
      "ingiza": 3603,
      "nganishwa": 3604,
      "nry": 3605,
      "td": 3606,
      "unda": 3607,
      "limisha": 3608,
      "Ġharuna": 3609,
      "jadili": 3610,
      "rali": 3611,
      "Ġkide": 3612,
      "leza": 3613,
      "Ġzitto": 3614,
      "road": 3615,
      "Ġjukwa": 3616,
      "Ġkuifanya": 3617,
      "luki": 3618,
      "Ġjumatano": 3619,
      "Ġhenry": 3620,
      "Ġlugha": 3621,
      "Ġnilikuwa": 3622,
      "Ġmganga": 3623,
      "Ġurais": 3624,
      "rabati": 3625,
      "iomba": 3626,
      "Ġkugo": 3627,
      "Ġmahe": 3628,
      "Ġmaone": 3629,
      "ris": 3630,
      "Ġkash": 3631,
      "hudhuria": 3632,
      "Ġkigeni": 3633,
      "Ġalizo": 3634,
      "Ġsina": 3635,
      "Ġsingi": 3636,
      "Ġbendera": 3637,
      "ndamizi": 3638,
      "Ġwanadaiwa": 3639,
      "Ġanatakiwa": 3640,
      "Ġmusta": 3641,
      "suru": 3642,
      "shwe": 3643,
      "Ġkuiba": 3644,
      "Ġorodha": 3645,
      "riadha": 3646,
      "Ġwaliopo": 3647,
      "Ġtunataka": 3648,
      "Ġkusaini": 3649,
      "Ġmwanachama": 3650,
      "Ġgod": 3651,
      "Ġmaumivu": 3652,
      "Ġufanisi": 3653,
      "Ġmaonesho": 3654,
      "Ġkashfa": 3655,
      "Ġpu": 3656,
      "nard": 3657,
      "Ġmli": 3658,
      "Ġmpenzi": 3659,
      "Ġkuthibitisha": 3660,
      "Ġnadhani": 3661,
      "chagua": 3662,
      "Ġzima": 3663,
      "Ġci": 3664,
      "Ġkazini": 3665,
      "Ġshekhe": 3666,
      "milifu": 3667,
      "Ġusafi": 3668,
      "Ġdharu": 3669,
      "Ġkuvuna": 3670,
      "nzetu": 3671,
      "kwisha": 3672,
      "sababishwa": 3673,
      "vya": 3674,
      "liga": 3675,
      "Ġkusoma": 3676,
      "Ġukia": 3677,
      "Ġuso": 3678,
      "Ġumbali": 3679,
      "Ġanga": 3680,
      "Ġkiji": 3681,
      "Ġkipe": 3682,
      "Ġbaya": 3683,
      "Ġpapo": 3684,
      "Ġkumpiga": 3685,
      "Ġkusaka": 3686,
      "ven": 3687,
      "Ġhospitalini": 3688,
      "Ġvitabu": 3689,
      "Ġltd": 3690,
      "lalamikia": 3691,
      "Ġbusara": 3692,
      "Ġurafiki": 3693,
      "shikiliwa": 3694,
      "Ġalex": 3695,
      "Ġmstari": 3696,
      "Ġsingida": 3697,
      "Ġwasa": 3698,
      "mbaji": 3699,
      "Ġalikwenda": 3700,
      "dan": 3701,
      "Ġchao": 3702,
      "Ġwanacho": 3703,
      "Ġpambano": 3704,
      "Ġkutatua": 3705,
      "Ġmgodi": 3706,
      "Ġmadaktari": 3707,
      "Ġrobo": 3708,
      "rahisi": 3709,
      "Ġitakapo": 3710,
      "Ġuvuvi": 3711,
      "Ġzisizo": 3712,
      "Ġsuleiman": 3713,
      "uliwa": 3714,
      "Ġkusubiri": 3715,
      "Ġugo": 3716,
      "Ġkie": 3717,
      "Ġbrazil": 3718,
      "ngilia": 3719,
      "nganya": 3720,
      "Ġwalim": 3721,
      "Ġziada": 3722,
      "zua": 3723,
      "Ġinapo": 3724,
      "Ġratiba": 3725,
      "geria": 3726,
      "Ġtaaluma": 3727,
      "bert": 3728,
      "Ġchiliga": 3729,
      "Ġusimamizi": 3730,
      "Ġkukimbia": 3731,
      "Ġkurudisha": 3732,
      "Ġmikononi": 3733,
      "Ġchiligati": 3734,
      "livu": 3735,
      "Ġwapya": 3736,
      "mbabwe": 3737,
      "Ġtarehe": 3738,
      "Ġkoro": 3739,
      "nufa": 3740,
      "toaji": 3741,
      "Ġshuti": 3742,
      "Ġkutajwa": 3743,
      "Ġumekuwa": 3744,
      "Ġyalisemwa": 3745,
      "Ġkidato": 3746,
      "ld": 3747,
      "Ġsho": 3748,
      "jiunga": 3749,
      "tus": 3750,
      "mulo": 3751,
      "Ġtathmini": 3752,
      "Ġsauti": 3753,
      "Ġmahakimu": 3754,
      "nunuzi": 3755,
      "Ġmashambulizi": 3756,
      "Ġduni": 3757,
      "shukuru": 3758,
      "Ġhaiku": 3759,
      "Ġheliko": 3760,
      "Ġmagoli": 3761,
      "Ġbiharamulo": 3762,
      "Ġhelikopta": 3763,
      "umbele": 3764,
      "Ġukiwa": 3765,
      "Ġkabu": 3766,
      "Ġkibiashara": 3767,
      "mita": 3768,
      "Ġtict": 3769,
      "Ġanatarajia": 3770,
      "Ġinatarajia": 3771,
      "ndoa": 3772,
      "Ġwalionekana": 3773,
      "bovu": 3774,
      "Ġutalii": 3775,
      "Ġmwingi": 3776,
      "tumikia": 3777,
      "nyiko": 3778,
      "Ġusio": 3779,
      "Ġdhana": 3780,
      "Ġumakini": 3781,
      "Ġgoli": 3782,
      "Ġticts": 3783,
      "aji": 3784,
      "Ġmratibu": 3785,
      "Ġkuke": 3786,
      "Ġud": 3787,
      "Ġugeni": 3788,
      "Ġada": 3789,
      "Ġange": 3790,
      "Ġkatikati": 3791,
      "Ġsayansi": 3792,
      "Ġwanasema": 3793,
      "Ġinakuwa": 3794,
      "Ġakitokea": 3795,
      "Ġwimbo": 3796,
      "Ġsherehe": 3797,
      "Ġmashine": 3798,
      "Ġngozi": 3799,
      "Ġkukabidhi": 3800,
      "Ġmeneji": 3801,
      "pha": 3802,
      "Ġkye": 3803,
      "Ġuzazi": 3804,
      "Ġkada": 3805,
      "Ġilani": 3806,
      "Ġkingine": 3807,
      "nesha": 3808,
      "Ġsafu": 3809,
      "hofia": 3810,
      "Ġeti": 3811,
      "Ġinatokana": 3812,
      "Ġraja": 3813,
      "Ġamea": 3814,
      "Ġtele": 3815,
      "Ġmsitu": 3816,
      "Ġmsafara": 3817,
      "Ġaliwataja": 3818,
      "Ġmtanzania": 3819,
      "Ġvipimo": 3820,
      "Ġprogramu": 3821,
      "Ġdharura": 3822,
      "Ġkyela": 3823,
      "Ġmzigo": 3824,
      "Ġkuba": 3825,
      "Ġushiriki": 3826,
      "Ġutoaji": 3827,
      "Ġalo": 3828,
      "Ġkasoro": 3829,
      "simu": 3830,
      "Ġwalidai": 3831,
      "Ġendele": 3832,
      "Ġvyanzo": 3833,
      "Ġpiki": 3834,
      "Ġshein": 3835,
      "Ġyaliyokuwa": 3836,
      "Ġkambini": 3837,
      "Ġkusimama": 3838,
      "Ġmwanzoni": 3839,
      "Ġmilan": 3840,
      "Ġalbamu": 3841,
      "Ġugomvi": 3842,
      "skini": 3843,
      "Ġuo": 3844,
      "Ġasasi": 3845,
      "Ġkizuri": 3846,
      "Ġaliiambia": 3847,
      "Ġzabuni": 3848,
      "Ġzimbabwe": 3849,
      "Ġwenzetu": 3850,
      "Ġkuajiri": 3851,
      "Ġwaliokufa": 3852,
      "Ġkusajili": 3853,
      "Ġreal": 3854,
      "Ġshuleni": 3855,
      "Ġkikamilifu": 3856,
      "Ġumaskini": 3857,
      "Ġnew": 3858,
      "Ġmasoko": 3859,
      "Ġwaislam": 3860,
      "visheni": 3861,
      "Ġkupelekwa": 3862,
      "Ġuzembe": 3863,
      "Ġnafuu": 3864,
      "mai": 3865,
      "Ġhadhi": 3866,
      "Ġkiis": 3867,
      "Ġkidini": 3868,
      "busu": 3869,
      "Ġem": 3870,
      "Ġanadaiwa": 3871,
      "Ġanafafanua": 3872,
      "Ġinapaswa": 3873,
      "Ġpanya": 3874,
      "Ġkuokoa": 3875,
      "Ġmahabusu": 3876,
      "Ġwakiendelea": 3877,
      "Ġhosea": 3878,
      "cela": 3879,
      "Ġchuki": 3880,
      "Ġkuondokana": 3881,
      "Ġkabila": 3882,
      "Ġmalecela": 3883,
      "Ġkuingilia": 3884,
      "Ġmenejimenti": 3885,
      "Ġmshi": 3886,
      "Ġwario": 3887,
      "Ġaweze": 3888,
      "kimbia": 3889,
      "chapa": 3890,
      "shiwa": 3891,
      "Ġvirusi": 3892,
      "horo": 3893,
      "Ġchaguzi": 3894,
      "elekea": 3895,
      "cheze": 3896,
      "jengwa": 3897,
      "jeruhiwa": 3898,
      "Ġraha": 3899,
      "Ġpindi": 3900,
      "mbuliwa": 3901,
      "Ġkutaja": 3902,
      "Ġpengine": 3903,
      "Ġkawambwa": 3904,
      "Ġlililofungwa": 3905,
      "Ġghasia": 3906,
      "Ġkuachana": 3907,
      "Ġkuhamasisha": 3908,
      "Ġpembeni": 3909,
      "Ġwarioba": 3910,
      "hifadhi": 3911,
      "Ġawe": 3912,
      "Ġmabili": 3913,
      "Ġhasira": 3914,
      "biwa": 3915,
      "Ġniki": 3916,
      "Ġsame": 3917,
      "Ġvigogo": 3918,
      "Ġlindi": 3919,
      "Ġwameamua": 3920,
      "Ġkuunga": 3921,
      "Ġhatuna": 3922,
      "Ġitalia": 3923,
      "Ġjinai": 3924,
      "Ġkulevya": 3925,
      "Ġkushughulikia": 3926,
      "Ġruvuma": 3927,
      "Ġugenini": 3928,
      "Ġmabilioni": 3929,
      "fya": 3930,
      "ssi": 3931,
      "nayo": 3932,
      "Ġwastani": 3933,
      "Ġnawa": 3934,
      "Ġami": 3935,
      "lekeo": 3936,
      "Ġnjo": 3937,
      "Ġtre": 3938,
      "Ġimekuja": 3939,
      "Ġkumwo": 3940,
      "Ġwodi": 3941,
      "Ġumebaini": 3942,
      "Ġuliofanywa": 3943,
      "shughuli": 3944,
      "milikiwa": 3945,
      "Ġjoto": 3946,
      "Ġwalemavu": 3947,
      "Ġmtambo": 3948,
      "Ġmbona": 3949,
      "Ġmkewe": 3950,
      "Ġtelevisheni": 3951,
      "ule": 3952,
      "wakili": 3953,
      "Ġwakia": 3954,
      "Ġwashambuliaji": 3955,
      "Ġst": 3956,
      "Ġkahama": 3957,
      "Ġipa": 3958,
      "mela": 3959,
      "Ġilidaiwa": 3960,
      "Ġjadi": 3961,
      "Ġlini": 3962,
      "Ġlingine": 3963,
      "Ġdada": 3964,
      "Ġinatakiwa": 3965,
      "gezo": 3966,
      "Ġce": 3967,
      "Ġof": 3968,
      "kwama": 3969,
      "Ġmatanga": 3970,
      "Ġhawakuwa": 3971,
      "Ġruma": 3972,
      "Ġmgomo": 3973,
      "Ġalipozungumza": 3974,
      "Ġushirika": 3975,
      "Ġmteja": 3976,
      "somaji": 3977,
      "Ġmwenendo": 3978,
      "Ġemmanuel": 3979,
      "mkabili": 3980,
      "nso": 3981,
      "rry": 3982,
      "Ġkuza": 3983,
      "Ġkulala": 3984,
      "raji": 3985,
      "Ġalishindwa": 3986,
      "kewa": 3987,
      "zote": 3988,
      "Ġbalozi": 3989,
      "Ġvicto": 3990,
      "Ġmosi": 3991,
      "Ġdani": 3992,
      "Ġwakala": 3993,
      "guson": 3994,
      "Ġfra": 3995,
      "Ġkutakuwa": 3996,
      "Ġzozote": 3997,
      "Ġmakala": 3998,
      "Ġzilizopita": 3999,
      "Ġmajaji": 4000,
      "Ġyamekuwa": 4001,
      "Ġmfanyakazi": 4002,
      "Ġhususani": 4003,
      "Ġferguson": 4004,
      "aban": 4005,
      "endi": 4006,
      "mp": 4007,
      "mkia": 4008,
      "wazito": 4009,
      "Ġmzazi": 4010,
      "lika": 4011,
      "Ġyakiwa": 4012,
      "Ġmadri": 4013,
      "Ġkaka": 4014,
      "mish": 4015,
      "moro": 4016,
      "Ġinafanya": 4017,
      "vunja": 4018,
      "Ġmarafiki": 4019,
      "Ġshaaban": 4020,
      "Ġluca": 4021,
      "Ġkuzidi": 4022,
      "Ġkuharibu": 4023,
      "Ġghana": 4024,
      "Ġkuwapatia": 4025,
      "Ġvinginevyo": 4026,
      "Ġwajawazito": 4027,
      "Ġkuhifadhi": 4028,
      "Ġpikipiki": 4029,
      "Ġdaniel": 4030,
      "Ġmadrid": 4031,
      "mishna": 4032,
      "Ġlucas": 4033,
      "bc": 4034,
      "uzu": 4035,
      "Ġkubeba": 4036,
      "Ġubu": 4037,
      "Ġalifunga": 4038,
      "shangaza": 4039,
      "Ġwanavyo": 4040,
      "gen": 4041,
      "Ġjingine": 4042,
      "Ġcongo": 4043,
      "Ġmashamba": 4044,
      "Ġmwelekeo": 4045,
      "ghushi": 4046,
      "stam": 4047,
      "Ġrostam": 4048,
      "Ġchenye": 4049,
      "Ġmasikini": 4050,
      "sajiliwa": 4051,
      "Ġtakribani": 4052,
      "cco": 4053,
      "uzwa": 4054,
      "Ġkufahamu": 4055,
      "Ġubi": 4056,
      "tamba": 4057,
      "Ġkisiwa": 4058,
      "hebu": 4059,
      "Ġsijui": 4060,
      "zomea": 4061,
      "Ġviwili": 4062,
      "Ġwanazo": 4063,
      "Ġwalicho": 4064,
      "Ġanayo": 4065,
      "domo": 4066,
      "Ġiliyoundwa": 4067,
      "Ġunaendelea": 4068,
      "Ġmatakwa": 4069,
      "Ġshamba": 4070,
      "kelezwa": 4071,
      "Ġkukusanya": 4072,
      "Ġkilichopo": 4073,
      "Ġahmed": 4074,
      "Ġmabibo": 4075,
      "Ġjangwani": 4076,
      "lukindo": 4077,
      "Ġcity": 4078,
      "wapa": 4079,
      "liwe": 4080,
      "Ġuji": 4081,
      "Ġuto": 4082,
      "Ġurefu": 4083,
      "hirisha": 4084,
      "Ġmitaji": 4085,
      "Ġsamu": 4086,
      "ndamana": 4087,
      "nguka": 4088,
      "Ġjapo": 4089,
      "Ġanapo": 4090,
      "Ġtho": 4091,
      "Ġmbadala": 4092,
      "Ġkikundi": 4093,
      "Ġharakati": 4094,
      "Ġkuelewa": 4095,
      "sababishia": 4096,
      "Ġmahusiano": 4097,
      "ntena": 4098,
      "hadhari": 4099,
      "Ġnjama": 4100,
      "sikiliza": 4101,
      "Ġmhi": 4102,
      "Ġkuua": 4103,
      "hawa": 4104,
      "Ġkwangu": 4105,
      "kuu": 4106,
      "Ġharamu": 4107,
      "Ġkiko": 4108,
      "tosha": 4109,
      "bila": 4110,
      "seni": 4111,
      "Ġwanam": 4112,
      "Ġwanapata": 4113,
      "pusha": 4114,
      "Ġametoa": 4115,
      "Ġkuahidi": 4116,
      "Ġwamesema": 4117,
      "nyanya": 4118,
      "Ġpresha": 4119,
      "Ġmashaka": 4120,
      "Ġmakusudi": 4121,
      "Ġzilizokuwa": 4122,
      "Ġyenyewe": 4123,
      "Ġmtiki": 4124,
      "Ġninacho": 4125,
      "Ġlya": 4126,
      "Ġkubadilisha": 4127,
      "Ġselelii": 4128,
      "Ġmanyara": 4129,
      "nto": 4130,
      "Ġkro": 4131,
      "Ġwaso": 4132,
      "Ġmaki": 4133,
      "Ġmarudi": 4134,
      "Ġiti": 4135,
      "Ġtan": 4136,
      "kezwa": 4137,
      "juma": 4138,
      "Ġonyo": 4139,
      "Ġmaazi": 4140,
      "Ġbosi": 4141,
      "Ġupatikana": 4142,
      "Ġuliokuwa": 4143,
      "Ġkusitisha": 4144,
      "Ġrites": 4145,
      "Ġkipaumbele": 4146,
      "Ġnyekundu": 4147,
      "Ġtulikuwa": 4148,
      "Ġwajasi": 4149,
      "Ġkatoliki": 4150,
      "Ġkurejesha": 4151,
      "Ġkurekebisha": 4152,
      "uzulu": 4153,
      "Ġsamuel": 4154,
      "Ġkrosi": 4155,
      "Ġupatikanaji": 4156,
      "ifanya": 4157,
      "rk": 4158,
      "Ġz": 4159,
      "Ġusumbu": 4160,
      "Ġnalo": 4161,
      "Ġingekuwa": 4162,
      "tubia": 4163,
      "danganyi": 4164,
      "Ġkuwalipa": 4165,
      "Ġwanajeshi": 4166,
      "Ġwalifanya": 4167,
      "Ġwalipata": 4168,
      "Ġtuka": 4169,
      "shoto": 4170,
      "thibiti": 4171,
      "Ġkuwekeza": 4172,
      "pungua": 4173,
      "Ġmadawa": 4174,
      "Ġkukimbi": 4175,
      "Ġniaba": 4176,
      "Ġcairo": 4177,
      "Ġkitabu": 4178,
      "Ġvikali": 4179,
      "wazisha": 4180,
      "Ġkushangaza": 4181,
      "Ġhususan": 4182,
      "Ġvikundi": 4183,
      "Ġmaazimio": 4184,
      "Ġusumbufu": 4185,
      "bya": 4186,
      "rbia": 4187,
      "wans": 4188,
      "Ġmzi": 4189,
      "linganishwa": 4190,
      "Ġmaria": 4191,
      "Ġkaga": 4192,
      "Ġkinga": 4193,
      "Ġkijijini": 4194,
      "seme": 4195,
      "Ġkuwawezesha": 4196,
      "Ġilipata": 4197,
      "Ġwalia": 4198,
      "Ġmwaki": 4199,
      "Ġinaonesha": 4200,
      "Ġkondo": 4201,
      "mbulisha": 4202,
      "Ġiliyofanyika": 4203,
      "Ġiliyosababisha": 4204,
      "Ġbea": 4205,
      "Ġmwende": 4206,
      "Ġmassa": 4207,
      "Ġikilinganishwa": 4208,
      "Ġsham": 4209,
      "Ġdowans": 4210,
      "Ġfiti": 4211,
      "Ġmajirani": 4212,
      "hojiwa": 4213,
      "Ġugawaji": 4214,
      "Ġdiwani": 4215,
      "Ġmitaani": 4216,
      "haribika": 4217,
      "haribifu": 4218,
      "Ġfomu": 4219,
      "sumbuliwa": 4220,
      "Ġjenerali": 4221,
      "Ġubungo": 4222,
      "rdi": 4223,
      "Ġwapata": 4224,
      "Ġkulazimika": 4225,
      "Ġaa": 4226,
      "Ġaje": 4227,
      "Ġabe": 4228,
      "Ġmanye": 4229,
      "Ġalionekana": 4230,
      "fakari": 4231,
      "chaguliwa": 4232,
      "meta": 4233,
      "sekana": 4234,
      "Ġtaka": 4235,
      "Ġhuwezi": 4236,
      "Ġsalim": 4237,
      "ruki": 4238,
      "Ġakim": 4239,
      "Ġimeamua": 4240,
      "Ġmkopo": 4241,
      "Ġwakifanya": 4242,
      "Ġwakitaka": 4243,
      "Ġleseni": 4244,
      "Ġtete": 4245,
      "Ġsudan": 4246,
      "Ġroho": 4247,
      "Ġwatetezi": 4248,
      "Ġukarabati": 4249,
      "Ġalimtaka": 4250,
      "Ġzikiwemo": 4251,
      "Ġbukoba": 4252,
      "Ġfrank": 4253,
      "Ġwapatao": 4254,
      "Ġmanyema": 4255,
      "ifunga": 4256,
      "Ġwakristo": 4257,
      "Ġkukubaliana": 4258,
      "Ġuzito": 4259,
      "Ġalama": 4260,
      "Ġyaani": 4261,
      "tangazwa": 4262,
      "Ġmapumzi": 4263,
      "tishia": 4264,
      "Ġkilio": 4265,
      "Ġaliamua": 4266,
      "Ġtahadhari": 4267,
      "Ġlile": 4268,
      "Ġdaftari": 4269,
      "Ġakidai": 4270,
      "dhinisha": 4271,
      "Ġimetoa": 4272,
      "Ġiliyoko": 4273,
      "Ġkuhudhuria": 4274,
      "Ġkilikuwa": 4275,
      "Ġwanaoji": 4276,
      "Ġdogo": 4277,
      "mishiwa": 4278,
      "heshimu": 4279,
      "Ġkumekuwa": 4280,
      "Ġmapumziko": 4281,
      "umia": 4282,
      "Ġmza": 4283,
      "Ġwafadhili": 4284,
      "Ġkunyo": 4285,
      "laus": 4286,
      "Ġkingu": 4287,
      "lendo": 4288,
      "salia": 4289,
      "saidi": 4290,
      "Ġvikosi": 4291,
      "Ġenzi": 4292,
      "Ġpasca": 4293,
      "Ġwatani": 4294,
      "nusha": 4295,
      "nyangga": 4296,
      "Ġtunaweza": 4297,
      "Ġaliwaambia": 4298,
      "Ġzinazotolewa": 4299,
      "Ġnyongeza": 4300,
      "Ġkumuua": 4301,
      "ripotiwa": 4302,
      "Ġyusuf": 4303,
      "Ġpascal": 4304,
      "dra": 4305,
      "tl": 4306,
      "Ġwashi": 4307,
      "ham": 4308,
      "Ġue": 4309,
      "Ġnataka": 4310,
      "Ġyapo": 4311,
      "tasi": 4312,
      "zindua": 4313,
      "ndwe": 4314,
      "sishwa": 4315,
      "raja": 4316,
      "dani": 4317,
      "mesha": 4318,
      "diliwa": 4319,
      "ngalie": 4320,
      "Ġinahitaji": 4321,
      "Ġrau": 4322,
      "Ġimesema": 4323,
      "liona": 4324,
      "Ġkujipatia": 4325,
      "Ġmwanaume": 4326,
      "Ġfor": 4327,
      "Ġkuingiza": 4328,
      "Ġkujiandikisha": 4329,
      "Ġutulivu": 4330,
      "Ġatakaye": 4331,
      "thamini": 4332,
      "Ġudhaifu": 4333,
      "Ġmwendesha": 4334,
      "dy": 4335,
      "wai": 4336,
      "Ġkumbe": 4337,
      "Ġumaa": 4338,
      "Ġuharibifu": 4339,
      "Ġabo": 4340,
      "Ġanna": 4341,
      "Ġkamishna": 4342,
      "yota": 4343,
      "ley": 4344,
      "Ġkuwasha": 4345,
      "Ġkuwafanya": 4346,
      "res": 4347,
      "shiria": 4348,
      "Ġpamba": 4349,
      "Ġkona": 4350,
      "doro": 4351,
      "dumia": 4352,
      "fanyike": 4353,
      "Ġbaraka": 4354,
      "Ġtoyota": 4355,
      "Ġhakutaka": 4356,
      "Ġsumu": 4357,
      "Ġmashe": 4358,
      "fuatiwa": 4359,
      "Ġkilomita": 4360,
      "Ġwahandisi": 4361,
      "Ġchristo": 4362,
      "Ġkitaalamu": 4363,
      "Ġkusambaza": 4364,
      "Ġsuluhu": 4365,
      "Ġendelevu": 4366,
      "Ġkingunge": 4367,
      "Ġumaarufu": 4368,
      "angalia": 4369,
      "andaliwa": 4370,
      "ed": 4371,
      "onya": 4372,
      "zwe": 4373,
      "Ġkufanyia": 4374,
      "Ġkushinikiza": 4375,
      "Ġhamu": 4376,
      "Ġkike": 4377,
      "Ġkifua": 4378,
      "Ġtari": 4379,
      "Ġnikiwa": 4380,
      "Ġmijini": 4381,
      "Ġwanajua": 4382,
      "Ġanapaswa": 4383,
      "Ġakiba": 4384,
      "Ġkujiki": 4385,
      "Ġkulipuka": 4386,
      "dui": 4387,
      "Ġfani": 4388,
      "den": 4389,
      "Ġmsajili": 4390,
      "Ġyanaweza": 4391,
      "Ġmachozi": 4392,
      "Ġkusonga": 4393,
      "Ġtegeme": 4394,
      "hakikishia": 4395,
      "Ġmarudiano": 4396,
      "Ġchristophe": 4397,
      "Ġwafungwa": 4398,
      "habu": 4399,
      "baka": 4400,
      "Ġmami": 4401,
      "Ġmapiga": 4402,
      "Ġkadri": 4403,
      "Ġip": 4404,
      "jaji": 4405,
      "Ġjamani": 4406,
      "pukizi": 4407,
      "Ġameamua": 4408,
      "Ġshitaka": 4409,
      "Ġkumiliki": 4410,
      "shwaji": 4411,
      "Ġchipukizi": 4412,
      "Ġdhahabu": 4413,
      "mwambia": 4414,
      "Ġkiume": 4415,
      "Ġfilamu": 4416,
      "kubalika": 4417,
      "Ġuhai": 4418,
      "Ġmbovu": 4419,
      "Ġtangazo": 4420,
      "Ġvyenye": 4421,
      "Ġkushuhudia": 4422,
      "Ġzitakuwa": 4423,
      "Ġkubadilika": 4424,
      "Ġkukosekana": 4425,
      "Ġkatoro": 4426,
      "Ġrumande": 4427,
      "Ġmamilioni": 4428,
      "Ġmapigano": 4429,
      "iko": 4430,
      "itoa": 4431,
      "rc": 4432,
      "wu": 4433,
      "Ġkuruhusu": 4434,
      "Ġkughushi": 4435,
      "Ġushu": 4436,
      "Ġununuzi": 4437,
      "Ġudanganyi": 4438,
      "tafu": 4439,
      "tarisha": 4440,
      "Ġsh": 4441,
      "Ġmana": 4442,
      "siliana": 4443,
      "Ġtama": 4444,
      "Ġmiha": 4445,
      "Ġmwao": 4446,
      "Ġziko": 4447,
      "rome": 4448,
      "zui": 4449,
      "Ġwito": 4450,
      "Ġvyake": 4451,
      "Ġkuinua": 4452,
      "riamali": 4453,
      "Ġwalioko": 4454,
      "Ġhakukuwa": 4455,
      "Ġrukwa": 4456,
      "Ġhapana": 4457,
      "Ġuchungu": 4458,
      "Ġkuondolewa": 4459,
      "Ġkutuliza": 4460,
      "Ġrwe": 4461,
      "bunifu": 4462,
      "Ġwavuni": 4463,
      "sahau": 4464,
      "Ġmatangazo": 4465,
      "Ġiptl": 4466,
      "Ġudanganyifu": 4467,
      "niwa": 4468,
      "tana": 4469,
      "bada": 4470,
      "Ġkise": 4471,
      "Ġkigambo": 4472,
      "mited": 4473,
      "Ġnzito": 4474,
      "ngazaji": 4475,
      "Ġeto": 4476,
      "Ġmwamba": 4477,
      "Ġlimited": 4478,
      "Ġanapata": 4479,
      "niambia": 4480,
      "shtakiwa": 4481,
      "Ġkote": 4482,
      "Ġpori": 4483,
      "zunguka": 4484,
      "mbui": 4485,
      "Ġkuuzwa": 4486,
      "Ġkuunganisha": 4487,
      "Ġbenja": 4488,
      "Ġmsichana": 4489,
      "Ġkituoni": 4490,
      "Ġtunaomba": 4491,
      "Ġmakamba": 4492,
      "taanza": 4493,
      "dilifu": 4494,
      "karibisha": 4495,
      "Ġwikiendi": 4496,
      "Ġndoto": 4497,
      "Ġuhalifu": 4498,
      "Ġmhandisi": 4499,
      "wajibika": 4500,
      "Ġchristopher": 4501,
      "Ġkigamboni": 4502,
      "ddi": 4503,
      "fti": 4504,
      "gh": 4505,
      "mpi": 4506,
      "plo": 4507,
      "Ġafisa": 4508,
      "Ġyataka": 4509,
      "Ġit": 4510,
      "Ġalitumia": 4511,
      "Ġaliomba": 4512,
      "Ġalifariki": 4513,
      "wira": 4514,
      "jue": 4515,
      "nger": 4516,
      "Ġtundu": 4517,
      "Ġbaadae": 4518,
      "Ġvyakula": 4519,
      "Ġimeshindwa": 4520,
      "Ġimeelezwa": 4521,
      "giwa": 4522,
      "Ġitaanza": 4523,
      "Ġjerome": 4524,
      "Ġpengo": 4525,
      "Ġmakatibu": 4526,
      "Ġredio": 4527,
      "Ġcomoro": 4528,
      "Ġkuelezea": 4529,
      "Ġalbam": 4530,
      "Ġtegete": 4531,
      "Ġburundi": 4532,
      "frey": 4533,
      "Ġmramba": 4534,
      "Ġhoseah": 4535,
      "ulo": 4536,
      "Ġwazuri": 4537,
      "Ġuu": 4538,
      "Ġundani": 4539,
      "Ġaliko": 4540,
      "meni": 4541,
      "diliano": 4542,
      "Ġhundi": 4543,
      "Ġinatarajiwa": 4544,
      "Ġamepata": 4545,
      "Ġovyo": 4546,
      "Ġmaalim": 4547,
      "Ġbomu": 4548,
      "Ġitatoa": 4549,
      "Ġben": 4550,
      "Ġmwema": 4551,
      "Ġmwendo": 4552,
      "Ġchina": 4553,
      "Ġbure": 4554,
      "Ġlinaweza": 4555,
      "chwani": 4556,
      "swada": 4557,
      "Ġmajadiliano": 4558,
      "Ġkibaha": 4559,
      "drick": 4560,
      "Ġmlango": 4561,
      "Ġhatiani": 4562,
      "tendea": 4563,
      "Ġmtwa": 4564,
      "Ġkuvi": 4565,
      "Ġkuhara": 4566,
      "Ġun": 4567,
      "Ġmalia": 4568,
      "Ġmadu": 4569,
      "Ġkifa": 4570,
      "Ġkipya": 4571,
      "Ġsija": 4572,
      "Ġwalifika": 4573,
      "Ġtumbo": 4574,
      "Ġlipo": 4575,
      "Ġpapa": 4576,
      "dhini": 4577,
      "Ġtea": 4578,
      "Ġkuwekwa": 4579,
      "Ġwasichana": 4580,
      "Ġmbezi": 4581,
      "Ġkujaribu": 4582,
      "Ġmikoani": 4583,
      "Ġlililokuwa": 4584,
      "Ġuhalali": 4585,
      "Ġvinara": 4586,
      "Ġaliiomba": 4587,
      "Ġkimsingi": 4588,
      "Ġukubwa": 4589,
      "Ġyatakuwa": 4590,
      "Ġmadiwani": 4591,
      "Ġmustafa": 4592,
      "Ġudp": 4593,
      "Ġtanroad": 4594,
      "Ġwajasiriamali": 4595,
      "Ġmtwara": 4596,
      "Ġmaliasili": 4597,
      "Ġq": 4598,
      "Ġmshahara": 4599,
      "Ġkukiwa": 4600,
      "Ġuza": 4601,
      "Ġula": 4602,
      "Ġnajua": 4603,
      "hia": 4604,
      "Ġkielelezo": 4605,
      "Ġalitaka": 4606,
      "Ġaliona": 4607,
      "letea": 4608,
      "bira": 4609,
      "Ġsamwe": 4610,
      "Ġwalipa": 4611,
      "Ġtua": 4612,
      "Ġdpp": 4613,
      "Ġdalali": 4614,
      "Ġamefanya": 4615,
      "vunia": 4616,
      "Ġndizo": 4617,
      "Ġkumsaidia": 4618,
      "Ġunatokana": 4619,
      "Ġpet": 4620,
      "Ġmatawi": 4621,
      "Ġwanaofanya": 4622,
      "Ġyaliyotolewa": 4623,
      "Ġmpinzani": 4624,
      "Ġkukidhi": 4625,
      "nald": 4626,
      "Ġmgao": 4627,
      "Ġmadereva": 4628,
      "Ġaliitaka": 4629,
      "Ġngoma": 4630,
      "simama": 4631,
      "Ġkhali": 4632,
      "lalamikaji": 4633,
      "Ġwapate": 4634,
      "pendekeza": 4635,
      "Ġmakipa": 4636,
      "Ġtarime": 4637,
      "en": 4638,
      "Ġmmiliki": 4639,
      "Ġkufafanua": 4640,
      "Ġasha": 4641,
      "Ġmadhe": 4642,
      "Ġkale": 4643,
      "Ġibada": 4644,
      "Ġhaji": 4645,
      "huda": 4646,
      "Ġkizuia": 4647,
      "Ġvyumba": 4648,
      "Ġhujuma": 4649,
      "ngano": 4650,
      "ruku": 4651,
      "Ġtumba": 4652,
      "Ġmwanya": 4653,
      "Ġmufti": 4654,
      "Ġakifanya": 4655,
      "Ġndilo": 4656,
      "nduka": 4657,
      "Ġbudi": 4658,
      "Ġkuziba": 4659,
      "Ġubaguzi": 4660,
      "Ġmagesa": 4661,
      "rway": 4662,
      "Ġmikubwa": 4663,
      "Ġrajab": 4664,
      "Ġthomas": 4665,
      "Ġmadhehebu": 4666,
      "Ġkizuiani": 4667,
      "athirika": 4668,
      "llo": 4669,
      "nny": 4670,
      "rtini": 4671,
      "Ġdia": 4672,
      "nafsi": 4673,
      "Ġkuchu": 4674,
      "Ġkufariki": 4675,
      "Ġuwazi": 4676,
      "Ġkivu": 4677,
      "Ġkizazi": 4678,
      "Ġkitongoji": 4679,
      "Ġalibainisha": 4680,
      "min": 4681,
      "Ġnigeria": 4682,
      "Ġminne": 4683,
      "Ġvikwazo": 4684,
      "Ġilitoa": 4685,
      "Ġwalikamatwa": 4686,
      "ruka": 4687,
      "Ġsere": 4688,
      "pendi": 4689,
      "Ġanajua": 4690,
      "Ġpato": 4691,
      "gundu": 4692,
      "Ġkortini": 4693,
      "Ġkuipa": 4694,
      "Ġndicho": 4695,
      "chukuliwe": 4696,
      "Ġhawataki": 4697,
      "kaririwa": 4698,
      "varo": 4699,
      "Ġkutegemea": 4700,
      "Ġalhami": 4701,
      "Ġdhahiri": 4702,
      "muisho": 4703,
      "Ġkupungua": 4704,
      "Ġmajumuisho": 4705,
      "irobi": 4706,
      "nggoa": 4707,
      "sikitishwa": 4708,
      "Ġwasomi": 4709,
      "bre": 4710,
      "gwe": 4711,
      "Ġng": 4712,
      "Ġnda": 4713,
      "Ġkunywa": 4714,
      "Ġkugundua": 4715,
      "Ġnairobi": 4716,
      "tawala": 4717,
      "Ġmagu": 4718,
      "kiza": 4719,
      "hutubia": 4720,
      "wekea": 4721,
      "Ġkife": 4722,
      "Ġalikataa": 4723,
      "changiwa": 4724,
      "tel": 4725,
      "Ġilia": 4726,
      "Ġwalitoa": 4727,
      "rumani": 4728,
      "Ġera": 4729,
      "pembe": 4730,
      "Ġinawa": 4731,
      "Ġwest": 4732,
      "Ġraza": 4733,
      "Ġkuisaidia": 4734,
      "rian": 4735,
      "Ġunatarajiwa": 4736,
      "nduki": 4737,
      "Ġkusafiri": 4738,
      "Ġbunduki": 4739,
      "Ġngumi": 4740,
      "Ġnjema": 4741,
      "Ġkutua": 4742,
      "Ġunaofanywa": 4743,
      "Ġuhaba": 4744,
      "Ġuhamisho": 4745,
      "Ġumati": 4746,
      "Ġhauna": 4747,
      "Ġchanjo": 4748,
      "Ġfredrick": 4749,
      "Ġmalawi": 4750,
      "Ġmalaria": 4751,
      "Ġpaul": 4752,
      "Ġkifungo": 4753,
      "Ġkifedha": 4754,
      "er": 4755,
      "tin": 4756,
      "kimbi": 4757,
      "rasa": 4758,
      "Ġkirefu": 4759,
      "Ġkichwani": 4760,
      "safiri": 4761,
      "fundisha": 4762,
      "Ġlangoni": 4763,
      "Ġnsaji": 4764,
      "Ġbangi": 4765,
      "Ġsau": 4766,
      "Ġsale": 4767,
      "Ġilieleza": 4768,
      "Ġtija": 4769,
      "Ġradhi": 4770,
      "Ġkuamkia": 4771,
      "Ġmkongwe": 4772,
      "Ġshelukindo": 4773,
      "Ġpla": 4774,
      "kwaju": 4775,
      "Ġfaini": 4776,
      "Ġstans": 4777,
      "ungana": 4778,
      "Ġakawa": 4779,
      "Ġcom": 4780,
      "ngezea": 4781,
      "Ġmagazeti": 4782,
      "hirishwa": 4783,
      "Ġmsimamizi": 4784,
      "fukuza": 4785,
      "fautia": 4786,
      "Ġraundi": 4787,
      "Ġnsajigwa": 4788,
      "Ġstanslaus": 4789,
      "rri": 4790,
      "Ġmtaji": 4791,
      "Ġmpenda": 4792,
      "Ġwasomaji": 4793,
      "Ġkufanywa": 4794,
      "mari": 4795,
      "ladala": 4796,
      "Ġikio": 4797,
      "mund": 4798,
      "Ġzain": 4799,
      "nea": 4800,
      "Ġvipe": 4801,
      "Ġdaladala": 4802,
      "rodhe": 4803,
      "vyokuwa": 4804,
      "Ġmkulima": 4805,
      "Ġpacha": 4806,
      "dhiri": 4807,
      "Ġmeza": 4808,
      "Ġkongamano": 4809,
      "Ġkujipanga": 4810,
      "Ġzinaendelea": 4811,
      "Ġumefika": 4812,
      "Ġhawajui": 4813,
      "Ġmpasuko": 4814,
      "Ġkusikiti": 4815,
      "Ġzilizotolewa": 4816,
      "ford": 4817,
      "Ġnimekuwa": 4818,
      "Ġnec": 4819,
      "Ġkinachotakiwa": 4820,
      "Ġwataalam": 4821,
      "ndikishaji": 4822,
      "llya": 4823,
      "furahishwa": 4824,
      "Ġbayana": 4825,
      "Ġkabuye": 4826,
      "Ġitikadi": 4827,
      "cc": 4828,
      "ue": 4829,
      "zy": 4830,
      "Ġzuri": 4831,
      "Ġmpo": 4832,
      "lilisha": 4833,
      "Ġwashindi": 4834,
      "Ġwadhifa": 4835,
      "Ġkulazi": 4836,
      "Ġukili": 4837,
      "ridi": 4838,
      "kiuka": 4839,
      "Ġkando": 4840,
      "Ġhara": 4841,
      "Ġhavi": 4842,
      "safi": 4843,
      "Ġvide": 4844,
      "elewe": 4845,
      "Ġwalilazimika": 4846,
      "roka": 4847,
      "peli": 4848,
      "Ġanafanya": 4849,
      "Ġinataka": 4850,
      "gusti": 4851,
      "shtu": 4852,
      "Ġkuitaka": 4853,
      "Ġflo": 4854,
      "Ġlema": 4855,
      "Ġkupima": 4856,
      "Ġtunaamini": 4857,
      "Ġkukagua": 4858,
      "Ġwanaotaka": 4859,
      "Ġwanaoishi": 4860,
      "Ġjwt": 4861,
      "Ġridhaa": 4862,
      "Ġzilizobaki": 4863,
      "Ġalipotakiwa": 4864,
      "Ġkikatiba": 4865,
      "Ġkujeruhiwa": 4866,
      "Ġnorway": 4867,
      "Ġmgawo": 4868,
      "simamia": 4869,
      "Ġbandarini": 4870,
      "pesile": 4871,
      "Ġmwakipesile": 4872,
      "Ġyatakayo": 4873,
      "Ġkuharakisha": 4874,
      "Ġalhamisi": 4875,
      "Ġerasto": 4876,
      "Ġvideo": 4877,
      "Ġjwtz": 4878,
      "an": 4879,
      "ambiwa": 4880,
      "pment": 4881,
      "Ġmapya": 4882,
      "Ġkiwanja": 4883,
      "Ġalitakiwa": 4884,
      "Ġkuwatu": 4885,
      "pira": 4886,
      "pishwa": 4887,
      "pigia": 4888,
      "Ġwanatumia": 4889,
      "lopment": 4890,
      "Ġtupo": 4891,
      "Ġakifungua": 4892,
      "Ġkuitwa": 4893,
      "Ġmajimbo": 4894,
      "Ġkulipia": 4895,
      "dugu": 4896,
      "Ġkufundisha": 4897,
      "Ġbarani": 4898,
      "Ġzinaweza": 4899,
      "Ġdeve": 4900,
      "Ġmwenzi": 4901,
      "Ġsungu": 4902,
      "Ġdhati": 4903,
      "Ġnilipo": 4904,
      "Ġkusimamisha": 4905,
      "Ġukuaji": 4906,
      "Ġvocha": 4907,
      "Ġisra": 4908,
      "Ġandre": 4909,
      "Ġabou": 4910,
      "Ġmpendazoe": 4911,
      "rodhesha": 4912,
      "Ġdevelopment": 4913,
      "ghari": 4914,
      "lda": 4915,
      "rto": 4916,
      "wn": 4917,
      "Ġfisadi": 4918,
      "Ġmr": 4919,
      "Ġkugawa": 4920,
      "Ġkuuawa": 4921,
      "kanusha": 4922,
      "hiniwa": 4923,
      "Ġamina": 4924,
      "Ġkadugu": 4925,
      "kumba": 4926,
      "Ġkipo": 4927,
      "Ġkiwira": 4928,
      "Ġaliji": 4929,
      "muni": 4930,
      "teuliwa": 4931,
      "Ġmike": 4932,
      "koo": 4933,
      "Ġvia": 4934,
      "Ġwaliwa": 4935,
      "Ġmokiwa": 4936,
      "dhan": 4937,
      "Ġpanga": 4938,
      "Ġrai": 4939,
      "Ġameshindwa": 4940,
      "Ġosca": 4941,
      "Ġhalina": 4942,
      "Ġunapo": 4943,
      "Ġzilieleza": 4944,
      "Ġuchafu": 4945,
      "Ġsubira": 4946,
      "Ġyanayoendelea": 4947,
      "Ġujanja": 4948,
      "Ġmtindo": 4949,
      "Ġmajeshi": 4950,
      "Ġkushindana": 4951,
      "Ġtutakuwa": 4952,
      "Ġmichango": 4953,
      "Ġwatakapo": 4954,
      "ngenezwa": 4955,
      "Ġhauja": 4956,
      "pumzika": 4957,
      "Ġpasipo": 4958,
      "Ġramadhan": 4959,
      "Ġalonso": 4960,
      "Ġvictoria": 4961,
      "fautiana": 4962,
      "Ġkaduguda": 4963,
      "Ġoscar": 4964,
      "agiza": 4965,
      "Ġudhibiti": 4966,
      "Ġasema": 4967,
      "Ġmahiri": 4968,
      "tio": 4969,
      "tinga": 4970,
      "zio": 4971,
      "Ġkaria": 4972,
      "Ġhafla": 4973,
      "husiana": 4974,
      "rai": 4975,
      "Ġkinye": 4976,
      "lela": 4977,
      "Ġkuwakamata": 4978,
      "Ġtas": 4979,
      "hema": 4980,
      "Ġsinza": 4981,
      "Ġbasto": 4982,
      "Ġbandia": 4983,
      "Ġmimba": 4984,
      "Ġmipira": 4985,
      "Ġvipa": 4986,
      "Ġviko": 4987,
      "chimbaji": 4988,
      "Ġwalinzi": 4989,
      "zuka": 4990,
      "Ġpombe": 4991,
      "Ġndivyo": 4992,
      "mbue": 4993,
      "Ġwakiongozwa": 4994,
      "Ġkujihusisha": 4995,
      "Ġkujituma": 4996,
      "Ġkumfanya": 4997,
      "Ġhoma": 4998,
      "Ġkupisha": 4999,
      "Ġulitolewa": 5000,
      "Ġuteuzi": 5001,
      "Ġlupembe": 5002,
      "Ġkipawa": 5003,
      "Ġkutunza": 5004,
      "Ġkukicha": 5005,
      "Ġujerumani": 5006,
      "Ġukanda": 5007,
      "Ġmanji": 5008,
      "Ġmgawa": 5009,
      "Ġedmund": 5010,
      "Ġmlanzi": 5011,
      "Ġgerezani": 5012,
      "Ġyusuph": 5013,
      "Ġramadhani": 5014,
      "Ġsendeka": 5015,
      "hifadhiwa": 5016,
      "Ġtamasha": 5017,
      "Ġkiserikali": 5018,
      "Ġbastola": 5019,
      "imarisha": 5020,
      "oo": 5021,
      "Ġkukuta": 5022,
      "Ġkushoto": 5023,
      "Ġumwa": 5024,
      "Ġuwt": 5025,
      "laba": 5026,
      "jage": 5027,
      "Ġzahoro": 5028,
      "Ġlango": 5029,
      "Ġmie": 5030,
      "Ġbri": 5031,
      "Ġvigezo": 5032,
      "elekeza": 5033,
      "ndikishwa": 5034,
      "Ġwalifanikiwa": 5035,
      "ngeti": 5036,
      "ganda": 5037,
      "Ġmwajiri": 5038,
      "ndon": 5039,
      "Ġkuidhinisha": 5040,
      "Ġwamepata": 5041,
      "Ġwatapata": 5042,
      "Ġkujiuzulu": 5043,
      "vin": 5044,
      "kwepa": 5045,
      "Ġteule": 5046,
      "wezekani": 5047,
      "Ġmakanisa": 5048,
      "Ġikiendelea": 5049,
      "Ġkimaro": 5050,
      "Ġnyange": 5051,
      "Ġrehema": 5052,
      "unganisha": 5053,
      "Ġyaliyopo": 5054,
      "Ġfifa": 5055,
      "Ġkukutwa": 5056,
      "Ġmoham": 5057,
      "Ġinjini": 5058,
      "Ġmakontena": 5059,
      "Ġwalipofika": 5060,
      "Ġmabenki": 5061,
      "Ġyakiwemo": 5062,
      "Ġmsongamano": 5063,
      "Ġukiangalia": 5064,
      "Ġangalau": 5065,
      "ikolojia": 5066,
      "Ġpetro": 5067,
      "Ġserengeti": 5068,
      "ine": 5069,
      "rne": 5070,
      "suaji": 5071,
      "twe": 5072,
      "Ġms": 5073,
      "Ġmche": 5074,
      "Ġmguu": 5075,
      "Ġwaendelee": 5076,
      "Ġkuvamia": 5077,
      "Ġuyo": 5078,
      "Ġanne": 5079,
      "Ġmanne": 5080,
      "Ġkana": 5081,
      "Ġifika": 5082,
      "Ġkihi": 5083,
      "Ġalifika": 5084,
      "Ġalitaja": 5085,
      "sari": 5086,
      "savyo": 5087,
      "ser": 5088,
      "Ġkuwafikia": 5089,
      "Ġtara": 5090,
      "Ġland": 5091,
      "Ġbaga": 5092,
      "Ġmiji": 5093,
      "Ġwanahitaji": 5094,
      "moyo": 5095,
      "ngola": 5096,
      "ngezwa": 5097,
      "goda": 5098,
      "Ġtri": 5099,
      "Ġmaagizo": 5100,
      "mbee": 5101,
      "Ġupasuaji": 5102,
      "Ġjezi": 5103,
      "Ġmatajiri": 5104,
      "Ġglo": 5105,
      "Ġuliopigwa": 5106,
      "Ġtumekuwa": 5107,
      "Ġataendelea": 5108,
      "Ġyaliyotokea": 5109,
      "Ġmawakala": 5110,
      "Ġujasiri": 5111,
      "Ġkaijage": 5112,
      "mbulika": 5113,
      "Ġvitisho": 5114,
      "nggombe": 5115,
      "Ġtreni": 5116,
      "Ġipasavyo": 5117,
      "Ġkondomu": 5118,
      "Ġushuru": 5119,
      "Ġifikapo": 5120,
      "Ġbagamoyo": 5121,
      "njo": 5122,
      "um": 5123,
      "wari": 5124,
      "lila": 5125,
      "Ġwapanga": 5126,
      "Ġkupe": 5127,
      "Ġkustaafu": 5128,
      "Ġkuhofia": 5129,
      "Ġamo": 5130,
      "zamo": 5131,
      "Ġinge": 5132,
      "jibika": 5133,
      "sim": 5134,
      "weleza": 5135,
      "Ġkizi": 5136,
      "pate": 5137,
      "patiwa": 5138,
      "mero": 5139,
      "fuzu": 5140,
      "Ġkuwapo": 5141,
      "Ġninyi": 5142,
      "Ġchafu": 5143,
      "Ġwanakabiliwa": 5144,
      "lokuwa": 5145,
      "wino": 5146,
      "rea": 5147,
      "zetini": 5148,
      "geme": 5149,
      "Ġpopo": 5150,
      "Ġwataweza": 5151,
      "Ġwatahiniwa": 5152,
      "Ġwakisema": 5153,
      "Ġwakitumia": 5154,
      "Ġkujifungua": 5155,
      "Ġboban": 5156,
      "Ġzinaonesha": 5157,
      "Ġinayowakabili": 5158,
      "Ġkabwe": 5159,
      "Ġakiwasilisha": 5160,
      "Ġnyadhifa": 5161,
      "nyiro": 5162,
      "Ġmchanga": 5163,
      "Ġlondon": 5164,
      "Ġrobert": 5165,
      "Ġhayati": 5166,
      "Ġkilichokuwa": 5167,
      "Ġnurdi": 5168,
      "ridhishwa": 5169,
      "ndeleo": 5170,
      "nywaji": 5171,
      "jitambulisha": 5172,
      "Ġmilango": 5173,
      "kabidhiwa": 5174,
      "Ġkusafirisha": 5175,
      "Ġsendeu": 5176,
      "Ġgodfrey": 5177,
      "Ġmhina": 5178,
      "Ġbenjamin": 5179,
      "Ġkariakoo": 5180,
      "Ġnurdin": 5181,
      "qua": 5182,
      "ss": 5183,
      "swi": 5184,
      "wanga": 5185,
      "Ġwange": 5186,
      "Ġudhamini": 5187,
      "tani": 5188,
      "takuwa": 5189,
      "Ġmadhu": 5190,
      "Ġkahawa": 5191,
      "mbatana": 5192,
      "fana": 5193,
      "mis": 5194,
      "mira": 5195,
      "Ġkuwasiliana": 5196,
      "Ġzahana": 5197,
      "Ġbagen": 5198,
      "Ġviki": 5199,
      "Ġanaji": 5200,
      "Ġanakuwa": 5201,
      "Ġwatumiaji": 5202,
      "Ġimeendelea": 5203,
      "kamano": 5204,
      "Ġutangazaji": 5205,
      "Ġgava": 5206,
      "Ġkusawazisha": 5207,
      "Ġmakada": 5208,
      "Ġmwanasiasa": 5209,
      "Ġhakika": 5210,
      "Ġkutenda": 5211,
      "Ġnyanja": 5212,
      "Ġalionya": 5213,
      "Ġkuonana": 5214,
      "Ġyanayohusu": 5215,
      "Ġkitakuwa": 5216,
      "Ġvyeti": 5217,
      "Ġuandikishaji": 5218,
      "Ġkunufa": 5219,
      "Ġsteven": 5220,
      "Ġkumwambia": 5221,
      "hadharisha": 5222,
      "Ġaziz": 5223,
      "jumuisha": 5224,
      "Ġmshikamano": 5225,
      "Ġtanroads": 5226,
      "gundulika": 5227,
      "Ġmohammed": 5228,
      "Ġzahanati": 5229,
      "Ġgavana": 5230,
      "achwa": 5231,
      "ile": 5232,
      "uzito": 5233,
      "nadi": 5234,
      "Ġkulwa": 5235,
      "Ġala": 5236,
      "Ġswe": 5237,
      "kidhi": 5238,
      "lada": 5239,
      "kumbwa": 5240,
      "tupa": 5241,
      "Ġhia": 5242,
      "jazo": 5243,
      "rasi": 5244,
      "Ġalilazimika": 5245,
      "samba": 5246,
      "sadi": 5247,
      "michezo": 5248,
      "Ġkuwapeleka": 5249,
      "Ġlangu": 5250,
      "nedi": 5251,
      "Ġsam": 5252,
      "Ġsaini": 5253,
      "Ġwanaha": 5254,
      "nguliwa": 5255,
      "nyeji": 5256,
      "fike": 5257,
      "Ġwalitakiwa": 5258,
      "Ġzijazo": 5259,
      "Ġmojawapo": 5260,
      "liambia": 5261,
      "Ġmuswada": 5262,
      "Ġmegawa": 5263,
      "Ġjipya": 5264,
      "Ġkuambiwa": 5265,
      "Ġshingo": 5266,
      "Ġwataendelea": 5267,
      "Ġwaliohusika": 5268,
      "Ġkuumia": 5269,
      "Ġkuundwa": 5270,
      "boko": 5271,
      "vic": 5272,
      "Ġyenu": 5273,
      "Ġkupitisha": 5274,
      "Ġitawa": 5275,
      "Ġbeni": 5276,
      "Ġkufuzu": 5277,
      "Ġulimwe": 5278,
      "Ġsanaa": 5279,
      "Ġwaandamizi": 5280,
      "Ġfungu": 5281,
      "rudisha": 5282,
      "punguza": 5283,
      "Ġujauzito": 5284,
      "Ġitakayofanyika": 5285,
      "Ġismai": 5286,
      "nganyiko": 5287,
      "Ġmahita": 5288,
      "Ġmlinzi": 5289,
      "Ġkienyeji": 5290,
      "Ġamir": 5291,
      "shughulikiwa": 5292,
      "Ġsamwel": 5293,
      "Ġukilinganisha": 5294,
      "Ġulimwengu": 5295,
      "Ġkwi": 5296,
      "lishwa": 5297,
      "Ġwaji": 5298,
      "Ġkuchi": 5299,
      "Ġungu": 5300,
      "Ġugumu": 5301,
      "Ġnafikiri": 5302,
      "Ġac": 5303,
      "Ġsqua": 5304,
      "Ġmake": 5305,
      "Ġhajui": 5306,
      "rati": 5307,
      "rabu": 5308,
      "Ġkisi": 5309,
      "Ġalikamatwa": 5310,
      "leo": 5311,
      "Ġkuwaeleza": 5312,
      "Ġtafiti": 5313,
      "kezi": 5314,
      "ship": 5315,
      "Ġsidhani": 5316,
      "Ġbongo": 5317,
      "Ġwanakuwa": 5318,
      "Ġwalishindwa": 5319,
      "Ġliko": 5320,
      "Ġanatarajiwa": 5321,
      "Ġinabidi": 5322,
      "Ġakitumia": 5323,
      "Ġwenger": 5324,
      "Ġkuandamana": 5325,
      "Ġkomp": 5326,
      "Ġkoplo": 5327,
      "yuta": 5328,
      "Ġwameshindwa": 5329,
      "gilia": 5330,
      "Ġiliyopigwa": 5331,
      "soa": 5332,
      "vile": 5333,
      "Ġgama": 5334,
      "Ġber": 5335,
      "Ġpc": 5336,
      "ulize": 5337,
      "Ġbukwi": 5338,
      "Ġshabiki": 5339,
      "karibia": 5340,
      "Ġnyama": 5341,
      "Ġwasimamizi": 5342,
      "Ġyona": 5343,
      "Ġmawakili": 5344,
      "Ġmajeraha": 5345,
      "Ġnoti": 5346,
      "Ġmazoezini": 5347,
      "Ġvumbi": 5348,
      "Ġkuelimisha": 5349,
      "Ġkuepusha": 5350,
      "Ġhuruma": 5351,
      "Ġkuwaachia": 5352,
      "Ġupendo": 5353,
      "Ġupendeleo": 5354,
      "Ġmahenge": 5355,
      "Ġmihale": 5356,
      "Ġmaduka": 5357,
      "Ġteam": 5358,
      "Ġunguja": 5359,
      "Ġkompyuta": 5360,
      "Ġbukwimba": 5361,
      "ccm": 5362,
      "cia": 5363,
      "nter": 5364,
      "sya": 5365,
      "Ġmdomo": 5366,
      "Ġwafanye": 5367,
      "Ġkumua": 5368,
      "Ġuwajibika": 5369,
      "Ġnadi": 5370,
      "Ġnauli": 5371,
      "bana": 5372,
      "humu": 5373,
      "siko": 5374,
      "jadala": 5375,
      "Ġalijibu": 5376,
      "Ġkuwata": 5377,
      "Ġnipo": 5378,
      "Ġmijadala": 5379,
      "ngili": 5380,
      "Ġepa": 5381,
      "Ġjapa": 5382,
      "pewe": 5383,
      "nder": 5384,
      "Ġwametakiwa": 5385,
      "nusuru": 5386,
      "Ġwaliofika": 5387,
      "vio": 5388,
      "Ġitafanya": 5389,
      "Ġmkaguzi": 5390,
      "Ġkufutwa": 5391,
      "Ġkufurahi": 5392,
      "Ġkutangazwa": 5393,
      "Ġtunajua": 5394,
      "chukue": 5395,
      "Ġmakalla": 5396,
      "Ġwanaotumia": 5397,
      "Ġikifanya": 5398,
      "vamizi": 5399,
      "Ġkutembelea": 5400,
      "Ġricha": 5401,
      "Ġfujo": 5402,
      "Ġchumvi": 5403,
      "Ġusikili": 5404,
      "Ġwalengwa": 5405,
      "Ġardhini": 5406,
      "Ġaliyokuwa": 5407,
      "Ġvipindi": 5408,
      "shindikana": 5409,
      "Ġlitakuwa": 5410,
      "Ġvan": 5411,
      "Ġhamisi": 5412,
      "Ġomari": 5413,
      "Ġburudani": 5414,
      "Ġwahitimu": 5415,
      "Ġjukwaani": 5416,
      "wakilisha": 5417,
      "Ġmtikisiko": 5418,
      "Ġajenda": 5419,
      "Ġtegemeo": 5420,
      "Ġkihistoria": 5421,
      "Ġwapangaji": 5422,
      "Ġuwajibikaji": 5423,
      "yce": 5424,
      "Ġkutakiwa": 5425,
      "Ġkudaiwa": 5426,
      "Ġurahisi": 5427,
      "Ġunyanya": 5428,
      "kane": 5429,
      "Ġmat": 5430,
      "zama": 5431,
      "Ġia": 5432,
      "kumiwa": 5433,
      "tuhumu": 5434,
      "Ġkikwazo": 5435,
      "Ġkinyangga": 5436,
      "Ġalipewa": 5437,
      "Ġkuwafunga": 5438,
      "buda": 5439,
      "shio": 5440,
      "Ġzamu": 5441,
      "port": 5442,
      "Ġbro": 5443,
      "Ġvitongoji": 5444,
      "Ġwanashindwa": 5445,
      "mbwe": 5446,
      "Ġtuweze": 5447,
      "Ġmwandamizi": 5448,
      "Ġtishio": 5449,
      "per": 5450,
      "pesha": 5451,
      "Ġmkumbo": 5452,
      "Ġanacho": 5453,
      "Ġanaendelea": 5454,
      "Ġinatoa": 5455,
      "surika": 5456,
      "Ġkuachiwa": 5457,
      "Ġshibuda": 5458,
      "Ġowino": 5459,
      "mbie": 5460,
      "Ġwamelazwa": 5461,
      "Ġhataki": 5462,
      "Ġkujiamini": 5463,
      "nunua": 5464,
      "Ġwaliojitokeza": 5465,
      "Ġunakuwa": 5466,
      "Ġutaona": 5467,
      "Ġbenedi": 5468,
      "Ġjela": 5469,
      "Ġmsako": 5470,
      "Ġmsalaba": 5471,
      "Ġinayomkabili": 5472,
      "Ġkupona": 5473,
      "Ġkuchaguliwa": 5474,
      "Ġlililopo": 5475,
      "Ġcana": 5476,
      "ngenezo": 5477,
      "Ġmagomeni": 5478,
      "Ġuvumi": 5479,
      "Ġkaratasi": 5480,
      "Ġkuchelewa": 5481,
      "razili": 5482,
      "njika": 5483,
      "Ġmatengenezo": 5484,
      "Ġkuhojiwa": 5485,
      "Ġmvutano": 5486,
      "Ġutovu": 5487,
      "Ġkukimbilia": 5488,
      "Ġsquad": 5489,
      "Ġusikilizwaji": 5490,
      "Ġkinyangganyiro": 5491,
      "mji": 5492,
      "rn": 5493,
      "Ġmpiga": 5494,
      "Ġmlima": 5495,
      "Ġkurusha": 5496,
      "Ġucho": 5497,
      "Ġuelewa": 5498,
      "Ġnapenda": 5499,
      "nika": 5500,
      "Ġad": 5501,
      "tambuliwa": 5502,
      "Ġmase": 5503,
      "Ġkaba": 5504,
      "Ġalimu": 5505,
      "paganda": 5506,
      "shangilia": 5507,
      "fundi": 5508,
      "Ġtata": 5509,
      "tenda": 5510,
      "Ġbageni": 5511,
      "Ġviba": 5512,
      "Ġwanaamini": 5513,
      "Ġwanaishi": 5514,
      "Ġilielezwa": 5515,
      "Ġwalipokuwa": 5516,
      "ngezi": 5517,
      "Ġtuko": 5518,
      "mboa": 5519,
      "Ġanaongeza": 5520,
      "Ġpabaya": 5521,
      "Ġpart": 5522,
      "Ġmema": 5523,
      "Ġkuichezea": 5524,
      "Ġkujikuta": 5525,
      "Ġkwenu": 5526,
      "Ġtunaendelea": 5527,
      "Ġmgongo": 5528,
      "Ġuwepo": 5529,
      "Ġmfungaji": 5530,
      "Ġstaili": 5531,
      "Ġpropaganda": 5532,
      "fsiri": 5533,
      "Ġkukiuka": 5534,
      "Ġmapanga": 5535,
      "Ġvilevile": 5536,
      "Ġkilichotokea": 5537,
      "Ġkuhatarisha": 5538,
      "Ġupimaji": 5539,
      "Ġaliyoitoa": 5540,
      "ness": 5541,
      "Ġhamis": 5542,
      "Ġjukwaa": 5543,
      "Ġkiislamu": 5544,
      "Ġubinafsi": 5545,
      "Ġumwagilia": 5546,
      "Ġmegawati": 5547,
      "Ġrichard": 5548,
      "Ġumwagiliaji": 5549,
      "eti": 5550,
      "ske": 5551,
      "ys": 5552,
      "Ġwai": 5553,
      "Ġnakala": 5554,
      "Ġan": 5555,
      "Ġacha": 5556,
      "Ġig": 5557,
      "Ġkicha": 5558,
      "Ġalizi": 5559,
      "fute": 5560,
      "Ġkuwachukulia": 5561,
      "Ġkuwaondoa": 5562,
      "shindo": 5563,
      "Ġniko": 5564,
      "Ġnmb": 5565,
      "Ġmicho": 5566,
      "Ġvipo": 5567,
      "Ġilitakiwa": 5568,
      "rema": 5569,
      "Ġlibya": 5570,
      "Ġdaud": 5571,
      "Ġbima": 5572,
      "takabali": 5573,
      "Ġanao": 5574,
      "Ġmus": 5575,
      "Ġwema": 5576,
      "Ġkuathiri": 5577,
      "Ġfran": 5578,
      "nunu": 5579,
      "Ġwaliofanya": 5580,
      "Ġkuungana": 5581,
      "Ġgazetini": 5582,
      "Ġkupigia": 5583,
      "Ġphili": 5584,
      "ben": 5585,
      "Ġaugusti": 5586,
      "Ġumeanza": 5587,
      "Ġmakame": 5588,
      "dea": 5589,
      "Ġkuficha": 5590,
      "onal": 5591,
      "Ġnjiani": 5592,
      "Ġromji": 5593,
      "Ġmabomba": 5594,
      "Ġkawawa": 5595,
      "Ġzenu": 5596,
      "Ġcup": 5597,
      "Ġmatunda": 5598,
      "Ġvinasaba": 5599,
      "Ġwakongwe": 5600,
      "Ġutekelezwaji": 5601,
      "Ġsokoine": 5602,
      "julikani": 5603,
      "Ġmagogo": 5604,
      "Ġkilometa": 5605,
      "Ġiweje": 5606,
      "Ġmasangwa": 5607,
      "Ġfree": 5608,
      "Ġvale": 5609,
      "Ġmachafu": 5610,
      "Ġwhi": 5611,
      "Ġomar": 5612,
      "Ġujio": 5613,
      "Ġuyoga": 5614,
      "Ġtarafa": 5615,
      "sadikiwa": 5616,
      "ac": 5617,
      "es": 5618,
      "frika": 5619,
      "Ġkupenda": 5620,
      "Ġkuvaa": 5621,
      "Ġure": 5622,
      "Ġidhini": 5623,
      "pati": 5624,
      "muru": 5625,
      "tez": 5626,
      "Ġsara": 5627,
      "Ġsayi": 5628,
      "ngizi": 5629,
      "Ġchale": 5630,
      "Ġilishinda": 5631,
      "moa": 5632,
      "chelewa": 5633,
      "choka": 5634,
      "Ġamefariki": 5635,
      "Ġkuagiza": 5636,
      "Ġkuachia": 5637,
      "Ġfla": 5638,
      "Ġwamekufa": 5639,
      "Ġkujiridhisha": 5640,
      "Ġtunawa": 5641,
      "Ġwanaotuhumiwa": 5642,
      "Ġkupachika": 5643,
      "Ġmsafiri": 5644,
      "Ġshauri": 5645,
      "rakati": 5646,
      "Ġfundi": 5647,
      "Ġusingizi": 5648,
      "swahili": 5649,
      "Ġkikapu": 5650,
      "Ġronal": 5651,
      "Ġujambazi": 5652,
      "Ġmagafu": 5653,
      "Ġmarmo": 5654,
      "Ġkinachoendelea": 5655,
      "Ġkunusuru": 5656,
      "Ġmseto": 5657,
      "Ġkuwaacha": 5658,
      "Ġupepo": 5659,
      "Ġkassim": 5660,
      "fukuzwa": 5661,
      "Ġkipengele": 5662,
      "Ġshoo": 5663,
      "Ġkukabidhiwa": 5664,
      "Ġkujikita": 5665,
      "Ġetoile": 5666,
      "Ġandrew": 5667,
      "Ġkinyemela": 5668,
      "Ġbenitez": 5669,
      "Ġronaldo": 5670,
      "tho": 5671,
      "ukwa": 5672,
      "Ġkuharibika": 5673,
      "Ġkupumzika": 5674,
      "hamishiwa": 5675,
      "Ġulianza": 5676,
      "Ġnae": 5677,
      "Ġnaku": 5678,
      "Ġnaona": 5679,
      "Ġari": 5680,
      "Ġyati": 5681,
      "Ġmapo": 5682,
      "Ġmava": 5683,
      "Ġmarufu": 5684,
      "tional": 5685,
      "kifanya": 5686,
      "kizwa": 5687,
      "Ġkwako": 5688,
      "Ġalikaririwa": 5689,
      "faruku": 5690,
      "Ġkuwaka": 5691,
      "Ġkuwataja": 5692,
      "Ġtaba": 5693,
      "buri": 5694,
      "hewa": 5695,
      "Ġlaw": 5696,
      "Ġlami": 5697,
      "ngoro": 5698,
      "eleze": 5699,
      "ngunga": 5700,
      "Ġwalitaka": 5701,
      "Ġakitaka": 5702,
      "Ġakihutubia": 5703,
      "Ġrafa": 5704,
      "Ġimewa": 5705,
      "Ġwamea": 5706,
      "laani": 5707,
      "Ġiliyochezwa": 5708,
      "Ġkilindi": 5709,
      "Ġkutamba": 5710,
      "amuru": 5711,
      "Ġmtumishi": 5712,
      "Ġmwekundu": 5713,
      "Ġinayoendelea": 5714,
      "Ġkuteke": 5715,
      "Ġzinazofanywa": 5716,
      "Ġyaliyofanyika": 5717,
      "Ġlwa": 5718,
      "Ġufunguzi": 5719,
      "Ġkibao": 5720,
      "ingilio": 5721,
      "Ġwilb": 5722,
      "Ġkilosa": 5723,
      "Ġmanunuzi": 5724,
      "Ġmwenzao": 5725,
      "Ġmasalia": 5726,
      "laumu": 5727,
      "Ġzfa": 5728,
      "Ġkunyongwa": 5729,
      "gharimu": 5730,
      "Ġmchele": 5731,
      "Ġbenedict": 5732,
      "Ġyatima": 5733,
      "Ġmavazi": 5734,
      "Ġriadha": 5735,
      "Ġkuwezesha": 5736,
      "Ġkuruhusiwa": 5737,
      "Ġubunifu": 5738,
      "Ġangalia": 5739,
      "rida": 5740,
      "Ġini": 5741,
      "weni": 5742,
      "lele": 5743,
      "bishwa": 5744,
      "sanyiko": 5745,
      "Ġkuwaomba": 5746,
      "Ġtajiri": 5747,
      "Ġzana": 5748,
      "tenga": 5749,
      "Ġbati": 5750,
      "Ġwanamuziki": 5751,
      "Ġilifanya": 5752,
      "ngusha": 5753,
      "Ġwalifikishwa": 5754,
      "Ġeva": 5755,
      "Ġjane": 5756,
      "Ġjasho": 5757,
      "Ġlilia": 5758,
      "jengea": 5759,
      "Ġjua": 5760,
      "Ġanadai": 5761,
      "Ġinashangaza": 5762,
      "gusa": 5763,
      "Ġmungi": 5764,
      "dhili": 5765,
      "Ġamem": 5766,
      "Ġkuongea": 5767,
      "Ġmaarifa": 5768,
      "mbeni": 5769,
      "liondo": 5770,
      "Ġiliyotokea": 5771,
      "Ġunatakiwa": 5772,
      "Ġtenga": 5773,
      "Ġmsimbazi": 5774,
      "Ġkutafakari": 5775,
      "Ġwanaocheza": 5776,
      "Ġruhu": 5777,
      "Ġshadra": 5778,
      "Ġdosari": 5779,
      "Ġzilizopatikana": 5780,
      "Ġhaiwezekani": 5781,
      "fikiria": 5782,
      "Ġzinazoendelea": 5783,
      "Ġdhaifu": 5784,
      "Ġzimeanza": 5785,
      "Ġfikra": 5786,
      "Ġkutuma": 5787,
      "Ġcanna": 5788,
      "Ġndefu": 5789,
      "Ġrwa": 5790,
      "Ġkutinga": 5791,
      "Ġkutishia": 5792,
      "Ġujue": 5793,
      "Ġmadawati": 5794,
      "Ġcommuni": 5795,
      "Ġpopote": 5796,
      "Ġkunufaika": 5797,
      "Ġnadir": 5798,
      "Ġshadrack": 5799,
      "Ġcannavaro": 5800,
      "gele": 5801,
      "iri": 5802,
      "nka": 5803,
      "lix": 5804,
      "Ġwaishi": 5805,
      "Ġwachungaji": 5806,
      "Ġkuzo": 5807,
      "Ġkupu": 5808,
      "Ġkukwamisha": 5809,
      "Ġunga": 5810,
      "Ġnami": 5811,
      "Ġant": 5812,
      "ngwana": 5813,
      "Ġsm": 5814,
      "Ġmapu": 5815,
      "Ġmary": 5816,
      "Ġmapungufu": 5817,
      "Ġmatha": 5818,
      "Ġkari": 5819,
      "kusudi": 5820,
      "Ġharou": 5821,
      "Ġalionesha": 5822,
      "Ġaliingia": 5823,
      "Ġalithibitisha": 5824,
      "Ġaliliambia": 5825,
      "Ġkuwahoji": 5826,
      "Ġkuwajibika": 5827,
      "tengeneza": 5828,
      "Ġmina": 5829,
      "kosea": 5830,
      "pitia": 5831,
      "pigiwa": 5832,
      "Ġvibali": 5833,
      "Ġwanadai": 5834,
      "Ġilim": 5835,
      "Ġilisababisha": 5836,
      "fisha": 5837,
      "reji": 5838,
      "Ġmwake": 5839,
      "Ġmwanga": 5840,
      "Ġdua": 5841,
      "pendwa": 5842,
      "mbozi": 5843,
      "Ġpatel": 5844,
      "Ġakichangia": 5845,
      "sumbua": 5846,
      "Ġhaoni": 5847,
      "Ġkuita": 5848,
      "Ġshiniki": 5849,
      "Ġimesha": 5850,
      "Ġwamesha": 5851,
      "Ġmahanga": 5852,
      "Ġwaliokamatwa": 5853,
      "Ġunapaswa": 5854,
      "boli": 5855,
      "Ġwaondo": 5856,
      "Ġmabango": 5857,
      "nduliwa": 5858,
      "Ġtunahitaji": 5859,
      "Ġkutembea": 5860,
      "shauriwa": 5861,
      "Ġkimaendeleo": 5862,
      "Ġakasema": 5863,
      "Ġloliondo": 5864,
      "Ġngawai": 5865,
      "Ġkukiri": 5866,
      "Ġkuchambua": 5867,
      "ndaaji": 5868,
      "funguliwa": 5869,
      "Ġwenzangu": 5870,
      "Ġghala": 5871,
      "katare": 5872,
      "Ġkulazwa": 5873,
      "Ġujuzi": 5874,
      "Ġmagodoro": 5875,
      "Ġukimya": 5876,
      "Ġkaratu": 5877,
      "Ġmahujaji": 5878,
      "Ġmtoni": 5879,
      "sikilizwa": 5880,
      "Ġkusuku": 5881,
      "Ġwahisani": 5882,
      "faulu": 5883,
      "Ġkorogwe": 5884,
      "Ġtunduma": 5885,
      "Ġigp": 5886,
      "Ġmarufuku": 5887,
      "Ġlwakatare": 5888,
      "Ġmungiki": 5889,
      "Ġantho": 5890,
      "kusudiwa": 5891,
      "Ġshinikizo": 5892,
      "Ġngawaiya": 5893,
      "hc": 5894,
      "ipata": 5895,
      "pre": 5896,
      "sso": 5897,
      "Ġkongo": 5898,
      "Ġmzito": 5899,
      "Ġangekuwa": 5900,
      "Ġangola": 5901,
      "tiboli": 5902,
      "jifunza": 5903,
      "sikika": 5904,
      "Ġkiha": 5905,
      "Ġkimia": 5906,
      "Ġkirahisi": 5907,
      "toshe": 5908,
      "sama": 5909,
      "mila": 5910,
      "Ġvvu": 5911,
      "Ġkuwao": 5912,
      "buru": 5913,
      "tengwa": 5914,
      "tengenezwa": 5915,
      "Ġvifungu": 5916,
      "Ġvitendea": 5917,
      "Ġilionekana": 5918,
      "cheni": 5919,
      "chelewe": 5920,
      "Ġtuske": 5921,
      "Ġlisi": 5922,
      "Ġinasema": 5923,
      "Ġpole": 5924,
      "Ġwatalii": 5925,
      "Ġwakitoa": 5926,
      "Ġkujiendesha": 5927,
      "Ġkujitegemea": 5928,
      "Ġwaliondoka": 5929,
      "Ġwaliohudhuria": 5930,
      "Ġfeki": 5931,
      "Ġhou": 5932,
      "Ġhatujui": 5933,
      "Ġmwito": 5934,
      "Ġitasaidia": 5935,
      "Ġkuhudumia": 5936,
      "Ġaliyewahi": 5937,
      "Ġkukabili": 5938,
      "Ġnguru": 5939,
      "Ġkusitishwa": 5940,
      "Ġtumeona": 5941,
      "Ġmbrazili": 5942,
      "Ġreu": 5943,
      "nyima": 5944,
      "Ġyanayoweza": 5945,
      "Ġmatusi": 5946,
      "Ġchote": 5947,
      "Ġabdi": 5948,
      "Ġnetiboli": 5949,
      "Ġmafundi": 5950,
      "Ġuanga": 5951,
      "Ġhauwezi": 5952,
      "Ġmasoud": 5953,
      "kumbuka": 5954,
      "Ġvilivyopo": 5955,
      "Ġkuchezea": 5956,
      "nufaisha": 5957,
      "nufaika": 5958,
      "thibitishwa": 5959,
      "Ġabeid": 5960,
      "Ġuzalendo": 5961,
      "rrison": 5962,
      "Ġruhusa": 5963,
      "Ġkimiani": 5964,
      "Ġtusker": 5965,
      "fta": 5966,
      "Ġzu": 5967,
      "Ġmkia": 5968,
      "Ġmdhamini": 5969,
      "Ġmlalamikaji": 5970,
      "hile": 5971,
      "Ġaz": 5972,
      "Ġmato": 5973,
      "Ġmamia": 5974,
      "Ġmado": 5975,
      "tive": 5976,
      "zipata": 5977,
      "Ġharrison": 5978,
      "husishwa": 5979,
      "siti": 5980,
      "Ġkiwe": 5981,
      "Ġkiga": 5982,
      "Ġkibaya": 5983,
      "dii": 5984,
      "Ġkuwatia": 5985,
      "Ġkuwaona": 5986,
      "keli": 5987,
      "buti": 5988,
      "Ġbais": 5989,
      "Ġbalali": 5990,
      "pitishwa": 5991,
      "Ġbla": 5992,
      "Ġvichwa": 5993,
      "Ġwanane": 5994,
      "Ġwanariadha": 5995,
      "Ġwaliamua": 5996,
      "Ġdau": 5997,
      "Ġbidii": 5998,
      "Ġinaongoza": 5999,
      "Ġpadri": 6000,
      "gue": 6001,
      "Ġpius": 6002,
      "Ġkuiga": 6003,
      "Ġkuoa": 6004,
      "Ġimepata": 6005,
      "Ġmaandishi": 6006,
      "Ġkujio": 6007,
      "nusurika": 6008,
      "Ġwaliona": 6009,
      "Ġunaonesha": 6010,
      "Ġutajiri": 6011,
      "viti": 6012,
      "Ġkampa": 6013,
      "nyakua": 6014,
      "thimini": 6015,
      "Ġshukuru": 6016,
      "Ġmabaki": 6017,
      "Ġdeo": 6018,
      "Ġmatano": 6019,
      "Ġwenyeviti": 6020,
      "Ġbuti": 6021,
      "Ġkutekelezwa": 6022,
      "Ġatafanya": 6023,
      "Ġmtafaruku": 6024,
      "Ġunaotarajiwa": 6025,
      "Ġanayedaiwa": 6026,
      "Ġkitanzania": 6027,
      "subiriwa": 6028,
      "Ġkuelezwa": 6029,
      "Ġwill": 6030,
      "singizio": 6031,
      "Ġmageuzi": 6032,
      "Ġmasikio": 6033,
      "Ġupote": 6034,
      "Ġfred": 6035,
      "Ġmumewe": 6036,
      "Ġkusafisha": 6037,
      "Ġazimio": 6038,
      "Ġkukemea": 6039,
      "Ġkiislam": 6040,
      "Ġnjombe": 6041,
      "Ġuuzaji": 6042,
      "Ġvipengele": 6043,
      "Ġglory": 6044,
      "Ġmadhubuti": 6045,
      "Ġharoub": 6046,
      "Ġnguruwe": 6047,
      "Ġreuben": 6048,
      "Ġbaiskeli": 6049,
      "andaa": 6050,
      "ashiria": 6051,
      "bongo": 6052,
      "ikabili": 6053,
      "mk": 6054,
      "Ġkushi": 6055,
      "Ġkulalamika": 6056,
      "Ġuchezaji": 6057,
      "Ġmauri": 6058,
      "tine": 6059,
      "Ġisa": 6060,
      "sibu": 6061,
      "Ġhiddi": 6062,
      "Ġalipiga": 6063,
      "pania": 6064,
      "Ġkuwaua": 6065,
      "Ġmibovu": 6066,
      "Ġblu": 6067,
      "Ġvikiwa": 6068,
      "elekezwa": 6069,
      "ficha": 6070,
      "Ġenter": 6071,
      "Ġtusi": 6072,
      "Ġmwando": 6073,
      "Ġziweze": 6074,
      "Ġanawa": 6075,
      "Ġmeno": 6076,
      "geuka": 6077,
      "Ġjinsia": 6078,
      "Ġcpa": 6079,
      "Ġamekiri": 6080,
      "Ġkuiomba": 6081,
      "Ġimezidi": 6082,
      "Ġmaafisa": 6083,
      "ndeni": 6084,
      "Ġwamedai": 6085,
      "Ġposta": 6086,
      "laamu": 6087,
      "Ġkujiuliza": 6088,
      "Ġwaliozungumza": 6089,
      "Ġkumpata": 6090,
      "soka": 6091,
      "Ġunaona": 6092,
      "Ġjerry": 6093,
      "Ġtony": 6094,
      "Ġpepe": 6095,
      "tumike": 6096,
      "bishara": 6097,
      "Ġikifuatiwa": 6098,
      "Ġshari": 6099,
      "Ġkipimo": 6100,
      "Ġkuzikwa": 6101,
      "Ġyou": 6102,
      "Ġwakiwamo": 6103,
      "Ġchenge": 6104,
      "Ġmtazamo": 6105,
      "Ġkujengwa": 6106,
      "Ġmbiu": 6107,
      "Ġdira": 6108,
      "Ġkumuona": 6109,
      "Ġkisaikolojia": 6110,
      "Ġmserbia": 6111,
      "Ġubalozi": 6112,
      "Ġwavuvi": 6113,
      "Ġseleman": 6114,
      "Ġathumani": 6115,
      "Ġpauni": 6116,
      "Ġinterna": 6117,
      "Ġkifupi": 6118,
      "Ġkuaminika": 6119,
      "Ġtumbaku": 6120,
      "Ġsunguti": 6121,
      "Ġjapan": 6122,
      "Ġparty": 6123,
      "Ġhiddink": 6124,
      "Ġmwandosya": 6125,
      "ishia": 6126,
      "nho": 6127,
      "rre": 6128,
      "Ġmkwaju": 6129,
      "Ġwatoe": 6130,
      "Ġudi": 6131,
      "Ġumiliki": 6132,
      "hisho": 6133,
      "tambulika": 6134,
      "bas": 6135,
      "mad": 6136,
      "Ġkado": 6137,
      "Ġhayu": 6138,
      "Ġkiki": 6139,
      "Ġkitaka": 6140,
      "Ġkikristo": 6141,
      "Ġkishindo": 6142,
      "Ġalifikishwa": 6143,
      "tofautiana": 6144,
      "changanya": 6145,
      "Ġkuwako": 6146,
      "Ġzako": 6147,
      "Ġsingo": 6148,
      "Ġbakwa": 6149,
      "Ġsalamu": 6150,
      "Ġwanandoa": 6151,
      "loni": 6152,
      "win": 6153,
      "Ġkutokuwepo": 6154,
      "Ġwalidaiwa": 6155,
      "Ġmolle": 6156,
      "Ġeac": 6157,
      "Ġmwafaka": 6158,
      "Ġmwangunga": 6159,
      "Ġdro": 6160,
      "roni": 6161,
      "zuku": 6162,
      "Ġanam": 6163,
      "Ġakisisitiza": 6164,
      "dhihirisha": 6165,
      "Ġmembe": 6166,
      "Ġcwt": 6167,
      "Ġkuonya": 6168,
      "Ġwatafanya": 6169,
      "Ġwakisubiri": 6170,
      "Ġkumkamata": 6171,
      "Ġfelix": 6172,
      "Ġbondia": 6173,
      "Ġpha": 6174,
      "Ġzinasema": 6175,
      "Ġtunatakiwa": 6176,
      "minifu": 6177,
      "Ġwanaodaiwa": 6178,
      "Ġruzuku": 6179,
      "Ġkupanua": 6180,
      "Ġmaskini": 6181,
      "Ġtumeamua": 6182,
      "Ġhero": 6183,
      "Ġnyara": 6184,
      "ibua": 6185,
      "Ġcheka": 6186,
      "rishaji": 6187,
      "Ġmfadhili": 6188,
      "Ġkumalizia": 6189,
      "Ġkilichofanyika": 6190,
      "Ġneno": 6191,
      "Ġkhamis": 6192,
      "Ġuvunji": 6193,
      "Ġkuingizwa": 6194,
      "Ġlikizo": 6195,
      "Ġsuluhisho": 6196,
      "sainiwa": 6197,
      "Ġkagaruki": 6198,
      "Ġmassati": 6199,
      "Ġmzambia": 6200,
      "Ġanthony": 6201,
      "Ġupotevu": 6202,
      "Ġbakwata": 6203,
      "Ġuvunjifu": 6204,
      "cis": 6205,
      "lfan": 6206,
      "opia": 6207,
      "ste": 6208,
      "sco": 6209,
      "Ġkhe": 6210,
      "Ġkushambulia": 6211,
      "Ġkukamata": 6212,
      "Ġkukwepa": 6213,
      "hamu": 6214,
      "Ġukati": 6215,
      "Ġubongo": 6216,
      "Ġara": 6217,
      "Ġmabu": 6218,
      "Ġmafua": 6219,
      "zalishwa": 6220,
      "rick": 6221,
      "Ġkavu": 6222,
      "kusanya": 6223,
      "hukumiwa": 6224,
      "Ġkigogo": 6225,
      "Ġkioo": 6226,
      "Ġalikana": 6227,
      "Ġalicheza": 6228,
      "tofu": 6229,
      "mie": 6230,
      "miria": 6231,
      "Ġkuwahi": 6232,
      "kelewa": 6233,
      "teua": 6234,
      "Ġsimon": 6235,
      "Ġbare": 6236,
      "Ġbalama": 6237,
      "pisha": 6238,
      "Ġvisima": 6239,
      "Ġvinywaji": 6240,
      "Ġilitokea": 6241,
      "noa": 6242,
      "elewi": 6243,
      "Ġjanga": 6244,
      "Ġjalada": 6245,
      "Ġzipi": 6246,
      "dhamiria": 6247,
      "Ġanakabiliwa": 6248,
      "Ġmushi": 6249,
      "Ġtb": 6250,
      "Ġamelazwa": 6251,
      "Ġkuanguka": 6252,
      "Ġkuiwezesha": 6253,
      "Ġimefanya": 6254,
      "Ġimeweka": 6255,
      "Ġimeongezeka": 6256,
      "Ġwamefanya": 6257,
      "Ġpotofu": 6258,
      "Ġkuuliza": 6259,
      "thiopia": 6260,
      "Ġshehe": 6261,
      "Ġmsisi": 6262,
      "Ġpre": 6263,
      "Ġkufungiwa": 6264,
      "Ġzinatakiwa": 6265,
      "Ġwoga": 6266,
      "Ġtunacho": 6267,
      "Ġlori": 6268,
      "Ġaliondoka": 6269,
      "Ġmartin": 6270,
      "Ġkurudishiwa": 6271,
      "Ġkutimua": 6272,
      "Ġhajawahi": 6273,
      "Ġhaziwezi": 6274,
      "simamisha": 6275,
      "Ġmabehewa": 6276,
      "Ġwauguzi": 6277,
      "Ġasiye": 6278,
      "Ġaliahidi": 6279,
      "anzia": 6280,
      "Ġwazawa": 6281,
      "Ġkizimbani": 6282,
      "Ġismail": 6283,
      "Ġfrancis": 6284,
      "Ġaugustino": 6285,
      "Ġtabata": 6286,
      "Ġkampala": 6287,
      "Ġbaregu": 6288,
      "iser": 6289,
      "nta": 6290,
      "rma": 6291,
      "wji": 6292,
      "wasaidia": 6293,
      "Ġwaje": 6294,
      "Ġkuru": 6295,
      "Ġkuripoti": 6296,
      "Ġkuridhisha": 6297,
      "Ġukuta": 6298,
      "Ġubovu": 6299,
      "Ġuchimbaji": 6300,
      "Ġaende": 6301,
      "tamka": 6302,
      "Ġmafi": 6303,
      "lana": 6304,
      "Ġkako": 6305,
      "kusa": 6306,
      "kumo": 6307,
      "sihi": 6308,
      "jali": 6309,
      "Ġkibaki": 6310,
      "Ġkisiwani": 6311,
      "Ġkijeshi": 6312,
      "Ġalini": 6313,
      "fajiri": 6314,
      "meh": 6315,
      "Ġlabo": 6316,
      "Ġnhc": 6317,
      "neur": 6318,
      "Ġmifa": 6319,
      "Ġsalo": 6320,
      "pingwa": 6321,
      "Ġvidogo": 6322,
      "Ġilishindwa": 6323,
      "Ġilitokana": 6324,
      "moka": 6325,
      "widhi": 6326,
      "ngulia": 6327,
      "Ġwaliingia": 6328,
      "Ġinalenga": 6329,
      "Ġmuu": 6330,
      "Ġmusa": 6331,
      "sulu": 6332,
      "Ġkuimba": 6333,
      "Ġshimo": 6334,
      "dole": 6335,
      "Ġkel": 6336,
      "Ġkumshambulia": 6337,
      "Ġkumweleza": 6338,
      "boresha": 6339,
      "Ġkufanyakazi": 6340,
      "tokeze": 6341,
      "Ġkilieleza": 6342,
      "Ġdewji": 6343,
      "Ġfaraja": 6344,
      "Ġpenzi": 6345,
      "Ġulifanyika": 6346,
      "tumie": 6347,
      "Ġchigu": 6348,
      "Ġsukari": 6349,
      "Ġkupandisha": 6350,
      "Ġwaache": 6351,
      "Ġsharti": 6352,
      "Ġinayosababisha": 6353,
      "Ġriba": 6354,
      "Ġalfajiri": 6355,
      "Ġhebu": 6356,
      "Ġmaziwa": 6357,
      "Ġmazito": 6358,
      "Ġkuzindua": 6359,
      "Ġkukithiri": 6360,
      "Ġkujadiliwa": 6361,
      "Ġmaovu": 6362,
      "Ġmfawidhi": 6363,
      "Ġkuhamia": 6364,
      "Ġmbolea": 6365,
      "Ġmikanda": 6366,
      "Ġedson": 6367,
      "Ġkumudu": 6368,
      "Ġhaukuwa": 6369,
      "Ġkubainisha": 6370,
      "Ġkuwaambia": 6371,
      "Ġkuhitimu": 6372,
      "trice": 6373,
      "Ġatakapo": 6374,
      "Ġkuwasilishwa": 6375,
      "Ġmahindi": 6376,
      "Ġnjano": 6377,
      "Ġkorosho": 6378,
      "Ġkukerwa": 6379,
      "Ġbeatrice": 6380,
      "saidie": 6381,
      "Ġisrael": 6382,
      "Ġmiembeni": 6383,
      "Ġhiari": 6384,
      "Ġfreeman": 6385,
      "Ġchalenji": 6386,
      "Ġwaishio": 6387,
      "preneur": 6388,
      "preneurship": 6389,
      "gba": 6390,
      "ir": 6391,
      "ongea": 6392,
      "ssu": 6393,
      "ure": 6394,
      "Ġnggombe": 6395,
      "Ġmtoa": 6396,
      "Ġwaga": 6397,
      "haribu": 6398,
      "Ġuwi": 6399,
      "Ġukio": 6400,
      "kasa": 6401,
      "Ġase": 6402,
      "Ġmakwa": 6403,
      "Ġmauli": 6404,
      "zar": 6405,
      "Ġiran": 6406,
      "kura": 6407,
      "huo": 6408,
      "jan": 6409,
      "Ġkigoda": 6410,
      "paswi": 6411,
      "Ġkuwabana": 6412,
      "Ġmisu": 6413,
      "Ġwanatoa": 6414,
      "Ġiliamua": 6415,
      "Ġwaliendelea": 6416,
      "Ġethiopia": 6417,
      "Ġserbia": 6418,
      "rence": 6419,
      "dhalilisha": 6420,
      "Ġinacheza": 6421,
      "nias": 6422,
      "Ġhuohuo": 6423,
      "Ġakiendelea": 6424,
      "Ġametangaza": 6425,
      "Ġimeji": 6426,
      "Ġkujitolea": 6427,
      "Ġkumchagua": 6428,
      "Ġkazimoto": 6429,
      "Ġitafanyika": 6430,
      "Ġmkanda": 6431,
      "Ġkulima": 6432,
      "Ġmaradhi": 6433,
      "Ġaliyejitambulisha": 6434,
      "onea": 6435,
      "onekane": 6436,
      "Ġgla": 6437,
      "Ġyanaendelea": 6438,
      "Ġshaban": 6439,
      "Ġshambulizi": 6440,
      "milivu": 6441,
      "Ġrisiti": 6442,
      "Ġchumbani": 6443,
      "Ġdhamira": 6444,
      "Ġyanayowakabili": 6445,
      "Ġlimesema": 6446,
      "Ġkuvuru": 6447,
      "Ġcaf": 6448,
      "badilika": 6449,
      "Ġtanganyika": 6450,
      "Ġwasiokuwa": 6451,
      "Ġstephe": 6452,
      "Ġwaliyokuwa": 6453,
      "Ġwaliyonayo": 6454,
      "Ġhawajawahi": 6455,
      "Ġkiafya": 6456,
      "Ġadam": 6457,
      "Ġkuajiriwa": 6458,
      "Ġshwari": 6459,
      "Ġharambee": 6460,
      "Ġmustakabali": 6461,
      "Ġmachafuko": 6462,
      "Ġcommunity": 6463,
      "Ġdrogba": 6464,
      "Ġlabour": 6465,
      "Ġstephen": 6466,
      "as": 6467,
      "et": 6468,
      "lme": 6469,
      "rro": 6470,
      "nazo": 6471,
      "nachama": 6472,
      "Ġmje": 6473,
      "Ġwazo": 6474,
      "Ġkutisha": 6475,
      "Ġkuzomea": 6476,
      "Ġubia": 6477,
      "Ġnacho": 6478,
      "hisa": 6479,
      "Ġmaya": 6480,
      "Ġmakele": 6481,
      "timisha": 6482,
      "Ġkamba": 6483,
      "Ġiman": 6484,
      "Ġkibo": 6485,
      "Ġkishiriki": 6486,
      "ses": 6487,
      "teni": 6488,
      "popo": 6489,
      "kosoa": 6490,
      "pindu": 6491,
      "Ġbre": 6492,
      "Ġiliwa": 6493,
      "Ġilishuhudia": 6494,
      "chea": 6495,
      "Ġtuwe": 6496,
      "Ġmwalala": 6497,
      "Ġmwanyika": 6498,
      "Ġlitaka": 6499,
      "Ġtimo": 6500,
      "roho": 6501,
      "Ġmuhusika": 6502,
      "Ġold": 6503,
      "Ġmaabara": 6504,
      "mbiji": 6505,
      "Ġwametoa": 6506,
      "Ġpongezi": 6507,
      "Ġwatacheza": 6508,
      "kamanda": 6509,
      "Ġutaa": 6510,
      "Ġkupimwa": 6511,
      "Ġitachukua": 6512,
      "Ġtembo": 6513,
      "Ġzinatarajiwa": 6514,
      "ndupindu": 6515,
      "Ġtosha": 6516,
      "Ġtunayo": 6517,
      "Ġwaajiri": 6518,
      "shutu": 6519,
      "Ġinayotolewa": 6520,
      "Ġkipindupindu": 6521,
      "Ġnyasi": 6522,
      "Ġmadaraja": 6523,
      "Ġfinias": 6524,
      "Ġcheyo": 6525,
      "Ġushambulia": 6526,
      "Ġushawishi": 6527,
      "Ġukiukwa": 6528,
      "Ġhayana": 6529,
      "fungaji": 6530,
      "Ġkeshokutwa": 6531,
      "Ġukame": 6532,
      "Ġukabila": 6533,
      "Ġlililotolewa": 6534,
      "Ġmbinga": 6535,
      "Ġcar": 6536,
      "Ġufugaji": 6537,
      "lalamikiwa": 6538,
      "Ġuanzi": 6539,
      "Ġuanachama": 6540,
      "Ġkimekuwa": 6541,
      "ntre": 6542,
      "Ġukonga": 6543,
      "Ġmnada": 6544,
      "Ġkhalfan": 6545,
      "Ġkumekuwepo": 6546,
      "Ġgray": 6547,
      "Ġmsumbiji": 6548,
      "sikitika": 6549,
      "suasua": 6550,
      "fred": 6551,
      "Ġusoni": 6552,
      "Ġwanamgambo": 6553,
      "Ġmgawanyiko": 6554,
      "Ġtrilioni": 6555,
      "Ġmapunda": 6556,
      "Ġkitakacho": 6557,
      "Ġushambuliaji": 6558,
      "Ġukiukwaji": 6559,
      "bri": 6560,
      "gg": 6561,
      "ghara": 6562,
      "vua": 6563,
      "Ġmbwa": 6564,
      "Ġkudhamini": 6565,
      "hau": 6566,
      "Ġupiga": 6567,
      "kawa": 6568,
      "Ġamana": 6569,
      "Ġaondo": 6570,
      "baisha": 6571,
      "Ġsto": 6572,
      "Ġmavu": 6573,
      "Ġmathi": 6574,
      "Ġkaya": 6575,
      "Ġalilalamika": 6576,
      "Ġtaf": 6577,
      "Ġnico": 6578,
      "tendaji": 6579,
      "koste": 6580,
      "ngisha": 6581,
      "chie": 6582,
      "Ġwanaji": 6583,
      "roro": 6584,
      "jeruhi": 6585,
      "Ġmkuchika": 6586,
      "choma": 6587,
      "nzia": 6588,
      "Ġpark": 6589,
      "Ġamei": 6590,
      "Ġameanza": 6591,
      "Ġkuachwa": 6592,
      "Ġkuogopa": 6593,
      "Ġkujitoa": 6594,
      "Ġiliyobaki": 6595,
      "Ġunavyo": 6596,
      "tiative": 6597,
      "Ġkupinduka": 6598,
      "Ġaliyefariki": 6599,
      "Ġtoba": 6600,
      "Ġtoleo": 6601,
      "Ġchifu": 6602,
      "Ġlilitolewa": 6603,
      "Ġmgongano": 6604,
      "Ġnguzo": 6605,
      "vamiwa": 6606,
      "Ġalipofika": 6607,
      "Ġzinazoshiriki": 6608,
      "Ġwasira": 6609,
      "Ġloi": 6610,
      "Ġlos": 6611,
      "Ġkiutendaji": 6612,
      "Ġkupora": 6613,
      "Ġkutupa": 6614,
      "Ġkutunga": 6615,
      "Ġmboma": 6616,
      "Ġkupigana": 6617,
      "Ġtuliyo": 6618,
      "stina": 6619,
      "Ġukusanya": 6620,
      "ingizwa": 6621,
      "Ġkulau": 6622,
      "Ġmifuko": 6623,
      "Ġwahanga": 6624,
      "Ġlikiwemo": 6625,
      "Ġmjane": 6626,
      "Ġilipofika": 6627,
      "Ġutakapo": 6628,
      "Ġhamasa": 6629,
      "Ġmsukumo": 6630,
      "ntekoste": 6631,
      "Ġtetesi": 6632,
      "Ġbarakat": 6633,
      "Ġunyanyasaji": 6634,
      "Ġkelvin": 6635,
      "Ġupigaji": 6636,
      "baishaji": 6637,
      "Ġmathias": 6638,
      "Ġukusanyaji": 6639,
      "ah": 6640,
      "cra": 6641,
      "ime": 6642,
      "lsa": 6643,
      "mpuni": 6644,
      "phia": 6645,
      "rg": 6646,
      "upata": 6647,
      "wasa": 6648,
      "Ġmshtakiwa": 6649,
      "Ġkumba": 6650,
      "hala": 6651,
      "Ġuke": 6652,
      "Ġuchelewe": 6653,
      "Ġnasema": 6654,
      "nidhamu": 6655,
      "Ġade": 6656,
      "riti": 6657,
      "kimba": 6658,
      "Ġkamu": 6659,
      "Ġhafi": 6660,
      "Ġhindi": 6661,
      "Ġkinidhamu": 6662,
      "Ġalidaiwa": 6663,
      "Ġalimwambia": 6664,
      "fai": 6665,
      "lensia": 6666,
      "mehe": 6667,
      "tekelezwa": 6668,
      "Ġsivyo": 6669,
      "polo": 6670,
      "Ġmillya": 6671,
      "pima": 6672,
      "Ġviji": 6673,
      "Ġvivu": 6674,
      "Ġchati": 6675,
      "Ġilifungwa": 6676,
      "Ġwalipewa": 6677,
      "ruiser": 6678,
      "rekani": 6679,
      "Ġmwalu": 6680,
      "Ġanazo": 6681,
      "Ġanaeleza": 6682,
      "Ġanashangazwa": 6683,
      "Ġpapi": 6684,
      "Ġakiishi": 6685,
      "Ġakisoma": 6686,
      "Ġakielezea": 6687,
      "dhia": 6688,
      "Ġmeja": 6689,
      "Ġtp": 6690,
      "Ġmbaroni": 6691,
      "Ġamedai": 6692,
      "Ġkuathirika": 6693,
      "Ġobre": 6694,
      "mbiki": 6695,
      "Ġkujiweka": 6696,
      "Ġholela": 6697,
      "Ġunataka": 6698,
      "Ġhatutaki": 6699,
      "Ġbonde": 6700,
      "Ġkulizungumzia": 6701,
      "Ġsophia": 6702,
      "Ġmwenge": 6703,
      "Ġkusaba": 6704,
      "Ġkukatwa": 6705,
      "Ġyalifanyika": 6706,
      "Ġmakabila": 6707,
      "Ġyanatokana": 6708,
      "Ġduka": 6709,
      "Ġregi": 6710,
      "Ġzinazowakabili": 6711,
      "Ġlolensia": 6712,
      "Ġushabiki": 6713,
      "Ġhayawezi": 6714,
      "Ġanayeweza": 6715,
      "Ġcamero": 6716,
      "dharau": 6717,
      "Ġvyetu": 6718,
      "Ġalimtaja": 6719,
      "Ġmajumbani": 6720,
      "nyonge": 6721,
      "Ġaliifungia": 6722,
      "Ġmipaka": 6723,
      "Ġamatus": 6724,
      "Ġmasilingi": 6725,
      "Ġvikuu": 6726,
      "Ġbaharini": 6727,
      "Ġvimekuwa": 6728,
      "ther": 6729,
      "Ġmwaikimba": 6730,
      "Ġkidemokrasia": 6731,
      "Ġusafirishaji": 6732,
      "Ġbeach": 6733,
      "Ġkhalifa": 6734,
      "Ġbernard": 6735,
      "Ġwilbroad": 6736,
      "Ġwaondoke": 6737,
      "Ġmifano": 6738,
      "Ġchigumbi": 6739,
      "Ġmaulid": 6740,
      "Ġcameroon": 6741,
      "by": 6742,
      "fford": 6743,
      "Ġkuzima": 6744,
      "Ġuone": 6745,
      "Ġang": 6746,
      "Ġangele": 6747,
      "Ġsy": 6748,
      "Ġmaua": 6749,
      "tie": 6750,
      "tika": 6751,
      "Ġishi": 6752,
      "wekeza": 6753,
      "ture": 6754,
      "mbazaji": 6755,
      "mbawanga": 6756,
      "Ġalichukua": 6757,
      "letwa": 6758,
      "semi": 6759,
      "Ġkuwazuia": 6760,
      "Ġnze": 6761,
      "Ġmisi": 6762,
      "Ġsaidi": 6763,
      "pilia": 6764,
      "Ġwanaki": 6765,
      "Ġwanakwenda": 6766,
      "Ġwanaonekana": 6767,
      "Ġwanatarajiwa": 6768,
      "Ġilii": 6769,
      "Ġiliifunga": 6770,
      "Ġkutoku": 6771,
      "Ġkutoko": 6772,
      "nzaji": 6773,
      "jukuu": 6774,
      "Ġeph": 6775,
      "gae": 6776,
      "Ġtukiwa": 6777,
      "Ġdc": 6778,
      "Ġanahitaji": 6779,
      "Ġanapokuwa": 6780,
      "Ġwakali": 6781,
      "Ġmukasa": 6782,
      "Ġakitangaza": 6783,
      "Ġwinga": 6784,
      "Ġcruiser": 6785,
      "Ġimebaki": 6786,
      "Ġone": 6787,
      "Ġwatalaamu": 6788,
      "Ġwakipata": 6789,
      "somwa": 6790,
      "Ġmkasa": 6791,
      "Ġhakuweza": 6792,
      "Ġmakampuni": 6793,
      "Ġsued": 6794,
      "Ġsumbawanga": 6795,
      "Ġmaswa": 6796,
      "Ġikiwezekana": 6797,
      "Ġwaasi": 6798,
      "Ġalipokea": 6799,
      "Ġwasiwe": 6800,
      "Ġuhujumu": 6801,
      "Ġukiendelea": 6802,
      "endana": 6803,
      "Ġunaoendelea": 6804,
      "Ġkuvutia": 6805,
      "Ġkukua": 6806,
      "Ġuhasama": 6807,
      "Ġchoo": 6808,
      "ongozana": 6809,
      "Ġmark": 6810,
      "Ġneema": 6811,
      "Ġkileleni": 6812,
      "Ġualimu": 6813,
      "Ġuadilifu": 6814,
      "ngenezaji": 6815,
      "Ġkununu": 6816,
      "ingilia": 6817,
      "lipuka": 6818,
      "Ġforodha": 6819,
      "Ġmtaalamu": 6820,
      "Ġteksi": 6821,
      "Ġutunzaji": 6822,
      "anzisha": 6823,
      "Ġgumbo": 6824,
      "Ġbukombe": 6825,
      "Ġutakaofanyika": 6826,
      "Ġkugonga": 6827,
      "Ġmustapha": 6828,
      "Ġwasaidizi": 6829,
      "Ġuovu": 6830,
      "Ġkusikitisha": 6831,
      "Ġalasiri": 6832,
      "Ġazma": 6833,
      "Ġsharif": 6834,
      "Ġukatili": 6835,
      "Ġasec": 6836,
      "Ġmavuno": 6837,
      "Ġucheleweshaji": 6838,
      "Ġangeles": 6839,
      "Ġnzega": 6840,
      "acha": 6841,
      "djan": 6842,
      "rko": 6843,
      "spe": 6844,
      "uye": 6845,
      "Ġwatoa": 6846,
      "Ġwauaji": 6847,
      "Ġwangekuwa": 6848,
      "Ġwangeweza": 6849,
      "Ġwajue": 6850,
      "Ġkudu": 6851,
      "Ġkuthamini": 6852,
      "hazi": 6853,
      "hatisha": 6854,
      "Ġup": 6855,
      "Ġangeweza": 6856,
      "Ġyalianza": 6857,
      "tangulia": 6858,
      "bayo": 6859,
      "Ġmaru": 6860,
      "Ġmafta": 6861,
      "Ġmakamanda": 6862,
      "zinga": 6863,
      "Ġishara": 6864,
      "Ġkigi": 6865,
      "Ġkiroho": 6866,
      "Ġalitangaza": 6867,
      "Ġalijiunga": 6868,
      "danganya": 6869,
      "bile": 6870,
      "chari": 6871,
      "fuli": 6872,
      "sei": 6873,
      "Ġnilia": 6874,
      "teka": 6875,
      "Ġhutumika": 6876,
      "Ġbaridi": 6877,
      "Ġmidomo": 6878,
      "ngara": 6879,
      "Ġvisiwa": 6880,
      "Ġwanahisa": 6881,
      "ngewa": 6882,
      "Ġmouri": 6883,
      "Ġelia": 6884,
      "Ġeliza": 6885,
      "Ġdrc": 6886,
      "mboka": 6887,
      "Ġanaishi": 6888,
      "Ġinaonyesha": 6889,
      "Ġwigo": 6890,
      "Ġwenu": 6891,
      "Ġthi": 6892,
      "Ġamewahi": 6893,
      "Ġkuitisha": 6894,
      "Ġimefika": 6895,
      "Ġor": 6896,
      "Ġoba": 6897,
      "mbiu": 6898,
      "Ġwameji": 6899,
      "Ġkenne": 6900,
      "Ġwalioshiriki": 6901,
      "Ġwaliopanda": 6902,
      "Ġkumsababishia": 6903,
      "vita": 6904,
      "Ġtheir": 6905,
      "Ġteni": 6906,
      "Ġbega": 6907,
      "kwamua": 6908,
      "beza": 6909,
      "Ġmataraji": 6910,
      "Ġulimboka": 6911,
      "Ġmwanaha": 6912,
      "Ġmgonja": 6913,
      "ntina": 6914,
      "Ġkuteuliwa": 6915,
      "Ġkaulimbiu": 6916,
      "Ġkimapenzi": 6917,
      "Ġchuoni": 6918,
      "Ġstarehe": 6919,
      "Ġkurahi": 6920,
      "Ġluteni": 6921,
      "Ġmadarasa": 6922,
      "Ġkujaza": 6923,
      "lazimu": 6924,
      "Ġkukumbwa": 6925,
      "Ġugani": 6926,
      "Ġmboje": 6927,
      "Ġkinachoonekana": 6928,
      "Ġhazija": 6929,
      "dhuriwa": 6930,
      "Ġmifumo": 6931,
      "Ġabidjan": 6932,
      "Ġhakuwahi": 6933,
      "Ġikawa": 6934,
      "limpiki": 6935,
      "Ġmauzo": 6936,
      "Ġimeandaliwa": 6937,
      "Ġinavyodaiwa": 6938,
      "kadiriwa": 6939,
      "Ġkikomo": 6940,
      "Ġmagufuli": 6941,
      "Ġabout": 6942,
      "kumbatia": 6943,
      "Ġuangalizi": 6944,
      "Ġbutiku": 6945,
      "Ġinternational": 6946,
      "Ġadebayo": 6947,
      "Ġpapic": 6948,
      "Ġmourinho": 6949,
      "Ġmatarajio": 6950,
      "Ġadebayor": 6951,
      "azi": 6952,
      "cy": 6953,
      "em": 6954,
      "ima": 6955,
      "mpu": 6956,
      "stu": 6957,
      "ywe": 6958,
      "Ġh": 6959,
      "Ġmshauri": 6960,
      "Ġwachu": 6961,
      "Ġwashtakiwa": 6962,
      "Ġkutibu": 6963,
      "Ġkuyumba": 6964,
      "Ġkutumiwa": 6965,
      "Ġuti": 6966,
      "Ġnas": 6967,
      "Ġnaweza": 6968,
      "Ġadai": 6969,
      "Ġafanye": 6970,
      "Ġyalio": 6971,
      "ngg": 6972,
      "ziba": 6973,
      "Ġikia": 6974,
      "Ġipp": 6975,
      "siki": 6976,
      "sion": 6977,
      "tulia": 6978,
      "Ġkine": 6979,
      "Ġalisha": 6980,
      "Ġalikosa": 6981,
      "Ġalishangaa": 6982,
      "Ġalielezea": 6983,
      "shawishi": 6984,
      "Ġkuwapiga": 6985,
      "Ġkuwafikisha": 6986,
      "Ġtabu": 6987,
      "Ġniwa": 6988,
      "Ġnna": 6989,
      "ndarua": 6990,
      "Ġiliibuka": 6991,
      "Ġsenti": 6992,
      "Ġjaz": 6993,
      "Ġinakabiliwa": 6994,
      "Ġmuni": 6995,
      "Ġcrd": 6996,
      "Ġmbatia": 6997,
      "Ġkongwa": 6998,
      "Ġmianya": 6999,
      "Ġimebainika": 7000,
      "mbizi": 7001,
      "Ġwakikabiliwa": 7002,
      "Ġwaliokuwepo": 7003,
      "Ġkuufanya": 7004,
      "Ġkumnadi": 7005,
      "Ġmajini": 7006,
      "Ġbengo": 7007,
      "beth": 7008,
      "tumiaji": 7009,
      "silishwa": 7010,
      "Ġsomo": 7011,
      "Ġkutawa": 7012,
      "Ġtunakwenda": 7013,
      "Ġhakina": 7014,
      "Ġsuma": 7015,
      "Ġsuti": 7016,
      "Ġsuzy": 7017,
      "Ġkupaka": 7018,
      "Ġulioko": 7019,
      "Ġdomini": 7020,
      "Ġkusindika": 7021,
      "Ġatapata": 7022,
      "Ġrose": 7023,
      "cou": 7024,
      "Ġvitatu": 7025,
      "Ġunaofanyika": 7026,
      "Ġmanyo": 7027,
      "ondolea": 7028,
      "Ġtutaendelea": 7029,
      "Ġaitwa": 7030,
      "stine": 7031,
      "Ġbabati": 7032,
      "Ġkukopa": 7033,
      "Ġmigodi": 7034,
      "Ġasilia": 7035,
      "ddy": 7036,
      "nganyikiwa": 7037,
      "Ġtibai": 7038,
      "ristia": 7039,
      "Ġtaslimu": 7040,
      "Ġbrown": 7041,
      "Ġcanada": 7042,
      "Ġwhite": 7043,
      "Ġflavio": 7044,
      "Ġmapokezi": 7045,
      "Ġinitiative": 7046,
      "Ġmadola": 7047,
      "Ġtbl": 7048,
      "Ġuanzishwaji": 7049,
      "gharamia": 7050,
      "Ġobren": 7051,
      "Ġmisitu": 7052,
      "Ġelizabeth": 7053,
      "Ġcrdb": 7054,
      "Ġgiza": 7055,
      "nasa": 7056,
      "Ġwashauri": 7057,
      "Ġwavamizi": 7058,
      "Ġkushitakiwa": 7059,
      "Ġkusuasua": 7060,
      "Ġufahamu": 7061,
      "Ġare": 7062,
      "malia": 7063,
      "Ġmajo": 7064,
      "Ġkame": 7065,
      "Ġharusi": 7066,
      "Ġhandeni": 7067,
      "hudumia": 7068,
      "Ġkigezo": 7069,
      "Ġalihusika": 7070,
      "Ġaliibuka": 7071,
      "leti": 7072,
      "Ġkuwaso": 7073,
      "Ġkuwabaini": 7074,
      "Ġkuwakuta": 7075,
      "Ġtafsiri": 7076,
      "Ġhuna": 7077,
      "Ġbaria": 7078,
      "Ġmitu": 7079,
      "Ġmisuko": 7080,
      "Ġsanto": 7081,
      "ndamiza": 7082,
      "Ġchali": 7083,
      "Ġwanamichezo": 7084,
      "Ġiliendelea": 7085,
      "wita": 7086,
      "nguru": 7087,
      "Ġkutolea": 7088,
      "nyekiti": 7089,
      "runi": 7090,
      "Ġmoses": 7091,
      "Ġeu": 7092,
      "retari": 7093,
      "gasira": 7094,
      "Ġtumaini": 7095,
      "Ġjabu": 7096,
      "Ġdanny": 7097,
      "Ġinaanza": 7098,
      "Ġpara": 7099,
      "sudia": 7100,
      "Ġpinzani": 7101,
      "Ġjiwe": 7102,
      "Ġtcra": 7103,
      "Ġameji": 7104,
      "Ġamekufa": 7105,
      "Ġkuigwa": 7106,
      "Ġkuifungia": 7107,
      "Ġimefikisha": 7108,
      "Ġodhia": 7109,
      "Ġndiko": 7110,
      "mbuko": 7111,
      "Ġwakimbizi": 7112,
      "Ġkujivunia": 7113,
      "Ġwalionesha": 7114,
      "gizaji": 7115,
      "Ġkumhoji": 7116,
      "Ġiliyowasilishwa": 7117,
      "Ġitai": 7118,
      "Ġshehia": 7119,
      "Ġmashambani": 7120,
      "Ġulibaini": 7121,
      "Ġulipaji": 7122,
      "Ġwanaokwenda": 7123,
      "Ġchimbuko": 7124,
      "Ġmwananyama": 7125,
      "Ġwaafrika": 7126,
      "Ġatahakikisha": 7127,
      "Ġnyala": 7128,
      "Ġred": 7129,
      "rudia": 7130,
      "Ġkupotea": 7131,
      "Ġukiriti": 7132,
      "lazimisha": 7133,
      "Ġkuvunjwa": 7134,
      "Ġkuvunjika": 7135,
      "Ġcuba": 7136,
      "Ġwalimuua": 7137,
      "Ġninaamini": 7138,
      "Ġkuhamishiwa": 7139,
      "Ġkusimamishwa": 7140,
      "Ġkupigania": 7141,
      "ingie": 7142,
      "Ġmwilini": 7143,
      "Ġvilikuwa": 7144,
      "Ġnusura": 7145,
      "Ġubavu": 7146,
      "Ġkuibua": 7147,
      "Ġisiyokuwa": 7148,
      "horofa": 7149,
      "Ġwanaojihusisha": 7150,
      "Ġuenyekiti": 7151,
      "tafutia": 7152,
      "Ġrwegasira": 7153,
      "Ġvikombe": 7154,
      "Ġrafael": 7155,
      "Ġkuvuruga": 7156,
      "imet": 7157,
      "rkovic": 7158,
      "Ġkennedy": 7159,
      "nggye": 7160,
      "Ġnnauye": 7161,
      "Ġaitwaye": 7162,
      "Ġbariadi": 7163,
      "Ġmisukosuko": 7164,
      "Ġsantos": 7165,
      "retarieti": 7166,
      "Ġodhiambo": 7167,
      "Ġmwananyamala": 7168,
      "Ġukiritimba": 7169,
      "eli": 7170,
      "od": 7171,
      "tt": 7172,
      "usi": 7173,
      "Ġmshiriki": 7174,
      "Ġwama": 7175,
      "Ġwazalishaji": 7176,
      "Ġkunyi": 7177,
      "Ġkukwama": 7178,
      "yapata": 7179,
      "Ġufadhili": 7180,
      "Ġaendelee": 7181,
      "bakia": 7182,
      "ngwi": 7183,
      "Ġstu": 7184,
      "timua": 7185,
      "zaa": 7186,
      "zaulo": 7187,
      "rine": 7188,
      "ziwa": 7189,
      "jiuliza": 7190,
      "Ġkikazi": 7191,
      "Ġkigumu": 7192,
      "Ġkiswahili": 7193,
      "Ġalilo": 7194,
      "Ġalikanusha": 7195,
      "sako": 7196,
      "samehe": 7197,
      "meza": 7198,
      "dier": 7199,
      "Ġkuwatambua": 7200,
      "Ġtami": 7201,
      "kemea": 7202,
      "Ġnizar": 7203,
      "pora": 7204,
      "Ġhutumia": 7205,
      "Ġnsa": 7206,
      "Ġbbc": 7207,
      "Ġvipya": 7208,
      "Ġwanaccm": 7209,
      "Ġiliingia": 7210,
      "Ġilichukuliwa": 7211,
      "ngoma": 7212,
      "nyesho": 7213,
      "Ġwalitumia": 7214,
      "Ġmondu": 7215,
      "gara": 7216,
      "Ġjama": 7217,
      "Ġanatoa": 7218,
      "Ġinazidi": 7219,
      "liani": 7220,
      "Ġwimbi": 7221,
      "Ġray": 7222,
      "Ġcristia": 7223,
      "Ġmbao": 7224,
      "Ġkuahirishwa": 7225,
      "Ġkuamuru": 7226,
      "Ġimeonekana": 7227,
      "Ġwamepanga": 7228,
      "Ġwamefikishwa": 7229,
      "Ġkujitetea": 7230,
      "Ġhaliwezi": 7231,
      "Ġwaliomba": 7232,
      "Ġiliyofuata": 7233,
      "Ġboti": 7234,
      "Ġkupitishwa": 7235,
      "Ġmkazo": 7236,
      "Ġmkanganyiko": 7237,
      "Ġbenard": 7238,
      "Ġshukra": 7239,
      "Ġmabara": 7240,
      "Ġkutamka": 7241,
      "Ġulivyo": 7242,
      "Ġsuper": 7243,
      "Ġikitoa": 7244,
      "Ġwaandaaji": 7245,
      "malizia": 7246,
      "Ġzilizosalia": 7247,
      "Ġusambazaji": 7248,
      "Ġher": 7249,
      "Ġkimara": 7250,
      "Ġnyavu": 7251,
      "pelekea": 7252,
      "Ġkuzitumia": 7253,
      "Ġgezaulo": 7254,
      "hariri": 7255,
      "Ġalionyesha": 7256,
      "Ġmabondia": 7257,
      "Ġkutulia": 7258,
      "Ġkuhamisha": 7259,
      "Ġdidier": 7260,
      "Ġuhakiki": 7261,
      "Ġkushughuli": 7262,
      "Ġkimesema": 7263,
      "Ġzitatumika": 7264,
      "simamishwa": 7265,
      "Ġmkemia": 7266,
      "Ġlenyewe": 7267,
      "Ġkucheze": 7268,
      "Ġkijani": 7269,
      "Ġwapambe": 7270,
      "Ġimeandikwa": 7271,
      "hamasisha": 7272,
      "Ġtrafford": 7273,
      "anzishwa": 7274,
      "Ġhaitakuwa": 7275,
      "fuatiliaji": 7276,
      "Ġmashuleni": 7277,
      "Ġmahema": 7278,
      "Ġkusainiwa": 7279,
      "Ġshoka": 7280,
      "Ġaloyce": 7281,
      "Ġmtikila": 7282,
      "Ġkulazimishwa": 7283,
      "Ġmrwanda": 7284,
      "Ġkusukuma": 7285,
      "Ġarabia": 7286,
      "Ġmwalusako": 7287,
      "Ġkurahisisha": 7288,
      "Ġaboutrika": 7289,
      "Ġmonduli": 7290,
      "Ġshukrani": 7291,
      "Ġgezaulole": 7292,
      "aland": 7293,
      "epusha": 7294,
      "itumia": 7295,
      "jwe": 7296,
      "lta": 7297,
      "pwe": 7298,
      "ts": 7299,
      "tte": 7300,
      "Ġx": 7301,
      "Ġgumu": 7302,
      "nand": 7303,
      "Ġmle": 7304,
      "Ġmchu": 7305,
      "Ġmdo": 7306,
      "Ġmpwa": 7307,
      "likwa": 7308,
      "Ġwar": 7309,
      "Ġkuende": 7310,
      "Ġkushirikisha": 7311,
      "Ġkuridhika": 7312,
      "Ġkufya": 7313,
      "Ġuv": 7314,
      "Ġulia": 7315,
      "kaji": 7316,
      "hishi": 7317,
      "Ġsport": 7318,
      "Ġmachu": 7319,
      "kiria": 7320,
      "Ġkashi": 7321,
      "Ġii": 7322,
      "Ġishu": 7323,
      "Ġiwezekana": 7324,
      "Ġhabi": 7325,
      "jihusisha": 7326,
      "Ġkiini": 7327,
      "Ġkisima": 7328,
      "Ġkisoka": 7329,
      "Ġalikutana": 7330,
      "Ġve": 7331,
      "Ġkuwatumia": 7332,
      "Ġkuwatisha": 7333,
      "Ġkuwafundisha": 7334,
      "Ġtathimini": 7335,
      "Ġsima": 7336,
      "Ġlaini": 7337,
      "nezi": 7338,
      "pitisha": 7339,
      "Ġwanatoka": 7340,
      "Ġwanasubiri": 7341,
      "ndikia": 7342,
      "Ġwalikwenda": 7343,
      "rushwa": 7344,
      "Ġmosha": 7345,
      "Ġsek": 7346,
      "jenge": 7347,
      "Ġjumu": 7348,
      "Ġanavyo": 7349,
      "Ġanaona": 7350,
      "Ġanakwenda": 7351,
      "Ġanaonekana": 7352,
      "Ġinaeleza": 7353,
      "nzibari": 7354,
      "gunga": 7355,
      "guswa": 7356,
      "Ġakifafanua": 7357,
      "Ġmeta": 7358,
      "Ġmere": 7359,
      "genda": 7360,
      "pugi": 7361,
      "Ġvyandarua": 7362,
      "Ġmwakapugi": 7363,
      "Ġamelala": 7364,
      "Ġamefikishwa": 7365,
      "Ġkombo": 7366,
      "Ġkuitoa": 7367,
      "Ġkuieleza": 7368,
      "Ġkuichapa": 7369,
      "Ġshindano": 7370,
      "Ġffu": 7371,
      "Ġimetolewa": 7372,
      "Ġimefungwa": 7373,
      "Ġimefikia": 7374,
      "Ġon": 7375,
      "Ġmaadui": 7376,
      "Ġporto": 7377,
      "lumbana": 7378,
      "Ġwaliotajwa": 7379,
      "Ġkumpeleka": 7380,
      "Ġbomba": 7381,
      "Ġmsiba": 7382,
      "Ġkuhusisha": 7383,
      "nduku": 7384,
      "Ġkunaweza": 7385,
      "Ġtunafanya": 7386,
      "Ġtunasubiri": 7387,
      "Ġwanaotakiwa": 7388,
      "kitiko": 7389,
      "Ġsugu": 7390,
      "Ġikitokea": 7391,
      "Ġlilifungwa": 7392,
      "Ġleonard": 7393,
      "Ġkufikiria": 7394,
      "Ġkutengua": 7395,
      "Ġlinaendelea": 7396,
      "Ġnyanda": 7397,
      "Ġyaliyoko": 7398,
      "Ġyaliyofikiwa": 7399,
      "Ġaliokuwa": 7400,
      "Ġzealand": 7401,
      "Ġkuchanga": 7402,
      "Ġmfalme": 7403,
      "rejesha": 7404,
      "Ġlililotokea": 7405,
      "Ġuhamiaji": 7406,
      "Ġbasil": 7407,
      "Ġmbioni": 7408,
      "Ġnyoni": 7409,
      "Ġkilele": 7410,
      "Ġisiwe": 7411,
      "rthe": 7412,
      "Ġaliyopewa": 7413,
      "simamiwa": 7414,
      "mokrasi": 7415,
      "Ġzikiendelea": 7416,
      "Ġmachibya": 7417,
      "Ġwachambuzi": 7418,
      "banwa": 7419,
      "Ġwajane": 7420,
      "Ġmasikitiko": 7421,
      "Ġwapigakura": 7422,
      "ndelea": 7423,
      "Ġkukubalika": 7424,
      "Ġwazalendo": 7425,
      "Ġmvuto": 7426,
      "Ġmwenezi": 7427,
      "Ġmashuhuda": 7428,
      "Ġmwaipopo": 7429,
      "Ġrajabu": 7430,
      "simulia": 7431,
      "Ġlyaku": 7432,
      "Ġuenezi": 7433,
      "zuiwa": 7434,
      "Ġkifamilia": 7435,
      "Ġulazima": 7436,
      "kimbilia": 7437,
      "Ġsaudi": 7438,
      "Ġhaujakamilika": 7439,
      "Ġpetroli": 7440,
      "Ġvancou": 7441,
      "Ġdaudi": 7442,
      "Ġkakobe": 7443,
      "Ġkishirikina": 7444,
      "Ġutaalamu": 7445,
      "Ġreginald": 7446,
      "Ġwanakijiji": 7447,
      "Ġmaftah": 7448,
      "Ġobama": 7449,
      "Ġnyalandu": 7450,
      "Ġiwezekanavyo": 7451,
      "Ġvancouver": 7452,
      "dness": 7453,
      "isi": 7454,
      "kwu": 7455,
      "my": 7456,
      "mkuta": 7457,
      "nsa": 7458,
      "que": 7459,
      "uis": 7460,
      "Ġmpu": 7461,
      "Ġmdhibiti": 7462,
      "Ġwahu": 7463,
      "Ġwami": 7464,
      "Ġkubuni": 7465,
      "Ġkugoma": 7466,
      "yafanya": 7467,
      "Ġufanyike": 7468,
      "kara": 7469,
      "katwa": 7470,
      "Ġnape": 7471,
      "hiki": 7472,
      "Ġafa": 7473,
      "Ġadui": 7474,
      "Ġyawe": 7475,
      "tahidi": 7476,
      "Ġmah": 7477,
      "Ġmanti": 7478,
      "Ġmauti": 7479,
      "zini": 7480,
      "zinduliwa": 7481,
      "Ġkwakuwa": 7482,
      "kuzwa": 7483,
      "kuliwa": 7484,
      "Ġharufu": 7485,
      "sifu": 7486,
      "Ġkiru": 7487,
      "Ġkiingereza": 7488,
      "Ġaliumia": 7489,
      "toroka": 7490,
      "lekeza": 7491,
      "sali": 7492,
      "Ġkuwau": 7493,
      "Ġkuwajengea": 7494,
      "Ġniku": 7495,
      "Ġniliwa": 7496,
      "zoni": 7497,
      "Ġbalaa": 7498,
      "Ġsacco": 7499,
      "koti": 7500,
      "kokoti": 7501,
      "Ġvisa": 7502,
      "Ġviingilio": 7503,
      "Ġilibainika": 7504,
      "Ġkutowa": 7505,
      "fisi": 7506,
      "gana": 7507,
      "gope": 7508,
      "Ġjac": 7509,
      "Ġjahazi": 7510,
      "Ġinatumia": 7511,
      "Ġinaelezwa": 7512,
      "chukwu": 7513,
      "Ġwakawa": 7514,
      "Ġparis": 7515,
      "guo": 7516,
      "Ġakipata": 7517,
      "Ġmeya": 7518,
      "Ġclu": 7519,
      "Ġshikokoti": 7520,
      "Ġfro": 7521,
      "Ġimechukua": 7522,
      "Ġimetokana": 7523,
      "Ġoth": 7524,
      "Ġokwi": 7525,
      "Ġwamepoteza": 7526,
      "Ġwamejiandaa": 7527,
      "Ġwataanza": 7528,
      "ishu": 7529,
      "Ġwaliopata": 7530,
      "Ġwaliotoa": 7531,
      "Ġkumka": 7532,
      "Ġkumtafuta": 7533,
      "Ġunalenga": 7534,
      "Ġutaendelea": 7535,
      "Ġyesu": 7536,
      "Ġgabri": 7537,
      "Ġkupikia": 7538,
      "Ġkupingwa": 7539,
      "Ġitatajwa": 7540,
      "Ġshuhuda": 7541,
      "Ġdef": 7542,
      "Ġzilisema": 7543,
      "Ġsou": 7544,
      "Ġaliyem": 7545,
      "Ġkusahau": 7546,
      "Ġmakaa": 7547,
      "Ġwanaona": 7548,
      "Ġgridi": 7549,
      "Ġkupandi": 7550,
      "Ġlilipo": 7551,
      "Ġburian": 7552,
      "Ġshaba": 7553,
      "Ġikiwamo": 7554,
      "Ġkutenga": 7555,
      "Ġkuteua": 7556,
      "Ġkinaweza": 7557,
      "Ġutegeme": 7558,
      "Ġalipohojiwa": 7559,
      "Ġakiwamo": 7560,
      "fikie": 7561,
      "Ġmbwana": 7562,
      "Ġyaliyopatikana": 7563,
      "Ġluha": 7564,
      "Ġkuzika": 7565,
      "Ġzimebaki": 7566,
      "Ġlouis": 7567,
      "Ġkiufundi": 7568,
      "Ġkipaji": 7569,
      "Ġmbega": 7570,
      "fsiriwa": 7571,
      "tokanayo": 7572,
      "Ġmorocco": 7573,
      "Ġanayeishi": 7574,
      "Ġkuvuta": 7575,
      "Ġahmad": 7576,
      "Ġkuhamishwa": 7577,
      "Ġmalezi": 7578,
      "Ġnembo": 7579,
      "Ġkibarua": 7580,
      "Ġmajura": 7581,
      "Ġukurasa": 7582,
      "Ġhaule": 7583,
      "Ġmiss": 7584,
      "Ġmnazi": 7585,
      "kumbusha": 7586,
      "Ġupeo": 7587,
      "Ġkusomewa": 7588,
      "Ġkushangilia": 7589,
      "Ġuturuki": 7590,
      "Ġkumbuka": 7591,
      "Ġmachachari": 7592,
      "Ġkijinsia": 7593,
      "Ġkielimu": 7594,
      "Ġkagame": 7595,
      "Ġaaah": 7596,
      "Ġitc": 7597,
      "Ġkusikitishwa": 7598,
      "Ġvipande": 7599,
      "fanana": 7600,
      "Ġkwingine": 7601,
      "Ġkheri": 7602,
      "Ġmabula": 7603,
      "Ġsalome": 7604,
      "Ġgladness": 7605,
      "Ġkudumisha": 7606,
      "Ġjazba": 7607,
      "Ġmantiki": 7608,
      "Ġsaccos": 7609,
      "Ġclub": 7610,
      "Ġothman": 7611,
      "Ġgabriel": 7612,
      "dge": 7613,
      "mshikilia": 7614,
      "rya": 7615,
      "thu": 7616,
      "Ġnd": 7617,
      "wawezesha": 7618,
      "Ġmm": 7619,
      "Ġmhusika": 7620,
      "Ġway": 7621,
      "Ġwadaiwa": 7622,
      "Ġwanyonge": 7623,
      "Ġkushauri": 7624,
      "Ġkuzaliwa": 7625,
      "Ġkunggoa": 7626,
      "Ġkuzuka": 7627,
      "Ġuendelee": 7628,
      "Ġurusi": 7629,
      "Ġuwakilishi": 7630,
      "kavu": 7631,
      "kamilisha": 7632,
      "Ġabu": 7633,
      "Ġapate": 7634,
      "mar": 7635,
      "maria": 7636,
      "tib": 7637,
      "rithi": 7638,
      "Ġifanye": 7639,
      "Ġigunga": 7640,
      "tumwa": 7641,
      "Ġkisasi": 7642,
      "Ġalipa": 7643,
      "Ġalivi": 7644,
      "Ġaliweza": 7645,
      "Ġalishauri": 7646,
      "Ġalizungumzia": 7647,
      "Ġaliweka": 7648,
      "Ġalizaliwa": 7649,
      "toshi": 7650,
      "lembo": 7651,
      "men": 7652,
      "Ġkuwatumikia": 7653,
      "Ġtambwe": 7654,
      "Ġsioni": 7655,
      "Ġlaki": 7656,
      "Ġbanka": 7657,
      "Ġbarthe": 7658,
      "Ġsahara": 7659,
      "Ġvinne": 7660,
      "Ġchangu": 7661,
      "Ġchachu": 7662,
      "Ġwanacheza": 7663,
      "Ġwanastahili": 7664,
      "Ġilikwenda": 7665,
      "Ġilitoka": 7666,
      "Ġililazimika": 7667,
      "elewana": 7668,
      "Ġkutoroka": 7669,
      "Ġever": 7670,
      "Ġerne": 7671,
      "Ġemeh": 7672,
      "jeo": 7673,
      "Ġinapata": 7674,
      "Ġwakae": 7675,
      "Ġwerema": 7676,
      "Ġameiambia": 7677,
      "Ġameitaka": 7678,
      "Ġkomba": 7679,
      "Ġkuinoa": 7680,
      "Ġkuoko": 7681,
      "Ġshiri": 7682,
      "Ġimefanikiwa": 7683,
      "Ġimepanga": 7684,
      "Ġimetangaza": 7685,
      "Ġwamefanikiwa": 7686,
      "Ġwameiomba": 7687,
      "Ġponda": 7688,
      "Ġport": 7689,
      "Ġwatahakikisha": 7690,
      "Ġmkondo": 7691,
      "Ġwakidaiwa": 7692,
      "Ġwakiishi": 7693,
      "nuo": 7694,
      "Ġwaliolazwa": 7695,
      "Ġkumfikisha": 7696,
      "Ġhoboko": 7697,
      "Ġboys": 7698,
      "Ġitacheza": 7699,
      "jiandikisha": 7700,
      "Ġkuhusishwa": 7701,
      "Ġupanuzi": 7702,
      "Ġdebe": 7703,
      "Ġumeonesha": 7704,
      "Ġtunaona": 7705,
      "Ġtunapaswa": 7706,
      "Ġkukatisha": 7707,
      "Ġwanaodai": 7708,
      "Ġwanaotoka": 7709,
      "Ġgy": 7710,
      "Ġgre": 7711,
      "Ġikiongozwa": 7712,
      "Ġwaanze": 7713,
      "Ġwaaminifu": 7714,
      "Ġlinahitaji": 7715,
      "shehe": 7716,
      "Ġnyayo": 7717,
      "Ġreg": 7718,
      "Ġstahili": 7719,
      "Ġaliwaeleza": 7720,
      "pigana": 7721,
      "Ġmaligha": 7722,
      "Ġsaad": 7723,
      "Ġpromo": 7724,
      "cal": 7725,
      "fereji": 7726,
      "fuate": 7727,
      "Ġcompa": 7728,
      "Ġfimbo": 7729,
      "Ġmajangili": 7730,
      "fungulia": 7731,
      "Ġkuvuka": 7732,
      "Ġlililowekwa": 7733,
      "Ġnyeti": 7734,
      "Ġkinachofanyika": 7735,
      "Ġuanze": 7736,
      "Ġsafarini": 7737,
      "Ġsokoni": 7738,
      "Ġngome": 7739,
      "Ġkisayansi": 7740,
      "Ġkhan": 7741,
      "Ġkhatib": 7742,
      "Ġubabaishaji": 7743,
      "Ġmaghala": 7744,
      "Ġwasiojulikana": 7745,
      "Ġprince": 7746,
      "Ġmhando": 7747,
      "Ġkumwachia": 7748,
      "koaji": 7749,
      "Ġselemani": 7750,
      "Ġyasiyokuwa": 7751,
      "Ġwalizopanda": 7752,
      "pumzike": 7753,
      "hakikishe": 7754,
      "Ġkubahatisha": 7755,
      "chezesha": 7756,
      "Ġkuzama": 7757,
      "Ġujinga": 7758,
      "Ġlyamu": 7759,
      "Ġkubadilishana": 7760,
      "Ġmzinga": 7761,
      "Ġsijawahi": 7762,
      "Ġtumboni": 7763,
      "Ġplaye": 7764,
      "Ġkulazimisha": 7765,
      "Ġmchanganuo": 7766,
      "Ġlawrence": 7767,
      "shutumu": 7768,
      "Ġkumbaka": 7769,
      "Ġuonevu": 7770,
      "Ġmanyoni": 7771,
      "Ġkunyimwa": 7772,
      "Ġcristiano": 7773,
      "Ġutegemezi": 7774,
      "Ġbarthez": 7775,
      "Ġmalighafi": 7776,
      "ambatana": 7777,
      "dho": 7778,
      "elimisha": 7779,
      "ipa": 7780,
      "lfu": 7781,
      "unge": 7782,
      "ungwa": 7783,
      "likana": 7784,
      "Ġwadai": 7785,
      "Ġwaende": 7786,
      "Ġkunyesha": 7787,
      "Ġkuzua": 7788,
      "Ġkutumikia": 7789,
      "Ġkulumbana": 7790,
      "Ġudini": 7791,
      "Ġnashangaa": 7792,
      "Ġataji": 7793,
      "Ġsc": 7794,
      "Ġmati": 7795,
      "kithiri": 7796,
      "Ġipi": 7797,
      "Ġibara": 7798,
      "Ġiendelee": 7799,
      "Ġitoe": 7800,
      "Ġhiza": 7801,
      "Ġkivita": 7802,
      "Ġalili": 7803,
      "Ġalikubali": 7804,
      "Ġalifanikiwa": 7805,
      "sawazisha": 7806,
      "yern": 7807,
      "Ġkuwalinda": 7808,
      "Ġkuwanyima": 7809,
      "Ġtaji": 7810,
      "kela": 7811,
      "teke": 7812,
      "Ġsigara": 7813,
      "Ġhulazimika": 7814,
      "Ġbayern": 7815,
      "ndae": 7816,
      "ngapi": 7817,
      "Ġwanapokuwa": 7818,
      "Ġwanalazimika": 7819,
      "Ġilikuja": 7820,
      "nolewa": 7821,
      "Ġkutofanya": 7822,
      "Ġkutoweka": 7823,
      "Ġwalikuta": 7824,
      "Ġjapokuwa": 7825,
      "Ġliwe": 7826,
      "Ġinashindwa": 7827,
      "uar": 7828,
      "Ġakicheza": 7829,
      "Ġakihojiwa": 7830,
      "Ġmeru": 7831,
      "Ġramani": 7832,
      "Ġamepewa": 7833,
      "Ġamekaa": 7834,
      "Ġkuadhi": 7835,
      "Ġkontena": 7836,
      "Ġkuitumia": 7837,
      "Ġkuorodhesha": 7838,
      "Ġkuongezwa": 7839,
      "Ġimem": 7840,
      "Ġimepanda": 7841,
      "Ġimelenga": 7842,
      "riano": 7843,
      "Ġwamekubaliana": 7844,
      "Ġwataza": 7845,
      "Ġwakim": 7846,
      "Ġkujiimarisha": 7847,
      "Ġkumtia": 7848,
      "Ġkumkuta": 7849,
      "Ġkumfanyia": 7850,
      "Ġutamwa": 7851,
      "Ġitakutana": 7852,
      "Ġhadithi": 7853,
      "Ġpt": 7854,
      "Ġphi": 7855,
      "Ġzinahitajika": 7856,
      "Ġfaus": 7857,
      "Ġkutathmini": 7858,
      "Ġumetokana": 7859,
      "Ġmpanda": 7860,
      "Ġkupangiwa": 7861,
      "Ġmaelfu": 7862,
      "Ġhewani": 7863,
      "Ġhosteli": 7864,
      "Ġyaliyokusudiwa": 7865,
      "Ġcheti": 7866,
      "Ġmajani": 7867,
      "Ġngapi": 7868,
      "Ġukata": 7869,
      "Ġnyenzo": 7870,
      "Ġmarley": 7871,
      "Ġtutawa": 7872,
      "Ġhaziku": 7873,
      "Ġngono": 7874,
      "Ġkumuo": 7875,
      "Ġukombozi": 7876,
      "Ġurani": 7877,
      "Ġkukopesha": 7878,
      "ndelezo": 7879,
      "Ġstella": 7880,
      "rls": 7881,
      "Ġmizengwe": 7882,
      "Ġpembejeo": 7883,
      "Ġkuchoma": 7884,
      "Ġmabinti": 7885,
      "Ġamiri": 7886,
      "wakilishwa": 7887,
      "Ġvictor": 7888,
      "Ġubishi": 7889,
      "Ġmassawe": 7890,
      "Ġkujikinga": 7891,
      "Ġkandoro": 7892,
      "Ġuchafuzi": 7893,
      "Ġvikiwemo": 7894,
      "Ġkuchimba": 7895,
      "Ġuchovu": 7896,
      "Ġvalenti": 7897,
      "Ġmaurice": 7898,
      "Ġheroes": 7899,
      "Ġtafrani": 7900,
      "Ġkusababishwa": 7901,
      "Ġdominick": 7902,
      "Ġkushughulikiwa": 7903,
      "Ġmeremeta": 7904,
      "dc": 7905,
      "ig": 7906,
      "imba": 7907,
      "lf": 7908,
      "ombwa": 7909,
      "upe": 7910,
      "umwa": 7911,
      "unt": 7912,
      "Ġele": 7913,
      "Ġmpe": 7914,
      "Ġwamo": 7915,
      "Ġkube": 7916,
      "Ġkuendeshwa": 7917,
      "Ġkuheshimu": 7918,
      "Ġupu": 7919,
      "Ġusulu": 7920,
      "Ġnafsi": 7921,
      "Ġyatokanayo": 7922,
      "masisha": 7923,
      "Ġmak": 7924,
      "Ġmame": 7925,
      "Ġmaye": 7926,
      "tibiwa": 7927,
      "kita": 7928,
      "Ġkadha": 7929,
      "Ġitumike": 7930,
      "kulia": 7931,
      "Ġhiti": 7932,
      "Ġhila": 7933,
      "mbale": 7934,
      "Ġalikuwepo": 7935,
      "Ġalirejea": 7936,
      "fali": 7937,
      "dad": 7938,
      "dali": 7939,
      "bin": 7940,
      "sambu": 7941,
      "dinand": 7942,
      "seba": 7943,
      "Ġkuwaweka": 7944,
      "Ġkuwapongeza": 7945,
      "Ġtabaka": 7946,
      "hesabu": 7947,
      "Ġbada": 7948,
      "Ġsadi": 7949,
      "ngiza": 7950,
      "Ġchacha": 7951,
      "Ġwanatuhumiwa": 7952,
      "Ġilifanikiwa": 7953,
      "Ġkutokubali": 7954,
      "ngependa": 7955,
      "Ġewu": 7956,
      "Ġtulio": 7957,
      "Ġjambazi": 7958,
      "Ġliliwa": 7959,
      "Ġlissu": 7960,
      "Ġbib": 7961,
      "choshwa": 7962,
      "Ġanatuhumiwa": 7963,
      "nzishwa": 7964,
      "Ġparo": 7965,
      "Ġpampu": 7966,
      "Ġmuga": 7967,
      "Ġakitoka": 7968,
      "Ġmedali": 7969,
      "Ġradio": 7970,
      "Ġjicho": 7971,
      "Ġtpa": 7972,
      "Ġameweza": 7973,
      "Ġamethibitisha": 7974,
      "Ġamevaa": 7975,
      "Ġkongwe": 7976,
      "Ġkuisha": 7977,
      "Ġkuishauri": 7978,
      "Ġkuisababishia": 7979,
      "Ġimedaiwa": 7980,
      "Ġimetenga": 7981,
      "Ġoly": 7982,
      "Ġwatalazimika": 7983,
      "Ġwatambue": 7984,
      "Ġndimbo": 7985,
      "Ġwakipiga": 7986,
      "Ġkujihakikishia": 7987,
      "nusi": 7988,
      "njari": 7989,
      "Ġkumzuia": 7990,
      "Ġhatuta": 7991,
      "Ġutafanyika": 7992,
      "Ġutasaidia": 7993,
      "Ġmwishehe": 7994,
      "Ġthey": 7995,
      "Ġtendwa": 7996,
      "Ġshel": 7997,
      "Ġmaratho": 7998,
      "Ġmsikiti": 7999,
      "Ġpua": 8000,
      "kwambia": 8001,
      "Ġshutuma": 8002,
      "Ġkufunguliwa": 8003,
      "Ġkufukuzwa": 8004,
      "Ġsomalia": 8005,
      "Ġaliyepata": 8006,
      "Ġaliyetajwa": 8007,
      "oney": 8008,
      "Ġtunao": 8009,
      "Ġmatapeli": 8010,
      "Ġulisema": 8011,
      "Ġkukarabati": 8012,
      "Ġghorofa": 8013,
      "Ġyanakuwa": 8014,
      "Ġyanakwenda": 8015,
      "Ġinayofanywa": 8016,
      "Ġinayofuata": 8017,
      "Ġkinara": 8018,
      "Ġalgeria": 8019,
      "Ġzilizojitokeza": 8020,
      "Ġzilizowekwa": 8021,
      "Ġlinashughulikiwa": 8022,
      "Ġkimaa": 8023,
      "ender": 8024,
      "Ġchupa": 8025,
      "Ġstadi": 8026,
      "stan": 8027,
      "Ġzinazoweza": 8028,
      "Ġluga": 8029,
      "Ġrooney": 8030,
      "Ġcoca": 8031,
      "Ġkuchafua": 8032,
      "Ġlililofanyika": 8033,
      "Ġndesambu": 8034,
      "Ġmbozi": 8035,
      "Ġdirisha": 8036,
      "Ġdihile": 8037,
      "Ġmgahawa": 8038,
      "Ġmakonde": 8039,
      "Ġmichache": 8040,
      "Ġaliyonayo": 8041,
      "ingizia": 8042,
      "Ġmkenya": 8043,
      "Ġkuepu": 8044,
      "Ġuraia": 8045,
      "Ġamewaambia": 8046,
      "Ġitakayoanza": 8047,
      "Ġkukomesha": 8048,
      "Ġubadhiri": 8049,
      "zoea": 8050,
      "Ġuporaji": 8051,
      "Ġkushawishi": 8052,
      "Ġkushambuliwa": 8053,
      "Ġkuchelewe": 8054,
      "Ġrashidi": 8055,
      "Ġaliandika": 8056,
      "Ġvillarre": 8057,
      "Ġviumbe": 8058,
      "Ġferdinand": 8059,
      "Ġkuchochea": 8060,
      "sikitisha": 8061,
      "Ġalivyokuwa": 8062,
      "Ġwalivyokuwa": 8063,
      "Ġmanyanya": 8064,
      "Ġkidemokrasi": 8065,
      "Ġalizokuwa": 8066,
      "Ġkukimbizwa": 8067,
      "Ġshtaka": 8068,
      "Ġkivutio": 8069,
      "Ġsaleh": 8070,
      "eleweke": 8071,
      "raim": 8072,
      "Ġkanali": 8073,
      "Ġnotisi": 8074,
      "Ġkumuacha": 8075,
      "Ġphilip": 8076,
      "Ġfundisho": 8077,
      "Ġkuteketeza": 8078,
      "Ġkuzomewa": 8079,
      "Ġdeog": 8080,
      "Ġhayupo": 8081,
      "Ġkuwakomboa": 8082,
      "Ġwaganga": 8083,
      "Ġlitakalo": 8084,
      "Ġvivutio": 8085,
      "Ġephraim": 8086,
      "Ġmpwapwa": 8087,
      "Ġsekretarieti": 8088,
      "ishukuru": 8089,
      "Ġdefender": 8090,
      "Ġeverton": 8091,
      "Ġshirima": 8092,
      "Ġusuluhishi": 8093,
      "masishaji": 8094,
      "Ġewura": 8095,
      "Ġndesamburo": 8096,
      "Ġubadhirifu": 8097,
      "Ġvillarreal": 8098,
      "brou": 8099,
      "eni": 8100,
      "inua": 8101,
      "mtafuta": 8102,
      "rdea": 8103,
      "ux": 8104,
      "ulu": 8105,
      "Ġguu": 8106,
      "Ġmjukuu": 8107,
      "Ġwachi": 8108,
      "Ġwalalamikaji": 8109,
      "Ġkumui": 8110,
      "Ġkulaani": 8111,
      "Ġkunyakua": 8112,
      "Ġnagu": 8113,
      "hitimu": 8114,
      "hitimisha": 8115,
      "Ġag": 8116,
      "tamani": 8117,
      "ngy": 8118,
      "Ġss": 8119,
      "Ġmande": 8120,
      "Ġmafia": 8121,
      "tiwe": 8122,
      "Ġkano": 8123,
      "Ġkapu": 8124,
      "hukumu": 8125,
      "sita": 8126,
      "wer": 8127,
      "jabu": 8128,
      "jadiliwa": 8129,
      "ray": 8130,
      "Ġkiho": 8131,
      "Ġkimila": 8132,
      "Ġalipaswa": 8133,
      "Ġalitamba": 8134,
      "Ġalisikika": 8135,
      "tolewe": 8136,
      "biza": 8137,
      "bikwa": 8138,
      "chapishwa": 8139,
      "paa": 8140,
      "mir": 8141,
      "Ġkuwaondolea": 8142,
      "Ġtanzani": 8143,
      "Ġlampa": 8144,
      "Ġnbc": 8145,
      "Ġmira": 8146,
      "Ġwanasheria": 8147,
      "lovu": 8148,
      "Ġwalikubaliana": 8149,
      "gani": 8150,
      "gando": 8151,
      "Ġdavis": 8152,
      "rongoro": 8153,
      "dhari": 8154,
      "Ġinaongozwa": 8155,
      "Ġinasikitisha": 8156,
      "Ġpaz": 8157,
      "gubikwa": 8158,
      "Ġakithibitisha": 8159,
      "Ġakizindua": 8160,
      "ndoo": 8161,
      "Ġameibuka": 8162,
      "Ġkuandaliwa": 8163,
      "Ġkuandikishwa": 8164,
      "vutia": 8165,
      "Ġimeonesha": 8166,
      "Ġimepangwa": 8167,
      "Ġmaajabu": 8168,
      "Ġwamefikia": 8169,
      "Ġwameonyesha": 8170,
      "dom": 8171,
      "dondo": 8172,
      "Ġwatatoa": 8173,
      "Ġmkoba": 8174,
      "Ġmahara": 8175,
      "Ġwakidhani": 8176,
      "Ġkujili": 8177,
      "Ġkujifanya": 8178,
      "Ġkujikwamua": 8179,
      "Ġkeko": 8180,
      "Ġhalikuwa": 8181,
      "Ġkuugua": 8182,
      "Ġkumruhusu": 8183,
      "Ġkumlipa": 8184,
      "Ġunatarajia": 8185,
      "Ġkilaini": 8186,
      "Ġmwina": 8187,
      "womba": 8188,
      "Ġbordea": 8189,
      "thiriwa": 8190,
      "Ġtenda": 8191,
      "tokee": 8192,
      "Ġmaranda": 8193,
      "Ġsitaki": 8194,
      "dudu": 8195,
      "Ġumesababisha": 8196,
      "Ġulivyokuwa": 8197,
      "der": 8198,
      "Ġmwanangu": 8199,
      "Ġikibidi": 8200,
      "Ġbugando": 8201,
      "kutane": 8202,
      "Ġwaarabu": 8203,
      "Ġkufikiwa": 8204,
      "Ġinayoongozwa": 8205,
      "Ġzilizoko": 8206,
      "Ġatakwenda": 8207,
      "Ġmfungwa": 8208,
      "shewa": 8209,
      "Ġwafanyabishara": 8210,
      "Ġfupi": 8211,
      "Ġchunya": 8212,
      "Ġzinazotakiwa": 8213,
      "Ġakaamua": 8214,
      "Ġyohana": 8215,
      "Ġger": 8216,
      "fuatia": 8217,
      "Ġcole": 8218,
      "Ġchenga": 8219,
      "Ġmrembo": 8220,
      "Ġyanayotolewa": 8221,
      "Ġvitanda": 8222,
      "Ġzee": 8223,
      "Ġnilivyo": 8224,
      "maanisha": 8225,
      "Ġmapigo": 8226,
      "Ġmarsei": 8227,
      "wapongeza": 8228,
      "Ġkurudia": 8229,
      "Ġghafi": 8230,
      "Ġjohnson": 8231,
      "Ġkinachodaiwa": 8232,
      "Ġaingi": 8233,
      "Ġzitatolewa": 8234,
      "Ġzitachukuliwa": 8235,
      "Ġngorongoro": 8236,
      "dhuru": 8237,
      "Ġkubainika": 8238,
      "Ġurasimu": 8239,
      "Ġmifupa": 8240,
      "Ġkubadilishwa": 8241,
      "Ġmsemwa": 8242,
      "Ġwajanja": 8243,
      "Ġkitita": 8244,
      "Ġarsene": 8245,
      "Ġkusomesha": 8246,
      "Ġhaijawahi": 8247,
      "Ġmatei": 8248,
      "Ġmateso": 8249,
      "Ġchris": 8250,
      "Ġkidedea": 8251,
      "Ġmlimani": 8252,
      "Ġameacha": 8253,
      "Ġkuzidiwa": 8254,
      "Ġninachotaka": 8255,
      "Ġkuwashawishi": 8256,
      "Ġkifahari": 8257,
      "Ġmezani": 8258,
      "safirisha": 8259,
      "Ġsweden": 8260,
      "ratius": 8261,
      "Ġmagogoni": 8262,
      "Ġsmg": 8263,
      "Ġkukabiliwa": 8264,
      "Ġkujiorodhesha": 8265,
      "lsafa": 8266,
      "Ġelias": 8267,
      "Ġmwanaharakati": 8268,
      "Ġkuwasomesha": 8269,
      "Ġeuro": 8270,
      "Ġsimanzi": 8271,
      "Ġkirumba": 8272,
      "Ġwayne": 8273,
      "Ġdeogratius": 8274,
      "Ġwachina": 8275,
      "Ġlampard": 8276,
      "Ġbordeaux": 8277,
      "Ġmarseille": 8278,
      "andikwa": 8279,
      "jja": 8280,
      "lya": 8281,
      "lka": 8282,
      "nha": 8283,
      "nham": 8284,
      "os": 8285,
      "pua": 8286,
      "tra": 8287,
      "umana": 8288,
      "nali": 8289,
      "Ġmzo": 8290,
      "Ġmkwe": 8291,
      "Ġmdau": 8292,
      "Ġwapenda": 8293,
      "Ġwanunuzi": 8294,
      "Ġkuhakiki": 8295,
      "Ġkushangazwa": 8296,
      "Ġkulalamikia": 8297,
      "Ġkuzunguka": 8298,
      "Ġkuruka": 8299,
      "hali": 8300,
      "Ġuliwa": 8301,
      "Ġufuatiliaji": 8302,
      "kawe": 8303,
      "Ġnazi": 8304,
      "Ġaisha": 8305,
      "Ġswai": 8306,
      "Ġmafa": 8307,
      "zikwa": 8308,
      "Ġkardi": 8309,
      "Ġiddi": 8310,
      "kumbana": 8311,
      "jivunia": 8312,
      "tukana": 8313,
      "Ġhip": 8314,
      "Ġkikiwa": 8315,
      "Ġkilwa": 8316,
      "Ġaliu": 8317,
      "Ġalikuja": 8318,
      "Ġalizidi": 8319,
      "dic": 8320,
      "diliana": 8321,
      "Ġkuwacha": 8322,
      "Ġkuwapata": 8323,
      "Ġkuwashirikisha": 8324,
      "Ġkuwafukuza": 8325,
      "Ġtairi": 8326,
      "Ġzama": 8327,
      "hemba": 8328,
      "Ġbabu": 8329,
      "Ġbalele": 8330,
      "Ġmiche": 8331,
      "Ġmisima": 8332,
      "Ġmiliki": 8333,
      "Ġmidd": 8334,
      "Ġmisimu": 8335,
      "Ġsai": 8336,
      "pingana": 8337,
      "ngilio": 8338,
      "ngazia": 8339,
      "Ġambae": 8340,
      "Ġchampi": 8341,
      "Ġwanachi": 8342,
      "Ġilicheza": 8343,
      "fiwa": 8344,
      "Ġwalii": 8345,
      "rushi": 8346,
      "Ġmorali": 8347,
      "rewe": 8348,
      "rekebisha": 8349,
      "Ġtuone": 8350,
      "Ġtufanye": 8351,
      "Ġjay": 8352,
      "Ġzilianza": 8353,
      "Ġzichukuliwe": 8354,
      "Ġdhara": 8355,
      "Ġmkusanyiko": 8356,
      "choche": 8357,
      "Ġanafahamu": 8358,
      "Ġanasumbuliwa": 8359,
      "Ġinasababisha": 8360,
      "Ġinachangia": 8361,
      "Ġinategemea": 8362,
      "chua": 8363,
      "nzisha": 8364,
      "Ġpazi": 8365,
      "Ġmuundo": 8366,
      "Ġmutaki": 8367,
      "Ġakionesha": 8368,
      "Ġwivu": 8369,
      "gea": 8370,
      "Ġpigo": 8371,
      "Ġamesha": 8372,
      "Ġameomba": 8373,
      "Ġkuahirisha": 8374,
      "Ġkoua": 8375,
      "Ġkorti": 8376,
      "vunjwa": 8377,
      "Ġkuiweka": 8378,
      "yusa": 8379,
      "yulu": 8380,
      "Ġimebaini": 8381,
      "Ġimejipanga": 8382,
      "Ġimewataka": 8383,
      "Ġwakenya": 8384,
      "Ġwamepewa": 8385,
      "Ġwamekuja": 8386,
      "zungumzwa": 8387,
      "Ġwakijaribu": 8388,
      "Ġkemika": 8389,
      "Ġhalita": 8390,
      "Ġhalija": 8391,
      "Ġwaliopewa": 8392,
      "Ġkumchukua": 8393,
      "Ġhop": 8394,
      "Ġunam": 8395,
      "Ġhatuja": 8396,
      "Ġmwilima": 8397,
      "Ġmkata": 8398,
      "jiandae": 8399,
      "Ġupanga": 8400,
      "Ġkilinda": 8401,
      "Ġzilipo": 8402,
      "Ġfari": 8403,
      "Ġfatuma": 8404,
      "Ġfaulo": 8405,
      "Ġkutawala": 8406,
      "Ġkutazama": 8407,
      "Ġaliyeuawa": 8408,
      "Ġtotte": 8409,
      "Ġmashina": 8410,
      "Ġtunasema": 8411,
      "Ġchikawe": 8412,
      "Ġkupangwa": 8413,
      "Ġbunda": 8414,
      "Ġbulembo": 8415,
      "Ġwaadilifu": 8416,
      "Ġkufilisi": 8417,
      "Ġdoria": 8418,
      "Ġinayoshika": 8419,
      "Ġkuteka": 8420,
      "Ġzilizowasilishwa": 8421,
      "Ġutengenezaji": 8422,
      "Ġlinatokana": 8423,
      "Ġreja": 8424,
      "Ġchuma": 8425,
      "Ġmchanganyiko": 8426,
      "Ġlushoto": 8427,
      "cast": 8428,
      "Ġkupotosha": 8429,
      "Ġkutupwa": 8430,
      "Ġlimetokea": 8431,
      "Ġlimekuja": 8432,
      "Ġkukumba": 8433,
      "Ġkukumbu": 8434,
      "Ġkitambulisho": 8435,
      "Ġabbas": 8436,
      "Ġrwi": 8437,
      "Ġnever": 8438,
      "Ġvunjo": 8439,
      "Ġkutii": 8440,
      "Ġtulipo": 8441,
      "ngenezea": 8442,
      "Ġedwin": 8443,
      "Ġzitasaidia": 8444,
      "nyororo": 8445,
      "Ġfoleni": 8446,
      "wasiliana": 8447,
      "Ġmwakyusa": 8448,
      "Ġsteve": 8449,
      "Ġmigomo": 8450,
      "Ġkusomwa": 8451,
      "Ġkiraia": 8452,
      "Ġnitakuwa": 8453,
      "Ġvazi": 8454,
      "Ġilipokuja": 8455,
      "Ġaliyataja": 8456,
      "Ġwazanzibari": 8457,
      "Ġkusafiria": 8458,
      "Ġomary": 8459,
      "Ġudhalilisha": 8460,
      "Ġudongo": 8461,
      "Ġkuhifadhiwa": 8462,
      "Ġmashekhe": 8463,
      "tafutwa": 8464,
      "shtuka": 8465,
      "Ġflorian": 8466,
      "Ġbridge": 8467,
      "Ġwanaharakati": 8468,
      "Ġfunguo": 8469,
      "Ġmakengeza": 8470,
      "Ġianze": 8471,
      "nunuliwa": 8472,
      "Ġureno": 8473,
      "Ġaondoke": 8474,
      "Ġukerewe": 8475,
      "Ġwachunguzi": 8476,
      "Ġstudio": 8477,
      "Ġernest": 8478,
      "Ġcompany": 8479,
      "Ġwatazamaji": 8480,
      "oski": 8481,
      "Ġmafao": 8482,
      "Ġkardinali": 8483,
      "Ġmisimamo": 8484,
      "Ġdharau": 8485,
      "Ġkemikali": 8486,
      "Ġtottenham": 8487,
      "Ġudhalilishaji": 8488,
      "aini": 8489,
      "eh": 8490,
      "ichezea": 8491,
      "ofisha": 8492,
      "ps": 8493,
      "pri": 8494,
      "pho": 8495,
      "smas": 8496,
      "uku": 8497,
      "nance": 8498,
      "Ġmsomaji": 8499,
      "Ġware": 8500,
      "Ġwazungu": 8501,
      "Ġwaume": 8502,
      "Ġwachukuliwe": 8503,
      "Ġkubisha": 8504,
      "Ġkuhesabu": 8505,
      "Ġuzuri": 8506,
      "Ġuboresha": 8507,
      "nica": 8508,
      "ngs": 8509,
      "mandoo": 8510,
      "timiza": 8511,
      "Ġifu": 8512,
      "kunde": 8513,
      "husia": 8514,
      "Ġkibe": 8515,
      "Ġkinyama": 8516,
      "Ġkilianza": 8517,
      "Ġkihemba": 8518,
      "Ġalikufa": 8519,
      "toi": 8520,
      "shani": 8521,
      "miti": 8522,
      "kee": 8523,
      "Ġlako": 8524,
      "Ġncc": 8525,
      "Ġminzi": 8526,
      "Ġmipya": 8527,
      "Ġmiondo": 8528,
      "Ġmikwaju": 8529,
      "Ġsapoti": 8530,
      "ndawazi": 8531,
      "Ġviboko": 8532,
      "Ġchako": 8533,
      "Ġilipaswa": 8534,
      "Ġilipokuwa": 8535,
      "Ġwaliweza": 8536,
      "Ġwalitoka": 8537,
      "Ġwalipanda": 8538,
      "ngers": 8539,
      "Ġmode": 8540,
      "Ġmonica": 8541,
      "Ġekari": 8542,
      "rey": 8543,
      "remia": 8544,
      "resho": 8545,
      "gama": 8546,
      "Ġmwaliko": 8547,
      "Ġjaco": 8548,
      "Ġlive": 8549,
      "Ġtimes": 8550,
      "Ġanashindwa": 8551,
      "Ġinadai": 8552,
      "Ġinayote": 8553,
      "zese": 8554,
      "yimo": 8555,
      "Ġpasaka": 8556,
      "Ġmusi": 8557,
      "Ġakieleza": 8558,
      "Ġakikabiliwa": 8559,
      "Ġakitolea": 8560,
      "Ġakihitimisha": 8561,
      "Ġwenzi": 8562,
      "Ġrabia": 8563,
      "Ġrangers": 8564,
      "Ġamesikitishwa": 8565,
      "Ġkuandikwa": 8566,
      "Ġkoo": 8567,
      "Ġkuivaa": 8568,
      "Ġkuolewa": 8569,
      "Ġmiamba": 8570,
      "Ġimesababisha": 8571,
      "Ġimepungua": 8572,
      "Ġwameomba": 8573,
      "Ġwamekamatwa": 8574,
      "Ġpochi": 8575,
      "Ġwatashiriki": 8576,
      "Ġwakichangia": 8577,
      "nukuliwa": 8578,
      "Ġhalima": 8579,
      "Ġwalionyesha": 8580,
      "Ġwalioathirika": 8581,
      "Ġkumchi": 8582,
      "Ġkumkata": 8583,
      "Ġkumjeruhi": 8584,
      "Ġiliyofanya": 8585,
      "Ġiliyowekwa": 8586,
      "somea": 8587,
      "Ġunafanyika": 8588,
      "Ġwaone": 8589,
      "Ġitaingia": 8590,
      "Ġmabano": 8591,
      "Ġzinafanya": 8592,
      "Ġzinadai": 8593,
      "Ġden": 8594,
      "Ġfalsafa": 8595,
      "Ġsote": 8596,
      "Ġjeremia": 8597,
      "Ġumesema": 8598,
      "Ġaliyeomba": 8599,
      "Ġmwendelezo": 8600,
      "Ġtunategemea": 8601,
      "Ġhawako": 8602,
      "Ġmpangilio": 8603,
      "Ġchingy": 8604,
      "Ġmwanae": 8605,
      "Ġhapakuwa": 8606,
      "Ġbuku": 8607,
      "Ġyanaonesha": 8608,
      "Ġshauku": 8609,
      "malize": 8610,
      "Ġmarefu": 8611,
      "Ġinayotoa": 8612,
      "Ġinayohusu": 8613,
      "Ġzilizoendelea": 8614,
      "Ġhaipo": 8615,
      "Ġaston": 8616,
      "Ġnyarugu": 8617,
      "Ġnyagawa": 8618,
      "Ġnyambui": 8619,
      "Ġyaliyotokana": 8620,
      "Ġyaliyofanywa": 8621,
      "Ġluis": 8622,
      "kubaliwa": 8623,
      "Ġyondani": 8624,
      "Ġwalezi": 8625,
      "Ġukiwemo": 8626,
      "Ġhayakuwa": 8627,
      "Ġyanayojitokeza": 8628,
      "Ġmaboresho": 8629,
      "Ġmanzese": 8630,
      "Ġlyimo": 8631,
      "fariji": 8632,
      "Ġkuelekeza": 8633,
      "Ġmakongoro": 8634,
      "Ġmakomandoo": 8635,
      "Ġuandishi": 8636,
      "Ġgofu": 8637,
      "Ġkishapu": 8638,
      "Ġkumuunga": 8639,
      "Ġthat": 8640,
      "Ġkharto": 8641,
      "Ġyatafanyika": 8642,
      "Ġitakayochezwa": 8643,
      "Ġubabe": 8644,
      "Ġmanuel": 8645,
      "Ġmwenzako": 8646,
      "Ġwahalifu": 8647,
      "Ġmoyoni": 8648,
      "Ġwavulana": 8649,
      "Ġvilivyokuwa": 8650,
      "Ġmhagama": 8651,
      "Ġkumwacha": 8652,
      "pteni": 8653,
      "Ġyakiendelea": 8654,
      "bweni": 8655,
      "Ġkitaaluma": 8656,
      "Ġmaafande": 8657,
      "thew": 8658,
      "therine": 8659,
      "Ġnko": 8660,
      "Ġmikusanyiko": 8661,
      "Ġkugongwa": 8662,
      "Ġpugu": 8663,
      "Ġinapotokea": 8664,
      "Ġnawaomba": 8665,
      "Ġkuhifadhia": 8666,
      "Ġshamte": 8667,
      "Ġaanze": 8668,
      "Ġtegemezi": 8669,
      "Ġalionao": 8670,
      "Ġkusafirishwa": 8671,
      "Ġplasti": 8672,
      "marishwa": 8673,
      "Ġflora": 8674,
      "Ġvikongwe": 8675,
      "Ġmsongo": 8676,
      "Ġwajitokeze": 8677,
      "Ġkarim": 8678,
      "Ġlisilo": 8679,
      "Ġblue": 8680,
      "Ġshehena": 8681,
      "Ġtenisi": 8682,
      "Ġjacko": 8683,
      "dhoofisha": 8684,
      "Ġmarathon": 8685,
      "Ġguus": 8686,
      "Ġmzozo": 8687,
      "Ġwarembo": 8688,
      "Ġuboreshaji": 8689,
      "husiani": 8690,
      "Ġminziro": 8691,
      "Ġnyarugusu": 8692,
      "Ġkhartoum": 8693,
      "ene": 8694,
      "lham": 8695,
      "nzu": 8696,
      "sy": 8697,
      "ut": 8698,
      "Ġngwe": 8699,
      "wahusu": 8700,
      "Ġmki": 8701,
      "Ġmcho": 8702,
      "Ġmnyika": 8703,
      "Ġwam": 8704,
      "Ġwaheshimiwa": 8705,
      "Ġkutia": 8706,
      "Ġkutiwa": 8707,
      "haji": 8708,
      "hamishwa": 8709,
      "Ġukama": 8710,
      "Ġuis": 8711,
      "Ġufungaji": 8712,
      "Ġnaftari": 8713,
      "Ġatu": 8714,
      "Ġataanza": 8715,
      "tapa": 8716,
      "tafsiriwa": 8717,
      "mama": 8718,
      "Ġmabunge": 8719,
      "kibu": 8720,
      "lah": 8721,
      "laza": 8722,
      "zitoa": 8723,
      "Ġkalu": 8724,
      "Ġkarne": 8725,
      "Ġkwasaba": 8726,
      "tupilia": 8727,
      "jaj": 8728,
      "jala": 8729,
      "ramba": 8730,
      "Ġkifisadi": 8731,
      "Ġkisingizio": 8732,
      "Ġalisababisha": 8733,
      "Ġalikaa": 8734,
      "Ġaliuliza": 8735,
      "Ġaliuawa": 8736,
      "Ġalikutwa": 8737,
      "fungiwa": 8738,
      "seka": 8739,
      "Ġkuwasikiliza": 8740,
      "Ġnilio": 8741,
      "Ġlama": 8742,
      "Ġbanda": 8743,
      "Ġbajaj": 8744,
      "Ġmio": 8745,
      "Ġsanjari": 8746,
      "ngaika": 8747,
      "Ġvisingizio": 8748,
      "Ġwanalipwa": 8749,
      "Ġwanatafuta": 8750,
      "Ġwanashikiliwa": 8751,
      "moni": 8752,
      "eleweka": 8753,
      "elekeo": 8754,
      "Ġkutotajwa": 8755,
      "Ġwalikuja": 8756,
      "rubuni": 8757,
      "ngerema": 8758,
      "Ġentre": 8759,
      "Ġsengerema": 8760,
      "resa": 8761,
      "rekta": 8762,
      "Ġtutaka": 8763,
      "Ġtupu": 8764,
      "Ġtuliona": 8765,
      "Ġmwamko": 8766,
      "Ġmwaseba": 8767,
      "gonga": 8768,
      "Ġziwe": 8769,
      "Ġlibe": 8770,
      "zuni": 8771,
      "jeli": 8772,
      "Ġbid": 8773,
      "chofanya": 8774,
      "Ġanatumia": 8775,
      "Ġanashikiliwa": 8776,
      "Ġinakwenda": 8777,
      "Ġwakaguzi": 8778,
      "Ġpana": 8779,
      "Ġakidaiwa": 8780,
      "Ġakijaribu": 8781,
      "Ġameonyesha": 8782,
      "Ġamemtaka": 8783,
      "Ġkuanika": 8784,
      "Ġkozi": 8785,
      "vuta": 8786,
      "Ġkuogele": 8787,
      "Ġimeshinda": 8788,
      "Ġwameweka": 8789,
      "Ġwakitokea": 8790,
      "Ġwakionesha": 8791,
      "Ġwakishirikiana": 8792,
      "Ġkujiendeleza": 8793,
      "Ġkujionea": 8794,
      "Ġkuuli": 8795,
      "Ġkumta": 8796,
      "Ġkumtambua": 8797,
      "Ġkumpatia": 8798,
      "Ġlea": 8799,
      "somewa": 8800,
      "bon": 8801,
      "Ġutaifa": 8802,
      "Ġutakuta": 8803,
      "Ġyemen": 8804,
      "Ġwazima": 8805,
      "Ġbonny": 8806,
      "Ġkupigiwa": 8807,
      "Ġterry": 8808,
      "Ġkulifanyia": 8809,
      "Ġmwenyeji": 8810,
      "Ġkufufua": 8811,
      "Ġzilivyo": 8812,
      "Ġjeuri": 8813,
      "Ġaliyeko": 8814,
      "Ġtunashangaa": 8815,
      "Ġmakaburi": 8816,
      "Ġuchache": 8817,
      "Ġuchambuzi": 8818,
      "Ġwanaopinga": 8819,
      "Ġhakiwezi": 8820,
      "Ġsumari": 8821,
      "Ġmsasani": 8822,
      "kutanisha": 8823,
      "Ġwaasisi": 8824,
      "Ġkinana": 8825,
      "Ġusawa": 8826,
      "fikishwe": 8827,
      "cent": 8828,
      "Ġfulham": 8829,
      "Ġstahiki": 8830,
      "Ġaliwapongeza": 8831,
      "Ġmchafu": 8832,
      "Ġlote": 8833,
      "Ġcheo": 8834,
      "Ġukizingatia": 8835,
      "Ġyanayohusiana": 8836,
      "Ġkukifanya": 8837,
      "Ġmapacha": 8838,
      "Ġunaotakiwa": 8839,
      "Ġuhamasishaji": 8840,
      "Ġvinaweza": 8841,
      "Ġnimeamua": 8842,
      "badilike": 8843,
      "Ġkurudishwa": 8844,
      "Ġtutafanya": 8845,
      "Ġinspe": 8846,
      "Ġuandikishwa": 8847,
      "Ġzitaendelea": 8848,
      "Ġaliieleza": 8849,
      "Ġkukodi": 8850,
      "Ġlinalowezekana": 8851,
      "Ġmaige": 8852,
      "Ġwahamiaji": 8853,
      "Ġwahadhiri": 8854,
      "Ġkitimu": 8855,
      "lesbrou": 8856,
      "Ġasingeweza": 8857,
      "Ġwavumilivu": 8858,
      "Ġhawakuweza": 8859,
      "lls": 8860,
      "Ġkiteto": 8861,
      "nggangga": 8862,
      "Ġkuchomwa": 8863,
      "Ġwp": 8864,
      "Ġkitaalam": 8865,
      "Ġmrakibu": 8866,
      "Ġmahesabu": 8867,
      "Ġkijichi": 8868,
      "Ġkusajiliwa": 8869,
      "Ġnewcast": 8870,
      "shughulisha": 8871,
      "Ġkuzaa": 8872,
      "Ġwashindwe": 8873,
      "Ġmasheikh": 8874,
      "Ġisraeli": 8875,
      "Ġmgawanyo": 8876,
      "Ġamour": 8877,
      "Ġmatrekta": 8878,
      "Ġadriano": 8879,
      "Ġkupuuza": 8880,
      "Ġkuwaombea": 8881,
      "Ġhouse": 8882,
      "Ġwalionao": 8883,
      "mkhana": 8884,
      "Ġmollel": 8885,
      "Ġphares": 8886,
      "Ġuwindaji": 8887,
      "Ġmkandarasi": 8888,
      "Ġtimoth": 8889,
      "Ġcarlo": 8890,
      "Ġkamukara": 8891,
      "Ġnassoro": 8892,
      "Ġkinemela": 8893,
[...]
