{
  "version": "1.0",
  "truncation": null,
  "padding": null,
  "added_tokens": [
    {
      "id": 0,
      "content": "<s>",
      "single_word": false,
      "lstrip": false,
      "rstrip": false,
      "normalized": false,
      "special": true
    },
    {
      "id": 1,
      "content": "</s>",
      "single_word": false,
      "lstrip": false,
      "rstrip": false,
      "normalized": false,
      "special": true
    },
    {
      "id": 2,
      "content": "<unk>",
      "single_word": false,
      "lstrip": false,
      "rstrip": false,
      "normalized": false,
      "special": true
    },
    {
      "id": 3,
      "content": "<pad>",
      "single_word": false,
      "lstrip": false,
      "rstrip": false,
      "normalized": false,
      "special": true
    },
    {
      "id": 4,
      "content": "<mask>",
      "single_word": false,
      "lstrip": false,
      "rstrip": false,
      "normalized": false,
      "special": true
    },
    {
      "id": 5,
      "content": "<sw>",
      "single_word": false,
      "lstrip": false,
      "rstrip": false,
      "normalized": false,
      "special": true
    },
    {
      "id": 32000,
      "content": "<eot>",
      "single_word": false,
      "lstrip": false,
      "rstrip": false,
      "normalized": false,
      "special": true
    }
  ],
  "normalizer": null,
  "pre_tokenizer": {
    "type": "ByteLevel",
    "add_prefix_space": false,
    "trim_offsets": true,
    "use_regex": true
  },
  "post_processor": {
    "type": "ByteLevel",
    "add_prefix_space": true,
    "trim_offsets": false,
    "use_regex": true
  },
  "decoder": {
    "type": "ByteLevel",
    "add_prefix_space": true,
    "trim_offsets": true,
    "use_regex": true
  },
  "model": {
    "type": "BPE",
    "dropout": null,
    "unk_token": null,
    "continuing_subword_prefix": null,
    "end_of_word_suffix": null,
    "fuse_unk": false,
    "byte_fallback": false,
    "ignore_merges": false,
    "vocab": {
      "<s>": 0,
      "</s>": 1,
      "<unk>": 2,
      "<pad>": 3,
      "<mask>": 4,
      "<sw>": 5,
      "!": 6,
      "\"": 7,
      "#": 8,
      "$": 9,
      "%": 10,
      "&": 11,
      "'": 12,
      "(": 13,
      ")": 14,
      "*": 15,
      "+": 16,
      ",": 17,
      "-": 18,
      ".": 19,
      "/": 20,
      "0": 21,
      "1": 22,
      "2": 23,
      "3": 24,
      "4": 25,
      "5": 26,
      "6": 27,
      "7": 28,
      "8": 29,
      "9": 30,
      ":": 31,
      ";": 32,
      "<": 33,
      "=": 34,
      ">": 35,
      "?": 36,
      "@": 37,
      "A": 38,
      "B": 39,
      "C": 40,
      "D": 41,
      "E": 42,
      "F": 43,
      "G": 44,
      "H": 45,
      "I": 46,
      "J": 47,
      "K": 48,
      "L": 49,
      "M": 50,
      "N": 51,
      "O": 52,
      "P": 53,
      "Q": 54,
      "R": 55,
      "S": 56,
      "T": 57,
      "U": 58,
      "V": 59,
      "W": 60,
      "X": 61,
      "Y": 62,
      "Z": 63,
      "[": 64,
      "\\": 65,
      "]": 66,
      "^": 67,
      "_": 68,
      "`": 69,
      "a": 70,
      "b": 71,
      "c": 72,
      "d": 73,
      "e": 74,
      "f": 75,
      "g": 76,
      "h": 77,
      "i": 78,
      "j": 79,
      "k": 80,
      "l": 81,
      "m": 82,
      "n": 83,
      "o": 84,
      "p": 85,
      "q": 86,
      "r": 87,
      "s": 88,
      "t": 89,
      "u": 90,
      "v": 91,
      "w": 92,
      "x": 93,
      "y": 94,
      "z": 95,
      "{": 96,
      "|": 97,
      "}": 98,
      "~": 99,
      "¡": 100,
      "¢": 101,
      "£": 102,
      "¤": 103,
      "¥": 104,
      "¦": 105,
      "§": 106,
      "¨": 107,
      "©": 108,
      "ª": 109,
      "«": 110,
      "¬": 111,
      "®": 112,
      "¯": 113,
      "°": 114,
      "±": 115,
      "²": 116,
      "³": 117,
      "´": 118,
      "µ": 119,
      "¶": 120,
      "·": 121,
      "¸": 122,
      "¹": 123,
      "º": 124,
      "»": 125,
      "¼": 126,
      "½": 127,
      "¾": 128,
      "¿": 129,
      "À": 130,
      "Á": 131,
      "Â": 132,
      "Ã": 133,
      "Ä": 134,
      "Å": 135,
      "Æ": 136,
      "Ç": 137,
      "È": 138,
      "É": 139,
      "Ê": 140,
      "Ë": 141,
      "Ì": 142,
      "Í": 143,
      "Î": 144,
      "Ï": 145,
      "Ð": 146,
      "Ñ": 147,
      "Ò": 148,
      "Ó": 149,
      "Ô": 150,
      "Õ": 151,
      "Ö": 152,
      "×": 153,
      "Ø": 154,
      "Ù": 155,
      "Ú": 156,
      "Û": 157,
      "Ü": 158,
      "Ý": 159,
      "Þ": 160,
      "ß": 161,
      "à": 162,
      "á": 163,
      "â": 164,
      "ã": 165,
      "ä": 166,
      "å": 167,
      "æ": 168,
      "ç": 169,
      "è": 170,
      "é": 171,
      "ê": 172,
      "ë": 173,
      "ì": 174,
      "í": 175,
      "î": 176,
      "ï": 177,
      "ð": 178,
      "ñ": 179,
      "ò": 180,
      "ó": 181,
      "ô": 182,
      "õ": 183,
      "ö": 184,
      "÷": 185,
      "ø": 186,
      "ù": 187,
      "ú": 188,
      "û": 189,
      "ü": 190,
      "ý": 191,
      "þ": 192,
      "ÿ": 193,
      "Ā": 194,
      "ā": 195,
      "Ă": 196,
      "ă": 197,
      "Ą": 198,
      "ą": 199,
      "Ć": 200,
      "ć": 201,
      "Ĉ": 202,
      "ĉ": 203,
      "Ċ": 204,
      "ċ": 205,
      "Č": 206,
      "č": 207,
      "Ď": 208,
      "ď": 209,
      "Đ": 210,
      "đ": 211,
      "Ē": 212,
      "ē": 213,
      "Ĕ": 214,
      "ĕ": 215,
      "Ė": 216,
      "ė": 217,
      "Ę": 218,
      "ę": 219,
      "Ě": 220,
      "ě": 221,
      "Ĝ": 222,
      "ĝ": 223,
      "Ğ": 224,
      "ğ": 225,
      "Ġ": 226,
      "ġ": 227,
      "Ģ": 228,
      "ģ": 229,
      "Ĥ": 230,
      "ĥ": 231,
      "Ħ": 232,
      "ħ": 233,
      "Ĩ": 234,
      "ĩ": 235,
      "Ī": 236,
      "ī": 237,
      "Ĭ": 238,
      "ĭ": 239,
      "Į": 240,
      "į": 241,
      "İ": 242,
      "ı": 243,
      "Ĳ": 244,
      "ĳ": 245,
      "Ĵ": 246,
      "ĵ": 247,
      "Ķ": 248,
      "ķ": 249,
      "ĸ": 250,
      "Ĺ": 251,
      "ĺ": 252,
      "Ļ": 253,
      "ļ": 254,
      "Ľ": 255,
      "ľ": 256,
      "Ŀ": 257,
      "ŀ": 258,
      "Ł": 259,
      "ł": 260,
      "Ń": 261,
      "wa": 262,
      "Ġk": 263,
      "na": 264,
      "Ġm": 265,
      "li": 266,
      "Ġwa": 267,
      "ha": 268,
      "ya": 269,
      "ka": 270,
      "Ġku": 271,
      "ni": 272,
      "Ġya": 273,
      "ta": 274,
      "hi": 275,
      "Ġna": 276,
      "ng": 277,
      "čĊ": 278,
      "Ġa": 279,
      "ba": 280,
      "ma": 281,
      "za": 282,
      "Ġu": 283,
      "Ġma": 284,
      "ti": 285,
      "Ġs": 286,
      "zi": 287,
      "ri": 288,
      "la": 289,
      "nd": 290,
      "ki": 291,
      "ku": 292,
      "we": 293,
      "tu": 294,
      "Ġka": 295,
      "si": 296,
      "Ġi": 297,
      "ra": 298,
      "Ġkwa": 299,
      "Ġha": 300,
      "hu": 301,
      "yo": 302,
      "le": 303,
      "ji": 304,
      "Ġki": 305,
      "me": 306,
      "mi": 307,
      "to": 308,
      "fa": 309,
      "sa": 310,
      "Ġni": 311,
      "ja": 312,
      "ye": 313,
      "pa": 314,
      "sha": 315,
      "Ġc": 316,
      "te": 317,
      "mba": 318,
      "Ġhi": 319,
      "he": 320,
      "Ġv": 321,
      "ke": 322,
      "di": 323,
      "bu": 324,
      "bi": 325,
      "Ġza": 326,
      "fu": 327,
      "da": 328,
      "ko": 329,
      "Ġn": 330,
      "mu": 331,
      "pi": 332,
      "po": 333,
      "ĠM": 334,
      "Ġsa": 335,
      "Ġla": 336,
      "shi": 337,
      "Ġkati": 338,
      "nga": 339,
      "ne": 340,
      "zo": 341,
      "Ġhu": 342,
      "Ġvi": 343,
      "ngi": 344,
      "Ġmi": 345,
      "nda": 346,
      "ho": 347,
      "re": 348,
      "Ġtu": 349,
      "Ġta": 350,
      "Ġkatika": 351,
      "Ġwana": 352,
      "Ġkuwa": 353,
      "nye": 354,
      "se": 355,
      "Ġba": 356,
      "Ġali": 357,
      "ngu": 358,
      "mo": 359,
      "Ġcha": 360,
      "bo": 361,
      "nge": 362,
      "kuwa": 363,
      "ru": 364,
      "no": 365,
      "ele": 366,
      "Ġsi": 367,
      "chi": 368,
      "ju": 369,
      "ndi": 370,
      "ngo": 371,
      "fi": 372,
      "nza": 373,
      "wi": 374,
      "pe": 375,
      "ga": 376,
      "Ġili": 377,
      "je": 378,
      "wenye": 379,
      "lo": 380,
      "Ġamba": 381,
      "cha": 382,
      "Ġzi": 383,
      "nya": 384,
      "be": 385,
      "rika": 386,
      "Ġkama": 387,
      "ĠS": 388,
      "sema": 389,
      "Ġd": 390,
      "ĠK": 391,
      "Ġmwa": 392,
      "go": 393,
      "vyo": 394,
      "ze": 395,
      "ro": 396,
      "Ġse": 397,
      "Ġwali": 398,
      "Ġina": 399,
      "Ġli": 400,
      "su": 401,
      "Ġmu": 402,
      "Ġkuto": 403,
      "Ġwe": 404,
      "gu": 405,
      "Ġt": 406,
      "Ġana": 407,
      "Ġe": 408,
      "nia": 409,
      "lia": 410,
      "dha": 411,
      "yi": 412,
      "Ġnchi": 413,
      "nzi": 414,
      "mbo": 415,
      "zu": 416,
      "Ġo": 417,
      "ge": 418,
      "nu": 419,
      "Ġpa": 420,
      "Ġhiyo": 421,
      "ĠW": 422,
      "fanya": 423,
      "kati": 424,
      "cho": 425,
      "ndo": 426,
      "sh": 427,
      "vu": 428,
      "rikali": 429,
      "bwa": 430,
      "ĠčĊ": 431,
      "mia": 432,
      "Ġbi": 433,
      "..": 434,
      "end": 435,
      "Ġwatu": 436,
      "vi": 437,
      "Ġuna": 438,
      "Ġja": 439,
      "Ġkwenye": 440,
      "taka": 441,
      "kini": 442,
      "dhi": 443,
      "ngine": 444,
      "moja": 445,
      "Ġvya": 446,
      "ria": 447,
      "ĠMa": 448,
      "is": 449,
      "ongo": 450,
      "Ġju": 451,
      "idi": 452,
      "Ġra": 453,
      "Ġmo": 454,
      "yu": 455,
      "kana": 456,
      "Ġmaa": 457,
      "miwa": 458,
      "kiwa": 459,
      "Ġsana": 460,
      "ĠB": 461,
      "Ġkwamba": 462,
      "pu": 463,
      "kuu": 464,
      "Ġau": 465,
      "heshi": 466,
      "ada": 467,
      "Ġf": 468,
      "do": 469,
      "chu": 470,
      "mbe": 471,
      "endele": 472,
      "nzania": 473,
      "Ġyake": 474,
      "Ġye": 475,
      "lu": 476,
      "mbi": 477,
      "kia": 478,
      "Ġpi": 479,
      "nde": 480,
      "mbu": 481,
      "Ġame": 482,
      "shwa": 483,
      "Ġhii": 484,
      "ĠA": 485,
      "lio": 486,
      "heshimiwa": 487,
      "Ġndi": 488,
      "Ġ(": 489,
      "Ġuta": 490,
      "ĠT": 491,
      "so": 492,
      "nyi": 493,
      "kwa": 494,
      "du": 495,
      "ĠWa": 496,
      "Ġserikali": 497,
      "ifa": 498,
      "Ġji": 499,
      "weza": 500,
      "che": 501,
      "Ġmwaka": 502,
      "ĠN": 503,
      "ĠU": 504,
      "Ġwi": 505,
      "liwa": 506,
      "Ġsasa": 507,
      "wo": 508,
      "Ġkua": 509,
      "Ġime": 510,
      "Ġhata": 511,
      "pata": 512,
      "Ġthe": 513,
      "Ġkui": 514,
      "sho": 515,
      "on": 516,
      "Ġwata": 517,
      "Ġto": 518,
      "Ġle": 519,
      "Ġwame": 520,
      "de": 521,
      "ona": 522,
      "tia": 523,
      "Ġme": 524,
      "Ġcr": 525,
      "Ġhuo": 526,
      "Ġda": 527,
      "bali": 528,
      "Ġwake": 529,
      "Ġwakati": 530,
      "Ġlakini": 531,
      "sia": 532,
      "Ġbaada": 533,
      "mani": 534,
      "bunge": 535,
      "Ġhawa": 536,
      "Ġkazi": 537,
      "Ġhivyo": 538,
      "gi": 539,
      "zwa": 540,
      "Ġaki": 541,
      "ua": 542,
      "Ġ1": 543,
      "Ġho": 544,
      "Ġtuna": 545,
      "ongozi": 546,
      "00": 547,
      "nchi": 548,
      "Ġkwe": 549,
      "Ġzaidi": 550,
      "ĠKa": 551,
      "Ġmoja": 552,
      "ĠJ": 553,
      "Ġpe": 554,
      "ve": 555,
      "Ġmtu": 556,
      "Ġp": 557,
      "Ġzina": 558,
      "Ġte": 559,
      "Ġkutoka": 560,
      "Ġpia": 561,
      "Ġwo": 562,
      "Ġkila": 563,
      "Ġ2": 564,
      "Ġwalio": 565,
      "Ġkuna": 566,
      "babu": 567,
      "nt": 568,
      "ĠC": 569,
      "Ġume": 570,
      "ĠKi": 571,
      "yote": 572,
      "Ġpo": 573,
      "Ġkuli": 574,
      "Ġhilo": 575,
      "Ġnyi": 576,
      "kea": 577,
      "unga": 578,
      "Ġkum": 579,
      "zuri": 580,
      "she": 581,
      "husu": 582,
      "Ġambayo": 583,
      "Ha": 584,
      "Ġkuji": 585,
      "Ġpamoja": 586,
      "toa": 587,
      "kama": 588,
      "asi": 589,
      "Ġalisema": 590,
      "Ġsiku": 591,
      "Ġga": 592,
      "kubwa": 593,
      "....": 594,
      "ziri": 595,
      "neo": 596,
      "endelea": 597,
      "Ġwananchi": 598,
      "Ġmkuu": 599,
      "Ġmwi": 600,
      "ĠD": 601,
      "Ġaka": 602,
      "Ġhuu": 603,
      "Ġnchini": 604,
      "gha": 605,
      "Ġmko": 606,
      "Ġhali": 607,
      "Ġkuo": 608,
      "zungu": 609,
      "ia": 610,
      "kuta": 611,
      "Ġyao": 612,
      "ce": 613,
      "shu": 614,
      "Ġwao": 615,
      "pika": 616,
      "Ġmaji": 617,
      "Ġbe": 618,
      "Ġuli": 619,
      "Ġfe": 620,
      "kwe": 621,
      "kua": 622,
      "Ġkupi": 623,
      "Ġita": 624,
      "fua": 625,
      "ndu": 626,
      "sili": 627,
      "ĠTa": 628,
      "Ġyana": 629,
      "jia": 630,
      "tumia": 631,
      "tumi": 632,
      "Ġsababu": 633,
      "ĠSe": 634,
      "ĠMheshimiwa": 635,
      "Ġmbali": 636,
      "Ġbo": 637,
      "Ġshe": 638,
      "Ġhayo": 639,
      "ĠR": 640,
      "riki": 641,
      "Ġiliyo": 642,
      "Ġrais": 643,
      "Ġmaha": 644,
      "kani": 645,
      "dili": 646,
      "Ġtanzania": 647,
      "aka": 648,
      "Ġfa": 649,
      "Ġko": 650,
      "Ġambao": 651,
      "ina": 652,
      "Ġkuu": 653,
      "ndani": 654,
      "Ġhapa": 655,
      "Ġzili": 656,
      "uri": 657,
      "Ġhadi": 658,
      "limu": 659,
      "twa": 660,
      "nyika": 661,
      "Ġin": 662,
      "Ġwaki": 663,
      "Ġmpa": 664,
      "laya": 665,
      "Ġjuu": 666,
      "ari": 667,
      "ĠI": 668,
      "mini": 669,
      "Ġkatiba": 670,
      "Ġmaana": 671,
      "Ġkili": 672,
      "kata": 673,
      "Ġhatu": 674,
      "ĠP": 675,
      "weze": 676,
      "Ġshi": 677,
      "pya": 678,
      "sta": 679,
      "Ġmara": 680,
      "Ġhaki": 681,
      "zaji": 682,
      "guzi": 683,
      "Ġhao": 684,
      "mwa": 685,
      "Ġke": 686,
      "taji": 687,
      "bari": 688,
      "Ġre": 689,
      "Ġshu": 690,
      "jua": 691,
      "Ġso": 692,
      "Ġaf": 693,
      "Ġof": 694,
      "Ġwenye": 695,
      "ani": 696,
      "st": 697,
      "ala": 698,
      "sima": 699,
      "cm": 700,
      "Ġkubwa": 701,
      "Ġje": 702,
      "Ġyali": 703,
      "Ġwanao": 704,
      "Ma": 705,
      "Ġndio": 706,
      "Ġhili": 707,
      "jini": 708,
      "Ġde": 709,
      "Ġsu": 710,
      "Ġmwe": 711,
      "toto": 712,
      "ch": 713,
      "kazi": 714,
      "ribu": 715,
      "Ġwote": 716,
      "jili": 717,
      "or": 718,
      "zima": 719,
      "ĠSpika": 720,
      "Ġhizo": 721,
      "Ġkufanya": 722,
      "Ġmambo": 723,
      "Ġchi": 724,
      "Ġti": 725,
      "Ġmata": 726,
      "am": 727,
      "Ġhai": 728,
      "shauri": 729,
      "thi": 730,
      "Ġmiaka": 731,
      "ngwa": 732,
      "Ġchama": 733,
      "Ġnyu": 734,
      "Ġhe": 735,
      "uli": 736,
      "âĢ": 737,
      "zungum": 738,
      "Ġhaku": 739,
      "ngia": 740,
      "Ġfedha": 741,
      "Ġndani": 742,
      "Ġmada": 743,
      "tion": 744,
      "saidi": 745,
      "Ġhivi": 746,
      "Ġdu": 747,
      "Ġmwenye": 748,
      "Ġbara": 749,
      "Ġkuta": 750,
      "swa": 751,
      "ca": 752,
      "hidi": 753,
      "Ġmuda": 754,
      "hemu": 755,
      "isha": 756,
      "Ġkina": 757,
      "lewa": 758,
      "__": 759,
      "mla": 760,
      "Ġhaya": 761,
      "id": 762,
      "Ġmbi": 763,
      "shara": 764,
      "Ġfu": 765,
      "nja": 766,
      "Ġkwanza": 767,
      "Ġccm": 768,
      "omba": 769,
      "Ġsheria": 770,
      "Ġbila": 771,
      "Ġwengi": 772,
      "nk": 773,
      "fiki": 774,
      "kiti": 775,
      "dogo": 776,
      "Ġkabi": 777,
      "tizo": 778,
      "Ġkuhusu": 779,
      "mili": 780,
      "Ġata": 781,
      "Ġb": 782,
      "Ġru": 783,
      "ngeza": 784,
      "Kwa": 785,
      "one": 786,
      "Ġmwana": 787,
      "pita": 788,
      "Ġbu": 789,
      "Ġzao": 790,
      "zara": 791,
      "mbali": 792,
      "Wa": 793,
      "ĠSerikali": 794,
      "Ġzo": 795,
      "Ġhapo": 796,
      "Ġkweli": 797,
      "Ġucha": 798,
      "Ġmmoja": 799,
      "Ġkute": 800,
      "Ġj": 801,
      "ny": 802,
      "Ġaliye": 803,
      "tibu": 804,
      "Ġuwe": 805,
      "ini": 806,
      "Ġkutoa": 807,
      "kili": 808,
      "ar": 809,
      "mea": 810,
      "Ġhuyo": 811,
      "weka": 812,
      "nzo": 813,
      "Ġsha": 814,
      "Ġkitu": 815,
      "lioni": 816,
      "Ġco": 817,
      "Ġdi": 818,
      "Ġdo": 819,
      "Ġlina": 820,
      "Ġinayo": 821,
      "ashara": 822,
      "bara": 823,
      "Ġand": 824,
      "Ġkabisa": 825,
      "va": 826,
      "ĠWi": 827,
      "Ġtaifa": 828,
      "Ġviongozi": 829,
      "Ġhuko": 830,
      "Ġusa": 831,
      "Ġhabari": 832,
      "wala": 833,
      "ĠL": 834,
      "Ġngu": 835,
      "Ġmbalimbali": 836,
      "Ġnini": 837,
      "Ġuka": 838,
      "oni": 839,
      "Ġleo": 840,
      "Ġsaid": 841,
      "Ġmta": 842,
      "Ġnje": 843,
      "mbia": 844,
      "Ġtume": 845,
      "arifa": 846,
      "Ġmsi": 847,
      "kele": 848,
      "bar": 849,
      "Ġvile": 850,
      "ndwa": 851,
      "Ġalikuwa": 852,
      "Ġwaka": 853,
      "futa": 854,
      "ĠMu": 855,
      "hitaji": 856,
      "haki": 857,
      "jibu": 858,
      "ter": 859,
      "Ġmaka": 860,
      "Ġkutokana": 861,
      "Ġbunge": 862,
      "Ġmfu": 863,
      "ll": 864,
      "Ġnafa": 865,
      "asa": 866,
      "Ġwengine": 867,
      "Ġtena": 868,
      "Ġupa": 869,
      "piga": 870,
      "uti": 871,
      "Ġyetu": 872,
      "adhi": 873,
      "sto": 874,
      "jwa": 875,
      "Ġyo": 876,
      "Ka": 877,
      "nzibar": 878,
      "himu": 879,
      "Ġmasha": 880,
      "bele": 881,
      "mii": 882,
      "Ġajili": 883,
      "Ġchini": 884,
      "shaji": 885,
      "Ġlili": 886,
      "ghu": 887,
      "lisi": 888,
      "Ġunk": 889,
      "mali": 890,
      "badili": 891,
      "rudi": 892,
      "ibu": 893,
      "maa": 894,
      "pele": 895,
      "radi": 896,
      "ĠNa": 897,
      "ungano": 898,
      "Ġkwani": 899,
      "Ġsehemu": 900,
      "rekani": 901,
      "Ġulio": 902,
      "kta": 903,
      "endeleo": 904,
      "dai": 905,
      "Ġsio": 906,
      "Ġhuku": 907,
      "Ġmae": 908,
      "Ġzote": 909,
      "Ġnafasi": 910,
      "Mheshimiwa": 911,
      "Ġmpya": 912,
      "saidia": 913,
      "Ġzilizo": 914,
      "anza": 915,
      "Ġwasi": 916,
      "Ġnili": 917,
      "Ġhasa": 918,
      "Ġuki": 919,
      "Ġusi": 920,
      "Ġkuku": 921,
      "ĠHa": 922,
      "pungu": 923,
      "ida": 924,
      "Ġvita": 925,
      "Ġambaye": 926,
      "Ġndo": 927,
      "Ġhakuna": 928,
      "wali": 929,
      "Ġyote": 930,
      "Ġbado": 931,
      "Ġkita": 932,
      "Ġkupata": 933,
      "Ġdha": 934,
      "Ġhatua": 935,
      "ghuli": 936,
      "Ġtaarifa": 937,
      "Ġze": 938,
      "husi": 939,
      "Ġkushi": 940,
      "Ġasili": 941,
      "kuru": 942,
      "th": 943,
      "jana": 944,
      "ĠKu": 945,
      "Ġgani": 946,
      "Ġwaa": 947,
      "Ġambapo": 948,
      "penda": 949,
      "Ġkura": 950,
      "fani": 951,
      "Ġne": 952,
      "Ġmpaka": 953,
      "duma": 954,
      "kio": 955,
      "Ġuchaguzi": 956,
      "Ġnyingi": 957,
      "Ġnyumba": 958,
      "........": 959,
      "Ġdunia": 960,
      "co": 961,
      "Ġmaeneo": 962,
      "Ġum": 963,
      "Ġeneo": 964,
      "ende": 965,
      "Ġmimi": 966,
      "fsi": 967,
      "Ġwale": 968,
      "bla": 969,
      "wili": 970,
      "wezi": 971,
      "ry": 972,
      "kari": 973,
      "Ġkusi": 974,
      "Ġmita": 975,
      "fuata": 976,
      "Ġri": 977,
      "baya": 978,
      "Ġhicho": 979,
      "Ġbasi": 980,
      "mua": 981,
      "Ġkupa": 982,
      "Ġiki": 983,
      "Ġila": 984,
      "Ġnjia": 985,
      "ment": 986,
      "Ġuchu": 987,
      "Ġes": 988,
      "Ġmna": 989,
      "Ġmbili": 990,
      "koa": 991,
      "Ġute": 992,
      "Ġwetu": 993,
      "lima": 994,
      "Ġnyingine": 995,
      "Ġbina": 996,
      "Ġwewe": 997,
      "kisha": 998,
      "Ġbaadhi": 999,
      "ĠV": 1000,
      "Ġmfa": 1001,
      "fanyika": 1002,
      "Ġyaliyo": 1003,
      "raka": 1004,
      "nsi": 1005,
      "ĠBa": 1006,
      "ratibu": 1007,
      "fe": 1008,
      "Ġpale": 1009,
      "nywa": 1010,
      "Ġis": 1011,
      "kula": 1012,
      "Ġzinazo": 1013,
      "zia": 1014,
      "Ġkaribu": 1015,
      "Ġkipi": 1016,
      "lama": 1017,
      "Ġzake": 1018,
      "Ġhuduma": 1019,
      "ĠRa": 1020,
      "faa": 1021,
      "fungu": 1022,
      "chukua": 1023,
      "Ġwatoto": 1024,
      "takiwa": 1025,
      "fika": 1026,
      "bisha": 1027,
      "Ġwilaya": 1028,
      "Ġpro": 1029,
      "Ġua": 1030,
      "dala": 1031,
      "Ġwala": 1032,
      "Ġndiyo": 1033,
      "biti": 1034,
      "Ġmahakama": 1035,
      "wana": 1036,
      "kutano": 1037,
      "Ġat": 1038,
      "toke": 1039,
      "Ġlu": 1040,
      "Ġhoja": 1041,
      "Ġmcha": 1042,
      "Ġchu": 1043,
      "Ġmbo": 1044,
      "Ġmaisha": 1045,
      "enda": 1046,
      "zee": 1047,
      "Ġyenye": 1048,
      "ĠY": 1049,
      "ĠF": 1050,
      "ĠH": 1051,
      "njwa": 1052,
      "kataba": 1053,
      "ĠWaziri": 1054,
      "yari": 1055,
      "Ġhizi": 1056,
      "fisa": 1057,
      "uala": 1058,
      "Ġmuungano": 1059,
      "hari": 1060,
      "rt": 1061,
      "Ġkabla": 1062,
      "Ġno": 1063,
      "Ġyu": 1064,
      "Ġnime": 1065,
      "Ġmaendeleo": 1066,
      "dhaa": 1067,
      "ĠBu": 1068,
      "Ġwako": 1069,
      "Ġjambo": 1070,
      "Ġlazima": 1071,
      "Ġelimu": 1072,
      "Ġkuka": 1073,
      "mna": 1074,
      "Ġkam": 1075,
      "Ġas": 1076,
      "pewa": 1077,
      "Ġbiashara": 1078,
      "ĠZ": 1079,
      "Ġyako": 1080,
      "Ġambazo": 1081,
      "Ġkule": 1082,
      "Ġmkubwa": 1083,
      "Ġkutu": 1084,
      "Ġjana": 1085,
      "Ġlo": 1086,
      "Ġkutumia": 1087,
      "mata": 1088,
      "Ġkuzi": 1089,
      "ita": 1090,
      "Ġsuala": 1091,
      "nua": 1092,
      "fisi": 1093,
      "Ġkwenda": 1094,
      "Ġmazi": 1095,
      "ĠE": 1096,
      "jumbe": 1097,
      "ĠTanzania": 1098,
      "Ġmali": 1099,
      "Ġyeye": 1100,
      "Ġkiu": 1101,
      "Ġw": 1102,
      "Ġmuhimu": 1103,
      "Ġgha": 1104,
      "Ġbora": 1105,
      "Ġ3": 1106,
      "siasa": 1107,
      "sti": 1108,
      "Ġmawa": 1109,
      "Ali": 1110,
      "tokea": 1111,
      "Ġkiasi": 1112,
      "fikia": 1113,
      "Ġzime": 1114,
      "Ġkupitia": 1115,
      "Ġwapi": 1116,
      "Ġfi": 1117,
      "Ġtha": 1118,
      "Ġuhu": 1119,
      "ngeze": 1120,
      "tika": 1121,
      "in": 1122,
      "Ġ200": 1123,
      "funzi": 1124,
      "Ġyangu": 1125,
      "Ġkusa": 1126,
      "ndishi": 1127,
      "Ġasilimia": 1128,
      "gonjwa": 1129,
      "Ġshule": 1130,
      "Ġkilimo": 1131,
      "jenga": 1132,
      "ishi": 1133,
      "fauti": 1134,
      "nzani": 1135,
      "rs": 1136,
      "Ġnya": 1137,
      "Ġvizuri": 1138,
      "Ġmama": 1139,
      "hili": 1140,
      "Ġuwezo": 1141,
      "Ġilikuwa": 1142,
      "Ġgi": 1143,
      "Ġkuanzi": 1144,
      "Ġjamii": 1145,
      "Ġca": 1146,
      "tolewa": 1147,
      "kra": 1148,
      "Na": 1149,
      "Ġmkono": 1150,
      "wepo": 1151,
      "eleza": 1152,
      "Ġtatu": 1153,
      "Ġyanayo": 1154,
      "Ġmwisho": 1155,
      "Ġile": 1156,
      "Ġkipindi": 1157,
      "tikana": 1158,
      "muzi": 1159,
      "frika": 1160,
      "el": 1161,
      "kumbu": 1162,
      "Ġnguvu": 1163,
      "puni": 1164,
      "ss": 1165,
      "Ġzanzibar": 1166,
      "ĠBw": 1167,
      "Ġdhidi": 1168,
      "asisi": 1169,
      "ct": 1170,
      "pende": 1171,
      "Ġalipo": 1172,
      "Ġushi": 1173,
      "nyesha": 1174,
      "Ġaina": 1175,
      "soma": 1176,
      "Ġupande": 1177,
      "reza": 1178,
      "Ġsiasa": 1179,
      "kuja": 1180,
      "Ġwaziri": 1181,
      "Ġmsa": 1182,
      "Ġjina": 1183,
      "toka": 1184,
      "bia": 1185,
      "Ġbwa": 1186,
      "wanda": 1187,
      "mbea": 1188,
      "risha": 1189,
      "Ġnina": 1190,
      "Ġge": 1191,
      "Ġikiwa": 1192,
      "Ġg": 1193,
      "Ġnye": 1194,
      "ĠMwenye": 1195,
      "Ġbarabara": 1196,
      "Ġunao": 1197,
      "Ġtatizo": 1198,
      "hama": 1199,
      "Ġsawa": 1200,
      "nti": 1201,
      "pote": 1202,
      "Ġmka": 1203,
      "fanyi": 1204,
      "ndari": 1205,
      "tumizi": 1206,
      "Ġsisi": 1207,
      "kweli": 1208,
      "ondo": 1209,
      "Ġkuja": 1210,
      "ndika": 1211,
      "lea": 1212,
      "____": 1213,
      "Ġmjini": 1214,
      "ĠWizara": 1215,
      "Ġtuta": 1216,
      "ngira": 1217,
      "rehe": 1218,
      "Ġtanga": 1219,
      "Ġal": 1220,
      "rikia": 1221,
      "Ġmbele": 1222,
      "ĠG": 1223,
      "Ġvijana": 1224,
      "ĠMi": 1225,
      "Ġkusema": 1226,
      "Ġcho": 1227,
      "Ġmungu": 1228,
      "ĠO": 1229,
      "Ġ-": 1230,
      "Ġro": 1231,
      "the": 1232,
      "Ġtuli": 1233,
      "faha": 1234,
      "nyo": 1235,
      "ty": 1236,
      "jo": 1237,
      "Ġamesema": 1238,
      "lala": 1239,
      "dhani": 1240,
      "Ġmaku": 1241,
      "Ġtofauti": 1242,
      "Ġkawa": 1243,
      "wani": 1244,
      "Ġmengi": 1245,
      "Ġvitu": 1246,
      "mlaka": 1247,
      "Ġuje": 1248,
      "ly": 1249,
      "Ġmji": 1250,
      "ume": 1251,
      "Ġmkoa": 1252,
      "ndaji": 1253,
      "Ġpili": 1254,
      "misha": 1255,
      "Ġyame": 1256,
      "kosa": 1257,
      "Ġhuyu": 1258,
      "Ġlime": 1259,
      "zali": 1260,
      "ĠMkuu": 1261,
      "ngene": 1262,
      "Ġnamna": 1263,
      "una": 1264,
      "ck": 1265,
      "jui": 1266,
      "Ġtayari": 1267,
      "ili": 1268,
      "huri": 1269,
      "Ġmfano": 1270,
      "Ġar": 1271,
      "Ġkuliko": 1272,
      "akini": 1273,
      "Ġvyama": 1274,
      "kofi": 1275,
      "Ġjo": 1276,
      "Ġwatanzania": 1277,
      "Ġwafanya": 1278,
      "fo": 1279,
      "ĠRais": 1280,
      "Ġwazi": 1281,
      "en": 1282,
      "Ġuwa": 1283,
      "refu": 1284,
      "Ġvina": 1285,
      "Ġmilioni": 1286,
      "Ġpolisi": 1287,
      "liana": 1288,
      "Ġmatu": 1289,
      "liano": 1290,
      "wango": 1291,
      "san": 1292,
      "dia": 1293,
      "tumika": 1294,
      "Ġmashi": 1295,
      "Ġakiwa": 1296,
      "poti": 1297,
      "damu": 1298,
      "Ġbei": 1299,
      "weke": 1300,
      "mbua": 1301,
      "Ġwalikuwa": 1302,
      "ld": 1303,
      "lma": 1304,
      "zungumza": 1305,
      "Makofi": 1306,
      "Ġshughuli": 1307,
      "Ġbwana": 1308,
      "dema": 1309,
      "Ġmsingi": 1310,
      "lamu": 1311,
      "Ġkufu": 1312,
      "Ġmatumizi": 1313,
      "Ġanaye": 1314,
      "ana": 1315,
      "Ġida": 1316,
      "Ġuha": 1317,
      "amini": 1318,
      "Ġumma": 1319,
      "ali": 1320,
      "Ġafya": 1321,
      "Ġche": 1322,
      "Ġmfumo": 1323,
      "Ġ19": 1324,
      "Ġmwezi": 1325,
      "Ġmengine": 1326,
      "Ġwanawa": 1327,
      "Ġkawaida": 1328,
      "Ġnao": 1329,
      "Ġkucha": 1330,
      "elewa": 1331,
      "ĠJu": 1332,
      "goro": 1333,
      "rama": 1334,
      "us": 1335,
      "Ġfor": 1336,
      "Ġumeme": 1337,
      "ur": 1338,
      "Ġisi": 1339,
      "jiji": 1340,
      "Ġmapa": 1341,
      "jeshi": 1342,
      "Ġhuwa": 1343,
      "hakikisha": 1344,
      "Ġmazingira": 1345,
      "Ġmagu": 1346,
      "tokana": 1347,
      "Ġhazi": 1348,
      "Ġsta": 1349,
      "ngalia": 1350,
      "mishi": 1351,
      "Ġ4": 1352,
      "Ġofisi": 1353,
      "Ġmaalu": 1354,
      "man": 1355,
      "mika": 1356,
      "mizi": 1357,
      "Ġuko": 1358,
      "Ġafrika": 1359,
      "chuku": 1360,
      "kulima": 1361,
      "chama": 1362,
      "Ġnzuri": 1363,
      "Ġmaja": 1364,
      "es": 1365,
      "),": 1366,
      "ran": 1367,
      "mataifa": 1368,
      "ĠMwenyekiti": 1369,
      "saba": 1370,
      "Ġmafu": 1371,
      "pendeke": 1372,
      "rere": 1373,
      "Ġndu": 1374,
      "Ġkidogo": 1375,
      "ezi": 1376,
      "Ġgid": 1377,
      "ĠMwa": 1378,
      "ingi": 1379,
      "Ġmas": 1380,
      "chezo": 1381,
      "Ġdar": 1382,
      "Ġmkutano": 1383,
      "Ġvyo": 1384,
      "Lakini": 1385,
      "shindwa": 1386,
      "Ġmwingine": 1387,
      "kubali": 1388,
      "lmashauri": 1389,
      "fadhi": 1390,
      "Ġuchumi": 1391,
      "Ġkiongozi": 1392,
      "Ġambalo": 1393,
      "Ġasi": 1394,
      "Ġmaoni": 1395,
      "kwenda": 1396,
      "Ġuhuru": 1397,
      "Ġmarekani": 1398,
      "ingia": 1399,
      "Ġgo": 1400,
      "Ġtangu": 1401,
      "Ġmkataba": 1402,
      "lani": 1403,
      "Ġmamlaka": 1404,
      "ii": 1405,
      "Ġmpango": 1406,
      "Ġyoyote": 1407,
      "lingi": 1408,
      "Ġwizara": 1409,
      "ĠNaibu": 1410,
      "Ġmiko": 1411,
      "baki": 1412,
      "ĠMo": 1413,
      "pinzani": 1414,
      "idha": 1415,
      "Ġchadema": 1416,
      "itwa": 1417,
      "nze": 1418,
      "ĠBunge": 1419,
      "jiri": 1420,
      "Ġ5": 1421,
      "ĠDar": 1422,
      "Ġbinafsi": 1423,
      "Ġchakula": 1424,
      "mati": 1425,
      "Ġnde": 1426,
      "uzi": 1427,
      "kao": 1428,
      "kumu": 1429,
      "tege": 1430,
      "tendo": 1431,
      "hisi": 1432,
      "Ġ.": 1433,
      "husika": 1434,
      "ĠSa": 1435,
      "Ġwenyewe": 1436,
      "hara": 1437,
      "wahi": 1438,
      ",\"": 1439,
      "Ġsiyo": 1440,
      "Ġwanafunzi": 1441,
      "Ġshilingi": 1442,
      "Ġpesa": 1443,
      "Ġmgo": 1444,
      "Ġtaasisi": 1445,
      "Ġpeke": 1446,
      "AN": 1447,
      "ngaza": 1448,
      "Ġmakubwa": 1449,
      "ĠVi": 1450,
      "ted": 1451,
      "Ġnga": 1452,
      "zazi": 1453,
      "tisha": 1454,
      "lla": 1455,
      "Ġule": 1456,
      "ngea": 1457,
      "Ġnaomba": 1458,
      "Ġakili": 1459,
      "Ġbali": 1460,
      "wemo": 1461,
      "Ġmatatizo": 1462,
      "Ġujenzi": 1463,
      "Ġcon": 1464,
      "gwa": 1465,
      "rea": 1466,
      "Alisema": 1467,
      "nisha": 1468,
      "ĠAfrika": 1469,
      "Ġmaga": 1470,
      "dini": 1471,
      "storia": 1472,
      "ara": 1473,
      "Ġlake": 1474,
      "Ġzetu": 1475,
      "jaa": 1476,
      "Ġkesi": 1477,
      "wapo": 1478,
      "Ġmujibu": 1479,
      "bore": 1480,
      "lizi": 1481,
      "inge": 1482,
      "Ġmradi": 1483,
      "Ġsamia": 1484,
      "neno": 1485,
      "biri": 1486,
      "ĠSala": 1487,
      "Ġjinsi": 1488,
      "ver": 1489,
      "nce": 1490,
      "Ġbadala": 1491,
      "ci": 1492,
      "nduzi": 1493,
      "Ġgharama": 1494,
      "Ġhala": 1495,
      "tea": 1496,
      "Ġkilicho": 1497,
      "Ġyaani": 1498,
      "Ġnani": 1499,
      "kaa": 1500,
      "Ġtimu": 1501,
      "tua": 1502,
      "shiriki": 1503,
      "Ġuongozi": 1504,
      "Ġlugha": 1505,
      "Ġtanganyika": 1506,
      "Ġduniani": 1507,
      "milia": 1508,
      "katika": 1509,
      "Ġvye": 1510,
      "Ġukweli": 1511,
      "zao": 1512,
      "uliza": 1513,
      "ĠSalaam": 1514,
      "Ġmbaya": 1515,
      "onekana": 1516,
      "Ġsaa": 1517,
      "Ġkuona": 1518,
      "Ġutaratibu": 1519,
      "fiti": 1520,
      "sheria": 1521,
      "Ġkuhakikisha": 1522,
      "Ġkisiasa": 1523,
      "kabi": 1524,
      "pia": 1525,
      "Ġkodi": 1526,
      "Ġmtoto": 1527,
      "Ġwangu": 1528,
      "rais": 1529,
      "Ġndugu": 1530,
      "Ġnia": 1531,
      "Ġamani": 1532,
      "fanywa": 1533,
      "Ġwanawake": 1534,
      "badiliko": 1535,
      "mpa": 1536,
      "firi": 1537,
      "Ġvyombo": 1538,
      "Ġwiki": 1539,
      "Ġsala": 1540,
      "shukuru": 1541,
      "patikana": 1542,
      "Ġhau": 1543,
      "spita": 1544,
      "Ku": 1545,
      "eli": 1546,
      "tara": 1547,
      "leta": 1548,
      "Ġkuongeza": 1549,
      "Ġkampuni": 1550,
      "gh": 1551,
      "Ġkuondo": 1552,
      "kri": 1553,
      "Ġwabunge": 1554,
      "Ġmifu": 1555,
      "jeru": 1556,
      "000": 1557,
      "reje": 1558,
      "mp": 1559,
      "Ġkuvu": 1560,
      "rani": 1561,
      "ingereza": 1562,
      "Ġmbe": 1563,
      "gua": 1564,
      "Ġika": 1565,
      "Katika": 1566,
      "Ġvili": 1567,
      "ĠZa": 1568,
      "sikia": 1569,
      "Ġsita": 1570,
      "Ġardhi": 1571,
      "Ġkuki": 1572,
      "Ġsekta": 1573,
      "kwi": 1574,
      "fahamu": 1575,
      "Ġusalama": 1576,
      "ndaa": 1577,
      "keleza": 1578,
      "Ġ20": 1579,
      "Ġjeshi": 1580,
      "Ġmaele": 1581,
      "ongoza": 1582,
      "Ġkisa": 1583,
      "................": 1584,
      "tokeo": 1585,
      "tanzania": 1586,
      "suala": 1587,
      "Ġkujenga": 1588,
      "pokuwa": 1589,
      "Ġkinacho": 1590,
      "Ġkuanzia": 1591,
      "dhu": 1592,
      "Ġmipa": 1593,
      "Ġkuendelea": 1594,
      "Ġkimataifa": 1595,
      "ĠWilaya": 1596,
      "dhibiti": 1597,
      "Ġlengo": 1598,
      "Ġilivyo": 1599,
      "Ġawa": 1600,
      "Ġanasema": 1601,
      "juli": 1602,
      "Ġ'": 1603,
      "Ġ\"": 1604,
      "Ni": 1605,
      "rti": 1606,
      "Ġdawa": 1607,
      "ew": 1608,
      "Ġnaye": 1609,
      "hudi": 1610,
      "ĠMungu": 1611,
      "lme": 1612,
      "Ġam": 1613,
      "rica": 1614,
      "Ġmaneno": 1615,
      "kelezaji": 1616,
      "peleka": 1617,
      "Ġhaja": 1618,
      "Ġndege": 1619,
      "fuli": 1620,
      "geni": 1621,
      "Ġmabadiliko": 1622,
      "Ġmaju": 1623,
      "Ġidadi": 1624,
      "spitali": 1625,
      "simamia": 1626,
      "Ġfo": 1627,
      "Ġkenya": 1628,
      "hihi": 1629,
      "Ġkamati": 1630,
      "Ġuja": 1631,
      "Ġhati": 1632,
      "Ġtarehe": 1633,
      "ĠJa": 1634,
      "zuia": 1635,
      "Ġbandari": 1636,
      "nisa": 1637,
      "nyu": 1638,
      "Ġkim": 1639,
      "Ġhiki": 1640,
      "Ki": 1641,
      ").": 1642,
      "punguza": 1643,
      "Ġkuanza": 1644,
      "Ġmwenyewe": 1645,
      "Ġutu": 1646,
      "Ġkile": 1647,
      "Ġwenza": 1648,
      "Ġutawala": 1649,
      "Ġaji": 1650,
      "rio": 1651,
      "chwa": 1652,
      "Ġngo": 1653,
      "pwa": 1654,
      "undo": 1655,
      "onyesha": 1656,
      "wezesha": 1657,
      "miza": 1658,
      "kuna": 1659,
      "biashara": 1660,
      "bda": 1661,
      "Ġhuru": 1662,
      "rd": 1663,
      "med": 1664,
      "Ġkuweka": 1665,
      "tiwa": 1666,
      "Ġmiradi": 1667,
      "Ġkadhaa": 1668,
      "Ġwate": 1669,
      "baini": 1670,
      "Ġpu": 1671,
      "Ġfulani": 1672,
      "paswa": 1673,
      "zidi": 1674,
      "Ġdini": 1675,
      "Ġbaba": 1676,
      "pinduzi": 1677,
      "ngatia": 1678,
      "reke": 1679,
      "ĠWA": 1680,
      "islamu": 1681,
      "CM": 1682,
      "mwe": 1683,
      "zeti": 1684,
      "Ġumoja": 1685,
      "Ġkiwango": 1686,
      "Ġjumla": 1687,
      "singi": 1688,
      "Ġmzee": 1689,
      "mbele": 1690,
      "Ġhistoria": 1691,
      "Ġnyerere": 1692,
      "aa": 1693,
      "tegemea": 1694,
      "ns": 1695,
      "Ġnita": 1696,
      "Ġama": 1697,
      "ĠTaifa": 1698,
      "Ġkundi": 1699,
      "Ġmasuala": 1700,
      "rufu": 1701,
      "Ġlililo": 1702,
      "ribi": 1703,
      "Ġwacha": 1704,
      "nuni": 1705,
      "nunua": 1706,
      "Ġmazao": 1707,
      "zungumzia": 1708,
      "Ġsalaam": 1709,
      "Ġkwake": 1710,
      "Ġmrefu": 1711,
      "Ġwakulima": 1712,
      "nuzi": 1713,
      "shia": 1714,
      "ĠâĢ": 1715,
      "maliza": 1716,
      "moto": 1717,
      "Ġkuya": 1718,
      "ĠSi": 1719,
      "Ġmataifa": 1720,
      "Ġaja": 1721,
      "Ġras": 1722,
      "doma": 1723,
      "jeti": 1724,
      "Ġmao": 1725,
      "Ġchake": 1726,
      "ridhi": 1727,
      "Ġmape": 1728,
      "Ġufu": 1729,
      "Ġupinzani": 1730,
      "Ġmafuta": 1731,
      "kutana": 1732,
      "mbana": 1733,
      "Ġutekelezaji": 1734,
      "Ġsoko": 1735,
      "pokea": 1736,
      "shughuli": 1737,
      "ganda": 1738,
      "Ġkupiga": 1739,
      "chumi": 1740,
      "Ġdola": 1741,
      "dhali": 1742,
      "Ġuma": 1743,
      "lie": 1744,
      "Ġwafanyakazi": 1745,
      "genzi": 1746,
      "Ġzita": 1747,
      "Ġuju": 1748,
      "anga": 1749,
      "simu": 1750,
      "Ġmafunzo": 1751,
      "Ġmaalum": 1752,
      "husia": 1753,
      "Ġmadara": 1754,
      "amua": 1755,
      "nne": 1756,
      "Ġmatokeo": 1757,
      "ĠPo": 1758,
      "Ġusha": 1759,
      "gra": 1760,
      "uza": 1761,
      "Ġyale": 1762,
      "Ġnu": 1763,
      "Ġsimu": 1764,
      "Ġ6": 1765,
      "jijini": 1766,
      "rusha": 1767,
      "Ġfamilia": 1768,
      "Ġmahali": 1769,
      "Ġbilioni": 1770,
      "Ġsh": 1771,
      "Ġon": 1772,
      "Ġmwenyekiti": 1773,
      "ĠKamati": 1774,
      "HE": 1775,
      "Ġraia": 1776,
      "waa": 1777,
      "Ġmiongo": 1778,
      "Ġwatumishi": 1779,
      "RI": 1780,
      "Ġambacho": 1781,
      "ĠMarekani": 1782,
      "kurugenzi": 1783,
      "zea": 1784,
      "nyama": 1785,
      "Ġuba": 1786,
      "Ġupe": 1787,
      "jiwa": 1788,
      "lahi": 1789,
      "sisi": 1790,
      "Ġkusini": 1791,
      "Ġyule": 1792,
      "Ġitakuwa": 1793,
      "Ġnyuma": 1794,
      "fari": 1795,
      "Ġkujua": 1796,
      "Ġwajumbe": 1797,
      "Ġpekee": 1798,
      "Ġjam": 1799,
      "Ġmagufuli": 1800,
      "Ġkufikia": 1801,
      "Ġndogo": 1802,
      "ĠJe": 1803,
      "lojia": 1804,
      "mana": 1805,
      "fikiri": 1806,
      "Ġlita": 1807,
      "sika": 1808,
      "Ġawali": 1809,
      "Ġchanga": 1810,
      "ngana": 1811,
      "tuba": 1812,
      "Ġwakiwa": 1813,
      "tilia": 1814,
      "kato": 1815,
      "Ġnyumbani": 1816,
      "Ġyata": 1817,
      "ts": 1818,
      "Ġjimbo": 1819,
      "mokra": 1820,
      "Ġunaweza": 1821,
      "Ġex": 1822,
      "lazi": 1823,
      "bora": 1824,
      "Ġkumi": 1825,
      "rsa": 1826,
      "Ġshirika": 1827,
      "Ġufa": 1828,
      "anzi": 1829,
      "Ġrushwa": 1830,
      "Ġthat": 1831,
      "Ġkime": 1832,
      "Ġkipa": 1833,
      "Ġiwe": 1834,
      "HA": 1835,
      "Ġvipi": 1836,
      "Ġharaka": 1837,
      "Ġbinadamu": 1838,
      "Ġhawana": 1839,
      "Ġwafu": 1840,
      "kuba": 1841,
      "kuwepo": 1842,
      "Ġwasio": 1843,
      "rikiana": 1844,
      "hata": 1845,
      "Ba": 1846,
      "wekwa": 1847,
      "thibiti": 1848,
      "Ġsahihi": 1849,
      "gawa": 1850,
      "endesha": 1851,
      "Ġkauli": 1852,
      "Ġkituo": 1853,
      "nki": 1854,
      "WA": 1855,
      "Ġsera": 1856,
      "Ġmaelezo": 1857,
      "taja": 1858,
      "jinga": 1859,
      "Ġap": 1860,
      "Ġbidhaa": 1861,
      "Ġwanachama": 1862,
      "Ġkata": 1863,
      "Hata": 1864,
      "ngeneza": 1865,
      "Ġwawili": 1866,
      "kundi": 1867,
      "rua": 1868,
      "Ġrasmi": 1869,
      "Ġhospitali": 1870,
      "ssi": 1871,
      "buni": 1872,
      "Ġhatari": 1873,
      "Ġzamani": 1874,
      "Ġnika": 1875,
      "Ġaliyo": 1876,
      "marisha": 1877,
      "rahi": 1878,
      "tiza": 1879,
      "ssa": 1880,
      "Ġnamba": 1881,
      "dau": 1882,
      "Ġwapo": 1883,
      "nguzi": 1884,
      "ĠShe": 1885,
      "wezekana": 1886,
      "Ġtoka": 1887,
      "Ġgari": 1888,
      "Ġkuingia": 1889,
      "takayo": 1890,
      "ngezeka": 1891,
      "Ġjamhuri": 1892,
      "Ġtukio": 1893,
      "Ġkisha": 1894,
      "Ġfursa": 1895,
      "Ġmsaada": 1896,
      "kamili": 1897,
      "sababisha": 1898,
      "Ġkumu": 1899,
      "ine": 1900,
      "boresha": 1901,
      "...": 1902,
      "Ġajira": 1903,
      "Ġkija": 1904,
      "Ġmbunge": 1905,
      "Ġbaadaye": 1906,
      "ĠCCM": 1907,
      "mwi": 1908,
      "uka": 1909,
      "elekea": 1910,
      "Ġmaba": 1911,
      "Ġswali": 1912,
      "endeleza": 1913,
      "wasi": 1914,
      "Ġ7": 1915,
      "ene": 1916,
      "Ġkima": 1917,
      "zalishaji": 1918,
      "Ġmvu": 1919,
      "Ġkutosha": 1920,
      "Ġspika": 1921,
      "mke": 1922,
      "MA": 1923,
      "dumu": 1924,
      "kataa": 1925,
      "Ġkuchukua": 1926,
      "ĠPa": 1927,
      "Ġimani": 1928,
      "Ġhalafu": 1929,
      "Ġtano": 1930,
      "Ta": 1931,
      "poteza": 1932,
      "ngekuwa": 1933,
      "mui": 1934,
      "son": 1935,
      "lozi": 1936,
      "Ġkanuni": 1937,
      "shinda": 1938,
      "lle": 1939,
      "Ġnne": 1940,
      "dhara": 1941,
      "Ġuzi": 1942,
      "Ġve": 1943,
      "Ġnayo": 1944,
      "Ġpicha": 1945,
      "________": 1946,
      "ir": 1947,
      "hali": 1948,
      "ble": 1949,
      "Ġmikoa": 1950,
      "ngawa": 1951,
      "mbuzi": 1952,
      "Ġsaba": 1953,
      "ndao": 1954,
      "Ġmhe": 1955,
      "Ġmwalimu": 1956,
      "Ġmaslahi": 1957,
      "Ġkaribuni": 1958,
      "Ġkanisa": 1959,
      "Ġkilo": 1960,
      "Ġuamuzi": 1961,
      "Ġchangamoto": 1962,
      "Ġmaso": 1963,
      "subiri": 1964,
      "kusa": 1965,
      "Ġambavyo": 1966,
      "Ġsila": 1967,
      "Ġjamaa": 1968,
      "fanikiwa": 1969,
      "mano": 1970,
      "Ġkuleta": 1971,
      "takapo": 1972,
      "Ġkuni": 1973,
      "Ġfaida": 1974,
      "Ġzile": 1975,
      "mokrasia": 1976,
      "pongeza": 1977,
      "Ġmacho": 1978,
      "tiha": 1979,
      "Ġmapato": 1980,
      "sheni": 1981,
      "bika": 1982,
      "bwe": 1983,
      "Ġmdogo": 1984,
      "kufa": 1985,
      "Ġkiuchumi": 1986,
      "simamizi": 1987,
      "Ġr": 1988,
      "endelee": 1989,
      "ZI": 1990,
      "Ġmiongoni": 1991,
      "Ġbungeni": 1992,
      "fanye": 1993,
      "ndele": 1994,
      "lly": 1995,
      "Ġhusika": 1996,
      "ĠZanzibar": 1997,
      "Ġkuko": 1998,
      "julikana": 1999,
      "Ġyeyote": 2000,
      "Ġlinalo": 2001,
      "lakini": 2002,
      "alamu": 2003,
      "Ġkufua": 2004,
      "hn": 2005,
      "seme": 2006,
      "Ġthi": 2007,
      "miliki": 2008,
      "kwete": 2009,
      "Ġmba": 2010,
      "Ġusiku": 2011,
      "kika": 2012,
      "ruhusu": 2013,
      "ĠShi": 2014,
      "âĢĿ": 2015,
      "Ġsifa": 2016,
      "Ġmwanzo": 2017,
      "ĠJi": 2018,
      "Ġumri": 2019,
      "Ġkupunguza": 2020,
      "Ġkutaka": 2021,
      "Ġmashariki": 2022,
      "Ġmoyo": 2023,
      "rusi": 2024,
      "Ġmoto": 2025,
      "sasi": 2026,
      "Ġkwao": 2027,
      "Ġhotuba": 2028,
      "Ġvifaa": 2029,
      "Ġ10": 2030,
      "Ġbaraza": 2031,
      "ika": 2032,
      "Ġmte": 2033,
      "sani": 2034,
      "Ġmagari": 2035,
      "Ġkia": 2036,
      "ĠBara": 2037,
      "Ġkutekeleza": 2038,
      "Ġiliyopita": 2039,
      "sini": 2040,
      "Ġushauri": 2041,
      "Ġhana": 2042,
      "Ġwalimu": 2043,
      "gombea": 2044,
      "cia": 2045,
      "Sasa": 2046,
      "muhimu": 2047,
      "Ġanga": 2048,
      "Ġhalmashauri": 2049,
      "patia": 2050,
      "pate": 2051,
      "Ġmiezi": 2052,
      "taki": 2053,
      "chezaji": 2054,
      "Ġ8": 2055,
      "wakili": 2056,
      "Ġmaanda": 2057,
      "Ġkufa": 2058,
      "Ġyou": 2059,
      "Ġmzuri": 2060,
      "kazini": 2061,
      "zoe": 2062,
      "ree": 2063,
      "Ġanaweza": 2064,
      "Ġmkoani": 2065,
      "lau": 2066,
      "ĠKwa": 2067,
      "fungua": 2068,
      "Ġmke": 2069,
      "Ġby": 2070,
      "LI": 2071,
      "takao": 2072,
      "wote": 2073,
      "Ġsilaha": 2074,
      "zaliwa": 2075,
      "vo": 2076,
      "Ġkikubwa": 2077,
      "Ġmadaraka": 2078,
      "bina": 2079,
      "kamani": 2080,
      "Ġuwanja": 2081,
      "gaji": 2082,
      "ĠMkoa": 2083,
      "Ġripoti": 2084,
      "Ġdara": 2085,
      "Ġmchakato": 2086,
      "ndua": 2087,
      "rikiano": 2088,
      "tokeza": 2089,
      "Ġzenye": 2090,
      "Ġndiye": 2091,
      "Ġipo": 2092,
      "Ġalivyo": 2093,
      "Ġutafiti": 2094,
      "Ġmadai": 2095,
      "Ġugonjwa": 2096,
      "Ġwas": 2097,
      "Ġkiko": 2098,
      "hakama": 2099,
      "200": 2100,
      "Ġmapinduzi": 2101,
      "isi": 2102,
      "Ġmipango": 2103,
      "Ġsafari": 2104,
      "Ġwaandishi": 2105,
      "Ġwadau": 2106,
      "Ġaskari": 2107,
      "Ġinaweza": 2108,
      "Ġmia": 2109,
      "ĠLi": 2110,
      "Ġngazi": 2111,
      "Ġjijini": 2112,
      "Ġvingine": 2113,
      "Ġkuwepo": 2114,
      "Kama": 2115,
      "Hi": 2116,
      "ĠBi": 2117,
      "jerumani": 2118,
      "skazini": 2119,
      "fia": 2120,
      "ongeza": 2121,
      "ee": 2122,
      "kezaji": 2123,
      "Ġh": 2124,
      "Ġvilivyo": 2125,
      "Ġdr": 2126,
      "kiliza": 2127,
      "lii": 2128,
      "Ġan": 2129,
      "Ġnzima": 2130,
      "Ġfro": 2131,
      "Ġchuo": 2132,
      "Ġwakuu": 2133,
      "Ġgu": 2134,
      "guliwa": 2135,
      "ngwe": 2136,
      "Ġtaratibu": 2137,
      "jita": 2138,
      "wasili": 2139,
      "eleke": 2140,
      "Ġbajeti": 2141,
      "Ġmawazo": 2142,
      "qu": 2143,
      "hakika": 2144,
      "Ġuzalishaji": 2145,
      "Ġiko": 2146,
      "Ġjuzi": 2147,
      "Ġkurudi": 2148,
      "ĠPolisi": 2149,
      "Ġmako": 2150,
      "swada": 2151,
      "Ġjuhudi": 2152,
      "er": 2153,
      "daiwa": 2154,
      "zama": 2155,
      "ĠWatanzania": 2156,
      "swali": 2157,
      "ms": 2158,
      "ktari": 2159,
      "ĠSh": 2160,
      "vile": 2161,
      "Ġkuboresha": 2162,
      "staa": 2163,
      "ĠMbunge": 2164,
      "shirika": 2165,
      "Ġmar": 2166,
      "pinga": 2167,
      "Mi": 2168,
      "Ġuni": 2169,
      "Ġmau": 2170,
      "chote": 2171,
      "Ġulinzi": 2172,
      "Ġwaza": 2173,
      "Ġshida": 2174,
      "Ġaliyekuwa": 2175,
      "Ġatta": 2176,
      "liza": 2177,
      "ban": 2178,
      "Ġviwanda": 2179,
      "jaribu": 2180,
      "Ġupo": 2181,
      "Ġafrica": 2182,
      "Ġkutafuta": 2183,
      "fisadi": 2184,
      "rekebi": 2185,
      "Ġit": 2186,
      "Ġthamani": 2187,
      "panga": 2188,
      "cu": 2189,
      "wanja": 2190,
      "mbiwa": 2191,
      "gharibi": 2192,
      "tha": 2193,
      "Ġl": 2194,
      "Ġmbona": 2195,
      "fanikio": 2196,
      "onal": 2197,
      "AT": 2198,
      "shwe": 2199,
      "Ġawamu": 2200,
      "muiya": 2201,
      "Ġndipo": 2202,
      "Ġumuhimu": 2203,
      "shahara": 2204,
      "chana": 2205,
      "ano": 2206,
      "Ġmahakamani": 2207,
      "shambu": 2208,
      "bati": 2209,
      "Ġmadarakani": 2210,
      "Ġtabia": 2211,
      "lendo": 2212,
      "hau": 2213,
      "hati": 2214,
      "tiba": 2215,
      "Ġmli": 2216,
      "hii": 2217,
      "Ġpre": 2218,
      "Ġmale": 2219,
      "kt": 2220,
      "shanga": 2221,
      "Ġulikuwa": 2222,
      "zungumzo": 2223,
      "Ġmaamuzi": 2224,
      "Ġkikao": 2225,
      "duni": 2226,
      "Ġnyo": 2227,
      "tuma": 2228,
      "fundi": 2229,
      "Ġvituo": 2230,
      "Ġkula": 2231,
      "Ġor": 2232,
      "al": 2233,
      "Ġhumo": 2234,
      "subu": 2235,
      "Ġmbegu": 2236,
      "Ġtuka": 2237,
      "Ġ9": 2238,
      "ombe": 2239,
      "simamo": 2240,
      "Ġlabda": 2241,
      "goma": 2242,
      "Ġimekuwa": 2243,
      "Ġhara": 2244,
      "Ġuku": 2245,
      "Ġshamba": 2246,
      "ĠWabunge": 2247,
      "Ġmapema": 2248,
      "Ġhas": 2249,
      "ther": 2250,
      "Ġhaina": 2251,
      "Ġmaua": 2252,
      "ed": 2253,
      "biwa": 2254,
      "pungufu": 2255,
      "uliwa": 2256,
      "rael": 2257,
      "funza": 2258,
      "Ġchochote": 2259,
      "Ġsijui": 2260,
      "tions": 2261,
      "changia": 2262,
      "ut": 2263,
      "Ġlenye": 2264,
      "Ġjuma": 2265,
      "Ġkuweza": 2266,
      "Ġfrom": 2267,
      "Ġmadini": 2268,
      "cy": 2269,
      "kumbuka": 2270,
      "Ġ199": 2271,
      "Ġkisheria": 2272,
      "chukuliwa": 2273,
      "kwisha": 2274,
      "Ġwor": 2275,
      "chment": 2276,
      "maduni": 2277,
      "Ġwaliokuwa": 2278,
      "loni": 2279,
      "hiri": 2280,
      "tangaza": 2281,
      "Ġletu": 2282,
      "hifadhi": 2283,
      "Ġmakundi": 2284,
      "Ġuchunguzi": 2285,
      "Ġwamekuwa": 2286,
      "subuhi": 2287,
      "rogoro": 2288,
      "usi": 2289,
      "lipa": 2290,
      "Ġmazuri": 2291,
      "peni": 2292,
      "Ġjaji": 2293,
      "Ġattachment": 2294,
      "hami": 2295,
      "Ġmanu": 2296,
      "Ġkuimarisha": 2297,
      "Ġushirikiano": 2298,
      "Ġkubadili": 2299,
      "thiri": 2300,
      "Ġsauti": 2301,
      "mber": 2302,
      "Ġmafanikio": 2303,
      "Ġwowote": 2304,
      "oo": 2305,
      "Ġmajukumu": 2306,
      "Ġkatibu": 2307,
      "rehemu": 2308,
      "gumu": 2309,
      "Ġyasi": 2310,
      "cheza": 2311,
      "Ġview": 2312,
      "Ġcom": 2313,
      "Ġvyu": 2314,
      "mpuni": 2315,
      "mbuli": 2316,
      "Ġdodoma": 2317,
      "sante": 2318,
      "simama": 2319,
      "tani": 2320,
      "kno": 2321,
      "tarajiwa": 2322,
      "Ġbarua": 2323,
      "Ġkitaifa": 2324,
      "sasa": 2325,
      "Ġmzi": 2326,
      "Ġkitabu": 2327,
      "Ġkanda": 2328,
      "Ġaliwa": 2329,
      "Ġmikopo": 2330,
      "Ġura": 2331,
      "husiana": 2332,
      "tafuta": 2333,
      "ĠCha": 2334,
      "mbuki": 2335,
      "fanyia": 2336,
      "ĠSu": 2337,
      "huo": 2338,
      "Ġtaa": 2339,
      "Ġkinyu": 2340,
      "Ġmajibu": 2341,
      "mko": 2342,
      "ripoti": 2343,
      "Ġkifo": 2344,
      "Ġmwili": 2345,
      "cal": 2346,
      "Ġneno": 2347,
      "ad": 2348,
      "sabu": 2349,
      "Ġmazungumzo": 2350,
      "ssu": 2351,
      "lalami": 2352,
      "bidi": 2353,
      "Ġmwanamke": 2354,
      "Ġmahitaji": 2355,
      "cto": 2356,
      "Ġkijiji": 2357,
      "lote": 2358,
      "kamatwa": 2359,
      "Vi": 2360,
      "mara": 2361,
      "Ġwakazi": 2362,
      "Ġange": 2363,
      "Ġuhakika": 2364,
      "Ġmichezo": 2365,
      "20": 2366,
      "Ġkusimamia": 2367,
      "Ġkali": 2368,
      "Ġvinavyo": 2369,
      "Ġuvu": 2370,
      "Ġmno": 2371,
      "au": 2372,
      "Ġingawa": 2373,
      "ĠBo": 2374,
      "Ġvime": 2375,
      "staafu": 2376,
      "ila": 2377,
      "ĠSo": 2378,
      "Ġhaija": 2379,
      "TA": 2380,
      "acha": 2381,
      "ĠRu": 2382,
      "liki": 2383,
      "Ġwanaweza": 2384,
      "Ġkiba": 2385,
      "hadi": 2386,
      "kofu": 2387,
      "Ġmbinu": 2388,
      "an": 2389,
      "kristo": 2390,
      "Ġab": 2391,
      "mbwa": 2392,
      "ĠUmoja": 2393,
      "nishwa": 2394,
      "Ġkuishi": 2395,
      "Ġkuanzisha": 2396,
      "jengwa": 2397,
      "kh": 2398,
      "Aidha": 2399,
      "Ġkushirikiana": 2400,
      "ĠJo": 2401,
      "Ġwith": 2402,
      "ĠKe": 2403,
      "mka": 2404,
      "Ġdamu": 2405,
      "Ġmasi": 2406,
      "onesha": 2407,
      "ĠMe": 2408,
      "ĠChama": 2409,
      "Ġnapenda": 2410,
      "Ġmchezo": 2411,
      "ral": 2412,
      "Ġsy": 2413,
      "ondoa": 2414,
      "nta": 2415,
      "ĠâĢľ": 2416,
      "fya": 2417,
      "ĠHalmashauri": 2418,
      "KI": 2419,
      "andika": 2420,
      "Ġwalipo": 2421,
      "Ġhalisi": 2422,
      "Ġuweze": 2423,
      "Ġmajina": 2424,
      "Ġasubuhi": 2425,
      "elele": 2426,
      "Ġac": 2427,
      "KA": 2428,
      "knolojia": 2429,
      "Aki": 2430,
      "hakiki": 2431,
      "tawala": 2432,
      "Ġmate": 2433,
      "Ġmawasi": 2434,
      "port": 2435,
      "sudi": 2436,
      "changa": 2437,
      "danga": 2438,
      "Ġkuhu": 2439,
      "Ġmiundo": 2440,
      "Ġvitendo": 2441,
      "eni": 2442,
      "Ġkwanini": 2443,
      "tta": 2444,
      "Ġkesho": 2445,
      "Ġmawasiliano": 2446,
      "Ġkuzuia": 2447,
      "heshima": 2448,
      "Ġkuti": 2449,
      "Ġlolote": 2450,
      "Ġrasimu": 2451,
      "chungu": 2452,
      "Ġvyote": 2453,
      "Ġmshi": 2454,
      "Ġkasi": 2455,
      "Ġsija": 2456,
      "Ġkinyume": 2457,
      "raha": 2458,
      "tional": 2459,
      "ĠBwana": 2460,
      "ongozwa": 2461,
      "Ġkushiriki": 2462,
      "Ġkuzingatia": 2463,
      "hawa": 2464,
      "Ġwazee": 2465,
      "husisha": 2466,
      "ndia": 2467,
      "Ġkushindwa": 2468,
      "bli": 2469,
      "Ġare": 2470,
      "Ġtuki": 2471,
      "Ġusafiri": 2472,
      "Ġushahidi": 2473,
      "Ġmaje": 2474,
      "Ġbenki": 2475,
      "Ġkupambana": 2476,
      "Ġkuunga": 2477,
      "Ġmja": 2478,
      "Ġukawa": 2479,
      "gia": 2480,
      "ĠKuu": 2481,
      "kulu": 2482,
      "Ġgazeti": 2483,
      "kondari": 2484,
      "Ġambako": 2485,
      "nis": 2486,
      "Ġataka": 2487,
      "Ġikiwemo": 2488,
      "mbinu": 2489,
      "Ġsulu": 2490,
      "Ġkuha": 2491,
      "for": 2492,
      "miaji": 2493,
      "zika": 2494,
      "taifa": 2495,
      "Ġheshima": 2496,
      "maye": 2497,
      "Ġalim": 2498,
      "Ġmpi": 2499,
      "hamed": 2500,
      "Ġujumla": 2501,
      "iti": 2502,
      "Ġkusaidia": 2503,
      "hoji": 2504,
      "Ġvisi": 2505,
      "Ġkaskazini": 2506,
      "Ġmaswali": 2507,
      "Ġwachache": 2508,
      "Ġakasema": 2509,
      "pigwa": 2510,
      "ĠKatibu": 2511,
      "Ġmakosa": 2512,
      "Ġmati": 2513,
      "Ġziki": 2514,
      "kubaliana": 2515,
      "Ġvijijini": 2516,
      "rou": 2517,
      "Ġtusi": 2518,
      "mina": 2519,
      "hindi": 2520,
      "mbelea": 2521,
      "ĠYA": 2522,
      "tambua": 2523,
      "Ġkukabi": 2524,
      "Ġhakika": 2525,
      "humiwa": 2526,
      "Ġmakini": 2527,
      "piti": 2528,
      "panda": 2529,
      "suku": 2530,
      "Ġmigo": 2531,
      "Ġmti": 2532,
      "Ġmisa": 2533,
      "epu": 2534,
      "Ġhawaku": 2535,
      "zalisha": 2536,
      "Ġkumbu": 2537,
      "Ġham": 2538,
      "semba": 2539,
      "ĠWana": 2540,
      "elezea": 2541,
      "jumu": 2542,
      "Ġmashirika": 2543,
      "Se": 2544,
      "toe": 2545,
      "pendekezo": 2546,
      "il": 2547,
      "Ġwajibu": 2548,
      "ndikwa": 2549,
      "ĠSheria": 2550,
      "ĠDo": 2551,
      "Ġkuondoa": 2552,
      "Ġkununua": 2553,
      "Ġutendaji": 2554,
      "pelekwa": 2555,
      "Ġtani": 2556,
      "Ġwanasema": 2557,
      "Ġrahisi": 2558,
      "ĠNA": 2559,
      "serikali": 2560,
      "Ġkusoma": 2561,
      "Ġmauaji": 2562,
      "Ġtuu": 2563,
      "sisitiza": 2564,
      "Ġmade": 2565,
      "kimu": 2566,
      "Ġakina": 2567,
      "Ġmacha": 2568,
      "Ġuwekezaji": 2569,
      "shughulikia": 2570,
      "jitokeza": 2571,
      "ima": 2572,
      "Ġmasharti": 2573,
      "les": 2574,
      "Ġnaona": 2575,
      "rini": 2576,
      "pendekeza": 2577,
      "ph": 2578,
      "Ġmbowe": 2579,
      "tajwa": 2580,
      "fanyiwa": 2581,
      "ransa": 2582,
      "Ġkosa": 2583,
      "Ġwapiga": 2584,
      "red": 2585,
      "toaji": 2586,
      "Ġmbu": 2587,
      "laa": 2588,
      "Ġeti": 2589,
      "ĠMasha": 2590,
      "Ġkijamii": 2591,
      "Ġmaafisa": 2592,
      "tro": 2593,
      "Ġbahari": 2594,
      "ĠMahakama": 2595,
      "Ġmsimamo": 2596,
      "kakati": 2597,
      "Ġnadhani": 2598,
      "Ġ11": 2599,
      "Ġyenu": 2600,
      "ĠFe": 2601,
      "Ġmifugo": 2602,
      "kano": 2603,
      "Ġmvua": 2604,
      "ĠYe": 2605,
      "Ġvu": 2606,
      "anda": 2607,
      "funga": 2608,
      "tive": 2609,
      "lenga": 2610,
      "Ġhawaja": 2611,
      "Ġwadogo": 2612,
      "ĠIs": 2613,
      "lai": 2614,
      "Ġzangu": 2615,
      "Ġsiri": 2616,
      "Ġmikono": 2617,
      "Ġusimamizi": 2618,
      "Ġziara": 2619,
      "ste": 2620,
      "Ġurais": 2621,
      "ton": 2622,
      "tanga": 2623,
      "furahi": 2624,
      "giza": 2625,
      "Ġmakuba": 2626,
      "dio": 2627,
      "ĠLu": 2628,
      "Ġkisi": 2629,
      "Ġkulingana": 2630,
      "Ġpembe": 2631,
      "Ġcou": 2632,
      "Ġchanzo": 2633,
      "Si": 2634,
      "Ġkimya": 2635,
      "pumba": 2636,
      "Ġng": 2637,
      "Ġnew": 2638,
      "Ġkuendeleza": 2639,
      "ĠMA": 2640,
      "Ġkuandika": 2641,
      "sali": 2642,
      "katifu": 2643,
      "Ġkume": 2644,
      "mar": 2645,
      "Ġmakubaliano": 2646,
      "nji": 2647,
      "ĠCo": 2648,
      "Ġmikataba": 2649,
      "Ġshaka": 2650,
      "Ġlako": 2651,
      "Ġmiwili": 2652,
      "Ġmikutano": 2653,
      "pelekea": 2654,
      "pili": 2655,
      "pungua": 2656,
      "Tuna": 2657,
      "ĠIra": 2658,
      "alam": 2659,
      "niki": 2660,
      "rejea": 2661,
      "Ġmala": 2662,
      "Ġmingi": 2663,
      "raeli": 2664,
      "mwengu": 2665,
      "Ġliki": 2666,
      "wishi": 2667,
      "Ġnot": 2668,
      "min": 2669,
      "Ġawe": 2670,
      "Ġnusu": 2671,
      "rekebisho": 2672,
      "Ġninge": 2673,
      "labu": 2674,
      "Ġukaguzi": 2675,
      "mheshimiwa": 2676,
      "Ġmawili": 2677,
      "Ġmfalme": 2678,
      "Ġujumbe": 2679,
      "zwe": 2680,
      "stahili": 2681,
      "Ġmashamba": 2682,
      "Ġkupewa": 2683,
      "Ġyaki": 2684,
      "Ġmarehemu": 2685,
      "Ġcu": 2686,
      "nes": 2687,
      "tuna": 2688,
      "Ġkusaba": 2689,
      "baada": 2690,
      "Ġpla": 2691,
      "Ġthis": 2692,
      "nekana": 2693,
      "Ġkumbe": 2694,
      "Ġmalipo": 2695,
      "Ġmalengo": 2696,
      "Ġkuuza": 2697,
      "Ġniki": 2698,
      "Ġvingi": 2699,
      "Ġlissu": 2700,
      "Ġth": 2701,
      "Ġmapendekezo": 2702,
      "Ġkampeni": 2703,
      "guu": 2704,
      "ĠHo": 2705,
      "kose": 2706,
      "Ġiwapo": 2707,
      "Ġwafanyabiashara": 2708,
      "skini": 2709,
      "Ġwanasiasa": 2710,
      "Ġwaweze": 2711,
      "Ġlile": 2712,
      "some": 2713,
      "shuhu": 2714,
      "Wana": 2715,
      "Ġkutengeneza": 2716,
      "ndano": 2717,
      "Ġ15": 2718,
      "Ġkutokea": 2719,
      "Ġitakayo": 2720,
      "Ġbaina": 2721,
      "Ġmaarufu": 2722,
      "Ġkisasa": 2723,
      "dhalika": 2724,
      "hitajika": 2725,
      "Ġ12": 2726,
      "Ġulaya": 2727,
      "rioba": 2728,
      "Ġwazazi": 2729,
      "Ġzisi": 2730,
      "liaji": 2731,
      "ĠKo": 2732,
      "Ġkulipa": 2733,
      "Ġkwetu": 2734,
      "ame": 2735,
      "stina": 2736,
      "Ġkijana": 2737,
      "Ġutoaji": 2738,
      "Ġad": 2739,
      "od": 2740,
      "Ġrasili": 2741,
      "Ġukiwa": 2742,
      "ĠKenya": 2743,
      "Ġhela": 2744,
      "Ġmawaziri": 2745,
      "Ġdemokrasia": 2746,
      "lfu": 2747,
      "Ġsama": 2748,
      "Wakati": 2749,
      "Ġmaalumu": 2750,
      "Ġsafi": 2751,
      "Ġsho": 2752,
      "mwambia": 2753,
      "Ġpri": 2754,
      "sahau": 2755,
      "Ġwanataka": 2756,
      "binafsi": 2757,
      "Ġmtandao": 2758,
      "mbano": 2759,
      "Ġkikwete": 2760,
      "Ġajabu": 2761,
      "Ġupya": 2762,
      "ĠDe": 2763,
      "Ġwanapo": 2764,
      "Ġai": 2765,
      "Ġwau": 2766,
      "ĠMuungano": 2767,
      "Ġmchango": 2768,
      "fuatilia": 2769,
      "Ġwachezaji": 2770,
      "Ġisiyo": 2771,
      "Ġkuangalia": 2772,
      "Ġmechi": 2773,
      "Ġkuwapa": 2774,
      "den": 2775,
      "Ġtra": 2776,
      "tra": 2777,
      "Ġhumu": 2778,
      "kelezwa": 2779,
      "fano": 2780,
      "wekezaji": 2781,
      "yansi": 2782,
      "ĠNi": 2783,
      "ondoka": 2784,
      "Ġlicha": 2785,
      "beba": 2786,
      "Ġsura": 2787,
      "uawa": 2788,
      "ĠMashariki": 2789,
      "der": 2790,
      "ster": 2791,
      "Ġwanyama": 2792,
      "bila": 2793,
      "tumishi": 2794,
      "Ġkimoja": 2795,
      "leo": 2796,
      "Bw": 2797,
      "Ġuga": 2798,
      "Ġkikuu": 2799,
      "Ġwatatu": 2800,
      "Ġ...": 2801,
      "Ġkusababisha": 2802,
      "Ġrasilimali": 2803,
      "wakati": 2804,
      "Ġkupo": 2805,
      "fesa": 2806,
      "Ġmicha": 2807,
      "llah": 2808,
      "HI": 2809,
      "siano": 2810,
      "fanisi": 2811,
      "rne": 2812,
      "Ġmabo": 2813,
      "Ġteknolojia": 2814,
      "Ġkifungu": 2815,
      "wahili": 2816,
      "Ġkijeshi": 2817,
      "Ġnjaa": 2818,
      "................................": 2819,
      "maini": 2820,
      "Ġkulinda": 2821,
      "ĠDk": 2822,
      "Ġuganda": 2823,
      "Ġtz": 2824,
      "aidha": 2825,
      "lam": 2826,
      "Ġmagharibi": 2827,
      "ĠMaka": 2828,
      "nte": 2829,
      "Ġhuenda": 2830,
      "paa": 2831,
      "lisha": 2832,
      "ngele": 2833,
      "Ġkujibu": 2834,
      "Ġwenzake": 2835,
      "Ġjirani": 2836,
      "Ġvyema": 2837,
      "Ġmagonjwa": 2838,
      "Ġbahati": 2839,
      "hivyo": 2840,
      "Ġjukumu": 2841,
      "ikh": 2842,
      "Ġinavyo": 2843,
      "Ġkufuata": 2844,
      "Ġkuchangia": 2845,
      "Ġuhusiano": 2846,
      "hamasi": 2847,
      "Ġrisasi": 2848,
      "Ġmfuko": 2849,
      "Ġkuingi": 2850,
      "Ġmiundombinu": 2851,
      "Ġmachi": 2852,
      "Ġdp": 2853,
      "land": 2854,
      "thibitisha": 2855,
      "Ġwange": 2856,
      "ifu": 2857,
      "19": 2858,
      "RA": 2859,
      "Ġkambi": 2860,
      "tumiwa": 2861,
      "ĠKatiba": 2862,
      "sse": 2863,
      "Ġzako": 2864,
      "Ġkukaa": 2865,
      "jibika": 2866,
      "Ġmwandishi": 2867,
      "Ġtakri": 2868,
      "Pia": 2869,
      "thmini": 2870,
      "jeruhi": 2871,
      "Ġmarekebisho": 2872,
      "tetea": 2873,
      "Ġajali": 2874,
      "Ġmatukio": 2875,
      "Ġmizi": 2876,
      "Ġufanisi": 2877,
      "Ġakawa": 2878,
      "pte": 2879,
      "stani": 2880,
      "choki": 2881,
      "Ġvibaya": 2882,
      "tangu": 2883,
      "day": 2884,
      "gizo": 2885,
      "nufa": 2886,
      "somi": 2887,
      "hana": 2888,
      "Ġjf": 2889,
      "EN": 2890,
      "Ġkuomba": 2891,
      "dan": 2892,
      "Ġmzima": 2893,
      "Ġkukamili": 2894,
      "Ġmakuu": 2895,
      "ght": 2896,
      "Ġwhi": 2897,
      "lipwa": 2898,
      "Ġmage": 2899,
      "Ġmaadili": 2900,
      "iri": 2901,
      "Ġujinga": 2902,
      "chagua": 2903,
      "Ġkukosa": 2904,
      "Ġbure": 2905,
      "Ġsalama": 2906,
      "Je": 2907,
      "Ġyuko": 2908,
      "ĠKusini": 2909,
      "mes": 2910,
      "ccm": 2911,
      "fikiria": 2912,
      "Ġroho": 2913,
      "Ġalio": 2914,
      "ĠPe": 2915,
      "Ġmgombea": 2916,
      "Ġyupo": 2917,
      "ZIRI": 2918,
      "nder": 2919,
      "Ġushindi": 2920,
      "Ġarusha": 2921,
      "nganisha": 2922,
      "fariki": 2923,
      "IS": 2924,
      "mishwa": 2925,
      "Ġmana": 2926,
      "watu": 2927,
      "lifu": 2928,
      "Ġhusu": 2929,
      "hanga": 2930,
      "gundua": 2931,
      "nuari": 2932,
      "pro": 2933,
      "Ġngumu": 2934,
      "faka": 2935,
      "Ġyasiyo": 2936,
      "Ġper": 2937,
      "Ġpole": 2938,
      "kezo": 2939,
      "luma": 2940,
      "mma": 2941,
      "kto": 2942,
      "Ġmme": 2943,
      "Ġwashi": 2944,
      "jadili": 2945,
      "Ġkichwa": 2946,
      "shangaa": 2947,
      "Ġmatibabu": 2948,
      "Ġvijiji": 2949,
      "ture": 2950,
      "wazi": 2951,
      "Ġuingereza": 2952,
      "arabu": 2953,
      "kufu": 2954,
      "biria": 2955,
      "Ġmiji": 2956,
      "elezwa": 2957,
      "Ġyenyewe": 2958,
      "Ġmitaa": 2959,
      "ngezeko": 2960,
      "ngaji": 2961,
      "Ġkiti": 2962,
      "Ġkuelekea": 2963,
      "Ġmiti": 2964,
      "haha": 2965,
      "Ġmaandamano": 2966,
      "tes": 2967,
      "chimba": 2968,
      "Ġmw": 2969,
      "wapa": 2970,
      "uzwa": 2971,
      "Ġlilikuwa": 2972,
      "ĠPro": 2973,
      "BU": 2974,
      "Ġulimwengu": 2975,
      "Ġkara": 2976,
      "Ġuwezekano": 2977,
      "Ġwaliyo": 2978,
      "Ġwanajeshi": 2979,
      "lewe": 2980,
      "Ġwarioba": 2981,
      "Ġpande": 2982,
      "Ġwenu": 2983,
      "Ġwalivyo": 2984,
      "Ġatakuwa": 2985,
      "mbazi": 2986,
      "lili": 2987,
      "chia": 2988,
      "shuhudia": 2989,
      "ting": 2990,
      "Ġviwango": 2991,
      "Ġkamili": 2992,
      "Ġnaku": 2993,
      "ĠBaraza": 2994,
      "Ġumaskini": 2995,
      "Ġkulikuwa": 2996,
      "mbulizi": 2997,
      "Ġwapinzani": 2998,
      "amba": 2999,
      "tihada": 3000,
      "Ġsuluhu": 3001,
      "rodha": 3002,
      "mwagi": 3003,
      "waziri": 3004,
      "rabati": 3005,
      "mbie": 3006,
      "ĠTume": 3007,
      "choche": 3008,
      "Ġhawezi": 3009,
      "Ġwakubwa": 3010,
      "bai": 3011,
      "ĠMaendeleo": 3012,
      "ES": 3013,
      "Ġworld": 3014,
      "use": 3015,
      "Ġkuwasili": 3016,
      "kali": 3017,
      "zingatia": 3018,
      "Ġvo": 3019,
      "ringa": 3020,
      "Ġkifu": 3021,
      "muni": 3022,
      "Ġkuendesha": 3023,
      "dui": 3024,
      "Ġaibu": 3025,
      "Ġadha": 3026,
      "risto": 3027,
      "Ġkitendo": 3028,
      "ĠAli": 3029,
      "âĢ¦": 3030,
      "ction": 3031,
      "Ġkufanyika": 3032,
      "MHE": 3033,
      "mio": 3034,
      "Ġfeb": 3035,
      "furi": 3036,
      "Ġviti": 3037,
      "hiyo": 3038,
      "Ġzingine": 3039,
      "ĠTu": 3040,
      "Ġamri": 3041,
      "Ġwingi": 3042,
      "ongezeka": 3043,
      "Ġkudhibiti": 3044,
      "Ġmh": 3045,
      "gopa": 3046,
      "Ġlini": 3047,
      "Ġnai": 3048,
      "Tu": 3049,
      "zoefu": 3050,
      "Ġhasara": 3051,
      "wakilishi": 3052,
      "Ġnam": 3053,
      "Ġpoli": 3054,
      "Ġkufuatia": 3055,
      "Ġjumata": 3056,
      "dhuria": 3057,
      "Baada": 3058,
      "Ġnilikuwa": 3059,
      "nzetu": 3060,
      "ĠRe": 3061,
      "Ġkudai": 3062,
      "Ġuongo": 3063,
      "Ġubora": 3064,
      "vya": 3065,
      "tosha": 3066,
      "sababu": 3067,
      "Ġkufika": 3068,
      "Ana": 3069,
      "Ġvitabu": 3070,
      "ĠUjerumani": 3071,
      "pitia": 3072,
      "nunu": 3073,
      "Ġmitatu": 3074,
      "Ġyalikuwa": 3075,
      "Ġnane": 3076,
      "Ġnisha": 3077,
      "Ġinge": 3078,
      "Ġidara": 3079,
      "Ġmfupi": 3080,
      "tende": 3081,
      "fana": 3082,
      "twara": 3083,
      "Ġwanaume": 3084,
      "Ġpengine": 3085,
      "semaji": 3086,
      "Ġmishahara": 3087,
      "fuko": 3088,
      "siri": 3089,
      "ruhusi": 3090,
      "ungu": 3091,
      "Ġacha": 3092,
      "sara": 3093,
      "Ġwagonjwa": 3094,
      "ple": 3095,
      "Ġmua": 3096,
      "10": 3097,
      "it": 3098,
      "shika": 3099,
      "kodi": 3100,
      "DE": 3101,
      "Ġ2004": 3102,
      "Ġupatikana": 3103,
      "Ġjumuiya": 3104,
      "Ġutakuwa": 3105,
      "um": 3106,
      "swahili": 3107,
      "zaa": 3108,
      "zalendo": 3109,
      "lalamika": 3110,
      "Ġwatakao": 3111,
      "Ġmasomo": 3112,
      "Ġchina": 3113,
      "Ġvyuo": 3114,
      "ast": 3115,
      "kwimu": 3116,
      "bishwa": 3117,
      "Ġjapo": 3118,
      "Ġjohn": 3119,
      "Ġifuata": 3120,
      "Ġmwenza": 3121,
      "saidizi": 3122,
      "Ġmakazi": 3123,
      "Ġusio": 3124,
      "Ġjioni": 3125,
      "Ġkupanda": 3126,
      "Ġathari": 3127,
      "wn": 3128,
      "Ġmitano": 3129,
      "zunguka": 3130,
      "ĠKis": 3131,
      "KU": 3132,
      "Ġjitihada": 3133,
      "tk": 3134,
      "Ġilipo": 3135,
      "Ġupatikanaji": 3136,
      "ĠChuo": 3137,
      "Ġishi": 3138,
      "Ġwawe": 3139,
      "fla": 3140,
      "zui": 3141,
      "Ġwanayo": 3142,
      "Ġmajengo": 3143,
      "tume": 3144,
      "huma": 3145,
      "Ġhassan": 3146,
      "Ġmisaada": 3147,
      "rume": 3148,
      "Ġtru": 3149,
      "per": 3150,
      "Ġdakika": 3151,
      "kusanya": 3152,
      "ĠElimu": 3153,
      "Ġwizi": 3154,
      "Ġndoa": 3155,
      "Ġdhamana": 3156,
      "Ġjengo": 3157,
      "Ġhewa": 3158,
      "Ġzilikuwa": 3159,
      "ĠWaheshimiwa": 3160,
      "maani": 3161,
      "ĠDa": 3162,
      "kraine": 3163,
      "tarajia": 3164,
      "aji": 3165,
      "liwe": 3166,
      "Ġhave": 3167,
      "Ġkm": 3168,
      "chaguliwa": 3169,
      "Ġkipe": 3170,
      "Ġsto": 3171,
      "Ġall": 3172,
      "Ġkujadili": 3173,
      "Ġuo": 3174,
      "Ġmto": 3175,
      "fuu": 3176,
      "njo": 3177,
      "mbizi": 3178,
      "Ġhuwezi": 3179,
      "ishia": 3180,
      "âĢĻ": 3181,
      "nunuzi": 3182,
      "rabu": 3183,
      "Ġrangi": 3184,
      "Ġkupinga": 3185,
      "Ġmga": 3186,
      "Hu": 3187,
      "ĠIraq": 3188,
      "kila": 3189,
      "Ġlangu": 3190,
      "Ġkuandaa": 3191,
      "lazimika": 3192,
      "rili": 3193,
      "Ġwataalamu": 3194,
      "tho": 3195,
      "unda": 3196,
      "geria": 3197,
      "gezo": 3198,
      "Ġmbolea": 3199,
      "zimio": 3200,
      "dri": 3201,
      "Ġmasa": 3202,
      "lalamiko": 3203,
      "Ġhofu": 3204,
      "Ġtanu": 3205,
      "Ġktk": 3206,
      "Ġviwanja": 3207,
      "Ġkutumika": 3208,
      "Ġmisingi": 3209,
      "Ġkumbukumbu": 3210,
      "Ġmakao": 3211,
      "safiri": 3212,
      "kamata": 3213,
      "Ġhavi": 3214,
      "linda": 3215,
      "lezi": 3216,
      "letea": 3217,
      "fsiri": 3218,
      "rema": 3219,
      "waambia": 3220,
      "saidie": 3221,
      "Ġklabu": 3222,
      "Ġchombo": 3223,
      "gramu": 3224,
      "Ġsimba": 3225,
      "Ġhis": 3226,
      "Ġiliyopo": 3227,
      "Ġkumwa": 3228,
      "lianza": 3229,
      "Ġkero": 3230,
      "lim": 3231,
      "samba": 3232,
      "kala": 3233,
      "ĠShirika": 3234,
      "ĠTe": 3235,
      "Ġmsimu": 3236,
      "Ġmgogoro": 3237,
      "sikiti": 3238,
      "falme": 3239,
      "Ġviko": 3240,
      "Ġuende": 3241,
      "Ġwanavyo": 3242,
      "\".": 3243,
      "ĠJuma": 3244,
      "Ġmikakati": 3245,
      "Ġkuacha": 3246,
      "hat": 3247,
      "Ġus": 3248,
      "Ġhifadhi": 3249,
      "ĠRo": 3250,
      "Ġkote": 3251,
      "Ġvipa": 3252,
      "ssia": 3253,
      "Ġhalali": 3254,
      "lli": 3255,
      "toliki": 3256,
      "fuku": 3257,
      "ĠMataifa": 3258,
      "tendaji": 3259,
      "Ġ14": 3260,
      "Ġsekondari": 3261,
      "sikiliza": 3262,
      "Ġmifumo": 3263,
      "gwe": 3264,
      "dy": 3265,
      "Ġwageni": 3266,
      "Ġmchana": 3267,
      "Ġhaita": 3268,
      "ktoba": 3269,
      "Ġnk": 3270,
      "Ġbodi": 3271,
      "Ġtisa": 3272,
      "Ġhazina": 3273,
      "Ġpm": 3274,
      "Ġsifuri": 3275,
      "Ġmalalamiko": 3276,
      "njaro": 3277,
      "Ġ13": 3278,
      "Ġmbeya": 3279,
      "lali": 3280,
      "Ġwasiwasi": 3281,
      "ongea": 3282,
      "Ġutamaduni": 3283,
      "as": 3284,
      "ndiki": 3285,
      "Ġ30": 3286,
      "Ġhatimaye": 3287,
      "dani": 3288,
      "Ġwawekezaji": 3289,
      "fara": 3290,
      "Ġanapo": 3291,
      "heshimu": 3292,
      "Ġkuhusiana": 3293,
      "Ġkelele": 3294,
      "ls": 3295,
      "Ġup": 3296,
      "ding": 3297,
      "Ġsamaki": 3298,
      "ĠJeshi": 3299,
      "zamo": 3300,
      "fikisha": 3301,
      "nispaa": 3302,
      "Ġvyao": 3303,
      "Ġsoka": 3304,
      "ndapo": 3305,
      "thirika": 3306,
      "ĠGe": 3307,
      "ĠChi": 3308,
      "Ġufisadi": 3309,
      "Ġongezeko": 3310,
      "Ġtuhuma": 3311,
      "tic": 3312,
      "ziki": 3313,
      "Ġkukabiliana": 3314,
      "katiba": 3315,
      "nganyika": 3316,
      "ĠOfisi": 3317,
      "Ġnishati": 3318,
      "Ġmuundo": 3319,
      "Ġmanufaa": 3320,
      "pm": 3321,
      "Ġmakamu": 3322,
      "Ġone": 3323,
      "Ġmkurugenzi": 3324,
      "Ġmjadala": 3325,
      "vaa": 3326,
      "ficha": 3327,
      "fau": 3328,
      "Ġzisizo": 3329,
      "leke": 3330,
      "ĠMka": 3331,
      "fungwa": 3332,
      "Ġmadawa": 3333,
      "Ġwatendaji": 3334,
      "reva": 3335,
      "Ġmwanza": 3336,
      "Ġukraine": 3337,
      "Ġnyama": 3338,
      "Ġlao": 3339,
      "nyiko": 3340,
      "ĠBen": 3341,
      "ongozo": 3342,
      "tt": 3343,
      "jue": 3344,
      "islam": 3345,
      "Ġmaya": 3346,
      "sed": 3347,
      "Ġikulu": 3348,
      "shuka": 3349,
      "Ġwanam": 3350,
      "leza": 3351,
      "my": 3352,
      "Ġmahindi": 3353,
      "fafa": 3354,
      "Ġ2005": 3355,
      "andaa": 3356,
      "Ġkudumu": 3357,
      "NA": 3358,
      "tekeleza": 3359,
      "enye": 3360,
      "tolea": 3361,
      "Ġmaombi": 3362,
      "nyanga": 3363,
      "Ġkushinda": 3364,
      "Ġmnamo": 3365,
      "mas": 3366,
      "fuatayo": 3367,
      "Ġhaiku": 3368,
      "Ġwateja": 3369,
      "stawi": 3370,
      "Ġmay": 3371,
      "Ġendele": 3372,
      "Ġvia": 3373,
      "Ġzipo": 3374,
      "Pa": 3375,
      "stan": 3376,
      "ĠLa": 3377,
      "Ġsina": 3378,
      "Ġifuatavyo": 3379,
      "angalia": 3380,
      "Ġalipokuwa": 3381,
      "wekeza": 3382,
      "Ġvikao": 3383,
      "Ġwilayani": 3384,
      "Ġibara": 3385,
      "Ġmadhara": 3386,
      "Ġmatumaini": 3387,
      "Ġwape": 3388,
      "hamasisha": 3389,
      "Ġahadi": 3390,
      "Ġspe": 3391,
      "Ġakisema": 3392,
      "SA": 3393,
      "Ġwaha": 3394,
      "CO": 3395,
      "Ra": 3396,
      "ĠSimba": 3397,
      "tihani": 3398,
      "Ġvifo": 3399,
      "dul": 3400,
      "Ġkuvi": 3401,
      "Ġinter": 3402,
      "ds": 3403,
      "Ġwaja": 3404,
      "Ġkite": 3405,
      "ris": 3406,
      "ul": 3407,
      "Ġope": 3408,
      "vemba": 3409,
      "mvi": 3410,
      "Ġkigeni": 3411,
      "pp": 3412,
      "UF": 3413,
      "ĠKama": 3414,
      "Ġkuonyesha": 3415,
      "gera": 3416,
      "dudu": 3417,
      "Ġah": 3418,
      "Ġhakuwa": 3419,
      "Ġchache": 3420,
      "anzisha": 3421,
      "mavu": 3422,
      "tafu": 3423,
      "buri": 3424,
      "Ġamekuwa": 3425,
      "deo": 3426,
      "Ġwatakuwa": 3427,
      "mwo": 3428,
      "Ġija": 3429,
      "hiti": 3430,
      "ĠKiswahili": 3431,
      "Ġjibu": 3432,
      "Ġkadhalika": 3433,
      "âĢ¦âĢ¦": 3434,
      "Ġtamaa": 3435,
      "vunja": 3436,
      "rundi": 3437,
      "âĢī": 3438,
      "Ġwho": 3439,
      "ambiwa": 3440,
      "Ġkumaliza": 3441,
      "pangwa": 3442,
      "chunguza": 3443,
      "Ġkuondoka": 3444,
      "Ġgesi": 3445,
      "Ġrafiki": 3446,
      "lafu": 3447,
      "Ġenzi": 3448,
      "Ġadhabu": 3449,
      "twe": 3450,
      "kamilika": 3451,
      "Ġmasoko": 3452,
      "ĠDodoma": 3453,
      "________________": 3454,
      "ĠUlaya": 3455,
      "Ġkikosi": 3456,
      "Ġkuche": 3457,
      "maanisha": 3458,
      "âĢ¢": 3459,
      "Ġmla": 3460,
      "Ġmashindano": 3461,
      "onge": 3462,
      "shambulia": 3463,
      "tembelea": 3464,
      "amhuri": 3465,
      "Ġmabi": 3466,
      "waka": 3467,
      "Ġnataka": 3468,
      "tengene": 3469,
      "mbani": 3470,
      "Ġhatuna": 3471,
      "zuku": 3472,
      "Ġyesu": 3473,
      "Ġunge": 3474,
      "Ġ18": 3475,
      "Ġiliyokuwa": 3476,
      "ingiza": 3477,
      "tter": 3478,
      "bani": 3479,
      "rasi": 3480,
      "Ġada": 3481,
      "Mimi": 3482,
      "Ġnawa": 3483,
      "Ġkadi": 3484,
      "teuliwa": 3485,
      "Ġkuunda": 3486,
      "Ġmy": 3487,
      "Ġendapo": 3488,
      "malizika": 3489,
      "mwagiliaji": 3490,
      "Ġkupokea": 3491,
      "Ġwenzetu": 3492,
      "Ġuzoefu": 3493,
      "Ġmashu": 3494,
      "kiri": 3495,
      "dumia": 3496,
      "Ġzoezi": 3497,
      "Ġkusha": 3498,
      "ĠLe": 3499,
      "liona": 3500,
      "ndisha": 3501,
      "Ġishirini": 3502,
      "plo": 3503,
      "Ġangalau": 3504,
      "Ġun": 3505,
      "Ġmzigo": 3506,
      "Ġpasi": 3507,
      "Ġunapo": 3508,
      "Ġkutambua": 3509,
      "ĠJamhuri": 3510,
      "ĠJimbo": 3511,
      "Ġatakaye": 3512,
      "Ġkukusa": 3513,
      "kabidhi": 3514,
      "ven": 3515,
      "llo": 3516,
      "pango": 3517,
      "Ġtija": 3518,
      "Ġkikundi": 3519,
      "Ġnjema": 3520,
      "rk": 3521,
      "Ġkira": 3522,
      "Ġwill": 3523,
      "mzi": 3524,
      "Ġupungufu": 3525,
      "view": 3526,
      "Ġdhambi": 3527,
      "ĠArusha": 3528,
      "ĠMHE": 3529,
      "Ġmatunda": 3530,
      "MW": 3531,
      "ĠFedha": 3532,
      "mita": 3533,
      "seph": 3534,
      "Ġabiria": 3535,
      "zungumzwa": 3536,
      "maji": 3537,
      "Ġtakwimu": 3538,
      "Ġmwishoni": 3539,
      "ulize": 3540,
      "Ġyafuatayo": 3541,
      "ptemba": 3542,
      "kes": 3543,
      "Ġisipokuwa": 3544,
      "Ġrussia": 3545,
      "misho": 3546,
      "Ġkatikati": 3547,
      "ndiko": 3548,
      "Ġdc": 3549,
      "ces": 3550,
      "Ġkuzalisha": 3551,
      "Ġamewa": 3552,
      "kabili": 3553,
      "ongeze": 3554,
      "ration": 3555,
      "nsia": 3556,
      "Ġkuba": 3557,
      "Ġmiguu": 3558,
      "Ġhapana": 3559,
      "ĠMbe": 3560,
      "LA": 3561,
      "Ġkwako": 3562,
      "tengeneza": 3563,
      "ĠShu": 3564,
      "cial": 3565,
      "Ġdaraja": 3566,
      "Serikali": 3567,
      "):": 3568,
      "Ġst": 3569,
      "Ġharakati": 3570,
      "imu": 3571,
      "bert": 3572,
      "undwa": 3573,
      "Ġmajeshi": 3574,
      "Ġdalili": 3575,
      "Ġkupeleka": 3576,
      "Ġnyie": 3577,
      "Ġasiye": 3578,
      "chaguzi": 3579,
      "Ġ25": 3580,
      "mwaka": 3581,
      "Ġkuongoza": 3582,
      "Ġmajimbo": 3583,
      "Ġanayo": 3584,
      "elekeza": 3585,
      "Ġuteuzi": 3586,
      "Ġukumbi": 3587,
      "Ġanataka": 3588,
      "Ġbaadae": 3589,
      "habu": 3590,
      "teli": 3591,
      "uta": 3592,
      "Ġhuja": 3593,
      "aki": 3594,
      "Ġhasi": 3595,
      "Ġhesabu": 3596,
      "ĠBenki": 3597,
      "Ġmaziwa": 3598,
      "Ġmil": 3599,
      "ser": 3600,
      "Ġhawata": 3601,
      "Ġmaskini": 3602,
      "Ġnami": 3603,
      "Ġkarne": 3604,
      "pati": 3605,
      "Ġnaibu": 3606,
      "TI": 3607,
      "Ġimara": 3608,
      "jumuisha": 3609,
      "kwazo": 3610,
      "hivi": 3611,
      "biki": 3612,
      "shtaka": 3613,
      "tumie": 3614,
      "rage": 3615,
      "Ġnguo": 3616,
      "Ġusajili": 3617,
      "naji": 3618,
      "lf": 3619,
      "ĠHu": 3620,
      "Ġmkakati": 3621,
      "ps": 3622,
      "Ġndivyo": 3623,
      "ahidi": 3624,
      "gosti": 3625,
      "Ġwanafanya": 3626,
      "Ġposho": 3627,
      "rwa": 3628,
      "sukuma": 3629,
      "tto": 3630,
      "sefu": 3631,
      "Ġmipaka": 3632,
      "Ġkabila": 3633,
      "Ġniaba": 3634,
      "husiano": 3635,
      "Ġjiji": 3636,
      "dhe": 3637,
      "pigano": 3638,
      "rura": 3639,
      "Ġmchanga": 3640,
      "ĠZi": 3641,
      "Ġmfanya": 3642,
      "Ġruzuku": 3643,
      "Ġmwingi": 3644,
      "Ġ16": 3645,
      "Ġkujiunga": 3646,
      "Ġpwani": 3647,
      "jali": 3648,
      "Ġkulia": 3649,
      "Ġkukubali": 3650,
      "Ġmigogoro": 3651,
      "Ġq": 3652,
      "Ġmingine": 3653,
      "pendekezwa": 3654,
      "upe": 3655,
      "Ġmakampuni": 3656,
      "Ġkiwanda": 3657,
      "tenga": 3658,
      "mpo": 3659,
      "ruki": 3660,
      "Ġmume": 3661,
      "himili": 3662,
      "mtu": 3663,
      "Ġkupoteza": 3664,
      "Ġwafuasi": 3665,
      "Ġva": 3666,
      "Ġalitoa": 3667,
      "Ġhukumu": 3668,
      "umbele": 3669,
      "keti": 3670,
      "Ġziwa": 3671,
      "ĠWAZIRI": 3672,
      "ruari": 3673,
      "Ġmeli": 3674,
      "Ġvema": 3675,
      "Ġkuwasaidia": 3676,
      "Ġkukuza": 3677,
      "side": 3678,
      "ĠYesu": 3679,
      "Ġbibi": 3680,
      "NG": 3681,
      "rekebisha": 3682,
      "shiki": 3683,
      "ĠBe": 3684,
      "Ġchuki": 3685,
      "Ġmakala": 3686,
      "jio": 3687,
      "Ġbusara": 3688,
      "kwaa": 3689,
      "Ġunataka": 3690,
      "zani": 3691,
      "Ġtime": 3692,
      "\",": 3693,
      "kita": 3694,
      "Ġkuzungumza": 3695,
      "amu": 3696,
      "ĠSha": 3697,
      "stari": 3698,
      "Ġlingine": 3699,
      "Ġiba": 3700,
      "Ġ,": 3701,
      "Ġjpm": 3702,
      "lele": 3703,
      "Ġrwanda": 3704,
      "rithi": 3705,
      "Ġlaki": 3706,
      "wer": 3707,
      "Ġwalisema": 3708,
      "dara": 3709,
      "fundisha": 3710,
      "Ġce": 3711,
      "Ġwito": 3712,
      "chukue": 3713,
      "Ġumwagiliaji": 3714,
      "Ġtawala": 3715,
      "Ġdkt": 3716,
      "Ġmorogoro": 3717,
      "Ġvikundi": 3718,
      "Ġkuepu": 3719,
      "Ġinapo": 3720,
      "fadhili": 3721,
      "Ġkujifunza": 3722,
      "Ġuendeshaji": 3723,
      "tuo": 3724,
      "ile": 3725,
      "sri": 3726,
      "Ġmkazi": 3727,
      "jumaa": 3728,
      "lizo": 3729,
      "Ġkide": 3730,
      "Ġkwangu": 3731,
      "nal": 3732,
      "Ġkuamua": 3733,
      "Ġtundu": 3734,
      "Ġtri": 3735,
      "safi": 3736,
      "ĠNya": 3737,
      "zulu": 3738,
      "Ġorodha": 3739,
      "lion": 3740,
      "Ġdec": 3741,
      "habari": 3742,
      "ĠMorogoro": 3743,
      "gambo": 3744,
      "kabiliwa": 3745,
      "lestina": 3746,
      "fanuzi": 3747,
      "ĠAf": 3748,
      "Ġmabaya": 3749,
      "ĠIsrael": 3750,
      "potea": 3751,
      "Ġreli": 3752,
      "rudisha": 3753,
      "Ġkukutana": 3754,
      "bc": 3755,
      "Hii": 3756,
      "Ġhadhi": 3757,
      "ule": 3758,
      "BA": 3759,
      "Ġsoma": 3760,
      "Ġwastani": 3761,
      "vid": 3762,
      "Ġkuongezeka": 3763,
      "Ġwaasi": 3764,
      "Ġwahusika": 3765,
      "Ġijayo": 3766,
      "gemea": 3767,
      "Ġbut": 3768,
      "Ġmabe": 3769,
      "Ġwakimbizi": 3770,
      "Ġkibiashara": 3771,
      "Ġkumpa": 3772,
      "Ġ201": 3773,
      "rikisho": 3774,
      "ĠWaislamu": 3775,
      "Ġzenu": 3776,
      "diwani": 3777,
      "mb": 3778,
      "Ġhovyo": 3779,
      "Ġhadha": 3780,
      "nts": 3781,
      "Ġwawakilishi": 3782,
      "Ġmjumbe": 3783,
      "Ġx": 3784,
      "Ġaje": 3785,
      "mama": 3786,
      "Ġkwasababu": 3787,
      "Ġraisi": 3788,
      "puuzi": 3789,
      "Ġmwananchi": 3790,
      "Ġinakuwa": 3791,
      "Ġufafanuzi": 3792,
      "ĠMaa": 3793,
      "Ġtunaweza": 3794,
      "pumbavu": 3795,
      "mbuliwa": 3796,
      "/=": 3797,
      "tri": 3798,
      "Ġdarasa": 3799,
      "Ġligi": 3800,
      "nment": 3801,
      "Ġalii": 3802,
      "Ġuso": 3803,
      "ĠSta": 3804,
      "Ġud": 3805,
      "teua": 3806,
      "Ġmpira": 3807,
      "Ġkoro": 3808,
      "nzibari": 3809,
      "Ġkuamini": 3810,
      "Ġubunge": 3811,
      "Ġitaendelea": 3812,
      "Ġelfu": 3813,
      "lin": 3814,
      "blia": 3815,
      "Ġushirika": 3816,
      "ĠMikoa": 3817,
      "Ġste": 3818,
      "shuru": 3819,
      "kaji": 3820,
      "Ġwhat": 3821,
      "fanikisha": 3822,
      "ĠMwenyezi": 3823,
      "maha": 3824,
      "Ġkuua": 3825,
      "Ġhususan": 3826,
      "pigia": 3827,
      "riwa": 3828,
      "mimi": 3829,
      "shirikiana": 3830,
      "DA": 3831,
      "ribio": 3832,
      "nali": 3833,
      "Ġyapo": 3834,
      "takavyo": 3835,
      "Ġwataalam": 3836,
      "Ġwakili": 3837,
      "Ġmku": 3838,
      "ĠNchi": 3839,
      "Ġisrael": 3840,
      "livu": 3841,
      "andikwa": 3842,
      "skofu": 3843,
      "ok": 3844,
      "Ġtakriban": 3845,
      "ys": 3846,
      "jitahidi": 3847,
      "Ġmashambulizi": 3848,
      "Ġkucho": 3849,
      "hutu": 3850,
      "Ġwanaji": 3851,
      "wata": 3852,
      "ngiwa": 3853,
      "Ġkujali": 3854,
      "tumikia": 3855,
      "Ġmheshimiwa": 3856,
      "mbamba": 3857,
      "iko": 3858,
      "Ġ17": 3859,
      ".âĢĿ": 3860,
      "Ġyanga": 3861,
      "ĠYanga": 3862,
      "Ġmimba": 3863,
      "Ġkike": 3864,
      "ngua": 3865,
      "fikishwa": 3866,
      "Ġmadaktari": 3867,
      "rugu": 3868,
      "Ġvyanzo": 3869,
      "Ġprof": 3870,
      "Ġpeo": 3871,
      "takazo": 3872,
      "Ġusu": 3873,
      "Ġutalii": 3874,
      "uki": 3875,
      "meanza": 3876,
      "Ġmkulima": 3877,
      "ĠMwe": 3878,
      "Ġmashtaka": 3879,
      "tari": 3880,
      "Ġkusamba": 3881,
      "Ġkupita": 3882,
      "endeshwa": 3883,
      "Ġviu": 3884,
      "Ġwagombea": 3885,
      "fikiwa": 3886,
      "ĠMaji": 3887,
      "Ġserikalini": 3888,
      "Ġmaandalizi": 3889,
      "Ġhadharani": 3890,
      "ness": 3891,
      "Ġdhana": 3892,
      "funguliwa": 3893,
      "gy": 3894,
      "Ġvideo": 3895,
      "Ġkika": 3896,
      "rali": 3897,
      "Ġikawa": 3898,
      "Ġcan": 3899,
      "Ġchenye": 3900,
      "Ġutumishi": 3901,
      "hakuna": 3902,
      "nganishwa": 3903,
      "nime": 3904,
      "rifa": 3905,
      "vuti": 3906,
      "Ġpart": 3907,
      "Ġag": 3908,
      "pitishwa": 3909,
      "ham": 3910,
      "Ġchao": 3911,
      "Aka": 3912,
      "lum": 3913,
      "Ġzilizopo": 3914,
      "mosi": 3915,
      "âĢľ": 3916,
      "fakari": 3917,
      "Ġinte": 3918,
      "robi": 3919,
      "Ġkutangaza": 3920,
      "Ġakam": 3921,
      "Ġz": 3922,
      "ĠMwanza": 3923,
      "Ġkubadilisha": 3924,
      "ĠMuswada": 3925,
      "Ġmtaji": 3926,
      "Ġkuelewa": 3927,
      "Ġmagazeti": 3928,
      "Ġsherehe": 3929,
      "Ġmuziki": 3930,
      "Ġkukusanya": 3931,
      "domo": 3932,
      "Ġmwanafunzi": 3933,
      "Ġkusikia": 3934,
      "fahamika": 3935,
      "haribi": 3936,
      "Ġfuraha": 3937,
      "Ġufugaji": 3938,
      "Ġkale": 3939,
      "ĠUta": 3940,
      "Ġtiba": 3941,
      "Ġnilivyo": 3942,
      "nika": 3943,
      "Ġnazo": 3944,
      "Ġmapigano": 3945,
      "ruhusiwa": 3946,
      "Ġinasema": 3947,
      "wasilisha": 3948,
      "Ġzima": 3949,
      "Ġmawe": 3950,
      "hadha": 3951,
      "wake": 3952,
      "Ġkingine": 3953,
      "fadhali": 3954,
      "Ġvyake": 3955,
      "Ġcag": 3956,
      "ĠAfya": 3957,
      "Ġnafuu": 3958,
      "Ġkuwasilisha": 3959,
      "kimbia": 3960,
      "lete": 3961,
      "Ġutakao": 3962,
      "Ġupi": 3963,
      "Ġinawezekana": 3964,
      "Ġmojawapo": 3965,
      "unti": 3966,
      "Ġtele": 3967,
      "saji": 3968,
      "Ġwaku": 3969,
      "salama": 3970,
      "Ġkueleza": 3971,
      "orge": 3972,
      "Ġwhe": 3973,
      "Ġuhai": 3974,
      "yahudi": 3975,
      "ngamano": 3976,
      "nyanya": 3977,
      "ĠMkurugenzi": 3978,
      "badilika": 3979,
      "seni": 3980,
      "zoea": 3981,
      "rudia": 3982,
      "ĠMkapa": 3983,
      "com": 3984,
      "Ġnyongeza": 3985,
      "Ġinaendelea": 3986,
      "Ġmadhu": 3987,
      "Ġipi": 3988,
      "Ġkutolewa": 3989,
      "Ġbro": 3990,
      "manne": 3991,
      "ĠDu": 3992,
      "Ġwafugaji": 3993,
      "Ġthey": 3994,
      "Ġujao": 3995,
      "elewe": 3996,
      "Ġkondo": 3997,
      "ĠKili": 3998,
      "kilishi": 3999,
      "Ġ100": 4000,
      "Ġmadeni": 4001,
      "ambia": 4002,
      "ĠMapinduzi": 4003,
      "res": 4004,
      "mkuu": 4005,
      "dhamini": 4006,
      "rge": 4007,
      "ĠCUF": 4008,
      "tegeme": 4009,
      "Ġkupatikana": 4010,
      "pitisha": 4011,
      "Ġdhahabu": 4012,
      "Ġnaamini": 4013,
      "Ġhawawezi": 4014,
      "Ġkipato": 4015,
      "thio": 4016,
      "kosea": 4017,
      "Ġaa": 4018,
      "nter": 4019,
      "ning": 4020,
      "saini": 4021,
      "Ġbalozi": 4022,
      "Ġuliopo": 4023,
      "swi": 4024,
      "Ġthen": 4025,
      "cra": 4026,
      "IBU": 4027,
      "Ġqu": 4028,
      "Ġgover": 4029,
      "Ġmago": 4030,
      "Ġanawa": 4031,
      "Ġalama": 4032,
      "Ġwimbo": 4033,
      "sm": 4034,
      "Ġmagumu": 4035,
      "likuwa": 4036,
      "uwa": 4037,
      "Ġtsh": 4038,
      "gusa": 4039,
      "pasa": 4040,
      "ĠBajeti": 4041,
      "jifunza": 4042,
      "Ġmila": 4043,
      "Ġmaambuki": 4044,
      "poke": 4045,
      "Ġmashine": 4046,
      "Ġdhati": 4047,
      "Ġwatawala": 4048,
      "Ġuliopita": 4049,
      "thiopia": 4050,
      "Ġulivyo": 4051,
      "mehe": 4052,
      "Ġukubwa": 4053,
      "if": 4054,
      "Ġmuafaka": 4055,
      "ol": 4056,
      "stu": 4057,
      "Ġkucheza": 4058,
      "cation": 4059,
      "Ġukarabati": 4060,
      "shtakiwa": 4061,
      "Ġmashauri": 4062,
      "bii": 4063,
      "Ġmapambano": 4064,
      "nse": 4065,
      "ĠTA": 4066,
      "Ġmkali": 4067,
      "kamilifu": 4068,
      "Waziri": 4069,
      "Ġjua": 4070,
      "wekea": 4071,
      "Ġnaunga": 4072,
      "velo": 4073,
      "Ġpombe": 4074,
      "sihi": 4075,
      "nguka": 4076,
      "Ġrufaa": 4077,
      "Ġpeople": 4078,
      "fanana": 4079,
      "mie": 4080,
      "siku": 4081,
      "jaji": 4082,
      "marekani": 4083,
      "Ġabo": 4084,
      "Ġtuwe": 4085,
      "Ġkugombea": 4086,
      "Ġkufuatilia": 4087,
      "Ġhaiwezi": 4088,
      "Ġtunataka": 4089,
      "Ġmtazamo": 4090,
      "faransa": 4091,
      "Ġmakusudi": 4092,
      "Ġkuhifadhi": 4093,
      "Ġhisia": 4094,
      "Ġ50": 4095,
      "SI": 4096,
      "Ġukosefu": 4097,
      "llia": 4098,
      "stitu": 4099,
      "diliano": 4100,
      "fere": 4101,
      "nsa": 4102,
      "Ġ2003": 4103,
      "Ġuzito": 4104,
      "tenda": 4105,
      "meta": 4106,
      "pole": 4107,
      "Ġdis": 4108,
      "Ġkiswahili": 4109,
      "ĠMwana": 4110,
      "Ġmohamed": 4111,
      "Ġkazini": 4112,
      "uzulu": 4113,
      "ote": 4114,
      "Ġnjo": 4115,
      "kwani": 4116,
      "Ġyour": 4117,
      "Ġjipya": 4118,
      "Ġuhalifu": 4119,
      "rejesha": 4120,
      "--": 4121,
      "kima": 4122,
      "nje": 4123,
      "uld": 4124,
      "Ġmsu": 4125,
      "ries": 4126,
      "vamia": 4127,
      "Ġakizungumza": 4128,
      "danganya": 4129,
      "rumani": 4130,
      "Ġwenzao": 4131,
      "MI": 4132,
      "tekelezwa": 4133,
      "Ġmki": 4134,
      "Ġkaka": 4135,
      "Ġwavu": 4136,
      "lwa": 4137,
      "chungaji": 4138,
      "ff": 4139,
      "zinga": 4140,
      "Ġmayai": 4141,
      "Ġtunayo": 4142,
      "Ġwazalendo": 4143,
      "Ġnalo": 4144,
      "Ġyear": 4145,
      "Ġmapya": 4146,
      "Ġkukata": 4147,
      "Ġkutatua": 4148,
      "Ġmakonda": 4149,
      "ĠUingereza": 4150,
      "Ġalicho": 4151,
      "Ġlisi": 4152,
      "Ġkutokuwa": 4153,
      "Ġprogramu": 4154,
      "Ġbarabarani": 4155,
      "pishwa": 4156,
      "Ġtathmini": 4157,
      "thu": 4158,
      "mbilia": 4159,
      "Ġkupanga": 4160,
      "ĠYa": 4161,
      "Ġujerumani": 4162,
      "andaliwa": 4163,
      "Ġofisini": 4164,
      "Ġimesema": 4165,
      "ĠKimataifa": 4166,
      "Ġcount": 4167,
      "Ġkikamilifu": 4168,
      "fanyike": 4169,
      "rufuku": 4170,
      "Ġmadogo": 4171,
      "toshe": 4172,
      "Ġmaho": 4173,
      "Ġmaelekezo": 4174,
      "Ġnae": 4175,
      "Ġkamwe": 4176,
      "kane": 4177,
      "Ġmaarifa": 4178,
      "nufaika": 4179,
      "Ġkusafi": 4180,
      "sion": 4181,
      "ĠTi": 4182,
      "Kuna": 4183,
      "Ġngapi": 4184,
      "Ġvurugu": 4185,
      "Ġkutetea": 4186,
      "Ġkushika": 4187,
      "ĠShule": 4188,
      "Ġkupu": 4189,
      "Ġnyakati": 4190,
      "ĠKikwete": 4191,
      "tz": 4192,
      "Ġmtaa": 4193,
      "Ġkiji": 4194,
      "Ġkuonekana": 4195,
      "bainisha": 4196,
      "dhiri": 4197,
      "ĠHi": 4198,
      "Ġvirusi": 4199,
      "uu": 4200,
      "Ġmadu": 4201,
      "udi": 4202,
      "Ġwasomi": 4203,
      "tasi": 4204,
      "chukulia": 4205,
      "Ġzitakazo": 4206,
      "Ġupendo": 4207,
      "Ġkufungua": 4208,
      "bili": 4209,
      "Ġmizigo": 4210,
      "Ġgra": 4211,
      "ĠAb": 4212,
      "Ġudongo": 4213,
      "Ġtaka": 4214,
      "Ġalidai": 4215,
      "Ġmapenzi": 4216,
      "Ġjoto": 4217,
      "Ġvinginevyo": 4218,
      "Ġlika": 4219,
      "Ġdogo": 4220,
      "yama": 4221,
      "Ġkinga": 4222,
      "mon": 4223,
      "Ġbarani": 4224,
      "Ġununuzi": 4225,
      "sikini": 4226,
      "shiria": 4227,
      "Ġwenzangu": 4228,
      "Ġswala": 4229,
      "tazama": 4230,
      "Ġpopote": 4231,
      "Ġuwepo": 4232,
      "Ġmshahara": 4233,
      "Ġnyaraka": 4234,
      "Ġii": 4235,
      "semi": 4236,
      "Ġaliji": 4237,
      "Ġudhibiti": 4238,
      "Ġpost": 4239,
      "Ġmbovu": 4240,
      "ngoni": 4241,
      "shirikisha": 4242,
      "saka": 4243,
      "Ġdaktari": 4244,
      "MWI": 4245,
      "Ġwazo": 4246,
      "historia": 4247,
      "Ġinawa": 4248,
      "Ġwajinga": 4249,
      "lazimisha": 4250,
      "fafanua": 4251,
      "Ġwere": 4252,
      "tezi": 4253,
      "see": 4254,
      "tawa": 4255,
      "hirisha": 4256,
      "nesha": 4257,
      "Ġziko": 4258,
      "Ġhatia": 4259,
      "lika": 4260,
      "Ġkukamilisha": 4261,
      "haribifu": 4262,
      "hiki": 4263,
      "Ġkigoma": 4264,
      "ĠMbeya": 4265,
      "Ġmarufuku": 4266,
      "Ġtamko": 4267,
      "geuka": 4268,
      "Ġsudan": 4269,
      "Ġuu": 4270,
      "Ġnyimbo": 4271,
      "et": 4272,
      "Ġmitandao": 4273,
      "Ġkufunga": 4274,
      "ajiri": 4275,
      "shawishi": 4276,
      "Ġmtumishi": 4277,
      "Ġgene": 4278,
      "Ġmpe": 4279,
      "KIMWI": 4280,
      "king": 4281,
      "rasa": 4282,
      "ber": 4283,
      "Ġukia": 4284,
      "Ġvikosi": 4285,
      "ĠNye": 4286,
      "ĠCHA": 4287,
      "Ġabdul": 4288,
      "Ġafrican": 4289,
      "ploma": 4290,
      "Ġkulima": 4291,
      "Ġtre": 4292,
      "Ina": 4293,
      "ĠJohn": 4294,
      "Ġser": 4295,
      "nyonge": 4296,
      "Ġziada": 4297,
      "Ġmaandishi": 4298,
      "hudhuria": 4299,
      "nguni": 4300,
      "sababishwa": 4301,
      "chimbaji": 4302,
      "nifu": 4303,
      "Ġkipaumbele": 4304,
      "wadi": 4305,
      "fedha": 4306,
      "baha": 4307,
      "Ġdhahiri": 4308,
      "athiri": 4309,
      "Ġutulivu": 4310,
      "ĠHe": 4311,
      "Ġujuzi": 4312,
      "riko": 4313,
      "Hivyo": 4314,
      "Ġdata": 4315,
      "Ġmwene": 4316,
      "Ġsykes": 4317,
      "ters": 4318,
      "ĠMambo": 4319,
      "Ġkivu": 4320,
      "Ġkusikiliza": 4321,
      "chuano": 4322,
      "We": 4323,
      "Ġchanjo": 4324,
      "kumbusha": 4325,
      "cts": 4326,
      "Rais": 4327,
      "Ġmema": 4328,
      "sajili": 4329,
      "ĠAl": 4330,
      "12": 4331,
      "zoezi": 4332,
      "nayo": 4333,
      "Ġmkopo": 4334,
      "Ġdada": 4335,
      "Ġulipo": 4336,
      "Ġwhich": 4337,
      "Ġmilele": 4338,
      "hani": 4339,
      "Ġula": 4340,
      "hapa": 4341,
      "Ġpubli": 4342,
      "anzishwa": 4343,
      "ziwa": 4344,
      "mira": 4345,
      "nzia": 4346,
      "ngapi": 4347,
      "Ġhuna": 4348,
      "Ġtua": 4349,
      "Ġndoto": 4350,
      "jeruhiwa": 4351,
      "menti": 4352,
      "Ġhasira": 4353,
      "ĠTAN": 4354,
      "Ġjumapili": 4355,
      "Ġlea": 4356,
      "Ġwapa": 4357,
      "mic": 4358,
      "Ġiliyotolewa": 4359,
      "dhamu": 4360,
      "Ġmatakwa": 4361,
      "rimu": 4362,
      "ger": 4363,
      "tupa": 4364,
      "Ġviwili": 4365,
      "Ġyaka": 4366,
      "ridhisha": 4367,
      "ibuka": 4368,
      "Ġrea": 4369,
      "Ġjk": 4370,
      "Ġwaji": 4371,
      "Ġele": 4372,
      "ring": 4373,
      "Ġtheir": 4374,
      "Ġhuruma": 4375,
      "Ġombe": 4376,
      "Ġtrump": 4377,
      "mbulio": 4378,
      "haya": 4379,
      "mari": 4380,
      "sari": 4381,
      "Ġsome": 4382,
      "ĠKikuu": 4383,
      "Watu": 4384,
      "baka": 4385,
      "lekeo": 4386,
      "Ġaga": 4387,
      "kuaji": 4388,
      "haribu": 4389,
      "Ġilio": 4390,
      "Ġcuf": 4391,
      "ifanya": 4392,
      "Ġvyenye": 4393,
      "Ġvyakula": 4394,
      "Ġsheikh": 4395,
      "Ġmoshi": 4396,
      "ĠUganda": 4397,
      "kie": 4398,
      "Ġbar": 4399,
      "Ġkuvunja": 4400,
      "wezekani": 4401,
      "phe": 4402,
      "Ġwanne": 4403,
      "ĠMwi": 4404,
      "ner": 4405,
      "Ġjanuari": 4406,
      "Ġmtanzania": 4407,
      "Ġiringa": 4408,
      "mbabwe": 4409,
      "cheni": 4410,
      "Ġyanaweza": 4411,
      "tangazwa": 4412,
      "Ġalizo": 4413,
      "Ġwaarabu": 4414,
      "bra": 4415,
      "Ġpapa": 4416,
      "rums": 4417,
      "jenge": 4418,
      "Ġanavyo": 4419,
      "Ġfree": 4420,
      "visheni": 4421,
      "kilinganishwa": 4422,
      "Ġtunao": 4423,
      "Ġjuni": 4424,
      "Ġhoteli": 4425,
      "hada": 4426,
      "milioni": 4427,
      "mbozi": 4428,
      "gani": 4429,
      "pt": 4430,
      "Ġkidini": 4431,
      "eleweka": 4432,
      "choka": 4433,
      "Ġunavyo": 4434,
      "Ġurefu": 4435,
      "ĠIdara": 4436,
      "tamani": 4437,
      "Ġdeni": 4438,
      "mivu": 4439,
      "Ġasante": 4440,
      "semwa": 4441,
      "Ġugaidi": 4442,
      "MU": 4443,
      "Ġwahu": 4444,
      "Ġkizazi": 4445,
      "Ġubaguzi": 4446,
      "mbili": 4447,
      "wewe": 4448,
      "Ġpana": 4449,
      "Wi": 4450,
      "Ġushindani": 4451,
      "ngton": 4452,
      "ud": 4453,
      "Ġwai": 4454,
      "puko": 4455,
      "Ġfikra": 4456,
      "maana": 4457,
      "dugu": 4458,
      "ĠTaasisi": 4459,
      "moyo": 4460,
      "Ġ24": 4461,
      "Ġjiwe": 4462,
      "nyang": 4463,
      "cc": 4464,
      "Ġdesemba": 4465,
      "Ġzinaweza": 4466,
      "Ġwaumini": 4467,
      "Ġkunipa": 4468,
      "Ġwanajua": 4469,
      "ĠJumuiya": 4470,
      "ĠUKIMWI": 4471,
      "Ġdharura": 4472,
      "ĠNo": 4473,
      "Ġleseni": 4474,
      "Ġukanda": 4475,
      "sanii": 4476,
      "Ġmda": 4477,
      "Ġbinti": 4478,
      "Ġmajaji": 4479,
      "Ġmore": 4480,
      "pment": 4481,
      "tus": 4482,
      "FA": 4483,
      "Ġtulio": 4484,
      "eleze": 4485,
      "Ġ21": 4486,
      "Ġwaislamu": 4487,
      "fai": 4488,
      "ved": 4489,
      "Ġhamna": 4490,
      "ĠMwalimu": 4491,
      "int": 4492,
      "ĠDr": 4493,
      "Ġhadithi": 4494,
      "Ġtumbo": 4495,
      "Ġim": 4496,
      "soa": 4497,
      "ctor": 4498,
      "Hivi": 4499,
      "Ġkuso": 4500,
      "fuatia": 4501,
      "DEMA": 4502,
      "kte": 4503,
      "Ġbla": 4504,
      "national": 4505,
      "tikadi": 4506,
      "pambana": 4507,
      "zozo": 4508,
      "Ġfidia": 4509,
      "Ġmapungufu": 4510,
      "Ġharamu": 4511,
      "Ġvigezo": 4512,
      "Ġibada": 4513,
      "30": 4514,
      "Pamoja": 4515,
      "ward": 4516,
      "Ġcar": 4517,
      "Ġact": 4518,
      "Ġjan": 4519,
      "sul": 4520,
      "Ġmaambukizi": 4521,
      "Ġkusu": 4522,
      "Ġmbwa": 4523,
      "cember": 4524,
      "Ġkilima": 4525,
      "Ġvigumu": 4526,
      "Ġaskofu": 4527,
      "Ġnenda": 4528,
      "Ġmichango": 4529,
      "Ġjulai": 4530,
      "ĠUchaguzi": 4531,
      "Ġinabidi": 4532,
      "roni": 4533,
      "Ġnov": 4534,
      "hamisi": 4535,
      "butu": 4536,
      "meke": 4537,
      "Ġzika": 4538,
      "ĠKata": 4539,
      "Ġchumba": 4540,
      "dilifu": 4541,
      "Ġmajadiliano": 4542,
      "11": 4543,
      "Ġgovernment": 4544,
      "pesi": 4545,
      "Ġkuwekeza": 4546,
      "Ġmembe": 4547,
      "Ġwanazo": 4548,
      "nesco": 4549,
      "Ġkuzungumzia": 4550,
      "Ġmisri": 4551,
      "Ġkutimiza": 4552,
      "Ġcheo": 4553,
      "tini": 4554,
      "Ġmstari": 4555,
      "Ġwamesha": 4556,
      "Ġman": 4557,
      "tor": 4558,
      "Akizungumza": 4559,
      "bdallah": 4560,
      "imarisha": 4561,
      "Ġmche": 4562,
      "tana": 4563,
      "ngezi": 4564,
      "tie": 4565,
      "Ġch": 4566,
      "tishwa": 4567,
      "Ġuelewa": 4568,
      "Ġusawa": 4569,
      "ridi": 4570,
      "Ġkamba": 4571,
      "Ġcongo": 4572,
      "resheni": 4573,
      "Ġout": 4574,
      "ssion": 4575,
      "katili": 4576,
      "Ġmahusiano": 4577,
      "pisha": 4578,
      "china": 4579,
      "Ġaug": 4580,
      "NI": 4581,
      "Ġstu": 4582,
      "ress": 4583,
      "Ġjumatatu": 4584,
      "bongo": 4585,
      "Ġsumu": 4586,
      "ndoni": 4587,
      "Ġumasikini": 4588,
      "wasilishwa": 4589,
      "Ġsayansi": 4590,
      "dge": 4591,
      "Ġmisi": 4592,
      "badilisha": 4593,
      "hudumia": 4594,
      "Ġmichuano": 4595,
      "Ġmasikini": 4596,
      "Nili": 4597,
      "krani": 4598,
      "vita": 4599,
      "Ġtho": 4600,
      "Ġatu": 4601,
      "Ġjamani": 4602,
      "Ġafisa": 4603,
      "Ġunajua": 4604,
      "kuli": 4605,
      "Ġmitambo": 4606,
      "Ġmwanachama": 4607,
      "pelelezi": 4608,
      "Ġninyi": 4609,
      "Ġoktoba": 4610,
      "Ġufaransa": 4611,
      "Ġoct": 4612,
      "ĠKilimo": 4613,
      "idhi": 4614,
      "Ġsemina": 4615,
      "letwa": 4616,
      "huru": 4617,
      "Ġinayozungumzwa": 4618,
      "Ġkupe": 4619,
      "minifu": 4620,
      "MB": 4621,
      "Ġkwi": 4622,
      "ĠWananchi": 4623,
      "mwana": 4624,
      "peleke": 4625,
      "Ġsambamba": 4626,
      "jenzi": 4627,
      "Ġmene": 4628,
      "Ġjul": 4629,
      "ĠDunia": 4630,
      "Ġadui": 4631,
      "kina": 4632,
      "mbona": 4633,
      "Ġlipo": 4634,
      "Ġwakala": 4635,
      "Ġmikononi": 4636,
      "wafanya": 4637,
      "Ġingekuwa": 4638,
      "Ġurusi": 4639,
      "Ġombi": 4640,
      "JI": 4641,
      "Ġkupigwa": 4642,
      "Ġwalim": 4643,
      "Ġmwelekeo": 4644,
      "shoto": 4645,
      "Ġkongo": 4646,
      "Ġmashitaka": 4647,
      "Ġage": 4648,
      "Ġilisema": 4649,
      "jengea": 4650,
      "Ġpamba": 4651,
      "Ġushuru": 4652,
      "pendi": 4653,
      "Ili": 4654,
      "Ġvikwazo": 4655,
      "Ġkibali": 4656,
      "Ġjanga": 4657,
      "Ġhaikuwa": 4658,
      "ĠGa": 4659,
      "elimisha": 4660,
      "Ġkufanikisha": 4661,
      "ndamana": 4662,
      "Ġyatakayo": 4663,
      "elewi": 4664,
      "Ġtuliyo": 4665,
      "Ġudha": 4666,
      "Ġhad": 4667,
      "ments": 4668,
      "Ġbaya": 4669,
      "Ġwanai": 4670,
      "ridhiano": 4671,
      "Ġsep": 4672,
      "Ġkushughulikia": 4673,
      "Ġwazungu": 4674,
      "lliam": 4675,
      "Ġ22": 4676,
      "Ġtaaluma": 4677,
      "fute": 4678,
      "ĠMis": 4679,
      "Ġuvuvi": 4680,
      "Ġthrea": 4681,
      "Ġzuri": 4682,
      "Ġvery": 4683,
      "huyu": 4684,
      "Ġmuswada": 4685,
      "ndera": 4686,
      "Ġmimea": 4687,
      "jibikaji": 4688,
      "Ġvipe": 4689,
      "Ġkb": 4690,
      "Kamanda": 4691,
      "vuma": 4692,
      "Ġvilevile": 4693,
      "enyeji": 4694,
      "DI": 4695,
      "karibia": 4696,
      "Ġmtwara": 4697,
      "Ġstate": 4698,
      "Ġuraia": 4699,
      "ĠTo": 4700,
      "Ġtabora": 4701,
      "Ġnzi": 4702,
      "Ġmatatu": 4703,
      "Nina": 4704,
      "Ġmwinyi": 4705,
      "gana": 4706,
      "unganisha": 4707,
      "nusu": 4708,
      "Ġkwenu": 4709,
      "Ġniku": 4710,
      "Ġmili": 4711,
      "Ġniliyo": 4712,
      "Ġmbadala": 4713,
      "Ġbao": 4714,
      "Ġkisiwa": 4715,
      "Ġhamu": 4716,
      "Ġfilamu": 4717,
      "hesabu": 4718,
      "ĠKatika": 4719,
      "Ġmazoezi": 4720,
      "ungana": 4721,
      "ary": 4722,
      "Ġghafla": 4723,
      "Ġngozi": 4724,
      "angalie": 4725,
      "Ġmzungu": 4726,
      "Ġ2006": 4727,
      "Ġtunge": 4728,
      "Ġmbuzi": 4729,
      "ĠMta": 4730,
      "Ġjuli": 4731,
      "Ġikilinganishwa": 4732,
      "Ġningependa": 4733,
      "nywe": 4734,
      "LE": 4735,
      "Ġasali": 4736,
      "hojiwa": 4737,
      "nzishwa": 4738,
      "rafa": 4739,
      "velopment": 4740,
      "Ġngoja": 4741,
      "Ġtuwa": 4742,
      "achi": 4743,
      "xi": 4744,
      "Ġsaini": 4745,
      "niambia": 4746,
      "Naomba": 4747,
      "Ġwalizo": 4748,
      "ĠSA": 4749,
      "Ġmuu": 4750,
      "Ġbongo": 4751,
      "ĠBodi": 4752,
      "Ġkuongea": 4753,
      "roho": 4754,
      "Ġanajua": 4755,
      "Ġhauja": 4756,
      "Ġbabu": 4757,
      "ving": 4758,
      "Ġmajani": 4759,
      "Ġnovemba": 4760,
      "Ġkujaribu": 4761,
      "ngera": 4762,
      "simamisha": 4763,
      "ingie": 4764,
      "Ġwashiriki": 4765,
      "Ġumekuwa": 4766,
      "sident": 4767,
      "ron": 4768,
      "Ġdecember": 4769,
      "mbulisho": 4770,
      "ndoka": 4771,
      "Ġhatuja": 4772,
      "Ġsomo": 4773,
      "Ġtzs": 4774,
      "Ġmatendo": 4775,
      "ĠLakini": 4776,
      "Ġwapate": 4777,
      "sio": 4778,
      "rity": 4779,
      "Ġmwongozo": 4780,
      "Ġani": 4781,
      "Ġkahawa": 4782,
      "Ġtulikuwa": 4783,
      "22": 4784,
      "Ġuliyo": 4785,
      "Ġkuuliza": 4786,
      "karibisha": 4787,
      "kadi": 4788,
      "Ġmwamba": 4789,
      "Ġwamesema": 4790,
      "Ġsukari": 4791,
      "faidi": 4792,
      "gue": 4793,
      "ĠKanisa": 4794,
      "ganga": 4795,
      "Ġaprili": 4796,
      "susi": 4797,
      "Ġ40": 4798,
      "Ġaliwahi": 4799,
      "Ġsema": 4800,
      "yaani": 4801,
      "riti": 4802,
      "pewe": 4803,
      "tiana": 4804,
      "Ġmake": 4805,
      "Ġmwanasheria": 4806,
      "Ġanam": 4807,
      "lulizo": 4808,
      "Ġissu": 4809,
      "kilizwa": 4810,
      "Ġkocha": 4811,
      "koo": 4812,
      "Ġwanapata": 4813,
      "Ġmaridhiano": 4814,
      "Ġmshindi": 4815,
      "hapo": 4816,
      "Ġwakiwemo": 4817,
      "kwepa": 4818,
      "Ġisraeli": 4819,
      "zote": 4820,
      "himiza": 4821,
      "Ġkupitisha": 4822,
      "ANI": 4823,
      "Ġgereza": 4824,
      "Ġkarume": 4825,
      "Ġutajiri": 4826,
      "Ġtuzo": 4827,
      "Ġhayati": 4828,
      "ĠVijijini": 4829,
      "chochea": 4830,
      "hebu": 4831,
      "enea": 4832,
      "Ġkutegemea": 4833,
      "Ġushiriki": 4834,
      "Ġishara": 4835,
      "ngazo": 4836,
      "Ġdubai": 4837,
      "Ġduni": 4838,
      "wakilisha": 4839,
      "Ġukuaji": 4840,
      "Ġendelevu": 4841,
      "Ġhatuwezi": 4842,
      "chwani": 4843,
      "Ġapr": 4844,
      "ĠNyerere": 4845,
      "Ġmabao": 4846,
      "at": 4847,
      "Ġkuwezesha": 4848,
      "ses": 4849,
      "Ġdk": 4850,
      "bel": 4851,
      "Ġijumaa": 4852,
      "sale": 4853,
      "daka": 4854,
      "gogo": 4855,
      "Ġuzalendo": 4856,
      "Ġkiga": 4857,
      "dhifa": 4858,
      "Ġother": 4859,
      "Ġmstaafu": 4860,
      "semekana": 4861,
      "ĠMohamed": 4862,
      "bunifu": 4863,
      "Le": 4864,
      "Sa": 4865,
      "Hali": 4866,
      "nii": 4867,
      "Ġtunawa": 4868,
      "15": 4869,
      "Ġmakali": 4870,
      "Ġufundi": 4871,
      "Ġkiki": 4872,
      "Ġwar": 4873,
      "Ġkilikuwa": 4874,
      "net": 4875,
      "Ġkukua": 4876,
      "ulizwa": 4877,
      "haribika": 4878,
      "Mwa": 4879,
      "Ġhakimu": 4880,
      "leni": 4881,
      "jiuliza": 4882,
      "Ġkulevya": 4883,
      "kanisa": 4884,
      "La": 4885,
      "Ġwatuhumiwa": 4886,
      "Ġkuchagua": 4887,
      "mfanya": 4888,
      "Ġhebu": 4889,
      "Ġwakristo": 4890,
      "Ġkidemokrasia": 4891,
      "soro": 4892,
      "con": 4893,
      "siria": 4894,
      "jabu": 4895,
      "Ġmikubwa": 4896,
      "Ġci": 4897,
      "Ġhekta": 4898,
      "Ġuliofanyika": 4899,
      "Ġnilipo": 4900,
      "Ġjukwaa": 4901,
      "Ġmse": 4902,
      "pigi": 4903,
      "kn": 4904,
      "Ġsara": 4905,
      "Ja": 4906,
      "Ġuwi": 4907,
      "shiwa": 4908,
      "huku": 4909,
      "Ġsanaa": 4910,
      "Ġjulius": 4911,
      "Ġaidha": 4912,
      "Ġmgeni": 4913,
      "stra": 4914,
      "Ġkilomita": 4915,
      "Ġmwanzoni": 4916,
      "Ġndilo": 4917,
      "Ġjela": 4918,
      "Ġkuhamasisha": 4919,
      "Ġmabasi": 4920,
      "Ġkida": 4921,
      "Ġ0": 4922,
      "Anasema": 4923,
      "Ġvidogo": 4924,
      "Ġkutoku": 4925,
      "ĠBungeni": 4926,
      "Ġtulia": 4927,
      "fiwa": 4928,
      "nna": 4929,
      "Ġkilimanjaro": 4930,
      "Ġmchezaji": 4931,
      "kara": 4932,
      "elelezo": 4933,
      "Ġchawa": 4934,
      "ruka": 4935,
      "patiwa": 4936,
      "nondoni": 4937,
      "Ġshuleni": 4938,
      "Ġexpe": 4939,
      "Ġtete": 4940,
      "Ġmwao": 4941,
      "Ġnasema": 4942,
      "pan": 4943,
      "hakikishia": 4944,
      "tima": 4945,
      "Ġilivyokuwa": 4946,
      "jiano": 4947,
      "waji": 4948,
      "Ġpembeni": 4949,
      "kwenye": 4950,
      "Ġnafikiri": 4951,
      "kusu": 4952,
      "rles": 4953,
      "Ġcd": 4954,
      "Ġalipata": 4955,
      "Ġkienyeji": 4956,
      "Ġuwajibikaji": 4957,
      "Ġmajambazi": 4958,
      "Ġinaonekana": 4959,
      "Ġametoa": 4960,
      "Tume": 4961,
      "Ġshauri": 4962,
      "Ġmfululizo": 4963,
      "ĠKU": 4964,
      "Ġjun": 4965,
      "mta": 4966,
      "mer": 4967,
      "binadamu": 4968,
      "23": 4969,
      "Ġkiume": 4970,
      "Ġkuruhusu": 4971,
      "Ġanafanya": 4972,
      "Ġsou": 4973,
      "men": 4974,
      "Ġwakawa": 4975,
      "25": 4976,
      "takacho": 4977,
      "ĠChe": 4978,
      "Ġazimio": 4979,
      "bakia": 4980,
      "Ġmageuzi": 4981,
      "sawa": 4982,
      "13": 4983,
      "ĠAr": 4984,
      "harakati": 4985,
      "diliwa": 4986,
      "14": 4987,
      "kundu": 4988,
      "Ġ27": 4989,
      "by": 4990,
      "tumwa": 4991,
      "Ġbra": 4992,
      "Ġzawadi": 4993,
      "hamu": 4994,
      "Ġmwenendo": 4995,
      "ĠUli": 4996,
      "nduliwa": 4997,
      "rahim": 4998,
      "kupa": 4999,
      "Ġtuko": 5000,
      "Ġkimsingi": 5001,
      "Ġsingi": 5002,
      "Ġkisu": 5003,
      "ĠDi": 5004,
      "Ġsote": 5005,
      "Ġhawajui": 5006,
      "18": 5007,
      "azi": 5008,
      "Ġara": 5009,
      "Ġjinsia": 5010,
      "Ġkifupi": 5011,
      "Ġwalioko": 5012,
      "onye": 5013,
      "Ġalifanya": 5014,
      "Ġmm": 5015,
      "Ġhauna": 5016,
      "hy": 5017,
      "Ġ23": 5018,
      "Ġkutakuwa": 5019,
      "ĠJuni": 5020,
      "Ġunayo": 5021,
      "pigania": 5022,
      "Ġmsemaji": 5023,
      "ruga": 5024,
      "laumu": 5025,
      "Ġwadudu": 5026,
      "punga": 5027,
      "Ġhekima": 5028,
      "Ġjingine": 5029,
      "Ġif": 5030,
      "peli": 5031,
      "zingira": 5032,
      "Ġnikiwa": 5033,
      "cke": 5034,
      "Ġliko": 5035,
      "Ġwaliopo": 5036,
      "Ġmifuko": 5037,
      "ws": 5038,
      "koba": 5039,
      "ndarasi": 5040,
      "Ġshukrani": 5041,
      "Una": 5042,
      "oa": 5043,
      "puka": 5044,
      "Ġupepo": 5045,
      "Ġitikadi": 5046,
      "Ġmkewe": 5047,
      "Ġkurejea": 5048,
      "Ġshirikisho": 5049,
      "Ġkuwawezesha": 5050,
      "Ġwatano": 5051,
      "Ġkii": 5052,
      "Ġuwazi": 5053,
      "Ġmatangazo": 5054,
      "ĠMfuko": 5055,
      "Ġmtendaji": 5056,
      "tendea": 5057,
      "mila": 5058,
      "plomasia": 5059,
      "Ġmanispaa": 5060,
      "Ġwasanii": 5061,
      "arch": 5062,
      "nwa": 5063,
      "Ġkifedha": 5064,
      "Ġnidhamu": 5065,
      "wassa": 5066,
      "chelewa": 5067,
      "Ġpasipo": 5068,
      "Ġmaumivu": 5069,
      "Ġmgonjwa": 5070,
      "ndoa": 5071,
      "Ġjumanne": 5072,
      "Ġkitengo": 5073,
      "brahim": 5074,
      "Ġmafisadi": 5075,
      "ĠMakamu": 5076,
      "pamoja": 5077,
      "IKA": 5078,
      "Ġiweze": 5079,
      "tel": 5080,
      "katibu": 5081,
      "Ġthere": 5082,
      "Ġmakamba": 5083,
      "ĠMwaka": 5084,
      "Ġjumatano": 5085,
      "nerali": 5086,
      "kee": 5087,
      "Ġufumbuzi": 5088,
      "Ġbudi": 5089,
      "siriamali": 5090,
      "unge": 5091,
      "tch": 5092,
      "Ġuharibifu": 5093,
      "sama": 5094,
      "gram": 5095,
      "Ġdereva": 5096,
      "pha": 5097,
      "Ġtafsiri": 5098,
      "Ġmarafiki": 5099,
      "Ġkiingereza": 5100,
      "ĠProfesa": 5101,
      "Ġmaagizo": 5102,
      "Ġkulipwa": 5103,
      "Ġmwenzake": 5104,
      "ah": 5105,
      "zie": 5106,
      "ĠMara": 5107,
      "Ġkumwo": 5108,
      "Ġtunapo": 5109,
      "Ġanaji": 5110,
      "Ġhawataki": 5111,
      "changanya": 5112,
      "tc": 5113,
      "gulu": 5114,
      "CCM": 5115,
      "Ġanao": 5116,
      "zana": 5117,
      "msi": 5118,
      "Ġminne": 5119,
      "sai": 5120,
      "Ġnigeria": 5121,
      "Ġwatanganyika": 5122,
      "Ġukurasa": 5123,
      "hadhari": 5124,
      "Naye": 5125,
      "Ġour": 5126,
      "ĠNC": 5127,
      "Ġ2000": 5128,
      "ĠKampuni": 5129,
      "Ġmatusi": 5130,
      "Ġsingida": 5131,
      "Ġkidi": 5132,
      "ĠVyama": 5133,
      "Ġmitaani": 5134,
      "YA": 5135,
      "ĠMagharibi": 5136,
      "Ġmso": 5137,
      "ndio": 5138,
      "Ġmei": 5139,
      "hitimu": 5140,
      "Ġkubaini": 5141,
      "Ġnja": 5142,
      "Kutokana": 5143,
      "Ġmato": 5144,
      "kumba": 5145,
      "Ġmiche": 5146,
      "Ġindia": 5147,
      "Ġtajiri": 5148,
      "ĠAfrica": 5149,
      ".\"": 5150,
      "tengenezwa": 5151,
      "Ġkibao": 5152,
      "mbwe": 5153,
      "Ġalie": 5154,
      "pre": 5155,
      "zembe": 5156,
      "Ġkuchaguliwa": 5157,
      "Ġmavu": 5158,
      "Ġcor": 5159,
      "ulo": 5160,
      "ĠLo": 5161,
      "Ġmha": 5162,
      "Ġkuzaliwa": 5163,
      "gamoyo": 5164,
      "ripotiwa": 5165,
      "Ġjinai": 5166,
      "Ġ197": 5167,
      "moni": 5168,
      "Ġkuanzishwa": 5169,
      "rans": 5170,
      "Ġkuchunguza": 5171,
      "ngani": 5172,
      "Ġwanacho": 5173,
      "taza": 5174,
      "cono": 5175,
      "Ġusafi": 5176,
      "ĠMI": 5177,
      "Ġ26": 5178,
      "eti": 5179,
      "tembea": 5180,
      "Ġprofesa": 5181,
      "Ġbwawa": 5182,
      "Ġmakabila": 5183,
      "fautiana": 5184,
      "ĠJanuari": 5185,
      "pasavyo": 5186,
      "Ġkno": 5187,
      "Ġits": 5188,
      "Ġmza": 5189,
      "Ġanae": 5190,
      "Ġmahojiano": 5191,
      "Ġpende": 5192,
      "nina": 5193,
      "rusale": 5194,
      "ME": 5195,
      "Ġfani": 5196,
      "Ġfungu": 5197,
      "Ġmachache": 5198,
      "ata": 5199,
      "njika": 5200,
      "Ġuji": 5201,
      "Ġilani": 5202,
      "Ġmus": 5203,
      "Ġtuweze": 5204,
      "Ġkurekebisha": 5205,
      "Ġfomu": 5206,
      "Ġpresident": 5207,
      "ongezea": 5208,
      "Ġalijibu": 5209,
      "ĠAp": 5210,
      "ww": 5211,
      "Ġkando": 5212,
      "Ġuchambuzi": 5213,
      "Ġhisa": 5214,
      "cheko": 5215,
      "wale": 5216,
      "Ġkukamilika": 5217,
      "iba": 5218,
      "fikapo": 5219,
      "Ju": 5220,
      "Ġkufahamu": 5221,
      "ĠMamlaka": 5222,
      "fumo": 5223,
      "juma": 5224,
      "Ame": 5225,
      "Ġunder": 5226,
      "Ġukimwi": 5227,
      "toshi": 5228,
      "Ġmsamaha": 5229,
      "Ġwashirika": 5230,
      "kaya": 5231,
      "ĠTanga": 5232,
      "Ġkunywa": 5233,
      "itaka": 5234,
      "Wali": 5235,
      "Ġkagera": 5236,
      "Ġipasavyo": 5237,
      "piki": 5238,
      "Mu": 5239,
      "ĠJamii": 5240,
      "16": 5241,
      "ten": 5242,
      "Ġkicha": 5243,
      "Ġwaje": 5244,
      "nguja": 5245,
      "wenyekiti": 5246,
      "tangulia": 5247,
      "Ġagosti": 5248,
      "kwama": 5249,
      "ĠKigoma": 5250,
      "Ġbw": 5251,
      "ĠZA": 5252,
      "rn": 5253,
      "mungu": 5254,
      "Ġchai": 5255,
      "Ġuchungu": 5256,
      "Ġkikatiba": 5257,
      "Kwanza": 5258,
      "Ġmajira": 5259,
      "nyoo": 5260,
      "Ġop": 5261,
      "samia": 5262,
      "fukuza": 5263,
      "Ġkijijini": 5264,
      "ntiki": 5265,
      "ĠUsalama": 5266,
      "sco": 5267,
      "Ġkukataa": 5268,
      "Ġkuifanya": 5269,
      "Ġkupima": 5270,
      "nci": 5271,
      "Ġdhamira": 5272,
      "thers": 5273,
      "ĠJaji": 5274,
      "Ġulemavu": 5275,
      "Ġmwanga": 5276,
      "yasema": 5277,
      "Ġtv": 5278,
      "Ġmtindo": 5279,
      "dam": 5280,
      "ndisi": 5281,
      "kamilisha": 5282,
      "Ġnajua": 5283,
      "chukia": 5284,
      "ndelea": 5285,
      "cor": 5286,
      "eneo": 5287,
      "inali": 5288,
      "fike": 5289,
      "zuka": 5290,
      "Ġkatoliki": 5291,
      "Ġamem": 5292,
      "kubalika": 5293,
      "Ġunga": 5294,
      "tajiri": 5295,
      "Taarifa": 5296,
      "kuzi": 5297,
      "Ġmio": 5298,
      "aini": 5299,
      "Ġwaislam": 5300,
      "ĠManispaa": 5301,
      "Ġ28": 5302,
      "Ġ198": 5303,
      "kuza": 5304,
      "bya": 5305,
      "tambuli": 5306,
      "Ġvyetu": 5307,
      "2005": 5308,
      "Ġkorosho": 5309,
      "Ġmafa": 5310,
      "xt": 5311,
      "sibu": 5312,
      "Ġwanaendelea": 5313,
      "geme": 5314,
      "tano": 5315,
      "himbili": 5316,
      "Ġasilia": 5317,
      "Ġuzazi": 5318,
      "lan": 5319,
      "hammed": 5320,
      "dwali": 5321,
      "Ġwama": 5322,
      "Ġkuthibitisha": 5323,
      "ĠSekondari": 5324,
      "ĠHospitali": 5325,
      "Ġukoloni": 5326,
      "Ġtuone": 5327,
      "nili": 5328,
      "17": 5329,
      "vua": 5330,
      "Ġkichwani": 5331,
      "Ġutata": 5332,
      "Ġtutakuwa": 5333,
      "Ġtwi": 5334,
      "mbiji": 5335,
      "Ġfal": 5336,
      "tical": 5337,
      "zina": 5338,
      "hesa": 5339,
      "Ġmabomu": 5340,
      "vana": 5341,
      "Ġwezi": 5342,
      "Ġhawakuwa": 5343,
      "mit": 5344,
      "Ġwasichana": 5345,
      "tatizo": 5346,
      "Ġuchafu": 5347,
      "pumzi": 5348,
      "afrika": 5349,
      "nusha": 5350,
      "mocra": 5351,
      "saha": 5352,
      "Ġvikuu": 5353,
      "Ġnairobi": 5354,
      "ef": 5355,
      "Ġkufanyiwa": 5356,
      "Ġover": 5357,
      "Ġmaiti": 5358,
      "Ġhazija": 5359,
      "ĠMachi": 5360,
      "Ġheri": 5361,
      "Ġmaelfu": 5362,
      "Ġmkononi": 5363,
      "Ġgood": 5364,
      "Ġzikiwa": 5365,
      "anzia": 5366,
      "chunguzi": 5367,
      "faranga": 5368,
      "Ġsadaka": 5369,
      "Ġudhaifu": 5370,
      "Ġkuonesha": 5371,
      "Ġtanesco": 5372,
      "Ġkutunga": 5373,
      "tulia": 5374,
      "tengwa": 5375,
      "ĠMtwara": 5376,
      "Ġjumamosi": 5377,
      "Ġseptemba": 5378,
      "nesia": 5379,
      "nuka": 5380,
      "Ġjoseph": 5381,
      "Ġinahitaji": 5382,
      "Ġethiopia": 5383,
      "Ġubalozi": 5384,
      "Ġyalio": 5385,
      "pande": 5386,
      "ĠMrema": 5387,
      "Ġinafanya": 5388,
      "Ġustawi": 5389,
      "Ġmifano": 5390,
      "Ġmlango": 5391,
      "Ġfara": 5392,
      "heri": 5393,
      "Ġabout": 5394,
      "cou": 5395,
      "ship": 5396,
      "shindi": 5397,
      "Ġair": 5398,
      "Ġmzozo": 5399,
      "masha": 5400,
      "Ġmwanaume": 5401,
      "Ġpongezi": 5402,
      "ndikia": 5403,
      "Ġbin": 5404,
      "Ġmadarasa": 5405,
      "Ġinatoa": 5406,
      "ridhia": 5407,
      "dd": 5408,
      "hai": 5409,
      "Ġwaraka": 5410,
      "Ġsugu": 5411,
      "Ġchetu": 5412,
      "ĠWe": 5413,
      "tii": 5414,
      "Ġmaafa": 5415,
      "Ġndefu": 5416,
      "publi": 5417,
      "Ġmisitu": 5418,
      "und": 5419,
      "Ġitakapo": 5420,
      "Ġlindi": 5421,
      "ĠRi": 5422,
      "Ġwanaoishi": 5423,
      "Ġusafirishaji": 5424,
      "Ġkuepuka": 5425,
      "ĠUni": 5426,
      "Ġhouse": 5427,
      "Ġubi": 5428,
      "tofauti": 5429,
      "Ġsub": 5430,
      "Ġkuwe": 5431,
      "Ġmwendo": 5432,
      "Ġifikapo": 5433,
      "luhi": 5434,
      "ĠMba": 5435,
      "Ġvido": 5436,
      "nz": 5437,
      "Ġwenyeji": 5438,
      "ney": 5439,
      "danganyi": 5440,
      "Ġzimekuwa": 5441,
      "Ġmaofisa": 5442,
      "wama": 5443,
      "nzisha": 5444,
      "Ġmaharage": 5445,
      "Ġmajaribio": 5446,
      "Ġmafundi": 5447,
      "inti": 5448,
      "mish": 5449,
      "onea": 5450,
      "Ġsyste": 5451,
      "alisema": 5452,
      "Ġniwa": 5453,
      "Ġmbinguni": 5454,
      "Ġshetani": 5455,
      "Ġburundi": 5456,
      "Ġwanatumia": 5457,
      "liasili": 5458,
      "ESCO": 5459,
      "cis": 5460,
      "Ġwakia": 5461,
      "njamin": 5462,
      "Ġfainali": 5463,
      "Ġmkapa": 5464,
      "Ġsomalia": 5465,
      "tamka": 5466,
      "Ġambae": 5467,
      "hamia": 5468,
      "ence": 5469,
      "Ġtelevisheni": 5470,
      "gharimu": 5471,
      "Ġkusambaza": 5472,
      "Ġmdomo": 5473,
      "takuwa": 5474,
      "Ġkito": 5475,
      "rey": 5476,
      "Ġvyeo": 5477,
      "ard": 5478,
      "Ġfebruari": 5479,
      "Ġbendera": 5480,
      "ĠCHADEMA": 5481,
      "ghani": 5482,
      "Ġwam": 5483,
      "Ġkufanikiwa": 5484,
      "ANA": 5485,
      "Ġslaa": 5486,
      "Ġmaradhi": 5487,
      "Ġthem": 5488,
      "line": 5489,
      "kete": 5490,
      "gala": 5491,
      "Ġpetro": 5492,
      "Ġmanunuzi": 5493,
      "Ġunaendelea": 5494,
      "yumba": 5495,
      "Ġ2002": 5496,
      "thamini": 5497,
      "yuta": 5498,
      "ĠKamanda": 5499,
      "Ġchuma": 5500,
      "Mo": 5501,
      "onya": 5502,
      "cre": 5503,
      "moa": 5504,
      "ĠFa": 5505,
      "Ġzozote": 5506,
      "ĠUki": 5507,
      "Ġaweze": 5508,
      "shoga": 5509,
      "Ġter": 5510,
      "TO": 5511,
      "rious": 5512,
      "Ġahsante": 5513,
      "Ġpower": 5514,
      "Ġwafanye": 5515,
      "ft": 5516,
      "Ġany": 5517,
      "Ġkiarabu": 5518,
      "Ġniseme": 5519,
      "Ġlami": 5520,
      "ngoro": 5521,
      "Ġuk": 5522,
      "Ġkuwapatia": 5523,
      "ĠPi": 5524,
      "Ġalianza": 5525,
      "meni": 5526,
      "ves": 5527,
      "Ġmbio": 5528,
      "Ġhaziku": 5529,
      "ngenezo": 5530,
      "mad": 5531,
      "bwana": 5532,
      "Ġkubaki": 5533,
      "mbaji": 5534,
      "Ġfir": 5535,
      "Ġunawa": 5536,
      "ingizwa": 5537,
      "mpyuta": 5538,
      "athirika": 5539,
      "Ġnape": 5540,
      "kutwa": 5541,
      "agiza": 5542,
      "Ġbima": 5543,
      "Ġimesha": 5544,
      "nduki": 5545,
      "jeo": 5546,
      "ĠUpinzani": 5547,
      "Ġkamanda": 5548,
      "Ġmr": 5549,
      "Ġgrou": 5550,
      "Ġmitihani": 5551,
      "milikiwa": 5552,
      "Baadhi": 5553,
      "Ġufahamu": 5554,
      "can": 5555,
      "shtu": 5556,
      "cent": 5557,
      "Ġoperesheni": 5558,
      "ridhika": 5559,
      "Ġmwake": 5560,
      "ondolewa": 5561,
      "ĠâĢĺ": 5562,
      "Ġkuteuliwa": 5563,
      "kusudia": 5564,
      "gai": 5565,
      "Ġbaridi": 5566,
      "kimbilia": 5567,
      "Ġscho": 5568,
      "zio": 5569,
      "Ġkana": 5570,
      "ĠBia": 5571,
      "Ġmwanadamu": 5572,
      "lengo": 5573,
      "ĠMei": 5574,
      "Ġalisisitiza": 5575,
      "ĠMawaziri": 5576,
      "limanjaro": 5577,
      "nyara": 5578,
      "Ġmpunga": 5579,
      "Ġunam": 5580,
      "Ġtunavyo": 5581,
      "Ġonly": 5582,
      "Ġkuwekwa": 5583,
      "teka": 5584,
      "stine": 5585,
      "jina": 5586,
      "Ġmaduka": 5587,
      "ĠKI": 5588,
      "oko": 5589,
      "tete": 5590,
      "Ġimeendelea": 5591,
      "Ġmatengenezo": 5592,
      "Ġinaonyesha": 5593,
      "Ġkipengele": 5594,
      "hanati": 5595,
      "Ġkukamatwa": 5596,
      "mesha": 5597,
      "Ġmwanasiasa": 5598,
      "jikuta": 5599,
      "Ġmashaka": 5600,
      "ZA": 5601,
      "Ġaisee": 5602,
      "Ġkusimama": 5603,
      "Ġtawi": 5604,
      "Ġlike": 5605,
      "que": 5606,
      "Ġkumalizika": 5607,
      "Ġkuingiza": 5608,
      "Ġkipo": 5609,
      "Ġlisu": 5610,
      "pendeza": 5611,
      "Ġtuji": 5612,
      "Ġuhaba": 5613,
      "rest": 5614,
      "Ġkufuta": 5615,
      "wende": 5616,
      "ĠRwanda": 5617,
      "Ġmauzo": 5618,
      "pua": 5619,
      "Ġnor": 5620,
      "rida": 5621,
      "Habari": 5622,
      "Ġhadhara": 5623,
      "50": 5624,
      "ĠIringa": 5625,
      "Ġkumpongeza": 5626,
      "Ġkusafiri": 5627,
      "gereza": 5628,
      "Ġkuiba": 5629,
      "Ġngono": 5630,
      "Ġwanatakiwa": 5631,
      "Ġwanaishi": 5632,
      "bri": 5633,
      "ĠUfaransa": 5634,
      "Ġkufungwa": 5635,
      "versi": 5636,
      "ER": 5637,
      "TU": 5638,
      "Ġangalia": 5639,
      "ksi": 5640,
      "Ġkutwa": 5641,
      "huu": 5642,
      "Ġamesha": 5643,
      "Ġfanya": 5644,
      "toro": 5645,
      "Ġwapya": 5646,
      "Ġkutenda": 5647,
      "vamizi": 5648,
      "kteta": 5649,
      "Ġyamekuwa": 5650,
      "ndaoni": 5651,
      "samehe": 5652,
      "ĠYo": 5653,
      "Ġkufikiri": 5654,
      "ĠHabari": 5655,
      "riakoo": 5656,
      "nyima": 5657,
      "aaaa": 5658,
      "Ġunited": 5659,
      "mt": 5660,
      "sitiza": 5661,
      "pigaji": 5662,
      "dharau": 5663,
      "tishia": 5664,
      "nikizo": 5665,
      "mbuka": 5666,
      "ĠHakimu": 5667,
      "Ġbiblia": 5668,
      "ĠJulai": 5669,
      "Ġdrc": 5670,
      "Ġcdm": 5671,
      "RC": 5672,
      "Ġale": 5673,
      "ngeweza": 5674,
      "Ġmwekezaji": 5675,
      "mfano": 5676,
      "Ġukombozi": 5677,
      "bainika": 5678,
      "cs": 5679,
      "shikilia": 5680,
      "ker": 5681,
      "Ġaya": 5682,
      "gara": 5683,
      "ĠFAT": 5684,
      "Ġshambani": 5685,
      "Ġnashukuru": 5686,
      "ned": 5687,
      "baba": 5688,
      "Ġmtuhumiwa": 5689,
      "iii": 5690,
      "Ġcountry": 5691,
      "Ġkudu": 5692,
      "Ġviki": 5693,
      "Ġuone": 5694,
      "Ġfupi": 5695,
      "rick": 5696,
      "Ġudini": 5697,
      "Ġsup": 5698,
      "ĠUshirika": 5699,
      "pania": 5700,
      "Ġtupo": 5701,
      "iso": 5702,
      "Ġubinafsi": 5703,
      "miri": 5704,
      "Ġanacho": 5705,
      "Ġyakini": 5706,
      "Ndi": 5707,
      "Ġkuhudhuria": 5708,
      "Ġwanatu": 5709,
      "Ġalhamisi": 5710,
      "ap": 5711,
      "Ġvipengele": 5712,
      "Ġlkn": 5713,
      "Ġchange": 5714,
      "jiandaa": 5715,
      "Ġmwema": 5716,
      "Ġnisi": 5717,
      "shid": 5718,
      "Ġnational": 5719,
      "mbufu": 5720,
      "ĠIn": 5721,
      "wia": 5722,
      "Ġkulala": 5723,
      "dhirifu": 5724,
      "Ġkilio": 5725,
      "mboa": 5726,
      "Ġnakala": 5727,
      "Ġchaguzi": 5728,
      "Akasema": 5729,
      "mishna": 5730,
      "ĠAprili": 5731,
      "ded": 5732,
      "Ġkufi": 5733,
      "Ġakia": 5734,
      "Ġzitto": 5735,
      "Ġcompa": 5736,
      "bamu": 5737,
      "ngamizi": 5738,
      "Ġkuibu": 5739,
      "Ġtozo": 5740,
      "ĠKilimanjaro": 5741,
      "Ġalikua": 5742,
      "Ġlinaweza": 5743,
      "fuatazo": 5744,
      "muona": 5745,
      "somaji": 5746,
      "ctions": 5747,
      "Ġea": 5748,
      "ĠKati": 5749,
      "Ġinatakiwa": 5750,
      "Ġunaona": 5751,
      "Ġhayana": 5752,
      "Ġkadri": 5753,
      "Ho": 5754,
      "tal": 5755,
      "Ġmboga": 5756,
      "ĠJiji": 5757,
      "Ġniko": 5758,
      "vilevile": 5759,
      "Ġmtihani": 5760,
      "rona": 5761,
      "Ġkujitokeza": 5762,
      "Ġukili": 5763,
      "Ġwanau": 5764,
      "gis": 5765,
      "ĠKristo": 5766,
      "gn": 5767,
      "Ġwapata": 5768,
      "jea": 5769,
      "Ġkufanywa": 5770,
      "Ġnafsi": 5771,
      "zalishwa": 5772,
      "zma": 5773,
      "ĠNe": 5774,
      "GA": 5775,
      "Ġushawishi": 5776,
      "Ġkutembelea": 5777,
      "jimenti": 5778,
      "Ġmzazi": 5779,
      "ĠMala": 5780,
      "Ġkasoro": 5781,
      "Ġmedia": 5782,
      "ĠMita": 5783,
      "Ġhome": 5784,
      "ĠHaki": 5785,
      "dirio": 5786,
      "GO": 5787,
      "Ġkuchukuliwa": 5788,
      "Ġkiserikali": 5789,
      "Ġnafaka": 5790,
      "Ġmadiwani": 5791,
      "Ġaliongeza": 5792,
      "shio": 5793,
      "Ġtulivyo": 5794,
      "Ġkuingilia": 5795,
      "mple": 5796,
      "Ġkupelekwa": 5797,
      "Ġwahamiaji": 5798,
      "Ġzana": 5799,
      "Ġradhi": 5800,
      "baraza": 5801,
      "ĠMjini": 5802,
      "Ġchato": 5803,
      "ogopa": 5804,
      "iki": 5805,
      "mizwa": 5806,
      "budu": 5807,
      "Ġkidato": 5808,
      "Ġbunduki": 5809,
      "kusudi": 5810,
      "mbue": 5811,
      "Ġufalme": 5812,
      "clu": 5813,
      "Ġlikiwa": 5814,
      "maarufu": 5815,
      "Ġpindi": 5816,
      "Ġday": 5817,
      "Ġmtaani": 5818,
      "Ġmamilioni": 5819,
      "Ġprodu": 5820,
      "tumike": 5821,
      "sso": 5822,
      "CHA": 5823,
      "thibitishwa": 5824,
      "Ġen": 5825,
      "cess": 5826,
      "Ġumbali": 5827,
      "lei": 5828,
      "Ġndicho": 5829,
      "simamiwa": 5830,
      "lar": 5831,
      "Ġtupu": 5832,
      "Ġhaiwezekani": 5833,
      "ĠStars": 5834,
      "MO": 5835,
      "Ġwanapaswa": 5836,
      "car": 5837,
      "halifu": 5838,
      "jiunga": 5839,
      "ĠKazi": 5840,
      "ous": 5841,
      "Ġnaweza": 5842,
      "ĠJijini": 5843,
      "Ġghasia": 5844,
      "Ġmachozi": 5845,
      "kusanyaji": 5846,
      "Ġhajui": 5847,
      "nukuu": 5848,
      "Hapa": 5849,
      "Ġpage": 5850,
      "Ġugo": 5851,
      "Ġserious": 5852,
      "Ġrekodi": 5853,
      "chie": 5854,
      "Ġkuajiri": 5855,
      "Ġtunaomba": 5856,
      "siness": 5857,
      "Ġsitta": 5858,
      "Ġvipindi": 5859,
      "Ġlote": 5860,
      "Ġimetoa": 5861,
      "Ġwazanzibari": 5862,
      "NAIBU": 5863,
      "Za": 5864,
      "romo": 5865,
      "Ġakaunti": 5866,
      "Ġecono": 5867,
      "Ġway": 5868,
      "tayari": 5869,
      "Ġnzito": 5870,
      "mpu": 5871,
      "ghanistan": 5872,
      "gal": 5873,
      "Ġothers": 5874,
      "malizia": 5875,
      "Ġmlima": 5876,
      "Ġovyo": 5877,
      "RO": 5878,
      "Ġ29": 5879,
      "Ġzilizokuwa": 5880,
      "cco": 5881,
      "sua": 5882,
      "Ġbeen": 5883,
      "ndeleo": 5884,
      "Ġekari": 5885,
      "ĠYu": 5886,
      "Ġupuuzi": 5887,
      "tuni": 5888,
      "Ġuana": 5889,
      "Ġshinyanga": 5890,
      "ĠShinyanga": 5891,
      "sumbua": 5892,
      "Ġnacho": 5893,
      "ngilia": 5894,
      "Ġimeanza": 5895,
      "palestina": 5896,
      "rajio": 5897,
      "Ġnawe": 5898,
      "ties": 5899,
      "Ġnim": 5900,
      "Ġima": 5901,
      "ĠMkataba": 5902,
      "Ġkuwafanya": 5903,
      "Ġwaendelee": 5904,
      "ramia": 5905,
      "ject": 5906,
      "Ġkujitegemea": 5907,
      "Ġukame": 5908,
      "24": 5909,
      "keni": 5910,
      "geuza": 5911,
      "rau": 5912,
      "Ġjumu": 5913,
      "Ġfar": 5914,
      "Ġanau": 5915,
      "Ġvifaranga": 5916,
      "Ġakiba": 5917,
      "Ġwema": 5918,
      "Ġliwe": 5919,
      "Ġmshitakiwa": 5920,
      "hh": 5921,
      "Ġzabuni": 5922,
      "ĠDesemba": 5923,
      "Ġheka": 5924,
      "EC": 5925,
      "Vile": 5926,
      "Ġmfanyabiashara": 5927,
      "Ġmijini": 5928,
      "ura": 5929,
      "Ġkompyuta": 5930,
      "nds": 5931,
      "Ġkuwapo": 5932,
      "Ġmtoa": 5933,
      "paganda": 5934,
      "Ġchako": 5935,
      "âĢ¦âĢ¦âĢ¦âĢ¦": 5936,
      "Ġredio": 5937,
      "She": 5938,
      "dhuri": 5939,
      "Ġkuharibu": 5940,
      "Ġwameanza": 5941,
      "Ġoffi": 5942,
      "Ġnyota": 5943,
      "Ġzifuatazo": 5944,
      "Ġvitisho": 5945,
      "ema": 5946,
      "Ġtulipo": 5947,
      "Ġkilometa": 5948,
      "Ġel": 5949,
      "Ġnguru": 5950,
      "Ġweka": 5951,
      "Ġboda": 5952,
      "danganyifu": 5953,
      "Ġbri": 5954,
      "Ġwafungwa": 5955,
      "Ġvifungu": 5956,
      "pima": 5957,
      "keza": 5958,
      "hutubia": 5959,
      "Ġkihistoria": 5960,
      "Ġvizazi": 5961,
      "ice": 5962,
      "Ġkha": 5963,
      "Ġkuhusika": 5964,
      "Ġnipo": 5965,
      "Ye": 5966,
      "Ġtahadhari": 5967,
      "Ġurahisi": 5968,
      "Ġamei": 5969,
      "stro": 5970,
      "Ġmteja": 5971,
      "Ġmgao": 5972,
      "Ġwanakuwa": 5973,
      "Ġsidhani": 5974,
      "Ġimewa": 5975,
      "Ġratiba": 5976,
      "Ġpointi": 5977,
      "Ġpembejeo": 5978,
      "Ġwawa": 5979,
      "Ġbashi": 5980,
      "Ġkwahiyo": 5981,
      "thing": 5982,
      "nto": 5983,
      "Ġkumiliki": 5984,
      "Ġazi": 5985,
      "Ġkipya": 5986,
      "Ġwaafrika": 5987,
      "Ġpato": 5988,
      "Ġujue": 5989,
      "Ġajenda": 5990,
      "funze": 5991,
      "Ġviji": 5992,
      "Ġwanaotaka": 5993,
      "ĠTabora": 5994,
      "ĠKaskazini": 5995,
      "Ġusamba": 5996,
      "wanga": 5997,
      "Ġvisiwa": 5998,
      "sk": 5999,
      "Uta": 6000,
      "Ġhaswa": 6001,
      "dari": 6002,
      "Ġmgomo": 6003,
      "Ġdira": 6004,
      "ĠKA": 6005,
      "Ġupelelezi": 6006,
      "Ġ196": 6007,
      "Ġkubeba": 6008,
      "td": 6009,
      "nufaisha": 6010,
      "Ġmavuno": 6011,
      "ndugu": 6012,
      "Kicheko": 6013,
      "urce": 6014,
      "Ġmagereza": 6015,
      "Ġhongera": 6016,
      "inea": 6017,
      "vel": 6018,
      "Ġkukuba": 6019,
      "enzi": 6020,
      "jadala": 6021,
      "Ġalisha": 6022,
      "Ġkombe": 6023,
      "dadi": 6024,
      "Ġil": 6025,
      "Ġkutaja": 6026,
      "spe": 6027,
      "Ġally": 6028,
      "ĠSP": 6029,
      "Ġmaabara": 6030,
      "Ġkiislamu": 6031,
      "tili": 6032,
      "safa": 6033,
      "Ġkujitoa": 6034,
      "chelewe": 6035,
      "ffi": 6036,
      "Ġtafadhali": 6037,
      "Ġamerika": 6038,
      "Ġlimekuwa": 6039,
      "wekewa": 6040,
      "Ġmateso": 6041,
      "ĠâĢĵ": 6042,
      "Ġkiroho": 6043,
      "nday": 6044,
      "Ġziwe": 6045,
      "Ġspi": 6046,
      "ler": 6047,
      "Ġyani": 6048,
      "Ġiliyoko": 6049,
      "shed": 6050,
      "Ġkutekelezwa": 6051,
      "HU": 6052,
      "Ġdhaifu": 6053,
      "Ġfasihi": 6054,
      "Ġnyeti": 6055,
      "Ġ60": 6056,
      "fuatiliaji": 6057,
      "Ġmadhumuni": 6058,
      "Ġmsikiti": 6059,
      "Ġkiwanja": 6060,
      "Ġwanaona": 6061,
      "Ġcorona": 6062,
      "Ġuhalali": 6063,
      "Ġmgumu": 6064,
      "sis": 6065,
      "Ġed": 6066,
      "dhihirisha": 6067,
      "Ġyatakuwa": 6068,
      "Ġaliuliza": 6069,
      "Ġsere": 6070,
      "baadhi": 6071,
      "cheka": 6072,
      "CR": 6073,
      "DC": 6074,
      "ĠSeptemba": 6075,
      "pigana": 6076,
      "ngano": 6077,
      "Ġkuitwa": 6078,
      "ctoria": 6079,
      "kidhi": 6080,
      "ĠKituo": 6081,
      "kwamba": 6082,
      "ffe": 6083,
      "Ġagizo": 6084,
      "Ġtrans": 6085,
      "bruari": 6086,
      "rancis": 6087,
      "Ġdaima": 6088,
      "mail": 6089,
      "Ġmatajiri": 6090,
      "tunza": 6091,
      "Ġkuathiri": 6092,
      "Ġgre": 6093,
      "sajiliwa": 6094,
      "vuka": 6095,
      "Ġtangazo": 6096,
      "Siku": 6097,
      "Ġkugawa": 6098,
      "Ġukoo": 6099,
      "Ġpata": 6100,
      "husishwa": 6101,
      "Ġhujui": 6102,
      "Ġbaraka": 6103,
      "Ġkukose": 6104,
      "Ġapp": 6105,
      "Ġkuunganisha": 6106,
      "Ġwatumiaji": 6107,
      "21": 6108,
      "Ġzipi": 6109,
      "Ġyaliyokuwa": 6110,
      "Ġkuungana": 6111,
      "buti": 6112,
      "Ġakamwambia": 6113,
      "saidiwa": 6114,
      "nunuliwa": 6115,
      "Ġnasi": 6116,
      "bibu": 6117,
      "Ġtakribani": 6118,
      "Ġfirst": 6119,
      "Mwana": 6120,
      "tiki": 6121,
      "Ġsystem": 6122,
      "Ġvichwa": 6123,
      "Ġy": 6124,
      "Ġlaw": 6125,
      "Ġkusitisha": 6126,
      "ĠOktoba": 6127,
      "Ġalso": 6128,
      "hogo": 6129,
      "Ġnow": 6130,
      "timiza": 6131,
      "Ġalieleza": 6132,
      "Ġujasiri": 6133,
      "shambuliwa": 6134,
      "bility": 6135,
      "versity": 6136,
      "Ġwangapi": 6137,
      "Ġkitakacho": 6138,
      "Ġalitaka": 6139,
      "qua": 6140,
      "Ġhayu": 6141,
      "yuo": 6142,
      "ĠAu": 6143,
      "Ġkupigania": 6144,
      "Ġkuchanga": 6145,
      "Kila": 6146,
      "buru": 6147,
      "Ġwaliwa": 6148,
      "cie": 6149,
      "Ġmakanisa": 6150,
      "Ġher": 6151,
      "Ġeu": 6152,
      "Ġeast": 6153,
      "faulu": 6154,
      "Ġnguzo": 6155,
      "ime": 6156,
      "Ġkuzidi": 6157,
      "ĠGeorge": 6158,
      "Bi": 6159,
      "very": 6160,
      "mir": 6161,
      "Ġwashington": 6162,
      "nani": 6163,
      "Ġhayaja": 6164,
      "Ġmashabiki": 6165,
      "Ġgeita": 6166,
      "pho": 6167,
      "Ġhim": 6168,
      "Ġwatalii": 6169,
      "Ġalafu": 6170,
      "Ġlawama": 6171,
      "Kuhusu": 6172,
      "Ġvisiwani": 6173,
      "Ġyakinifu": 6174,
      "Bwana": 6175,
      "mpi": 6176,
      "nuary": 6177,
      "busu": 6178,
      "ĠBiashara": 6179,
      "Ġmalaria": 6180,
      "mshi": 6181,
      "tena": 6182,
      "ncy": 6183,
      "ory": 6184,
      "Ġkuondolewa": 6185,
      "cul": 6186,
      "Ġaliko": 6187,
      "zingatiwa": 6188,
      "uma": 6189,
      "Ġmwenda": 6190,
      "Ġuturuki": 6191,
      "kwanza": 6192,
      "Ġnauli": 6193,
      "Ġmwakani": 6194,
      "Ġmatarajio": 6195,
      "Ġkutunza": 6196,
      "lana": 6197,
      "hsante": 6198,
      "Ġking": 6199,
      "Ġubadhirifu": 6200,
      "Ġwanyonge": 6201,
      "msha": 6202,
      "Ġalilo": 6203,
      "Ġulimwenguni": 6204,
      "________________________________": 6205,
      "Ġissue": 6206,
      "Ġukatili": 6207,
      "tunga": 6208,
      "reat": 6209,
      "Ġkumekuwa": 6210,
      "Ġala": 6211,
      "Ġunasema": 6212,
      "Ġwameji": 6213,
      "Ġzilizopita": 6214,
      "Ġwastaafu": 6215,
      "Ġkusubiri": 6216,
      "tofautiana": 6217,
      "dii": 6218,
      "mond": 6219,
      "Ġkibo": 6220,
      "thubutu": 6221,
      "liane": 6222,
      "Ġmtakatifu": 6223,
      "sikitisha": 6224,
      "Ġwanahitaji": 6225,
      "Ġmafao": 6226,
      "jan": 6227,
      "ĠArdhi": 6228,
      "ndwe": 6229,
      "Ġchote": 6230,
      "Ġhalina": 6231,
      "kanda": 6232,
      "Ġuliokuwa": 6233,
      "jamii": 6234,
      "row": 6235,
      "Ġuovu": 6236,
      "Ġinternational": 6237,
      "Ġasema": 6238,
      "ngulizi": 6239,
      "Ġunakuwa": 6240,
      "dola": 6241,
      "ĠTukufu": 6242,
      "Ġkristo": 6243,
      "ndishwa": 6244,
      "dharia": 6245,
      "Ġfre": 6246,
      "Ġparty": 6247,
      "Ġkuhoji": 6248,
      "liwahi": 6249,
      "Ġanai": 6250,
      "Ġmawakili": 6251,
      "2006": 6252,
      "Ġpropaganda": 6253,
      "kemea": 6254,
      "ĠZiwa": 6255,
      "Ġkash": 6256,
      "uria": 6257,
      "Ġmasaa": 6258,
      "nuel": 6259,
      "Ġpolitical": 6260,
      "ming": 6261,
      "PA": 6262,
      "rma": 6263,
      "Ġlema": 6264,
      "ĠBaba": 6265,
      "Ġwafadhili": 6266,
      "kiuka": 6267,
      "zini": 6268,
      "Ġwapatao": 6269,
      "funzo": 6270,
      "Ġvipo": 6271,
      "Ġtehama": 6272,
      "Ġwhen": 6273,
      "Ġshinikizo": 6274,
      "israeli": 6275,
      "Ġwasha": 6276,
      "okoa": 6277,
      "ĠThe": 6278,
      "Ġkukidhi": 6279,
      "Ġupembuzi": 6280,
      "hoo": 6281,
      "Ġtukiwa": 6282,
      "Ġngoma": 6283,
      "Ġbank": 6284,
      "ĠRama": 6285,
      "Ġupigaji": 6286,
      "ĠMpango": 6287,
      "elea": 6288,
      "Ġtrilioni": 6289,
      "Ġrobo": 6290,
      "Ġkufanyia": 6291,
      "Ġduka": 6292,
      "Ġlitakuwa": 6293,
      "misi": 6294,
      "Ġkutawala": 6295,
      "dhui": 6296,
      "................................................................": 6297,
      "Ġtokea": 6298,
      "alikuwa": 6299,
      "ĠCom": 6300,
      "dre": 6301,
      "Ġkumua": 6302,
      "Ġkumsaidia": 6303,
      "fukuzwa": 6304,
      "ĠMitaa": 6305,
      "fisha": 6306,
      "kusudiwa": 6307,
      "Ġkushuka": 6308,
      "ĠSekta": 6309,
      "endana": 6310,
      "Ġuadilifu": 6311,
      "Ġwapiganaji": 6312,
      "Ġmle": 6313,
      "Ġbil": 6314,
      "Ġmaswa": 6315,
      "Ġakiwemo": 6316,
      "Ġudanganyifu": 6317,
      "Ġmie": 6318,
      "chua": 6319,
      "Ġraha": 6320,
      "liongeza": 6321,
      "sturi": 6322,
      "pri": 6323,
      "Ġmisu": 6324,
      "Ġshahada": 6325,
      "ports": 6326,
      "Ġkifungo": 6327,
      "Ġmsha": 6328,
      "Ġunafiki": 6329,
      "Ġatakapo": 6330,
      "Ġwamiliki": 6331,
      "vutia": 6332,
      "Ġmafuriko": 6333,
      "hema": 6334,
      "Ġtake": 6335,
      "Ġtunahitaji": 6336,
      "Ġnjiani": 6337,
      "tin": 6338,
      "Ġiran": 6339,
      "Ġutumwa": 6340,
      "ledi": 6341,
      "Ġlishe": 6342,
      "mbora": 6343,
      "ĠWatu": 6344,
      "Ġkurudisha": 6345,
      "Mungu": 6346,
      "ssan": 6347,
      "Ġtupate": 6348,
      "Ġservi": 6349,
      "DP": 6350,
      "cted": 6351,
      "mtaka": 6352,
      "nding": 6353,
      "rodhe": 6354,
      "Ġresul": 6355,
      "fore": 6356,
      "Ġthread": 6357,
      "kuhusu": 6358,
      "Ġkufundisha": 6359,
      "cta": 6360,
      "Ġia": 6361,
      "bile": 6362,
      "Ġdevelopment": 6363,
      "furahia": 6364,
      "Ġkuvuna": 6365,
      "phi": 6366,
      "Ġmfanyakazi": 6367,
      "shea": 6368,
      "bama": 6369,
      "Ġzu": 6370,
      "ishu": 6371,
      "Ġmember": 6372,
      "Ġwould": 6373,
      "Sisi": 6374,
      "Ġanakuwa": 6375,
      "kutokana": 6376,
      "pori": 6377,
      "Ġnjombe": 6378,
      "Ġwaende": 6379,
      "Ġwee": 6380,
      "Ġvikali": 6381,
      "Ġkupungua": 6382,
      "Ġjangwa": 6383,
      "Ġblo": 6384,
      "Hatua": 6385,
      "nea": 6386,
      "paka": 6387,
      "muziki": 6388,
      "kumbwa": 6389,
      "pamba": 6390,
      "Ġviumbe": 6391,
      "Ġmlio": 6392,
      "Ġriba": 6393,
      "lalamikia": 6394,
      "Ġgerezani": 6395,
      "Ġmsaidizi": 6396,
      "Ġconstitu": 6397,
      "ctive": 6398,
      "Ġmwo": 6399,
      "Ġkuelezea": 6400,
      "Ġufi": 6401,
      "Ġwanaoji": 6402,
      "FU": 6403,
      "Ġkurejesha": 6404,
      "Ġasasi": 6405,
      "Ġmina": 6406,
      "rent": 6407,
      "Ġukuta": 6408,
      "Ġusanifu": 6409,
      "Ġiv": 6410,
      "Ġph": 6411,
      "Ġasia": 6412,
      "basi": 6413,
      "rusalemu": 6414,
      "Ġlisilo": 6415,
      "RIKA": 6416,
      "Ġmgawa": 6417,
      "teni": 6418,
      "ĠMbo": 6419,
      "Ġdisemba": 6420,
      "Ġzilizotolewa": 6421,
      "Ġkupatiwa": 6422,
      "Ġupendeleo": 6423,
      "Ġcent": 6424,
      "Ġkunyo": 6425,
      "Ġumaarufu": 6426,
      "Ġuliofanywa": 6427,
      "Ġusambazaji": 6428,
      "Ġwalianza": 6429,
      "Ġshambulio": 6430,
      "ingida": 6431,
      "Ġkuwataka": 6432,
      "Ġndizo": 6433,
      "bungo": 6434,
      "ĠMko": 6435,
      "Ġvite": 6436,
      "Ya": 6437,
      "sy": 6438,
      "hubiri": 6439,
      "hisisha": 6440,
      "Ġilianza": 6441,
      "zua": 6442,
      "Ġnda": 6443,
      "raji": 6444,
      "ĠFebruari": 6445,
      "Ġmajo": 6446,
      "rembo": 6447,
      "Ġkaratasi": 6448,
      "rry": 6449,
      "ĠKanuni": 6450,
      "Ġwazima": 6451,
      "kasi": 6452,
      "geu": 6453,
      "hilingi": 6454,
      "DO": 6455,
      "Ġkibinadamu": 6456,
      "mumba": 6457,
      "Ġmwenyezi": 6458,
      "shughulikiwa": 6459,
      "Ġubunifu": 6460,
      "Ġkada": 6461,
      "ĠMW": 6462,
      "Ġmal": 6463,
      "mited": 6464,
      "Ġbidii": 6465,
      "hakikishe": 6466,
      "Ġmzunguko": 6467,
      "Ġaliwataka": 6468,
      "Ġhio": 6469,
      "Ġzambia": 6470,
      "horo": 6471,
      "ngola": 6472,
      "ĠKombe": 6473,
      "Ġwalifanya": 6474,
      "ĠIsraeli": 6475,
      "nipa": 6476,
      "Ġitawa": 6477,
      "Ġwapewe": 6478,
      "Ġdala": 6479,
      "ĠPemba": 6480,
      "Hili": 6481,
      "elekezwa": 6482,
      "shusha": 6483,
      "Ġyears": 6484,
      "Ġukusanyaji": 6485,
      "tuhumiwa": 6486,
      "seka": 6487,
      "Ġumakini": 6488,
      "ing": 6489,
      "Ġanatakiwa": 6490,
      "ĠWalimu": 6491,
      "ĠNovemba": 6492,
      "wame": 6493,
      "Ġgod": 6494,
      "Ġmashuhuri": 6495,
      "Nchi": 6496,
      "klia": 6497,
      "Ġmaaskofu": 6498,
      "Ġhamsini": 6499,
      "Ġmantiki": 6500,
      "via": 6501,
      "Ġtiketi": 6502,
      "Ġshambulizi": 6503,
      "Ġbaharini": 6504,
      "Ġagain": 6505,
      "YE": 6506,
      "rum": 6507,
      "ndikisha": 6508,
      "skari": 6509,
      "mala": 6510,
      "kwamisha": 6511,
      "mbukizwa": 6512,
      "gle": 6513,
      "Po": 6514,
      "ĠUmma": 6515,
      "eneza": 6516,
      "aluma": 6517,
      "Ġkugo": 6518,
      "Ġ2001": 6519,
      "Ġroma": 6520,
      "Ġmzalendo": 6521,
      "Ġkigaidi": 6522,
      "cri": 6523,
      "Ġshujaa": 6524,
      "Ġbusiness": 6525,
      "Ġalbamu": 6526,
      "ĠBibi": 6527,
      "Ġmsichana": 6528,
      "Ġjicho": 6529,
      "KO": 6530,
      "Ġmgongo": 6531,
      "wapongeza": 6532,
      "Ġsokoni": 6533,
      "Ġzitakuwa": 6534,
      "Ġwatumwa": 6535,
      "thini": 6536,
      "Ġwazuri": 6537,
      "yafanya": 6538,
      "shauriwa": 6539,
      "Ġuw": 6540,
      "Ġafter": 6541,
      "vazi": 6542,
      "takalo": 6543,
      "ĠBasi": 6544,
      "gizaji": 6545,
      "siliana": 6546,
      "Ġkusafirisha": 6547,
      "dhimisho": 6548,
      "Ġwakam": 6549,
      "nikiza": 6550,
      "Li": 6551,
      "rg": 6552,
      "Ġusing": 6553,
      "Ġkifua": 6554,
      "Ġtech": 6555,
      "simamishwa": 6556,
      "Ġkufikiria": 6557,
      "taarifa": 6558,
      "Ġinapaswa": 6559,
      "ĠKilo": 6560,
      "Ġmahabusu": 6561,
      "singizio": 6562,
      "Ġkuratibu": 6563,
      "achwa": 6564,
      "yeye": 6565,
      "Ġhigh": 6566,
      "Ġzahanati": 6567,
      "Ġsiwezi": 6568,
      "ĠKiislamu": 6569,
      "Ġdesturi": 6570,
      "Ġnakushukuru": 6571,
      "ĠSaid": 6572,
      "Ġkuundwa": 6573,
      "ĠMakuu": 6574,
      "kwaani": 6575,
      "Ġcovid": 6576,
      "Ġukilinganisha": 6577,
      "pg": 6578,
      "tukana": 6579,
      "Ġkupanua": 6580,
      "wele": 6581,
      "Ġuwanjani": 6582,
      "mambo": 6583,
      "ĠMatumizi": 6584,
      "Ġkadha": 6585,
      "Ġtari": 6586,
      "shwaji": 6587,
      "ĠKanda": 6588,
      "Kazi": 6589,
      "Ġ35": 6590,
      "Ġpublic": 6591,
      "Ġtuendelee": 6592,
      "hariri": 6593,
      "tungwa": 6594,
      "Ġwalinzi": 6595,
      "Ġkiraia": 6596,
      "'.": 6597,
      "Ġgeneral": 6598,
      "Ġkushoto": 6599,
      "Ġdhu": 6600,
      "Ġugomvi": 6601,
      "umu": 6602,
      "iona": 6603,
      "mhe": 6604,
      "hisho": 6605,
      "kosi": 6606,
      "lipi": 6607,
      "bebe": 6608,
      "Mara": 6609,
      "Ġkigezo": 6610,
      "Ġthan": 6611,
      "Ġuanga": 6612,
      "Ġkutia": 6613,
      "ĠBalozi": 6614,
      "julikani": 6615,
      "kuzwa": 6616,
      "pindi": 6617,
      "ndamizi": 6618,
      "Ġbbc": 6619,
      "mbui": 6620,
      "Ġmwigulu": 6621,
      "Ġrufani": 6622,
      "Ġmwakilishi": 6623,
      "Ġwalicho": 6624,
      "Ġkondoo": 6625,
      "kistan": 6626,
      "Ġny": 6627,
      "umiza": 6628,
      "TC": 6629,
      "logy": 6630,
      "ĠSingida": 6631,
      "kinga": 6632,
      "Ġnimea": 6633,
      "ĠJoseph": 6634,
      "iambia": 6635,
      "Ġvipande": 6636,
      "Ġnguruwe": 6637,
      "gar": 6638,
      "Mwaka": 6639,
      "Ġyawe": 6640,
      "Ġmsajili": 6641,
      "Ġvyeti": 6642,
      "Ġstar": 6643,
      "ĠTemeke": 6644,
      "ngoji": 6645,
      "Mwi": 6646,
      "shangaza": 6647,
      "Ġcli": 6648,
      "Ġluku": 6649,
      "ĠLindi": 6650,
      "Ġdon": 6651,
      "Ġsouth": 6652,
      "viongozi": 6653,
      "giriki": 6654,
      "Ġpepo": 6655,
      "Ġweusi": 6656,
      "Ġlife": 6657,
      "ombea": 6658,
      "Ġuti": 6659,
      "futwa": 6660,
      "Ġtafiti": 6661,
      "ders": 6662,
      "Ġmadhubuti": 6663,
      "Ġyakiwa": 6664,
      "Ġuzinduzi": 6665,
      "ĠTANESCO": 6666,
      "Ġmlo": 6667,
      "wamu": 6668,
      "tuta": 6669,
      "Ġkashfa": 6670,
      "Ġkusudi": 6671,
      "meza": 6672,
      "ngie": 6673,
      "Ġkujiuzulu": 6674,
      "Ġyaliyopo": 6675,
      "Ġchumvi": 6676,
      "ĠBurundi": 6677,
      "pla": 6678,
      "Ġaku": 6679,
      "Ġmahala": 6680,
      "Ġjedwali": 6681,
      "Ġapate": 6682,
      "bas": 6683,
      "kadiriwa": 6684,
      "Ġkusisitiza": 6685,
      "vuta": 6686,
      "Ġkuwania": 6687,
      "Ġinatokana": 6688,
      "Ġplea": 6689,
      "WAZIRI": 6690,
      "Ġuvi": 6691,
      "Ġmah": 6692,
      "kabidhiwa": 6693,
      "Ġmeno": 6694,
      "ĠMoshi": 6695,
      "Ġmioyo": 6696,
      "Ġinataka": 6697,
      "ĠIndia": 6698,
      "ĠKifungu": 6699,
      "Ġkulipia": 6700,
      "siwa": 6701,
      "Ġmchanganyiko": 6702,
      "Ġmjinga": 6703,
      "shie": 6704,
      "ĠAgosti": 6705,
      "kwambia": 6706,
      "tre": 6707,
      "Ġwakisema": 6708,
      "Ġcode": 6709,
      "lazimishwa": 6710,
      "Ġpemba": 6711,
      "Ġviungo": 6712,
      "Ġiendelee": 6713,
      "Ġutaona": 6714,
      "Ġkuokoa": 6715,
      "ĠZimbabwe": 6716,
      "ruma": 6717,
      "Ġunaji": 6718,
      "Nime": 6719,
      "ĠKambi": 6720,
      "Ġuwiano": 6721,
      "Ġakitoa": 6722,
      "ĠNdugu": 6723,
      "Ġwahuni": 6724,
      "masi": 6725,
      "Ġkaya": 6726,
      "fra": 6727,
      "Ġutawa": 6728,
      "Ġpoint": 6729,
      "Ġjust": 6730,
      "Ġutakapo": 6731,
      "Ġaende": 6732,
      "rial": 6733,
      "Ġtovuti": 6734,
      "Hakuna": 6735,
      "Ġnimeona": 6736,
      "ipata": 6737,
      "rit": 6738,
      "Ġutapata": 6739,
      "feli": 6740,
      "Ġuandishi": 6741,
      "lation": 6742,
      "Ġiwa": 6743,
      "ĠShilingi": 6744,
      "Ġmaadhimisho": 6745,
      "Ġwahi": 6746,
      "Ġkutumiwa": 6747,
      "Ġvipimo": 6748,
      "Ġnyanja": 6749,
      "hirishwa": 6750,
      "kosoa": 6751,
      "alim": 6752,
      "Ġtunajua": 6753,
      "ĠPwani": 6754,
      "Ġunion": 6755,
      "ĠUlinzi": 6756,
      "Ġkuzaa": 6757,
      "mbaku": 6758,
      "fanyakazi": 6759,
      "ĠAka": 6760,
      "uzia": 6761,
      "Ġpaul": 6762,
      "nywaji": 6763,
      "Ġpendekezo": 6764,
      "vuna": 6765,
      "Ġbig": 6766,
      "Ġkona": 6767,
      "Ġtufanye": 6768,
      "LP": 6769,
      "Ġmachafuko": 6770,
      "Ġkung": 6771,
      "por": 6772,
      "ĠSte": 6773,
      "Ġkorea": 6774,
      "Ġjema": 6775,
      "Ġubongo": 6776,
      "Ġsivyo": 6777,
      "ingilia": 6778,
      "tural": 6779,
      "Ġlaana": 6780,
      "rufi": 6781,
      "kre": 6782,
      "ĠLigi": 6783,
      "her": 6784,
      "Ġchangu": 6785,
      "rac": 6786,
      "Ġkukopa": 6787,
      "ĠSE": 6788,
      "ĠVyuo": 6789,
      "alth": 6790,
      "ngoja": 6791,
      "hatarisha": 6792,
      "Ġknow": 6793,
      "hamis": 6794,
      "kanusha": 6795,
      "Ġsame": 6796,
      "Ġyalivyo": 6797,
      "Katibu": 6798,
      "mwita": 6799,
      "Ġfri": 6800,
      "veni": 6801,
      "Ġmb": 6802,
      "mishe": 6803,
      "Ġkusaini": 6804,
      "ngs": 6805,
      "sala": 6806,
      "dhalilisha": 6807,
      "Ġsuluhisho": 6808,
      "Ġkutisha": 6809,
      "ĠSera": 6810,
      "Ġmilima": 6811,
      "Ġsare": 6812,
      "kubaliwa": 6813,
      "Ġ:": 6814,
      "hao": 6815,
      "Ġnta": 6816,
      "Ġshahidi": 6817,
      "ĠMsingi": 6818,
      "Ġlive": 6819,
      "ĠChina": 6820,
      "Ġnjama": 6821,
      "komboa": 6822,
      "pora": 6823,
      "Ġviba": 6824,
      "Ġnyinyi": 6825,
      "Ġstra": 6826,
      "Ġmeza": 6827,
      "Ġkiafrika": 6828,
      "Ġugumu": 6829,
      "laani": 6830,
      "ĠMama": 6831,
      "Ġzinasema": 6832,
      "Ġnd": 6833,
      "tisho": 6834,
      "27": 6835,
      "tan": 6836,
      "kiza": 6837,
      "Ġmaadui": 6838,
      "lumu": 6839,
      "ghts": 6840,
      "Ġide": 6841,
      "less": 6842,
      "Ġbonde": 6843,
      "pesha": 6844,
      "Ġwanaamini": 6845,
      "Ġjmt": 6846,
      "Ġsioni": 6847,
      "Ġinve": 6848,
      "Ġamewataka": 6849,
      "Ke": 6850,
      "Ġbanda": 6851,
      "ĠMzee": 6852,
      "ĠJaka": 6853,
      "Ġwadhifa": 6854,
      "nuo": 6855,
      "mwona": 6856,
      "lishi": 6857,
      "Ġamefanya": 6858,
      "ĠUjenzi": 6859,
      "kamano": 6860,
      "Ġalo": 6861,
      "Ġwanasheria": 6862,
      "imari": 6863,
      "Ġuzembe": 6864,
      "Ġbalaa": 6865,
      "hirika": 6866,
      "bana": 6867,
      "ire": 6868,
      "mamu": 6869,
      "ley": 6870,
      "Ġtas": 6871,
      "Ġkujipatia": 6872,
      "Ġmkwa": 6873,
      "Ġkuinua": 6874,
      "Ġkumbuka": 6875,
      "mpe": 6876,
      "Ġkuchu": 6877,
      "Ġameji": 6878,
      "Ġuhamiaji": 6879,
      "Ġtwo": 6880,
      "amesema": 6881,
      "hifadhiwa": 6882,
      "Ġtreni": 6883,
      "Ġazma": 6884,
      "KT": 6885,
      "katwa": 6886,
      "ukwa": 6887,
      "Ġiii": 6888,
      "lela": 6889,
      "Ġmaovu": 6890,
      "ĠĠčĊ": 6891,
      "rati": 6892,
      "Ġback": 6893,
      "kumbukwe": 6894,
      "nyesho": 6895,
      "Ġjadi": 6896,
      "DU": 6897,
      "Ġvisa": 6898,
      "Ġilitolewa": 6899,
      "liambia": 6900,
      "ĠAbdallah": 6901,
      "somea": 6902,
      "ĠCa": 6903,
      "hangaika": 6904,
      "26": 6905,
      "Ġang": 6906,
      "hukumu": 6907,
      "ĠMtendaji": 6908,
      "Ġtui": 6909,
      "dkt": 6910,
      "hofia": 6911,
      "Ġetc": 6912,
      "Ġaliwaambia": 6913,
      "choro": 6914,
      "boreshaji": 6915,
      "arifu": 6916,
      "28": 6917,
      "ĠQ": 6918,
      "Ġuchimbaji": 6919,
      "ongoni": 6920,
      "humu": 6921,
      "hamishi": 6922,
      "sikika": 6923,
      "robaini": 6924,
      "Kamati": 6925,
      "risho": 6926,
      "Ġkai": 6927,
      "Ġkijinga": 6928,
      "Ġbingwa": 6929,
      "ĠKagera": 6930,
      "RE": 6931,
      "bovu": 6932,
      "Ġnoti": 6933,
      "Ġlililokuwa": 6934,
      "Ġaza": 6935,
      "Ġkivita": 6936,
      "Ġuvamizi": 6937,
      "Ġwanamgambo": 6938,
      "zaidi": 6939,
      "kumbuke": 6940,
      "jadiliwa": 6941,
      "Ġsakata": 6942,
      "Ġhuohuo": 6943,
      "Ġbeca": 6944,
      "Ġhisto": 6945,
      "ĠKinondoni": 6946,
      "Ġneed": 6947,
      "paji": 6948,
      "Mwenyekiti": 6949,
      "Ġhiari": 6950,
      "ĠVijana": 6951,
      "ĠUkimwi": 6952,
      "lazwa": 6953,
      "dra": 6954,
      "walio": 6955,
      "fuate": 6956,
      "tain": 6957,
      "2004": 6958,
      "Ġkuuawa": 6959,
      "Ġwakurugenzi": 6960,
      "Ġmafundisho": 6961,
      "Ġwatakapo": 6962,
      "Ġkadhi": 6963,
      "Ġwameamua": 6964,
      "ndela": 6965,
      "Ġforums": 6966,
      "ab": 6967,
      "Ġbot": 6968,
      "ĠMuhimbili": 6969,
      "Ġkujengwa": 6970,
      "sifu": 6971,
      "ĠMar": 6972,
      "rei": 6973,
      "uaji": 6974,
      "Ġpriva": 6975,
      "Ġsee": 6976,
      "wandani": 6977,
      "ĠMtanzania": 6978,
      "SE": 6979,
      "Ġkubuni": 6980,
      "Ġafanye": 6981,
      "Ġuse": 6982,
      "Ġkutembea": 6983,
      "ĠJumata": 6984,
      "Ġkupigana": 6985,
      "guru": 6986,
      "Ġhususani": 6987,
      "kye": 6988,
      "Ġmaono": 6989,
      "Ġmbao": 6990,
      "Ġkabu": 6991,
      "Ġilim": 6992,
      "Ġshare": 6993,
      "Ġfra": 6994,
      "ĠSheikh": 6995,
      "ĠMkutano": 6996,
      "Ġbagamoyo": 6997,
      "Ġtishio": 6998,
      "elimu": 6999,
      "Ġzama": 7000,
      "Ġkukimbia": 7001,
      "Ġmhusika": 7002,
      "sehemu": 7003,
      "Ġbomba": 7004,
      "Ġmenejimenti": 7005,
      "yaona": 7006,
      "Ġui": 7007,
      "Ġsharti": 7008,
      "tma": 7009,
      "Ġwasaidizi": 7010,
      "Ġshaba": 7011,
      "Ġmkaguzi": 7012,
      "Ġmikoani": 7013,
      "eeee": 7014,
      "mbee": 7015,
      "Ġmalaika": 7016,
      "Ġkizi": 7017,
      "Ġsul": 7018,
      "stru": 7019,
      "sababi": 7020,
      "Ġwhite": 7021,
      "Ġkifa": 7022,
      "Ġjakaya": 7023,
      "Ġmarais": 7024,
      "hudhuri": 7025,
      "chezea": 7026,
      "Ġmoyoni": 7027,
      "mmanuel": 7028,
      "Ġvyumba": 7029,
      "Ġkido": 7030,
      "Ġanapaswa": 7031,
      "ongelea": 7032,
      "rdi": 7033,
      "Ġhataki": 7034,
      "Ġzilivyo": 7035,
      "Ġmaudhui": 7036,
      "Ġsene": 7037,
      "soko": 7038,
      "ĠVijiji": 7039,
      "ping": 7040,
      "Ġmitaji": 7041,
      "Ġbomu": 7042,
      "Ġdemocra": 7043,
      "cus": 7044,
      "Ġjanuary": 7045,
      "and": 7046,
      "Ġhafla": 7047,
      "tekele": 7048,
      "Ġmatawi": 7049,
      "199": 7050,
      "achia": 7051,
      "mzika": 7052,
      "ajili": 7053,
      "zozi": 7054,
      "Ġwanadai": 7055,
      "widhi": 7056,
      "Ġunacho": 7057,
      "Ġmajirani": 7058,
      "Ġ31": 7059,
      "Ġkuvutia": 7060,
      "pwe": 7061,
      "Ġsikukuu": 7062,
      "ĠNje": 7063,
      "pendelea": 7064,
      "liko": 7065,
      "Ġkugha": 7066,
      "Ġusta": 7067,
      "Ġbayana": 7068,
      "ĠMakao": 7069,
      "ĠRA": 7070,
      "Ġhakuta": 7071,
      "Ġinto": 7072,
      "tumu": 7073,
      "Hayo": 7074,
      "ZO": 7075,
      "tusaidia": 7076,
      "Ġaliyoi": 7077,
      "Ġqua": 7078,
      "Ġwanaofanya": 7079,
      "ngilio": 7080,
      "jpg": 7081,
      "lina": 7082,
      "Ġkishi": 7083,
      "dhehebu": 7084,
      "ĠJakaya": 7085,
      "ĠMji": 7086,
      "wengi": 7087,
      "Ġwanadamu": 7088,
      "Ġkujiuliza": 7089,
      "pato": 7090,
      "muru": 7091,
      "ĠMto": 7092,
      "fuati": 7093,
      "Ġroad": 7094,
      "Wizara": 7095,
      "ugh": 7096,
      "ngwana": 7097,
      "gga": 7098,
      "ndon": 7099,
      "Ġukitaka": 7100,
      "hesabiwa": 7101,
      "Ġtwende": 7102,
      "dhan": 7103,
      "Ġbandarini": 7104,
      "Ġmadereva": 7105,
      "Ġmabingwa": 7106,
      "mbura": 7107,
      "shua": 7108,
      "Ġtumekuwa": 7109,
      "waki": 7110,
      "ĠIlala": 7111,
      "forums": 7112,
      "zeni": 7113,
      "Ġbendi": 7114,
      "Ġnews": 7115,
      "ifanyi": 7116,
      "shughulisha": 7117,
      "nth": 7118,
      "Ġkujitolea": 7119,
      "Sha": 7120,
      "zer": 7121,
      "ying": 7122,
      "Ġkusikilizwa": 7123,
      "Ġshould": 7124,
      "Ġgiza": 7125,
      "lled": 7126,
      "keli": 7127,
      "vyote": 7128,
      "Ġakim": 7129,
      "Ġguinea": 7130,
      "nusuru": 7131,
      "zake": 7132,
      "Ġbangi": 7133,
      "ĠGo": 7134,
      "Ġmshikamano": 7135,
      "Ġhow": 7136,
      "Ġtunaona": 7137,
      "Ġmchele": 7138,
      "ĠMisri": 7139,
      "Ġridhaa": 7140,
      "ĠBenjamin": 7141,
      "Ġulia": 7142,
      "Ġlumumba": 7143,
      "Ġnyanya": 7144,
      "Ġname": 7145,
      "Ġusingi": 7146,
      "Ġwakoloni": 7147,
      "Ġzikiwemo": 7148,
      "ota": 7149,
      "Ġwenzi": 7150,
      "sts": 7151,
      "Ġagenda": 7152,
      "uni": 7153,
      "Ġkari": 7154,
      "Ġchief": 7155,
      "lls": 7156,
      "Ġkilichopo": 7157,
      "Ġkadiri": 7158,
      "Ġkukosekana": 7159,
      "ngezwa": 7160,
      "Ġblack": 7161,
      "Ġuzuri": 7162,
      "Ġmsiba": 7163,
      "Ġstory": 7164,
      "Ġmavazi": 7165,
      "ril": 7166,
      "nduku": 7167,
      "Ġmmea": 7168,
      "gr": 7169,
      "Ġak": 7170,
      "Ġmapi": 7171,
      "Ġneema": 7172,
      "Ġschool": 7173,
      "Ġamo": 7174,
      "Ġmiili": 7175,
      "Ġkurasa": 7176,
      "Ġkushangaza": 7177,
      "Ġusumbufu": 7178,
      "Ġmijadala": 7179,
      "ropo": 7180,
      "Ġwalipa": 7181,
      "Ġradio": 7182,
      "Ġwayahudi": 7183,
      "Ġaliyem": 7184,
      "ĠHassan": 7185,
      "Ġpolepole": 7186,
      "sep": 7187,
      "boresho": 7188,
      "Ġmchungaji": 7189,
      "ĠKijiji": 7190,
      "Dk": 7191,
      "Ġangekuwa": 7192,
      "jeli": 7193,
      "ĠKongo": 7194,
      "Ġumesha": 7195,
      "Ġlowassa": 7196,
      "may": 7197,
      "game": 7198,
      "Ġrai": 7199,
      "Ġ80": 7200,
      "husa": 7201,
      "Ġkuanga": 7202,
      "Ġumefika": 7203,
      "milivu": 7204,
      "Ġuhamisho": 7205,
      "Ġindi": 7206,
      "gufuli": 7207,
      "Ġkuheshimu": 7208,
      "vutio": 7209,
      "Ġsente": 7210,
      "Ġwameshindwa": 7211,
      "Ġ500": 7212,
      "Ġdaladala": 7213,
      "Ġwanaharakati": 7214,
      "ĠKitaifa": 7215,
      "Ġunye": 7216,
      "Ġmadha": 7217,
      "Ġmsanii": 7218,
      "lipo": 7219,
      "Ġ1999": 7220,
      "Ġari": 7221,
      "Ġcla": 7222,
      "Ġitasaidia": 7223,
      "Ġutetezi": 7224,
      "Ġmra": 7225,
      "Ġunguja": 7226,
      "ĠMadini": 7227,
      "tuka": 7228,
      "Ġuza": 7229,
      "ishe": 7230,
      "kilisha": 7231,
      "wasiliano": 7232,
      "Ġubaya": 7233,
      "jambo": 7234,
      "jukuu": 7235,
      "ainishwa": 7236,
      "Ġmajeruhi": 7237,
      "sea": 7238,
      "Ġkipekee": 7239,
      "miana": 7240,
      "iomba": 7241,
      "kufanya": 7242,
      "rekodi": 7243,
      "rus": 7244,
      "oooo": 7245,
      "Ġmaria": 7246,
      "Ġvoa": 7247,
      "Ġmpinzani": 7248,
      "Ġmahakimu": 7249,
      "Ġhutumia": 7250,
      "Ġunahitaji": 7251,
      "Ġzinazoendelea": 7252,
      "Ġkariakoo": 7253,
      "Ġsma": 7254,
      "Ġhalija": 7255,
      "Ġvibali": 7256,
      "gan": 7257,
      "Ġendelea": 7258,
      "mbukiza": 7259,
      "Ġkuhudumia": 7260,
      "asili": 7261,
      "shikiliwa": 7262,
      "py": 7263,
      "wao": 7264,
      "way": 7265,
      "Ġkini": 7266,
      "pala": 7267,
      "ngalie": 7268,
      "Ġpiki": 7269,
      "ĠTibai": 7270,
      "Ndiyo": 7271,
      "Mtu": 7272,
      "Ġujamaa": 7273,
      "kusanywa": 7274,
      "Ġmadaraja": 7275,
      "BI": 7276,
      "Ġmidogo": 7277,
      "ngusha": 7278,
      "ĠNde": 7279,
      "Ġukim": 7280,
      "mikali": 7281,
      "Ġkukabidhi": 7282,
      "ikolojia": 7283,
      "suaji": 7284,
      "Ġmea": 7285,
      "Ġright": 7286,
      "bira": 7287,
      "Ġhatuta": 7288,
      "rri": 7289,
      "wasa": 7290,
      "Ġburu": 7291,
      "Ġ1995": 7292,
      "Tuli": 7293,
      "anguka": 7294,
      "des": 7295,
      "Ġkipimo": 7296,
      "Ġwaathirika": 7297,
      "ĠZambia": 7298,
      "Viongozi": 7299,
      "faidika": 7300,
      "ference": 7301,
      "Ġmashahidi": 7302,
      "Ġuhali": 7303,
      "usse": 7304,
      "Ġrepubli": 7305,
      "Ġhauku": 7306,
      "Ġwanaki": 7307,
      "lue": 7308,
      "Ġtunasema": 7309,
      "Ġhatima": 7310,
      "Ġimefanya": 7311,
      "Ġvisivyo": 7312,
      "Ġdua": 7313,
      "Ġunakuta": 7314,
      "Ġkumuua": 7315,
      "leiman": 7316,
      "Ġbata": 7317,
      "Ġsensa": 7318,
      "ĠAskofu": 7319,
      "njia": 7320,
      "Ġufungu": 7321,
      "msingi": 7322,
      "Ġmchu": 7323,
      "Ġurithi": 7324,
      "nena": 7325,
      "redi": 7326,
      "Ġlilipo": 7327,
      "nita": 7328,
      "Ġkuwasiliana": 7329,
      "Ġaliamua": 7330,
      "Ġmashe": 7331,
      "40": 7332,
      "Ġskimu": 7333,
      "ĠHA": 7334,
      "bal": 7335,
      "Ġwaajiri": 7336,
      "ĠMsu": 7337,
      "seveni": 7338,
      "Ġseif": 7339,
      "Ġdaudi": 7340,
      "Ġhayaku": 7341,
      "iro": 7342,
      "fer": 7343,
      "rejeshwa": 7344,
      "Ġvisima": 7345,
      "Ġmtaalamu": 7346,
      "ach": 7347,
      "Ġmguu": 7348,
      "Ġhuta": 7349,
      "Ġweledi": 7350,
      "Ġkukubaliana": 7351,
      "Ġflo": 7352,
      "Ġchafu": 7353,
      "Ġwivu": 7354,
      "Ġmpito": 7355,
      "Ã³": 7356,
      "zindua": 7357,
      "Ġwazanzibar": 7358,
      "uwawa": 7359,
      "jaza": 7360,
      "Ġinaitwa": 7361,
      "Ġwamepata": 7362,
      "Ġthabiti": 7363,
      "ckson": 7364,
      "search": 7365,
      "Ġkuuzwa": 7366,
      "Ġmabilioni": 7367,
      "iled": 7368,
      "Ġmito": 7369,
      "nov": 7370,
      "onald": 7371,
      "Ġilikua": 7372,
      "Ġkiwe": 7373,
      "forma": 7374,
      "wai": 7375,
      "Ġufuatiliaji": 7376,
      "Ġsalamu": 7377,
      "Ġwashitakiwa": 7378,
      "Ġuanachama": 7379,
      "koma": 7380,
      "Ġaliu": 7381,
      "nzaji": 7382,
      "dhini": 7383,
      "Ġmnao": 7384,
      "Ġnyoka": 7385,
      "Ġtwitter": 7386,
      "naomba": 7387,
      "Ġalizaliwa": 7388,
      "Ġfaini": 7389,
      "idhinishwa": 7390,
      "giji": 7391,
      "Ġkukagua": 7392,
      "reno": 7393,
      "ĠAme": 7394,
      "ĠOmar": 7395,
      "Ġkenyatta": 7396,
      "ĠSoka": 7397,
      "Ġlilitokea": 7398,
      "kenya": 7399,
      "Ġmtupu": 7400,
      "Ġfundi": 7401,
      "Ġmkazo": 7402,
      "tegemee": 7403,
      "ĠHuduma": 7404,
      "Ġdhi": 7405,
      "Ġnyuki": 7406,
      "lah": 7407,
      "kuliwa": 7408,
      "pea": 7409,
      "Ġyork": 7410,
      "Waka": 7411,
      "Ġkg": 7412,
      "Ġanaendelea": 7413,
      "Ġfujo": 7414,
      "Ġjr": 7415,
      "ĠJuu": 7416,
      "Ġuhalisia": 7417,
      "cally": 7418,
      "Ġngano": 7419,
      "Ġhospitalini": 7420,
      "wizara": 7421,
      "fundishwa": 7422,
      "Ġwork": 7423,
      "somwa": 7424,
      "kusi": 7425,
      "muliwa": 7426,
      "viti": 7427,
      "ĠMashirika": 7428,
      "isoma": 7429,
      "Ġmajanga": 7430,
      "gaa": 7431,
      "Ġhaipo": 7432,
      "saa": 7433,
      "ndawazi": 7434,
      "ĠTanganyika": 7435,
      "lity": 7436,
      "ndonesia": 7437,
      "Ġatawa": 7438,
      "ĠBush": 7439,
      "Ġmsimamizi": 7440,
      "hilo": 7441,
      "Ġaliona": 7442,
      "frica": 7443,
      "Ġkisicho": 7444,
      "Ġkudumisha": 7445,
      "Ahsante": 7446,
      "lm": 7447,
      "Ġkwakuwa": 7448,
      "ATI": 7449,
      "Ġanti": 7450,
      "Ġiga": 7451,
      "dp": 7452,
      "liti": 7453,
      "Ġhuji": 7454,
      "Ġww": 7455,
      "Ġwalipata": 7456,
      "ĠKiingereza": 7457,
      "tenge": 7458,
      "bini": 7459,
      "Ġanaitwa": 7460,
      "ddi": 7461,
      "jiza": 7462,
      "Ġgunia": 7463,
      "kabla": 7464,
      "Ġmiongozo": 7465,
      "Ġmumewe": 7466,
      "Ġgang": 7467,
      "ĠKila": 7468,
      "onekane": 7469,
      "Ġaccou": 7470,
      "Ġmadhehebu": 7471,
      "Ġeng": 7472,
      "ĠWakuu": 7473,
      "boreshwa": 7474,
      "wawa": 7475,
      "Ġmalawi": 7476,
      "Ġabu": 7477,
      "tambuliwa": 7478,
      "Ġmanyara": 7479,
      "stralia": 7480,
      "SU": 7481,
      "Ġms": 7482,
      "ĠKatoliki": 7483,
      "ĠMbi": 7484,
      "ĠCharles": 7485,
      "Ġmillion": 7486,
      "tary": 7487,
      "Ġgroup": 7488,
      "Ġacheni": 7489,
      "balozi": 7490,
      "Ġruhusa": 7491,
      "Ġmaboresho": 7492,
      "guvu": 7493,
      "ndeni": 7494,
      "Ġstahiki": 7495,
      "semea": 7496,
      "Ġilitoa": 7497,
      "Ġyaku": 7498,
      "sita": 7499,
      "ngali": 7500,
      "rushwa": 7501,
      "Ġee": 7502,
      "Ġwamefanya": 7503,
      "wengine": 7504,
      "Ġkuipa": 7505,
      "come": 7506,
      "Ġmsomi": 7507,
      "Ġwatoa": 7508,
      "Ġwachimbaji": 7509,
      "Ġnilio": 7510,
      "Ġmoro": 7511,
      "ĠBina": 7512,
      "Ġkugundua": 7513,
      "Ġuboreshaji": 7514,
      "Ġsenti": 7515,
      "ĠLA": 7516,
      "hamishwa": 7517,
      "kyembe": 7518,
      "Awali": 7519,
      "dom": 7520,
      "ĠNdani": 7521,
      "Ġhauta": 7522,
      "Ġ70": 7523,
      "LO": 7524,
      "Ġtetesi": 7525,
      "ktaba": 7526,
      "Ġwalisha": 7527,
      "nzu": 7528,
      "ĠUtawala": 7529,
      "Ġwatawa": 7530,
      "Ġupate": 7531,
      "ĠMti": 7532,
      "ges": 7533,
      "Ġiliyofanyika": 7534,
      "Ġmakadirio": 7535,
      "Ġtutaendelea": 7536,
      "Ġmarke": 7537,
      "Wengine": 7538,
      "Ġkw": 7539,
      "kopa": 7540,
      "Ġpanya": 7541,
      "29": 7542,
      "kavu": 7543,
      "Ġkulalamika": 7544,
      "Ġkinye": 7545,
      "ssim": 7546,
      "om": 7547,
      "ngiaji": 7548,
      "Ġkusikiti": 7549,
      "Ġkirefu": 7550,
      "Ġhutoa": 7551,
      "ĠWilliam": 7552,
      "Ġbia": 7553,
      "cheke": 7554,
      "Ġmazishi": 7555,
      "ndamanaji": 7556,
      "',": 7557,
      "kozi": 7558,
      "hola": 7559,
      "nger": 7560,
      "Ġregi": 7561,
      "Ġ300": 7562,
      "tesa": 7563,
      "Ġhufanya": 7564,
      "puuza": 7565,
      "Ġface": 7566,
      "Ġucho": 7567,
      "fuatwa": 7568,
      "Ġufupi": 7569,
      "dr": 7570,
      "haribiwa": 7571,
      "Ġkielelezo": 7572,
      "Ġclo": 7573,
      "Ġtumbaku": 7574,
      "Ġlibya": 7575,
      "Ġrama": 7576,
      "Ġmichache": 7577,
      "ndaliwa": 7578,
      "Ġbiden": 7579,
      "ĠEd": 7580,
      "Ġpikipiki": 7581,
      "He": 7582,
      "Ġkuchochea": 7583,
      "Ġsti": 7584,
      "Ġuaminifu": 7585,
      "Ġyanayohusu": 7586,
      "tics": 7587,
      "sainiwa": 7588,
      "Ġmag": 7589,
      "weni": 7590,
      "Ġbandia": 7591,
      "Ġgeorge": 7592,
      "Ġkiha": 7593,
      "vunjika": 7594,
      "huko": 7595,
      "gement": 7596,
      "Ġmajumbani": 7597,
      "hukumiwa": 7598,
      "Ġlondon": 7599,
      "Ġwapenzi": 7600,
      "book": 7601,
      "ĠMada": 7602,
      "dec": 7603,
      "shitakiwa": 7604,
      "Ġkuwaambia": 7605,
      "Ġasso": 7606,
      "hitimisha": 7607,
      "kukuru": 7608,
      "chapishwa": 7609,
      "tial": 7610,
      "shambuliaji": 7611,
      "----": 7612,
      "mk": 7613,
      "Ġkuwalipa": 7614,
      "bwawa": 7615,
      "Ġwataendelea": 7616,
      "Ġunadhani": 7617,
      "Ġujanja": 7618,
      "hayo": 7619,
      "Ġwaache": 7620,
      "somesha": 7621,
      "Ġkirahisi": 7622,
      "furahisha": 7623,
      "Ġundani": 7624,
      "Ġmitu": 7625,
      "ENYE": 7626,
      "Ġwaliom": 7627,
      "Ġbukoba": 7628,
      "Ġcolo": 7629,
      "Cha": 7630,
      "Ġuthibiti": 7631,
      "tee": 7632,
      "Ġinclu": 7633,
      "jazo": 7634,
      "Ġlitakalo": 7635,
      "Ġsur": 7636,
      "Ġkuhamia": 7637,
      "Ġnadharia": 7638,
      "Ġninayo": 7639,
      "Ġhayupo": 7640,
      "Aliwa": 7641,
      "TAN": 7642,
      "sadi": 7643,
      "sen": 7644,
      "roro": 7645,
      "ĠWapalestina": 7646,
      "Ġyaliyotolewa": 7647,
      "Ġnn": 7648,
      "Ġob": 7649,
      "Ġdiwani": 7650,
      "pige": 7651,
      "beid": 7652,
      "Ġunatakiwa": 7653,
      "mbile": 7654,
      "ungwa": 7655,
      "menta": 7656,
      "ĠIkulu": 7657,
      "ishati": 7658,
      "koni": 7659,
      "Ġjasho": 7660,
      "Ġmomba": 7661,
      "ĠNew": 7662,
      "Ġburudani": 7663,
      "hula": 7664,
      "Ġakifanya": 7665,
      "ussein": 7666,
      "Ġkuvaa": 7667,
      "Ġhahaha": 7668,
      "Ġinam": 7669,
      "Ġmembers": 7670,
      "mzee": 7671,
      "Ġmai": 7672,
      "nyerere": 7673,
      "Ġkise": 7674,
      "Ġwell": 7675,
      "Ġujambazi": 7676,
      "Ġresult": 7677,
      "Ġkizuri": 7678,
      "nuliwa": 7679,
      "Ġkongamano": 7680,
      "ftari": 7681,
      "chukuliwe": 7682,
      "Ġkanisani": 7683,
      "shindikana": 7684,
      "chadema": 7685,
      "Ġpara": 7686,
      "asante": 7687,
      "Ġ33": 7688,
      "Ġmaliasili": 7689,
      "Ġgreat": 7690,
      "Ġkipande": 7691,
      "Ġamin": 7692,
      "Ġhutumika": 7693,
      "Ġkilele": 7694,
      "umia": 7695,
      "ĠBiblia": 7696,
      "Wananchi": 7697,
      "=\"": 7698,
      "mvu": 7699,
      "Ġalipewa": 7700,
      "Ġpas": 7701,
      "gizwa": 7702,
      "ĠPar": 7703,
      "Ġear": 7704,
      "Ġkuchimba": 7705,
      "Ġahmed": 7706,
      "Ġobama": 7707,
      "chochezi": 7708,
      "Ġmnyama": 7709,
      "Ġwanakuja": 7710,
      "boda": 7711,
      "Ġole": 7712,
      "kabila": 7713,
      "Ġkupelekea": 7714,
      "mbawanga": 7715,
      "Ġzinaendelea": 7716,
      "dhuru": 7717,
      "Ġfina": 7718,
      "Ġlevel": 7719,
      "Ġmwizi": 7720,
      "Ġwanaowa": 7721,
      "Ġnitoe": 7722,
      "Ġbest": 7723,
      "ĠIbara": 7724,
      "Ġinterest": 7725,
      "chini": 7726,
      "Ġplan": 7727,
      "nada": 7728,
      "Ġulianza": 7729,
      "ful": 7730,
      "ngazaji": 7731,
      "Ġdarasani": 7732,
      "Ġmlipuko": 7733,
      "Ġkuhama": 7734,
      "Ġkaa": 7735,
      "Ġglo": 7736,
      "jul": 7737,
      "ĠInter": 7738,
      "Ġproject": 7739,
      "ngenezaji": 7740,
      "ngereza": 7741,
      "Ġmost": 7742,
      "Ġsongea": 7743,
      "Ġsan": 7744,
      "Ġukabila": 7745,
      "ashiria": 7746,
      "chambua": 7747,
      "Ġmajaliwa": 7748,
      "Ġzinavyo": 7749,
      "Ġconta": 7750,
      "halafu": 7751,
      "Ġupote": 7752,
      "kum": 7753,
      "Ġitabidi": 7754,
      "Ġira": 7755,
      "huyo": 7756,
      "muuliza": 7757,
      "Ġnyara": 7758,
      "fanua": 7759,
      "ĠMU": 7760,
      "Ġkupenda": 7761,
      "salia": 7762,
      "Ġjumuia": 7763,
      "Ġtoo": 7764,
      "Ġmamia": 7765,
      "Ġtumia": 7766,
      "ĠDR": 7767,
      "Ġsgr": 7768,
      "Ġaliendelea": 7769,
      "Ġprogram": 7770,
      "Ġmwenzi": 7771,
      "mis": 7772,
      "nyonya": 7773,
      "nana": 7774,
      "juwa": 7775,
      "ĠNdi": 7776,
      "Ġwhy": 7777,
      "ttle": 7778,
      "Ġutunzaji": 7779,
      "Ġmwilini": 7780,
      "Ġassocia": 7781,
      "ĠHussein": 7782,
      "kutoka": 7783,
      "Ġyaliyomo": 7784,
      "Ġwavuvi": 7785,
      "Ġinategemea": 7786,
      "kuambia": 7787,
      "Ġkijani": 7788,
      "ricul": 7789,
      "ĠHata": 7790,
      "Ġkiafya": 7791,
      "Ġmanne": 7792,
      "sons": 7793,
      "Ġpeter": 7794,
      "tumiaji": 7795,
      "Ġkujaza": 7796,
      "Ġamini": 7797,
      "pindu": 7798,
      "Ġkumfanya": 7799,
      "ĠNigeria": 7800,
      "nene": 7801,
      "Hawa": 7802,
      "ĠAna": 7803,
      "Ġ45": 7804,
      "mwisho": 7805,
      "Ġutani": 7806,
      "Ġviatu": 7807,
      "mal": 7808,
      "Ġfeki": 7809,
      "Ġwhere": 7810,
      "Ġwataka": 7811,
      "Ġsource": 7812,
      "Ġupasuaji": 7813,
      "Ġnyenzo": 7814,
      "tawaliwa": 7815,
      "nn": 7816,
      "ogo": 7817,
      "Ġwaingereza": 7818,
      "Ġzito": 7819,
      "Ġhy": 7820,
      "Ġviazi": 7821,
      "jomba": 7822,
      "misemi": 7823,
      "Ġkutupa": 7824,
      "Ġkwingine": 7825,
      "Ġlipi": 7826,
      "Ġimeji": 7827,
      "fikie": 7828,
      "Ġkufurahi": 7829,
      "Ġaendelee": 7830,
      "Ġwanatoa": 7831,
      "Ġyanaendelea": 7832,
      "Ġhuweza": 7833,
      "Ġinayopendekezwa": 7834,
      "ĠTibaigana": 7835,
      "ngelea": 7836,
      "Ġzijazo": 7837,
      "ĠNishati": 7838,
      "Ġcame": 7839,
      "ĠMKU": 7840,
      "Ġuwakilishi": 7841,
      "oct": 7842,
      "Ġvicha": 7843,
      "Ġyanayoendelea": 7844,
      "tatu": 7845,
      "Ġinde": 7846,
      "katisha": 7847,
      "Ġlikizo": 7848,
      "wananchi": 7849,
      "city": 7850,
      "Ġmaswala": 7851,
      "jamaa": 7852,
      "Ġukomo": 7853,
      "Ġusoni": 7854,
      "luhishi": 7855,
      "chard": 7856,
      "lution": 7857,
      "Ġkutuma": 7858,
      "Ġkiele": 7859,
      "uzito": 7860,
      "mkia": 7861,
      "Ġkufikisha": 7862,
      "Ġhama": 7863,
      "Ġkutanga": 7864,
      "audi": 7865,
      "del": 7866,
      "Ġkutafakari": 7867,
      "Tanzania": 7868,
      "Ġphd": 7869,
      "ulu": 7870,
      "mary": 7871,
      "Ġmain": 7872,
      "Ġniweze": 7873,
      "ĠMha": 7874,
      "Ġposts": 7875,
      "cture": 7876,
      "mbiki": 7877,
      "ducation": 7878,
      "Ġmedi": 7879,
      "tiri": 7880,
      "Ġmtawala": 7881,
      "ĠMene": 7882,
      "Ġdeci": 7883,
      "ĠMipango": 7884,
      "Ġlenyewe": 7885,
      "rough": 7886,
      "kii": 7887,
      "Ġnabii": 7888,
      "rian": 7889,
      "So": 7890,
      "zil": 7891,
      "gabe": 7892,
      "vunjwa": 7893,
      "Ġstadi": 7894,
      "Ġkiapo": 7895,
      "wacha": 7896,
      "ambatana": 7897,
      "Ġukiangalia": 7898,
      "Ġwalo": 7899,
      "Ġmezani": 7900,
      "Ġmashambulio": 7901,
      "nguu": 7902,
      "ĠAmani": 7903,
      "Ġboss": 7904,
      "Ġ2010": 7905,
      "Ġmaonyesho": 7906,
      "irobi": 7907,
      "Ġkitaalamu": 7908,
      "fungulia": 7909,
      "Ġget": 7910,
      "lya": 7911,
      "mm": 7912,
      "kura": 7913,
      "Ġalifariki": 7914,
      "Ġ36": 7915,
      "Ġkubadilika": 7916,
      "aug": 7917,
      "ĠAfrican": 7918,
      "bro": 7919,
      "gree": 7920,
      "Ġvito": 7921,
      "Ġbaa": 7922,
      "Ġkuachi": 7923,
      "Ġwatapata": 7924,
      "saliti": 7925,
      "Ġmshauri": 7926,
      "ngeti": 7927,
      "choma": 7928,
      "Ġubingwa": 7929,
      "waza": 7930,
      "hatua": 7931,
      "Ġhila": 7932,
      "nks": 7933,
      "pigiwa": 7934,
      "35": 7935,
      "undi": 7936,
      "Ġapewe": 7937,
      "Ġgenge": 7938,
      "Ġmsuku": 7939,
      "Ġkavu": 7940,
      "Ġjaribio": 7941,
      "Ġkuagiza": 7942,
      "Leo": 7943,
      "kretari": 7944,
      "Ġmvi": 7945,
      "Ġwakifanya": 7946,
      "rudishwa": 7947,
      "Ġkimaendeleo": 7948,
      "jun": 7949,
      "boa": 7950,
      "shutumu": 7951,
      "Ġsijawahi": 7952,
      "ĠJumapili": 7953,
      "tafutia": 7954,
      "Ġsentensi": 7955,
      "this": 7956,
      "Ġvitatu": 7957,
      "Ġmweusi": 7958,
      "Ġdire": 7959,
      "wezo": 7960,
      "sifia": 7961,
      "dinga": 7962,
      "Ġsalim": 7963,
      "Ġanatoa": 7964,
      "dee": 7965,
      "Ġninacho": 7966,
      "Ġmarefu": 7967,
      "Ġben": 7968,
      "Ġwalau": 7969,
      "bariki": 7970,
      "jumla": 7971,
      "Ġvitambulisho": 7972,
      "sterday": 7973,
      "tafsiri": 7974,
      "Ġinaonesha": 7975,
      "Ġyatima": 7976,
      "tahidi": 7977,
      "Ġutashi": 7978,
      "ajiriwa": 7979,
      "ĠNCCR": 7980,
      "The": 7981,
      "endi": 7982,
      "Ġbefore": 7983,
      "Ġkheri": 7984,
      "Ġpar": 7985,
      "Ġsuper": 7986,
      "dhoo": 7987,
      "nj": 7988,
      "wari": 7989,
      "ĠSiku": 7990,
      "Bara": 7991,
      "mli": 7992,
      "Ġtoleo": 7993,
      "Ġmilango": 7994,
      "Ġkiini": 7995,
      "Ġramani": 7996,
      "Ġbustani": 7997,
      "ukweli": 7998,
      "Ġini": 7999,
      "patwa": 8000,
      "holanzi": 8001,
      "maka": 8002,
      "Ġprofe": 8003,
      "Ġkuchelewa": 8004,
      "ĠCongo": 8005,
      "Ġdebe": 8006,
      "Ġnimekuwa": 8007,
      "Ġuto": 8008,
      "Ġiliwa": 8009,
      "Ġvilikuwa": 8010,
      "dad": 8011,
      "chokifanya": 8012,
      "ky": 8013,
      "limali": 8014,
      "Ġtoa": 8015,
      "Ġcheti": 8016,
      "Ġspa": 8017,
      "Ġlipumba": 8018,
      "Ġzinaonyesha": 8019,
      "ĠFo": 8020,
      "ISI": 8021,
      "Ġcri": 8022,
      "ĠTLP": 8023,
      "Ġpoa": 8024,
      "Ġjenerali": 8025,
      "HO": 8026,
      "tali": 8027,
      "Ġmadi": 8028,
      "Ġwanaku": 8029,
      "Ġjamiiforums": 8030,
      "Ġsm": 8031,
      "Ġrejea": 8032,
      "Ġmvutano": 8033,
      "Ġplease": 8034,
      "Ġmaandiko": 8035,
      "Ġndiko": 8036,
      "Ġgreen": 8037,
      "Ġkube": 8038,
      "Ġwilliam": 8039,
      "Ġwakaguzi": 8040,
      "Ġhamas": 8041,
      "Ġhum": 8042,
      "Ġalitumia": 8043,
      "hizi": 8044,
      "Ġpumba": 8045,
      "Ġmlinzi": 8046,
      "Ġmaru": 8047,
      "Ġland": 8048,
      "gonga": 8049,
      "Ġty": 8050,
      "ĠWanawake": 8051,
      "Ġalikuja": 8052,
      "mwaga": 8053,
      "Ġprovi": 8054,
      "Ġkisasi": 8055,
      "dh": 8056,
      "olojia": 8057,
      "ute": 8058,
      "Ġzimbabwe": 8059,
      "ifadhi": 8060,
      "Ġform": 8061,
      "ssein": 8062,
      "Mbali": 8063,
      "tafakari": 8064,
      "Ġuendele": 8065,
      "Ġtumea": 8066,
      "wezekanavyo": 8067,
      "Ġtunam": 8068,
      "Hadi": 8069,
      "Ġkaburi": 8070,
      "Ġber": 8071,
      "Ġmaki": 8072,
      "fuka": 8073,
      "SO": 8074,
      "imba": 8075,
      "ngwi": 8076,
      "gawi": 8077,
      "Ġutatu": 8078,
      "Ġupumbavu": 8079,
      "mpaka": 8080,
      "Ġnanyi": 8081,
      "mbulia": 8082,
      "Ġmagaidi": 8083,
      "nunulia": 8084,
      "lling": 8085,
      "Ġkondomu": 8086,
      "Ġushoga": 8087,
      "ungani": 8088,
      "Ġmwenyeji": 8089,
      "Ġkufuga": 8090,
      "ĠBarabara": 8091,
      "Ġitaka": 8092,
      "rtin": 8093,
      "Ġnakumbuka": 8094,
      "cher": 8095,
      "Ġwoga": 8096,
      "Ġtaabu": 8097,
      "Ġishu": 8098,
      "Ġzamu": 8099,
      "Ġaliweza": 8100,
      "feb": 8101,
      "tuambia": 8102,
      "ĠMaalum": 8103,
      "Ġkwaajili": 8104,
      "Ġcontro": 8105,
      "Ġabdallah": 8106,
      "mbwi": 8107,
      "ĠMazingira": 8108,
      "Ġkisayansi": 8109,
      "Ġmmiliki": 8110,
      "Ġumbo": 8111,
      "Ġumiliki": 8112,
      "ndesha": 8113,
      "Ġrep": 8114,
      "baraka": 8115,
      "Ġnashauri": 8116,
      "sulu": 8117,
      "formation": 8118,
      "Ġkuondokana": 8119,
      "karibu": 8120,
      "Ġkuachana": 8121,
      "Ġtafuta": 8122,
      "Ġanaona": 8123,
      "Ġmove": 8124,
      "Ġpen": 8125,
      "ĠMtakatifu": 8126,
      "vunia": 8127,
      "naye": 8128,
      "mahakama": 8129,
      "pira": 8130,
      "Ġjaribu": 8131,
      "ĠKorea": 8132,
      "swira": 8133,
      "Ġinatu": 8134,
      "Ġmajini": 8135,
      "gamboni": 8136,
      "45": 8137,
      "Ġlilia": 8138,
      "zuni": 8139,
      "Ġofisa": 8140,
      "twaa": 8141,
      "ĠChakula": 8142,
      "prof": 8143,
      "geza": 8144,
      "Ġhoma": 8145,
      "qui": 8146,
      "Ġmasikio": 8147,
      "Ġkumwambia": 8148,
      "jumui": 8149,
      "Ġtimamu": 8150,
      "Ġjames": 8151,
      "rds": 8152,
      "ling": 8153,
      "Ġwahalifu": 8154,
      "lami": 8155,
      "Ġutakuta": 8156,
      "Ġdharau": 8157,
      "Ġmizizi": 8158,
      "Ġalikiri": 8159,
      "Ġlong": 8160,
      "Shu": 8161,
      "kuma": 8162,
      "Ġmisimamo": 8163,
      "Ġalikwenda": 8164,
      "Ġkustaafu": 8165,
      "Ġvipaji": 8166,
      "Maka": 8167,
      "dc": 8168,
      "Ġkukuta": 8169,
      "Ġfalsafa": 8170,
      "Ġisiwe": 8171,
      "Ġhar": 8172,
      "fuga": 8173,
      "ist": 8174,
      "mbero": 8175,
      "Napenda": 8176,
      "ondoke": 8177,
      "Ġanapata": 8178,
      "Ġvyovyote": 8179,
      "Ġmwl": 8180,
      "Ġkivuli": 8181,
      "Ġkuzunguka": 8182,
      "Ġkuwahi": 8183,
      "lus": 8184,
      "500": 8185,
      "Ji": 8186,
      "ndae": 8187,
      "ĠBA": 8188,
      "Ġunyanya": 8189,
      "geuzi": 8190,
      "fuatiwa": 8191,
      "ĠHii": 8192,
      "labda": 8193,
      "horofa": 8194,
      "wakabili": 8195,
      "Ġwaliona": 8196,
      "Ġanaamini": 8197,
      "Ġnext": 8198,
      "Ġkinachoendelea": 8199,
      "gs": 8200,
      "ipa": 8201,
      "Ġiwezekanavyo": 8202,
      "UN": 8203,
      "ppe": 8204,
      "IN": 8205,
      "Ġuv": 8206,
      "sana": 8207,
      "Ġkinaweza": 8208,
      "tumaini": 8209,
      "JA": 8210,
      "suko": 8211,
      "Ġkulinganisha": 8212,
      "Ġuchawi": 8213,
      "sambaza": 8214,
      "nzwa": 8215,
      "lp": 8216,
      "Ġkiungo": 8217,
      "Ġmleta": 8218,
      "paswi": 8219,
      "Ġmakombora": 8220,
      "akizungumza": 8221,
      "takabali": 8222,
      "Ġmazito": 8223,
      "ngezea": 8224,
      "rance": 8225,
      "Ġhauwezi": 8226,
      "belgiji": 8227,
      "Uki": 8228,
      "fiji": 8229,
      "PO": 8230,
      "Ġnavyo": 8231,
      "Ġinasemekana": 8232,
      "elezo": 8233,
      "Ġwamewa": 8234,
      "Ġcur": 8235,
      "mbulisha": 8236,
      "tifa": 8237,
      "ndiyo": 8238,
      "ĠSia": 8239,
      "Ġumeanza": 8240,
      "Ġnianze": 8241,
      "Ġhistory": 8242,
      "Ġuzima": 8243,
      "Ġtamisemi": 8244,
      "ĠAnna": 8245,
      "ĠSPIKA": 8246,
      "Ġjukwaani": 8247,
      "kataza": 8248,
      "maafisa": 8249,
      "ĠWilayani": 8250,
      "Ġmp": 8251,
      "Ġkiso": 8252,
      "Ġyaliyotokea": 8253,
      "hamisha": 8254,
      "Ġwanashindwa": 8255,
      "Ġmaalim": 8256,
      "cheze": 8257,
      "Ġkinana": 8258,
      "Ġamepata": 8259,
      "2007": 8260,
      "Ġmc": 8261,
      "ĠCh": 8262,
      "Ġkumpiga": 8263,
      "Ġnilivyosema": 8264,
      "Ġarobaini": 8265,
      "ĠKarume": 8266,
      "MIS": 8267,
      "bs": 8268,
      "rate": 8269,
      "gundu": 8270,
      "ĠShirikisho": 8271,
      "simulia": 8272,
      "nsha": 8273,
      "Ġmsitu": 8274,
      "aaa": 8275,
      "ĠViongozi": 8276,
      "endelezwa": 8277,
      "Ġkurahisisha": 8278,
      "Ġngome": 8279,
      "his": 8280,
      "julisha": 8281,
      "Ġkuitumia": 8282,
      "Ġkutibu": 8283,
      "toweka": 8284,
      "Ġinafaa": 8285,
      "Ġpori": 8286,
      "kretarieti": 8287,
      "Ġwaishi": 8288,
      "Ġuke": 8289,
      "iv": 8290,
      "lipia": 8291,
      "komaa": 8292,
      "fugo": 8293,
      "Ġpengo": 8294,
      "Ġzinazotolewa": 8295,
      "Ġjour": 8296,
      "Ġkufukuzwa": 8297,
      "rta": 8298,
      "Ġthelu": 8299,
      "Ġkuidhi": 8300,
      "Ġmitandaoni": 8301,
      "ingawa": 8302,
      "Ġkifi": 8303,
      "Ġmwajiri": 8304,
      "sherehe": 8305,
      "ïĤ": 8306,
      "nam": 8307,
      "ĠMichezo": 8308,
      "Ġkimkakati": 8309,
      "ĠAfghanistan": 8310,
      "Ġeconomic": 8311,
      "wazo": 8312,
      "Ġwalipokuwa": 8313,
      "ĠKiongozi": 8314,
      "Ġkk": 8315,
      "Ġwajerumani": 8316,
      "beli": 8317,
      "Ġmashambani": 8318,
      "pher": 8319,
      "Ġoffice": 8320,
      "Aliongeza": 8321,
      "mwenye": 8322,
      "Ġalini": 8323,
      "Ġmzito": 8324,
      "Ġmganga": 8325,
      "Ġmsumbiji": 8326,
      "Ġwanahabari": 8327,
      "Ġsafu": 8328,
      "gano": 8329,
      "Ġkiutendaji": 8330,
      "ĠGu": 8331,
      "Ġkimwili": 8332,
      "Ġidhini": 8333,
      "Ġilipata": 8334,
      "Ġtec": 8335,
      "mcha": 8336,
      "badilishwa": 8337,
      "apr": 8338,
      "Ġmcho": 8339,
      "Ġmabwawa": 8340,
      "zushi": 8341,
      "miaka": 8342,
      "ĠWakati": 8343,
      "Ġwalemavu": 8344,
      "hewa": 8345,
      "gation": 8346,
      "Ġanazo": 8347,
      "Ġwakenya": 8348,
      "Ġkuchambua": 8349,
      "Ġmgodi": 8350,
      "mji": 8351,
      "ĠKwanza": 8352,
      "Ġupotevu": 8353,
      "Ġmakusa": 8354,
      "amuru": 8355,
      "Ġkijinsia": 8356,
      "tasari": 8357,
      "tiona": 8358,
      "ĠTatu": 8359,
      "milifu": 8360,
      "Alipo": 8361,
      "CA": 8362,
      "Ġkuhara": 8363,
      "Ġhujuma": 8364,
      "Ġtunacho": 8365,
      "Ġpenye": 8366,
      "yem": 8367,
      "Ġcle": 8368,
      "Haya": 8369,
      "kiwe": 8370,
      "wing": 8371,
      "Ġikitokea": 8372,
      "Ġkubadilishana": 8373,
      "Ġkuru": 8374,
      "pani": 8375,
      "Ġcen": 8376,
      "Ġport": 8377,
      "Ġkemikali": 8378,
      "Ġraslimali": 8379,
      "takia": 8380,
      "Ġwanazi": 8381,
      "kamanda": 8382,
      "Ġitalia": 8383,
      "ĠJames": 8384,
      "Ġtuanze": 8385,
      "fupi": 8386,
      "Ġwamei": 8387,
      "silisha": 8388,
      "mbaa": 8389,
      "ndike": 8390,
      "Ġwaandamanaji": 8391,
      "Ġmapoke": 8392,
      "Ġkishindo": 8393,
      "kuelewa": 8394,
      "ĠSeif": 8395,
      "Ġrobert": 8396,
      "rejesho": 8397,
      "ĠPeter": 8398,
      "tosheleza": 8399,
      "Ġkisingizio": 8400,
      "Ġweb": 8401,
      "nue": 8402,
      "kilize": 8403,
      "yarisha": 8404,
      "Chama": 8405,
      "Ġanakuja": 8406,
      "Ġkuanguka": 8407,
      "nunue": 8408,
      "Ġcompany": 8409,
      "Ġhuman": 8410,
      "ren": 8411,
      "Ġuniversity": 8412,
      "achiwa": 8413,
      "Ġameeleza": 8414,
      "Pe": 8415,
      "Ġati": 8416,
      "Ġutoto": 8417,
      "hoja": 8418,
      "Mfano": 8419,
      "Ġvipya": 8420,
      "Ġreso": 8421,
      "Ġcity": 8422,
      "Ġuchwa": 8423,
      "Ġvikubwa": 8424,
      "Ġthese": 8425,
      "Ġbur": 8426,
      "Ġwalitaka": 8427,
      "onesho": 8428,
      "Kabla": 8429,
      "zwi": 8430,
      "ilikuwa": 8431,
      "mission": 8432,
      "riadha": 8433,
      "ishukuru": 8434,
      "halo": 8435,
      "Ġmasu": 8436,
      "faru": 8437,
      "Ġmkaa": 8438,
      "Ġmatamshi": 8439,
      "bado": 8440,
      "ĠSasa": 8441,
      "Pili": 8442,
      "Ġkuficha": 8443,
      "toi": 8444,
      "Ġchanya": 8445,
      "juzi": 8446,
      "Ġkame": 8447,
      "lee": 8448,
      "Ġalizeti": 8449,
      "Me": 8450,
      "VI": 8451,
      "Ġimeshindwa": 8452,
      "Ġwamem": 8453,
      "miwe": 8454,
      "Ġkupitishwa": 8455,
      "Ġ90": 8456,
      "tekwa": 8457,
      "luki": 8458,
      "Ġkuteua": 8459,
      "zuiwa": 8460,
      "Ġmwendazake": 8461,
      "Ġago": 8462,
      "Ġkibe": 8463,
      "tere": 8464,
      "Ġtembo": 8465,
      "Ġsimulizi": 8466,
      "apa": 8467,
      "Ġkukiwa": 8468,
      "Ġafu": 8469,
      "Ġmsafara": 8470,
      "weli": 8471,
      "Ġuuzaji": 8472,
      "Ġmaktaba": 8473,
      "Ġalikataa": 8474,
      "Ġgaza": 8475,
      "âĢĶ": 8476,
      "swana": 8477,
      "37": 8478,
      "rya": 8479,
      "eleka": 8480,
      "picha": 8481,
      "Ġmapana": 8482,
      "lishwa": 8483,
      "rah": 8484,
      "Ġvika": 8485,
      "Ġkumpata": 8486,
      "36": 8487,
      "Ġmwito": 8488,
      "Ġagainst": 8489,
      "Ġtazama": 8490,
      "Ġtakukuru": 8491,
      "Ġkoo": 8492,
      "ĠPri": 8493,
      "cro": 8494,
      "Ġsent": 8495,
      "Ġfai": 8496,
      "Ġsawasawa": 8497,
      "BC": 8498,
      "pendwa": 8499,
      "Ġdonald": 8500,
      "ndege": 8501,
      "shukiwa": 8502,
      "df": 8503,
      "pari": 8504,
      "Ġuvccm": 8505,
      "Ġmhimili": 8506,
      "Ġomba": 8507,
      "Ġusingizi": 8508,
      "Ġwimbi": 8509,
      "ĠIjumaa": 8510,
      "Basi": 8511,
      "Ġkueneza": 8512,
      "Ġkiburi": 8513,
      "ĠSam": 8514,
      "ĠUwanja": 8515,
      "Ġmabenki": 8516,
      "oza": 8517,
      "nyimwa": 8518,
      "Ġyaliyofanyika": 8519,
      "Ġbodaboda": 8520,
      "xa": 8521,
      "ĠNairobi": 8522,
      "Ġkimarekani": 8523,
      "Ġnywele": 8524,
      "Ġkuelimisha": 8525,
      "Ġkikwazo": 8526,
      "Ġupeo": 8527,
      "Ġviews": 8528,
      "Ġconstitution": 8529,
      "Ġshingo": 8530,
      "Ġfull": 8531,
      "hini": 8532,
      "Ġwaliji": 8533,
      "Ġpapo": 8534,
      "Ġkujiandaa": 8535,
      "Ġruvuma": 8536,
      "unaweza": 8537,
      "Ġseco": 8538,
      "Mkuu": 8539,
      "mela": 8540,
      "Ġmpakani": 8541,
      "amka": 8542,
      "ller": 8543,
      "Akizungumzia": 8544,
      "ĠIrak": 8545,
      "Ġkujeruhiwa": 8546,
      "Ġnyuzi": 8547,
      "ĠUtamaduni": 8548,
      "Jambo": 8549,
      "Ġkumuona": 8550,
      "Ġangani": 8551,
      "Ġmakusanyo": 8552,
      "nazo": 8553,
      "Ġkiukweli": 8554,
      "rai": 8555,
      "ĠMana": 8556,
      "kariri": 8557,
      "shangazwa": 8558,
      "Ġkuwapongeza": 8559,
      "Ġkiamba": 8560,
      "Ġvigogo": 8561,
      "Ġwalitoa": 8562,
      "Ġasse": 8563,
      "Ġmeneja": 8564,
      "Ġmsukumo": 8565,
      "tambulika": 8566,
      "tru": 8567,
      "diliana": 8568,
      "Ġwaamini": 8569,
      "Ġatoe": 8570,
      "Ġhutokea": 8571,
      "ric": 8572,
      "muda": 8573,
      "Ġiweje": 8574,
      "KITI": 8575,
      "Mkutano": 8576,
      "Ġhiti": 8577,
      "burg": 8578,
      "Ġmnataka": 8579,
      "ĠNCHI": 8580,
      "uku": 8581,
      "pimwa": 8582,
      "chafua": 8583,
      "Maa": 8584,
      "mark": 8585,
      "Ġanaishi": 8586,
      "ĠOF": 8587,
      "RIKALI": 8588,
      "hatu": 8589,
      "gawana": 8590,
      "fahamisha": 8591,
      "cle": 8592,
      "whe": 8593,
      "Ġ1998": 8594,
      "Ġkukwepa": 8595,
      "tors": 8596,
      "Ġjapan": 8597,
      "Ġikiwezekana": 8598,
      "gawanyika": 8599,
      "Ġhusababisha": 8600,
      "Ġtaswira": 8601,
      "Ġkuisaidia": 8602,
      "Ġduh": 8603,
      "//": 8604,
      "Ġmbara": 8605,
      "Ġhua": 8606,
      "watanzania": 8607,
      "Ġmpiga": 8608,
      "lilia": 8609,
      "ĠMaria": 8610,
      "Ġreal": 8611,
      "Ġhakukuwa": 8612,
      "Ġchupa": 8613,
      "Ġugani": 8614,
      "Ġmpo": 8615,
      "Ġkuenea": 8616,
      "site": 8617,
      "Ġkumshukuru": 8618,
      "Ġwaone": 8619,
      "Ġmalu": 8620,
      "Ġkukodi": 8621,
      "ENYEKITI": 8622,
      "Ġzinge": 8623,
      "Ġwazawa": 8624,
      "pitio": 8625,
      "Ġuthibitisho": 8626,
      "Pro": 8627,
      "Ġmira": 8628,
      "inisha": 8629,
      "yapata": 8630,
      "nini": 8631,
      "Ġmapo": 8632,
      "Ġunategemea": 8633,
      "Ġmoney": 8634,
      "Ġhaliku": 8635,
      "Ġmsala": 8636,
      "Ġdri": 8637,
      "Maana": 8638,
      "Ġwaganga": 8639,
      "Ġreport": 8640,
      "Ġcommuni": 8641,
      "SP": 8642,
      "taa": 8643,
      "Ġdw": 8644,
      "liani": 8645,
      "ĠKara": 8646,
      "Ġ37": 8647,
      "80": 8648,
      "Ġpaka": 8649,
      "vuruga": 8650,
      "ĠWatoto": 8651,
      "ĠKiafrika": 8652,
      "Ġkumudu": 8653,
      "ĠRuvuma": 8654,
      "andamana": 8655,
      "pangiwa": 8656,
      "Ġwanapenda": 8657,
      "Ġchungu": 8658,
      "Ġnichukue": 8659,
      "Ġbatili": 8660,
      "guo": 8661,
      "ĠUchumi": 8662,
      "Ġautho": 8663,
      "Ġkukarabati": 8664,
      "ĠDuniani": 8665,
      "upata": 8666,
      "nadhani": 8667,
      "Ġakaenda": 8668,
      "vamiwa": 8669,
      "Ġnyekundu": 8670,
      "Ġaliyokuwa": 8671,
      "Ġupimaji": 8672,
      "pingana": 8673,
      "gea": 8674,
      "Ġukienda": 8675,
      "Ġvyoo": 8676,
      "Ġmalezi": 8677,
      "Ġrudi": 8678,
      "ĠBaada": 8679,
      "Mkurugenzi": 8680,
      "Ġnasikia": 8681,
      "Ġmwenge": 8682,
      "Ġghana": 8683,
      "SHI": 8684,
      "Ġ?": 8685,
      "haba": 8686,
      "ption": 8687,
      "safirisha": 8688,
      "Ġnazi": 8689,
      "rojo": 8690,
      "ĠAfisa": 8691,
      "Ġmigodi": 8692,
      "Ġmari": 8693,
      "Ġsuch": 8694,
      "Ġkitakuwa": 8695,
      "shughulika": 8696,
      "Ġbecause": 8697,
      "ïĤ·": 8698,
      "dor": 8699,
      "Ġnyuklia": 8700,
      "rekebishwa": 8701,
      "lish": 8702,
      "tur": 8703,
      "Ġdsm": 8704,
      "ĠWajumbe": 8705,
      "ussia": 8706,
      "Ġagree": 8707,
      "Ġsc": 8708,
      "Ġharufu": 8709,
      "Ġkuambiwa": 8710,
      "Ġkuzo": 8711,
      "Ġmabaraza": 8712,
      "Ġdpw": 8713,
      "fti": 8714,
      "ikiwa": 8715,
      "Ġifanye": 8716,
      "ĠKua": 8717,
      "tikane": 8718,
      "grafia": 8719,
      "mokrasi": 8720,
      "fasi": 8721,
      "ĠAwamu": 8722,
      "Ġualimu": 8723,
      "kwanini": 8724,
      "Ġmika": 8725,
      "ĠBer": 8726,
      "lson": 8727,
      "yake": 8728,
      "Ġamerica": 8729,
      "ĠMkazi": 8730,
      "Ġanaku": 8731,
      "Ġfrancis": 8732,
      "Ġsaratani": 8733,
      "Ġrc": 8734,
      "Ġ34": 8735,
      "://": 8736,
      "Ġuhifadhi": 8737,
      "miyu": 8738,
      "Ġvitendea": 8739,
      "Ġubinafsishaji": 8740,
      "ama": 8741,
      "mwezi": 8742,
      "Ġulicho": 8743,
      "Ġkitanzania": 8744,
      "Ġkilichokuwa": 8745,
      "Ġkikristo": 8746,
      "Suala": 8747,
      "Ġsukuma": 8748,
      "thro": 8749,
      "tazamiwa": 8750,
      "ĠCon": 8751,
      "Mwisho": 8752,
      "RU": 8753,
      "curi": 8754,
      "Ġuislamu": 8755,
      "laza": 8756,
      "loli": 8757,
      "unganishwa": 8758,
      "Ġnampongeza": 8759,
      "funi": 8760,
      "Ġparti": 8761,
      "Ġshiriki": 8762,
      "Ġmfawidhi": 8763,
      "tokee": 8764,
      "Ġndie": 8765,
      "Ġkukimbilia": 8766,
      "Ġcro": 8767,
      "dhami": 8768,
      "Ġkutathmini": 8769,
      "Ġmombasa": 8770,
      "vji": 8771,
      "Ingawa": 8772,
      "Ġeli": 8773,
      "Ġhatuku": 8774,
      "Ġserekali": 8775,
      "changiwa": 8776,
      "ep": 8777,
      "lka": 8778,
      "ue": 8779,
      "ĠMradi": 8780,
      "Hiyo": 8781,
      "Ġunaoendelea": 8782,
      "Ġnuru": 8783,
      "wasaidia": 8784,
      "tory": 8785,
      "ĠChu": 8786,
      "Ġwalengwa": 8787,
      "Ġwarudi": 8788,
      "Ġmkandarasi": 8789,
      "Tatizo": 8790,
      "goda": 8791,
      "nus": 8792,
      "Ġunafanya": 8793,
      "Ġputin": 8794,
      "Ġkuibuka": 8795,
      "ngle": 8796,
      "Ġhuzuni": 8797,
      "Ġtbc": 8798,
      "Ġkutenga": 8799,
      "fereji": 8800,
      "waya": 8801,
      "ngukia": 8802,
      "eld": 8803,
      "ĠNAIBU": 8804,
      "Ġfika": 8805,
      "Ġmpangilio": 8806,
      "Ġ32": 8807,
      "Ġalfa": 8808,
      "Polisi": 8809,
      "han": 8810,
      "Ġkasema": 8811,
      "Ġkutamka": 8812,
      "Ġufadhili": 8813,
      "zikwa": 8814,
      "tian": 8815,
      "ndikiza": 8816,
      "Ġmawi": 8817,
      "Ġkizui": 8818,
      "Ġsay": 8819,
      "Ġlinapo": 8820,
      "Ġtumesha": 8821,
      "sapp": 8822,
      "Ġsindano": 8823,
      "goo": 8824,
      "Ġhafi": 8825,
      "huni": 8826,
      "hudumu": 8827,
      "teseka": 8828,
      "seke": 8829,
      "Ġinadaiwa": 8830,
      "Ġinatarajiwa": 8831,
      "Ġmuseveni": 8832,
      "htasari": 8833,
      "Ġiliendelea": 8834,
      "Ġkutolea": 8835,
      "Ġpiga": 8836,
      "Ġtunai": 8837,
      "Ġgavana": 8838,
      "Ġitatoa": 8839,
      "Ġwakasema": 8840,
      "Ġukiona": 8841,
      "Ġmdu": 8842,
      "ĠMsi": 8843,
      "kumbusho": 8844,
      "Ġkufariki": 8845,
      "pakana": 8846,
      "Ġusahihi": 8847,
      "uters": 8848,
      "hamma": 8849,
      "Ġyesterday": 8850,
      "Ġwigo": 8851,
      "Sehemu": 8852,
      "hadharisha": 8853,
      "Ġmpenzi": 8854,
      "Ġjembe": 8855,
      "Ġltd": 8856,
      "Ġkibinafsi": 8857,
      "shwi": 8858,
      "punguzwa": 8859,
      "Ġjimboni": 8860,
      "zuiliwa": 8861,
      "scar": 8862,
      "Ġziweze": 8863,
      "Ġmusoma": 8864,
      "Ġhospita": 8865,
      "Ġmajeraha": 8866,
      "round": 8867,
      "Ġ[": 8868,
      "chael": 8869,
      "mbuko": 8870,
      "ĠHifadhi": 8871,
      "Ġukristo": 8872,
      "Ġhakina": 8873,
      "ĠViwanda": 8874,
      "Ġkuepusha": 8875,
      "ĠMawasiliano": 8876,
      "Ġdai": 8877,
      "nnes": 8878,
      "uko": 8879,
      "yali": 8880,
      "Ġanatu": 8881,
      "Ġuda": 8882,
      "kite": 8883,
      "Ġkuadhi": 8884,
      "Ġtunafanya": 8885,
      "ĠPili": 8886,
      "mwomba": 8887,
      "tle": 8888,
      "wongozo": 8889,
      "kusaidia": 8890,
      "ĠMla": 8891,
      "Ġtabu": 8892,
      "guswa": 8893,
      "Ġmosi": 8894,
      "aminika": 8895,
      "ntu": 8896,
      "Ġkufikishwa": 8897,
      "muomba": 8898,
      "Ġtum": 8899,
      "Ġpass": 8900,
      "Ġtendo": 8901,
      "Ġdown": 8902,
      "Ġkusahau": 8903,
      "pokelewa": 8904,
      "Ġmdhibiti": 8905,
      "Ġkufunguliwa": 8906,
      "work": 8907,
      "Ġwanakwenda": 8908,
      "lub": 8909,
      "Ġutaalamu": 8910,
      "ent": 8911,
      "Ġitu": 8912,
      "Ġalihoji": 8913,
      "ibua": 8914,
      "Ġrights": 8915,
      "pale": 8916,
      "muko": 8917,
      "Ġmiungu": 8918,
      "suka": 8919,
      "Ġmshtakiwa": 8920,
      "mewa": 8921,
      "Ġwest": 8922,
      "Ġevery": 8923,
      "Ġkitaaluma": 8924,
      "Ġkuwaondoa": 8925,
      "doa": 8926,
      "idadi": 8927,
      "Te": 8928,
      "Ġwater": 8929,
      "Ġbeing": 8930,
      "ndaaji": 8931,
      "Ġbashiru": 8932,
      "Ġuyo": 8933,
      "ĠMbu": 8934,
      "Ġzinapo": 8935,
      "ĠSy": 8936,
      "Ġkufuatana": 8937,
      "ĠHamad": 8938,
      "ngenezwa": 8939,
      "tokanayo": 8940,
      "rew": 8941,
      "Ġeven": 8942,
      "Ġmengineyo": 8943,
      "ining": 8944,
      "Ġmichael": 8945,
      "Ġarabia": 8946,
      "Ġnjoo": 8947,
      "Ġwaheshimiwa": 8948,
      "slaa": 8949,
      "of": 8950,
      "nguliwa": 8951,
      "Ġndugai": 8952,
      "fariji": 8953,
      "sambazwa": 8954,
      "Ġkutangazwa": 8955,
      "ways": 8956,
      "longo": 8957,
      "ĠDaudi": 8958,
      "Ġcomp": 8959,
      "Ġconte": 8960,
      "Ġzimea": 8961,
      "beti": 8962,
      "ĠUfundi": 8963,
      "Ġkidiplomasia": 8964,
      "Ġservice": 8965,
      "Ġwakitaka": 8966,
      "Ġmalkia": 8967,
      "Ġmdau": 8968,
      "ĠAbu": 8969,
      "Ġshimo": 8970,
      "Ġkukomesha": 8971,
      "pta": 8972,
      "Ġkulazimisha": 8973,
      "Ġmabaki": 8974,
      "fungia": 8975,
      "Ġwanakula": 8976,
      "Ġanaeleza": 8977,
      "Ġnumber": 8978,
      "Ġkupotea": 8979,
      "Ġkidu": 8980,
      "Ġviwandani": 8981,
      "Ġwaliuawa": 8982,
      "gusia": 8983,
      "zuru": 8984,
      "ĠUhuru": 8985,
      "Ġwakidai": 8986,
      "ĠSumaye": 8987,
      "spo": 8988,
      "twi": 8989,
      "Ġaugu": 8990,
      "punguzia": 8991,
      "john": 8992,
      "Ġkuvuruga": 8993,
      "ĠPaul": 8994,
      "umba": 8995,
      "Ġmaonesho": 8996,
      "ndust": 8997,
      "Ġpetroli": 8998,
      "Ġnge": 8999,
      "ĠSI": 9000,
      "Ġameamua": 9001,
      "kumbukwa": 9002,
      "Ġdume": 9003,
      "msaidia": 9004,
      "Ġmany": 9005,
      "Ġkuimba": 9006,
      "Ġtunaendelea": 9007,
      "ĠKiarabu": 9008,
      "Ġthrough": 9009,
      "Ġhere": 9010,
      "34": 9011,
      "Nam": 9012,
      "Ġalishindwa": 9013,
      "Ġsearch": 9014,
      "Mama": 9015,
      "Ġwasiokuwa": 9016,
      "gemezi": 9017,
      "ĠAh": 9018,
      "ĠWatendaji": 9019,
      "Ġitafanya": 9020,
      "Ġkuwajibika": 9021,
      "Ġkon": 9022,
      "Ġmkonge": 9023,
      "Ġcome": 9024,
      "bomoa": 9025,
      "ĠTawala": 9026,
      "Ġkuvuka": 9027,
      "ole": 9028,
      "Ġwapumbavu": 9029,
      "low": 9030,
      "Ġunai": 9031,
      "ĠKimarekani": 9032,
      "Ġwakiongozwa": 9033,
      "beru": 9034,
      "Ġwaziwazi": 9035,
      "ĠSayansi": 9036,
      "Ġkikoloni": 9037,
      "Ġufunguzi": 9038,
      "Ġfollo": 9039,
      "ĠMsajili": 9040,
      "Ġmusi": 9041,
      "Ġhakikisha": 9042,
      "hudhuriwa": 9043,
      "rope": 9044,
      "Ġresearch": 9045,
      "ĠBora": 9046,
      "ĠMwanasheria": 9047,
      "32": 9048,
      "shington": 9049,
      "kutane": 9050,
      "Ġalivyokuwa": 9051,
      "kumbe": 9052,
      "Ġmwarabu": 9053,
      "ĠRobert": 9054,
      "Sheria": 9055,
      "Ġkushuhudia": 9056,
      "ĠMsaidizi": 9057,
      "chapa": 9058,
      "ndoo": 9059,
      "ĠMakamba": 9060,
      "Ġmidomo": 9061,
      "Ġalitangaza": 9062,
      "ĠMako": 9063,
      "Ġwahisani": 9064,
      "ipo": 9065,
      "Ġkikazi": 9066,
      "Ġkinywa": 9067,
      "shana": 9068,
      "ĠMasa": 9069,
      "Ġjumbe": 9070,
      "Ġsyria": 9071,
      "ukwaji": 9072,
      "kiongozi": 9073,
      "Ġanatumia": 9074,
      "Ġunapata": 9075,
      "mnamo": 9076,
      "onyeshwa": 9077,
      "scri": 9078,
      "Ġakaji": 9079,
      "Ġazam": 9080,
      "ula": 9081,
      "titi": 9082,
      "Ġhekalu": 9083,
      "Ġalili": 9084,
      "Ġkumtaka": 9085,
      "Ġninaomba": 9086,
      "Ġsarafu": 9087,
      "Bila": 9088,
      "Ġwajue": 9089,
      "kizi": 9090,
      "suf": 9091,
      "Ġkuandamana": 9092,
      "Ġnyadhifa": 9093,
      "Ġkle": 9094,
      "Ġapa": 9095,
      "tusi": 9096,
      "Ġyeho": 9097,
      "ĠWaka": 9098,
      "Ġimetolewa": 9099,
      "Ġkutazama": 9100,
      "orodhe": 9101,
      "Ġkijerumani": 9102,
      "shtaki": 9103,
      "ĠWaa": 9104,
      "ĠNgo": 9105,
      "ungane": 9106,
      "cate": 9107,
      "pelekwe": 9108,
      "Ġikiwamo": 9109,
      "Ġig": 9110,
      "Ġonyo": 9111,
      "Ġwamepewa": 9112,
      "Ġnyeusi": 9113,
      "Ġmasilahi": 9114,
      "Ġuchwara": 9115,
      "Ġpingamizi": 9116,
      "hamiaji": 9117,
      "fied": 9118,
      "Ġnever": 9119,
      "Ġnyeupe": 9120,
      "Ġchoo": 9121,
      "Ġhajawahi": 9122,
      "Ġurafiki": 9123,
      "Ġagricul": 9124,
      "38": 9125,
      "nko": 9126,
      "rewe": 9127,
      "Ġmaajabu": 9128,
      "IA": 9129,
      "mande": 9130,
      "shirikiano": 9131,
      "chika": 9132,
      "Ġkurudia": 9133,
      "Ġmre": 9134,
      "Ġudi": 9135,
      "Ġkisima": 9136,
      "Ġtuseme": 9137,
      "Ġpambano": 9138,
      "ĠKisha": 9139,
      "Ġkutawa": 9140,
      "jeni": 9141,
      "Ġlimea": 9142,
      "Ġnyengine": 9143,
      "Ġwenzako": 9144,
      "ĠSongea": 9145,
      "chocheo": 9146,
      "dhamiria": 9147,
      "Ġnakubaliana": 9148,
      "Ġdid": 9149,
      "nsela": 9150,
      "ntho": 9151,
      "Ġmje": 9152,
      "ĠMali": 9153,
      "Ġulaji": 9154,
      "yal": 9155,
      "Ġdavid": 9156,
      "Amesema": 9157,
      "Hoja": 9158,
      "poli": 9159,
      "Ġtuliona": 9160,
      "Ġpopu": 9161,
      "Ġinsta": 9162,
      "Ġsubira": 9163,
      "Ġtunaamini": 9164,
      "Ġpho": 9165,
      "cela": 9166,
      "Ġalivyosema": 9167,
      "Ġarudi": 9168,
      "Ġmakatibu": 9169,
      "Ġinaji": 9170,
      "adamu": 9171,
      "ĠDA": 9172,
      "zungumzie": 9173,
      "Ġbmk": 9174,
      "Ġtakataka": 9175,
      "Ġsupport": 9176,
      "lalisha": 9177,
      "ĠMfalme": 9178,
      "patano": 9179,
      "Ġwashauri": 9180,
      "tivi": 9181,
      "VU": 9182,
      "Ġtumaini": 9183,
      "?\"": 9184,
      "ĠMagereza": 9185,
      "Ġmsongamano": 9186,
      "Ġyapi": 9187,
      "Ġtakatifu": 9188,
      "Ġmwanya": 9189,
      "Ġyanapo": 9190,
      "ĠRussia": 9191,
      "Ġunaonyesha": 9192,
      "Ġcould": 9193,
      "Ġmauti": 9194,
      "mohamed": 9195,
      "Ġamefariki": 9196,
      "ĠMifugo": 9197,
      "Ġanayeweza": 9198,
      "Ġcourt": 9199,
      "Ġkushindana": 9200,
      "Ġmustakabali": 9201,
      "Ġwadhamini": 9202,
      "bomo": 9203,
      "Ko": 9204,
      "Ġkivi": 9205,
      "kiangalia": 9206,
      "RD": 9207,
      "Ġmbwe": 9208,
      "mize": 9209,
      "komeza": 9210,
      "chuma": 9211,
      "Ġnec": 9212,
      "Ġvinaweza": 9213,
      "Ġnatoa": 9214,
      "face": 9215,
      "tera": 9216,
[...]
